[PAD]
[UNK]
[CLS]
[SEP]
[MASK]
!
"
#
$
%
&
'
(
)
*
+
,
-
.
/
0
1
2
3
4
5
6
7
8
9
:
;
<
=
>
?
@
[
\
]
^
_
`
a
b
c
d
e
f
g
h
i
j
k
l
m
n
o
p
q
r
s
t
u
v
w
x
y
z
{
|
}
~
ᄀ
ᄁ
ᄂ
ᄃ
ᄄ
ᄅ
ᄆ
ᄇ
ᄈ
ᄉ
ᄊ
ᄋ
ᄌ
ᄍ
ᄎ
ᄏ
ᄐ
ᄑ
ᄒ
ᅡ
ᅢ
ᅣ
ᅤ
ᅥ
ᅦ
ᅧ
ᅨ
ᅩ
ᅪ
ᅫ
ᅬ
ᅭ
ᅮ
ᅯ
ᅰ
ᅱ
ᅲ
ᅳ
ᅴ
ᅵ
ᆨ
ᆩ
ᆪ
ᆫ
ᆬ
ᆭ
ᆮ
ᆯ
ᆰ
ᆱ
ᆲ
ᆳ
ᆴ
ᆵ
ᆶ
ᆷ
ᆸ
ᆹ
ᆺ
ᆻ
ᆼ
ᆽ
ᆾ
ᆿ
ᇀ
ᇁ
ᇂ
ㄱ
ㄲ
ㄳ
ㄴ
ㄵ
ㄷ
ㄸ
ㄹ
ㄺ
ㄻ
ㄽ
ㅀ
ㅁ
ㅂ
ㅃ
ㅄ
ㅅ
ㅆ
ㅇ
ㅈ
ㅉ
ㅊ
ㅋ
ㅌ
ㅍ
ㅎ
ㅏ
ㅐ
ㅑ
ㅒ
ㅓ
ㅔ
ㅕ
ㅖ
ㅗ
ㅘ
ㅙ
ㅚ
ㅛ
ㅜ
ㅝ
ㅞ
ㅟ
ㅠ
ㅡ
ㅢ
ㅣ
##ᅯ
##ᄎ
##ᅵ
##ᄐ
##ᅩ
##ᄂ
##ᄋ
##ᅡ
##ᅮ
##ᄒ
##ᄀ
##ᄃ
##6
##0
##ᄅ
##ᅦ
##ᅳ
##ᅣ
##ᄉ
##ᆷ
##ᆸ
##ᅧ
##ᆼ
##ᄌ
##ᆻ
##ᄆ
##ᆫ
##ᅢ
##ᄇ
##ᅪ
##ᆨ
##ᇁ
##ᄁ
##ᆯ
##ᅥ
##9
##ᆮ
##ᇂ
##ᄑ
##ᅬ
##ᅲ
##ᆺ
##ᄏ
##ᅭ
##ᆽ
##ᇀ
##c
##1
##ᆿ
##ᄄ
##ᄊ
##ᅱ
##8
##ㅋ
##v
##e
##ᄈ
##ᆬ
##ᅨ
##s
##5
##ᅴ
##ᆹ
##ᆭ
##ᄍ
##ᅫ
##ㅇ
##2
##ᆩ
##k
##ㅁ
##ㄱ
##ㅜ
##ᆲ
##ᆾ
##i
##t
##h
##ㅅ
##4
##ᆳ
##p
##l
##ㅠ
##ㄴ
##ㄹ
##n
##f
##j
##d
##b
##ᆱ
##ㄷ
##g
##ㅗ
##ㄸ
##ㅑ
##7
##ᅰ
##a
##o
##r
##ᆰ
##ᅤ
##ㅈ
##q
##3
##ㅊ
##ㅉ
##w
##m
##ㅂ
##ㅓ
##x
##ㅏ
##ㅡ
##ᆶ
##ㅍ
##y
##u
##ㅎ
##ᆴ
##ㅣ
##ㅔ
##ㅌ
##ㄲ
##ㅕ
##ㅛ
##ㅃ
##z
##ㅆ
##ㅒ
##ㅘ
##ㅚ
##ㅢ
##ᆪ
##ㅐ
##ㄺ
##ᆵ
##ㅖ
##ㅞ
##ㅟ
##ㄻ
##ㄳ
##ㅄ
##ㅙ
##ㅝ
##ㄽ
##ㅀ
##이
##ᅳᆫ
##ᅡᆫ
##ㅋㅋ
##는
##ᅳᆯ
##ᅡᆯ
##가
##ᅡᆼ
이
##지
##ᅥᆫ
##ᅧᆫ
##하
##다
##리
##고
##어
##시
##도
##데
##거
##나
##서
##에
##ᅳᆷ
##라
##아
##기
##ㅋㅋㅋㅋ
##은
##니
##ᅮᆫ
아
##들
##로
##면
##냐
##ᅵᆫ
##네
##게
##ᅧᆼ
조
##보
##스
어
##해
##ᅮᆯ
##자
##저
##인
##ᅩᆼ
##ᅩᆯ
나
##주
##야
##드
가
시
##한
##는데
저
##음
##마
##만
##ᅩᆫ
하
##구
오
지
##러
##사
##ᅢᆯ
마
사
##ᅢᆼ
##으
##임
그
##ᅮᆼ
##ᅯᆫ
##려
안
##ᅩᆨ
##까
다
##트
##요
##대
##오
##노
##제
##바
##ᅥᆯ
여
##수
보
##ᅥᆨ
##일
기
##을
##미
##발
##는거
모
##조
##ᅳᆼ
##여
##치
##ᅡᆨ
##ᆻ다
##래
왜
##되
##상
진
##화
##의
##우
##ᆻ는데
##ㅋㅋㅋㅋㅋㅋㅋㅋ
##랑
##갤
##와
##ᅥᆷ
##정
##비
##ᅢᆨ
##전
##장
##부
##레
자
##무
##디
##끼
개
##같
##그
스
아니
한
있
##금
근
##신
##버
##타
바
##세
##짜
뭐
미
##에서
##함
유
대
내
해
##원
##때
야
##성
##유
##진
##테
##ᅮᆨ
##늘
##겨
정
##새
##터
##르
##티
##피
수
무
오늘
##건
좋
없
##간
진짜
##으로
##있
서
ㅋㅋㅋ
와
존
우
제
##년
##히
인
씨
고
비
##하는
##모
##애
근데
에
##안
ㅋㅋ
요
##차
노
##키
이거
##ᆨ이
일
애
##과
##워
##던
좆
##개
전
##번
너
잘
##카
##할
거
신
##ᆻ네
존나
##으면
주
##ᅧᆯ
##중
##람
##각
못
##생
화
##소
피
##인데
공
##ᅦ이
##방
##동
##문
##루
소
생
##00
##분
부
##새끼
##없
##더
##파
갤
트
##를
##프
##ᆷ이
##케
##직
##위
##크
##재
##내
ㅋㅋㅋㅋㅋ
##ᅣᆼ
되
만
##린
ㄹㅇ
##니까
##하면
##좀
올
재
##ᅦᆫ
##글
##단
##ᆷ들
도
##봐
##즈
알
지금
##하고
같
##코
더
##국
##ᅢᆫ
방
차
##실
##처
##먹
##ᆻ어
##적
중
##식
##캐
##명
머
니
리
##긴
##작
##ᅦᆯ
##씨
키
상
라
구
새
누
##pg
##능
##호
##런
파
##ᇂ게
##본
##ㅋㅋㅋ
jpg
##운
##준
##듯
##긔
##영
##공
##선
##토
##점
##싶
##민
어ᄄ
세
코
많
##질
##천
과
좀
언
##녀
##계
##ᅮᆼ이
##져
##브
김
##ᆼ이
버
##ㄷㄷ
남
시발
##말
##들이
문
##ᆻ음
원
##업
예
말
##연
##체
영
드
##라고
##포
게
##한테
##같은
치
##당
##까지
추
##ᆸ니
##심
카
레
성
맞
##림
##배
##감
선
느
너무
##급
##냥
타
##보다
##ᆸ니다
##경
##고싶
난
##님
##는게
##형
##ㅡㅡ
연
처
##줘
##남
씨발
##커
##용
경
##들은
배
##태
디
##회
로
실
얼
##물
##매
생각
먹
프
이제
##플
##친
들
장
살
최
히
##하게
ㅋㅋㅋㅋ
##격
할
티
##반
사람
ㅋㅋㅋㅋㅋㅋㅋㅋㅋ
##하네
##퍼
나오
##들아
##속
##온
##달
쓰
박
##머
##돌
강
포
솔
설
10
##울
이유
##즘
##붕이
##근
불
##날
메
##망
##추
돌
##승
##ᅩᆸ
아이
캐
##됨
##너
##줄
##ᅧᆾ
##통
##두
##ᅵᆨ
##살
##짤
이번
본
그냥
##ᆻ냐
##따
##부터
어디
##이랑
##쳐
##송
##패
요즘
현
또
씹
##하냐
##다고
##올
##력
##메
##든
##증
##걸
##표
##판
병
##창
##름
##페
##산
매
##강
##럼
몇
##슨
##현
##ᆻ으면
##받
재미
##해서
##ᆭ아
호
##관
##ᆸ이
##투
패
##ᅡᆯ리
투
##한거
입
##하는거
동
vs
뭔
후
##스트
받
##쓰
데
##혀
##ᆻ지
그래
계
##사람
##른
뉴
##료
##란
질
봐
##꾸
토
망
##충
언제
##시간
##ᆨ스
##법
브
##은데
커
20
##레이
##병
ㅅㅂ
##누
감
글
##찬
내가
초
좋아
위
##ᅳᇀ
##리는
##학
##류
##월
##겜
##련
##교
하나
역
##하지
결
점
##렇게
##복
##난
확
##직히
어떠
##나오
##박
발
반
##석
##은거
우리
##겠다
의
워
##후
##퀴
단
여자
##절
##못
##ᆻ노
솔직히
##된
외
##갈
크
얘
않
까
똥
##언
##좋
##던데
##입
##벤
##길
##초
##하다
##귀
##돼
새끼
##한다
들어
여기
##ㅅㅅ
염
##이라
손
싸
걍
##해야
따
##행
##밥
병신
##청
##움
페
##역
두
##집
##군
국
귀
##츠
##정도
때
##딱
##ㅠㅠ
##빠
##이네
이런
##ᅡᆯ아
##것
##예
##출
##줌
추천
##들어
어떻게
##규
##싸
##쉬
물
꼴
틀
심
##좆
친
제일
작
싶
필
짤
채
블
##는건
복
##지마
질문
꼬
분
##권
##ᅮᆷ
얼마
많이
ㅇㅇ
##억
삼
##ᆺ다
##더라
돈
##인가
엘
가능
##환
##맞
철
테
##블
##종
아직
당
##릭
뒤
##아니
##스타
##면서
##합
##독
##ㅌㅊ
##약
양
빠
끝
내일
##느
눈
##ᆺ기
##보고
어케
떠
있음
##써
##굴
##않
##하는데
뉴비
##새끼들
특
##중에
죽
##섭
##ᅩᆯ라
다시
##목
##릴
있어
##션
관
네
##야지
##거같
##설
평
##ᆻ을
넘
어제
걸
##세요
##ᅧᆷ
##이냐
누구
ㅈㄴ
게임
##튜
##검
##이야
##록
##결
태
##이면
##잘
##했는데
##이나
11
방송
금
클
나와
하는
집
##ᅳᆨ
플
##ᆸ다
12
##순
이상
##희
##ᅧᆨ
안되
민
간
루
##찌
열
누가
gi
##백
풀
##잖아
##랄
별
찍
##알
##엔
##ᆻ던
나도
##했다
##있음
운
##해도
달
적
##락
건
##색
ㅋㅋㅋㅋㅋㅋ
##ㅋㅋㅋㅋㅋ
##짐
##볼
##열
##황
##고싶다
##ᆺ는데
##보면
갤러
볼
보고
##론
##봄
##벌
gif
##꺼
백
##딩
##베
떡
##외
##어서
직
날
무슨
##향
##라이
##존
##ᆻ나
아님
##ㅋㅋㅋㅋㅋㅋㅋㅋㅋㅋㅋㅋㅋㅋㅋㅋ
완
##등
은
음
잡
##탈
뽑
이ᄈ
왤
약
##팅
허
##즌
막
30
아무
속
쳐
##불
##잡
짜
##텐
##양
홍
##폰
##슬
이게
함
응
찌
통
출
##축
##ᅫᆫ
노래
##이지
천
이벤
##이다
##깨
##ᆷ에
모르
##찍
##이어
##콘
순
딱
##려고
형
##잇
탈
##편
광
##대로
갑
있냐
##채
욕
써
##ㅡㅡㅡㅡ
님들
##뽑
던
목
다음
접
길
한국
##덕
뭐냐
##구나
##곡
교
##클
검
##링
시작
폭
##봉
##지않
쉬
##쿠
##같은데
보면
##만에
일본
괜
알아
##징
##령
##술
##킨
##다가
15
##탄
승
##ᅥᆯ어
##지는
갓
100
터
##랜
##밍
월
##놓
##샤
##이가
##킬
##팀
##악
참
##하나
##겠지
편
업
##리고
겜
베
골
다른
온
갈
본인
이렇게
##을까
##얼
##할때
##혼
##거임
왤케
염보
아니냐
제발
싫
##겠네
##틀
롤
돼
##닉
임
##전에
사실
##ᆸ네
##리가
##레이드
엄
학
깨
애들
##처럼
##택
군
슬
용
남자
그러
##이는
13
##앱
##픽
##놈
##만원
뿡
올라
##별
##더니
##뜨
##는거임
친구
합
##험
바ᄁ
악
##족
원래
##있냐
헤
##왕
ㄷㄷ
##자기
둘
한번
##찮
울
##보니
##ᆺ이
찐
##뭐
##마다
빨리
엔
명
##많
##ㄷㄷㄷㄷ
##ᆩ에
##갤러
##습니다
문제
##범
팬
벌
귀여
##토리
##한데
하루
유튜
##기가
팔
##켜
회
담
##아서
꾹
뭐임
##씨발
##뒤
나는
체
ㅋㅋㅋㅋㅋㅋㅋ
라이
##하노
##라도
##vs
##전드
념
##ᆺ어
헬
아닌
좋은
##린이
궁
잠
레이
있는
##벨
##율
번
##ㅋㅋㅋㅋㅋㅋ
하면
없어
##왔
##애들
##아님
컴
웨
##ᆺ네
##습
##셈
##적으로
소바
##꼬
##품
##광
각
것
애미
첫
##가능
##지만
##젠
##문에
좆같
##또
##20
##북
머리
##기는
##침
##있어
##소리
##립
갑자기
200
##팔
##해주
##슴
환
념글
쿠
##담
##나요
##곤
너네
미친
##있는
판
없음
철구
그래도
##려면
##량
##닝
##라는
##렙
투표
##셔
행
캐릭
##률
계속
##삼
##핑
##필
##김
##죠
찾
컨
처음
소리
등
흑
##접
킹
이벤트
쓸
갤주
준
##ᅪᆨ
##ᆻ다고
뜨
##이트
뭐가
##스터
사진
창
##ᆺ음
그래서
##째
종
혼
##혁
##가는
아직도
##가면
레전드
젤
##시발
18
돌아
##넘
##인증
밀
느끼
##ᅱᆫ
삐
알려
팩
##했
산
얼굴
##지고
줄
절
##옴
올해
##념
##합니다
받아
##킹
##이스
##깐
휴
##탁
##리네
##같음
암
같은
빨
##xt
나만
봉
##턴
윤
프로
14
16
맛
##견
##ᆯ까
##ㅇㅇ
올려
괜찮
##평
##하기
##인거
##이유
##가서
어디서
##럽
퇴
##ㅋㅋㅋㅋㅋㅋㅋ
해야
##말고
##변
왜이
##리면
txt
일러
같은데
황
##옵
추천좀
##벽
바로
유진
17
##겠
ㅋㅋㅋㅋㅋㅋㅋㅋ
##는다
##ᅢᆼ이
앞
##없는
##센
##톡
졸
댓
얼마나
##슈
축
넣
먼
푸
##ᆼ크
##빈
##챠
시간
##빨
희
뭐야
변
시즌
##왜
급
##한게
슈
갤러리
##떠
##에게
그런
##밖에
영상
빼
##풀
어떤
저거
나온
입갤
총
##특
으
정신
궁금
##나와
하고
##먹어
##골
됨
##해라
##덱
청
##ᆺ냐
어려
지랄
좋겠다
없는
##ㄱㄱ
##팬
이해
##엘
##눈
먹어
같이
##뷰
##철
##착
빡
그만
##ᆺ도
##막
##마갤
취
##쁘
##렌
##다니
나올
50
대체
없냐
##활
쇼
꿀
##지가
엠
메이
##꼴
##하는게
설x
##리스
##칠
게이
##맨
이름
경기
웃
##사가
##켓
쥬
##놈들
웃기
##봤는데
##건데
인증
19
##잼
퍼
독
##야함
러
##어나
방금
케이
##하자
##린다
##좌
다들
같음
별로
몸
만들어
##씩
##괴
##쇼
##님들
신캐
##로나
애니
##식이
기대
##는거냐
서울
새끼들
미쳐
필요
##딜
##템
##웅
스토리
충
##빵
브이
확실
맨
##탕
##홍
##웃
##큐
##떡
##인지
끝나
##레기
##보네
##쩌
뭔가
##되냐
된
##드는
사랑
##병신
있는데
앚
##밀
##ᆨ시
트레이드
##놓고
아니라
##응
##냐들
그거
이건
##며
##탑
##확
딜
##수가
##간다
댓글
##나가
##조건
##하면서
챔
서버
##ᆺ지
##디어
##뉴
##효
가장
프리
힘
##같이
##ᆻ어요
로아
딸
놀
##리아
##득
##치는
팀
큰
ㅠㅠ
##쥬
##죽
##할까
마지마
어떰
짱
니들
##놔
최고
##빼
유튜브
##쪽
진지
잘생
##보니까
##주는
##ㅅㅅㅅㅅ
이러
##꿀
인생
폰
##게임
자꾸
##쯤
혹
꺼
##가리
##했네
##방송
##앙
##았다
좋음
표
##퇴
자기
꾸
어느
사이
그럼
##된다
않냐
이쁘
##혜
식
##컨
##주세요
##컷
폴
그림
선수
기분
##염
디시
스트
생각해
이미
##널
아까
극
마지막
무조건
##붕이들
##앰
싫어
##십
정리
##없음
우승
트위
역시
##지네
##바다
밥
##컵
##덤
##큼
##거냐
##동안
##ᅣ루
##짓
##년들
##씹
##하니까
##참
설쉬
##셋
만화
##훈
##준다
##성이
##10
##보는
떨어
##빡
찜
##에도
하는거
흐
속보
죄
##웃기
이유가
##픈
아는
##해줘
##려나
##으니까
샘
샤
항
##냐고
이새끼
##나는
복귀
풍
##이노
정도
높
케
##아아
##적인
드디어
##나옴
술
##웨
꼭
##지도
뭘
##생각
ㅁㅌㅊ
찬
##이고
##시에
네이
##욕
듀
싶다
나오면
벌써
##었는데
##000
##척
##쌍
##ᆻ을때
했는데
뷰
##ᆨ제
##손
무기
##칭
재밌
결국
##쁜
빌
붙
##익
픽
##때문에
인기
##폭
##딸
오늘은
##되는
##끝
보니까
이정도
##아니냐
혹시
##레스
씨젠
##길래
팩트
보내
##을때
##하고싶
##층
##라인
콘
마이
엘마
공부
##지않냐
##다는
##적이
##돈
##거같은데
정상
기사
40
노무
##ᆻ긔
##댐
있다
스타
믿
##좋아
줘
##틱
패치
업데
쓰는
##갑
운동
##실분
##먹고
레이드
##있는데
##팟
ㄷㄷㄷ
##총
##ᆺ날
##거야
##했어
##룡
##갤에
##되면
고민
##요일
##빌
착
ㅋㅋㅋㅋㅋㅋㅋㅋㅋㅋㅋㅋㅋㅋㅋㅋㅋ
25
##었다
고닉
##으니
얘기
##거같음
이겜
개좆
면
기안
##균
괴
근황
니네
##같네
듣
틀드
옷
##리나
##인이
실화
##있네
겨
몰라
하는데
##곳
##될
##어도
진각
몰
##에는
##캠
##휴
##롱
##주년
##룹
꼬마
##항
##잔
왕
##헤
브이앱
v4
##진짜
##갤에서
##낀
##지면
오랜
사기
그리
##경찬
21
##이드
##우스
22
송
끄
##시즌
요새
##퀘
잘못
만들
살아
뭔데
##넣
##짱
##짝
##만한
효
이기
##려서
스킬
##프로
##퀴들
##털
##와서
새벽
삼성
멜
##줌마
그렇게
##풍
##셜
중국
##녕
##받아
##텐데
##몬
##민이
침
진지하게
공지
차단
뿌
낮
##시는
##이라고
##맛
진심
아이돌
혐
##ㅜㅜ
작년
##팩
추가
트로
나옴
##육
섹스
좋게
##극
##쟁
좆같은
##팡
하지
알바
##랴
##몽
카드
##거면
보니
옛날
##이도
맞음
염보성
##입니다
똑
##주면
보는
왜케
유니
일단
확실히
논
##뮤
##껴
##붕
##머리
늘
##봐도
##ᆷ새
칼
##듀
##ᆷ버
##먼
##것도
##ᆼ글
노트
특징
##in
##자가
##는거야
##가지
여친
##없이
##윤
ㅋㅋㅋㅋㅋㅋㅋㅋㅋㅋㅋㅋㅋㅋㅋㅋㅋㅋㅋㅋㅋㅋㅋㅋㅋ
골드
봊
센
오늘도
좌
##스크
##ㅠㅠㅠㅠ
##허
##오면
버그
##뇨
##때마다
핵
##리즈
잔
택
##리카
인스타
빅
혼자
##가요
없다
여기서
영화
정보
##나서
와꾸
띠
법
##는지
코로나
##끄
##드컵
수영
이번에
증
##값
##인듯
##사진
##일차
육
##쥐
샘슨
##재미
소리바다
##삭
##사는
새로
점검
##죄
##스는
엄청
쥐
##는거지
##찐
##하긴
##숙
##흥
어때
##러가
내년
주식
##텐츠
##세계
밑
맥
##스가
해도
##푸
##ᆺ노
가축
문경찬
##수록
개꿀
ㅋㅋㅋㅋㅋㅋㅋㅋㅋㅋ
ㅇㅈ
느낌
##치고
끼
ㅡㅡ
않아
##들도
맞지
맨날
첨
##완
김태
나가
데려
없네
생일
##ㅅㅌㅊ
##없네
##리지
##이즈
있으면
##렉
##뷔
평가
##튼
##ᆸ게
##취
##얘
개인
##보단
##리는거
##존나
##국이
##나네
야구
늒
형들
능
고소
차이
##펜
##같은거
후기
확정
힘들
##싫
의외
##초에
찐따
##ᅯᆯ
##이상
말고
페이
##왔다
##삐
범
탑
1위
##고싶어
하네
뒷
뇌
류
##씀
템
멀
지지
닉
키우
언냐들
캐릭터
##액
##그래
미국
행복
##슷
##해보
##궁
##경기
##았는데
삭제
트와
드라
가챠
안나오
##수있
옵
인터
쓰레기
결혼
아무리
##첩
문재
##친구
십
비트
성공
민주
굴
##끔
신기
완장
##차피
오랜만에
##라면
8월
선발
##누나
##케이
##그로
될
##50
##없어
어디가
좋아하는
##ㅏㅏ
던파
70
움
##한다고
스포
라인
예상
계정
24
##넷
어차피
##야됨
사라
보통
방법
커여
스밍
##봐라
##ᅮᆶ
##자리
오래
되냐
비교
##지마라
은근
챔스
만나
##책
##델
있지
##ᆻ더니
랜
##야되
답
##어가
##께
##싱
##했음
홈
슼
북
##원이
광고
##각이
##드리
거의
##거지
셀
##라가
##진다
현재
수준
링크
절대
##헨
늒네
빵
##13
##리냐
##대가
##텔
이쁜
없는데
##캐릭
젠
중요
##려는데
##젤
60
색
##옥
##ea
##아이
##주고
무료
##녁
##ᆻ습니다
##게이
근본
에픽
##ᆷ은
##같아
가슴
##폐
##만큼
코스
현실
##12
##롤
얘들아
싸우
##똥
바꿔
마음
보상
있네
찾아
##시아
##시키
##자나
##을듯
##오스
모든
##춘
안됨
보여
들어가
질문좀
기다
에어
머임
##랭
##같다
##워서
흥
##했으면
##ᅢᆯ범
##대체
##르는
전부
실시간
떡밥
##하니
중에
##이라도
##웃기네
##ㅋㅋㅋㅋㅋㅋㅋㅋㅋ
##새기
비슷
##잼이
헐
##즈원
녹
##지랄
어캐
수비
##맥
##닥
어쩌
가격
##르고
좋은거
선택
결과
##한건
스카
일반
실화냐
##듬
잦
##영이
##따리
##략
##지게
##30
나이
정말
웅
하냐
겆
##영상
씹덕
##수도
좋다
##이여
아쉬
옆
개추
##카드
돌려
##력이
강화
##쟝
##옷
쏘
혜
##있다
한다
엄마
숙
책
##되네
대단
몬
##춰
##농
미래
생겨
##버려
##주라
##드라
##마자
##애미
앰
앱
이런거
##셀
래
읽
생각보다
##혈
안나
무대
##는중
##보이
사람이
물어
틀딱
##몰
페미
ㅎㅎ
##양이
역대
관련
##랙
##레나
아니면
##무기
존버
팔아
##셉
많아
##펙
2020
직업
억
의외로
보스
덱
##충들
낼
##어로
##롯
1년
둘다
##에선
아침
##보내
퇴근
쌍
##솔
##er
##컬
가져
##칸
##장이
오늘의
성능
##찬이
라이브
자주
알고
##준이
##찰
신고
##피셜
최근
여름
해줘
정지
도와
장현
##하지마
2008
##리어
##엠
##인줄
확률
다니
인간
애초에
##할듯
##쓸
##보드
##만함
##앰들
이야
##시켜
##보기
##힘
놈
때문에
아프
징
앞으로
택배
##갓
잼
불쌍
##보은
##사기
##팁
놈들
치킨
탄
유동
주딱
파딱
##하다가
##툰
##ㅅㅂ
##하는건
랭
느금
웹
##주의
##일까
##통령
ㅆㅅㅌㅊ
퀸
모음
바꾸
이걸
언급
봤는데
역겨
##ᅮᆯ러
있나
23
3개
##왔는데
활
수영복
##보자
개념
##졌네
군대
콜라
##점이
못생
도대체
##추천
학교
ㄱㅊ
##콜
부산
신규
##톤
##라서
간다
꿈
##하던
여러
좃
##는것
릴
많은
##거리
##듣
##폼
떡상
##아야
얻
오프
##거나
곧
##운데
##제로
대충
나오는
2개
저녁
##사랑
##온다
한남
##일러
인정
같다
##혐
덕
##여자
경원
않음
혀
대기
올스타
##고싶은데
##해야지
짭
닮
##수는
보지
스킨
훈
##딴
##하러
응원
##알아
기억
##에서도
김치
모르게
딴
##니아
아니고
##짜리
##시긔
컨텐츠
규
다이
##심히
잇
##나라
어그로
중계
##노래
점심
##츄
##라리
##인트
야짤
소환
되는
말이
##획
##번째
##얘기
##압
##캬루
시상
저런
##충이
##띠
늦
##첨
자살
누나
슬슬
뮤
가면
기본
몇개
찍어
5성
##답
바리
##없냐
봄
##욱
한달
##체가
##평가
이정도면
##갤은
##그룹
얍
##년아
##새끼들아
홍어
한명
석
##과금
감스트
댕
가테
##ㅋㅋㅋㅋㅋㅋㅋㅋㅋㅋ
근첩
##린거
##보는데
##스러
사주
##오는
##있으면
##드가
유저
정치
전에
갈아
##엄
내려
애들은
시청
##찾
##남자
##할거
어느정도
바이
의미
무서
핑
뛰
쓴
썰
전설
아무도
##메이
##컴
##대는
에이
##최
##뽕
##먹음
타이
데이
##ck
##겠노
콜
##홀
##릿
숨
ㅋㅋㅋㅋㅋㅋㅋㅋㅋㅋㅋ
봐도
칸
##흑
##기사
##였음
대학
사람들
장현식
챙
털
스위
뿡2
투표인증
저번
##만이
핫
왔다
##핀
##기도
ㅅㅌㅊ
##에요
##렬
##남아
승리
fa
주인
##없다
디씨
감독
2차
##오네
##쓰는
##꾼
공개
##아라
족
##밥이
##긴함
연습
롯
완전
끌
썩
조선
##부분
맞냐
투수
븝
쟤
##끼리
##탐
세계
큐
##벅
##행이
아니어
상황
순위
##ㅡㅡㅡㅡㅡㅡㅡㅡ
##마르
없나
먼저
##해봐
만든
##틴
##시절
##였네
##ᆻ을까
젖
보는데
대한
좋은데
인싸
부러
아이즈원
뜬
앨범
##애들은
칭
##떼
마도
블루
ㄷㄷㄷㄷㄷ
안돼
수캬루
남순
칩
길드
##라라
##해요
어떡
##메라
##뒤진
##촌
담배
웃기네
폐
##놀
##야겠다
##마리
##치가
신인
국내
##광고
격
깔
축구
##네요
좆망
전화
##파이
도배
##먹는
##져서
응애
아닌데
##졸
없으면
파티
##선수
데뷔
##아닌
##뿐
재밌어
##시작
인방
갤에
상관
##나면
갖
##모드
그렇
움짤
켜
홀
##트가
섭
장비
벨
상대
예전에
열심히
##니깐
도사
캐밥
왜이리
##자마자
저새끼
일어나
##옹
하이
##였는데
제대로
부탁
##코네
익
##기로
##졌다
바뀌
김태진
##ᆻ구나
##리는데
##했던
##좋은
##퓨
저렇게
옴
오늘자
레벨
들고
런
쪼
##자는
안녕
애플
외질
잘생겨
마이너
80
권
##폴
이후
아마
조합
##햇
##난다
##샷
##드림
해주
세상
따라
급식
##둥
##페이
웃긴
퀘
##논
##쩔
##인은
##왔어요
연애
##느끼
##갤러리
혈
##하긔
##인게
##르면
작가
준비
트로이
긴
##텀
보라
##일이
##을거
굿
먹고
픽업
00
##둘
##칼
애들아
관심
pc
##피스
애들이
상위
넘어
##뜸
##엽
##크로
##않아
맘
있는거
없지
같아
##깔
지원
##진거
##찜
##볼까
합격
##넌
##수저
##정이
##르네
공격
ㅂㅅ
미안
비비
ㅁㅊ
##쟁이
##깅이
##주일
힐
두개
##힌
##ᅪᆫ
여캐
##성은
걱
뮌
튀
##잠
##장에서
##붙
예쁘
득
아이폰
##감이
##격이
##티어
비틱
##투표
짤녀
밑에
##ᆼ신
안내
##카페
컷
년
수정
##안되
블랙
5분
들어와
##on
##아가
##작이
그려
즐
##ㄹㅇ
##님이
듯
##15
##암
뽀
##건가
118
메이플
대가리
만약
죽어
##씬
이겨
##치면
밖에
거지
이번주
##올라
점핑
시상식
탁
##튀
##쉐
낙
낫
##키지
총공
##줌들
##명이
느그
##들한테
느낀
천장
콜라보
농
##땐
좋네
상향
08
달리
밸
샌
##뻐
##인물
##는걸
항상
##ct
##박이
##우면
##텍
##학교
##덜
##쓴
차라리
키워
원탑
땡
벤
##썰
##리기
##했냐
왔
손절
번역
윾
업데이트
즈
##아도
보은
90
마려
중고
##된거
##ㅎㅎ
가끔
오픈
##중인데
##문제
##계정
씨발련
##하는거임
이상화
띵
플레이
안되냐
네이마르
##11
익스
리그
버스
아오
키움
칠
업뎃
300
##트는
성형
##꽃
걱정
on
##이벤
##어야
나중에
싱글
##을수
대상
하나도
##맘
문재인
ㅜㅜ
##라이브
##밤
##년들아
멋
봐라
탭
아기
기준
##우는
##패드
500
엑
멤버
반응
떴다
싹
ㄱㄱ
##ㅇㅈ
조용
발표
목소리
짱깨
롯데
##쎄
##지는거
##하세요
##구가
사과
그나
##핌
##신이
##고싶네
##너무
알았는데
축하
냉
##앤
##새끼가
##천원
맞추
민주당
##이이
##지냐
시켜
배달
아냐
어이
##저씨
##주네
공략
날씨
##새끼야
##없는데
##위기
##낸
페도
그러고
##니가
##롭
놓
##ᆻ어도
##본다
##근데
호감
보고싶다
칰
##싸개
형님들
최대
##멸
##주냐
닥
설마
라인업
##헌
##닭
##석이
바람
##새끼들은
감사
멜론
솬
콩
##놈이
귀여운
견
##등이
##년이
랖
경괴
멘
밴
##이닝
이재
하는게
##그오
스크
##받고
모르는
안가
##빛
스테
##랜드
라이프
좆같네
##무원
서포
너프
##ᆻ었는데
남아
불펜
캡
##탈워
쿠폰
##쏘
##구리
포기
##가라
이모
##렸다
##르게
파리
통합
정신병
멸
이래
누군
쓰면
##패치
캬루
##뻔
##an
지방
안보
차트
설명
채팅
대회
코인
##태곤
이젠
회사
##눈나
룩
##or
##이거
##이브
##자들
사귀
약간
헬스
이야기
콱
##기면
##새끼들이
트사가
곡
아예
모자
##타임
많네
##쓰면
##하지않
출근
##지않음
시로
여고
##부러
아니지
##때까지
##애들이
못하게
공식
얘네
2년
##는것도
##받음
주말
예쁜
실패
##걸로
초반
헤어
##땜에
카톡
심심
##웹
빨아
##뱅
##유저
##간질
많음
협
나랑
##마려
하자
고양이
##첫
ㅋㅋㅋㅋㅋㅋㅋㅋㅋㅋㅋㅋ
##챔
컨셉
폴가
지지율
예전
28
아카
##겜이
맘에
닭
##디오
##나오면
##많이
드라마
린
##차이
지금까지
##현이
똥찬이
##해야함
평균
역대급
세이
##심이
##은게
##빙
무섭
부활
##망호
안되는
다음주
져
보기
밤
좋냐
##있는거
박정
검색
텐
##하더라
##릭스
##치네
전투
하나만
앙
있을까
##흐
##벼
##었네
무시
당연
##딩때
##쨩
##도안
안지만
보이
##ᆻ다가
##타는
해외
영어
팁
##헬
이길
하다
##ㅋㅋㅋㅋㅋㅋㅋㅋㅋㅋㅋㅋ
고마
베르
##다니엘
스트리
##ᆺ은
##쌔
##럭
연장
크로
따로
##인가요
##하고싶다
떨
##라는데
바르
대구
대깨
전무
쎄
##ᆻ잖아
##시다
##스템
시절
##한가
사는
##랑이
##갤이
비추
도전
1등
##븐
아레나
##할수
신곡
##분들
부캐
30분
##빼고
ㅅㅅ
##ve
오태곤
보다
불러
복구
돼지
휘
##리오
##라지
##해줌
저격
##좋게
##긴한데
##정도면
슈퍼
1시간
##뿌
##아는
##코인
외모
끊
##례
없어서
제목
##룸
##탭
짜증
트위치
nc
깡
##떨어
##지원
자동
겁
##먹을
싶은데
사냥
모두
대통령
카페
탱
##하던데
조금
##스테
모드
##찮아
느껴
##꿈
##좋음
왤캐
자랑
라스
싶어
트위터
36
##멜
##한듯
##만들어
묻
신경
매일
1차
##펀
##대전
제작
빛
거래
##동생
중붕이
확인
염퀴
각성
이간질
##로는
##인다
마리나
사용
개병신
야스
##으면서
나오네
네이버
##보지
일베
배메
쌈
갤럭시
##뭐냐
35
솩
ㅆㅂ
개씹
##가다
뽑아
쳐맞
쿠팡
뮌헨
폴가이즈
압
##한번
다운
##장은
성적
맞아
외국
빠는
눈물
잡아
##큰
##용이
뚫
벽
##엇
##깅
주작
점수
운영
1000
사회
해서
도움
##쓰고
9월
##구만
유일
생긴
갤질
먹는
메인
외형
넥
아프리카
##했노
저러
오토
##치기
멍
##릴때
##st
마스크
##랩
##의점
트레
99
든
##릉
낚
하기
한동
줌
버퍼
탐
배우
##머니
##언제
##술사
유튜버
이미지
트와이스
27
훨
##시오
수사
우울
만드
##운거
워뇨
32
to
##ar
부모
같은거
논란
##쿼
##데이
##치히
왔는데
금지
##끝나
##ᆺ나
이새끼들
엉
가는
가지고
코드
##맵
프레
ㅋㅋㅋㅋㅋㅋㅋㅋㅋㅋㅋㅋㅋ
설정
쌀
##룩
##잉
##들고
##들만
##버전
애기
경험
##돌이
주인공
##ㅋㅋㅋㅋㅋㅋㅋㅋㅋㅋㅋ
의사
필수
길태
스피
##ᆷ이랑
굳
장난
된다
얍야
45
##둥이
##땅
##리노
##들의
오르
잘하는
뭔지
##협
##몇
##오오
기어
전사
구매
버프
영웅
위한
가능함
##종일
달아
슴
##멘
##뛰
기아
##장에
했다
주문
##소녀
되게
김민
웹툰
섬
##여서
##버스
신화
##덩이
발작
출시
아르
##해줄
강다니엘
깜
누구냐
졸업
##가네
##하하
##리에
##러스
##대장
##있노
캐르
9급
##룰
##싼
##기에
##만화
자러
존재
머두
구함
집에
찬또
뽕
##거든
아래
##드립
시키
미디
도시
렙
먹을
찢
애미뒤진
시즌2
##하라고
##리그
##햇는데
사고
깊
제주
구라
여자가
루나
##잇음
쥬지
프리코네
붕
액
##뜬
##뚫
##ㅜㅑ
##앞
##댄
나오냐
씹창
201
분탕
뒤져
눈나
##축하
시청자
빈
##이기
지코
모바
##개월
신청
선생
##달라고
##도가
##닉스
##프트
엘리
흙
##휘
##ᆸ냐
##그러
너희
언니
살려
##는건데
양심
합방
흰
##ro
##지말
아닐까
##없지
리세
팝
맞는
##됐네
홈런
그나마
##서버
##까진
##틸
없는거
##거같다
정도면
퓨
##이긔
나라
안타
전라도
키보드
렌
쿨
##ww
이짤
조회
가서
정병
비싸
일주일
##파트
올리
##선발
경북
최소
아이유
캠
접속
엔딩
##고닉
안함
##미가
##우가
##세대
라비
새벽에
##라스
진행
맞춰
할인
박보
이해가
##지나
버즈
충격
##60
##보임
사면
##카스
사람은
##올려
어떠냐
탈갤
컴백
느낌이
죠
ㅅㅅㅅㅅㅅ
기만
미니
##키로
풀어
##ᆻ자
##핸
저는
##안됨
방어
하루종일
넣어
생각해보니
##는대
##시티
##나나
와이
섹
##페코
분위기
썸
##상도
##세트
애매
적당
웃겨
##떡밥
효과
쫄
##탱
##주셈
##되는거
유명
요약
##ᆨ이랑
좆목
힙
##돌아
##ᆻ던거
아닌가
##필요
죄다
##쇠
##뭔
이어
##시가
##나이
##들을
개씨발
수학
##방법
소설
실력
생각함
##it
##아웃
공주
##냄새
타격
꼴리는
##ㄱㄱㄱㄱ
잘생긴
어카
그대로
카메라
##는건가
2주
품
##으러
##미션
##힐
##던가
부르
많냐
난이도
누구임
##기고
오버
안들어
##댓
뭐라
유입
##터리
못하는
렉
선물
150
180
빼고
븅신
덜
##쿤
##뚜
아시발
##비가
한정
##때는
되지
머냐
##긴해
카카
폼
재밌네
재밌음
##한거임
빻
편의점
뇌절
라이프치히
롱
##보상
##스로
##자고
##인드
사제
##붕이들아
##맞음
##잘알
ㅇㅈㄹ
스트리머
골라
탈리
##ᆸ노
##이래
##지노
마라
개빡
아니야
문투
최종
커피
##잡고
아줌마
##로그
조언
##박스
개웃기네
미리
과거
남은
은퇴
알려줘
에어컨
아빠
오른
##화면
##몸
일찍
##긴하네
##고싶은
##순위
월드컵
##콩
##이란
갓기
서로
라면
예정
##낼
##어디
##서트
나한테
가이드
기원
인사
보닌
##드립니다
##느낌
머두링
2군
sk
흔
##자인
##였으면
비슈
요즘은
##됐다
##예인
넷
달라
월급
잠깐
3일
##숲
스태
수능
셋
##ㄷㄷㄷ
후회
ㄷㄷㄷㄷ
이찬
##다리
##드네
유리
##방에서
달려
갓겜
춘
ㅗㅜㅑ
##14
##이니
그리고
자리
뭐노
##히려
리세계
관리
홍보
##ᆻ는지
이용
이지랄
##나온
개발
거부
##생겨
##윈
##쓰냐
2주년
저게
하드
##오냐
##일듯
##년도
##안에
되면
##받는
##이어트
밀어
개인적으로
인터뷰
쉐
##하려고
어울
야갤
제가
##봤다
##먹은
연기
##돼지
꽃
면접
39
놀라
뜸
##나올
하니까
노잼
도적
##반지
짧
시로코
##84
##하라
나쁜
##버린
##방에
##들이랑
우리가
평생
굿즈
모바일
녕
##한지
##믿
##비는
냄새
거임
니쥬
윈
블핑
2기
##기만
##바ᄁ
왠
##콤
##질문
##고싶음
프라이
쓰고
패턴
망오스
테스트
미쳤네
랜덤
##en
##로우
긍
기술
미드
정우
##없으면
같냐
##튜브
왜이렇게
희망
갱
챌
퀴
##껄
나무
오면
오히려
##트로
있을
대리
맞다
살까
현타
언제까지
##했다고
노무현
노트20
뒷광고
인터넷
##ᆸ고
##ᆺ으면
##왔어
##애니
상태
살인
똥퀴
##효니
개념글
29
ts
이리
유투
되는거
결정
의상
fact
##퓨터
55
##ll
##남이
##니터
다르
스펙
및
유격
존잘
못함
이유는
##받은
이뻐
윤지
##구는
안해
다리
습
##진이
소개
##호가
여자들
사랑해
##둔
##는법
##가냐
##아고
해라
##25
##가지고
##냥이
그룹
뭐지
##본사람
##토미
레드
##ᆻ지만
토탈워
이찬원
르
베이
##숭이
##기전에
##주는거
다행이
##높
##렛
##더만
방탄
성격
필독
가능하냐
루시
터져
유튭
체력
쌔
##ᆸ지
##복이
시바
사퍼
안하고
##비스
##커버
티저
헌
아다
##스티
시리즈
##마이
##숨
우파
손혁
펭
싶은
땅
##하려면
시험
한화
고인물
에바
킬
강간
##좋다
꼴데
볼때마다
##ᆻ나보네
꽤
##댕
##70
하면서
##트라
##일리
##조사
##신곡
핸
##프레
더블
니들이
##너지
##쳐서
역전
##입갤
완료
용병
악세
귀여워
꾹찜
삐부
최고의
평가좀
33
쪽
##밴
##겠음
##때도
머야
배고
던전
나온다
룸
ㅠㅠㅠ
##이쁘
짐
대부분
내용
오늘부터
요네
##중계
##없어서
재료
##플레이
아이패드
##측
끝내
##거같아
이상한
몸매
갸
##딘
##ᆸ치
##어스
개꼴
##팀이
무한
화장
##영웅
입장
##빠는
둘이
엔씨
26
펠
##ᆿㅋㅋㅋ
##어어
##에에
##렸는데
단체
당첨
뽑기
쭈
##쿨
##남들
##네임
##해져
##딩이
아니다
##신화
##신비
##따라
패키지
토목
##기네
아티
##스킬
지나
지역
##법이
시발련
드립
음식
등장
in
눌러
##겠는데
##스만
##마가
##바이
##수로
##때가
원영이
카운
동네
있었는데
훈련
돡
##ou
##지에
##하신
지가
##장님
##던거
상상
##난거
##나오네
##것같
통피
징징
랖치
##지말고
##하다고
##리타
##사이
사망
자고
햄
머가
배경
티어
가능성
##뭐임
꿀팁
##보은왔
박보검
이딴
##엑
##기화
##겟
##겟다
##잖
##인건
나음
##주실분
##트리
##바타
##여도
없이
인성
고추
앤
갤에서
##망구
꿀잼
표정
lck
##ᆻ고
##지지
##해준다
가족
지하
##수있음
제로
##분전
초월
##귀여
손흥
심각
##켓몬
퀘스트
그러고보니
뚜
##둬
##묘
##이들
##사고
##일에
##빗
빙
##할게
만족
파밍
##줘라
티니아
커뮤
##싫어
2시간
##기준
##스토리
님
병신들
떴냐
##알못
환불
옛날에
내년에
3년
덤
씀
##였다
##간에
##키노
##언냐
##맞추
온냐들
체감
4성
##어ᄄ
##인들
해야지
정확
##안함
##분에
경찰
배민
생각나
할거
할만
할까
메갈
20대
점점
새끼들은
하루에
아는사람
##똑
##기업
그게
##던전
거기
##런스
남친
##좋네
눈치
그런데
굳이
##겠냐
##만들
마법
##되는데
스토
##신청
##벙글
밍
야붕이
원영
드래
##멍
약독
##봉준
##쿠폰
괜히
컴퓨터
봉퀴
페이커
다이아
##le
##은듯
##스밍
보면서
##우고
##빔
##에서는
해봐
갤길
##한거냐
##뉴비
떼
락
##댕이
##뎀
앉
##해봄
안뜨
##였냐
스마
##버그
바다
비율
##생이
방출
입문
##이라는
네좆
운지
적용
##많네
알려준다
콘서트
200813
꾼
아스
가자
##구역
##상자
스케
##카노
##당함
국민
걸그룹
메이저
##um
##수준
왜저
공무원
살짝
클로
혈귀
싱글벙글
첼
##끌
##우승
##버리
웃음
##린지
틱
티비
포카
솔로
##둠
끝나고
1회
##ᆿㅋㅋㅋㅋ
이득
나누
##렸네
##여친
뭐라고
고백
##ᆨ이네
##동이
##없고
##포인트
##하는거냐
칭찬
이승
##어려
##시고
##나미
지만이
그린
부족
반지
##맞지
##해주세요
##셔츠
##ing
4강
##ᆻ누
##ᆻ으니
가성
##제한
미통
했으면
##있지
##홈
##연차
##렉터
룬
쯔
ㅅㅅㅅ
##마토
##려는
##정리
자체가
뭐하냐
대신
해결
##있나
전기
생활
질러
##언니
직관
순간
웰
꺼져
조회수
rea
며
##객
##at
사이트
##상이
##우석
해설
인형
곱
히로
망가
##누구
번호
판매
3명
팡
##탈리
##혹
##vp
##고가
##어라
시스템
오피셜
##공개
세라
춤
##패스
까는
##ᆻ을듯
껴
##아지
##보여
어린
##주가
여성
##년은
전붕이
신레
##코드
호모
토끼
##시간에
##해야됨
국가
이름이
##시는분
펌
##팍
아가
##힛
곳
리얼
코트
영탁
메모
돌리
맵
흉
얍얍
2번
kt
잃
아재
가입
수도
없노
코디
불안
받고
135
##그램
3페
멈
뷔
##챙
##보스
##되고
##왑
자체
고정
신작
영업
박진
##관련
##찬호
##릴까
나왔으면
졸라
능력
손흥민
짝
##ᆺ고
##지로
##다운
##고기
##어울
안경
##미는
##램
어떨
##연합
ㅋㅋㅋㅋㅋㅋㅋㅋㅋㅋㅋㅋㅋㅋ
받을
못생겨
##추천좀
엉덩이
걔
##어는
##승이
지옥
안쓰
모니터
있노
무과금
탈출
악의
낚시
ss
띄
##ㅓㅓ
##화가
한데
##생활
피해
##아아아아
노트북
펜
##탠
##어케
##낙
##났네
##나갈
나름
##구마
오지게
마그
샀는데
안나와
여긴
##전은
자신
유로
##피아
##애가
##실점
키스
불편
동희
바뀐
델
튜
텔
##엉
##많아
다이어트
##무리
만원
##배우
최강
##달라
목록
##샵
##갤러들
것도
취소
옵션
##쏠
##지는데
##나게
##라우
가야
##사면
사야
다녀
##노잼
##신은
수페코
와서
##새끼는
##운동
생각하는
##줄알아
직캠
재밌는
##40
아치
##스토
##대회
진화
해보
##성기
##ᆻ어야
누적
1일
##웅이
##ㅡ타
##가락
오빠
다크
갠
곰
니가
클리
휴가
란
ㅅㄱ
이홍
##로드
하스
##전거
##새낀
##동네
받은
브금
결승
흑우
##럽게
힘든
바르샤
싼
퐈
혁
##ay
##이버
##가도
##겟지
지능
여론
한거
전장
니들은
##운드
##속도
온다
뷰지
미통당
묘
##om
이성
##시까지
오류
안오
좋지
##동산
원딜
영지
현대
새끼들이
분명
##ᆻ을텐데
좋겠음
소환사
벌어
어깨
##야구
밝
이것
##먹으면
구글
문자
본상
국밥
뒤에
걸러
플옵
목표
교환
온라인
담주
숙제
##100
##뽀
##볶
##보냐
사건
보추
##같긔
없애
공유
##프리
포수
받는
언제부터
나와서
플래
직접
문제가
##ㅇㅇㅇㅇ
약독대
핀
아주
##한대
스키
정가
게시
디렉터
할때
사람들이
아이들
스밍인증
##춘향
여러분
1억
ai
##떨
##이형
##아냐
마스터
보냐
모아
모집
피시
소름
##민철
치즈
##근본
쓸만
젠지
3번
ㅇㅅ
##가나
어쩔
사도
##읍니다
기록
##왔네
##레드
주공
##당한
배터리
티켓
##복절
싸움
국룰
어케함
다시보기
플레
괜찮아
##별로
##하지마라
미디신비
톤
##었음
시원
옥
한글
고수
비밀
##연이
로그
몇년
##쓰레기
아무것도
##뜻
##습니까
코스피
top
6성
턱
ㅈㄹ
##끈
##썬
##ᆱ은
##스킨
##밋
뭐고
전쟁
만갤
말아
포인트
10월
단독
##예정
함께
1군
짹
##이름
##데스
##젖
시계
##렁
##려도
개소리
##앰이
##ᆨ이다
생각이
김연
영입
까지
두번
채널
##거같냐
폭원
한번도
엠카
##웃겨
real
##대에
##전이
개조
에피
##워즈
##프레스
되나
따효니
분석
##겠습니다
##ㅏㅏㅏㅏ
맹
앵
##18
이분
어찌
##그림
##파티
과금
10년
캐리
##순이
각인
훨씬
틱톡
##숭
##빨리
##섬
##맠
사서
안좋
##노트
##미지
##디션
했
좆병신
##할사람
파워
영혼
10분
##른다
120
갤러리는
##지않나
쉴
팬덤
번트
취향
잼민이
데이터
안녕하세요
지만이형
##ᆺ자
##거래
낫냐
있나요
##때문
##겸
##팝
늙
메타
않나
##많은
각개
at
츄
##지금
##도리
##로스
왜안
##같노
스갤
스팀
뭐하는
유지
대놓고
정글
잘하네
올리는
키울
카던
디스
ㅋㅋㅋㅋㅋㅋㅋㅋㅋㅋㅋㅋㅋㅋㅋ
남자가
##ㄷㄷㄷㄷㄷㄷㄷㄷ
궁금한게
뮤비
카카오
400
##ᆫ데
##가고
##니저
안하는
##바라
잠이
부상
##식으로
난리
##물이
##혁이
똥꼬
이럴
새로운
##쉑
##도는
##기장
사전
사르
기간
##칙
한녀
피곤
되네
연예인
처녀
역사
국어
뉴비인데
친구가
##뒤에
왜이러
싫어하는
좌파
아나
나의
미치
미션
생존
갤럼
남캐
어디까지
##걸이
##걸림
꼴림
당장
클리어
간만에
가성비
s7
나쁘
안된다
##요청
정공
전문
주면
먹으면
달린다
##얼굴
환상
##십시오
드랍
는
##ᆫ다
이따
##시네
##로도
##오리
##두고
동생
있어서
간단
쉽게
산다
##이유가
억울
저번에
1인
88
꼽
##베이
##억이
##시기
마일
##대기
해명
##원은
##건창
##안타
전체
##중임
올린
##코스
뉴스
여자는
##아니라
##느라
광복절
##ㅡㅡㅡㅡㅡㅡ
##팔이
빨간
##겠긔
솬사
##가자
이정
##낳
조작
##주지
저장
##으려고
엮
여행
기념
##와이스
정규
진짜로
주는
##위키
언냐
김봉준
##매도
장원
티아고
크게
때려
##큘
##확률
늦게
챙겨
멸망
3성
ㅍㅌㅊ
이춘향
##대호
왜캐
했어
피부
##00원
##없나
##냄
상자
파이
많은데
설레
메시
받음
봐야
순수
팬티
##완료
못생긴
겁나
쩌
ㅎㅌㅊ
##낭
이틀
낫지
가라
##오늘
##되서
##겹
일부러
좆밥
##단계
중복
##준비
티셔츠
쓰냐
출신
검은
빡세
웃김
뭘로
li
닌
켈
이지
이적
##고수
##인생
나락
##구함
##섹스
대해
되는데
##톱
맞는데
어케됨
별로임
멘탈
당연히
긷
기회
한판
##버풀
##진자
##릎
무사
노가다
못해
피겨
공혁
부동산
연속
##머임
어디감
병신들아
##ᆸ답
닉네임
갖고
4개
썬
##쁨
##ia
##지션
##드로
가만
오후
수상
노잼이
##직업
##영화
10만
돌파
몇명
##사람이
기안84
##어떰
##뿡
##리는게
조심
옮
##대가리
##버지
##히트
공짜
공익
되어
장애
입고
죽여
탬
태어나
##알바
음악
승격
활동
2만
##ᆸ니까
##떄
##ot
이팀
##라니
##로가
##보면서
##마디
##만든
##정신
했음
없고
고기
좆도
##민국
##줘야
경쟁
디자인
실망
몇번
후반
학치
증거
룰
##뢰
나아
저도
##일때
일정
##민호
##민규
콤
##졌는데
연락
##날두
아이피
##줄사람
##메카노
페그오
귀찮
물냐
열쇠
##잇냐
좆같이
##념글
그런거
##홍보
딜러
경험치
##툴
##ᆻ대
##리게
##었어
##니티
##자꾸
##였지
##장비
근장
##공지
버티
히어로
병원
계산
##나오는
담당
랩
꽁
냥
뜰
##ᅪᆯ
##지컬
마갤
신민
재능
##봐야
세트
솔플
재밌다
계약
브리
반대
나왔는데
##알려
꾸니
##이노스
##헤어
5천
ㄱㄴ
##ᆺ을
##캔
##쭈
이태
##보셈
##렐
뭘까
정식
서브
주변
피자
##호중
버려
생각나네
초기화
발견
떳다
안되나
완벽
사실상
스타일
유니폼
않았냐
몽
뱅
캬
##lc
##bt
##했지
##해짐
##마는
여동생
##수있냐
##조선
##레벨
유출
##히는
##할꺼
주고
##하겠네
##온거
##륙
##빻
클린
안되네
음원
디시콘
프레임
제주도
2명
퀄
##id
##가는데
##보소
##드려
하늘
바라
햇
##년생
##키우
구단
나오는거
계획
단톡
찍먹
창녀
1티어
6시
##흔
아라
저기
하지마
##으라고
##상태
##그런
##때매
비싼
이것도
일섭
##중이
##방축하
##크리
먹음
##퍼즈
박제
좋아함
단어
틀퀴
떳냐
은하
한번만
먼가
##텔라
인방갤
지하철
랑
##ᆺ따
잊
##라니까
##죽이
갤탭
트리
도란
레알
성장
포켓몬
##박아
크리
임신
올라오
올해의
그런가
듣고
넥슨
2루
9강
##pl
##가가
아지
조건
엌
지워
##바지
모모
##였어
우주
주워
생기
부분
금요일
금민철
##등급
몰라도
멀티
##tr
##드폰
하던
안나옴
##장면
##부탁
자전거
생김
ㄹㅇㅋㅋ
##하겠지
메리
브앱
##레이크
글섭
워싱
새끼가
손해
##찍어
흑인
독일
서폿
##갸
##ᆺ수
##kg
##나보네
하트
오재
##바크
##수리
##황이
자유
##호기
팜
세팅
언제쯤
커플
위해
##하지만
돈이
집에서
학원
럽
이홍구
폴라
##80
##시면
##뎅
아바타
하위
##럴
##던스
소방
올림
도착
파는
##점은
드리
선착
이번엔
망상
쌓
##쉽
철권
##썹
편집
옷장
균
공혁준
이시
##리사
나대
지구
##와라
##정한
자연
##년에
##년들이
피통
올리면
구독
캐시
현질
매칭
##륜
속도
탈모
괴롭
##새기들
븝퍼
1개
##21
##me
##시녀
##봇
##만해도
보민이
기계
자지
대사
##개비
주전
##생김
갤이
원본
장면
솔까
씹슴
위험
크리스
빠른
평소
##이었는데
철구가
이후로
카운터
아침에
06
3대
95
##갱
##푼
##ㄹㄹ
##자너
##주홍
##드냐
##제가
##같냐
야동
지금은
##형이
실물
재밌냐
글삭
복각
가능한
관계
짬
이게임
충분
램
멍청
3위
5만원
##뇌
아파트
##넬
마나
마무리
보고싶
개쩌
##그리
##그냥
##버프
##타고
뭐뭐
##ᆨ이냐
화면
##봐서
예능
브라
##나오냐
왼
작은
님들아
##몽어스
##품이
##야되는데
부럽다
밸런스
나눔
흘
##멀
아씨발
##겔
조아
##자로
##으으
안하냐
기상
##였노
##되지
스페
공포
도안
언더
##한테도
배송
생각하면
강남
##관리
작업
백수
##잡아
참고
롤드컵
겨울
악의꽃
븜
##꾹
이쯤
##지기
##다이노스
##라나
여캠
##발표
서양
##힙
소울
같긔
리버풀
라디오
경우
##ᆻ나봐
##링크
##끄러
1분
7시
촉
##아프
##햇다
##한사람
자짤
##금지
해체
##르냐
소식
소속
##파는
##내는
##갈까
##한다는
여기가
때문
웨이브
사이퍼즈
높은
##eat
##59
##리다
##검이
##드백
맠
##부가
해본
##중인
상승
##보다는
박아
커버
##ᆻ나요
궁금한거
이쁘다
재밌게
띠니
힘들어
##카펫
여고생
5년
퍽
흠
##16
##하려
##제발
기타
##번호
잘자
같지
문의
##못함
테러
금수저
##견들
##죽어
1도
4번
##cm
##33
##봊
##주행
##되어
##간거
##키는
트루
상남자
##운게
##관계
##학생
철염
완성
임대
컴디
등록
큰일
##보이는데
최근에
nc다이노스
스탯
2위
3시간
##sd
##이크
이긴
있다고
##겟네
가을
##바꾸
보정
모델
스쿼
대표
정냐
전성기
존나게
##팜
##ᆷ들아
김준
##말이
경녀
아이디
##김치
맛있
모르겠음
##쎄리
흙수저
라비던스
34
날아
덴
븨
뻐
킨
ㅠㅠㅠㅠㅠ
##펌
##팔아
##강이
##시장
##도됨
아싸
##자랑
##얀
기능
모으
##상황
##정환
개잘
스티
노력
##소드
##없찐
##란다
얘는
걸려
플스
##벌레
음방
잠수
2000
왜이럼
변경
숏
족구
감사합니다
승격을
5개
깐
쭉
##리웹
##기들
어플
##저스
가치
안사
##칰
##ᆻ다는
##ㅋㅋㅋㅋㅋㅋㅋㅋㅋㅋㅋㅋㅋ
개미
아니네
##타가
##하는애들
거품
공감
파트
말복
현금
똠
##하는거야
110
민심
떡락
출연
##챗
승부
월드
##많음
돌아가
러시아
샤워
기다려
통합당
비슈바크
정우람
넌
ㅇㄷ
##22
##ga
##낮
##기를
답답
자기가
##성공
무적
##년대
고쳐
에이스
##없는거
##파서
코미
##연속
할게
매크로
윌
##은거임
빠져
네네
##거같애
##잇어
작년에
좋겠어
이재명
넷플
챌린지
객
ㅅㅍ
##도르
오는
여갤러
##수있는
유행
대박
##때부터
##카가
부정
##선이
버닝
##연갤
로빈
먹은
호구
초딩
윙
들어오
##싸움
##뜨면
합성
등판
##컨텐츠
칸나
캡쳐
##깡
##만봐도
##사건
마리
여신
##비아
대전
##키스
##없노
갤플
연봉
##달아
결제
우리집
클럽
나왔네
터질
꾸준
스트레스
트윗
비슷한
왠지
2부
3천
뚝
향
##괜
##껀
##ip
##아리
##얄
오나
그저
##조합
##신분
요청
##할거면
버서
예고
패스
토요일
질문점
12시
헛
바꿀
##펀치
##umd
1명
##ᆻ더라
##이긴
##스키
납
##야해
시그
##상은
##딧
한섭
내야
##진각
인천
고구마
많아서
##계약
##추가
매력
##후에
##맞냐
##튜버
민트
##찍고
좆같다
##이벤트
학치커
t1
##맹
##쾌
##ㅣㅣ
##가슴
##지않아
##하잖아
##아치
##겠어
어째
##인간
##만나
##만하면
오타
그새끼
##바람
##갤주
##테일
화력
##능력
추억
로하
팀이
##반떼
불가능
재밋
투력
받으면
어떻
않을까
평타
희재
어려움
케이스
##효과
##쥬얼
빌드
49
츠
##퍽
##콜라
##23
##갖
##지를
##리스트
아저씨
조이
낳
나를
여초
스찌
한남들
##티콘
신나
##브이
카이
연결
실버
실제로
박지
동물
갤주님
생각해보니까
극장
##000원
믿고
스위치
자러감
낭
빤
##앵
##직이
##해본
##인척
##까요
##되나
있긴
바보
요리
좆두
영향
게임이
11시
열어
둘중
독서
이러면
착한
211
늘어
힘들다
이걸로
뻔
##뚝
##ㄱㅋ
##겁
##스위
나머
가수
가짜
##만해
하노
하다가
지각
맡
사나
안좋아
보석
한마디
##버림
유럽
야이
없다고
인데
신발
주술사
##소나
##내고
차이가
리메
구경
##선생
원정
예약
성우
실적
##받으면
##사람들
토벌
##아니면
끝까지
죽이
모르겠
러셀
겨우
센세
범죄
옆에
벤치
##하지않냐
꾼맠
1던
38
널
째
펀
##펠
##팔리
##라는게
그리스
안전
##숙이
모험
##탓
유독
대결
에반
거리
화질
만드는
재넌
문파
최애
##너스
##페토
초록
##후기
싸이
두산
넘어가
속성
참여
뿡힛
올라가
귀엽
##찐따
도와줘
아티스트
며칠
2천
75
##다녀
마우스
답이
보다가
##일은
수익
##년들은
##하는지
재앙
원피스
맞는거
이번달
##한것
크트
병신같은
##예약
달달
허리
몬스터
37
tv
뿐
##는디
##라한
##닌
##핵
##수꾼
한다고
##테스트
서건창
##중에서
##00개
김종
##걸까
새끼는
##블리
양준
탈주
검사
임영웅
벌레
퇴물
2배
5주년
즉
##쟈
##ᆿㅋㅋㅋㅋㅋ
##얻
##거라
아탈
조정
가스
시세
##사냥
사는게
다행
밤새
야한
공트
##듯이
박찬호
매니저
초동
##얼마
좆같음
해야함
끝나면
침착
센터
헬스장
조언좀
마그멜
쉴드
ro
발리
##ᅪᆼ
##읽
##합이
##리티
아웃
##보고싶다
저걸
##욜
##무라
스파
무리
왁
##몹
일진
주제
##코가
두명
##쌈
##맞아
한국인
꾹삐
라이트
##칠플
거부합니다
드래곤
ㅎㅇ
##픔
##시대
##독이
어릴때
마대
맛이
그때
안해도
무릎
빗
##하는법
섹시
##ᆼ이랑
##규어
내일은
집착
욕먹
##뽑기
승률
##핑크
##빈데
궁금한
쇼미
##놈들은
정상임
혐오
셀카
닮아
핑까
여고딩
장원영
48
59
th
팔리
##뎃
가사
오큘
한테
우결
##차도
좆슨
존나웃기네
##린데
지금도
상점
겜이
##까지는
본다
##ᆻ냐고
매수
매출
##한거지
위치
##박고
우리나라
있어야
##열어
욕하는
귀여움
처음으로
##휼
쌀먹
적당히
사르포
쵸
ㅊㅊ
##돋
##기원
##롬
##사이트
##으려면
기부
##였나
##장애
##재료
구속
어따
##말로
느바
##줬으면
팅
설치
투자
##딱이
복커
찔
판다
황금
능지
뜬금
4시간
슨
을
##1위
##땡
##ps
오리
##정보
##디언
한시간
묶
##있어서
거르고
알림
많은거
말하는
##친다
설첫
점프
집회
적폐
뽑을
13일
좋은점
잦돌
익스프레스
박진영
이정후
##48
이때
##하시
##어떠
어몽어스
나보다
갔다
마레
##일어나
##부로
있잖아
애비
##즈갤
타고
훔
감자
않는
따먹
있었네
##슬라
모르겠다
##놈은
귀엽다
140
아침부터
무서운
대한민국
대깨문
럭
##시리즈
##잦
##드랑이
##구요
오우
##대결
보이는
##렘
댄
고딩
##안하고
부반
##져도
드러
레전
##물고
나오는데
##하냐고
##련아
얼마정도
교체
알려줌
나온거
223
뛰어
핫산
feat
lg
셔
##칼리
##빨아
##ㅌㅌ
##고백
##나도
##아재
##로만
다름
##치는거
뭐함
했네
무페토
주술
될까
##글에
##용으로
토토
##겜은
단발
크보
쌉
찍덕
남자는
먼데
취급
듀얼
진심으로
남순이
웃긴게
싹다
베르너
펠릭스
곤
##yp
##다시
##넥
시나
시벌
##한적
안하면
##오프
##제이
모습
##같아서
야생
무휼
##힘들
##할것
못보
##동원
올릴
##처리
구분
##탬
##회차
쓰는데
현직
나왔다
떡고
잡고
악플
뜻
##띵
트레저
dlc
pd
##룬
##에만
조각
##스텀
##주얼
하고싶다
하꼬
그립
##타지
없는게
도망
치면
사람들은
포함
순서
써도
웬
똑같은
가축들
스카우
침착맨
1루
쎈
쩔
톡
##쇄
##ᆻ던데
##ᆯ케
##al
##로워
##보가
##마냥
오바
깃
##치킨
##정지
##디덤
대문
대형
해주세요
##티켓
좆돌
##단기
##식은
게스트
치고
히나
나오고
투기장
망한
초딩때
확진자
워녕
걸어
픽뚫
2019
65
쏜
나ᄂ
##사라
##사위
마감
사료
안써
기존
해줄
##새키
##르르
좆소
같네
코어
연출
쓰는거
현역
##받는다
동남아
좋아요
##교육
##아니고
보고가
한번에
귀엽네
뜨면
##했더니
케틀
##줌마들
데려오
##잼이네
혜자
ap
잭
##톨
##쪼
##ic
##가격
##시로
##데려
##아크
##해진
##자체
하는거임
지들
##사서
기적
모의
스탠
유료
못잡
##방이
##동의
김우석
말투
배틀
메카
##살까
##럼프
몇시
호날두
##월드
발매
텍
##결과
##채널
친구들
##뒤져
##해주면
기분이
##놀이
세라핌
양준일
3만
mm
you
섀
##가챠
이준
##기간
##기능
##야하는데
시너지
지난
##대네
엽
기준이
몹
자세
인별
##적화
라핌
##계의
문과
예비
맞네
선넘
히트
##투수
봐줘
의심
외퀴
싸게
있었음
121
##등학교
퍼섭
##ㅜㅜㅜㅜ
문재앙
##엄마
유일한
##뭔데
05
31
pvp
##탱이
##하누
##하더니
##다음
어우
사무
사경
안정
##대신
##오르
##노블
보구
##될까
##타령
정부
무뽑
문코
뱀
실제
##근혜
감정
똥찬
뒤진
##목록
걸린
##향이
##있었는데
봉준
프리뷰
효율
스카디
사르포자
옹
##밸
##이제
##나비
조눈
##삭제
##장해
근처
정의
주는거
핑크
리뷰
##호감
김재
##까지만
경상도
박주홍
불타
##쳐도
##판이
몇퍼
그래픽
땀
##이었네
##이었음
교보
념글에
##나와서
먹었는데
밥먹
유닛
맥주
비트던
##헨델
웰컴
1시
4년
7월
bb
묵
##도우
##뎁
##자의
나서
보임
아니노
##룹이
만붕이
방패
##선택
##점검
원하는
##보다가
배당
로헨델
실수
##온냐
##메가
감성
염색
귀신
꼬라지
##맞고
빠따
열등
달성
##하나요
꾹앰
##웨이
스포츠
읽어
어떡함
신인상
수사렌
8강
as
##24
##oo
##학이
##하셈
##인치
##사도
여사
##되노
자낳
밤에
유플
수강
우유
인벤
##모음
##차단
거냐
예구
##형님
장점
강원
##맞는
내일부터
있어도
천재
접어
싫다
악마
너넨
봉준이
괜찮은
왜이래
쥰
ㅋㅋㅋㅋㅋㅋㅋㅋㅋㅋㅋㅋㅋㅋㅋㅋㅋㅋㅋ
왕따
어캄
뻘
##앨범
##꼽
##90
##es
##리치
##거다
##아트
어류
젊은
##러지
보네
보는거
무엇
없을
##모스
잘해
##카는
##카테
신한
김호중
##돌려
투구
##하지말
우리도
여자친구
##길드
필기
안되는데
운전
응디
##채원
170
청소
이해안
##확정
봊돌
즙
##ᅪᆯ영
dumd
척
##쿄
##200
##갔는데
##야되냐
시대
닼
##트에
##바로
기관
몸이
##묵
했더니
##간지
전혀
공명
부자
##내가
##질러
##녀가
예뻐
최악
10시
10개
##망주
매물
데스
컵
커스텀
펫
##ㅠㅠㅠ
꼬추
엘롯
있었으면
집중
븝딱
##옹이
프라이즈
##마이걸
1만
ntr
##un
##섯
##야한다
가지
저건
오지네
지현이
사쿠
##읍
긁
##대1
##일로
##갤로
##끼고
##타자
바나나
유키
##히어로
노예
좆이
전담
잘함
##할지
##동은
##작가
세금
문상
##감독
프메
##줄게
의대
싶음
##불가
터진
괜찮은데
일러스트
답변
힐러
느낀점
한동희
언니들
피시방
3분
47
bj
##하이
아키노
##해지
나스
##야하냐
하마
하지마라
안에
엿
보수
보소
##욱이
##북이
유희
내놔
##릇
##피가
잘어울
##소설
부터
올시즌
##코는
방역
##포엠
카스
장발
##하겠다
##망겜
이번시즌
##창년
##은것
단장
외야
##했긔
서울대
앚퀴
듀라한
붙어
기사사진
앰창
퀵
화장실
kb
##궈
##몰라
##zz
이동
##곡이
아츠
##수비
보러
##의사
##정은
한개
한승
##타이
대화
얏따
수험
##안해
공방
##봤자
##코어
##선권
##당하는
아이템
걸레
별명
이쁨
담원
찾았다
생각해보면
듀오
무서워
쫌
슴고
객관
3루
쏠
##99
##리안
##나무
##기다
아반떼
##득이
가까
오지
지켜
마마
그건
진자
##우우
##갤도
있으
##샘
##건지
##으로도
놈이
##할래
부랄
##글이
##국수
차기
##캡
리더
버리고
먹고싶다
박원
매도
커미션
우리팀
여자들이
테슬라
##희롱
건강
홍이
##뽑아
슬프
없어도
나올까
괴물
블루카펫
긍정
김연아
bo
측
##걍
##ᆺ다고
##가는거
이대로
##라임
##봉이
##슼
어빌
##잡이
여전
미사
했던
##히면
인연
피지컬
붉
특이
##코로
파란
세리카
##연습
##형은
##하네요
토마토
##좋은데
둡
분노
직원
탈퇴
알아서
슬로
게이들아
쥬얼
##롱빵
개꿀잼
가슴이
앱등이
경원반지
##끝나고
##바뀌
1일차
뼈
켄
ㄴㄴ
##퍄
##ᅭᆼ
##돔
##닉이
조닭
나은
가든
##구매
지니
안무
안좋은
##대면
##치냐
있던
해봤는데
제니
전력
공연
리메이
구롱빵
파스타
치명
##급으로
힛
불법
매미
##출신
친추
분량
클래
아무나
어려운
##케이스
랭킹
모르겠는데
주말에
##좋겠다
5만
##꼭
##쪄
##기전
나타
그랑
닫
##조아
##역이
##부기
근육
대선
내꺼
좋다고
우리는
비하
맞나
##줘도
##패턴
##받을
얼마임
누구야
간지
한국에서
행사
14일
##팩트
##궁금
##똥찬
갈아타
투표인증왔
샌박
오나홀
3차
9시
com
##펄
잇어
조센
가고
오닉스
마르
삶
##요한
##오빠
보자
밖
욘
신섭
못참
##소득
생각했는데
메좆
몇시간
패러
패배
결장
반박
틀와
작품
##튬
교육
##클럽
쉽
##뭐야
창국이
160
괜찮음
##놈들아
##했었는데
듣는
은근히
북한
콜로
마일리지
깔아
ㅉㅉ
##ed
##갔다
이마
이명
##하려는데
어지
낫다
짓
왜자꾸
##와중에
개새끼
인프
##모르
##키워
좆나
##할거임
##루루
##내려
##즉
알리
##캐리
라고
과연
연재
##커스
##패키지
동수
뎀
뉴짤
똥퀴들
찍은
둘중에
팔면
##해주는
프로필
그만해
착각
마음에
##아닌데
진화석
ㅇㅅㅇ
43
jyp
ㅈ같은
##pc
##ㅈㄴ
##하루
##도사
##납
아야
가르
##만한거
##구로
사콜
안잡
##대한
##발언
있는게
있던데
##버리고
제외
##안돼
일어
피규어
##ᆷ들이
##봣는데
##캣
##졌어
벗
버전
##연승
선동
타임
연구
##남은
경제
최초
10만원
##하는거지
글로
여자랑
##희찬
30대
출발
노래방
종목
##센터
##캐릭터
일반인
맘마
유일하게
영지점
신민혁
mc
놔
##닮
##넨
조국
##마스터
마영
##깜
보고싶어
##조새
##장도
자총
바지
뭐로
유사
신정환
피싸개
상담
##질이
김성
김진
장기
포레스
동안
결론
새끼들아
심바
돈벌
##블릿
눈이
##릴라
음해
바껴
종결
어려워
이쁘네
극혐
굴비
만약에
포레스텔라
5억
냐
큼
퍄
##둑
##즐
이사
##징이
##어리
##났다
아시아
조계
나나
##굿
##오는거
##무새
있긔
정수
수면
좋을
와우
##모닝
이거지
##카나
##단이
지금부터
라오
##말까
성인
생각남
강제
포지션
하나는
##하지말고
##입고
꽂
넘게
루리웹
##불러
미쳤다
충전
짱개
북커버
##스러운
##벅지
짜증나
가만히
독서실
3000
42
앨
잇음
##시킨
##로운
조만
##보이네
##주노
##야돼
마크
샀다
보이스
##같지
근개비
미주
좋긔
##으로는
너구리
거짓
못한
##재앙
##즈아
리제로
파판
예리
##물은
강의
캐스터
##학원
페스
페코
끝난
눈팅
백업
##라이트
허수
일본어
일본에서
참치
##왔쎄리
##인증왔
##특징
필요한
능국
에어팟
##하니깐
놈들은
블랙핑크
s7k
로빈치
엘롯연합
1번
800
pve
괘
룰러
##뀨
##19
##et
##이후
##거는
##네ㅋㅋ
##스카
##자도
##주자
##려니
##까는
기출
##상담
##부는
개웃기
##그럼
##피는
제한
고장
##워치
주간
주소
못하고
못하네
못쓰
##즈는
##코토
더쿠
예언
영웅이
##줘서
디코
히토미
강한
본캐
##강화
패션
데리고
##란타
토르
20분
초보
뒤질
형님
잠시
준다
쇼룸
커여운
다니는
누군데
부모님
덴버
##gain
rock
64
##이는거
##하셔
##아나
##기어
아리아
##스에
갔는데
지우
##대냐
뭐부터
유마갤
정주행
##르기
수고
좋을까
##차는
애정
##좀요
##회로
로스트
할배
어디로
##멤버
##혐이
뉴빈데
싸인
##순간
##알고
##겠지만
##될듯
육성
선택권
엄마가
##보은왔어요
대기업
이어폰
우파메카노
소름돋
61
ar
dr
겐
ㅅㅁ
##믄
##뜰
##싹
##sa
##쯔
##ㅈㄷ
##닫
##리젠
##시스
##게이야
##주환
##만은
하아
하는건
마시
##대사
##수정
모름
##묻
##신기
바썬
정민규
##터짐
수급
우린
걷
신비
##방은
트럼프
##명은
상대로
많다
드는
##포트
##심한
카라
연합
##매매
##멋
##리는건
##련들아
클릭
##찔
##엔딩
알았다
베스트
다른거
밀리
##킹롤
##먹었는데
늘어나
잔다
##아이돌
데이트
깔끔
퐞
조만간
d59
헉
ㅍㅍ
##ᆺ집
##하실분
##덴
##주기
##야댐
시즈
##마켓
##구도
그라
그동안
##바리
##미스
##상관
##갤을
자사
##성우
재수
재평가
구린
파수꾼
##공이
남았다
박근혜
어디에
##혀서
언제나옴
##갈때
##거같긔
태블릿
본인이
문제임
얼굴이
게이야
사이버
##빡이
만들면
생겼네
역겨운
튕
마렵다
##쌤
균열
44
갈리
푼
이년
입니다
이럼
##라며
아픈
##넴
가냐
가온
하긴
지속
##사냐
##트넘
##노스
보조
기자
아니시발
뭐여
정체
수가
무난
에디
화나
피드백
##루는
##ᆷ들은
도네
방구
##먹는거
살기
솔랭
##붕이들은
글이
##이라서
추천점
꼴리
싶네
완결
함성
쉬운
##탄절
절반
어렵
##십쇼
똑똑
24시간
##30k
자주국
##아닌가
긴급
모자키
박정수
##볶이
자낳대
수강신청
46
56
58
l30k
st
##갈리
##ᅨᆯ
##os
##이니까
##이든
##집이
##스틱
##해제
##해봤는데
##해놓고
나코
##주는데
하라고
하고싶
하얀
오전
안올
##까고
##디디
근대
##섹
야간
숫자
##모리즈
##킴
넓
못이
공매도
영원
##배수
타자
딥
할카스
재밌는데
늅
감동
발로
##이라는데
손가락
##벳
접대
폭쥐
월요일
업적
염보성이
학생
악질
행정
올해는
졸커
##쩡
##듣고
밸패
고마워
##roll
살인마
스마트
사전예약
4시
66
62
ps
ui
찰
##ᆻ으니까
##ᆿㅋㅋ
##입이
##시도
##데미
##섭이
##니폼
##해준
##인원
오마이걸
##트롤
##오고
##제일
##옆
##여행
##전자
##전쟁
스벅
아니라고
햄버
수속
공통
##ᆷ이나
##위가
덮
중간
##준열
카트
프랑
ㅋㅋㅋㅋㅋㅋㅋㅋㅋㅋㅋㅋㅋㅋㅋㅋ
##퍼는
맷
여기는
##해야겠다
틀어
떴는데
딱히
팔고
레전드네
##빈이
250
비비큐
깜짝
선생님들
##신곡홍보
훈련소
양준일갤
깰
뚱
##늬
##ᆻ죠
##시원
##스피
어워즈
나봉
오뎅
##제는
##바페
보겸
##왓
##와이
바퀴
대타
왔어요
##히네
고생
고평가
##개가
잘나
##할수록
##문자
##글은
##실패
##먹냐
리스트
구다
포도
동시에
##란이
##련들
##ㅅㅅㅅ
싶으면
엘사
게임은
나와도
이상해
잡을
노래는
꾹앰들
줄어
황희찬
취업
기대된다
마지막에
류준열
대단하다
랭크
썩어
바뀜
즐거
초반에
베르드
##ingroll
장애인
버서커
rockingroll
1페
ㅈㄱ
##퀄
##썸
##is
##는다고
##지방
##리자
##니스
아들
아크
##만하냐
지들이
##바에
기가
##밑
##밍이
##ㅋㅋㅋㅋㅋㅋㅋㅋㅋㅋㅋㅋㅋㅋ
개편
개사기
##그려
##탑이
수치
수호
왈
##모가
신지
못봐
트레이
지금이
더러
방학
중인데
머뷔
##한테는
배워
로켓
로얄
살면서
멤
패널
##하는것
두번째
##정도로
물건
복지
네임
걸림
117
안될
직장
약속
터짐
골반
헤카테
유진이
닮은
정치질
##라라라라
든든
##바꿔
##라우드
2만원
웅이
##no
##도영
아ㅋㅋ
##보는거
##주인
지효
##미친
##비트
##전사
##레전드
개봉
미나
##차트
좆됐다
부럽
##내역
##먹은거
중섭
머꼴
##호는
좀만
처럼
포스트
포스터
##줄까
어디임
##판에
##못해
싸워
##것같은데
작전
꼬라
뉴비들
##검사
금방
이상하게
음료
좆같아
죄송
죄악
##딸이
##하고싶어
이겜은
만들고
##뮬
선생님
98
no
##쩐
이노
이민
##아까
##스톤
나혼
##야하나
가디언
지도
사냐
##바데
엳
보인다
모임
진정한
##화는
##레인
자존
##무현
근무
수련
좋더라
제이
인강
좆되
신레이드
못가
##덩
만루
더워
##먹기
##브라
##경이
먹방
이제는
10억
호불
##한거야
##된다고
않은
##초월
평범
찍고
##껏
##ㅋㅋㅋㅋㅋㅋㅋㅋㅋㅋㅋㅋㅋㅋㅋㅋㅋㅋㅋㅋㅋㅋㅋ
천사
깨달
아닌지
환급
쓸데
##옵션
앞에서
풋
##떴다
##훈이
흡
겨드랑이
##야되나
댕댕이
마렵네
외국인
나무위키
유격수
커뮤니티
나머지
박원순
리메이크
빽
##리버
##서관
##스럽
##야하는
##드랑
그오
그분
##오나
##그만
스작
아니씨발
있고
해볼
##피언
##있고
왔습니다
에휴
애가
전용
화속
피갤
부천
##켄
머리가
말을
영국
씨발년
최용
##반기
현장
##걸려
병살
##펫
그랜
언젠
의자
##역겨
##것같음
블본
뒤지
죽을
##이야기
별거
탈락
울트라
올려줘
ㅋㅋㅋㅋㅋㅋㅋㅋㅋㅋㅋㅋㅋㅋㅋㅋㅋㅋ
이기면
##싫다
커엽
2020년
낙서
이래서
덤디덤
정확히
스카우터
3시
랄
컬
##흘
##ᆺ긔
##쁠
##쩍
##2개
이세계
##었으면
##기냐
아시는분
##로로
##게요
졷
시작이
##마시
##만드
안들
여장
##우기
##부대
자해
개재미
스샷
유망주
대만
##유진
고3
##모델
전자
전역
거울
##소환
##켈
##즈가
중갤
중망호
니미
라미
##본적
버거
##경민
처리
##용환
##회사
10퍼
돌고
##살아
봐야지
##찬또
##학과
똥냐
##써서
##잘못
##꺼면
퇴구
앞에
시간이
변신
##십니까
몰래
아쉽네
##페이지
씨발련들아
마영전
##17
##는애들
이중
##거리는
##구간
지무
사장
##응이
안퀴
여중
여태
##믹
모쏠
한가
##세이
##세팅
야발
제시
##하는사람
에서
##차로
거야
##생축
화가
피방
##없다고
##점수
원더
로리
##날이
데브
##퀸
얘가
##됐는데
##정도는
특별
115
##열이
##클리
알아보자
15일
터지
##뜯
아닌거
읍
취미
꿀벌
##웃긴
선수들
법사
어쩌고
갱신
07
##fc
##이팅
##걱
##닐
안드
여니
##정호
##렙이
##신영
##버리네
뭐해
내전
야식
씨벌
엥
##킥
존나잘
공공
##를까
##즈나
머지
세탁
##브리
드레이크
느김치
프렌
포텐
##력은
패드립
동양
망갤
발전
여자들은
크기
여기에
테라
은카
업글
컴갤
먹었다
놀러
꾸라
풍월
오랜만
##끊
아마존
정신병자
라스칼
와이번
클로저
갠적으로
스킵
##겹살
dumdi
1주년
3d
캔
ㄱㄱㄱ
##틈
##므
##거가
##기분
##스턴
나갈
저랑
징크
진입
##와도
##타로
##팅이
인도
##과목
좆본
피스
중독
라라라라라
##븝
버블
말도
선언
##급은
들으면
##달고
105
##페미
##받아서
##하는것도
뭔일
##쓰기
##른거
크린이
필터
삼진
당신
끝날
##이지만
슬퍼
139
친구랑
##하자마자
떨어져
덕질
조선족
누군지
다행이다
슬로건
동수칸
풍월량
03
3연
5명
85
sp
sn
이글
##다이
##어때
아는데
##했나
##했을때
##인거임
##주로
가는게
시골
지나가
##사항
사는거
기업
##의미
있습니다
유나
##터진
##있을
일상
##생일
공시
공앱
##먹네
중에서
선배
##달러
아이스크
어딜
데미지
단디
단순
국장
틀퀴들
특성
떡밥이
##축구
모르고
목요일
올라온
미친놈
혼란
넣으면
마음이
20080
그렇고
스피릿
렙업
방어구
유툽
로그인
모르겠고
700
se
껌
쌩
##퇘
##ᆺ던
##도록
##라는거
##기술
아아
##스포
##해놔
##주차
##마스
하더라
##사지
##수잇
##였던
##화질
##부르
아니근데
한강
섞
씨바
고급
비동의
소전
##냈다
만렙
올리고
##먹고싶다
언플
예측
말까
추방
타령
메가
##춤
돌리는
돌릴
##투스
봤다
커마
글고
초대
들어가면
병신임
심장
당근
##늦
날개
100만
그러면
퇴갤
정신나갈
나올때
##ㅅㅅㅅㅅㅅㅅㅅㅅ
몰려
색욕
코스튬
##듣노
오프라인
승리하고
렌탈
워싱턴
조계현
자주국방
01
600
84
av
go
ㅇㄱ
이전
##지역
##나잇
##아노
##기념
조사
##구려
그니까
##젝
보물
##미나
##왕이
##왔음
##모습
##ᆨ이나
리셋
##작은
버튼
##물어
생각하냐
##패는
현황
##강간
##받네
토트넘
좋아서
하나씩
심해
떠나
떴네
루피
뽑아야
막상
월광
##악질
싫은
판단
##센트
##먹었다
마지막으로
보니깐
##수있을까
녹두
##스러워
보은왔어요
키움히어로
고맙다
강다니엘갤
롱빵
핸드폰
라비던스마갤
##gain신곡홍보
1라
4만
8시
끈
##시스템
아가리
##보성
어휴
##줌이
가기
하게
하체
하락
사요
##욘
##수갤
보컬
##여신
자위
자료
##디는
뭐있음
##유리
인원
고스트
일퀘
##카이
신수
과자
##같은건
나오지
##머냐
##판은
##판매
##쓰는데
계란
토론
##누가
초코
##귄
심리
빠르게
죽음
백용환
날이
시작한
헥
찐특
암굴
해야됨
##변경
ㅋㅋㅋㅋㅋㅋㅋㅋㅋㅋㅋㅋㅋㅋㅋㅋㅋㅋㅋㅋㅋㅋ
괴수
##취급
멀쩡
200812
그렇지
홀로
섭종
조용히
나스닥
단디왔쎄리
2분
4대
5천원
cm
po
##댈
##ig
##ㄴㄴ
##ap
##am
##가기
이은
##아들
##아파
##기대
아틀
##주에
가진
싱
시장
##마라
오네
오뀨
삭
안맞
##오버
##일시
모션
##무서
개선
한자
한계
정액
수갤
없으니까
에러
노말
##문학
생리
##위로
만난
알람
##먹지
키가
구제
파라
##영삼
코구
과학
김지
씨발년아
장마
살빼
몇살
툽
망함
20년
좋아해
##된거임
분들
루트
건담
##베리
찜이
130
회복
컴터
윤도영
푸보
##떡상
##바닥
인기상
중요한
대단한
보스턴
섭외
미안해
##마렵네
양심고백
이찬원마갤
##잖음
##홈런
시나리오
pdf
ㅅㅁㅇㅈ
호불호
아이스크림
09
6개월
론
쁘
ㅈ같네
##기는거
아우
아름
##주실
시팔
하던데
##비티
스프
스시녀
해주라
정동원
##핏
##하는중
소감
##파밍
##국지
##먹어서
##캐는
리액
상렬
콧
김혜
드림
##님은
글리젠
윗
의견
크래
클라
안되는거
찌찌
승급
염보가
깼다
한번씩
흑발
준지
뜨는
##넘어
삐앰
어렵다
##다니는
놀아
정상이냐
스타트
택배없는
어떡하냐
서포트
채팅창
##첫방축하
무섭다
거기서
lpl
쪄
##녹
##게퍼
나이트
##주나
저능
지수
##오브
여돌
##발라
##ㅋㅋㅋㅋㅋㅋㅋㅋㅋㅋㅋㅋㅋㅋㅋ
##장으로
자라
자야지
미우
해피
##터져
수인
없긔
에밀
##개로
##번트
##할건데
신의
##위에
##내용
만날
만두
도박
같아서
##ᆻ었네
상식
누굴
시발아
##포스
치이
로쏘
사람을
박살
##붕이들이
##통이
후보
데드
##퀴즈
까질
얼마에
빠진
##찌개
적어
##색이
백퍼
약국
##이었으면
갈라
됐는데
용선권
헤드
명예
좋은듯
환영
뜯
##했잖아
시즌1
빼면
궁금해서
##놈들이
마이크
성공한
책임
오프닝
왔찬또
문코리타
햄버거
04
2시
ip
or
rpg
꽉
촬영
##뚱
##ㅂㄹ
##나는데
##라타
##악이
##겐
좇
##햇네
##주는게
가는데
시점
하향
##랑은
개이
한대
##버튼
미모
서열
고졸
엑시
요번
전북
##생긴
##방패
##없는게
재업
코코
레인
디지
포토
##짤드컵
##올리
매번
커리어
##좋냐
염퀴들
필합
얼마냐
##스타일
눈에
죽은
태그
달고
백신
##픽업
##왤케
폰으로
김태균
키우는
아무리봐도
만나면
틀딱들
##찾아
워뇽이
스피커
맞는듯
안타까
혈귀혼
선착순
02
2억
63
##ㅈㅇ
이누
##도시
아칼리
나가면
##주세
##맛이
##사에
##렴
##오라
진실
대장
야수
##티비
무관
존예
우르
우선
##애비
##키가
좆쥐
잘한다
못하냐
##동호
소니
##프가
##크는
되고
알지
##긴하다
상품
라포엠
구리
코루
남음
##말은
레어
로갓
살구
쓰리
쓰는게
박민
아이콘
##메타
블래
누구랑
누구누구
은비
막아
아무거나
##편임
엔터
횡
받았는데
175
맨시티
표절
그립다
살아남
코스프레
아마기
씨발련아
예비군
3배
wh
욱
짠
##첼
##cd
##었냐
##시험
##나노
##깃
조상
가즈아
시비
하려고
오브
오승
안남
다가
기인
##정상
##비싸
##디가
아닐
바이스
유카
정은
##있나요
우흥
고아
고우
비해
##모아
일요일
##소서
피파
픽시
##파리
더워서
##한텐
타라
##살기
##현준
후장
똥칰
##언급
페르
꼴려
꼴리면
블레이드
건보
허벌
천천
광주
접씨
알았음
학창
그러니까
잠실
쓸만함
##넘게
##컨셉
높아
##하고싶은데
육군
옵치
커여워
랜선
##몰이
그렇다
유명한
왜이러냐
공짜로
씌
##솩
##시브
아케
##인이유
오냐
오줌
지고
##사제
마인드
##노가
##일기
긱
##래도
한식
##성을
##픽이
##핑이
##있게
서머
일이
전국
##소가
피셜
##직캠
도현
도쿄
##적임
##명의
새우
##호환
파괴
##공부
남녀
##라곤
성배
성희롱
로또
프듀
히히
##올림
##쓰는거
##사람은
##충인데
##련이
단점
둠
귀찮아
열폭
적응
건물
##꺼임
##베르
통일
교통
용서
쿠키
된거
##쯤에
스트레
빅히트
##혈귀
3개월
타이틀
##ㅡㅡㅡㅡㅡㅡㅡㅡㅡㅡ
미안한데
맞추기
룩삼
##마렵다
펌프
유희왕
수험생
최용제
4일
eu
긔
끔
록
털어
##ᆺ서
##짹
##이던데
##곳이
##도배
##스펙
##스틴
##줍
저딴
##음식
하랜
##구단
오피
사업
##대도
보빔
##전에서
##세가
미나미
대답
수리
잘하면
공중
소녀
##내면
니지
구조
##호사
느꿈
##태그
최후
히오스
##펑
불만
어디냐
##산다
동일
계좌
국힙
때마다
##귤
블매
뒤집
플로
찍었다
폭발
싫음
올라와
##가능함
변기
미쳤노
이러냐
꺼지
##총공
사라짐
견적
##밴드
ㅠㅠㅠㅠ
배경화면
게시판
##껀데
3인
4명
므
탕
##27
##3개
##김에
##스도
시급
##만루
오클
지현
##전까지
##같애
##세스
##세븐
해석
##터는
고대
고통
요구
노수
줍
못깨
화이트
생방
더이상
방향
팟
##운지
##공격
##말이야
문학
##체결
씨발년들아
##친거
할만함
박세
##돌림
메린이
몇일
몇시에
데바데
크림
두고
작작
엘지
이상함
##틀딱
임기
바꾼
##보니깐
체험
컴으로
윤석
프로듀
시간에
변화
쥬리
러블
힘드네
##퇴근
하지말
덕분에
타이밍
부탁드립니다
찢어
소개팅
왼쪽
오타쿠
싸이코
tno
믈
테이
##눌러
##97
##ew
##ta
##ㅎㅌㅊ
이김
##고민
##나냐
##나온다
아키
##들에게
어서
##자수
하필
##수밖에
##좃
##무게
갬
개오
정화
수록
좋겠네
인구
주민
못하면
부계
도서관
##실력
##적은
중간에
리모
라는
##선물
남성
카르
얼음
##쳤네
패드
점령
페북
##들어가
심판
돈을
떠오
##찍음
##놓은
뿡모리즈
헷
##많냐
판타지
##렙인데
찾음
그런지
나올듯
그림체
낮은
똑같이
신기하네
어디갔냐
끌어
아니었냐
세상에
튀어
크로아
님덜
##스토어
열등감
짤리
##ᆸ스
##5성
##ts
##는듯
##서울
##에다
##스케
##저히
##인사
시위
시후
시조새
##구야
지만
지배
##사로
##조각
##였
##치는데
진작
##빅
##무슨
##셉이
대중
##테이
##르가
##히고
##애는
에스
전소
주세요
##루가
##분간
##단어
##배기
최적화
##팸
매우
##관왕
##란트
질투
망왑
글러
##나오는거
발언
삼전
##인가봐
백호
음바페
모르겠네
광대
던져
뭐냐고
쉬는
##징어
100만원
울와
##뭐노
윤영삼
푸엉
어렵네
경기도
러브
챔피언
잘생김
##잔아
아쉬운
어쩔수
1부
5번
cg
##ol
##이요
##이잖아
잉
이기는
잇냐
##리프
##링이
##시나
##도로
##도못
##기는데
##니어
조져
##자면
가도
가는거
가정
가야지
합니다
오디
지겨
##려금
##깎
##노ㅋㅋ
모기
##치마
##움이
##부부
##렉스
자격
##무시
있더라
근로
무너
고딩때
엑스
##차가
주지
주의
소마
##파라
트라이
같노
차별
##긴다
람
라리가
##민아
김선
##당이
추이
##커여
이제야
##살이
##부터가
##받는거
끝남
이상형
갈수록
##할땐
##할때마다
롤백
임시
군인
그럴
뜨네
괜찮은거
넣고
꼬마가
##팡이
데려와
색깔
##만큼은
##웹툰
압도
우울증
웃음벨
히로인
멈춰
nc다이노스갤러리
극장판
신한류
2각
dm
땐
##촉
##띄
##xia
##ㅡ발
##ub
##도전
##라드
하는거냐
지리네
안대
안올라
##노잼이
여왕
##미미
##신가요
미만
냅
해보고
좋겠긔
서새
제왑
##히로
비주얼
일간
##할만
##소는
피씨
##분이
##내서
##봤음
알게
##ᆻ었음
상황이
##런트
세나
남편
말하는거
먹는거
107
##승리
##줄은
##페온
##한거같음
후려
후타
언제임
글을
##해야되냐
이런건
심함
꼬홀
특가
있어요
gisa
##볼때
뽑은
##불쌍
슬픈
그러는데
##빨고
##떳다
##큠
ㅋㅋㅋㅋㅋㅋㅋㅋㅋㅋㅋㅋㅋㅋㅋㅋㅋㅋㅋㅋ
면상
유니크
논리
##붕아
끼고
의미가
승리의
스텟
##흡
##wwww
원영아
##줄알았는데
김준수갤
나눠
최악의
로스트아크
2인
5일
it
쇠
쿼
쾌
##텨
##뎌
##셰
##2는
##가져
이더
##리니까
##거긔
##아직
어이가
가이
가벼
하라
지듣노
##대서
##오는데
모닝
진로
##와꾸
개쳐
개판
개지랄
내신
인기가
##키니
일루
좆구
전개
화난
소신
##00억
##크림
되나요
도라
##코코
덩
김정
문화
성갤
타마
타카
##용병
##매수
들을
장문
##반도
사람도
##달려
쓰기
메일
요즘도
몇달
입장에서
하나로
않이
##됌
##군요
삼겹살
##합격
##백호
##ᆻ던게
##ᆺ어요
헬지
휴지
##뷰지
케이가
##아아아
몰랐는데
##넣고
##ㅠㅠㅠㅠㅠㅠㅠㅠ
##숙씨
안나오냐
불쌍한
축하해
##앞에서
퓨딜
맠신영
거짓말
drx
학창시절
3기
ch
##ᆻ겠지
##bs
##이로
##하죠
##니다
아미
어둠
시도
하니
지갑
사가
사은
##오가
##수를
기여
##상대로
진궁
##부지
##무사
##그마
스틸
##버거
밟
미개
해킹
##티브
수집
##으론
씨팔
고2
##키고
잘하고
##할인
재계약
세대
세일
##뱀
##형들
히든
포르
돌리면
##통피
##돼서
##권이
당분간
풀발
볼수록
잡혀
교복
##클라
다른건
올라옴
좋은게
미친새끼
뜨거
혼다
느끼는
프로그램
16강
먹어도
##ᆨ싱
보낸
몰라서
스카이
부러워
##하지않음
곱창
멈추
콤보
이태양
퍽퍽
여전히
1점
6천
an
of
띤
ㅂㄷ
##ᆸ은
##ac
##mi
이슈
##하성
##하십시오
##리랑
##기랑
##스택
나가서
##마넌
오락
##삼이
##바르
##래서
##전무
##무대
개나
스파이
##신수
##짜피
미체결
대출
##모르게
거르
존나재미
못해서
##소울
##본데
콥
김요한
말은
##당하면
카걸
##태가
실드
생각난
생각해도
##반에
##퍼가
돌계
##쳤다
##패고
##걸레
감독이
##겠다고
##이라니
손자
손목
##써도
##설레
넘모
태양
적자
직구
노래가
갓성은
깨워
군대가
##있어요
등급
확실한건
이러고
이기고
침대
##끗
안나오네
역겹네
아니었음
쫓
들어와봐
##이이이이
수사시
어카냐
어떨까
븨앱
아탈란타
징크스
저능아
푸엉큼
4위
5시
usd
war
xbt
yg
ㅌㅍ
##뜩
##다는데
##리면서
##에이
##기기
##니카
##네일
##보이는
##해볼
##주택
가위
시외
##한점
##밧
한국이
대세
해제
##융
없을까
비게퍼
##안하면
노블
##키면
이거보고
좆사기
주차
주먹
##소리가
재탕
##국에
링
##토스
문신
성과
힘이
할듯
##메뉴
##받냐
투명
입은
##충은
위즈원
발기
병신아
국뽕
##거같네
금발
이상한거
안되지
뽑으면
시작함
폭사
편성
문제점
헬린이
웨이버
레전드다
##팬들
독립
이쁘게
찜은
이새끼들은
믿어
겹
##먼저
##애미들
스윙
ㄷㄷㄷㄷㄷㄷㄷㄷㄷ
익숙
년들
칠플
견제
이모티콘
심심해서
오른쪽
ㅅㅅㅅㅅ
##어떻게
덤디덤디
픽시브
러블리즈
41
깬
녀
ㄴ짤
ㅎㄷㄷ
##if
##li
##잇는데
이영
##지는게
##리로
##리얼
아머
##로마
종이
##맘들
##구니
지인
지박
##사스
안감
##오지
##오후
보드
##의지
##겨서
##티가
##안되냐
전원
전직
공대
소화
##봐야지
덥
##질듯
말라
말이야
로드
실험
##두면
##메오네
##받은거
##학년
반고
크루
까고
테마
테일
##블락
루머
##탈출
막혀
모르는데
딱대
써야
검머
일본은
일본인
##팀은
##악몽
온냐
##뜨네
팬아트
쓸모
일러레
정신차
##칠이
웃고
만들어서
##놨는데
흐름
ㅋㅋㅋㅋㅋㅋㅋㅋㅋㅋㅋㅋㅋㅋㅋㅋㅋㅋㅋㅋㅋㅋㅋㅋ
송가
핵쟁이
웅장해
쏘대장
몬가
##버렸네
미안하다
지방직
베이스
##맞추기
사쿠라
투표인증왔xia
3억
54
69
겸
ㅇㅂ
##룽
##꿔
##ᆯ때
##쌀
##ma
이과
이시간에
이륙
##리도
아슬
아킬
##게시
##겟노
##보러
##보이냐
어짜피
시드
하러
마츠
마차도
그걸
안떠
보이네
보셈
기괴
##미터
##발이고
##조가
##치로
##비교
##부턴
##무섭
##디스
개새끼들아
##타기
바닥
뭐든
##에서만
정연
##팀에
오늘이
##있는게
인식
고치
전세계
잘하는거
주린이
피뎁
공속
공기업
소원
부부
##린게
구성
들은
할만한
##달에
본섭
##땃
재미가
그래프
##월에
확장
##됐노
##한다는데
들어갈
두부
싶어서
채워
아직까지
뒤지게
뉴비가
##설정
찍으면
##라이더
막타
머리색
처음에
흑흑
괜찮네
17일
##먹어도
이새끼는
찬성
재밌는거
개좆같네
##풍기
늘려
행복회로
어쩌다
금지어
얍얍이
팝콘
아줌마들
##프레임
켈리
소속사
꾸준히
1주일
2장
57
5000
ak
pk
려
뭉
##캉
##ㅁㅎ
##hd
##이동
##가치
이달
##하여
##하길래
##십다
##데기
##나고
##나는거
##서는
나연
가방
하지만
오가나
##사장
##대통령
여스
봇
모금
##조작
##의식
##우진
##갤의
개장
내부
##원에
정답
무근본
##으로만
##있긔
고등학교
비제이
좆기
좆끼
##중요
##파가
##직원
##크가
도감
##국밥
머갈
상장
구조선
##영은
##질까
##고싶노
##줬는데
배신
메뉴
입금
여자한테
두려
국야
ㅇㅇㅇ
당한
양키
날먹
##잇는
검제
갓데
갈까
##족이
##팔고
철구는
암살
어렵냐
충무
프리미
힘드
빌런
40분
##흉
좋겟다
사라져
##컴백
##논란
##투표인증
한동훈
유투브
흉가
컴디씨
천천히
리모뜨
68
77
벅
팰
##as
##다님
##나봐
##햇어
##인대
시체
저희
##만으로
##사실
마카
##으려
안고
안걸
##젬
##장려금
##낄
개털
아니긔
한두
뭐있냐
해주면
##진구
##테라
오늘따라
좆냥이
전공
화이팅
공이
공장
##문이
부끄러
##프는
머선
라도
영양
##당하고
레카
맞고
프린
이제부터
최신
이유를
##근황
본가
##메일
좋았는데
어떻게함
##맞춰
##설x
##결정
건곤
막차
##슬이
다음에
시작했는데
폭탄
##놓은거
베트
첫날
##량이
##왜이
빌려
정상인
유니온
느낌임
북미
도와주세요
경원비
전설이다
세계관
세상에서
밴드
이승현
##숭아
스티커
넷플릭스
the
이준기
sns
녹두로
노수광
믈브
사은품
ver
꿔
##ᆻ는
##븜
##이발
##지어
##하며
##시점
##락이
나이가
마니
안치
##제성
##되는거임
댐
대처
해봄
##유미
##유입
##진혁
제2
인가
비호감
이거임
##개는
##할거야
못버
공산
##문고
##윙
도저히
지금이라도
차이나
##먹을까
키작
새삼
레고
배포
솔직
메구
이번화
##창모
매장
계수
##복구
##석은
들어간
필리
##아니야
양아치
123
12강
##색기
갤럼들
보고가라
접는다
합리
너네는
찜앰
벌써부터
믿을
##균열
센텀
좌표
페이트
닉언
아쉽다
안나온
##펙트
에이텍
쟤네
칭호
다음주에
보이는데
버즈라이브
##겔스만
1대1
4천
ms
팍
##턱
##1발
##ㅊㅊ
이다
이우
이노래
##지수
##시지
아메
아쿠
어머
##자임
##주거
##마음
안하는데
안했는데
여유
##낌
개시발
바낸
뭐하노
내놓
수술
무선
##있을까
왔어
씨야
##모리
##안이
일일
잘나가
##할텐데
주냐
##중이다
##소에서
##루스
##루토
##파이어
##프라
##위권
킴
상처
버스터
치는
##님의
얼평
최저
할사람
이유로
돌핀
토츠
외식
##갈비
##것같다
싶었는데
나와라
집단
팔로우
첫방축하
##인거냐
##센스
##븅신
빡치
러스트
필요함
표현
싫어함
떨어진
몰아
뿌려
ㅋㅋㅋㅋㅋㅋㅋㅋㅋㅋㅋㅋㅋㅋㅋㅋㅋㅋㅋㅋㅋㅋㅋㅋㅋㅋㅋㅋㅋㅋ
##시킴
느금마
내려가
큐브
##파이터
멸치
하다하다
탈리스만
헌혈
##이쁘네
##귀엽네
기적의
여사친
카스미
글로벌
2던
4만원
둥
턴
##냉
##ᆿㅋㅋㅋㅋㅋㅋ
##te
##가수
##담이
##고사
##시마
##시킬
##서가
##아빠
##기지
##들면
조공
##보인다
남들
가세
저평가
##맡
옳
오탈
마핸
사울
안다
안해주
안받아
##오노
기도
기획
##디비
스워
바드
##짜증
##성아
##진않
정작
숲
없으니
서약
비디디
##애들아
노출
좆창
너만
신입
알파
니키
새봄
##준거
##선은
##계란
김동
남돌
선녀
##남친
얼른
##플러스
할수
박준
캐밥이
본적
현식이
받는다
ㅅㅂㅋㅋ
##교환
들어가는
##이라면
##이라는게
##이라이트
병신겜
국대
##인가보네
어케하냐
##했다가
볼때
백인
날조
뽑았는데
쳐내
문제는
미친년
받았다
봉퀴들
희귀
퍼스트
붙여
ㅋㅋㅋㅋㅋㅋㅋㅋㅋㅋㅋㅋㅋㅋㅋㅋㅋㅋㅋㅋㅋ
몰빵
##넣어
##이였는데
##ㅅㅂㅅㅂ
딴건
댕라
##졸업
레벨업
##는걸로
협동
세이브
탱커
##댓글
바뀐거
주변에
평소에
뻥
핑까좀
쵸비
힛갤
패러디
##생축보은왔어요
라라라라라생축보은왔어요
서새봄
815
bl
꼰
댈
쑤
헤이
##궤
##갱이
##ᆻ따
##fp
##ow
##xx
##ㅎㅇ
이하
##핫
##하러가
##도라
##아다
##롱이
나발이고
저주
오열
##으려나
##트니
##오니
몸에
##부들
자식
자러가
개쓰레기
아니겠지
##신고
##버는
미소녀
유부
해적
##르트
무게
없잖아
와라
고전
##안하냐
못봄
##생들
##인데도
소나
도트
##준다고
##토끼
김대
##연애
##같은게
타팀
로제
로우
살사람
할머니
##반고
사람인데
나오노
나오겠지
강아지
포스
본체
##걸린
##창년들
##쓰네
질질
##충들이
##법사
##학기
하나같이
##것들
물리
꼬우면
##맞네
당당
특수
##릴듯
##찢
풀려
음반
##채팅
교정
쉰
쉬움
엔젤
체크
없었으면
##왔킹롤
처음부터
쓸만한
##센세
##먹었네
필요가
증명
저녁에
##하하하하
##뜻임
괴롭히
스페셜
댄스
한승우
맘마통
##gain신곡홍보왔킹롤
이은상
3점
5g
lv
pt
쌘
##ᆻ거든
##ᆺ더니
##쿰
##뿔
##이는데
##거라고
##들끼리
##스럽게
어벤
나간
##마일
하도
사석
##윽
그레이
안까
안먹
안달
다르게
여프리
##수의
보호
보이냐
##상향
##비율
##벞
뭐니
뭐해야
율
유산
##진은
수원
존경
고화질
비행
##소식
공백
생기면
##크업
ㄹㅇ임
알겠다
리치
남았는데
예술
난투
실수로
최상
##반응
박수
박병
아이린
씹소
##투자
망토
##충전
역갤
##박은
얘들
방송켜
나와야
운빨
##베가
##라이온
뽑고
허벅지
##찍으면
명함
명품
팬미
암만
앞머리
##딜러
ㅁㅌㅊ냐
사기꾼
##듀오
봊연갤
증가
신기함
릴리
한달에
쟤는
갖다
김민주
품번
아빠가
사펑
왜저러
잃어
치즈루
##리버드
피갤집
리액션
택배없는날
송가인
1호
cp
##ch
##썩
##26
##hz
##bc
##ya
##이터
##이언
##에스
아포
아버지
어른
어릴
시메오네
사상
안한
안뽑
보유
보성이
##의원
##부심
자원
자막
한게
미노
서번트
고1
고르
빚
##모집
욯
노란
주가
공단기
##루나
##내내
##봤어
알루
누워
파렉
세컨
늑
느악몽
로마
살고
강정호
씹타
동숲
봤냐
##은거냐
단일
깝
두달
복습
루페온
볼만
떡볶이
날려
쳐다
##찍은
한국어
한국은
월클
##놓으면
참가
됐네
환장
환경
행동
없는듯
몸무게
##숑
표지
##해보자
쏟
확률로
좆망겜
크로스
짐승
이득임
스쿼드
npc
벼
뿔
쑨
촌
##첸
##뤄
##ᆺ는대
##ee
##쫄
##mm
##us
##가봐
이대
이씨발
##도환
좁
##자지
##자체가
##저미
##인큐
오퍼
샄
사인
##수술
##되니까
##되나요
진혈귀
개돼지
바텀
##세끼
뭐긔
유미
대가
내리
해금
야리
##티즈
없나요
##하는듯
##모으
에미
노부기
전반
너는
너의
##할줄
##할거같은데
##할만한
신용
##소년
부들
코옵
많노
김유
시발ㅋㅋ
추첨
##급이
##고싶으면
경치
티나
10강
##망이
호텔
호감이
##ᆸ이나
봐주라
브론
좋아하는데
역할
##하다는
##군아
귀속
땜에
삼국지
하는법
건드
떡인지
날라
홍이형
딱봐도
욕심
울어
##많은데
회식
꾹은
컨트롤
돌아와
해야겠다
힘듬
##놨네
##픈데
높음
##생각함
##뮤직
싸우면
##시키고
잦스틴
불쌍해
바꾸면
얻어
숨겨
스위칭
하이반
박정민
##오오오오
수도권
완벽한
아지르
드리블
충분히
이쯤되면
킨드
cgv
근로장려금
3일차
by
sh
날리
쏴
##꽁
##2가
##400
##ba
##36
##가루
##시나요
아파
가려
사촌
급이
안지
##트롯
여주
여혐
기름
모여
##상승
##무는
##무유
개그
개잡
##같으면
스스로
한마리
얌
수지
무지
와타
젬
제국
인물
일기
##루트
부유
##파크
올린다
돚
##실에서
상하
구멍
코노
코치
과천
김채원
예나
영통
##포수
##경우
난리나
연어
디자
롬
실검
히하
포틀
##추는
##페인
패는
후원
토미
##충들은
의문
단타
싸울
병신새끼
꼬리
삼각
응지
##지않을까
##놈의
##가능성
빨라
푸르
##풀어
그만하고
##하자고
유튜브에
꺼내
극한
##한건가
펭귄
국가직
캐릭이
구독자
컴디시
인프피
네임드
테일즈
1이닝
67
ex
man
pv
쟁
##돡
##짠
##이구나
##지니까
##에바
##앉
##로리
##햄
시티
오를
##렁이
##럭스
안주
안돌
##요미
##는거보면
모솔
##칩
진영
##우리
개새끼야
스압
유전
대머리
수박
좋던데
진짜임
##모션
요미
##차별
노리
##분의
부매
되는거임
재난
같애
##청이
리즈
##작권
라피
굶
구창모
김수
성지
##남음
씨발아
경찬이
로보
할매
강지
뭔소리
받아서
##란게
망했네
글쓴
크레
깝치
특전
넘겨
125
직전
은행
써서
찐이야
찾는
창렬
팩질
##했습니다
산책
##겠습니까
##참기
죄이
있다면
##퀘스트
템렙
##야되는거
##시키면
아쉽
##드랍
퇴근길
##스럽다
어느정도임
##챔스
도움좀
줌마
2018
델핀
##드려요
귀신같이
ㅌㅍㅇㅈ
1화
2일
220
3주년
96
ma
ㄱㄱㄱㄱㄱ
##툭
##ᆻ길래
##먀
##풍이
##콰
##ver
이사람
이악
##나만
##들임
조립
##스워
##인도
나처럼
##만도
하려면
그지
그녀
안한다
안쓰는
##깍
다저스
##대상
##갤임
미스터
해방
해볼까
정권
좋노
좋긴
왔네
에코
놋
노짱
존나웃기
생산
##파워
##ᆷ이네
##단은
##실화
중딩
중딩때
구원
##연패
치트
성현준
##감성
##급임
연동
배그
생각을
박고
불꽃
메르
##너비
##살에
몇임
입덕
##스트라
우리나
외전
##행시
##군이
때는
##예상
어떻게됨
필승
복수
나왔어
##찡
날짜
찐팬
종료
##활동
##할까요
사이드
사이즈
##혜원
개좆같은
##넣음
여친갤
빅텍
이쁜데
현실에서
몬헌
##드라마
직업이
릴리아
뮤직
ㄷㄷㄷㄷㄷㄷㄷㄷㄷㄷㄷㄷㄷ
긴장
힐링
##힌거
무섭네
엘리트
어울리는
오재일
좆이돌
rockingrolla
나혼산
김선빈
충무공
51
5배
dd
mbt
so
ㄱㅇ
##ᆸ갤
##ᆺ내
##ᆿㅋㅋㅋㅋㅋㅋㅋ
##쩜
##ng
##이김
##가게
이시간
##시드
##나누
##서스
##엣
##기둥
아사
##로시
##네ㅋㅋㅋ
##인점
##인거같음
나은거
##야짤
##음이
##마니
##마저
##마귀
하차
##구장
지잡
##사무
사복
안하네
안믿
다섯
##오바
##일거
##였구나
스튜
야무
##성애
##유니
서밋
인종
잘라
잘안
못본
소형
##없긔
##재기
만남
알트
방문
팝니다
##졌냐
##업뎃
드루
레일리
성욕
##보다도
뱃
픅
나오나
##쓰리
망했다
위에
점검이
##난이도
##나오고
##못하는
외노
##좋은거
들어가서
펨
눈빛
떠나서
특정
볼수
##꺼야
무슨일
교수
쉬워
갓겜이
##뜨냐
##왕굴
팬들
웨딩
##담회
괜찮냐
##인거지
꿀잼이
엠붕이
221
만들기
##극기
ㅋㅋㅋㅋㅋㅋㅋㅋㅋㅋㅋㅋㅋㅋㅋㅋㅋㅋㅋㅋㅋㅋㅋㅋㅋㅋㅋ
탑승
옆집
대기열
섭스
##않았냐
밴픽
필수임
앤비
트리플
bbq
비하인드
필리핀
rockingrollagain신곡홍보왔킹롤
1달
97
bd
day
md
튼
##ㄱㄴ
##하트
##하든
##하려나
##답이
##다른
##기록
아패
아껴
나승
##샀는데
삽
안와
안댐
모야
##상현
자취
##그룹이
##세워
뭐씀
##있던데
좆된
잘만
##할려고
신호
피닉스
소주
##재는
올만에
중앙
리사
리젠
새기
##공장
버크
남주
원작
원숭이
예장
##포함
##형님들
##컷이
로딩
프레이
최원
##속성
##달린
강제로
강백호
설문
이번에도
##쳤는데
##올까
##창기
매치
계승
망해
초돌
위기
##됐냐
여기도
##ᆺ다가
테넷
특히
관중
볼넷
통화
통과
터지면
##하나만
명단
판정
암컷
144
맛있는
일러가
애니화
서울시
짱구
떨어짐
정도는
ㅋㅋㅋㅋㅋㅋㅋㅋㅋㅋㅋㅋㅋㅋㅋㅋㅋㅋㅋㅋㅋㅋㅋ
낮방
염보성은
##ine
##하긴함
닉변
될듯
이쁜거
좋은거임
##버렸다
븝미
일어나서
닥치고
캡틴
전투력
앙망
모두가
깊갤
징징대
##챙겨
단톡방
메카닉
어지간
소신발언
53
6년
##젼
##콕
##se
이로
이혼
##리온
##시바
##덱이
##서도
앗
앎
아내
아델
##스팅
어색
##인걸
낰
가게
시대가
##만명
하이라이트
오오
지표
사생
##려다가
##여야
##치노
##ᆻ다면
##전환
한심
미트
미적
유치
낸
했냐
##유동
##진핑
##티스
왁싱
제구
인게임
##모자
에프
일행
잘하냐
##캄
거절
거슬
##분석
부담
##위치
만듬
리부
##운이
##계속
김강
남겨
말라고
##폿
탓
타율
먹기
프갤
장사
포트
10연차
불싸개
아이언
##든다
##강의
호빠
글에
위로
##복귀
##나오는데
않노
##좋노
이런게
##것같아
심하네
친한
당황
양현
죽이고
평화
별론
통신
##잇네
썼는데
1500
터트
베라
엄지
울갤
체리
##왔습니다
컨셉이
휴식
##팬덤
앚은
앚퀴들
##쪽으로
식단
밥먹고
복귀유저
술사
붙으면
엘마일러
괴담
옛날엔
##먼트
정보글
어쩌구
놈들이
바이크
쓴다
##최고
득점
즈그
깡통
자러간다
ㅅㅅㅅㅅㅅㅅㅅㅅㅅ
윈도우
펭수
배고프
자체는
이성규
밝혀
김종인
퍄퍄
프랑스
렌탈여친
1초
2회
3주
4분
78
do
lh
ㅆㅎㅌㅊ
##ᆻ니
##9강
##2ya
##이하
##하길
##하구나
##시피
##시환
##났노
##라클
##라운드
##아씨
조지
나겔스만
##야겠네
가격이
시킨
##한태
##만하지
오마
##사귀
사는데
안보고
안했으면
##되는게
##상수
##빕
##끼는
개구
한방
융
했지
했었는데
정령
수염
##있던
우기
인겜
##킷
전략
공홈
생명
##위해
도태
도입
방종
차은
##준식
벗어
말한
드레드
성추
연예
먹는데
할거면
포장
10연
##울트라
##멤
매매
##관이
##투리
봐서
점유
발롱
우리동네
크퀘
##섭은
나왔음
찍음
건축
출석
갑주
길거리
검찰
시작하면
갓직히
겜은
헤헤
없었음
미친거
젤다
맛있음
엠창
택시
낄
페이스
류지
셀롯
중요함
싸우는
퇴근하고
##앰들은
##사랑해
ㄷㄷㄷㄷㄷㄷ
비틱질
한동숙
주인공이
흰색
##ㅇㅇㅇㅇㅇㅇㅇㅇ
생존자
낭낭
원정대
스마트폰
김혜성
지박귀
3각
tw
궤
##ᆯ로
##ab
##ㅆㅅㅌㅊ
##가입
##었노
##나인
##로남
##보라
엊
어비스
나두
싱크
젊
저작권
##만장
지면
##러들
마네
마을
마비
사자
안티
##오래
보험
##미니
개패
스폰
한남이
대해서
##성형
##테니
정해
##건가요
서재
인텔
요정
##던지
주네
화려
##명호
림
키타
상의
누비
많으면
##녀랑
##말에
원툴
경고
프붕이
장례
10일
돌림
어디다
##시간이
##갈아
##한다면
따잇
물약
필드
채보
##는건지
테오
테크
##블루
떠려니
죽으면
111
클퍼
민폐
누가더
##ㅋㅋㅋㅋㅋㅋㅋㅋㅋㅋㅋㅋㅋㅋㅋㅋㅋㅋㅋㅋㅋㅋㅋㅋㅋㅋㅋㅋ
##텐도
##축제
갑옷
던갤
교행
알았네
온콘
용돈
하루만에
##뒤짐
헬퍼
없었는데
좆같아서
##혁명
괜찮지
뺏
궁금해
궁금하네
##나왔는데
지랄하는
애니메이
##확인
힘내
딸치
##혜리
식당
우승하면
떨어지
항로
찬양
고민되네
##그래도
행복한
라인전
슼갈
억지로
주딱이
응원봉
시청률
##뿐임
상관없음
작가가
롯데리아
닥쳐
남았네
예전엔
닭가슴
휠
프라이드
배고파
시발련아
각인석
브리검
럭키
쌉가능
kbo
##굿즈
공통점
1순위
3장
5위
74
듬
ㅈㅅ
##챈
##녤
##훼
##wan
##이익
이도
이세
##하내
##기계
##햇음
##자르
##자본
낫네
##주시긔
##드래
##마도
##마나
지루
마인
마셔
사탄
안봐
##욕이
##대고
##노우
##바디
여우
보시긔
##미쳐
##상대
진출
##전설
자르
##무비
개야
있을때
##버리는
##세실
우와
에리
노동
좆리
##할걸
##중일
##동화
##문화
갤은
##재일
재판
방방
방덱
라모스
구려
구토
드뎌
##당해서
카레
맞으면
##경은
##경험
##커플
얼리버드
프사
팀에
솔킬
메소
매드
##받기
뉴욕
##란거
20퍼
감염
깎
까는거
따라가
꼴리네
작화
##권은
##더라도
엘시
##맞다
넘어서
집값
##해도됨
건데
볼거
백합
##외과
##존버
헝
속이
갓파
온도
염보는
학식
종교
돌아다니
얼굴에
일러는
사랑의
##쪽은
꾸역
식극
정리해준다
트롤
##페이스
낙관
##아는사람
탱크
조금만
시발련들아
##스밍인증왔
왜저래
에반데
조센징
죄송합니다
##젝트
에밀리아
끔찍
전소미
3만원
6월
껄
##늠
##ᆸ시
##ᆺ을때
##300
##하시긔
아녀
##로이
##네가
##했을
##인의
##인디
나같은
##약이
가운데
적이
##만보면
##사태
마리아
마앰
##요약
##옵이
##노무
##바란
##믹스
##여름
왜함
진성
##전부터
잠들
##디아
##끼면
##신인
##타라
뭐하고
미국이
내친구
숮
오늘만
제보
##히는거
##하는이유
에임
노모
##키울
애교
좆방
잘했다
존나웃겨
못하는거
공카
소워
##위는
되겠네
##글자
##단다
##긴데
키케
키커
##점대
언노
김윤
버튜버
남의
말해
말인데
느려
타구
난다
실체
##하겠습니다
##망함
##걸고
##창녀
동의
데비
망전
망이니
언제나
좋아하는거
위해서
까면
똥싸
##입니까
##길이
들었는데
싸가지
따지면
때가
##쉴
복학
##지마셈
##느니
있었던
##튭
플매
풀돌
찍었는데
백화
뽑음
허도환
100퍼
##혼자
슬로스
악몽
벌금
있는사람
환생
돌아온
##겠죠
어떤거
##나왔네
떨어지는
샤샤
##을때마다
##빌런
잔나비
않았나
##삘
멀리
멀린
움직이
가져가
가져옴
##인줄알아
숨참
예쁘다
중고로
##ㅎㅎㅎㅎ
냉정
텐션
무사만루
##스윙
글고보니
이악물고
mbti
5강
mvp
pl
sf
펄
ㄴㅇㅈ
ㅣ발
##잭
##ᆻ오
##ㅅㅍ
이즈
이새낀
##하드
##하거나
##리트
##리즘
##시트
##거너
##라벨
아디
조아라
조노블
##저거
나비
나보고
##주식
시뮬
하여
##사용
마다
안씀
다르네
##수급
기품
모아서
##상에
##상점
스모
한수
##금은
##원탑
##성배
수입
무거
무릉
전여친
신상
못하는데
##문회
##린다고
중경
중학교
키운
구림
##점심
##민갤
세워
세실
김하성
원조
##포드
치과
치호
성골
선거
배가
배치
불가
돌리고
##넛
##든데
후배
봤을때
브랜드
하나가
반복
반고닉
얘도
손이
손님
##집에
##집회
뒤로
뒤에서
빠르
##느껴
간담회
달라고
##등장
약점
쳐발
##깸
접은
시작하는
갓오
100개
그러냐
헬갤
갤주는
슈스
정신이
궁금한데
빡대가리
웃기노
인생이
트롯
##윤이
봊초
안나오나
빵빵
무료로
보여줘
미래가
해줬으면
상위권
뽀뽀
사냥터
흔들
스케줄
살짝설레
##혹한
##ㅓㅓㅓㅓ
말복쿠폰
무적권
비트던파
객관적으로
아킬레
2달
2페
3카
72
n라인
ㄹㄹ
ㄹㅈㄷ
##꿍
##펴
##콱
##500
##ㅇㅅ
##ㄱㅋㅋ
##op
##ur
이루
##하실
##뎅이
##라미
##니지
조롱
##보험
##스랑
##스코
어나
##해조
나네
오시
오해
지리
지타
마요
##으응
안자
닦
다만
다양
##대의
##바는
보는게
보플
보이면
기차
##발이
왜그러
##장갑
개좋네
미지
유령
##테러
정책
수행
무제한
##있을때
인젤
고덕
비벼
비정상
일케
애쉬
##광이
좆같은데
좆노잼
너도
##할수있
겉
화보
솦
##내기
##내놔
되니까
만나서
방법이
##캐시
##토르
언론
##녀들
##계는
영구
레비아
연아
연생
디아
실전
히짱
쓰알
##두는
씹새
씹가능
##창이
매직
몇분
##받이
입에
받는거
토갤
##류가
결말
반등
단또
여자애
외퀴들
까이는
##해야하냐
##역사
##쌓
심야
분데스
돈도
당하는
어제부터
방송에서
집안
플티
아무튼
##려고하는데
광역
터졌네
월이
##악세
군지
팬싸
##있어도
너네가
철구야
휴방
올려치기
졸려
빡치네
이러다
떨어지면
고닉들
왕관
##듈
맥북
행복해
##아이콘
앰뒤
여름에
군대에서
딴거
기본소득
무서움
어떡해
폐지
##쓴다
놓고
길태견
##앞에
루시드
첼시
짝사랑
클리드
하스스톤
나쁘지
##억이면
긷갤
개쩌네
붉은
오승환
임기영
승리의엘
브론즈
닭가슴살
2회차
6개
9회
ed
셰
##빤
##45
##이뻐
이나
이갤
##지르
##곰
##낰
##나가서
##라면서
아씨
아리사
##보조
##보석
어두
나주거
시기
##한명
##만의
하브
##구에
마망
사직
그리는
그와중에
안된
##대표
##제품
##바가
##밤에
##조차
##우드
##왓는데
미워
내보내
해놓고
무소
존내
##히기
에디션
노근본
일뽕
전술
전범
잘하노
##윌
##재가
만큼
##처넌
리리
상폐
누르면
많지
벙
##들이나
영의
치료
타로
연차
실북
히크
할말
강철
##짤은
씹새끼
재밌지
재밋어
패악질
##스트로
망할
언제나와
커트
2021
감상
역체
반일
똥퍼
병신이
##싸우
물량
##좆망
##좆같네
꼬접
눈깔
눈썹
죽어도
##거같지
넘사
방송은
집빌
건의
찡
광화
써본
길게
검거
##샤이
편하게
남자들
머리카
##해주라
흑마
밀고
삐는
줄여
빨고
맛집
##떠서
케이팝
##숍
자기전에
꾸레
그림자
만화가
줘도
고민상담
굉
ㅋㅋㅋㅋㅋㅋㅋㅋㅋㅋㅋㅋㅋㅋㅋㅋㅋㅋㅋㅋㅋㅋㅋㅋㅋㅋ
옵변
숙소
관련해서
##셉션
학교에서
닮음
완전히
인싸촌
띵곡
신경쓰
##댄다
##지말라고
##ith
춘향
앉아
퀄리티
스쿼트
##괜찮
신나린
가르쳐
##옆에
키움히어로즈갤
프로듀서
1승
915
썅
틈
##쎈
##tp
##ㅅㄱ
##이오
##이에요
##갔네
이주
##거품
##났는데
##보세요
##자를
##저나
##저격
##야는
##야스
##야샤
##드시
시아
젓
저정도면
##만남
##만듬
지어
##러드
삽니다
##임ㅋㅋ
안심
##의자
자극
##무가
개못
한장
있는거임
유이
했다고
야심한
수수
수붕이
수즈나
서민
웃어
##히히
인상
씻고
비키니
##하는새끼들
이거는
좆됨
##캎
##할려면
주요
주사위
못들어
핏
부대
부비
##크네
되는거지
ㄹㅇ로
##즙
##ᆻ어야지
중붕이들
중국이
리마
키무라
누르
파일
##공주
##질은
##졌노
김현
남는
##체는
영뽑
##포가
카즈
성약
선수가
너무한거
##고싶긔
배윤
로시
먹을까
박스
##살인데
##올때
##창에
호랑이
투어
봐봐
##레이션
단챠
당시
##아니노
##합방
내일도
떳는데
##설명
태고
태국
클립
하는지
안되노
열려
누가봐도
##ㅋㅋㅋㅋㅋㅋㅋㅋㅋㅋㅋㅋㅋㅋㅋㅋㅋㅋㅋ
막내
참피
골든
##할때는
헤메
레이저
2007
뜨냐
밀봉
올려도
##하기로
넣을
그만좀
취직
##효율
딸배
큰거
##혜자
##끝나면
40대
트로피
좋겠는데
좆같은게
##붕쿤
육수
키우면
문재인이
70렙
흥갤
생겼다
##는중인데
페미니
쌍둥이
릴카
뜬다
비빔
이상화는
못하겠네
찢팟
죶
썸네일
힙합
정우영
유투버
카운트
빙고
lime
옮겨
이시각
촉수
여중생
승리의엘롯
lime97
1배수
2d
4k
6시간
8회
vr
푹
##챌
##ᆸ터
##ᆻ당
##s7
##쭉
##ke
##lb
##ㅂㄷ
##가로
##가야
##가든
##라던데
##은이
아린
##야하는거
##한건데
하겠지
오블락
지르
지명
##러간다
마누
마슈
안젤
다를
##요리
##오아
##수지
##수련
보1
보급
보이지
보낼
자궁
개똥
개빻
##신캐
냄
##성능
##유가
##피해
무상
무식
##간다고
왓
인다
인권
고려
노인
잘하는데
신세계
못한다
소라
##ᆷ이냐
##윗
만만
##국은
##먹는다
##씸
키ㅡㅡㅡㅡㅡㅡㅡㅡ
라피스
구걸
코이
드레기
레나
타는
로봇
생각하고
생각나는
먹냐
살다
##반인
##돌파
설총
##통수
##걸리
##표정
패시브
##한거같은데
글카
의료
##후반
단판
똥견
추천해줘
##좆같은
친선
네크
게임을
금강
민초
뽑았다
##잡음
통수
탈코
검수
슬림
회수
##씨발씨발
라이벌
미친놈들
변태
갤러리입니다
나올거
메이드
끝났다
댓글에
로아는
딸딸이
하는거야
ㅁㅌㅊ임
듁
##적이네
듣보
이기야
삼성라이온
ㅋㅋㅋㅋㅋㅋㅋㅋㅋㅋㅋㅋㅋㅋㅋㅋㅋㅋㅋㅋㅋㅋㅋㅋㅋㅋㅋㅋㅋㅋㅋㅋㅋㅋㅋ
핵심
##렉션
키우고
신기해
만나고
##시키는
수비비
바꾸고
역겹
댕댕
저새끼는
린제
생긴거
주문하신
아르마다
룸빵
어린슈
여론조사
폭원숭이
atm
조심해라
밖에서
빽섭
##퇘지
추방자
##첫방축하왔
##게시판
베트남
박병호
나승엽
##로남불
##스밍인증왔대호
4인
5판
5초
6명
86
lcd
룽
렬
ㅈ망
##ᅣᆷ
##ᆻ자나
##ᆻ는디
##il
##tv
##wa
##이런
##어요
##어플
##거림
##아버지
##은건
어저미
##해볼까
##주제
##주문
##야할
시노
시아님
##한남
하려
오름
지북이
사태
안터
##오픈
##밭
##바퀴
여법
##는거아님
##랬는데
##왓다
##전도
##장을
##그제
한패
근접
미러
제노블
비티
노루
일부
주장
##방어
부갤주
##파스타
##ᆷ이야
재벌
##적용
멋지
상시
구합니다
##본거
##공은
##선거
과락
##업이
느림
타입
##님덜
배팅
먹으러
##하겠노
강진
##날에
##살때
##창들
##산이
##받는데
동기
망한거
좋아하면
워크
크다
않네
들어온
##해야댐
꼴갤
심하게
짤은
엘소드
테섭
양학
태어
클라스
##랄까
적어도
##ㅋㅋㅋㅋㅋㅋㅋㅋㅋㅋㅋㅋㅋㅋㅋㅋㅋㅋㅋㅋㅋㅋㅋㅋㅋㅋ
##등학생
##슬롯
길어
터치
편돌이
돼벨
애들도
##있었음
2004
##담배
알려주라
알려드림
휴대
##톡스
##왜안
청밥
댓글로
##죽여
니들도
잘못된
ㅋㅋㅋㅋㅋㅋㅋㅋㅋㅋㅋㅋㅋㅋㅋㅋㅋㅋㅋㅋㅋㅋㅋㅋㅋㅋㅋㅋㅋㅋㅋㅋㅋㅋㅋㅋ
센츄
##헝
##뇽
인스타에
##취소
신기한게
비교하면
에픽세븐
헐리
##맥스
ㅎㅎㅎ
쌍수
##쓸때
훈수
##하러감
무서워서
끌고
큠
익절
멋진
냉혹한
못하겠다
세이버
자동차
쿨감
개꼴리네
단체로
##망구들
워녕이
강원도
성추행
살짝설렜어
1카
1선발
2일차
콰
캘
ㅈㅈ
##ᆸ시다
##ᆿㅋ
##ㅁㄱ
##ir
##ti
##pn
##bj
##gm
##od
##m4
이천
이새기
##하시는
##시상
##데드
##나랑
##에다가
##라는건
아진짜
##해본다
##자들이
##인기
나죽어
가네
갑니다
##한정
##한놈
##만드는
##사주
##사망
그룹이
안보이
안뜸
안유진
##노예
보빨
##왈
##장난
자석
자칭
개노잼
개똥찬
##티넘
씨게
이거야
전형
너를
잘한거
주기
##생명
피코
소과금
##없으니까
##더가
##더블
##크기
되겠지
재기
##코디
더태
##실에
##실드
머마
머가리
##씨가
키아라
라부
파엠
##선언
##토는
세력
김기
카엘
##급인데
##고싶어서
경매
최지
최주환
##속에
박사
박으면
10구역
##두리
##두기
매운
재밌을
패작
후유
받은거
언제함
20만
위닝
반성
반반
않는다
##입장
##이라며
귀빨
##예쁘
물고기
심한
작성
뒤짐
##아니네
양팡
관전
##야징
##결제
클레
12일
간호
풀버전
찍는
적정
건전
잡는
##덕에
폭동
다른데
##틀드
됐다
친구한테
##갤러들아
애미들
종합
##숏
힘을
##쥰
이쁘면
기분나
##짓을
네이처
믿는다
줫
줘패
##했어도
##빌딩
겪
##될지
##잔데
그리워
끓
멜숙씨
공지사항
##ㅜㅜㅜ
잔뜩
문경찬은
어쩌라고
쏘2
혜택
탄핵
감스트가
타이거
외질이
##폴드
예쁘네
멘트
루시안
메갈핌
띄워
함께라는
닌텐도
오재원
##ㄹㄹㄹㄹ
쏜리
포레스텔라갤
깔끔하게
영원히
나봉쓰
로켓펀치
믂
##치마인드
돚거
갓오하
월이세
광화문
2성
6화
76
8천
gs
gm
mp
new
럼
퉤
##ᆻ농
##뭉
##ᅭᆫ
##ce
##35
##ut
##이해
##있다고
##가고싶다
이불
이대호
##리스타
##앗
##니는
아리
아돌
##해성
##자와
##인것
납치
시전
저래
##마핸
하실분
##구멍
오서
오티
지는
마녀
마약
안풀
다같이
##대생
기공
##되게
진여신
진명호
##갤럼
##전문
##딕
아니잖아
한참
##버릴
##타수
##세우스
미용
유우
내로남불
##유지
수요
존못
비글
일그오
애국
##ᆻ네요
존나많네
##소개
소문
알렉
같던데
##코치
덥네
찻집
##실이
##먹는데
키미
라방
새키
코즉
##념이
##계획
김계란
원탑이
레식
성매매
생각할수록
먹이
먹튀
살면
살쪄
최항
히비
쓰던
##올리는
##현은
글싸
우리학교
의식
##갈사람
않을
##됐어
여기다
##예지
물마
테디
끝임
뉴비는
게임에
금전
클러
나왔을때
찍을
적은
짜리
탈빠
##덕이
검신
##지않노
명언
##많노
팔찌
꾹이
궁예
없어져
##꼬리
##가능하냐
킹탄
뭐가더
얼굴은
황제
##풀이
나온다고
궁금하다
서울에
충격이
브이포
##뉴스
##쪽이
##훈련
빌보드
믿는
##갑자기
기안은
스킬포인트
안나오는
오랫
기다리는
녹음
해줘라
확률이
여러개
덕배
들어와라
##뻥
팁좀
라비리스타
승부존
로하스
빤스
방구석
발로란트
당근마켓
러블리즈갤
아쿠아
점유율
머리카락
79
s20
we
xx
ㅂㄹ
##쵸
##됴
##ᆻ겠다
##ᆻ탁
##쌘
##el
##2기
##hit
##ㄷㄱ
##가노
##갑이
##하단
##시냐
##나음
##라딘
##기야
조합이
##자들은
##저리
##주니까
가득
시진핑
오고
지누
##러는
##사키
사렌
안할
##대지
##대리
##오름
##밟
##수랑
##비비
##전투
##레아
자비
한숨
있겠지
##벗
미연
정국이
무수리
##있잖아
서특
우동
##안나
##워드
좆과금
##카오
거리는
신검
못자
소비
소리가
부어
##덮
##프라이
만붕이들
##봤냐
중단
##캐가
리쿠
##토가
세차
원스
카마
성별
성격이
너무하네
연간
로고
실력이
먹을거
장전
장작
장갑
##머신
##근이
또라이
##름이
##투어
동시
봐주세요
망겜
글은
##교체
발동
크킹
들어감
손에
어떻게든
물타기
심지어
필라
채용
분해
특징이
걸리면
ㅈㄴ웃기네
11구역
안되면
##라이언
약한
약뱅
##잡는
함정
##이었다
써라
##ㅡㅡㅡㅡㅡ타
다음은
다음시즌
교회
터지고
##샬
깨고
용사
용산
합류
울산
첫번째
##필독
뜨는거
엠팍
게이들
된다고
폰겜
사이에
선수는
아깝다
##보는곳
술마
##끝남
##넣으면
좆같은거
똑같
ㅋㅋㅋㅋㅋㅋㅋㅋㅋㅋㅋㅋㅋㅋㅋㅋㅋㅋㅋㅋㅋㅋㅋㅋㅋㅋㅋㅋㅋㅋㅋㅋㅋㅋㅋㅋㅋ
엄청난
않았음
앰생
쌍베
파티원
잘생겼다
득와
즐겨
농구
콩국수
스텝
설명좀
아카데미
거래가능
일베충
오토바이
프레데
붕어
##지말자
개빡치네
짧은
릅
##것같애
##볶음
전체적으로
##렐라
개쩌는
시그니
##갖고
##선생님
초록별
클래식
이마트
페코라
10700
개나소나
차은우
언노운
아킬레우스
승리의엘롯스밍인증왔대호
3번째
윽
##긍
##ᆻ내
##멈
##29
##가오
##하느라
##리드
아현
##로이드
##했어요
##주주
##주작
저지
저리
저새낀
##굳
오너
오리지
##러감
##럼들아
##사자
마야
마왕
그루
안쳐
안하는게
안어울
##까면
다인큐
모코코
진격
##의상
개더
있으니까
##벙
##세운
##짧
유난
##때려
얇
야야
##성적
##진화
정전
##르츠
##티저
우아
인류
##안되는
좆간
전주
##카와
못할
화요일
##인데요
공구
소소
부르면
알면
알테
더빙
##처음
중견
구해요
과몰
##계가
시발ㅋㅋㅋ
문피아
##포숑
레오
성규
##배경
##감은
선호
선풍기
먹는다
살찐
쓰네
10시에
불쾌
##망가
현상
##창은
##페스
봤어
톰
##병욱
초기
위신
##난나
##갈듯
##입은
##됐음
병신인
이런데
이런것도
얼마전에
돈주고
##이냐고
클랜
안되겠다
달린
잡지
잡았다
뽑는
출전
형이
##ㅡㅡㅡㅡㅡ
목격
길가
뭐냐면
참기
참교육
##놈아
##뜨고
합법
울고
##토리아
팔로
아닌듯
잠재
소바는
##해주실분
삘
절망
어떤가요
엠씨
별로야
미쳤나
##홍어
##빼면
잘생기면
이쁘지
니네가
침붕이
낮에
낮아
여친이
문경찬이
데려올
24hit
##새기들아
앱솔
물어봐
장현식이
235
꿈에서
잇는
ㄷㄷㄷㄷㄷㄷㄷㄷ
폐급
그나저나
통합공지
누군가
설명회
##지원금
쌈무
아르카나
붕괴
##귀여워
피해자
아이들갤
오마이걸갤
맷동
##쩐다
지무선
페르소나
필승조
류지혁
애니메이션
배윤정
더태민갤
7일
7년
fp
im
kor
sd
sm
su
둔
쫀
##ㅇㄹ
##다라
##리콘
##어캐
##어쩌
##데이트
##나이트
##아래
##롭다
조기
##보로
엎
##자님
나노
##드러
가비
##한이
오라
마미
사려는데
안파
##트레이드
##대비
##오른
보너스
##일지
##일수도
진던
##화장
##갤스밍
##전생
개지
개노
##그렇게
있구나
있을듯
##타면
바쁘
##짬
##함ㅋㅋ
유도
대비
내면
내내
##유는
##테크
정체가
##새요
##륵
수잔
무죄
좋겠
없제
서비스
와인
와파
인파
인셉션
고닉이
##모양
##앱이
##안하는
##안된다
요거
##차에
##ᆨ이야
##과학
너가
주노
주호
##람쥐
못이기
##소감
소련
부르는
갤로그
##ᆷ이다
도끼
덥다
방에
방붕이
파원
##브가
##브금
버린
버텨
예지
렘
레게
##배틀
디케이
디발라
실트
생각에
이제와서
사람있냐
##달리
쓰지
##머야
103
씹어
받냐
데모
글쓰
##나오노
발생
##은거지
##초반
##해야하는데
꼴리는데
틀니
심연
블로그
양념
죽는
관객
네덕
11월
금딸
집어
##꺼져
##불편
##잡기
순대
한국에
한국여자
싫어서
##픽츄
##뜨는
명문
##범죄
체인
번개
애미가
환수
18일
알려주세요
푸쉬
어떤게
50퍼
경기력
##좌가
힘드냐
정도로
케미
술먹
##웬
듀링
고민중
듣기
몰랐다
하지말고
뇌피셜
##셀로나
쌍욕
활용
ㄱㅊ음
##듣는
##찾기
대학교
큐시트
보라머리
달릴
탭칠플
거래소
도시락
ㅅㅅㅅㅅㅅㅅ
헌터
스마게
다크포숑
전문가
##ㅡㅡㅡㅡㅡㅡ타
##정신나갈
븜미
이쯤에서
엽충이
이명기
김진욱
미주픽츄
툽인증
데비존
3천원
5시간
94
is
le
vpn
with
뺄
ㅊㄱ
##햐
##ᆻ읍니다
##lo
##가드
##거르고
##나니까
아수
##로라
##보노
##해질
##자야
시동
하더니
##구사
오딘
사정
안톤
##제목
##밖
##바위
보관
##일텐데
기생
##미리
모동
모라타
##여기
##전용
##부적
자는
자제
개웃겨
스바
스드림
한타
한손
##신도
##버리면
##세움
미야
미궁
유틸
대참
##때메
##성도
좋으면
와중에
제품
고래
##모는
##안해도
##차이가
##던파
##개발
##번에
화내
소추
생기는
##분위기
부른
##ᆷ이지
##재능
##단장
도티
도13
##봤네
머고
릿
##긴하지
누나가
파냐
파편
##점에서
코르
좀더
맞짱
##뱃
연금
디파이
얼빠
생각은
먹여
프커
프록
##플레
들이
장르
할수있
##하네ㅋㅋ
나오겠네
강력
아이즈
##통합
##쳐먹고
호옹이
입술
동료
##법좀
브하
브레이
20억
위클리
발라
발악
반년
##길태
##행복
국제
##이네요
##목소리
평점
플라이
백룡
##등록
허언
천지
목욕
일본이
깸
명작
문제야
하루카
##셔서
##했구나
산거
맛있어
어디서봄
일러로
총선
정신과
청원
게이밍
독재
만들었다
##밀라
트레이드는
식사
풍성이
##받았는데
ㅋㅋㅋㅋㅋㅋㅋㅋㅋㅋㅋㅋㅋㅋㅋㅋㅋㅋㅋㅋㅋㅋㅋㅋㅋㅋㅋㅋㅋㅋㅋㅋ
혼자서
##풋
데려가
보여주
잦글
##힘드네
모음집
저런거
에이티즈
재밌었는데
##힌다
득피
점핑캐
90년대
박정희
든다
깜빡
##댄스
흔한
탬태
크리스탈
브라질
nc다이노스갤
조각가
근첩이
슬프다
##이후로
푼다
필터링
##툭튀
리부트
마네킹
3대장
52
82
ad
dc
kid
not
똘
딸리
를
ㄱㅈ
ㅇㅁ
ㅋㅌ
##쮸
##ul
##이쁜
이말
이낙
이득이
##하진
##거려
##서준
아조
##로사
##로써
##롭게
조승
##보는게
##스태
##해지는
##저녁
나가는
나가리
##구라
지네
지적
지급
마력
마킹
그자체
안죽
다깨
##오자
##수업
모를
##래요
##왔노
##정을
##정부
##정책
##붐
개창
##금이
믹
해군
야알못
정면
##티나
##피곤
무능
##건이
서바
제노
인디
비숲
##차지
노는
노네
노답
일과
좆되네
##개씩
전세
전통
잘뽑
##할배
##동희
부를
트짹
되는거냐
니애미
리코
##토막
##민주
많더라
##천사
##연장
##포는
##한테만
##줘야지
##커뮤
경계
경기는
배트
로스
로테
##매는
장점이
살찌
최합
사람만
##머가
불타는
메슬
##살인
##살려
본방
##땀
씹사기
##든가
재미는
동영상
후에
##사람들은
##란드
토큰
언제하냐
##병원
감봉
초구
우리형
##훔
않습니다
##밥은
두배
국산
귓
##빠따
##출근
물고
분위
얼마쯤
가능할까
양의지
누구보다
태도
나왔냐
##백수
적게
##존잘
허경민
##슬러
욕하면
한국사
##곡은
폭염
폭풍
본인은
군무원
울프
엔경찬
명장
있는지
20050
##담당
뜨는데
프로그래
##하기전에
으로
##골드
##덱은
어렸을때
50분
믿음
듣는데
##휴일
중국인
##취향
안나오면
신기한
사라진
대단하네
앰흑
억지
##앰들이
타이탄
부럽네
담배피
홀리
탁옵
농담
탭칠
어이없네
##낸다
##멘트
품절
##나온거
플랫
게시글
환상동화
아라벨
##크리트
0625
빌드업
컵라면
괴물쥐
꼬라박
버거킹
조상우
건보료
##live
안치홍
24hits
gt
ht
멀어
쟈
##퉤
##ᆺ는
##ᆺ누
##쿵
##쾅
##8호
##쨔
##이겨
이강
이와중에
##하야
##하려는
##리니
##시야
##거리는거
##낫
##나니
##아무
조절
##해보면
##해봐라
나을
값
##마을
##마크
##마블
하시
오느
지민
마루
마지노
사설
그것
안아
안개
안하나
##오토
##제작
보러가
##미남
##발음
##는거긔
##여자가
한결
한가지
뭐사
##함이
유능
대박이
야근데
##유키
정산
정석
좋고
제우스
에이즈
##안되네
이거도
좆그오
주도
못먹
소시
##없을
트젠
##재산
올리는거
##즈키
##식아
상대가
##호선
세개
세번
세작
많을
##말임
##포기
성대
성민규
연서버
처벌
경남
##매치
생각인데
생각하니
장착
##근무
어딨어
현기
현무
현피
또또
##걸스
재밌노
##한것도
후속
20일
위키
반응이
귀걸이
##규모
필름
복잡
##종료
당일
##아닐까
양도
빠전
특문
관심이
풀로
풀콤
운명
음색
##잡으면
통제
##찍히
##잇으면
욕먹는
써보
##ㅡㅡㅡㅡ타
님들은
폭로
텅
편함
##범이
있는듯
##있었네
##해주네
쿠로
##접속
갤주가
##가는중
##했는지
산적
##인거야
졸귀
푸퀴
시간당
슈팅
청년
##팬티
먹어야지
빡쳐서
이름은
쥬지가
끝났네
팀은
이쁘냐
식상
빌다리
그리운
뿌린다
여친이랑
영화관
어디갔어
오래된
랜뽑
흥분
아쉬워
안나올
##보낸
##하는건가
얍칸
석우
만든거
젖탱이
급식들
보라색
느낀게
플레이어
바람의
이재학
이래도
9월에
##그렇
충격적인
와이파이
##어디서
개발자
랜덤짤
퀴즈
쌤
##에에에
꺼져라
맛있게
##얼마나
app
패널티
꿀벌직캠
소니쇼
아케인
스트레일리
생각난건데
비글즈
2대
2등
3부
re
꾀
깍
ㅌㅈ
##ᆻ단
##ᆻ는대
##씌
##ss
##mb
##지니
##ᅥᆫ냐
##싴
##시타
##깊
아형
##네는
##습이
가오
가불
##음악
마구
그날
그것도
##려했는데
안해서
안하는거
안철
안나가
##수인
##수있어
##수있다
보아
##일자리
기절
##는거같음
##는걸까
##조절
##정화
##비치
##부리
##부족
##무스
##그린
한줄
한잔
근근
##버퍼
해축
해주는
##터가
와시발
우정
고향
이거뭐냐
잘한
##할수도
주붕이
##중반
못뽑
##소리는
피에
소스
##없으니
##더스
갤떡
트렌
##린저
도로
##봐줘
중소
머상
##긴거
라디
구한다
파업
##토츠
##싶다
코시
##천지
좀비
김희
##연은
드럽게
추진
맞긔
맞출
선정
선별
##남았다
씨발새끼
디톡스
얼티
생각하는데
##플은
쓰니까
불리
요즘에
요즘엔
##멧
재미로
호남
##충새끼들
커즈
##련님
##박한
발렌
반대로
의도
단백
들어오면
##옌
틀린
##지마세요
##아니지
빠짐
다시는
있었냐
넘버
##론트
##ㅋㅋㅋㅋㅋㅋㅋㅋㅋㅋㅋㅋㅋㅋㅋㅋㅋ
허용
천둥
순애
##채로
다음날
검열
월세
용량
헤드폰
헤으응
애미씨발
##해주고
미친듯이
##필드
알려주셈
시즌3
##렌더
##칠때
190
만들었는데
최고다
진지박
인생은
꿈이
극혐이
떨어질
샤이닝
##칭호
##폭탄
ㅋㅋㅋㅋㅋㅋㅋㅋㅋㅋㅋㅋㅋㅋㅋㅋㅋㅋㅋㅋㅋㅋㅋㅋㅋㅋㅋㅋ
점검보상
가축새끼들
ㅇㅈ이지
첨에
완장들
중요한게
##랭킹
스카웃
##이였음
몬린이
성능은
##찾음
장현식은
뜬거
길드전
샌디
아오바
스테이지
다운로드
벽갤
기억이
시청자수
애매한
오버워치
골라줘
##어어어어
##잖어
스토리가
아스날
1회차
##어렵네
웰케
받는곳
역사상
긷줌들
숏컷
##브이앱
괘씸
이민우
엳돌
언젠가
상식적으로
귀찮아서
윤석열
웅장해진다
꼰대
##이언츠
꾸역꾸
프레데리카
fpx
1렙
2라
7급
87
cj
팽
ㅈ같
ㅌ7
##55
##ㅅㅋ
##nd
##na
##ᆰ은
##이게
##시움
##나여
##게더
조개
조명
어머니
##자노
나성
남이
##야대
감이
가치가
시녀
시총
저분
하긔
하고싶은데
##굼
오디션
마세요
사막
##으며
##렸어
다주
##오베
##일주
##일드
##미다
##미만
##발진
##였긔
##되도
진주
자괴
자신이
개새끼들
개최
##그라
##타입
##세네
##세여
미군
얀
##성으로
##유튜버
##테마
##애애
에고
노량
노꼴
이것이
전까지
잘되
거품이
신영이
##중이네
##각성
##생은
화나네
틋
##직은
##내일
되잖아
재련
니코
리고
상한가
파이어
##운다
##영업
언어
버러지
##말곤
문명
##업체
예선
드라이브
##포도
##포나
##당해
추격
##심함
경찬
실장
생각나서
##플래
들음
장군
살만함
할일
나오니까
강퇴
##울링
아이고
아이디어
##두라
본적이
##산지
호이
봤음
망구
##ᆨ습
커리
20개
위장
##겜잘
발정
단단
않다
똥남아
##언냐들
여기까지
##이라니까
##것네
작아
##억경
돈은
가능해
철읍
어케되냐
죽고
걸리
걸리냐
##검색
##잘해
루카
풀매수
##했다는
달러
달창
허브
30일
##이어도
광탈
접수
검마
시작부터
베아
깨끗
명빵
팔로워
레이첼
각각
각종
것들
##가능한
##해주냐
돌아가는
느끼는건데
알려주
휴메
올려라
황야
뺏어
##팬미
##렌테
숄
##밀어
##쥬지
표본
븅
이정도로
##라인업
횽
카드가
어때서
방법은
홈마
##각이냐
무료뽑
모든게
어쩌냐
읽고
물어볼
##하던가
바이오
폐기
세상이
##둘이
##투표부탁
보은을
기준으로
호감고닉
콩이
심심하면
스트리밍
각성석
너희들
마법사
설레발
뚝배기
드래곤볼
긁어
##igh
최후의
진작에
쏟아
과몰입
kids
5카
op
믕
뺀
샐
펴
훠
##ᆺ슴
##28
##km
##ㅁㅇ
##ad
##가야지
이차
이리스
이사진
##하구
##다보면
##답게
##리언
##시각
##나간
##나빗
##서비스
##아저씨
##기나
아네
##로서
##보이스
##자연
나야
나에게
가로
##만한데
핥
마주
마창
사지
사괜
##렸노
안본
안주냐
##요즘
여거너
보려고
보자마자
##일진
##되는거냐
진중
##부인
##부름
자소서
##무위키
개역겨
스노우
있게
##타쿠
##세기
##세력
미루
대면
내고
내글
해줌
##유의
정시
##으로서
제재
인지
인턴
비상
##모임
##킹이
일으
좆혁
##각인데
피쳐
공수
공계
소드
생성
생파
부계정
##파고
갤을
갤벤
갤클
##직전
##하면됨
재산
##코센
중치마인드
머노
머전
키트
상주
구도
##운전
##공유
남은거
남겜잘
시발ㅋㅋㅋㅋ
레버
##횟수
할줄
할때마다
10뽑
##근육
##올린
##올리고
병크
매그
##투구
##누난나
초급
위대한
발음
##은거야
않고
않은데
##귀찮
들어왔는데
##이라던데
싸이버
두시간
##빠진
##예요
꼴찌
틀드는
심사위
친목
작곡
당하고
떳
다시보는
##거같노
112
방송이
금카
12시간
건가
##열차
날라가
##ᆻ나봄
음란
잡으면
허가
30개
홍구
탈덕
다음달
알아냄
100억
##놓음
귀엽지
팔림
회장
회피
체육
##꼬라지
첫방
##했으니
휴스턴
프로젝트
##평균
##눈물
쇼타
##지갑
극복
##해줘라
샷
복귀했는데
중국몽
혐오스
트로트
와꾸가
##하긴하네
어땠음
개꿀팁
차이점
범위
##ㅏㅏㅏ
싸우고
##이였네
생겼는데
퀸친
전설의
급식때
##님이랑
탁또
밸런
맞춤
##뻔했네
자동으로
##스텟
제작진
살려주세요
##ᆻ자너
쫄작
타격감
쉐르
짧게
##플레이어
햄탈
영탁마갤
태어나서
뱅드림
버닝섭
평범한
영양제
설문조사
김강열
3등
4장
6만
89
92
9시에
##털어
##ᆼ아
##뼈
##가에
이새
##고침
##시계
##데가
아시
아라곤
##들음
##게티
##보수
어윈
##자라
##자매
##야된다
갔네
가루
시러
오는데
오니까
짖
지를
지나면
사려고
안봤는데
안쓰고
##옮
##수만
##수생
보충
보세요
##미랑
##미안
##미페
##여단
##치엘
##되기
진정
진심이
##우니까
##정병
##부여
자다
##무지
개같은
스퀴즈
##신병
##세지
유쾌
내생각
야린이
정원
수업
무효니
##히냐
인스
씨빨
고증
비공개
에버
요렌테
##키리
이거나
##ᆨ이면
일침
애는
잘지
잘알
##카운
거유
못받
못믿
공급
##동물
소아
소년
갤매
##프사
만져
##코프
방장
방빼
차지
##긴했는데
##씨는
키마
상당
세종
김인
문채원
원인
말하면
영넨
카오리
렛
##배당
##배달
##배송
선인간
타워
타락
연상
씨발ㅋㅋ
디엠
10초
##판다
##툽
패고
##사람있냐
##룡이
언제나오냐
20살
초고
확대
확챠
반도
의지
##된게
크라
##한다는거
##이라이브
병신들은
병신같음
##집에서
##빠져
꼴리지
친절
필살기
삼재일
철감
테런
네캐
금일
플라
플러스
갤러들
##론토
아무래도
홍콩
노래도
딱지
접고
한국의
##클릭
15분
터뜨
터졌다
##하나봐
##할때가
싫으면
##택배
138
없어짐
##인거같은데
유진이랑
17년
##겠누
희생
급하게
궁금함
청자
청와
웃기다
인증한다
퍼플
##떡락
##할까봐
폴아웃
##폭행
뿌릴
똑같음
샘슨은
개꿀이네
끼면
키우기
완장이
어디갔노
커여움
##각이다
기다리
옆에서
도와주
ㅆㅅㅌㅊ네
올스타전
늦어
왔다녤
##했던거
##명이서
느낀건데
샌드
##을수있음
느껴짐
##거든요
캠페인
미리보기
놀라운
개꼴리는
아재들
135레이드
유로파
이럴거면
썬더
멍청한
븨창
파트너
마일리지로
루피나
괴수8호
뜯어
지만아
일루시아
제2의
cpu
알루코
대가리가
치트키
장례식
오서경
히비키
대참사
단백질
꾸역꾸역
노량진
1조
3달
lo
mk
my
넬
샹
층
훌
##랭이
##팰
##캬
##tf
##nn
##이건
##이쁨
##가는게
이론
이채
이닝
##지워
##낫냐
##서야
##았네
##아침
조루
어필
##인성
나면
##야되는
##야겟다
가드
##한걸
##마루
##마왕
##만두
오동
오메가
##러쉬
##사대
마오
마호
그살
안봄
안꼴
##바꿈
##는거봐
모텔
##의서
자퇴
##그리는
스페코
있니
##신다
##세는
미스틱
유주
유물
내는
해당
야념
야숨
정당
정복
##피치
수코토
무빙
무실점
좋을듯
없던데
없을듯
서러
서부
제정신
고객
고릴라
고로시
비번
비틀
##안댐
##키타
##키우는
일을
좆돼
것이
거르는
주자
부품
##새끼도
갤칠플
##프릴
##크고
##린인데
올린거
알몸
방도리
중반
머머리
리디
라라
세븐
많고
버림
문열어
옌
##연결
영어로
드라이
치확
카오스
레딧
성태
##줬음
경민이
디아이콘
실업
얼코센
##플로
장인
##온나
쓰러
강동호
설사
아이스
##짤이
현생
##올라가
몇이냐
재미없
동점
후편
데우스
봐줄
토모
20만원
##레이터
글자
좋아하냐
확진
반짝
##후보
여자도
크면
얘기가
들어옴
##해야한다
병신새끼들
페마갤
##빠들
##예장
##출시
질문이
질문있음
분리
엘베
##종목
눈감
네오
넘는
걸릴
##잘함
119
128
1200
##찌찌
운운
보고왔는데
##왼
##ㅋㅋㅋㅋㅋㅋㅋㅋㅋㅋㅋㅋㅋㅋㅋㅋㅋㅋ
허구
막피
30명
통상
출산
##찍찍
탈것
폭숭이
쉽다
##랜스
갈비
돼공
##만원에
엔진
팔려
회원
##뒤로
##해주셈
컨디션
흑화
준태
종류
##했대
암것도
암만봐도
##슐
변환
급발진
갤러리에
총대
청춘
##ᆺ냐고
##ㄱㄱㄱ
엠갤
브이로그
최고야
##게임은
##게임즈
이쁘고
케릭
엘마는
##좋아하는
##털이
##먼데
##뇬
##끄고
##끄럽
수영장
주식충
커엽네
셀프
찾아봤는데
질문좀요
##솔로
불쌍하다
역겨워
한명만
근첩들
주인님
아니었으면
격겜
벨라
합격자
##one
##을수있냐
탭7
엑박
멤버들
앙헬
##떨어짐
쳐맞고
시키면
##뜬거
렌즈
180석
춘향이
##하신분
자고일어나
쯔위
팡이
텔창
분명히
담주에
10월에
똥꼬쇼
##ㅡㅡㅡㅡㅡㅡㅡ타
빡세게
조건이
잠수함
##ㅣㅣㅣㅣ
추억의
카이저
째욘
핑까점
ㅊㅊ좀
하마옷
boy
예리한
에러코드
덩치
깨워투표부탁
##캉스
이달소
이우성
##기둥세워
에프넬
apple
##기둥세웠탁
2트
210
em
png
붕이
쿄
쿵
퐁
ㅁㅁ
ㅂㅂ
ㅇㅋ
ㅈ도
ㅌㄱ
ㅌㅊ
##깬
##ᆺ대
##ᆿㅋㅋㅋㅋㅋㅋㅋㅋㅋ
##ㅁㅊ
##이죠
이라고
##다다
##시노
##거같은
##나우
##기임
##기의
##겟음
어리
어마
어림
##해보고
##해보니
##자원
##저것
낯
갔으면
시부
시끄러
##한척
저항
##사리
##샀다
마작
사양
사다리
##으셈
그마
##까스
##요정
##대는거
##오니까
##제외
##수형
보게
보트
보민
##치지
##치게
##웃음
잡다
##같던데
한발
한전
##버러지
뭐뽑
뭐였지
밈
미카
미쿠
미술
유대
해준다
해봐라
야요
##성화
##성향
무작
없겠지
없다는
진짜냐
##있습니다
우편
인맥
고집
요기
일하는
좆데
##할거냐
##할거같음
신형
신뢰
##중대
##더레
되는게
돋
돗
도는
알겠네
같으면
상반기
구입
구별
눕
파생
파울
##민지
김밥
버리
시발년아
예쁨
말자
##체크
드릴
##폼이
겟
치마
타릭
##줘요
##커피
디트
디비
롴
프런트
장타
살자
나오기
##온이
쓰다
##울때
##붕이가
##날듯
##통은
##두개
##올리면
##걸어
호출
##관심
후계
##쓰는게
토착
언제냐
감나빗
좋았음
좋았던
##륨
##박을
들어도
##이라는거
손톱
따리
국방
꼴아
엘리스
##맞은
##블렛
양산
평일
플러
##희는
열림
건들
##열심히
볼까
##껑
##ㅋㅋㅋㅋㅋㅋㅋㅋㅋㅋㅋㅋㅋㅋㅋㅋㅋㅋㅋㅋㅋㅋㅋㅋㅋ
잡기
뽑을까
폭주
편갤
업로드
싫은데
학벌
##택이
잠원
미친놈이
##셔틀
행님들
컨포
등교
창고
젤리
182
##넘들
빨갱이
축제
슈화
빡친
꿀잠
퍼포
케이블
##지도않
보내고
기안이
니네는
칼로
##ㅠㅠㅠㅠㅠ
어때요
개꿀잼이네
개인적인
말고는
챔스우승
젠지가
어캐함
아쉬움
미래를
물어보
인간적으로
##는것만
##하러간다
시상식이
늦은
에이치엘
마이너스
공격력
##줌들이
샌박이
가끔씩
날씨가
호감도
안보임
못하겠음
달아줘
죠죠
녕이
노트20u
쪽팔
둘이서
경찰서
이팀은
왼손
흘러
##봊돌
##앵웅
텍사스
즙태
자존심
가볍게
유부녀
ptsd
부유성
펨코
복학왕
휴대폰
아돌라
4000
fine
lte
먀
ㄲㅂ
ㅈㅂ
ㅊㅋ
##ᆻ든
##cc
##뺑이
##kt
##fa
##bb
##ㅗㅗ
##77
##aa
##ry
잇지
이민호
이메일
##지명
##지긴
##하라는
##곱
##고생
##시생
##에어
##라네
아트
아몬
##보이지
##저장
나카
##주머니
##만요
##만개
하려나
하한가
하고싶은
사야지
##려다
안당
안산
안열
##제도
##바니
##바스
보겨
##상에서
진파
##정글
##정령
##비슷
##장고
##그거
아니지만
아니였음
한일
바스
내용이
정발
정모
##텅
수해
##있는거임
와이지
우는
인우
고무
비제
비빌
##안치고
##키세
이거봐
##곽
##워요
##워크
##개념
##개꿀
##카로
신석
주연
못받아
공약
공룡
##문파
소중
소고기
##없어도
트래
만나는
##단점
##봐요
알계
##처녀
리오
리바
리베
##씨팔
구인
파오후
##운대
##선에서
##민한
##천장
벞
##말아
추미
성향
타면
타케
##플이
장성우
사람임
나오려나
박경
##돌리면
돌면
##승부
본진
본사람
##부터는
##걸려서
매주
호크
##하는거보면
브로
커서
ㅅㅂㅋㅋㅋ
##누나가
글씨
점마
반드시
단관
##갈이
얜
##언더
들어서
두근
꼴보기
짤이
복장
복근
질문받는다
삼성이
##블로
당함
##합니까
양반
끝이
떠서
##거같아서
##ᆻ을거
116
안되는게
누가이김
풀업
건너
##색으로
허락
30퍼
교대
##클로
터져서
월간
##하나보네
슬기
팬텀
##토리얼
##꽂
너네들
철구랑
찾기
흑성배
이벤트는
산맥
암튼
괜찮겠습니까
변호사
##떳냐
나올때까지
웃기지
스토리모드
뭔가요
##놔라
##쪽에
##쪽에서
식물
높게
팩트는
니넨
##극혐
봊친
어땠을까
끼워
확정임
미국에서
##친구가
##젤라
기다릴
옆동네
알고리즘
바꿈
김치찌개
규칙
##스럽네
##메이징
이겼다
사과문
##멸망
랖치가
서포터
안보여
예전부터
역대급으로
끊어
##art
뽕숭아
비쌈
섹파
##이란게
skt
배고파서
##이쁘다
곱버스
자신감
##속도로
이것저것
파이널
짬뽕
##꾹앰
헛소리
가짜사
널널
빗썸
궁금한점
##힘들다
워녕아
측정
psg
파랗게
상렬이
이누야샤
박세혁
김유식
굉장
1주
2정
230
4시에
4개월
5점
5퍼
6번
93
ca
렐
륵
뵨
쾅
##1000
##ra
##ㅆㅆ
이면
##리뇨
##고양이
##어이
##었던
##나연
##아파트
아버
어쩐
어메이징
##자인데
##인터
나지
나루토
가난
가고싶다
가죽
시라
저정도
##마법
하겠다
지성
##럭시
##사단
마트
마공
샀어
사고싶다
그치
그딴
##렷
안부
안드로
##오지네
기운
##치는게
##상의
##상으로
##우냐
##우유
##전엔
자가격
##뭇
##묶
개좋아
한때
한성
한자리
있는거냐
뭐할까
뭐시기
미오
유통
유압
유입이
대공
해본사람
##진출
##템이
정배
##피엘
없는건
우라
인지도
인팁
고유
고척
비판
##하는애
##안내
전생
잘하긴
잘만들어
거면
거를
주안
주운
##각임
못사
##동에
##더워
트통령
되기
만에
만년
##글을
도발
알티
더럽게
##먹는게
중심
중력
키는
구미
파스
파푸
##점기
세키로
##말을
##말투
드레
##포터
레시피
처분
씨발년들
##커는
##회복
먹은거
프라임
살만
티원
박을
포갤
메츠
##너프
##짤로
##든지
매력이
입대
망해서
##겜임
하나하나
##박음
반바지
단기
단점이
##벤트
##해야하나
병신짓
병신같네
##청소
어떻게하냐
##규민
채원
채연이
삼탈워
##종류
##합시다
양로
죽일
죽었다
관한
어제는
걸려서
태워
민호
루미
##벌어
백섭
##ㅋㅋㅋㅋㅋㅋㅋㅋㅋㅋㅋㅋㅋㅋㅋㅋㅋㅋㅋㅋㅋ
이빨
30만
천원
욕을
목걸이
접을
길이
시작해서
괜춘
온갖
롤갤
엄준식
용인
올랐네
올라갈
올라오는
획
없어요
환산
쿠르
쓸까
종로
185
봉인
먼지
##떴는데
지랄하네
쥬짱
별로네
딜이
놀이
유튜브에서
선수맞추기
아까워
##씹창
풍성
술먹고
##돈으로
줘라
##곳에
낮잠
아이돌라이브
빅뱅
데려온
##수있나
굴려
억까
가져와
인간이
##쓸까
불쌍함
탄산
웹소
한명도
ㄷㄷㄷㄷㄷㄷㄷ
런던
pc로
##안되는데
낫지않냐
땡겨
성형외과
어이없
예쁜데
바르셀로나
##할수있는
트레일러
버프력
2017
캠핑
힙스터
안들어가
##왔어옴
이리야
안뜨냐
귀찮다
##어떠냐
자존감
껌식이
헥사
욱일기
노블레스
마츠리
고치돈
무지개
싱크로
냉정하게
에이치엘비
1장
1단
2번째
5월
6인
900
hd
me
ost
쩐
##ᆿㅋㅋㅋㅋㅋㅋㅋㅋ
##hwa
##32
##이리
##이미
##이치
##가니까
잇는데
##하스
##합니
##낚
##에픽
##랍
##앚
##아카
##기노
아동
조유리
##스나
##스플
##자살
##자료
##야마
##드릴
가보
가구
가실분
시련
##한잔
##마마
오니
오선
오르는
집이
지휘
사투리
그릴
그닥
##려라
안좋음
안돌아
##바바
##수면
##일이고
##미로
##됬네
자산
개막
개쌍
##버기
유형
대진
해골
##때만
야붕이들
##유도
##진게
##진행
##피자
오늘까지
없던
없구나
왔으면
존맛
우려
우미
우산
고작
고속
고교
##하는구나
##안부
요원
##ᆨ이지
좆대
전적
전남
전복
##중독
피아노
##문은
솜
소재
부가
부관
##새끼임
##위한
재화
재개
도긔
알겠는데
덧
차원
##처가
머라고
립
리프
킥
라팍
구간
##운영
##점에
셉
##져스
##브는
버는
버스타
버릴
시발년들아
문어
##연재
추어
연섭
##친년
장엄
장시환
쓰다가
폼이
솔찍히
설리
10명
10시간
##망한
캐스팅
##두가
##두부
현커
현강
매니아
몇까지
호그
동급
계신가요
토무
초밥
##교사
하나요
##석환
##못하네
##움짤
##역전
때도
##딱지
추천받음
물류
채집
철혈
양석환
빠는거
걸까
간장
간식
간지나
##색히
##꺼냐
30초
속옷
찝
##이징
써밋
목숨
접었는데
폭파
편안
베타
임병욱
깹
군머
올라왔네
찐오아
잠을
레이븐
쓸때
창짓
돌아오
암흑
봉사
프롱
맛있냐
##이유는
넣어도
슈라우드
먹었네
기대됨
##떡밥이
서버는
놀란
놀러가
팀전
##쥴
이미지가
항공
##웨어
찬란
빌지
팩트임
##적이고
##헤더
끄고
요샌
좋겠노
똑같네
봊질
좌빨
가축들아
평가점
##싫음
캐릭터가
싸우는거
들어갔는데
겆줌들
물어보면
랭매
역겹다
모르겠어
규정
바이럴
핑계
끌올
격투
이후에
##안되나
보은왔
##좋겟다
뚫어
메인퀘
유튜버들
김민교
살려줘
냄새가
##둬라
질렀다
키스방
최강자
스키즈
에피소드
맹구
##ㅡㅡㅡㅡㅡㅡㅡ
마나카
윌슨
선넘네
잘나가는
당신의
스프링
흑발짤드컵
스카이림
가세연
엊그제
퉤퉤
잦글램
조승연
3월
3셋
4월
4일차
8시간
di
kia
깽
넉
넨
랙
뿡이
ㄴㄱ
##눌
##눙
##깔아
##5천
##3은
##ㅊㅋ
##ㅂㅅ
##가족
##하심
##고리
##어제
##니들
아유미
조음
##보장
##해킹
##자주
##자몽
##저브
##인싸
나을까
##야말로
갔다가
오이
지새끼
지령
마신
마냥
사일
안깨
안켜
안보내
안남아
안오네
안오냐
##까리
##대문
##수치
보단
보고싶네
모른
모른다
##되니
##상화
##갤플
##왔으면
##전데
##장인
자켓
개같이
개줌마
##긋
스탭
한끼
바라는
##셋이
뭐써
유인원
대지
야겜
야외
야갤에서
##진듯
##테르
##샌
인피
비중
요괴
##차기
노려
노바
##키치
##워커
좆물
전시
전함
전부터
##카도
##카톡
거인
못하는게
##생각이
화해
소용
부주
부심
부채
##파악
##크라이
돔
도루
도둑
리플
리니지
키리
라그
굽
새기들
누누
파도
파랑
파비
파리가
##준표
##영혼
##공략
##브로
시발년
예매
드론
레지
맞을
배제성
로이
로맨
장신
티끌
##펑크
##달면
##돌리
##돌아가
포항
설계
10렙
##살다
씹게이
후르츠
##스트리
##법은
초견
초창기
##박살
##은거같은데
##갈래
크레이
##해야할
##빠짐
꼴린다
블리치
분양
삼갤
엘프
가능성이
있었다
관음
네코
11강
금사
나왔노
열매
찍은거
달소
보고있는데
백종
##베는
은혼
약핑
막말로
통계
##이었냐
##이었노
시작한지
쉬고
갓본
##택신
군수
올라감
엔비
##범수
귀여운데
##기가능
횟수
잠안
##율른
애미애비
머리에
너네도
##있는사람
창원
종족
##넘는
알려줄
##견이
173
##겠더라
넣은
##왜케
##떳는데
##팬인데
이해하면
##큡
놀리
##씹덕
하는거지
샤먼
높네
##으니깐
##될거
꼬마승
공지에
뿌듯
알바가
정보근
주식으로
낑
범계
키우는데
답장
##게이머
코스톨
보여주는
비슷함
엄마한테
알고보니
탄압
유동이
역겨움
활약
릴레이
경원무기
올스타투표
스윕
##메라기
축구중계
상위호환
컷신
즐겜
뽀록
원탑은
중고나라
띵군
냉면
##뻔함
텐텐
액정
키보드커버
최소한
셋팅
모바일겜
##만들기
텔레
시원하게
live
노잼이네
##그런가
올림픽
모의고사
김호중마갤
미사키
##바뀜
가든이
콜로세움
그랜드
컬러
동양인
ㅇㄱㄹ
아름다운
정은원
긔작
헷갈리
가이아
오락실
ㄴ짤녀
manhwa
최원준
마누라
나성범
2할
2천원
2호기
6강
6시에
떄
뚠
쒸
톨
##ᆻ군
##퐁
##87
##sp
##ion
##gen
##mc
이수
##지에서
##고는
##엎
##었나
##어택
##시퍼
##시청
##데렐라
##라구
##기한
##기운
##기억
##기엔
아근데
##로윈
##넹
조리
##저기
나라가
나세실
##주현
##얍
##드는거
##마사
##만나면
하야
하려는데
오르네
오징어
지팡이
##사는데
마기
사형
사례
그는
안받
##대노
##오라고
여는
##수용
##일수록
기하
##ᆻ다는데
왜하냐
##상을
##와요
##와야지
##정수
##정원
##비드
##전화
##레티
자도
자야
##디코
개많네
한놈
한다는
있는거지
근갤
바디
뭐하지
미소
미녀
미칠
미쏠
유아
내역
##성에
##성욕
수십
수쥰
무협
비즈
##하는놈
에너지
잘던
잘해서
신이
신사
신선
주무
##중간
소통
##덥네
##내는거
만지
올타임
더쇼
차량
##먹금
머머
멋이
니새끼
리퍼
리옹
##작전
라노
파카
##점프
코토
곽
김용
##들이네
##업적
##당은
추석
성냥
선미
타르
타선
##경기는
##ㅡㅡㅡ
연말
딕
##친년들
들러
들부들
장식
살이
살살
최선
나오는게
##달성
쓰는거임
포포
##붕이는
아이큐
##두근
씹새끼들
토막
망치
커맨
글써
좋았을텐데
##박는
반가
워터
똥견들
##됐으면
새끼야
##것다
##줌은
짤라
##아니다
어케해
어케댐
어제자
금토
이상한데
루키
루탑
##찝
풀리
풀셋
적중
적극
음성
잡은
허위
30만원
모르냐
##이었던
##잇노
갑분
접음
폭락
터지는
편지
학살
깨는
그러게
합의
악개
##많다
##갤럼들
팬이
벌크업
체지방
##벨벳
좆같노
##있었으면
##팔면
##필름
창술사
받아라
프로미스
165
넣는
##나왔다
빡침
50만
잘생기
##퇴물
꾸미
스트레이
##해줬으면
이새끼가
##폭로
##곳에서
송민호
삼성생명
인스타스토리
개꿀잼이
뇌가
##드리드
현실적으로
녹화
래퍼
안나온다
덱리
랭겜
얻음
##혐오
응원가
기억에
##평가좀
타이밍이
젖닌
젖꼭
김태진이
##느낌이
ㅂㅅ들
ㅂㅅ들아
즐기는
##튕
땡칠
왔쎄리
민주당이
사귈
2년전
신곡보은왔
##떨어져
발작버튼
찬또는
액션
엘리시움
##탱크
빻아
##생겼네
손혁은
이딴거
심각한
스마일
세라피
플래티넘
게시물
앵간
기간제
드랍률
스페인
##지않았냐
##브이갤
뜬금없이
훔쳐
드러누
흡연
##걱정
비동의강간
블래스터
이영하
도감작
합리적
숨겨진
##실화냐
외노자
테오키스
강동호마갤
어쩐지
1기
3할
5선발
min
mlb
p0
sr
뺨
킅
햐
험
ㅂㅇ
ㅜㅜㅜ
##놀라
##셕
##ᆫ나
##cr
##1등
##150
##쑤
##vlive
##4개
##이렇게
##하대
##하우스
##닮은
##어치
##에몽
##라시
##기회
아방
조커
##보정
엌ㅋㅋㅋ
##해진다
##해드림
##해달라고
##자욱
나감
##주소
##야가
가망
시호
##한새끼
저지랄
하니깐
##구조
오진다
##러시
##사관
마부
##려하는데
안시
안줌
안팔리
안그래도
다신
다꾸
다이나
##대학
##오류
보구가
##의눈
##우야
##우는거
##레일
슾
스즈
아니였냐
한거임
한동안
한그오
있는건
있을거
미련
유두
대게
대검
내마
해선
야방
야린
##진심
정후
무좆
좋지않냐
우한
제거
제네
인장
곳이
좆성
좆뉴비
전과
잘까
잘했네
거미
주홍
못하지
못해도
못찾
피로도
공기
공성
공모
소금
##파일
##내로
올드
재생
재방
##글도
도미
알로
##코트
리마스터
##공시
코크
많던데
##녀석
김세
벚
원거리
옐
##연기
맞긴
맞춘
##감사
선행
##고싶은거
연계
연휴
##용은
경영
뱃지
먹금
먹어서
프레나
장영
##돌면
##돌릴
##돌리고
불판
돌격
##력으로
##창에서
##창초
몇장
몇점
재미없어
호환
입시
##하는걸
후후
봐주셈
##꾸라
망호
글케
##월급
##하지않아
##난게
##박으면
우리랑
##못하게
외계
얘기는
##입장에서
##길듯
##초돌
들어와서
들어왔다
국회
물총
짤좀
##지막
꼬꼬
눈누난나
관종
집가서
이상하다
운이
##론이
##라이크
막심
30살
짜장면
통통
천만
써본사람
던린이
길전
폭창
쉬어
알았어
10000
참아
다른게
온거
##할때까지
롤망호
사실임
군주
남자들이
##왔긔
##애들도
판테
등산
등등
사진찍
창모
창작
윤미
올려서
##센치
##골라
빡센
그만해라
##렌즈
엠넷
독사
##하자면
애니컷
앚이
##득점
인생을
##쯤은
샵
##손해
##손실
##하고싶은
콘솔
기사단
진각일러
뿌리
혐짤
좆같은점
보는중
유니콘
빅토
띠꺼
##하긴해
240
슼타
슼없찐
수준이
##123
기다리고
실시간으로
##버렸어
##리엄
불쌍하네
못생김
한남충
말이되냐
##스러움
챙기
저번주
부러움
상관없
샌드백
포기하고
크롬
짜증나네
쌈낰
찢사
##뜬다
흰상자
##신곡보은왔
##사이에
##트리온
메모리즈
ssd
##많아서
다크소울
현대차
top3
##쉑들
수상소감
룰렛
##갸기둥세웠탁
가을야구
아티스트상
일진들
##하지말라고
가까이
더러운
스타트업
로갓하고
수록곡
오디세우스
ㅂㄷㅂㄷ
너만오면
개잡주
괴담동
##시상식
전형적인
미용실
레게노
##ight
토착왜
##vlive갤
5등
7만
epl
for
첸
펼
힌
ㅡㅡㅡㅡㅡㅡㅡㅡㅡ
##싀
##팽
##1개
##88
##뺀
##뿅
##ᆶ어
##는구나
##가스
##가면서
##갔다가
이슬
이펙트
##지좀
##도어
##도와
##데뷔
##나다
##니언
아즈
##록이
조지고
어딘
##했을까
나은듯
갇
가보자
시각
하세요
하셔
##굽
##사는게
##사삭
마셈
사이다
사령
사퇴
사칭
사나이
그로
안키
여보
##수들
##여러
##염이
##엿음
진보
##우즈
##우울
##전노
자다가
##디진
##디카
아닙니다
한류
한곡
미즈
유식이
대행
대양
햇는데
해보자
해달라고
##테니까
무친
##있는거냐
씩
비하면
비참
에펙
##안남
##키보드
##웠다
너드
##카리
존나웃긴
주영
화룡
##소스
##소바
피카
피셔
##방으로
붐
##크루
되도
차가
중세
##캐르
상상도
라멘
##호감이
##준호
세로
코가
코지마
##질거
과일
##졌음
김상수
원기
원킬
##연예인
영광
##포카
##당했네
카메
레깅
맞은
선냐
##형제
##회수
##매직
생각도
먹으니까
##플핸
들박
최다
히스
히메
히탄절
##반이
쓰레
박서준
강팀
##울어
##근로
캐쉬
##줄알고
어딨음
씹솩
##강두
재미있는
입어
입구
동갑
후임
망천
망령
203
감탄
발목
반값
워로드
여자로
까글
##초기화
##해야하는
두꺼
##츠는
분뇨
뒤졌네
내일까지
눈을
눈부
특유의
걸리네
ㅈㄴ잘
114
122
12시에
루사
루루
음주
허삼
허접
홍련
함부로
통베
모르네
##편은
광배
검귀
폭돼
알아보는
##징징
골격
됐으면
군정
뿡리프
친구들이랑
악역
헤비
헤딩
둘째
팔까
각자
철구방송
킹갓
창키
창국
##넘어가
##했고
얼굴만
괜찮다
추천좀요
바로크
슛
슈주
##떳네
어떤지
지랄났네
##팬이
먹어야
##철이
빡쳐
50만원
메이릴
충남
확실하게
이쁘노
아깝
##참여
##셋팅
재밌겠다
##돈이
실화임
그리폰
이기냐
##맛에
칼삭
##먼스
##해보임
쓰레기임
굴러
선발로
##케이드
커엽다
빵집
젠신병
##아이디
현실은
마음을
아프다
유동으로
갈아탄
쓴거
##메이커
아이즈원은
길드원
런닝
##쟁이들
뽐
118이
##쓴거
네이마르가
##맘마
조용한
냉동
##스텝
만드네
씹창나
쉑
다르냐
습관
##높은
##것같냐
정확한
스토리는
##나미갤
곱등이
판매량
이것만
환상체
죽여버리
히어로즈
모델링
납득
##콜라보
무리뉴
라이트닝
찔러
##타이밍
켄간
라오루
근개비들
3연전
pog
프리미어
당당하게
##먄
충무공좌
오랫만에
분위기가
자괴감
청와대
자가격리
2층
2세트
3스
3시에
7시간
ab
be
cc
f1
mt
mg
qp
uc
us
낀
툭
ㄱㅅ
ㅂㅈ
ㅈ같이
##퉁
##64
##ᆻ겠네
##ᆺ말
##ge
##ㅆㅂ
##가시
이니
이스
##지ㅋㅋ
##지능
##고정
##고소
##고있는데
##시경
##도착
##나시
##남이랑
##서인
##엑스
##아줌마
##기타
아끼
아토
아몰
##겠어요
조로
##보우
##보려고
##슥
어린이
##인다고
나는데
시선
##한수
##한끼
##막이
##만하고
##만한게
핱
오는거
지키
지민이
##러브
##삿
사신
사운드
그대
안하지
안봐도
안쓸
안붙
다님
##대만
여포
##수기
보리
보성아
##일정
기프
##좁
##치도
왜그런
##되는건
##의도
##와와
##비에
##전으로
##장미
##디시
##같지않냐
스시
한건
있으니
##버티
##버닝
##타워
##타점
바키
바란
바리가
##짭
뭐라도
뭐쓰냐
미인
미미
대역
내주
내줘
했을
했을때
야념글
숰
없더라
서른
와도
와씨발
우연
고말
비타
에포나
노브
좆민
좆경
##개미
전재산
##할만함
주주
##각인
못봤는데
못알아
공팟
부서
부갤
##파도
되려나
만신
##린건
##봤을때
##먹으러
중급
##캐로
니샤
리트
리저브
키고
상단
상급
누워서
##준은
세리에
코스타
##질때
남견
문법
말곤
##당하네
레즈
레반도
맞나요
##감을
타노스
##경쟁
##님을
경던
디게
로지
실존
##매칭
먹는게
프2
프엑
히승이
##속에서
##머는
강종
106
10번
10위
1050
불젖
멕시
본격
어딨냐
현철
##메달
##판정
##현무
##받으
입력
동갤
계단
망하면
##충임
브더
감옥
윙크
하나에
하나더
역변
의사가
워존
##후로
##ᆻ노ㅋㅋ
크네
까이
똥겜
들어올
손혁이
##군데
##군은
##것만
##들어옴
꼴리게
##좆목
친일
가능하다
양보
##느냐
있었나
관상
##설치
평단
걸로
누구는
누구한테
하는짓
플탐
안되고
안되서
별루
음침
##팅어
허문회
쳐도
##잡을
##찍었다
##이어폰
형제
다음으로
검정
시작한다
시작했다
폭격
##봉퀴
편입
됐냐
임팩트
남자들은
##뜨는거
찐으로
하루만
판독
휴재
빨래
빨면서
윤갤
145
황올
##슝
푸딩
##챤
급식이
##떴냐
그런게
##덱에
50개
쇼핑
펑
만들어줘
확실한
사랑하는
딸기
아는척
높은거
##폭격
보내줘
개좆밥
면제
##잔다
그리드
##극장
노트10
좌완
##헛
맥날
범룡
결혼식
커엽노
링크좀
무료연
비슷하게
비슷한거
##30분
낼부터
성능이
랭커
랭초
꿈을
한명이
유저들
어느정도냐
쓴다고
뿡2는
##해봤자
김태진은
웃긴거
웃긴점
즐기
그러고보니까
솬딱
이재원
깡패
야스오
장난감
##해줄게
팝업
##ㄱㄱㄱㄱㄱㄱㄱㄱ
##뚜기
##믿고
희망일자리
다르다
킬러
꾹찜충
입장에선
단체짤드컵
당첨자
토목직
infp
할만하냐
리얼미터
못생겨서
튜닝
##끈한
##이름이
영혼의
잼민이들
간단한
이태원
##아프다
그리스로마
주제에
##ice
mmr
클래스
##닮음
뚱뚱
싸이코패스
자격증
김정숙
아메리카
매드무비
어나더
헤메코
##주제에
느림자
오리지널
gtx
1퍼
1등이
1세트
1분전
2점
3퍼
6장
7명
8년
8호
de
ebs
ufc
떤냐
훅
헨
##뤼
##뻘
##ㅅㅌ
##ㄴㅇ
##jpg
##rc
##mr
##이전
##이션
##가보네
이치
##리시
##나감
##나가면
##아티
아루
##롬들아
##네ㅋㅋㅋㅋ
조타
조던
어시
어과
##해져서
##자한테
##인격
##인지는
##야할듯
시구
하프
하잖아
하겠네
오도
오지는
옷이
오케이
##사업
##사회
마른
사토미
안온다
안읽
##대나
##대야
보2
##일까지
##는거면
모은
##여우
##여캐
왜그래
##상임
##화에
##우라
##레후
자컨
##끼들
개아
개방
##그레이드
스톤
스코어
##신발
##버릴까
##벗고
바빠
뭐에요
##함에
유비
유재
유벤
했나
##유튜브
정기
정품
##티아
수용
수이오
무토
무기는
오늘부로
좋다는
좋긴한데
##간이
##있을듯
우니
젝
인수
씻
고나
고오
비가
비리
비전
비유
##하는놈들
##모노
##모니터
에그
에타
애새끼들
##과제
좆로나
좆밥이
좆반고
전면
##카라
##할매
거북
신던전
신문고
주로
주목
못막
##소프트
##동기
소모
붓
부적
##없애
ㄹㅇ루
##좀해
올인
도인
##하고있네
머함
리벤
리듬
상한
라스트
팥
##운서
세명
과정
과로사
원투
드레스
성소
맞잖아
선구
##급이네
타갤
##경원
##형으로
연희
처참
##남았는데
씨발새끼들아
경기가
##매일
생각난다
먹지
살거
살벌
티샤
나오긴
##달라는
쓰면서
박용
##멍이
강사
불행
##송이
씹노잼
매트
몇몇
##ᆸ이다
패전
투척
입을
동거
동정
받네
데헌
그랬는데
봤던
브라이언
20렙
ㅅㅂㅋㅋㅋㅋ
역배
반영
##석에
우리랜드
단식
##된거냐
크냐
까마귀
들어간다
염병
##이라면서
##해야해
##군연합
짤털
블러드
삼탈
##블린
##종이
양평
양아지
내일이
##목표
##거같지않냐
누구나
하는애들
이상하네
민좆
풀고
풀리면
##했다는데
달갤
##볼만
##라이드
##ㅋㅋㅋㅋㅋㅋㅋㅋㅋㅋㅋㅋㅋㅋㅋㅋㅋㅋㅋㅋ
막보
응봉
통산
모르면
##찍었는데
##이었어
형아
던지는
목소리가
터진거
다른팀
##틀어
군필
슬리
슬픔
올라왔다
엔딩이
명곡
##ㄷㄷㄷㄷㄷ
회전
담시즌
##뒷
좆같으면
쿠보
##곤이
컨택
사진이
종전
돌아감
빨면
나만의
올려봐
괜찮을
해야하냐
##말고는
##없는이유
##톡방
갤러리로
##떴네
##에겐
쇼챔
##린다는
별로냐
찜앰들
##웰
재밌긴
콘돔
마이크로
뿌림
데려오면
힘들지
##싫은데
미국은
##야되네
돌려도
잼민
탄생
떡상함
혐이
컨텐츠가
유저가
재밌었음
하이퍼
바뀔
득2
땡칠플
씨발련들
포기함
협박
있을까요
##벽이
짜증남
조금씩
신경안
사회생활
길태견들
##몇개
김민식
접속이
진행중
맞춰서
##ᆻ잖
방어력
안뜨네
왜저럼
춤추
##아아아아아아아아
곰보
미통당이
잠이안
연속으로
엌ㅋㅋ
3위신
참고로
큰일났다
윙족이
실적발표
범죄자
##얻음
밤샘
kbs
##캐릭이
개웃김
##와이프
직장인
##늦게
키움히어로즈
토론토
랜선팬미
글러트니
어둠의
쫓아
솔직하게
찐이야갸기둥세웠탁
야무치
인종차별
사생아
별론데
시아준
koru
플랫폼
철감봉
가짜사나이
1트
2스
3초
he
say
료
##녜
##넉
##꺄
##cp
##v4
##uv
##ue
##이던
##지겠네
##리런
##리뷰
##고딩
##시너지
##도스
##거네
##겁다
##거리네
##나카
##라노
##아맥
아베
조교
##해보니까
##해지네
##해진거
##자만
##인정
나주환
##주민
##드름
갚
갗
시크
##만족
##만들고
하드리
하혈
오염
오론토
지름
##사에서
##사먹
마치
사장님
안친
안옴
##트랑
##노기
보나
##을가
모유
모카
##조지
##엿
##치치
##장이랑
##부키
##부를
자매
##딥
개망
갯수
개쩐다
스텔라
한듯
한창
##셍
미세
유용
대치
내게
해리
##땜
야마
##유나
##진지
##테랑
##르도
##르노
##티뉴
수금
오늘경기
없는거임
##있긴
##있더라
서커스
우가
우타
고독
비천
##하는건데
##모아서
##애기
##키트
##키키
일판
애잔
##과는
##개조
전신
전환
전멸
잘난
신본
못먹어
못받음
화성
피어
소음
소장
소희
생방송
##더러
##더라고
갤집
##크래
올해도
도색
알면서
알칸
##하고도
##하고나서
같기도
더럽
##먹이
##적보
##적자
리자몽
##작업
##작품
상성
상체
랍
라마
라소
##홉
파레
##공연
세무서
좀마
버틸
##포지션
카나
레데
성괴
##급여
디럭스
##회장
실사
실행
생각하니까
사람있음
##돌리는
강열이
포말
설현
101
아이오
본거
어디가서
현시점
##걸리냐
병먹금
##강사
몇렙
##현실
##ᆸ입
투수가
후드
##꾸로
브실
##병이
##병헌
감시
좋았다
확팩
##나오지
발열
##퀴들이
##못하면
크크
않긔
병신들이
##청원
귀족
##예나
##예측
심우
##좆은
친척
채원이
복정
꼼
삼생
##ᆺ담
돈버
양전
다시봐도
넘으면
어제도
태진
##잘하는
113
방송에
나왔던
##희망
민감
루친
열혈
적어라
볼만한
잡아야
30뽑
##잡은
홍수
통나무
출루
출혈
##찍을
##콘이
순경
길드는
##덕분에
갓반인
온앤
##할때도
싫긔
##틀린
됐음
임아니
##갤러리는
꾹앰이
##왔구나
##있는지
처음엔
이벤트로
183
밀면
삡
얼굴도
암울
봉염
윤성
1600
해야하나
푸른
##나왔으면
지랄이네
##엘마
없냐고
이러는거
##게임이
디시에서
##웃김
##해줘서
케오베
정상적인
##좋아요
틀드썰
##곳은
진각성
침펄
좌우
빅젖
능력이
닉값
##그래서
##친구들
십덕
움직
##자리에
은근슬
60렙
##랭크
흥미
어캐됨
개추좀
느금은
언급도
##하던거
많은듯
대기중
대기실
갈아탈
썩은
##해봤다
상대방
옴걸
키워야
냉장고
##앤파이터
맞추면
제목이
만드는거
도시2
리세마라
퓨처
ㅅㅅㅅㅅㅅㅅㅅ
미니게임
썸머
효과가
##ite
넷마블
##질문좀
기술직
노트20울트라
ts물
다르지
스펙업
윤지야
다행이네
##바이오
한글화
##베이스
무사시
햇빛
브라운
이긴다
시그널
박지현
악플러
나뉘
##선택권
앨리스
늅뉴
바퀴벌레
혼란한
헥토르
삭발
뒤집어
퍽퍽이
off
콥아고
프리미엄
프린세스
공산주의
외식비
doa
부엉이
프록시
김인태
얼코센블
추어탕
토착왜구
기프티콘
1사
1대
4차
4세대
8만
fps
t14
wa
yes
갸루
딘
뺑
틴
텀
ㅁㅌ
ㅍㅅㅌㅊ
##헐
##ᆸ쓸
##ᆻ으
##맹이
##ᆺ키
##쏴
##ie
##pm
##ㅂㄱ
##ㅍㅍ
##ㅌㅋ
이오
이시발
이진혁
##리야
##어워즈
##도날
##데나
##에대
##아악
##보긔
##ᅮᆯ어
##자다
##자냐
##인형
나년
##주도
가시
가질
가흔
시킬
##한애들
##마셔
##구경
##구먼
오글
지진
지내
지점
지뢰
##러블
마히로
사탕
##옾
##바엔
보던
보변
##미래
##는거랑
모듈
##조는
##되겠네
##정석
##비서
##부에
##부른
##부활
자작
개성
개찐따
##세일
미식
미투
미라이
유혹
대여
대본
대규모
해놔
##때리
야근
##진국
##진다고
##진입
정국
##티지
수라
무도
무당
무현
와봐
우람
인챈
비문학
##안감
##차네
##던게
좆됐네
전차
전광
잘살
잘맞
잘한다고
##할일
##할라고
신체
존나안
못따
못씀
##생기면
공황
##방식
##문의
##문열어
##루타
생체
##분은
##파딱
##파메카노
트페미
##크스
되노
만세
##단위
더위
##캐임
머장
키면
구현
구데기
파악
코트는
많구나
##브스
김웅
남동생
말에
##연생
카타
레비
맞노
##감정
선방
느린
타투
##경찰
연승
##용사
##태형
##매물
최하
할로윈
##달이
쓰게
설거지
##울듯
불륜
메갤
##줄이
이번에는
##걸리네
병화
##받는게
##받았다
##받을때
재밋음
호미페
##ᆸ이지
패는거
동인지
후방
받으
토익
감도
감기
글만
초등학생
의원
여자들한테
않는데
않겠지
똥양
##좋고
싸운
두마리
이런식으로
##출발
##싸게
물공
분홍
가능하지
뒤졌다
##아니긔
빠지면
걸리는
##결승
##결혼
금융
##희동
민아
민증
민규
루크
열면
##색기들
볼게
뽑는게
30억
홍대
홍팍
출금
모르노
순다라
##잇는거
##챕
##탄이
깨면
용느
뿡3
뿡히
##뜨는데
친구는
합쳐서
꾹찌
웨이
##셔널
흑잔
18년
##했누
##했겠지
얼굴로
받아도
암속
같은게
168
##변신
나온대
##팬츠
쇼케이스
엠생
웃는거
만들어봄
애니는
필요해
##큐브
된거냐
트레이드가
딜량
꺼억
이쁘다고
케인
케타
##손절
붙은
##적이다
개좆같이
면스
끄는
##ink
쥐어
야구혁명
지지합니다
문재인은
슼망구
떡밥은
잦듀
웅앰
대단한게
##애미뒤진
다닐
올스타를
보지에
감스트는
에이프릴
대학생
아니었네
블루레이
폐허
폐쇄
상관없는데
같아요
##깅이들
##안되지
대가리깨
칠흑
칰윙
스크램
안보이네
##하지않나
1등급
넥플
부모님이
스피드
오르페
섬마
시킴
일주일에
탈갤함
애매하게
힙갤
한정판
##년도에
고인물들
##만들면
##어려움
능력치
혁준이
저장용
순수재미
이적시장
##걀
편집자
가능한가요
공포영화
코미디
어떻냐
될까요
그립읍니다
데려오자
이명박
아크릴
트레이너
##스포츠
goat
멀쩡한
아틀레티
김지찬
긱돌
##밧드
녀석
소화제
ㅇㅂㅂㄹ
레벨업갤
##돡에게
뱃살
튼튼
방방봐
살다살다
브레이브
이낙연
안철수
혐오스러
야요이
요기요
추미애
안드로이드
샤먼킹
윤미향
어과초
칰윙돡에게
1코
2관왕
5기
5회
7천
83
cs
en
ig
tmi
v5
뀨
썰어
##ᆼ거
##ᆻ슴
##꺠
##뻑
##im
##ter
##이누
이브
이클
이왕
##지는건
##하마
##리긴
##고도
##시영
##싱이
##시혁
##에여
##은지
##은행
아노
##보여서
##습니
##햇냐
##자리가
##인임
나츠
나이스
##주석
##주는건
##마우스
오더
지상
지덱
##사카
##사님
마딜
안하노
안팔
안접
안먹어
안끝나
##까서
##오르네
##젯
여격
##수에
보장
보고싶은
##일도
기초
기숙
##칫
##치다
##됬다
##상품
##갤이냐
##정치
##정액
##레는
##레리
개빠
개악
개귀엽네
스나
한적
한방에
있지만
미성
유자
유전자
대호
대딸
내장
내성
내새끼
야한거
야마토
##육이
##테가
##겼는데
##티는
숫
수동
수명
무자본
와카
와씨
왕이
왔음
인바디
씨이발
고어
비구니
에라이
노리는
전번
전승
##할라
##할뻔
거꾸로
신라
주라
주짓
주작이
못넘
화폐
##방향
생길
갤창
##프리카
##케트
##크면
되긴
되겠다
올리기
도10
##즈만
알갤
같긴
##먹을때
##적인거
##식스
머구
리드
리츠
상세
상호
라됴
누르고
##호모
파는거
파묘
##공익
##선미
코리안
##질을
과대
김다
버리는
원스토어
드네
##당했다
레몬
##경영
##태일
실세
실책
##물에
먹네
장터
최면
힝
##반데
##반대
나오는거임
쓰자
강서
포니
솔방
설탕
108
10대
불도
불사
불고기
##날은
##날씨
돌리는거
##따따
##패는거
##패널
현시각
맴
매년
몇위
##현진
호주
##ᆸ이네
입사
받기
##혔네
봐주
토크
토레스
브이라이브
감전
##교통
확신
반찬
여자의
##못하고
##갈게
##길레
들었다
여기로
염경
따먹고
두가지
때리
##들어서
꼴박
얼마까지
돈으로
돈좀
##블러
당뇨
양손
양심이
빠질
떳네
죽이는
금액
127
이상은
찍기
##껍
##꺼같은데
직작
음중
잡는거
뽑아서
약코
속발음
##불어
홍예
##슬링
이게뭐노
출장
출격
천만원
##찍는
##편집
욕쳐
욕설
던공
갓갓
터지네
됌
됐노
돼지고
임무
그러네
##놈도
올라가면
##왕은
명장면
팬들이
체셔
라이온
헬프
헬둥이
좋은건
잠만
웩
각도
각잡고
애미뒤
##있었다
혼내
받아줘
##턴킬
프로게이머
올렸는데
황교
17살
시간은
시간을
##빨로
나올때마다
19일
##씩만
로아가
딸이
딸치는
껍
밥값
만화는
찜삐
항아리
풍선
높냐
듀엣
##폭스
##하고싶네
252
##항전
왕자
왕의
만들지
효니
중국은
아이돌이
혐혼
똑바로
칼싸개
##ᆷ버린
##ㅠㅠㅠㅠㅠㅠ
인스타그램
새로고침
첨보네
생일풍
야구선수
페이튼
키우는게
##수있게
243
답은
##게이들
모든걸
전부다
비슷하네
##한건지
혜수
팔았는데
쌍도
##솔직히
200811
다니는데
여러분들
인정한다
응원법
정치인
의미없는
스윗
2차전
재밌었다
##햇으면
##안되는거
이겼네
낫겠지
500개
엑스트라
맞추고
공략글
닥터
룩딸
출근길
##부럽네
지지율이
슈퍼엠
저러고
##데이터
김민성
팝창
와이프
오버롤
스트리머들
인터넷에서
습격
더블헤더
자체를
튜토리얼
묘사
##ㅏㅏㅏㅏㅏㅏㅏㅏ
##노트20
미치겠네
##할꺼면
똠와이스
##테일즈
펀치
쇼미9
##새키들
닼소
##깜빡
개웃기노
ㄱㄱㄱㄱ
정신나갈거같애
##주세여
쓰리런
쿠키런
인구수
헷갈
##ube
혼다강
웃고있다
마카롱
스튜디오
다만악
찡찡
삼성라이온즈갤
마지노선
황야여단
샷건
상당히
조승연vlive갤
크레이그
라노벨
레깅스
슈주갤
스크램블
2화
5이닝
71
7번
bgm
ef
fc
ld
nba
pro
s10
swan
vi
끠
션
툴
ㅆㄱㄴ
##촬영
##앨
##뮌
##깰
##1도
##쩔어
##ja
##da
##gb
##oc
##zy
##가구
##가방
##가튼
##다스
##다름
##거스
##나지
##섞
##에오
##아르
##았어
##아머
아만
아는거
아스트
##들중에
조현
##스페
어드
##해가
나폴
##주전
##야야
##드나
##드만
##드루
##드벨
시민
저스
저따
##맘이
##만하네
하반기
하울링
##구이
##구걸
##사원
마프
마사지
샀음
사고싶은데
##임이
##렸음
안이
닿
##수영
##일반
모래
##조음
##엿는데
##비야
##비만
##부랄
##레어
##레즈
자아
자자
자캐
개정
개짜증
##같고
스와이프
한도
##금액
##탔는데
##타선
바래
##함을
대우
대성
내구도
##원래
##때보다
야호
##성호
##성운
정통
정해져
##터치
##터지면
##르지
수제
수간
무장
없습니다
서류
서피스
존좋
우규민
제안
##년차
##년만에
##히는데
고개
비스
비숍
##하는애들은
노랑
애완
##과의
##웠는데
좆제
좆간지
##개장
전지
잘만든
##카메라
거는
신도
신맵
주거
주력
주식이
생물
부작
부스터
##덥
갤7
##프메
##위에서
##크보
##내네
##글만
##즈도
알레
알현
##먹노
머라
머포
니아
##씨야
파인
파리는
파쿰
##공사
##공무원
##민정
많다고
과외
##계수
김도
김풍
문닫
말야
말랑
##체감
치매
##당한거
추팔
레바
레넥
##급식
타겟
##줬다
경비
배터
배너
배리나
얼버기
##속으로
불법이
돌리는데
돌릴까
캐논
어디야
##이랑은
##메모
매달
호로
입는
동성
데몬
데프트
##사람들이
봤으면
봣는데
망하고
##충들아
브베
컷이
좋아하네
좋아죽
위쳐
위주로
##교행
##나오니까
워너비
여자애들
##된건
##된듯
들어라
##해야돼
##해야되는거
##해야되는데
따뜻
병신같이
##역은
때까지
##예쁜
심하냐
심하다
심한데
채우
가능하게
죽고싶다
평자
##ᆻ을걸
플뷰
12월
민교
간당
찍어서
백마
잡음
이쁠
허무
막판
홍건
홍옥
노래를
천안
##깨워
##이었구나
순정
순식
목마
접근
쉰다
15퍼
베네
골프
임롬
용접
1300
올라오면
악용
둘러
찐텐
엔드
명치
문제냐
문제네
꾹줌마
레이드는
##율이
##왔큠
캐릭은
##률이
##삼성
등신
흑룡
킹덤
같은건
##ㅇㅇㅇ
올려주
올려주세요
급여
슈브
50억
케이크
놀고
폴센
스트존
아깝네
이정도는
있다가
있다는데
줬으면
꼬마는
사기임
##넣는
ㅋㅋㅋㅋㅋㅋㅋㅋㅋㅋㅋㅋㅋㅋㅋㅋㅋㅋㅋㅋㅋㅋㅋㅋㅋㅋㅋㅋㅋㅋㅋ
평가가
닉넴
신기하다
완장아
거의다
늒네인데
색스
근본이
싸우지
수비는
어쩌면
좋은거냐
겆줌
##이였으면
생겨서
도와줄
##하지마세요
##일까요
##충이라
유저수
바이든
격기
축구선수
##뿐이다
상관없이
홀나
외질은
권력
혈액
아이폰12
달리는
달리기
윾나
윾동
호감임
최대한
##헌터
캡처
회사에서
사귀면
##부럽다
협찬
졌다
이길수
##할수있음
##스템이
염퀴들아
3500
압박
의사들
##해줄사람
액티브
##댄서
애매하네
##뚜뚜
문투인증
##몸매
녕데렐라
언제까지임
레드카펫
레드벨벳
##엑밥
제로원
뚜벅
빙의
플래시
쓸만한거
늙은
버티면
햇살
럽코
##으으으으
테러단
박지성
깃털
쏜다
여삶
벗겨
카락스
엘사님
개재밌네
크래미
개이득
우르크
##총공왔
쫓겨
##무섭네
경원비봉
씨야갤
김대중
테일즈볼
노리개
우리나라는
찐팬상
##나눔
어지간히
##드래곤
숨참는다
클러치
자비처
ㅊㄱㅂㄹ
바람의나라
심사위원
무작위
fine신곡보은왔
보겸이
쩐다
그리스로마신화
온앤오프
fine신곡보은왔호중
1로
1월
2단
5장
5차
6키노
81
8위
gta
la
꽈
뇽
뿜
솨
칼리
톱
ㅈ같다
##66
##숴
##뱅이
##1은
##ㅁㅌㅊ
##th
##44
##ㄸㄸ
##78
##익이
##이스트
##이더라
##갚
##가를
##가이드
이드
이원
이속
이중에
이탈리
이렐
##다닥
##시공
##시작이
##데리고
##거아님
##라에
##라랑
##라매
##기르
아테
아군
아악
##보나
##보고싶어
##스를
어쩜
##해여
##해지면
##자위
##인장
나빠
가본
가봤는데
##한길
##마스크
##만보고
하고싶어
하겠습니다
##구제
지우고
##렇
##사나
##사는거
삿
사라고
삿는데
사또
사재기
##으신
안바
안궁금
다마
다했다
##수수
보갤
보고싶은데
##일본
기갈
##밈
모에
모냐
모양
진각이
##왔지
##붓
##부장
##부모
자율
##그릇
스캐
스플
스갤에서
한짤
뭐해야함
미스
미프
미라클
유야
대운
대물
대략
해요
##성장
##성민
##유니폼
##유전데
##건은
없지만
##으로써
서태
우체
제조
인력
고음
고우석
##하는년들
##모의
##모토
##애랑
##안은
##안하는데
##차훈
노부
놈은
일시
애드
좆되는
전동
잘나와
거점
신성
신나는
주는게
못감
피빕
공인
공항
공허
##방학
소뱅
##없제
##없나요
##케미
되고싶다
만점
올리지
도움이
알수
지금쯤
방식
##실수
중3
라운지
구축
새보
셋이
##계산
##졌으면
버릇
남미
##말야
말씀
##연구
##연출
##체로
##체험
영정
##당에
카피
카단
카카페
##배포
느웅
처맞
뱉
##태는
로코
실종
##물로
장소
할아버지
##달래
박해
박혀
강등
포긔
불로
##날인데
##승민
아이랜드
##걸그룹
병휘
##페는
##페도
##강림
몇정도
몇시까지
##해설
##ᆸ이면
투코
입으면
동부
##스트림
##혔는데
##사람있음
브사가
2010
감당
##찬빈
초보자
초등학교
좋아했는데
##나오나
외부
##초코
##귀엽
염마토
손혜원
싸지
때리고
##쌉
틀고
블레
복숭아
테두리
당명
있었어
평야
걸판
걸그룹이
민족
루틴
찍는거
달작
볼륨
약함
천하
##콘은
##콘서트
##편이
썼던
교사
##링은
시작하고
업무
본인쟝
제발요
됐어
용어
친구들이
##뭐지
##갤러들이
귀엽게
귀여우면
##켜서
꾹릴라
##벨트
머리채
##해주는거
18시
##넘기
밀워
삐찜
알려주는
절대로
윤수
축리웹
푸는
뺏기
으악
정신승리
빡빡
##다니깐
쥬헝
##괴물
기대되네
미쳣네
필요하냐
맨유
챔프
프리티
딸치고
놀람
유튜브는
이러다가
샘좆
듀블
보내는데
줘야
그리움
222
삼성전자
중국에서
공지영
##ins
ㅋㅋㅋㅋㅋㅋㅋㅋㅋㅋㅋㅋㅋㅋㅋㅋㅋㅋㅋㅋㅋㅋㅋㅋㅋㅋㅋㅋㅋ
와꾸는
증권
##값이
육덕
##완성
류중일
안나오는데
비트코인
마음의
보상이
보상으로
돌렸는데
생겼어
##버렸노
도와주실분
꿈에
얻을
훈훈
##할거다
##해봐야
바뀌면
외질혜
짤녀가
달리면
##ㅎㅎㅎ
엑소
##석이랑
견자
사귄
맘에안
졌네
보기엔
하다보면
시절이
3600
염퀴들이
각성기
뮌헨이
압축
눈물이
벽람
주작기
발작하는
시키는
빈집
섹드립
노잼임
이뻐서
##둔거
##스티벌
핸드
쪽팔리
텔라
핀냐
미치겠다
쩌리
쩌네
탬탬
계산기
##알려줌
겨울에
##아프네
때문임
테러방
뻗
바꿀까
지들끼리
몇시부터
yout
그래픽카드
있으려나
##캡쳐
반박불가
제외하고
기가스
깨달음
원더바니
세탁기
2분기
아름다
해피증
디지털
what
서머너
머선일이고
메구미
계수표
진영대
##2yao
##2ya2yao
수수료
news
##스탯
산적굴
싸이버거
앙헬리뇨
파푸니카
사토미나미갤
은근슬쩍
미성년
파쿰람
2학기
3판
6일
9만
9개
am
ep
etf
mv
둬
뾰
뻑
쩔어
핼
ㅇㅊ
##ᆻ데
##ᇁ갤
##꼴라
##꽉
##푹
##1이
##1회
##iz
##49
##rl
##39
##갔냐
이랑
이근
이집
이종
이별
이새기들
##지랑
##다수
##고지
##었지
##시러
##났어
##아섭
##아픔
##기여
아바
아파서
##면접
조진
조직
조준
##보호
##보시긔
##해졌다
##해달라
##자네
##자세
##자크
나선
나간다
##얌
##드는데
가요
저럼
저수지
##마트
##마좆
오전에
오자마자
오디오
지정
지린다
##사유
마시고
마피아
사겨
사호
그린거
그걸로
안망
안짤
안된다고
##까봐
##오를
##제국
여지
여연갤
보적보
##일자
##일찍
##일러가
기믹
몿
모찌
모욕
##치면서
진동
##우치
##갤가서
자면
자본
자야겠다
##무장
##디에
갭
개구리
개떡상
개념이
스쿠
바니
바연
##세상
뭐하러
미침
내구
해준
했노
##원중
##원이랑
##원딜
야마다
야로나
##성과
##팀들
수요일
##건우
##건담
좋나요
인질
고차
고문
비겁다
##애서
##안사
##안나옴
##키움
일은
애널
전작
전상현
거대
주황
못써
##소속
피노
부름
붐은
갤라
##ᆷ이면
##재련
##재훈
##냅
되냐고
재검
##글로
도사랑
##즈루
같더라
더판
덥고
방해
방치
방깎
중2
머시
머형
리노
키큰
새로나
새낀
파는게
파리스
어뜨
코카
많았는데
과목
김주
남초
남양
##말인데
문서
##업는
예수
말해줘
말머리
영도
##포유
##포스터
치하야
카구야
##님도
##남자가
배운
##태양
실내
살건데
할리
박종
##머리가
강요
포션
10판
메달
##둡
##따먹
어디어디
현지
현자
##산거
##받습니다
재밋다
##쓰노
##꾸라지
2070
하나의
반포
여자를
##절대
##못한
##못차
똥보성
##입문
##입력
염제
##집은
##집중
때부터
이런걸
##예뻐
##출구
물려
물론
꼴리는거
필사
블게
블신
분조
당신은
뒤지면
##굴이
##새끼들도
##새끼들만
네가
누구있냐
##검은
방송을
하는중
124
##순서
열리
풀카
풀림
보고도
떡공장
##외형
날뛰
무슨뜻임
##잡냐
홍준표
이벤균열
##려고했는데
##채워
던지
교촌
폭식
폭등
##령이
155
##하나는
업빗
애들한테
남자도
남자의
남자랑
##만원짜리
올라오네
올라온거
엔트리
문제지
팔카
회사가
##린이인데
번들
것이다
200개
환동
##삼진
##김밥
혼혈
1400
맛있는거
##ᆯ까요
##하기도
해야되냐
177
넣음
빼박
입갤ㅋㅋ
으으
##먹어야
##팬싸
##눈이
꿀잼이네
쥬쥬
기대가
확실함
끝났는데
사랑을
##밀리
댓글이
서버가
##늄
##빼곤
표시
표기
사이코
기분좋아
극딜
떨어지는거
흐뭇
풍형
##000개
씨젠은
##적이지
40억
##갑주
운동하고
착용
착하게
몰랐음
사기캐
요새는
##짱깨
논쨩
##붕인데
육진구
샘슨이
나가고
늒비
##싫은
캐릭터는
결혼하면
비트앤파이터
잦친
미래통합
페미가
1년만에
인간관계
징그러
신규탈리
닮았다
스킨은
바이퍼
뛸
벨파
일어나면
해주지
해주셈
해주실분
##엽충
합격하면
들어와바
낙지
0813
왔킹롤
놓지마
안가네
##차이임
복구버그
쿠팡에서
압타
1000개
기어들어
퓨전
비싸냐
풀어줘
##나올까
아다떼
에바임
입장권
생각났는데
해결법
영업이익
아나운서
기념으로
이지영
못해먹
룰루
비싼거
넥슨캐시
ㅠㅠㅠㅠㅠㅠ
펀플
답이다
왁견
을목
자세히
##zzzz
파란색
모쏠아다
엑시즈
타카기
뜨거운
정신차려
개장수
##ㅎㅇㅎㅇ
늑대
야리코네
존나웃김
하여간
카마인
탬탬버린
개창국
보충제
love
어림도
획득
부가세
2연
330
3관왕
450
5셋
luv
pr
part
tr
yd
꺠
늬
씬
즌
ㅇㄸ
ㅈㅅㅂ
##cg
##ᆿㅋㅋㅋㅋㅋㅋㅋㅋㅋㅋ
##쌩
##bn
##76
##ai
##mg
##ㅂㅂ
##이온
##갔노
이력
##하농
##다는거
##다르
##어진
##어떡
##서요
##은비
##들과
##면허
##보게
##해머
##햇노
##자신
##자동
##자라고
##저는
나방
가동
가지마
시트
시온
##한줄
저새기
##만되면
하늬
오세
오라고
오메
오르면
지른
마구마
사치
사야겠다
그파
안한다고
안떨어
##까이
다쳐
다좋은데
##오르는
##노잼이네
##바른
여배우
볶
보이노
##일임
기동
##미도
##는거보니
모노
##조정
##되겠지
진리
##의가
##비로
##비틱
##전기
##장판
##장군
자라고
개당
개븅신
스붕이
스탑
스엠
한체
한편
근거
##타냐
##타인
##타치
##타석
##함께
유학
유효
대인
대군
대륙
내돈
해조
해머
##때랑
야함
야채
야가다
##진건
##진용
정성
##새벽
##터져서
##피로
수확
무비
무머
무안타
우월
우웅
제드
고고
빔
비니
##모르는
##애도
##애플
##차고
이거랑
좆될
전정
전남친
##번방
잘할
##할수가
신은
주사
주접
##중지
못차
못던
##생기
핌
피방에서
공휴일
##방구
소프트
부케
##더기
##린거임
올리냐
재고
알럽
##코스트
더운
##국가
차고
중립
중량
닛
리본
리틀
리로이
상징
구리다
구자욱
파츠
##준아
##공원
##공단
##점을
세번째
코달
코트가
##질하는
##말도
##말라
##들이냐
원턴킬
##업은
말리
말아야
##연시
##첵
영보
듴
##포로
칙
치구사
##당첨
추출
성적이
성범죄
선원
##님한테
##남순
##용어
경우는
배려
로망
##물약
살빠
살설
살만한
최우
최정
##달림
쓰라고
##머노
##돌리기
포시
포즈
설아
10회
불매
캣
현명
씹레
몇화
몇백
##현상
재미없네
재미없다
호복이
##ᆸ이라
##ᆸ이냐
##투사
##투명
투탑
투샷
입개
동맹
동예지
##쓰지
봤네
토너
2022
결산
##박제
반교
워너
크지
크고
##입음
염응
손으로
따고
병신이지
귀축
귀멸
귀요미
##츠키
##이네ㅋㅋ
꼴잘알
심사
심술
짤림
##는건가요
분배
많이함
돈많은
##블랙
##블럭
당하면
빠지
빠대
빠르냐
##썼는데
##않냐
뉴비들은
넵
네메
평판
11일
11시에
루다
열일
별풍
달림
##열쇠
볼베
##외로
음질
허벅
막고
30년
##폰으로
출퇴근
모르나
순회
##잇나
탈뿡
써야지
써봄
##뽑고
다음화
##클이
##클리어
시작하네
시작하자마자
쉽냐
##쿠라
갓양
터진다
편임
업체
염보야
싫다고
##만원이면
울보
##뭐가
엔시티
팬픽
##뒤면
##ᆺ엇는데
헬레
헬적화
아닌게
애미들이
애미없는
애미뒤져
념글요청
쿠티뉴
##있는듯
처음인데
킹스
이벤트맵
종특
프롬
괜찮을까
퇴출
황정
##빈은
급함
영상은
입갤ㅋㅋㅋㅋ
입갤ㅋㅋㅋ
##먹었어
어렵게
##팬들은
몸은
기대하고
필요없음
##빵이
사랑이
앚저씨
##밀고
##응애
챔결
##꿀팁
##방송은
폴드
정리해줌
##보는중
떨어지네
항복
이새끼도
인기많
보내면
##을때까지
##하고싶음
고민이
25초
##었다가
몰락
몰랐네
진각은
송하
##넣을
스킬트리
삼성은
아이돌은
똑같은거
##허벌
와꾸로
육룡
맥도날
않았는데
첨부터
범용
멀로
##해보이는데
삭제함
성공했다
##께서
근본은
에픽게임즈
싸우네
씹덕겜
책장
##보이던데
아침을
인간의
##힘듬
징역
군대가면
여러번
얻는
저녁은
한남충들
덕아웃
뛰는
남순이는
부탁한다
권희동
넘어가면
맘대로
##ong
탁구
##쉨
얘네들
고양이가
아카리
##뿌리
짜증난다
##스테리
##한번만
운영진
만드는데
만드는게
쌀국
렌티
비싸네
150개
최종보스
과거폭로
##어디감
거북이
##생겨서
##나올때
갱플
끝내기
시발련들
통피로
메갈피
앉아서
룬테라
안쓰러
띄어
튤
플래그
쓸만하냐
플레마
##때문임
디스플레이
카카오페이
##ide
우주소녀
이시스
위험한
철염남
뚝딱
셔츠
섀버
옹호
유플러스
쥰내
수련수련
##변경권
레인보우
라포엠마갤
미개봉
비행기
##abo
마비노기
서재응
샤샤샤
자석펫
리디머
조리돌림
외계인
박용택
##문열어문열어
아틀레티코
2사
2탄
2티어
3강
7개
91
dp
hal
ios
np
tro
뚀
뺴
줜
훼
ㅡㅡㅡ
##촬
##캘
##rr
##31
##mp
##ㅣ발
##잇다
##가이
##가진
##갑니다
##가놈
잉크
이갤은
##닦
##리움
##시세
##겆
##낫다
##아기
##닝이
아인
아유
아ㅋㅋㅋ
##보싶
##봅니다
어웨이
##자키
##인더
##인연
##인건가
나을듯
##드롭
각이다
저년
##마무
##만드냐
하리
하실
하셈
오로
오크
오또
지형
마녀가
사시
사격
사아야
##으라
##임ㅋㅋㅋ
그거임
##까들
다키
##트도
##트임
##바꿀
보안
보다는
보고싶음
기르
기체
기승
기둥
기갱
##발견
##는거보다
모았다
모가지
모여서
##치니까
##치료
##되긴
##상위
진구
##의대
##와야
##왔냐
##정후
##비하
##비군
##전력
자서
자급
##무카
한거냐
한경기
있겠네
##신경
##타도
##타구
##타이거
바른
바닐
뭐래
뭐만하면
미화
미필
미코토
미꾸라지
내정
내인생
했잖아
야추
야옹
정현
##르몬
##피나
수2
수위
수령
무쌍
없는것
진짜네
서드림
왔노
우갤
제대
제출
고를
고구려
고속도로
##모기
##모를
##모름
##안한
노선
일제
거름
존나많
##중이라
##중얼
못고
##소연
공무
공군
소액
##덩크
##팟이
트갤
##프다
##재현
만수
##린느
올레
도아
더듬
더운데
방갤
방영
차헤
##적인데
키배
상인
상수
구본
##공대
##공학
##점으로
셍
코박
##질로
##천재
김우
김택
문켓몬
원트
예아
예민
치워
카야
카오
카리나
카이도
레미
맞죠
##배는
##감으로
늪
너무너무
##고싶었는데
##줘야함
프라
살릴
히기어
할거임
할수록
##속의
박는
박문
박승
##울까
불량
불닭
##쳐라
호흡
패싱
받을수
받으러
##쓰다가
데빌
계급
##법을
20200
글래
##련다
##복각
##난투
반사
##석민
의혹
까플
까는건
똥줄
##언뜬
##좋긔
##한다는게
들어봐
들어본
여기저기
손민한
싸패
병신이네
펙
펩시
국물
##정돈
땜
##것이
##출연
추천하는
##들어감
채은
분류
돈까스
##환이
철수
철학
당했다
양치
빠꾸
##새끼들임
##중엔
넘기
게임도
태극기
##잘하네
이상하지
민경
간접
##알로
갤러리가
볼수있
뽑냐
뽑아도
막힘
쳐박
##찍기
##이얼
순한
형아들
던지고
다음엔
교재
교불
폭우
쉽네
##쿠키
참전
편하다
베메
다른사람
본인도
##놈있냐
뿡창
합시다
울었어
엔버
귀엽노
회색
체인지
##ᆺ어도
것들을
첫판
환승
찾고
킹해킹
쓸수
밀려
팩폭
산업
산초
휴먼
147
143
올려줄
해야하는데
황혼
178
1700
시간대
갤러리에서
##밖에없음
나온지
나온거임
##먹어야지
지랄을
이해하는데
먹어본
50층
엠블
메이로
웃는
인증하면
독해
신캐가
##ㅅㅅㅅㅅㅅ
이렇
폴더블
기분좋다
##십어
정리글
역시나
찜한테
뭘해도
빌트
##층이
##층에서
공부를
##갑옷
##팟은
##했었음
면허
몰입
왕택신
중국어
논쟁
칼바람
여친사먹
센스
좌익
버그가
잔인
밑으로
가축들이
끼리
나가라
찐따대결
범인
행복하다
결혼은
슼이
근본없는
코스닥
현실적인
##새기야
가격은
선택좀
스카니아
##이여도
혜리
##있다가
미래시
앰코
앱플
존버한다
많아짐
신고게시판
##보은왔어옴
파딱이
닮지
##띠니
디씨에서
투수진
##벅스
마도는
갖고싶다
일어났는데
하이브리
쪼개
잘생겼는데
##논리
##쉘
키워도
축하드립니다
헬스장에서
280
28일
##한가보네
부캐로
##릉가
##룩스
##들만의
오르냐
##협회
##오오오
존재감
구라안치고
쿨타임
비싸게
ㅅㅅㅅㅅㅅㅅㅅㅅㅅㅅㅅㅅㅅ
난이도가
븅신들
라이프치히가
사제가
##는법좀
륶
3300
상상함
##할게요
원영이가
드래프트
비율이
질렀는데
몆
메모리
뷔줌마
1일1
힘든데
벌었다
플렉스
120hz
빨간색
빡세네
닌자
여동생이
지하철에서
모모코
쌓아
야동초
스티브
부정선거
##힘들어
웬만하면
2019년
똥찬이가
배당금
천재단
마마무
일어남
##어리더
허수아
수호자
음료수
언젠간
캔디
avi
떠오르는
##uble
itzy
쾌적
띤갤
검머외
사석에서
##소년단
##유닛
페미니스트
비빔면
주기적으로
빤스런
파티원정
에이즈원
횽들
이참에
아몬케트
좀마형
브실골
##총공왔동호
youtube
갤라쇼
trouble
1천
1만원
260
350
4억
5에
5렙
5일차
6위
6실점
73
cl
nh
te
꺄
싀
숭
쫑
쫙
ㄹㅈㄴ
ㅅㅇ
ㅅㄲ
ㅈ밥
ㅠㅜ
##좨
##ᆯ캐
##1명
##vc
##ff
##3페
##이너
##가고싶어
이가
이보
이단
이국
이현
이란
##하래
##닥이
##리리
##리터
##어필
##어그로
##뎊
##나기
##낫네
##앎
##아바타
##아파서
##기체
앜
아따
아시는
아케이드
##보아
어크
##해졌네
##했을듯
##젓
나은데
##주려고
가야함
시공
##한결
저렴
##만점
하든
옾
오노
오일
오공
##삽니다
##사료
##사이즈
마늘
마더
사볼
그타
그놈의
안줘
안빠
안간다
##깥
##노ㅋㅋㅋ
##제트
##바나
보성
보건
##일으
기로
기사가
모순
##엽이
##치던
##치를
##치곤
##되는거지
##의심
##무료
개통
개이쁘네
##그오는
스택
스웨
스팅어
한지
한쪽
한도리
근디
##신데
바슈
##세대는
미하
윶
유포
유행이
대자연
해봤다
##유출
정이
정예
정착
##샛기
##터졌네
수시
무기가
무덤
서강
우중
우영
제와
인페
씨ㅡ발
고인
비쥬얼
##애틀
노답이
이거냐
일겜
애드라
좆발
좆티
좆판
좆박
좆벤
좆이어트
##개씨발
전한길
잘나온
##할필요
신분
신태일
##람이
못하노
못받은
##소에
피트
##방울
소심
소풍이
부인
##덥다
##팝니다
##케팅
##직렬
##잽
되서
되는거야
ㄹㅇㅋㅋㅋ
올페
##단거
도사가
##봤더니
##즈니
##하고있는데
중원
중형
중학생
##캐쉬
상큼
구해
새싹
##호로
파네
파는데
파커
파이즈
##듯한
코로
코딩
##천국
##녀는
##계열
김심
김시원
벗기
말해준다
레일
맞다고
##형도
연관
##남충
배마
배척
배꼽
딩
디버프
로버
얼리
생각한
먹고싶어
프붕이들
프레스
들려
들으면서
장민호
살리
할려면
할건데
포엑밥
10분전
##근첩
불과
불알
메호
##망상
돌아서
캐슬
이번패치
##따고
##패션
##메랑
##증가
##걸릴
##표현
##창년아
##현우
투기
##한거아님
##하는거보니
동아
뭔뜻임
##쓰다
데스티
##사람인데
봤더니
초중
좋아짐
위너
##류탄
##월이
##교보
##복지
발광
##석아
단축
여자아이
##못해서
외인
외제
##입는
병신인데
펩
##집단
추천한다
##쉽네
틀와이스
심한거
싶긔
복사
복싱
얼마가
엘든
##맞는데
##맞으면
##합성
양카스
금욜
클라우드
하는구나
집합
##순이들
간호사
열리면
풀강
##볼때마다
##열림
보고서
##론은
##벌이
##벌써
##벡
무슨일이
무슨뜻
음탕
##불펜
짜파
##양심
찌질
천상
모르겠지만
##찍냐
딱딱
욕하고
님들이
한국인이
시작해도
##지않는
쉬다
알아냈다
##다가도
##팀에서
##악한
편하네
베논
갈때
갈사람
깨진
깨짐
##픽은
합짤
악성
헤필
##왕국
한번은
##ㄷㄷㄷㄷㄷㄷㄷ
귀여워서
아닌거같은데
하면됨
찾습니다
등기
##접어
갤주야
뜻이
종가
종신
밀크
밀순
빨던
빨통
윤대
괜찮게
퇴장
##옵은
유진은
축알못
푸키
급하다
총정리
정신줄
어려운데
어렵지
50렙
메이져
##맨은
이름도
웃기긴
케이는
기대했는데
서울시장
필요하다
충성
##병신들
댓글좀
##놨다
최고지
폴크라이
극단
싫어하는거
하는것
##해줘도
항의
풍설
##생각해도
찬원
뷰봇
인기많은
혹시나
있다는게
스타터
패치노트
25살
개좆두
틀드로
##캠프
송구
송형
##받아라
침수
진심2ya2yao
##재밌네
##해보는데
안나오고
십새
될거
던파는
##각이네
이쁜여자
흥민이
어쩌다가
잦트롯
숙련
대단하긴
##애미가
물어보는
팔아서
억떡
여름이
##힘든
웹소설
콜라보는
신규유저
##메이드
##최강
콜업
부러운
블루스택
그렇네
연애는
준비중
pcs
뽀무
엑셀
어이없는
##싸개들
##애들이랑
실패한
심심한데
##첫방
떨공
묻어
개씹창
압살
사회적
너희는
##뭔가
어카지
알려줘라
인사이드
##느낌임
이용자수
니쥬가
똥퀴들아
강간죄
##맞춤
할만한거
적용됨
이승기
##누구임
ssr
곰굴
걸러라
모집합니다
한글패치
고수님들
안좋은거
이럴때
한녀들
쩝
검은색
귀찮네
구단가치
하위호환
드립니다
경우의
2위신
쭉쭉
샤워하고
오리진
김우석브이갤
엿갤
차기작
일어날
좋을텐데
파판7
괭
arabo
맷동이
##주인공
쓸데없는
풋살
안타깝다
꺼지라고
검머머
힘듦
미스터트롯
##sey
낄낄
개야갤
카즈야
촉수물
다를게
유난히
sup
아수라
스바루
ㅊㅋㅊㅋ
렐라
유통기한
만년필
장신구
백종원
##genta
금토일
눈부시고
고말숙
침펄풍
진영대창초
ㄹㅈㄴㅂ
000
1패
1실점
3트
3세대
4확
5인
8개
cu
kfc
led
un
wrc
쏙
쯤
체이
ㄹ황
ㅇㄴ
##훠
##걔
##믈
##팽이
##1일
##5개
##2번
##2명
##4는
##ak
##ㅉㅉ
##이틀
##가봄
이라
이자
이만
이진
##지나면
##다보니
##시그
##시카
##도둑
##서폿
##에데
##아픈
##은카
##니즘
##니샤
아픔
##들짝
##로움
조강
##보라고
##보러가
##스파
나사
나진짜
나나미
##주원
##야하네
##드아
가나
가니까
가창
시대에
시오리
점이
##음소리
##마로
##만인데
하하
오즈
오빠는
지크
지식
지선
지마갤
마무
그레
##려니까
안통
안살
안와서
안봐서
안맞는
안우진
닰
##트루
##대는데
##오미
##오는게
##놋
여븝
##수한
##수임
기모
기껏
##을거같은데
모셔
##조로
##조무사
##래기
진도
##의성
##갤펌
##왁
##비용
##부자
자정
자강두
개왕
개쩔
개저씨
##같다고
스케이
한입
있대
있지않냐
있긴함
##버린다
##타리
##타마
바벨
바쁜
##세용
미는
낸다
해물
해보니까
야설
##테는
정배우
##르타
##피어
##피네
수출
무뇌
좋나
서폴드
우효
젭
##년전
고로나
빕
비작
##안가
##안고
요시
일주
일산
일자리
애정이
전날
너야
잘그
잘된
잘먹고
잘팔리
##카트
##카드는
거리는거
거르면
신안
줏어
못내
화난다
피닉
공동
##방도
##동자
소수
소식이
소풍
생중계
부리
부두
##없었는데
##파스
##파츠
트퀴
##프스키
##내라
##좀봐
올킬
올팬
재종
도도
알음
알겠음
지금처럼
##코랑
덬
더샤이
##국민
차는
차이는
##적도
##식당
니어
니엔
구역
##운트
##준우
##긩
##토벌
코스트
남을
남기고
원자
원태
##연갤에서
추노
캄
카드는
레후
성기사
##림은
##형아
##형우
연전
연령
경력
경우가
배매
디에
실명
##매제
생각하는거
먹을수
프론트
이제보니
##플티
장관
박아야
강함
강림
강열
10400
메뎁
캐르는
본선
##따리가
현물
씹ㅋㅋ
씹새끼들아
씹똥찬
##걸리면
##판도
##판에서
##판타지
매미가
몇주
재밋네
호칭
##관은
##투디
동성애
뭔상관
후지
후장에
받습니다
덱이
계기
계절
토레
토욜
망하는
커밍
##누르
감정이
##찬규
초성
하나를
하나라도
반팔
##갈거
들어오는
##해야하는거
병신은
##역할
두둥
##츠네
추천해주세요
추천받는다
##쉽게
꼴리냐
심흑
짤들
##억울
엘화
##독시
끝판
어케해야
##써요
##않음
죽이면
있었지
관짝
네소
넘쳐
넘었는데
어제오늘
걸고
##결합
태성이
플랜
##순으로
민식이
적음
##볼래
##꺼같음
##라이즈
잡히
막폴
30번
쳐먹
##잡는거
응우
응딩이
##잇지
있냐고
욕처
목에
##링클
폭망
승패
##지는듯
100프로
월정액
##악마
참을
베릴
다른거임
롤은
깼는데
슬라이
슬라임
뿡은
올라가는
한번더
울부지
##뭐고
명일
회의
헬조선
첫사랑
2009
철구한테
##량은
##셔야
흑철
사진은
187
밀린
팩팩
봉지
윤곽
퇴사
##겠던데
##센징
축복
푸라
영상에
어떤식으로
으내
정신못차
##나왔을때
##다니면
##맨이
러닝
케이티
##좌는
별로다
만들어도
필요없
트레이드로
##응디
딜도
팀원
큰데
##죽을
##놔도
##꿀잼
인생에
인생의
폰허
어느게
아까부터
트윈
##참치
만화책
찜깅이
풍룡
케프라
재밌더라
인기도
줫나
##빌지
몰카
침식
침투
차단한
차단목록
뿌리는
칼날
어땠냐
범두
지지하는
##수있는거
십억경
방법좀
오래걸림
답을
##께요
중요해
기다리면
혜지
엄마랑
물어봄
##쓸모
주딱은
활발
활성화
꿈꿔
오프콘
인정하는
##여자랑
한명은
연습생
썩견
인싸들
어떡하지
재밌어서
홀딩
하이닉스
익텐
80년대
##둘둘
공격전
##붙어
예쁘고
예쁘면
이번주에
느그랑
##쓴다고
키워드
띵잦
300만
one
조용호
축하왔어요
룩공
얘네는
아카이브
고맙
쎔
보다보니
ncs
자동사냥
카페에서
싶어요
트위터에
저럴
트레블
32강
아랫
시키고
##그러냐
느낌이네
미니진
방어율
공주겜
은퇴투어
##콤보
챌린저
현타옴
베이징
##높음
꿀잼인데
##였다면
정확하게
남친이
마법소녀
컴퓨터로
해봐야
아스카
스케쥴
왜저렇게
룬레이
뷔빡
안나와서
혁명
지능이
늙어서
디스코드
피곤해
왜이러노
이따구로
1인칭
조작와이스
list
저기서
모으는
네네카
예고편
재밋는
빤쓰
재앙이
슨상
묶어서
셔터
##쫌
##될까요
묵혀
##ood
뻘글
퀵매
미사일
라오어
##찔이
랄로
누굴까
박민우
파괴력
하랜사제
공중파
오디세이
가위바위
##magenta
부끄러워
김수현
2018년
화려한
중학교때
무상성
럼블
lec
틋스타
보은을깨워
개쌍도
찬란한적
낑깡
내마위
벚꽃
피카츄
도인비
심우준
불도그
##따따설x
염경엽
보은을깨워magenta
1권
3줄
7모
750
8분
fu
kr
nb
쭐어
ㄱㅈㄷ
ㅁㅇ
ㅈ같음
ㅜㅜㅜㅜㅜ
##괘
##ᆻ구만
##쿡
##ix
##42
##ame
##ㅈㄹ
##3일
##ms
##yn
##이자
##이번
##이득
이네
이형
##지옥
##하가
##닷
##다면
##다는게
##어마
##시안
##시위
##시죠
##도끼
##에있는
##아게
##기보단
아는게
##냐면
조졌다
##자에
##자야지
##자범
##자이언츠
##인들은
나냐
##주딱
##드디어
갔어
가붕이
식스
시탑
시이발
##음에
##마차
##맘에
##마지막
##구슬
오짐
오착
지게
지분
##러냐
##사야
##사이드
마자
마저
안마
안했다
안나는
안나네
안츄
안뇽
다이어
다큐
##요소
##대항전
##오랑
##바름
##수야
보3
보라고
보병
##일어
##일의
##을수록
모고
모루
모딩
모아야
##였던거
##치즈
##우미
##와의
##전을
##장수
##부랑
개트
개설
개같네
스스
스터
아니구나
##버리노
##타운
바위
바린이
##세탁
미도
유버
대량
대졸
대성공
해운대
얀데
##티쉬
수1
숨이
수습
없뎃
##있는건
서수
우석이
제트
인실
고점
비시
비웃
##하는새끼
근데진짜
##안해서
요금
##차게
노지
일지
일당
일리치
##워짐
좆으로
좆좆
좆된다
전에는
잘때
신영
신앙
주급
주절
주수리
##중인거
못했는데
화랑
화살
##방출
##문신
솟
소득
##분위
##분들은
##파냐
갤갤
트라우
##ᆷ입
되팔
ㄹㅇ개
##좀해라
재활
도구
##코이
방관
##먹자
닝
리다
키캡
라시
구할
굽네
구하기
##영입
##선배
세레
##브앱
김영
원하는거
원톱
예판
말함
말대로
말해줌
##당하는거
추측
##ᆸ님
카지노
레오나
성폭행
##배고
선공개
선인장
타도
##고싶냐
연대
연패
##줘야됨
디디
로스터
실모
실차
실리콘
생각한다
먹버
##플렉스
장단점
살고싶다
할래
할려고
##반은
사람의
나오는건
##속이
##달린다
박시영
##머스
강보
포르네
이유없이
불태
멩
메갓
##망치
##살지
이번주는
##부터임
##쳐내
##메좆
##판만
##펨
##산부
매너
##슨이
##ᆸ이라고
##투아
패면
패키
받는데
받짤
받을까
205
감조새
##찬스
위임
##학금
##겜에
하나임
하나밖에
##하지도
발령
반토막
##후군
얘드라
까비
##초부터
##하다보면
손차훈
손아섭
따라서
##행위
##밥통
페리
페스타
국장이
귀환
##빠이
##쉬는
짤을
##권도
얼마면
##억에
엘비
철린이
##독교
빠르네
끝난거
떴어
떴긔
죽인
죽이기
관다
관통
넘는데
1100
11단
집계
플라스
##흰
##희가
찍어도
##엔드
적혀
건지
백만
직렬
은월
음판
허세
##슬리
천국
##찍어서
##뽑음
길마
교양
##봉은
보면됨
알았더니
159
100렙
참석
골때
염보랑
염보한테
됐지
학점
학폭
슬램
엔씨발
귀엽고
팔라딘
회계
헬창
잠금
소바에서
각오
좆같냐
머릿
##있어야
200만원
##셨다
##필터
킹오
이벤트가
뜨고
창문
종문
돌아오면
삐앰들
알려줄게
팩션
올해가
봉랑이
윤붕이
맛있네
맛잘알
##하기vs
해야하는
해야댐
##변환
황밸
172
넣어서
넣어야
먼동
입갤ㅋㅋㅋㅋㅋㅋ
총기
청량
청률
이해를
빡겜
##다니면서
##다닐때
꿀빨
엠비
메이킹
게이팝
웃기긔
러프
##하자나
##괴롭
신캐는
서울은
서울에서
충청
사랑한다
챔네
##놔서
유튜브로
잘생기고
혹사
표정이
기분좋
생각해봤는데
극과
찬스
##000명
##손님
보냄
보내는
##을땐
##하고싶으면
콘크리트
고민된다
##빌드
옷피셜
겹치
몰아서
##휴가
그립네
##넣는거
멜뮤
섹스하고
옛날부터
##뇸
잔비
##재밋
주식은
느낌인데
않았어
생일축하
##싫네
##이상은
##해보여
쓰레기통
슼둥이
현재까지
빵즉
##캐릭은
중요하지
무료배포
##129
어쩌지
좋은것
좋은거야
혜화
물어본
##몰빵
##솔킬
##하는건지
ㅆㅅㅌㅊ임
##점이면
좃나
##는것보다
짭찬
잇으면
##노래는
점심은
갈아엎
어느정도로
털려
감독님
아니었나
칭구
블루투스
남순이가
전화번호
##아닌지
인방충
켜놓고
애플이
잘생겼어
pc방
맘스터
튀어나
년들이
##튀김
느낀거
농협
##문제임
엑바
조용하네
배달의
견우
스크린
##겜이네
무시하고
##스테이지
느껴진다
매일매일
눈물나
저러면
##ster
만드냐
너희들은
팝송
죤나
적당한
잘생긴거
롱런
마라벨
보닌쟝
이용자
어울림
베이비
펠라
##스토리아
3년전
##어떤
원영이는
락밴드
네좆이
##끌고
뭐하냐고
춤추는
잃은
불안하네
##어케함
모집중
##베이터
쩌는
##죽이고
괴롭혀
95제
토요일에
어쨌든
낭만
늘어남
김종인이
맛있다
팔리냐
셔플
톡방
히나타
엽떡
히트박스
근처에
이해안감
닼3
한개도
##우우우우
긍정충
일어난
냐냐
64강
할배들
갈리는
아픈데
가디언테일즈
쓸데없이
여태까지
오랜만이네
단순히
싱싱
신의한수
##ㅡㅡㅡㅡㅡㅡㅡㅡㅡㅡㅡ타
동일인물
갬빗
휴지통
풀발기
려시
암살자
못버티
리즈시절
지잡대
민폐녀
수행자
매운맛
시그니엘
소소한
##정신나갈거같애
현기증
드라이버
ㅌㅊㅈㅇ
굉장히
뵨창
diy
##스트리머
네코파라
비타민
느림자부대
신본기
주짓수
견자희
알럽베
halsey
하이브리드
자강두천
울부짖
##자범퇴
1타
1섭
2승
2월
3회
3턴
3마리
4기
4연
4렙
5대
5단계
6뿡
7이닝
gp
gbn
h4
m4
mo
ne
눌
칵
ㅅㅊ
##댜
##맬
##븨
##2도
##tc
##ld
##ㅠㅜ
##bx
##gn
##ox
##이길
##가축
이건데
이똥찬
##지정
##하늘
##하더만
##림이
##리우스
##시민
##시설
##시쿤
##거니
##라디
##아내
아린이
아자르
##롯이
##게자
조나
조케
##보고싶
##보이면
##보이즈
##보고싶은데
어닝
##해적
##해본사람
##했지만
##인상
##인식
##인스타
나미
나열
##주랑
##드도
갔냐
가볼까
각이냐
시설
##한국
##한이유
저가
##마망
##구해요
오랑
지려
지호
지목
##삶
##사시
##사가는
마가
마스
마홍
사에
사러
사놓고
사죄
그년
안하게
안양
안하니까
안보는
안해봐
안자고
안보이는데
##욧
##노는
##제거
##제비
##바껴
여물
##수능
##수잇음
보도
##일만
##일랜드
기습
##미키
##랙스
왜하는거임
##되긔
##화까지
##의제
##우네
##갤질
##왔나
##비빔
##전선
##레마
자빠
##디자인
##끼가
개수
개커여
##그립
스까
스라벨
아니어도
있는거야
##버터
##타야
뭐먹지
미스테리
유연
유력
유베
대두
했다가
했던거
##겼다
정했다
##터지네
##르렁
##틱스
##피지
##픽스
수저
좋네요
없는거지
##있니
##있겠지
와13
웆
우럭
제3
제공
제련
##년까지
##힝
씨부
고가
비서
비공
##몫
##모바
에기르
##안냐
##안하나
노조
노숙
일야
좆타
##갬
전향
##번은
##번역
잘버
잘하는게
잘아는
거라고
신코스
존나좋아
못한다고
못먹은
피아
피크
피켓
##룻
소서
##분탕
부위
##없지만
##더숲
##파괴
트랙
##직한
만능
##린은
##린이가
재림
도박이
도윤이
##봤으면
알못
지금보니
##첫날
##먹여
##적폐
중나
중대
중화
##캐밥
머있음
리빌딩
누렁이
##능력이
##호랑
##호텔
파쿠
##영소
##영웅이
많나
언리
##념에
##졌지
김범
김정은
남상
문구
문득
원소
말만
##체력
##포에
추하다
##심하네
카습
카밀라
맞는거냐
##감도
선장
난왜
난릉
연가
씨발새끼야
##커엽
배우는
생각없이
먹으
먹고싶은데
프문
프랜
들면
들으니까
장혜
최예나
할텐데
티가
사람한테
##퍼센트
##온은
##온게
박기
박아도
##돌고
강장
솔큐
##근처
불어
아이가
아이루
이번꺼
##쳐야
씹지
씹오
##올게
##올듯
##올릴
병디
##강점기
##현장
호영
##관에
##투는
##한거아니냐
동인
질려
토템
언제오냐
##법으로
20강
##찬데
초장
##련은
확업
발자크
반기
##은거같음
우리엄마
##갈통
까다
똥개
##입금
##행동
##빠른
이런애들
추천해주
##싸워
심상
##좆이
작정
작혼
싶지
싶노
필살
챕터
복붙
많이남
돈만
돈없어서
가능성은
##환경
##블랑
당발
뒷담
##보고가
##써라
있었구나
태연
하는듯
하는사람
이상성욕
민원
간다고
간절
루이
열렸다
풀면
건방
##볼땐
##꺼같냐
날카
##존재
잡아서
약한거
30회
쳤는데
쳐망
홍상
통직
##이었지
##이었나
딱모
##잇엇
욕하면서
써보고
접촉
한국도
검토
폭공
일본에
알았지
15만
15년
##랜다
다른겜
갈개
싫네
##겠네요
##틀러
임찬규
학력
깨져
그럭
그러지
그러려니
올라오냐
합치면
##많고
##ㄷㄷㄷㄷㄷㄷ
귀엽냐
라이블리
아닌가요
좋은지
레이너
각인데
쿠린이
미친새끼들
판타
##셨나요
킹정
갤주들
준우승
준밧드
종말
1800
돌았네
느끼는게
빨머
빨강
프롤
141
어디서함
해야해
##변화
황대
##는다는
넣은거
##빨이
##나와도
##먹었냐
청산
어려운거
지랄하는거
##막아
##꼴림
##맨날
케이형
애니가
필요없고
된거임
사랑해요
##응원
그거아냐
##죽음
최고임
##방송이
식겁
선수단
디시가
스트라이
싫어하는데
##셋은
떨어지고
케파
빌리
##끝까지
##돈은
스타일이
줘야지
##했었네
착장
착석
면도
##헤헤
그리즈만
칼찌
ㅋㅋㅋㅋㅋㅋㅋㅋㅋㅋㅋㅋㅋㅋㅋㅋㅋㅋㅋㅋㅋㅋㅋㅋㅋㅋㅋㅋㅋㅋㅋㅋㅋㅋ
코로나로
않았다
첨으로
##완장
김태형
데려갈
확정이네
찐따들
##삥
뒷북
트와가
옵스
결혼하고
십시
신기하게
8월에
랜스
셀케
이쁜듯
##같아도
싸우지말고
바꿨는데
들어가네
##새기들이
녹스
선택존
웅탁
옆자리
옆모습
읽을
물어뜯
페미들
페미들이
인간은
유동닉
주딱아
바꾸자
수영복은
##듣는데
덕에
다이소
한달만에
##최초
데이먼
데이비드
대학원
족발
도배하는
##졸려
##선수들
인방갤에서
켰는데
부탁드려요
런칭
잘생겼네
권총
관심도
예쁘게
5분전
그려옴
마렵
중고거래
멋있는
시켰는데
호감인
캬루가
세이렌
졌
밤낮
##헬스
쎄게
제목에
빛나는
갤질하냐
멍청이
##뛰고
흰박스
버즈플
안들어가지
편의점에서
놀랍노
프라이언
상태가
##복입고
배고픈데
끝냈다
##보은왔우즈
꿀잼임
##귀여움
빙수
배민쿠폰
##멍청
해설은
아가야
걔네
불편한
혁준
난리난
빡세냐
재능이
꾸니야
##그런데
금민철은
##부탁드립니다
이시국에
작업장
마리나는
그저께
오타니
영향력
##펠라
##처리반
뜻임
##다음에
bbc
우유통
앱등이들
어지러
뎀감
mc무현
결론은
##시킨거
고장난
즐거운
닮은꼴
여중딩
##생축보은왔우즈
테라버닝
섞어
암굴왕
크래비티
엔터주
유카리
새우버거
미나미데이
플로프
테이블
떠오름
진로좀
흉가보조
공산당
유산소
팬미팅
왜저러냐
와타시
상하차
디자인이
라핌이
##인줄알았는데
슈스울
페미니즘
데모닉
명문대
##웬티
아조씨
가불기
##카운터
진파수꾼
바스켓
파랗게생축보은왔우즈
쿠르키키
##낚시
넉넉
로맨스
갑분싸
젖꼭지
허삼영
핱시
로지텍
불젖이
홍건희
이탈리아
달작법
마구마구
코달소
푸라닭
nbvc
0개
1층
1쿼
2조
2권
2가지
3단계
5개월
7위
9위
e6
es
jp
kp
mbc
n제
ph
pp
qhd
tip
up
wap
녤
츤
켠
쿤
쿨러
퉁
ㅃㄹ
##헤이
##ᆻ습니까
##ᆨ은
##ᆺ습니다
##ᆽ고
##똘
##5일
##2배
##46
##lt
##3이
##익스
##갔을때
이토
이라는
이쪽
이부분
##지오
##지표
##다카
##리던데
##엇는데
##도에
##거의
##나베
##에나
##에비
##기아
##기시작
아들이
##게이가
##게이는
##겟냐
##보이노
##보고싶네
얹
어매
##해피
##해체
##해결
##해옴
##자서
##자공
##저지
##저도
##인사람
나형
나밖에
나지금
##야할까
##듦
가디
각이
가보고
##한걸로
##만데
하구
하와와
오가
오케
오져
오스트
지혜
##사르
##사과
사니까
사사키
##윾
##임ㅇㅇ
안하겠지
##깝
##대운
##오너
##오는건
##밝
##바요
##수상
보공
보탄
##일수
기아는
기묘
##미들
##미야
##미드
##는거아니냐
##좇
##였다고
##칠까
##상한
진압
##의숲
##우지
##우주
##우흥
##갤인데
##정가
##정대
##장사
##레가
자냐
개시
개처
개강
개쫄
아닙니까
한터
있길래
##신의
##신운
##타격
뭐에
뭐하나
미시
미키
미달
미뤄
유프로
대꼴
내주면
얄
##진도
##진던
정호
##피씨
수는
수아
수이스
수룡
무인
무언
무의미
없누
##있으
##있누
##있으니까
##있길래
서출구
와일드
인공
인땅
고자
고칠
비기
비겁
##하는애들이
##모다
##애나
에우
에덴
##안대
##안한다
##안했는데
요양
##차이나
##차이즈
노신화
애도
좆비
좆튜브
전성
전에도
잘하지
잘한듯
##카르
##할거같다
신전
신차
신혜
신탈리
존나싫어
주루
주름
주택
못살
화제
화날
화학
화염
##소름
##소총
피터
피케이
공을
공정
##동님
생선
갤디코
##크라
##크냐
##좀해줘
올까
올클
재보
##단체
도마
알던
##코도
덫
방무
차비
차세대
##실한
##실격
##적있음
중연
##캐논
##명록
머하는
머학
릭
리창
상도
구슬
##본적이
##운건
##준원
##공학과
##토랑
##민족
코메
##질라
##질하고
##질하는거
김원중
버틴
원바
##업네
말로
##연동
##연령
##체스
영차
드롭
##같은디
치카
치어리더
카툭튀
성덕
선봉
타석
타순
##고싶지
난입
첩
##줫
씨발새끼들
배수
배슬
로젠
실프
얼라
먹는중
장량
살걸
살만하냐
히키
##퍼로
박음
박건우
##돌때
강행
강렬
포수가
포획
102
104
불독
멧
##통제
##짤좀
현건
씹좆
##메시
##증이
매물이
##ᆻ으면좋겠다
재미있음
호넷
호옹
패치는
투덱
투헬
##하는거봐
동원
동방
동반
동접
동생이
동갑이
##쓰니까
##쓰면서
##쓰는거임
데자
질싸
언제와
브륜
좋아한다
위협
##나오게
발이
발냄새
발삼이
발키리
반격
##겠다는
워해머
##후후
##퀴가
단간
욀케
외궈
크긴
않으면
까이는거
똥장미
##초대
##됐다고
##이라매
손을
싸구려
따봉
병신이냐
국해성
##것보다
##것처럼
##예고
추천함
##쉬움
꼴랑
틀케
짤드컵
복기
분기
분신
##권을
삼행시
##환영
##맞나
철길태
빠름
##늒
특집
##중에선
죽기
다시한번
관광
넴
넘나
넘네
넘음
태생
##했는데도
나왔습니다
하는말
12땃
민서
루즈
찍혀
##엔진
##엔터
달콤
볼만함
##꺼다
직전에
무슨생각
##ᆻ나보다
이뿌
약사
허니
허허
막판에
30연
쳐먹고
##불안
##잡지
##폰은
천박
써야함
목소리는
##클은
시작임
쉬발
1516
100명
##하나가
##리곤
벡
베리
베테랑
갈갈
임산부
뿡탄
올라간
올라왔어
합쳐
악어
악재
악당
명태
문제다
하루도
하루하루
팔사람
회귀
체력이
좆같지
##해주는데
판별
철구형
##셨네
행운
찾을
찾아서
창조
##혁은
184
돌아왔네
돌아왔구나
##넘으면
##ᅱᆫ거
삐가
##했오
산다고
받아가
봉쪽
봉디비
윤이
프로틴
해야한다
일러가지고
176
##슛
넣기
그런건
그런거임
##덱으로
청범수
##렌지
##다닐
##다니네
쇼메
##맨들
19토
신캐랑
기대되는
새끼들도
##딜이
##효니가
프리장
진지한
사이에서
이쁘긔
##염보
하는것도
항모
복귀하고
케로로
##손이
결국엔
##끝에
있다는
##좋아함
개좆망
개좆병신
면류
옷을
그림이
끄면
잘못한거
스킬은
혐한
잔고
빅톤
##재밌
##하긴한데
나가기
나갔다
##ᆸ게도
##삐앰
류현진
삭제하고
가챠는
스포티
홈페이지
슼통피
좋은거같음
##이였다
한다면
책상
미래는
팔아요
억경
1년동안
가져왔다
해줘야
##인줄알고
다니고
아프네
앞으로도
잼미
ㅆㅅㅌㅊ인데
개념요청
학교에
##여자는
귤
찍었네
가테갤
유저들이
뛰고
뛰는거
##최대
칸나는
털린
끌려
큥이
없나보네
칩성
##뿐이야
부탁해
익주
##좋은듯
애들이랑
맘터
컷본
##안되서
그려봄
##튀기
낫다고
낫샤이
##계정으로
멋있네
롯데자이언츠
##쎔
콩고
안가는게
##ang
룩우스
사귀고
협력
##마려움
대깨맥
시절에
아레나에서
돼지새끼
휘석
##꿈꿔
360
배메가
운영자
저러는거
탐구
미디신
##www
경북대
##탱이가
##뭔지
2주차
잠깐만
##나온다고
존잘남
습도
릎
다행이지
더블오
나온다면
대부분이
##에엥
등장인물
햄탈워
머가더
##led
티비로
##ate
불편해
최강의
해보려는데
오빠들
클리너
목표가
티켓팅
##썬더
김연경
잠이나
똥꼬충
나쁘지않
##베이더
##코스프레
오후에
경쟁률
콤프
스타일링
랑그
##죽이기
##푼이
공포의
##되었습니다
깐다
시그마
민트헤어
츠무기
거리두기
수익률
즉전
##사냥터
섹시한
안써도
##쫓
몇퍼임
즙짜
커스텀런
##몰라도
쏠쏠
분노의
연구소
초보방
##하셨습니다
시즈루
하고싶은거
공공근로
##댈가요
요번에
교통사고
록맨
체험판
##인사이드
쉬는날
압도적
태양광
쓸모없는
##왜이럼
msc
협동전
댈러스
쑤셔
미노타
유치원
퍄퍄퍄
낭낭하게
비틱이
태어난
##해성사
##덮밥
목격담
일괄
실업급여
후계자
퍼포먼스
박경수
두근두근
도긩이
멋있다
타르코프
주홍이
비전공
실세즈
혈액형
우체국
밀워키
남양주
이력서
허수아비
외제차
엘든링
부두술
찬란한적월
010
4달
5조
6000
7분
br
e14
fl
g70
xb
쇄
쬐
ㄴ이
ㅁㅅ
ㅂㅁㄱ
ㅇㅁㅎ
##알리
##6성
##ᆨ굳
##끠
##꿍이
##ᆺ든
##ᆺ불
##뚠
##89
##뿜
##ㅑㅑ
##ack
##3천
##이모
##이용
##이미지
##가테
이놈
이왜
이란이
##지던데
##하기는
##다던데
##리세
##리타는
##도없고
##걷
##거랑
##나야
##났음
##나는게
##에대한
##라탄
##았음
##기상
##기사가
##기훈
##은정
##니발
아하
아크로
##네스
##게인
조시
어중간
##자국
##저럭
##인이다
나중
나밍
##주니
##주겠지
##야동
##얀다
##드는게
가지마라
시야
시1발
시스템이
저의
하치
오피스
오지노
##사마
##사토
##사양
##사막
마소
마스코
사다
사먹
사는건
그정도
그들만의
안구
안줄
안해줘
안오면
안자는
안쓰면
다되
다정
다써
다람쥐
##오야
##오비
##노리
##수당
보강
보실분
##일줄
##일행
기들
기소
기독교
##을걸
##미네
##발매
##는거도
모습이
##엮
##여왕
##치않
진국
##화살
##웃어
##전형
잤는데
##무도
##디씨
개새
개명
개많이
개좋다
개멋
##같더라
스쿨
스메라기
아니래
아니에요
있겠다
있자나
##신이랑
##신분들
##버젼
밧
바깥
뭐이리
미장
미호
유기
유타
유혜
대마
대피
내지
내기
내림
내리고
했구나
##원에서
야들아
야붕이들아
정떡
정연이
##새가
##티끄
수마
숨은
수전노
무어
무속
없는거냐
와따
와근데
우사랑
제라
인트로
씨맥
고영
비계
비더레
비처녀
##하는방법
##애를
에혀
엣지
##안경
##차면
노캔
일도
##던대
좆바
전후
잘가
잘됨
잘나옴
잘되는
잘했음
##할떄
주는거임
못돌
못하나
못뚫
못따라
공소
공식이
##방역
소진
소멸
소왕굴
##새끼냐
##프네
##케릭
##위원
##내도
##내에
ㄹㅇ이냐
올때마다
도사는
##국공
차례
중도
중임
중얼
중첩
##캐도
리스
리셰
키드
키커버
상어
구름
##능성
##호구
##호영
파나
##ㅋㅋㅋㄱ
##준영
##영하
##공구
세류
코난
코린이
코리아
코넬
코코로
과장
과탐
##져가
김에
원룸
옛
예산
##한테서
치는데
치는거
##당하게
##까지가
카인
카와
##감각
너무좋다
##경계
##용품
디패
로어
실감
얼토츠
장어
장수
최성
최형우
티내
##반값
사람이랑
##퍼스
##돌은
10선
##울거
돌려서
돌리기
본편
##력을
병가
##산업
##ᆻ으면서
재미없음
호노
호호
투런
투수는
동창
후즈
받지
데린이
##란건
토스
##충도
언제나오
브시간
브레이크
감소
글좀
초심
##학자
##류는
발달
반투명
의무
의아라
워쉽
##퀴들아
여자들도
외워
크레드
얘두라
까진
까는게
까먹고
까먹음
똥파리
새끼도
염코
병신새끼들아
때리는
추천해
##쉰
물린
블태그
분할
많이들
삼중
삼란
가능할
##맞노
뒤진다
양쪽
##느낀
떴노
다시보는데
넘치는
누구지
방송안
플루
12만
이상한게
##희재
간신
루징
열차
누가보면
풀린
찍는데
##엔젤
운행
달면
적절
##락은
##꺼라
##베어
##베로스
##ㅋㅋㅋㅋㅋㅋㅋㅋㅋㅋㅋㅋㅋㅋㅋㅋㅋㅋㅋㅋㅋㅋㅋㅋ
##ㅋㅋㅋㅋㅋㅋㅋㅋㅋㅋㅋㅋㅋㅋㅋㅋㅋㅋㅋㅋㅋㅋㅋㅋㅋㅋㅋ
잡냐
잡았는데
잡몹
##불밤
출고
노래들
노래추천
천명
순진
##편이냐
광기
광부
욕하지
교과
검증
폭력
##봉준이
알아야
##지는중
갓경
##랜더
편한
갈색
싫고
##틀고
롤이
됐고
임마
깻다
군사
슬라
용제
남자한테
뿡셕
올라왔
올라가네
헤르
울었다
##갤러가
잠못
##왔더니
각슬이
것은
애미뒤짐
##있었냐
##해주지
등반
흑인이
##접고
준거
뜨겠지
##시발시발
돌아가면
삐앰이
##했길래
절정
휴학
1660
올렸다
해야하는거
##변기
황족
17성
##겠고
##겠군
##겠구나
축신
푸거스
##빨라
##빨면
희한
##왤캐
빼는
나온게
으아
정신나간
청순
청룡
##눈깔
먹었어
빡셈
##쁘네
##리스는
인증함
미쳤냐
미쳤긔
사랑은
아니라서
딜찍
댓글달아
챔스는
서버에
놀다
##빡치네
##해줘야
샤프
항해
항문
높으면
##웨이브
##생각하면
찬망구
##손으로
재밌는게
재밌던데
공부하기
스타벅스
패치가
2500
면역
실화야
##넣은
##털기
##받았네
낮음
낮추
낮은거
추가로
옛날에는
ㅋㅋㅋㅋㅋㅋㅋㅋㅋㅋㅋㅋㅋㅋㅋㅋㅋㅋㅋㅋㅋㅋㅋㅋㅋㅋㅋㅋㅋㅋㅋㅋㅋ
좌타
빅히
##재미로
##삭임
맥스
끼는
김태군
의외의
탑3
1위는
안나오는거
민주화
굴리는
될거같은데
##없었으면
##없어짐
만났다
만났는데
랜드
랜매
중요하냐
바꿔야함
흥행
떡밥임
녹턴
선택은
결과가
나이키
웅장
씹덕들
돌려줘
한다는데
대단한거
물어보자
팔아야
1년에
도와주라
다닌
다니면
##시켰는데
유동들
역겨운게
2336
많은게
인정한
##여자들
소환사는
홍어들
사주가
유저인데
내려감
쓴글
대학축제
디씨에
순위가
##ㅡㅡㅡㅡㅡㅡㅡㅡㅡ
젖통
깔고
없으면서
##모드로
웃긴데
##붙은
##안되노
이겨서
이겼는데
탁희
벤클
마려운
씨발련이
띵작
아오이
싹쓰리
맞추는
시켰다
감사하십시오
귀여운거
이재명이
닭집
당연한거
보이는거
슈퍼캣
##뿌림
트위치에서
쳐맞아
저러냐
워뇽아
길태부부
4500
발작하는거
지코는
##지말래
맞는말
ㅅㅅㅅㅅㅅㅅㅅㅅ
##댓출
빻러
골라서
블핑갤
##ent
르누
단체사진
빙결
만족함
스토커
네좆마좆
전기톱
재밌는듯
결승전
없애고
없애면
피시방에서
괜찮았는데
턱걸이
전쟁나면
늙어
메타몽
간단하게
1인분
꼽네
정식갤러리
바랍니다
##키우기
9강부
드립이
이게임은
뭐뭐있음
##바꾸고
##바꾸면
답답하네
##스킵
열어줘
한마디만
다행임
럭스
히트곡
##하지말자
간지나는
못참지
##닮아
충전기
트럼프가
밀리애니
그라시아
나봉쟝
개사기네
환급내역
쌩얼
1라운드
##비싸네
##ㅡㅡㅡㅡㅡㅡㅡㅡㅡㅡ타
줍줍
아쉬운점
지겨워
##아직도
akb
두렵다
##투표인증왔어요
박준태
세컨드
부들부들
얌전
ㄱㅇㄷ
미적분
항로쩔
마인드가
우왁굳
백화검
무소속
실북갤
경매장
코즉연
주호민
대박이네
피에스타
중소기업
소아온
어마어마
프로미스나인
비동의강간죄
그로기
대양왕
젠신병자
usb
고나우석
선구안
기숙사
황교안
부작용
순식간에
이득이냐
고차비
토너먼트
염응지
바닐라
채은성
파이즈리
푸키먼
맘스터치
1시에
2p
2가
2중
3연속
4신수
5000원
6만원
8번
8개월
fm
gd
hkt
ju
mx
night
vol
령
뿅
쮸
챠
ㅁㄹ
ㅈㅁ
##체이
##65
##6강
##쟤
##92
##폴라
##ᆺ당
##ᆺ을까
##ᆺ빛
##51
##쨍
##ㄱㅊ
##av
##az
##가여
이개
이문
이날
이두
이목
이순
이전에
##하오
##하향
##리링
##고시
##어지
##어깨
##시게
##도되냐
##데서
##서로
##엥
##라니깐
##아네
##아녀
##기까지
아구
아랑
아존나
아맞다
##들로
##들여
##로딩
##냔
##게됨
##게된
조종
##보낼
억제
##해놓
##해지고
##해봐도
##했나보네
##저새끼
##인에
##인으로
나고
나바스
##주공
갔음
가형
가려면
시가
시카
시대는
##한개
##한날
저를
##만세
하단
하앙
하냐고
하길래
하시는
하던가
학습
##구면
오구
오세요
지문
지연
지렸다
##럼들
##러플
##삿는데
##사탕
맑
맘이
마시는
마코토
사줘
사주는
##임을
안한거
안사람
안박
안쉬
안뒤
안주네
안쓰냐
안바뀌
닷지
##트를
##대단
##수네
보5
##일거같은데
기지
기반
기아가
##을못
##미에
##미라
##미러
##미워
##미널
모으면
모스크
##조이
##엿네
##됩니다
##화과
##화를
##화된
##의의
##의달
##갤집
##갤이야
##정당
##전때
##부림
자바
##무룩
개열
개별
개뷔
개극혐
##그대로
스커
스팸
스쿰
아니여
한심한
있습니까
근친
##버드
##타서
바브
##세연
뭐다
뭡니까
미네
미묘
유식아
대려
대포
대응
해저
##때림
야자
##늘어
정세운
##르드
##피트
##피통
수직
수상자
수자공
무직
ㅋㅋㅋㄱ
왔더니
존중
인체
인플레
씽
고양
비대면
##모사
##몸이
엣
에르
에소
에잇
요소
요롱
##키우면
이거다
이거만
이거보면
일도리
애인
애토
좆지
좆문
전라
전파
전교
전현무
잘돼
잘할듯
##할려는데
겅
신카
신속
존나못
주는데
주님
주관
##중복
못하는건
화남
화들짝
##소모
피는
피좆
피눈물
##동도
##문투
##루미
부지
갤도
갤칠
##프터
##프피
##크게
되니
되는건가
재즈
재결합
##단에서
도는데
도장
##즈로
방제
차갤
##ᆻ어야함
중위
##캠이
머신
머중
머민
니얀다
리미
리조
리스크
리플레이
리믹스
킵
상쁠
라임
라카
라이어
라투디
구워
구려서
새해
##준대
##토큰
##점차
##민식
세나비
코너
많긔
법이
남고
시발거
시발ㅋㅋㅋㅋㅋ
시발럼들아
##말랑
##말든
말한다
말했다
말숙이
듦
드나
드냐
드는데
드럼
게펜
추한
추세
카리
카에데
레플
성서
성사
성우가
성욕이
##뱉
##배치
##배워
##감염
선임
타퀴
연주
씨발ㅋㅋㅋ
배드
배빵
디즈니
##회가
##회에
로키
##매장
##매출
생각만
생각으로
먹을때
##플러
##플릭
들가
살려는데
히크로
나오자마자
##온도
쓰고싶다
##머핀
강혜원
설렌
##울이
불기사
메디
돌진
##넓
##통일
이번년도
본게
또는
##메스
##증권
병장
매춘
##받으러
호재
##툼
패파
투비
##한거봐
입성
입학
동실이
받는게
계집
질서
토룡
망하게
망한거임
##충격
2030
ㅅㅂㅋㅋㅋㅋㅋ
감수
감히
감핀
초고수
좋아져
좋아해서
위드
위에서
위영소
##교공
##난다고
발라드
반만
반말
우리한테
단차
단편
까는데
똥내
##좋지
##좋아서
싸고
##행사
##역에서
두두
##츠가
##정도만
##정도임
##들어라
##들어가면
##규는
##싸는
물품
심정
심리가
블리
꼬움
분당
얼마안
##환불
뒤면
양식
##느데
눈마
어케깨
##써야
죽인다
있었노
네반
걸렸다
누구로
누구있음
태진이
집행
129
12명
안될까
루비
열대야
풀이
풀옵
별빛
별개로
달걀
##볼이
##볼거
##열고
##열매
##베오
##라이프
##ㅋㅋㅋㅋㅋㅋㅋㅋㅋㅋㅋㅋㅋㅋㅋㅋㅋㅋㅋㅋㅋㅋ
막는
##양아치
광휘
욕하는거
써봤는데
##뽑냐
접는
교차로
쉽지
##쿠니
15판
터보
##팀으로
업비트
겜하기
온다고
헤라클
명확
명작이
명대사
##갤러들은
벌려
하루이틀
회차
담아
체중
##하노ㅋㅋ
궁합
##율은
##왔씨야
것을
것보다
애미디진
철구도
##렙에
투표하고
찾았는데
소리임
킹능성
쓸어
준내
##넘음
줄이
줄서
줄이면
받아야
받아요
받아줄
프로4
프로토
167
##변권
얼마나걸림
푸근
##빈치
시간외
변함
##왜이래
슈발
빼곤
##먹어라
지랄임
지랄이고
##팬들이
먹었으면
##철구
빡치는
##ᆺ도그
##막혀
쇼트
##꼴리는
##꼴리네
19년
퍼거
독점
몸을
만들어라
만들어야
필요한데
놀래
##빼기
이러는
표식이
이쁘긴
##혜성
##혜교
선수들이
극성
싫어해
우승은
##씹새
##10시
떨어졌다
##빡세
찜만
샘물
뷰티
##칭찬
붙음
##끝내
콘텐츠
스타팅
믿으면
레이드에서
고민하는
25퍼
고닉으로
괴쭈
겨털
##헤드
송중
##시즌에
살아있는
효도
##프로그램
##몬스터
차단하면
##쟁이가
카드들
좌석
핵과금
영화는
수영복이
쥐새끼
내년엔
밑에서
끼어
개인정보
야구를
차이남
##싫어서
##수있으면
##수있나요
십창
완장은
8월13
던파가
60대
색기
##아이피
에픽은
바꿔서
바꿔줘
보여준
보여주고
강화퀘
생겼으면
읽는
무대는
관련된
직업은
##보냄
알고보면
바꾸는거
여러가지
좃같은
얻었다
경원9강
대기화면
응원합니다
김치국
컨텐츠는
점심시간
몇개월
근첩새끼들
바이러스
상황에서
안돼서
전화해서
예전에는
저새끼가
일어나는
일어났다
##했던게
레벨링
##햇다고
##햇더니
##칼로
넘어가는
짤녀는
낙태
낫나
낫긔
##줌들은
느그들
땡긴다
윾식이
마려운데
리그는
버스에서
300개
##쎄네
사과영상
축하한다
민주당은
솬사는
멸종
사귀기
헤어스타일
협상
협곡
져도
이길듯
조금이라도
##만들어서
외형옵션
999
##멘탈
뽕맛
씹창난
뒤져도
선생님이
나라에서
아이유님
캠프
박보영
븅신들아
마라탕
인사왔씨야
2군에서
어울려
블핑은
상태로
유튭에
땅땅
##입갤ㅋㅋ
지나가는
눌러줘
3년차
덤벨
할만한데
스케일
클로저스
며느
델련님
만원만
이성열
핀토
에픽스
10년전
츄츄
나쁘진
억울해
장원삼
파이터
한판에
한판따리
꽁꽁
냥꾼
##알려줘
##알려준다
꾸니는
몽환
##흔들
##상태로
잊고
##부탁해
##뇌절
촉매제
코미어
윌리엄
유행어
꾸준글
매력적인
재밋게
낳냐
뻔하지
다행히
센터백
맛있는데
집착하는
##장애인
오리콘
##르륵
텍스트
섀댄
똥찬아
김재현
##꼽네
측면
특이한
친추좀
삶의
못참고
##루루루루
42위
에어팟프로
사이버펑크
줄어든
더러워
방학식
나혼자
##믂
컴터로
쁘허
헤드셋
환영합니다
우선순위
나눠서
하라메
도라에몽
1점차
익숙한
한두번
첫방축하왔
어릴땐
뭔소리임
놋북
드루이드
통신사
융합
이도윤
탱크보이
##키울까
##쉴드
삼성라이온즈
##랄까봐
헐리웃
후유코
릿둥이
아이즈원이
진중권
피쳐링
크라운
아버지가
지휘관
뚠뚠
판테온
애니컷신
레반도프스키
여삶형
쥬헝지
텔라닥
바니걸
귀축교사
헬레네
맥도날드
튤립
김심야
짜파게티
괭갈
응우옌
얀데레
일리치치
포르네우스
킹오파
##모바일
홍상삼
그럭저럭
프롤로그
스쿰빗
1학년
2게
2카
3호기
4트
6분
6억
6이닝
7시에
7000
9000
a90
again신곡홍보
bro
dl
dyn
fr
fhd
gr
if
ko
tt
ta
uh
vip
x맨
뒈
ㅇㄹ
ㅈㅎ
ㅈ목
ㅈ망겜
ㅚㅘ
##돠
##졸라
##ᆨ쓰
##96
##ᆺ는지
##ᆺ던거
##쨰
##2m
##ㅁㅁ
##gt
##3성
##we
##잎
##이겠지
이그
이어서
이때까지
##하브
##하소서
##리더라
##고로
##고만
##고쳐
##어부
##어져
##십니다
##도적
##덱스
##데우스
##나아
##나해
##나선
##라디오
##아주
##아가는
##아시는분
##기관
아레
아십니까
##들겨
##로얄
##네즈
##게이지
##겟어
##게이트
조질
조국이
조온나
어쌔
##해두
##저런
##인우
나란
나가지
##드레
##드레드
시집
##한판
##마드리드
##만나서
하남
하죠
하려는
##구정
##구하냐
##구현
##구합니다
지움
마실
마찬
사네
사드
사유
사황
사야함
##으러가
그분들
안좋다
다는
다해
다리가
##트레이
##트럭
##대여
##오카
##오더
##오공
##오르냐
##놐
##제네
##제던
여배
여잔데
여의도
##수나
##수학
기머
기병
##미노
##발로
모라
모티브
##조리
##조스
##여성
##칙이
##치는건
왜해
##되던데
##화력
##우도
##우웅
##갤이네
##정공
##비추
##장의
##부럽
자가
자두
자적자
##무이
개좋은데
##그지
스우
스물
스붕이들
스페이스
한식이
있던거
근딜
##버려서
바티
##세라
##세오
믹스
유인
유정
유즈
유선
유흥
##원툴
얏
야쿠
야밤에
야가오
정인
##피드
숟
수만
무주택
오늘저녁
##건강
성이
제퓨
인식이
씻어
고른
비대
비용
비디오
비호감이
##모든
##안써
요키치
##차례
노리고
##키기
일년
일하면서
일렉
일동은
앰들
좆크보
전발
전사가
잘했는데
잘벌
##할가
##할생각
신세
신생
신박
신메뉴
존나쌔
주위에
##중붕
못보고
못받는
못봐서
화제성
공갤
공차
공해제
##방주
##방을
생태
부장
##없게
트럭
##재고
되야
됩니다
되찾
만이
올까요
재다
재현
재획
##글좀
도넛
알비
##하고옴
같지않냐
더잘
방사
방에서
방명록
중공
중순
중이다
##식사
##캐들
##명단
머공
머리는
머기업
니트
리허
키라
키아
키퍼
키시쿤
상갤
구리네
##공에
##토목
셈
세월
##질만
##녀한테
##계에서
##브론
김고
김포
김경
김갑주
버터
##들이야
##업글
말하는게
영왕
##폼은
겜에
##같은걸
치요
치파
카사
레노
너무재미
타격이
##형이랑
연하
연우
처먹
##커서
로긴
로펀
실습
##매니아
생각엔
프차
프밥
이제서야
장필
살게
살때
최아
최신화
할지
할걸
티탄
티키타
##반장
##퍼거
##온다고
쓰는건
쓰지마라
박은
박석민
강다
강길
강습
강민호
포이
불명
##날먹
돌린
아잉
##줄래
##줄때
##쳐먹
씹병신
씹새끼야
##걸음
##판으로
##산은
##럼아
몇천
몇십
몇프로
##현식
##현황
##받을까
호들
호드
호제던
투바
입양
동면
그랬나
계투
봤노
토이
토게
망했냐
##ᆨ스가
2015
##레이어
감각
글도
글들
글쓰는
초이스
좋았어
결심
##박기
##박꼬
##후가
##후면
##퀴는
단골
단어가
##못하냐
외교
##갈량
얘들은
똥글
##언어
##초보
들어봤는데
들어가지
##해야된다
따져
국비
##빠가
##빠지게
##줌년들
꼴릴때
##좆슨
##좆같음
##좆같이
싶은거
짤쟁이
블박
삼촌
철도
철남
테르
뒤통수
##스탑
양상
양가든
빰
끝에
##보고왔는데
떠올라
##굴에서
뉴비라
네로
네웹
평택
태극
방송하는
민혁
열린
##해도되냐
달빛
볼살
볼땐
무슨소리
완화
##등판
은지
잡는다
뽑은거
허전
막트
막장
아무생각
속으로
속도가
찌쭈
찌라시
통장
##편의점
광속
욕은
욕받이
길을
폭행
쉬운데
일본의
15만원
15주년
승인
갓생
업냐
베팅
갈듯
임상
임페
임나연
사실은
깨냐
군마
울마왕
명전
체급
체감이
헬멧
궁극
잠잠
레이블
없었다
소바가
##꼬마
애미터진
##또는
미친개
미친짓
미친년들
판도
판도라
##셔스
##김없이
소리를
소리질러
등골
등극
킹오브
준다고
뭐가좋음
##째인데
돌아옴
##넘은
느낄
받았어
휴일
16일
##없는듯
졸살
##슘
넣는거
시간표
변호
##왜함
##떠도
##풀림
저거는
읎
##엘갤
##다니는데
50대
쇼케
게이트
웃기냐
몸값
미쳐서
미쳤는데
미쳤어
필요없다
된다는
사랑니
앚까
트레이드를
##탑은
##리아는
##뺌
이러는데
폴더
그림그
##년들도
떨어져서
##생각남
찬물
뷰지에
결국은
빌스택
붙는
##을때가
엘마가
업뎃이
쓰는사람
레이드가
고민중인데
니네들
몰아가
21세기
##넣기
침몰
뿌리고
뿌링클
작년엔
늘리
잔소리
법칙
육개장
맥심
페이지
##고싶어요
류블리
##친구랑
선발전
##드리치
빵훈이
##ean
바꿔라
바꿔야
들어가냐
웅앵웅
겆튜브
엄마는
앱삭
안나님
덱좀
##보내는
##보내고
##시켜라
##시켜야
##시켜줘
유동은
있나보네
##추천점
ㄱㅊ은데
##거리면서
인정이지
짭시
딴겜
##충이들
##첨부
뮤뱅
한달동안
##엄청
##흑우
털리는
ㅅㅌㅊ임
승리호
감독모드
족구가
연습경기
조선장
큐베
아니었어도
##ㅡㅡㅡㅡㅡㅡㅡㅡㅡ타
##시절에
안돼냐
담배피는
켰다
벨트
부탁이
권은비
##햇던
해주네
##논거
혈압
준비하는
넘어간
##않았나
##깅이가
여캠들
년도
##ㄹㅇㅋㅋ
상향안
달리고
키웠는데
땡칠이
왔세운
멋글
탭칠이
탭s7
어이없어
이재용
설명해줌
심심해
##마려워
##빙고
텐노
##흙
##쌤이
시절인연
##한가봐
도전과제
보다보면
배메는
외형장비
아프리카가
탐정
우울하다
부모가
뒤졌으면
퓨쳐
##핸드
웃겼는데
2주간
부르는거
과거결정
오른다
##이란거
후회된다
춘무유
관리자
##생겼는데
짧아
희망이
살까말까
똥퀴새끼들
방탄소년단
에바지
화장품
##바이벌
##것같긔
##귀엽다
뚜껑
##맞추면
할까요
남친이랑
스토브
부족하다
순간이동
춤을
뷔빡이
불편함
밝은
모아둔
쓸만해
ㅇㅅㅎ
주공두
시원한
팬덤이
간단함
산다이온
닌다
노잼이라
2만명
몇번을
발견함
##키우는데
##키우는게
갤탭7
2루수
2루타
자연스럽게
마나모아
븜각
##바꾸냐
모으기
개잘하네
어째서
낭비
##스위칭
며칠전에
이번달에
임영웅마갤
주제파악
##잦돌
못보겠다
그립습니다
##톨란
##자체는
똥찬이는
내놔라
치명타
##모르는데
토르톨란
퐞격
포도꾸라
그랜절
시작이네
지무유
한가운데
중독성
타령하는
시점에서
포토샵
그렇다쳐도
하지말라고
##띄워
냅둬
이슈줌
보드게임
머선129
대처법
킴성
새봄추
사촌동생
재난지원금
펭수마갤
택시기사
궨
서재응이
강진성
익절남
이천웅
##입장에선
건전한
허언증
##민주당
텅텅
트렌드
마창사
개역겹네
찝찝
커맨드
국회의원
유재석
##군연합투표인증왔어요
하드리셋
##크래프트
웨이보
감전수용
##케미칼
새로나온
쥬쥬밀
벨파스트
전정국
오또케
코박죽
박문각
데스티니
가위바위보
플라스틱
이목구
정세운갤
리허설
1구역
2는
2세대
2실점
3코
4카
4컷
4쿼
5급
550
8시에
8000
9번
9천
9시간
dct
fe
g7
lp
ti
wwwww
y컨
쑥
ㄱㅆㅅㅌㅊ
ㅈ됐다
ㅈ반고
ㅌ6
##궐
##솬
##94
##1시
##땨
##딸리
##쏜
##ㅋㄱ
##ex
##뺄
##s는
##2만
##kd
##hc
##ly
##a4
##3반
##ㅊㅇ
##ml
##ᆶ고
##ㅕㅕ
##가장
##갔으면
##가실분
이식
이쿠
이오리
이뤄
##지스
##하락
##다드
##답답
##리를
##리지않냐
##고마
##고래
##고추
##어짐
##시는데
##시벌
##도냐
##도네
##도의
##아요
##아싸
##기는게
##기준이
##니에
아슈
아렌
조은
조카
조연
##보도
##보는건
##스면
어웨
##자식
##자총
나니
낫노
나대는
나레이션
##주고싶다
##야붕이
가리
가노
가속
가려고
가야됨
가야겠다
시디
시궤
저저
##음료
##마녀
##마리가
##만기
하십시오
하주석
##구성
오아
지시
지거
지독
##사전
마히
마술
마탕
마빡
마리오
샆
사보
사오
사의
사모
사줄
사슴
사일러
그새
그페
그땐
안건
안보면
안찍
안드는
안주면
안껴
안해줌
##까기
다자
다모
다봤다
##대에서
##대인데
##오시
##오세요
##오지게
##오른다
##노ㅋㅋㅋㅋ
##노무현
##바코
##수고
##수육
보노
기기
기장님
##미즈
##는거네
##는거같은데
##조의
##조심
##여부
##치나
##치국
##치라고
왜또
왜그렇게
##되었다
##상사
진상
진순
##우나
##왓어
##전부
##장전
##레벌
자발
자장
자국
자경
##디움
##디스크
##끼냐
개불쌍
개쩔어
개메좆
##긁
스미
스투
스꼴
아니라는
있누
있는것
##신거
##버버
##버리기
##탓이
##세로
뭐살까
미이
미역
대주
대관
내다
했을까
해본다
##원으로
##원숭이
야만
야망
정옵
##터널
수연
무라
무려
무방
무녀
무득
오늘밤
없지않냐
없찐
존잼
존똑
우는거
우취
우라라
제모
인베이더
곳은
고블린
비올
비켜
비례
##모험
에메
에포트
##안하는게
##안했으면
이거뭐임
이거맞냐
일하고
##과정
##던디
전구
전달
잘잡
잘될
##할거같
신부
신디
주나
주머니
##중국
못먹음
화상
##솜
##소비
피하는
공사
공간
##방지
##방갤
##동영상
소리는
소원이
소엑
##파레
##파편
갤떡밥
트라
트랜스
##프티
##프린
##크리스
##재민
만기
올리네
잰
##단톡
##단군연합투표인증왔어요
도비
도적이
도현이
##봐봐
알리사
같고
방귀
차우
중갤에
##명이나
머한
머글
머단
니아노
리카
키도
상이
상견
라떼
랍치
구기
구형
구리냐
누드
누락
파면
파마
파토
##본게
##영아
##공식
##선에
##선비
세무
셉치
코갤
많을까
##질에
##계좌
남북
##말자
##들이지
문폭스
원신
말임
말려
말해서
말라는
추하네
추찜
##심리
카테
카논
카디비
레서
성숙
성관계
맞겠지
##감자
선포
선두
##급이면
탑이
타이어
타곤
##경제
연타
연필
처형
##줬네
씨발ㅋㅋㅋㅋ
씨발년이
##커가
배움
배아파
디져
##획이
로비
얼터
얼척
##물도
##매트
생각해서
생각하지
프텍
장투
장담
##하겠는데
할것
할수도
할말이
티져
##반전
나오게
나오던데
나오나요
쓰려고
박찬
박쥐
##머금
강인
강태
강동원
이유도
##날개
##날이네
메루
메붕이
##망생
[...]
