{"!":0,"\"":1,"#":2,"$":3,"%":4,"&":5,"'":6,"(":7,")":8,"*":9,"+":10,",":11,"-":12,".":13,"/":14,"0":15,"1":16,"2":17,"3":18,"4":19,"5":20,"6":21,"7":22,"8":23,"9":24,":":25,";":26,"<":27,"=":28,">":29,"?":30,"@":31,"A":32,"B":33,"C":34,"D":35,"E":36,"F":37,"G":38,"H":39,"I":40,"J":41,"K":42,"L":43,"M":44,"N":45,"O":46,"P":47,"Q":48,"R":49,"S":50,"T":51,"U":52,"V":53,"W":54,"X":55,"Y":56,"Z":57,"[":58,"\\":59,"]":60,"^":61,"_":62,"`":63,"a":64,"b":65,"c":66,"d":67,"e":68,"f":69,"g":70,"h":71,"i":72,"j":73,"k":74,"l":75,"m":76,"n":77,"o":78,"p":79,"q":80,"r":81,"s":82,"t":83,"u":84,"v":85,"w":86,"x":87,"y":88,"z":89,"{":90,"|":91,"}":92,"~":93,"¡":94,"¢":95,"£":96,"¤":97,"¥":98,"¦":99,"§":100,"¨":101,"©":102,"ª":103,"«":104,"¬":105,"®":106,"¯":107,"°":108,"±":109,"²":110,"³":111,"´":112,"µ":113,"¶":114,"·":115,"¸":116,"¹":117,"º":118,"»":119,"¼":120,"½":121,"¾":122,"¿":123,"À":124,"Á":125,"Â":126,"Ã":127,"Ä":128,"Å":129,"Æ":130,"Ç":131,"È":132,"É":133,"Ê":134,"Ë":135,"Ì":136,"Í":137,"Î":138,"Ï":139,"Ð":140,"Ñ":141,"Ò":142,"Ó":143,"Ô":144,"Õ":145,"Ö":146,"×":147,"Ø":148,"Ù":149,"Ú":150,"Û":151,"Ü":152,"Ý":153,"Þ":154,"ß":155,"à":156,"á":157,"â":158,"ã":159,"ä":160,"å":161,"æ":162,"ç":163,"è":164,"é":165,"ê":166,"ë":167,"ì":168,"í":169,"î":170,"ï":171,"ð":172,"ñ":173,"ò":174,"ó":175,"ô":176,"õ":177,"ö":178,"÷":179,"ø":180,"ù":181,"ú":182,"û":183,"ü":184,"ý":185,"þ":186,"ÿ":187,"Ā":188,"ā":189,"Ă":190,"ă":191,"Ą":192,"ą":193,"Ć":194,"ć":195,"Ĉ":196,"ĉ":197,"Ċ":198,"ċ":199,"Č":200,"č":201,"Ď":202,"ď":203,"Đ":204,"đ":205,"Ē":206,"ē":207,"Ĕ":208,"ĕ":209,"Ė":210,"ė":211,"Ę":212,"ę":213,"Ě":214,"ě":215,"Ĝ":216,"ĝ":217,"Ğ":218,"ğ":219,"Ġ":220,"ġ":221,"Ģ":222,"ģ":223,"Ĥ":224,"ĥ":225,"Ħ":226,"ħ":227,"Ĩ":228,"ĩ":229,"Ī":230,"ī":231,"Ĭ":232,"ĭ":233,"Į":234,"į":235,"İ":236,"ı":237,"Ĳ":238,"ĳ":239,"Ĵ":240,"ĵ":241,"Ķ":242,"ķ":243,"ĸ":244,"Ĺ":245,"ĺ":246,"Ļ":247,"ļ":248,"Ľ":249,"ľ":250,"Ŀ":251,"ŀ":252,"Ł":253,"ł":254,"Ń":255,"Ġì":256,"Ġë":257,"ìĿ":258,"ãħ":259,"ãħĭ":260,"íķ":261,"ê°":262,"ãħĭãħĭ":263,"´ë":264,"ëĭ":265,"ëĬ":266,"ìķ":267,"ì§":268,"ëĬĶ":269,"ìĹ":270,"ìĿ´":271,"ìŀ":272,"Ġê":273,"Ġí":274,"ĺë":275,"ê³":276,"Īë":277,"ê°Ģ":278,"ê¸":279,"ìł":280,"¼ë":281,"ìĦ":282,"ìĭ":283,"¸ë":284,"¬ë":285,"ê²":286,"ì§Ģ":287,"ê±":288,"ľë":289,"ëĭ¤":290,"Ġìķ":291,"į°":292,"ê³ł":293,"Ĥĺ":294,"Ħë":295,"ãħĭãħĭãħĭãħĭ":296,"ìĸ":297,"ĠìĿ":298,"ìĺ":299,"ìĹĲ":300,"ìĬ":301,"ìĿ´ë":302,"ê±°":303,"ĵ¤":304,"íķĺ":305,"ìĿĢ":306,"ìķĦ":307,"Įë":308,"ıĦ":309,"ìļ":310,"¤ë":311,"Ġìŀ":312,"¦¬":313,"©´":314,"ìľ":315,"Ħ¤":316,"ê¸°":317,"Ĳë":318,"ìĥ":319,"ĥĲ":320,"Ŀ¼":321,"łë":322,"Ģë":323,"¡ľ":324,"ìĦľ":325,"..":326,"ìĤ":327,"Ġíķ":328,"Ķë":329,"Ġë§":330,"êµ":331,"¨ë":332,"ì¹":333,"Ġê°":334,"ìĬ¤":335,"Ġìł":336,"ĠìĹ":337,"ëį°":338,"ê·":339,"ìĸ´":340,"Ġì§":341,"ê¹":342,"Ġìĭ":343,"ë§":344,"Ġìĸ":345,"ìĽ":346,"ãĦ":347,"°ë":348,"ê²Į":349,"ëĭĪ":350,"Ġë°":351,"ìĪ":352,"Ġìĺ":353,"ìĿĮ":354,"ĮĢ":355,"íķľ":356,"íĥ":357,"ì¤":358,"ëĬĶëį°":359,"ĠìĿ´":360,"ìķ¼":361,"íĬ":362,"Ġëĭ":363,"Ġë³":364,"ìĭľ":365,"ìĿ¸":366,"ì£":367,"ìĻ":368,"íĮ":369,"ìĨ":370,"ì°":371,"íĺ":372,"íĶ":373,"ìŀĦ":374,"Ġì¢":375,"ĠìĤ":376,"??":377,"ë°":378,"Ġëª":379,"íķĺë":380,"ëĤ":381,"ì²":382,"ìŀĲ":383,"ĠìĻ":384,"Ġê·":385,"ê¹Į":386,"ë³":387,"ĠìķĦ":388,"íķ´":389,"ĠëĤ":390,"ìľ¼ë":391,"ìĺ¤":392,"íĻ":393,"ì¢":394,"ìĤ¬":395,"Ġê³":396,"ìļĶ":397,"ħ¸":398,"Ġãħ":399,"¬´":400,"Ġ1":401,"Ġìĥ":402,"ĵľ":403,"ìĥģ":404,"ìĪĺ":405,"ìłķ":406,"ìĿ¼":407,"ìłľ":408,"íĬ¸":409,"ì£¼":410,"íķĺëĬĶ":411,"ãħĭãħĭãħĭãħĭãħĭãħĭãħĭãħĭ":412,"¹Ħ":413,"¯¸":414,"ĠìĦ":415,"ì¦":416,"íĸ":417,"ëıĦ":418,"ìĿĦ":419,"Ġì¡":420,"ìŀ¥":421,"ìĿĺ":422,"§Į":423,"Ġê¸":424,"°ľ":425,"ì§Ħ":426,"ŀĳ":427,"ĠëĤĺ":428,"ê°¤":429,"ì¡":430,"Ġãħĭãħĭ":431,"ĠëŃ":432,"¦¬ë":433,"Ġê²":434,"ê°Ļ":435,"ãħĩ":436,"ì¶":437,"¶Ģ":438,"ìłĦ":439,"ëĦ¤":440,"Ġê°Ģ":441,"íħ":442,"íĤ":443,"íĦ":444,"êµ¬":445,"ìĦ±":446,"íĨ":447,"íģ":448,"łĪ":449,"´ëĭ":450,"íķ¨":451,"§Ī":452,"ëĤĺ":453,"íı":454,"¬¸":455,"ãĦ·":456,"ĠìķĪ":457,"ê¸Ī":458,"ìĭł":459,"ì½":460,"ìĿ¸ë":461,"ĠìĻľ":462,"Ġìļ":463,"ĠíĮ":464,"Ġìĸ´ë":465,"ĠìĬ":466,"Ġëĭ¤":467,"ìĹĲìĦľ":468,"íŀ":469,"Ġê±":470,"ĶĶ":471,"Ġê·¸ë":472,"ëĥĲ":473,"ł¤":474,"ìĽĲ":475,"ì¹ĺ":476,"ì§ľ":477,"ëĬĶê±°":478,"ìĸ´ë":479,"ĠìĿ´ë":480,"ıĻ":481,"ĠìŀĪ":482,"Ġ2":483,"Ġì§Ħ":484,"Ġì°":485,"¨¹":486,"ë§Į":487,"Ġìľ":488,"ĠìĹĨ":489,"¼ëį°":490,"ŀĺ":491,"Īëģ":492,"Ġì¢ĭ":493,"íĭ":494,"Ł¬":495,"ĠìĪ":496,"ìľł":497,"ì¼":498,"íĥĢ":499,"ì¤ĳ":500,"ĠëĦ":501,"ëĬĺ":502,"³´":503,"ìľ¼ë¡ľ":504,"...":505,"ìĹ¬":506,"ìĶ":507,"ê·¸ë":508,"ê°Ħ":509,"ĠìĨ":510,"ëª":511,"²Ħ":512,"ĠìĤ¬":513,"ìļ°":514,"Ġãħĭãħĭãħĭãħĭ":515,"Ŀ¼ë":516,"ìĻĢ":517,"íĦ°":518,"ëħ":519,"ĵľë":520,"ìĥĿ":521,"ê±´":522,"ê°ģ":523,"²Ī":524,"´ëĤĺ":525,"ĠìķĪë":526,"ķĮ":527,"ìŀĪ":528,"íİ":529,"ãĦ¹":530,"ë¶":531,"įĶ":532,"Ġë¹":533,"Ġìłķ":534,"Ġë³´":535,"ìķĦë":536,"ê·¼ëį°":537,"Ġì£":538,"ĠìĽ":539,"Ġêµ":540,"Ġë¶":541,"ìº":542,"Ġì¹":543,"íŀĪ":544,"ìľ¼ë©´":545,"ħãħ":546,"ê°ľ":547,"!!":548,"ìĺ¤ë":549,"Ġìĺ¤":550,"Ġíķĺë":551,"Ġê°ľ":552,"ìķĪ":553,"Ġëı":554,"ìĿ¸ëį°":555,"Ġ3":556,"00":557,"Ġì§Ģ":558,"Ġëª»":559,"ìĤ¬ë":560,"êµŃ":561,"íķĺê³ł":562,"Ġì²":563,"ì§ģ":564,"ĠíĻ":565,"ìĦ¸":566,"Ġì¤":567,"ê³µ":568,"ĠíĶ":569,"ëĮĢ":570,"Ġìĭľ":571,"ìħ":572,"ìĥĪëģ":573,"íĻĶ":574,"ľë°ľ":575,"ãĦ·ãĦ·":576,"ĠìĶ":577,"ìĹĨ":578,"Ġì§Ħì§ľ":579,"ĠëĲ":580,"įĺ":581,"Ġê¹":582,"ì»":583,"Ġì¡´ëĤĺ":584,"ìĭĿ":585,"ĠìĬ¤":586,"Ġì¶":587,"Ĥĺë":588,"ĠëŃĲ":589,"ê²ł":590,"ëĭĪë":591,"Ġíĺ":592,"ĠìĤ¬ë":593,"ìłģ":594,"ìĹĪ":595,"ãĦ¹ãħĩ":596,"íķ´ë":597,"ëĵ¤":598,"ĠëĮĢ":599,"íĸĪ":600,"¥¼":601,"Ġíĥ":602,"íħĮ":603,"ŀĮ":604,"ìŀĲë":605,"Ġìĸ´":606,"ìĺģ":607,"¯¼":608,"ĬĶ":609,"ìŀĳ":610,"ëı":611,"¦°":612,"ĠëĪ":613,"ì¹´":614,"Ġíı":615,"ê´":616,"£¨":617,"ãħ¡":618,"ãħĭãħĭãħĭ":619,"ĠìĥĿ":620,"ì¢Ģ":621,"íķĺë©´":622,"êµ¬ë":623,"Ġíķľ":624,"ĠìĿ¸":625,"°Ķ":626,"ëĭĺ":627,"ìłĢ":628,"Ġì¢Ĩ":629,"ë³´":630,"ìĺ¤ëĬĺ":631,"ìłĲ":632,"Ġê°Ļ":633,"´ëĭ¤":634,"ìĨĮ":635,"ì¼Ģ":636,"ĮĢë":637,"Ġë¬´":638,"ê°Ģë":639,"©Ķ":640,"ĠìĹ¬":641,"íĹ":642,"ê²½":643,"íĶ¼":644,"¥´":645,"ì¡°":646,"ê¸Ģ":647,"ìľĦ":648,"Ġíķĺ":649,"íĮĮ":650,"íķł":651,"ĺëıĦ":652,"íĬ¸ë":653,"ĵ¯":654,"ĠìĪĺ":655,"ì£¼ë":656,"Ġê³µ":657,"ëĬ¥":658,"Ġê¸°":659,"ëĭ¨":660,"ì°¨":661,"Ł°":662,"ìĭ¤":663,"Ġìŀĺ":664,"ĠìŀĲ":665,"ëĤ´":666,"íļ":667,"ĠíĬ":668,"łëĵ¤":669,"ê¸´":670,"¡ľë":671,"ë²":672,"ĠëĶ":673,"¸Į":674,"ìĹ°":675,"ì½Ķ":676,"ĠãĦ¹ãħĩ":677,"ìĬ¤ë":678,"ê¸Ķ":679,"Ġãħĭãħĭãħĭ":680,"íĺķ":681,"ìĭ¶":682,"pg":683,"¼ëĵ¤":684,"íģ¬":685,"ì¤Ģ":686,"jpg":687,"³´ë":688,"Ġë³´ë":689,"Ġë§İ":690,"ì¦Ī":691,"íĤ¤":692,"íĺ¸":693,"ëł":694,"ìĦł":695,"ìĭľë":696,"íĭ°":697,"¯¸ë":698,"Ġìĵ":699,"Ł¬ë":700,"ìļ©":701,"ìĹħ":702,"Ġìľł":703,"¨¸":704,"ì²ľ":705,"Ī¬":706,"ë¦¬":707,"Ġë²":708,"¬´ë":709,"¬¼":710,"ìĭ¬":711,"ì´":712,"Ġëĺ":713,"Ġ5":714,"ĠëĦĪë":715,"ê°ĻìĿĢ":716,"ê°Ĳ":717,"Ġëħ":718,"ĥ¥":719,"Ġê´":720,"ë§Ī":721,"Ŀ¼ê³ł":722,"íĿ":723,"ãĦ±":724,"ê³Ħ":725,"Ġìĸ´ëĸ":726,"ëĭĪê¹Į":727,"ëĭĪëĭ¤":728,"ì¢Ĩ":729,"ìĿ´ëŀĳ":730,"ê¸ī":731,"Ġì¢Ģ":732,"Ġíķ´":733,"ê·¸":734,"ìĨį":735,"°©":736,"ê°ķ":737,"Ġë¯¸":738,"Ġìĥģ":739,"Ġë°©":740,"ê¹Įì§Ģ":741,"Ġë§Ī":742,"ëĭ¤ê³ł":743,"ë¹":744,"ëĭ¹":745,"¨ë°ľ":746,"ĠëĤ´":747,"ãħł":748,"ĠìĿ´ê±°":749,"Ġìĭł":750,"ëħ¸":751,"ìĿ¼ë":752,"Ġãħĭãħĭãħĭãħĭãħĭãħĭãħĭãħĭ":753,"ëį":754,"Ġëĸ":755,"Ġì¤ĳ":756,"Ġë´":757,"ĠëįĶ":758,"ìŀ¬":759,"ĺëĵ¤":760,"Ĳĺ":761,"ìĽĮ":762,"ë°©":763,"ê²©":764,"Ġì½":765,"ìķł":766,"¦¼":767,"ìķĺ":768,"ìĨĮë":769,"ĠìłĦ":770,"Ġë¹Ħ":771,"íĽ":772,"ãħ¡ãħ¡":773,"Ġë§ŀ":774,"íĶĦ":775,"íķľíħĮ":776,"ìķĦëĭĪ":777,"³¸":778,"ĪëĤĺ":779,"ĠëĬ":780,"Ġ4":781,"íĳ":782,"ì±":783,"Ġê³ł":784,"íı¬":785,"ìļ´":786,"íĶĦë":787,"Ġì»":788,"ê¾":789,"íķľë":790,"ĪëĦ¤":791,"íį":792,"Ġì¡°":793,"ì²´":794,"ķĮë":795,"ì§Ī":796,"Ġê±°":797,"vs":798,"ê³¼":799,"ë©´":800,"ê²ĥ":801,"ìĬ¹":802,"ìĵ":803,"ìļ°ë":804,"ìķ¼ë":805,"Ġì£¼":806,"¥´ë":807,"íĺĦ":808,"ê³łìĭ¶":809,"Ġíģ":810,"ĠëĦĪë¬´":811,"Ġë¨¹":812,"ĪëĥĲ":813,"ìĿ´ê±°":814,"Ġíĸ":815,"Ġëĵ¤":816,"íĨµ":817,"ĠëĪĦ":818,"µľ":819,"Ġìłľ":820,"Ġìĺ¬ë":821,"ëħĦ":822,"ìŀħ":823,"ëĤľ":824,"ì¹ľ":825,"ĠìĥĿê°ģ":826,"íķĺëĦ¤":827,"íĢ":828,"ĠìķĦë":829,"ĠíĤ":830,"ìĻĶ":831,"Įëĵ¤":832,"ë¡ľ":833,"ãĦ´":834,"ìĥĪëģ¼":835,"ìĨ¡":836,"ìĿ´ëĭ":837,"íķĺëĬĶê±°":838,"ëĶ":839,"Ġì¶Ķ":840,"ê¼":841,"íĴ":842,"ì°½":843,"Ġê¼":844,"Ġìĸ¸":845,"ìĦ¤":846,"Ġìŀ¬ë":847,"ë¶Ģ":848,"Ġë§Ĳ":849,"ëĬĶê²Į":850,"ìºĲ":851,"ì¸":852,"ĠìłĢ":853,"Ġìĺ¤ë":854,"ê¹Ģ":855,"ëĦ":856,"ì¶©":857,"¨¸ë":858,"ìĪĺë":859,"....":860,"Ĳ¨":861,"íĥľ":862,"ìĺ¨":863,"ìĿ´ëĦ¤":864,"ì¦ĺ":865,"Ġëģ":866,"Ĳĺë":867,"íķ©":868,"íķĻ":869,"Ġìĺģ":870,"ĠìĿ¼":871,"ì³":872,"ĳĲ":873,"´ëĭĪ":874,"Ġëĭ¤ë":875,"ĠìĦ±":876,"ªħ":877,"ª¨":878,"ãħĬ":879,"ĠìĿ´ìľł":880,"ķìĿ´":881,"ł¤ë":882,"ì¦Ŀ":883,"Ġê·¸":884,"ìĹŃ":885,"Ġãħħãħ":886,"íļĮ":887,"ĠëĤ¨":888,"ê·¼":889,"Ġíĭ":890,"???":891,"Ġíİ":892,"íķĺëĥĲ":893,"ìģ":894,"ê²ľ":895,"ê¶":896,"ì¶Ķ":897,"Ġëª¨ë":898,"Ġíķľë":899,"ìĦĿ":900,"½ĳ":901,"łĩ":902,"ìłĦë":903,"ë¶Ħ":904,"Ġë©":905,"ìłľë":906,"ĠëĨ":907,"Ł¼":908,"¶Ħ":909,"Ġãħĩ":910,"ĵł":911,"íĶĮ":912,"íĨł":913,"ìĥĪëģ¼ëĵ¤":914,"Ġë¬¸":915,"Ġì§Ģë":916,"ì¤Ħ":917,"Ġê²Į":918,"ìĤ°":919,"ĠìķĦëĭĪë":920,"ĶëĿ¼":921,"Ġìĭľë°ľ":922,"ë¹Ħ":923,"ĵ±":924,"íį¼":925,"ĠìķĮ":926,"ħĦ":927,"ì§Ģê¸Ī":928,"íĨłë":929,"ìĤ´":930,"ì§¤":931,"Ġìĺ¤ëĬĺ":932,"íķ´ìĦľ":933,"Ġëª¨":934,"ëĿ¼":935,"ì¹´ë":936,"ĠíĨ":937,"ì¿":938,"Ġëªĩ":939,"ĠëĤĺë":940,"ì¢ĭ":941,"íĸī":942,"ĠìķĬ":943,"ìĿĦë":944,"ĠíĽ":945,"Ġë°Ľ":946,"íĮĲ":947,"ìļ¸":948,"íĳľ":949,"ì§ĳ":950,"ë¯¸":951,"ĠëŃĲë":952,"íķłë":953,"ëĤĺë":954,"íĪ¬":955,"Ġìŀħ":956,"íİĺ":957,"ìĸĳ":958,"íķľê±°":959,"ĠíĹ":960,"ì§Ħì§ľ":961,"§Īë":962,"Ġì´":963,"ìĶ¨":964,"ê±¸":965,"ìĬ¨":966,"ìĿĢëį°":967,"Ġëħ¸ë":968,"íĮ¨":969,"Ġìº":970,"Ġê¸°ë":971,"Ġë¶Ģ":972,"íķĺê²Į":973,"¦¬ëĬĶ":974,"ê²łëĭ¤":975,"Ġvs":976,"¦Ħ":977,"ìĤ¬ëŀĮ":978,"ĠëıĦ":979,"ëıĦë":980,"ìĦľë":981,"ĠìĿ¼ë":982,"ì¤ĺ":983,"ìī":984,"Ħëĵ¤":985,"ŀĢ":986,"ê´Ģ":987,"ĠëłĪ":988,"Ġìŀ¥":989,"ê°¤ë":990,"íķĺì§Ģ":991,"Ġì§Ģê¸Ī":992,"ì²Ń":993,"Ġë°Ķë":994,"´Ĳ":995,"¶ĢíĦ°":996,"ìķĪë":997,"ĠìĹ°":998,"ìį":999,"ĠìĤ¬ëŀĮ":1000,"~~":1001,"ëªħ":1002,"Ġê²½":1003,"Ġìµľ":1004,"Ķì§ģ":1005,"ìĺĪ":1006,"ī´ë":1007,"ë§Īë":1008,"Ĥ¨":1009,"¥¸":1010,"Ġê°¤":1011,"ë¬´":1012,"ĺëį°":1013,"ìĿ´ëĥĲ":1014,"ìķ½":1015,"ĠíĿ":1016,"ìĬµ":1017,"Ġë³ĳ":1018,"ëĤ¨":1019,"³´ëĭ¤":1020,"íģ¬ë":1021,"20":1022,"Ķì§ģíŀĪ":1023,"ìĿ´ìķ¼":1024,"ì°¬":1025,"ìĽĶ":1026,"ĠëĲĺ":1027,"ìĭľê°Ħ":1028,"Ġìĸ´ëĶĶ":1029,"Ġíķ´ë":1030,"ĠãħĪ":1031,"êµĲ":1032,"ê²łë":1033,"ĠìĺĪ":1034,"ìĿ´ëĵ¤":1035,"Ġ6":1036,"ë¯¼":1037,"ìĿ´ëĵľ":1038,"§¤":1039,"ĠìĶ¹":1040,"ìľ¼":1041,"ê°ľë":1042,"ìĿ´ë©´":1043,"ì¹ĺë":1044,"¦Ń":1045,"łĩê²Į":1046,"ìĭłë":1047,"Ġ10":1048,"ĠìĶ¨ë°ľ":1049,"íķĺëĭ¤":1050,"ł¥":1051,"ë¬¸":1052,"ìĿ´ëĿ¼":1053,"Ġë°Ķ":1054,"ë³´ë":1055,"Ġê³Ħ":1056,"Ĳľ":1057,"ìĿ´ëĤĺ":1058,"ĠëĺĲ":1059,"Ĵ¤":1060,"ìĿĢê±°":1061,"¸Ķë":1062,"Ġìĭ¤":1063,"íķľëĭ¤":1064,"ĪĦ":1065,"ìķĬ":1066,"ìĸ¸":1067,"ìĿ´ëĭ¤":1068,"°ĺ":1069,"ìĸµ":1070,"ì§Ģë":1071,"ìĥĪ":1072,"ãħłãħł":1073,"íĽĦ":1074,"Ġê°ľë":1075,"Ġì±":1076,"ìĬ¤íĬ¸":1077,"Ġíŀ":1078,"ê·Ģ":1079,"ĠìĨĮ":1080,"ìĺ´":1081,"Ġê°ķ":1082,"Ĥ´":1083,"ë°°":1084,"ĠíĤ¤":1085,"ë³µ":1086,"Ġê·¸ëĥ¥":1087,"êµ°":1088,"íĻ©":1089,"ĠìĥĪëģ":1090,"Ġë°ķ":1091,"ìĽĢ":1092,"ì½Ķë":1093,"§Ŀ":1094,"ìĿ´ì§Ģ":1095,"ĠìĤ´":1096,"Ġãħĭãħĭãħĭãħĭãħĭ":1097,"Ġì§Īë":1098,"ì¢ħ":1099,"ëıĻ":1100,"ĠíķĺëĬĶ":1101,"Ġìļ°":1102,"Ħë¡ľ":1103,"Ġíķł":1104,"°ľë":1105,"ìĻľ":1106,"ë§Ĳ":1107,"ìłĪ":1108,"Ġìŀ¬ë°":1109,"ĠìĦł":1110,"²¤":1111,"Ġìŀĺë":1112,"Ķëį°":1113,"ëŃ":1114,"ìķłëĵ¤":1115,"ìķ¼ì§Ģ":1116,"ì´Ī":1117,"Ġìĸ¼ë":1118,"íĻĶë":1119,"????":1120,"ĠíĴ":1121,"ãħħãħ":1122,"!!!!":1123,"Ġêµ¬":1124,"Ġì¢ĭìķĦ":1125,"ëĭ¬":1126,"ê¿":1127,"Ġë°°":1128,"ìĽĲë":1129,"Ġìĸ´ëĸ»":1130,"ì»¤":1131,"ìĺ¬":1132,"Ġì°¨":1133,"Īëĵ¤":1134,"ĠãĦ·ãĦ·":1135,"ìĭľë°ľ":1136,"ê²Ģ":1137,"Ġìĭ¶":1138,"ĠíĻķ":1139,"ê²°":1140,"ìļĶì¦ĺ":1141,"Įë¦¬":1142,"ħĢ":1143,"ëĭĺëĵ¤":1144,"ìĦŃ":1145,"Ġ8":1146,"Ŀ½":1147,"ĠíĶ¼":1148,"Ġë¶Ī":1149,"Ġìĭľë":1150,"ë°ķ":1151,"íĻĺ":1152,"ëĺ":1153,"ìĿ´ëĬĶ":1154,"°ķ":1155,"ĠãħħãħĤ":1156,"²Ħë":1157,"ìĿ´ë²Ī":1158,"Ġë§Ŀ":1159,"ĠìļĶ":1160,"ãħĪ":1161,"\"\"":1162,"ìłĢë":1163,"ıĦë":1164,"Ġëį":1165,"ì¶ľ":1166,"Ġë²Ħ":1167,"ìºĲë":1168,"ĮãħĬ":1169,"Ġë§Įë":1170,"ĠìķĮë":1171,"ĠìĿ´ìłľ":1172,"ê¾¸":1173,"ª»":1174,"ĠëıĻ":1175,"Ġê°ĢëĬ¥":1176,"Ġë¶Ģë":1177,"ê¶Į":1178,"Ġ7":1179,"ìĺ¬ë":1180,"ìĸ´ìĦľ":1181,"ĠíĮĮ":1182,"ìĺĢ":1183,"Ġì¶Ķì²ľ":1184,"ãħĭãħĭãħĭãħĭãħĭ":1185,"¡Ŀ":1186,"Ġìķ¼":1187,"ìŀĸ":1188,"Ġë¨¸":1189,"ë³¸":1190,"ĠëĿ¼":1191,"Ġê²°":1192,"ĠìŀĪìĿĮ":1193,"Ġìķł":1194,"ìĹĶ":1195,"Ġëĵľë":1196,"Ġìĵ°":1197,"íķĺëĬĶëį°":1198,"Ġë§Īë":1199,"ìĹĪëĬĶëį°":1200,"ĠìķĦëĭĪ":1201,"ĠìłľìĿ¼":1202,"Ġìĸ¸ìłľ":1203,"ê±°ê°Ļ":1204,"Ġëĳ":1205,"ĠìĦ¸":1206,"Ġëħ¸":1207,"ìł¸":1208,"ĠíĸĪ":1209,"ìķħ":1210,"Ġìķłëĵ¤":1211,"Ġíı¬":1212,"°Ľ":1213,"¨ë¦¬":1214,"ìĿ¸ê°Ģ":1215,"Ġëį°":1216,"°°":1217,"´ī":1218,"Ġãħĩãħĩ":1219,"ì¤ĳìĹĲ":1220,"Ġìį":1221,"ìĬ¤íĥĢ":1222,"Ġ9":1223,"ìĪľ":1224,"ìľłë":1225,"ĠëģĿ":1226,"ł¨":1227,"ë°¥":1228,"ë§Ŀ":1229,"Ŀ¼ëıĦ":1230,"íĥĢë":1231,"ìĤ¼":1232,"ì²ĺë":1233,"´ëį°":1234,"Ġëĵ¤ìĸ´":1235,"Ġë§Į":1236,"íĤ¤ë":1237,"ê°Ī":1238,"Ġê¹Ģ":1239,"ìĦ¸ìļĶ":1240,"ĠíĮ¨":1241,"Ġê°¤ë":1242,"ĠíĪ¬":1243,"ìĵ°":1244,"Ķ±":1245,"°ë¦¬":1246,"§Ĳ":1247,"íĸĪëĬĶëį°":1248,"ĠíĬ¹":1249,"ìŀĩ":1250,"ĠìĹŃ":1251,"10":1252,"ãħĭãħĭãħĭãħĭãħĭãħĭãħĭãħĭãħĭãħĭãħĭãħĭãħĭãħĭãħĭãħĭ":1253,"ĠëŃĶ":1254,"Ġìĸ´ëĸ»ê²Į":1255,"ë©":1256,"ìĥī":1257,"ãħľ":1258,"ĠíĦ":1259,"ìĿ´ê°Ģ":1260,"ĠìĽĲ":1261,"ìĨĶì§ģíŀĪ":1262,"ì¥":1263,"ī´ë¹Ħ":1264,"ĠìĽĥ":1265,"ĠíĺĦ":1266,"Ġì§Īë¬¸":1267,"ìŀ¡":1268,"ĦĪ":1269,"ë²ķ":1270,"ĠìłĲ":1271,"ìĶ¨ë°ľ":1272,"ë³ĳ":1273,"Ġê³łë":1274,"ì§Ĳ":1275,"ĠíĥĢ":1276,"Ġë¦¬":1277,"Ġê¸Ģ":1278,"ĠìŀĲë":1279,"ĠìłĢë":1280,"£Į":1281,"ëĭ¤ê°Ģ":1282,"ìķĮ":1283,"ìĿĳ":1284,"¶ģ":1285,"ìŀĸìķĦ":1286,"Ġì£½":1287,"ê²Įë":1288,"Ġë©Ķ":1289,"ìħĺ":1290,"ìŀĺ":1291,"ìĭ¸":1292,"ĠíĬ¸ë":1293,"ìŀĪìĿĮ":1294,"´¤":1295,"Ġë³¸":1296,"ì¶ķ":1297,"ìŀ¬ë":1298,"ê²¨":1299,"íĮħ":1300,"Ġë§İìĿ´":1301,"Īë²":1302,"¸Įë":1303,"¸Ķ":1304,"ìĽĥ":1305,"íĤ¹":1306,"Ġë¨¸ë":1307,"ì§ĢìķĬ":1308,"ë¥":1309,"¡ł":1310,"ë²Ī":1311,"gi":1312,"íĮĢ":1313,"ıĮ":1314,"´Ħ":1315,"ëĭī":1316,"íı°":1317,"ê¸¸":1318,"íĸ¥":1319,"¶Ģë":1320,"Ġëľ":1321,"ıħ":1322,"©´ìĦľ":1323,"Ġìľłë":1324,"¦½":1325,"ĠìłĦë":1326,"Ġëĭ¹":1327,"Ġë³´ê³ł":1328,"Ġìŀĳ":1329,"ìĿĦê¹Į":1330,"Ġê·Ģ":1331,"ĠëĤ´ë":1332,"ĠíķĺëĤĺ":1333,"ê¸°ë":1334,"Ġíıī":1335,"ì§ķ":1336,"Ġì°į":1337,"ĠëıĮ":1338,"ì¸ł":1339,"ĠìĨĮë":1340,"ħãħħãħ":1341,"ìŁ":1342,"ìĻ¸":1343,"ãħİ":1344,"ëª¨":1345,"Ġíħ":1346,"ì°į":1347,"ĠìķĦëĭĺ":1348,"ê´ĳ":1349,"êµ´":1350,"£¨ë":1351,"êº":1352,"íĶ½":1353,"ìĮ":1354,"ĠëĦĺ":1355,"ì²ł":1356,"Ġë°©ìĨ¡":1357,"ìłł":1358,"ĠëĶĶ":1359,"ĠíĽĦ":1360,"ĠëĬĲë":1361,"Ġãħĭãħĭãħĭãħĭãħĭãħĭ":1362,"ĲëıĦ":1363,"ê³¡":1364,"Ġì£¼ë":1365,"ì¤Į":1366,"ëĶĶ":1367,"ì§Ģë§Į":1368,"ìĦ¸ë":1369,"íİ¸":1370,"ê³łìĭ¶ëĭ¤":1371,"gif":1372,"Ł½":1373,"Ġìłģ":1374,"íĪ":1375,"ĠìºĲë":1376,"ĠìķĦì§ģ":1377,"ëĬĶê±´":1378,"Ġë¬´ë":1379,"įĺëį°":1380,"ìĹ´":1381,"Ġê±į":1382,"ë¨¹":1383,"Ġìŀ¡":1384,"íķ´ëıĦ":1385,"Ġì³":1386,"ê»":1387,"ì½ĺ":1388,";;":1389,"Ġì½Ķ":1390,"Ġë½ĳ":1391,"ĠìķĦëĭ":1392,"ìĿ´ìłľ":1393,"ĠíĶĦë":1394,"³ĳ":1395,"ĠìĹĲ":1396,"Ķ°":1397,"ë³´ëĭ¤":1398,"ĠãħĪãĦ´":1399,"Ġê°Ĳ":1400,"ìĿ´ìĬ¤":1401,"ëĤ´ê°Ģ":1402,"Ġëĭ¨":1403,"Ġ20":1404,"ìķĺë":1405,"ë°Ķ":1406,"íĥĪ":1407,"Ġë°ľ":1408,"ëĤł":1409,"ìī¬":1410,"ĵ¤ìĿ´":1411,"ê²łëĦ¤":1412,"¹Ħë":1413,"ìĺ¤ë©´":1414,"ì¦Į":1415,"ĠìĻ¤":1416,"ì°®":1417,"ëĮĢë":1418,"Ġë³ĳìĭł":1419,"Ġì¹ľ":1420,"íĥĿ":1421,"íĻį":1422,"ìķ±":1423,"ł¤ê³ł":1424,"ĠìĦľ":1425,"ĠëĤĺìĺ¤":1426,"Ġêµ¬ë":1427,"Ġë³µ":1428,"ĠìĻĢ":1429,"ĨĪ":1430,"¶ķìĿ´":1431,"´ëĭĪê¹Į":1432,"íĿ¬":1433,"ãħ¡ãħ¡ãħ¡ãħ¡":1434,"íĮĮë":1435,"¿¡":1436,"ĲëĿ¼":1437,"¦´":1438,"ĠíķĦ":1439,"ĠìĿ´ìĥģ":1440,"Ĥł":1441,"íĸĪëĭ¤":1442,"ìķĦìĦľ":1443,"Ġìĺ¬":1444,"ìĻķ":1445,"ìķłë":1446,"ĠìŀĪëĥĲ":1447,"Ġìŀ¬ë°Į":1448,"êµ¬ëĤĺ":1449,"ìĸ´ëıĦ":1450,"Ġìĸ´ì¼Ģ":1451,"ĠìľĦ":1452,"Ġìĭ¬":1453,"ë°ľ":1454,"ëŀ":1455,"ê±¸ë":1456,"Ġê·¼":1457,"ëłĪ":1458,"°į":1459,"ìŀĲê¸°":1460,"ëĵľë":1461,"íĺ¼":1462,"Ġë¯¸ë":1463,"Ġìĭľìŀĳ":1464,"ê²łì§Ģ":1465,"ì§ĢëĬĶ":1466,"ĩ´":1467,"ëįĺ":1468,"ìĶ¹":1469,"§ŀ":1470,"Ĩĵ":1471,"ìłĳ":1472,"Ġë§Įëĵ¤":1473,"ĵ¤ìĿĢ":1474,"íĬľë":1475,"Ġëĺ¥":1476,"11":1477,"ê°ĻìĿĢëį°":1478,"ê°ĳ":1479,"ì¿ł":1480,"ìĪł":1481,"ìĿ´íĬ¸":1482,"ĠãĦ±":1483,"ê±°ìŀĦ":1484,"ì¡±":1485,"Ġìļķ":1486,"ŀĦ":1487,"Ġíļ":1488,"ĠìĨĲ":1489,"Ġëĵ":1490,"Ġì¹´":1491,"ìłĦìĹĲ":1492,"Įĵ":1493,"Ġë°ĺ":1494,"Ġì§ĳ":1495,"íĶĮë":1496,"Ġìĵ°ë":1497,"§ģ":1498,"ĠìĿ´ëŁ°":1499,"Ġ(":1500,"Ġãħł":1501,"Ġëĸ¡":1502,"íĥĦ":1503,"Ġë§¤":1504,"¨ëĵľ":1505,"Ġìŀ¬":1506,"Ġê²ĮìŀĦ":1507,"ĠêµŃ":1508,"ãħĭãħĭãħĭãħĭãħĭãħĭ":1509,"łĪë":1510,"Ķ©":1511,"¬¼ë":1512,"Ġìĭ¸":1513,"ķĮë¬¸":1514,"íĦ°ë":1515,"Ġíķ¨":1516,"ê²Ł":1517,"Ġì§ģ":1518,"ëĵ±":1519,"ĬĶëį°":1520,"ê°ĵ":1521,"§Įë":1522,"Ĥľ":1523,"Ġê´ľ":1524,"ĠëıĦë":1525,"ìĹ¬ë":1526,"Ĥ´ë":1527,"ëĭ¬ë":1528,"ë²Ħ":1529,"³´ê³ł":1530,"ł¸":1531,"ê±°ë":1532,"Ġë§ī":1533,"íķ´ìķ¼":1534,"Ġë³´ë©´":1535,"¶ķ":1536,"ŀĺëıĦ":1537,"ĠìķĦëĭĪëĥĲ":1538,"§ĮìĹĲ":1539,"ĠëĲĺë":1540,"Ġìķłë":1541,"ª©":1542,"įĶëĿ¼":1543,"Ġê°Ħ":1544,"ĠìĦľë":1545,"ìĭ¤ë":1546,"ê¸°ê°Ģ":1547,"Ġëĭ¤ìĭľ":1548,"Ĳê¸Ģ":1549,"ë©Ķ":1550,"ĠëĮĢë":1551,"Ġê·¼ëį°":1552,"íĺģ":1553,"Ġìĭ«":1554,"Ġë¬´ìĬ¨":1555,"Ġì¼":1556,"ëĤĺëıĦ":1557,"ë§ī":1558,"¹ł":1559,"Ġê±°ë":1560,"íķĳ":1561,"Ġìī":1562,"Ġì¹ĺ":1563,"¡¤":1564,"ê·ľ":1565,"ìķĺëĬĶëį°":1566,"ìĸ¼":1567,"íĻķ":1568,"ĠëĶ±":1569,"Ġë¡ľ":1570,"ª½":1571,"ìķĦìĿ´":1572,"ĠëŃĲëĥĲ":1573,"°Ķë":1574,"Ġíĳ":1575,"ĠìĿ´ë²Ī":1576,"ĠëıĪ":1577,"ì¹¨":1578,"¼ë³´":1579,"ê¸°ëĬĶ":1580,"ĠëĪĦê°Ģ":1581,"ŀľë":1582,"ìĹ½":1583,"įĶëĭĪ":1584,"ì²ĺëŁ¼":1585,"ĠëĴ¤":1586,"ìŀĪëĥĲ":1587,"íĢ´ë":1588,"¨¼":1589,"Ġê¹Į":1590,"ŀĺìĦľ":1591,"íĤ¨":1592,"ìį¨":1593,"ĠìĽĲë":1594,"ĠìĥĪëģ¼ëĵ¤":1595,"ĥĲë":1596,"ëĭ¤ë":1597,"ìĬµëĭĪëĭ¤":1598,"Ł¬ë¦¬":1599,"ì³Ĳ":1600,"ĸìĹĲ":1601,"ìĬ¬":1602,"ĠìŀĪëĬĶ":1603,"ìĩ":1604,"íıī":1605,"Ġê¾":1606,"ì§Īë":1607,"ĠìĻĶ":1608,"ì°¨ë":1609,"ĠìĦłë":1610,"ìłķëıĦ":1611,"ĠìĻ¸":1612,"ìŀ¼":1613,"ìĸ´ìļĶ":1614,"°±":1615,"ê¸¸ë":1616,"ìĽħ":1617,"Ġíķĺê³ł":1618,"íķľëį°":1619,"Ġíķ©":1620,"ĠìĿ´ìģ":1621,"ìķĮë":1622,"ê²ĮìŀĦ":1623,"ĠìĻ¤ì¼Ģ":1624,"Ġì§¤":1625,"Ġìĸ¼":1626,"ë°Ľ":1627,"Ġìĸĳ":1628,"ëĺ¥":1629,"Ġì½Ķë":1630,"ĠìĹħ":1631,"ê¸Īë":1632,"íĭĢ":1633,"íķĺëħ¸":1634,"´ë¦¬":1635,"ì¡Į":1636,"ëł¥":1637,"·¨":1638,"ìĹĩ":1639,"ìĺµ":1640,"ëĭ¤ëĬĶ":1641,"ĠìĹ¬ìŀĲ":1642,"ìķĦëĭĺ":1643,"Ġì²ĺ":1644,"ê²ĥëıĦ":1645,"íĴĪ":1646,"ëģ":1647,"íĥģ":1648,"Ġì¶ľ":1649,"ĠëĤ´ê°Ģ":1650,"ĠìķĪëĤĺ":1651,"Ġë¶Ħ":1652,"ìĵ°ë":1653,"íķĺëĤĺ":1654,"ìķĦëĭĪë":1655,"ĺê¸°":1656,"ê°ĢëĬ¥":1657,"Ġê²ĥ":1658,"ìŀĪëĬĶ":1659,"Ġê°Ī":1660,"ëī´ë¹Ħ":1661,"ĠíĦ°":1662,"12":1663,"íĢ´":1664,"Ġìķ½":1665,"ĠìĪľ":1666,"ëŃĲ":1667,"ëĸ":1668,"ìĨĲ":1669,"ê³¤":1670,"ê¸Ģë":1671,"Ġëĭ¬ë":1672,"ĠìĿĺ":1673,"Ġê¿":1674,"ìĥĿê°ģ":1675,"ìļ°ë¦¬":1676,"ĠíĬ¸":1677,"íľ":1678,"ãħĮãħĬ":1679,"Ġë¬¼":1680,"Ġëª©":1681,"ìħĪ":1682,"íĬ¹":1683,"ë°±":1684,"ãħĩãħĩ":1685,"Ġíķłë":1686,"³µ":1687,"Ġ30":1688,"êº¼":1689,"ãħĤ":1690,"ê¸°ëĦ¤":1691,"íĶ¼ë":1692,"ĠëŃĲìŀĦ":1693,"Ġì»¤":1694,"ë£":1695,"Ġìłĳ":1696,"íĹĺ":1697,"Ġ100":1698,"ĠìĪĺë":1699,"Ġì¢ĭìĿĢ":1700,"Ġãħĭãħĭãħĭãħĭãħĭãħĭãħĭ":1701,"§Īëĭ¤":1702,"ĠíĨµ":1703,"ì£½":1704,"ë§Įë":1705,"ĠëĤľ":1706,"Ġê´ľì°®":1707,"ìĻĢë":1708,"ìĹ¬ê¸°":1709,"ëħ¸ë":1710,"ĠëıĮë":1711,"ìĹĪëĭ¤":1712,"ì¡´":1713,"Ġì°¸":1714,"ì©":1715,"íıŃ":1716,"ìĿ¸ì¦Ŀ":1717,"ìµľ":1718,"ãħħ":1719,"ê°ĢëĬĶ":1720,"Ġì¹´ë":1721,"ĲĺëĥĲ":1722,"¦°ìĿ´":1723,"ì§ľë":1724,"Ġìĺ¬ëĿ¼":1725,"ìĬ´":1726,"ìĽĮë":1727,"Ġì¡´ë":1728,"ê°ĻìĿĮ":1729,"ìłģìľ¼ë¡ľ":1730,"íķłëķĮ":1731,"íĸĩ":1732,"ê·¸ëĥ¥":1733,"¨ìĸ´":1734,"ĠìĹ¬ë":1735,"íĤ¬":1736,"íĭ°ë":1737,"ĠìĹĨìĿĮ":1738,"Łī":1739,"13":1740,"Ġíķĺë©´":1741,"Ġë°±":1742,"ĠëĪĦêµ¬":1743,"²¤íĬ¸":1744,"ëĵ¯":1745,"ëĬĶê±°ìŀĦ":1746,"íĺ¸ë":1747,"§İ":1748,"ĳĲë":1749,"íĨłë¦¬":1750,"ë§ĮìĽĲ":1751,"ë£¨":1752,"ë°Ķë":1753,"ĠìĬ¹":1754,"--":1755,"Ġê±¸ë":1756,"ãħĭãħĭãħĭãħĭãħĭãħĭãħĭ":1757,"ìĸ´ìłľ":1758,"ãħħãħĤ":1759,"ìļ¸ë":1760,"íĮ©":1761,"Ġíĭ°":1762,"ĠëĬĲëĤ":1763,"¦¬ëĦ¤":1764,"ìĿ´ìľł":1765,"ìĺĢë":1766,"ìľ¨":1767,"ķĮë¬¸ìĹĲ":1768,"ëĭ´":1769,"ê±´ëį°":1770,"ĵĿ":1771,"ì£ł":1772,"ĪĦë":1773,"łĪìĿ´ëĵľ":1774,"ìĿĦëķĮ":1775,"ĠìĿ´ëłĩê²Į":1776,"@@":1777,"ìļ´ë":1778,"íĮĶ":1779,"Ġê²ľ":1780,"ê°Ħë":1781,"¨ë°ľë":1782,"ĠëĶ°ë":1783,"ãĦ·ãĦ·ãĦ·ãĦ·":1784,"ìĿ´ë¸Į":1785,"ë³¸ìĿ¸":1786,"ĶĶë":1787,"Ġê´ĳ":1788,"ëıĮ":1789,"ĠíĭĢë":1790,"Ġë¸Į":1791,"Ġë¹ł":1792,"ê°Ģë©´":1793,"ĠëķĮ":1794,"ìĿµ":1795,"ł¤ë©´":1796,"Ġì°¾":1797,"ĠíĮĮë":1798,"ĠìĤ¼":1799,"Ġì¦":1800,"ĠìĹ¬ê¸°":1801,"¥´ëĬĶ":1802,"ĠëĤł":1803,"ëĤ´ìĿ¼":1804,"ŀĺë":1805,"íħĲ":1806,"ìĦ¼":1807,"¥ĺ":1808,"²ķ":1809,"ìĸ´ìķ¼":1810,"Ġì´Ī":1811,"Īë¡ľ":1812,"Īëħ¸":1813,"Ġê°ĳ":1814,"ĠëĳĲ":1815,"ëĤĺëĬĶ":1816,"Īëįĺ":1817,"ìłĦëĵľ":1818,"ë¯¸ë":1819,"³¼":1820,"ì§Ģê³ł":1821,"50":1822,"ìĹĺ":1823,"ëįķ":1824,"Ġê³ĦìĨį":1825,"ĠìļĶì¦ĺ":1826,"ª¨ë":1827,"ìĹĺë":1828,"ìĦłë":1829,"ìķĺëĭ¤":1830,"ĠìºĲë¦Ń":1831,"ë¬¼":1832,"ë¶Ģë":1833,"íķ©ëĭĪëĭ¤":1834,"Ġê¶ģ":1835,"łĪìĿ´":1836,"Ġì²ł":1837,"ëĪĦ":1838,"·°":1839,"Ġíİ¸":1840,"Ġíĺ¸":1841,"§ĪëĤĺ":1842,"Ġìłľë":1843,"íķĦ":1844,"ĠìĬ¤ë":1845,"Ġë´Ĳ":1846,"ĮĢë¡ľ":1847,"íĴį":1848,"¦¬ë©´":1849,"íħĮë":1850,"íĥĳ":1851,"ì¼Ģë":1852,"ĲĺëĬĶ":1853,"ìłķëıĦë":1854,"ìĻĶë":1855,"°¥":1856,"Ġ12":1857,"Ġëĳĺ":1858,"ìĹ¼":1859,"ì±Ħ":1860,"Ġë¬¸ìłľ":1861,"Ġãħģ":1862,"Ġê´Ģ":1863,"Ġëħ¸ëŀĺ":1864,"Ġë§Ľ":1865,"ëĿ¼ë":1866,"ħ¸ë":1867,"Ġëĭ¤ë¥¸":1868,"©´ë":1869,"¦¬ê³ł":1870,"ìĹĨëĬĶ":1871,"ìĸ¸ë":1872,"Ġìĭłë":1873,"ĠíıŃ":1874,"ë¨¸":1875,"íĨ¡":1876,"ì¯":1877,"²ł":1878,"Ġãħĭ":1879,"ê¹Ĳ":1880,",,":1881,"ìĿ´ëĿ¼ê³ł":1882,"ìĨĮë¦¬":1883,"íķĺê¸°":1884,"ĠìķĮëł¤":1885,"ì§¸":1886,"ì£¼ëĬĶ":1887,"łµ":1888,"ī´":1889,"30":1890,"ì°Į":1891,"ĠíĮĶ":1892,"Ġê°ĻìĿĢëį°":1893,"ģ¼":1894,"íģ´ë":1895,"ĠìĿĢ":1896,"ĠëĪĪ":1897,"ìĿ¸ê±°":1898,"ë°ĺ":1899,"Ġì¶Ķì²ľì¢Ģ":1900,"ì°©":1901,"ì´Īë":1902,"ê¹¨":1903,"Ġê¸Ī":1904,"Ġì¢Ĩê°Ļ":1905,"ĠìĥĪëģ¼":1906,"Ġê°ĵ":1907,"ĠíĻĶ":1908,"Ġë¦¬ë":1909,"³´ë©´":1910,"íĦ´":1911,"ë¥ł":1912,"ëķĮ":1913,"ìĿ´ê³ł":1914,"ìĭŃ":1915,"ìľ¤":1916,"¡±":1917,"ê°ĢìĦľ":1918,"ìĿ´ëħ¸":1919,"tx":1920,"ì§Ħë":1921,"ĠìĹĨëĬĶ":1922,"ĠëĦ£":1923,"íħľ":1924,"ìĹĪëĦ¤":1925,"ëª¨ë":1926,"ëłĻ":1927,"Ġëĵ±":1928,"ĠìĤ´ë":1929,"Ġì¿":1930,"ìķ°":1931,"ĠìĻĦ":1932,"ê°Ķ":1933,"ĠìĻľìĿ´ë":1934,"Ġì²«":1935,"ĠìķĦìĿ´":1936,"ĠëŃĲê°Ģ":1937,"Ġëį°ë":1938,"ŀĮëĵ¤":1939,"Ġë¯¼":1940,"²Į":1941,"ê²¼":1942,"ĠìĹ´":1943,"¶Ī":1944,"ì°¸":1945,"ëĨ":1946,"Ġëªħ":1947,"íı¬ë":1948,"Ġê°ģ":1949,"ĠìĿĮ":1950,"ì£¼ìĦ¸ìļĶ":1951,"ìŁģ":1952,"ìĬ¤íĦ°":1953,"Ġ?":1954,"ãĦ±ãĦ±":1955,"ì§¤ë":1956,"íķľê²Į":1957,"ëª©":1958,"Ģë¦¬":1959,"ì¼ĵ":1960,"ë§¤":1961,"ë¨¸ë":1962,"ë¦¬ë":1963,"ĠëĲ¨":1964,"íķ´ëĿ¼":1965,"íģ´":1966,"ìĿ´ìĥģ":1967,"ì¢Į":1968,"Ġ-":1969,"Ġê²Ģ":1970,"ĠíķľêµŃ":1971,"ĠìĮ":1972,"Ġê°ĻìĿĢ":1973,"ĮëĦ¤":1974,"ëĬĶëĭ¤":1975,"000":1976,"txt":1977,"Ġì³Ĳë":1978,"íĩ´":1979,"ĠíĴĢ":1980,"Ġìļ°ë¦¬":1981,"Ġê±´":1982,"ĠíĻĶë":1983,"¡¯":1984,"Ġì¢ĭê²łëĭ¤":1985,"Ġì¤Ħ":1986,"ĠëĦĪ":1987,"Ġíģ´ë":1988,"ãħı":1989,"ĠíķĺëĤĺë":1990,"ĠìĿ¸ë":1991,"ëħĦë":1992,"Ġìł¤":1993,"ìĻĢìĦľ":1994,"ĠíĻį":1995,"ì§±":1996,"ìķĻ":1997,"Ġë²Į":1998,"ì²ĺ":1999,"Ġíģ¬ë":2000,"Ġìŀħê°¤":2001,"ĠëłĪìłĦëĵľ":2002,"Ġìłľë°ľ":2003,"Ġì¢ħ":2004,"Ġìļ©":2005,"ìĥ¤":2006,"ìĶ©":2007,"Ġëª¨ë¥´":2008,"Ġìĭ¤ë":2009,"Ġìŀł":2010,"Ġì»¨":2011,"ĠëĬĲ":2012,"ìĺ¤ëĦ¤":2013,"ìľ¡":2014,"ĠìĹĨëĥĲ":2015,"Ġìĸ¼ë§ĪëĤĺ":2016,"ãħģ":2017,"ĠíķĻ":2018,"Ġëª°ë":2019,"ê±į":2020,"įĶë":2021,"ì¦Īë":2022,"ì´Ŀ":2023,"ëĬĲ":2024,"Ġë³¼":2025,"ëįĺëį°":2026,"Ġë¹¨ë¦¬":2027,"¯¿":2028,"ìĬĪ":2029,"Ġì´Īë":2030,"ìĹĲê²Į":2031,"ì¡´ëĤĺ":2032,"ìĹĪìĿĮ":2033,"ê°¤ìĹĲ":2034,"´¤ëĬĶëį°":2035,"¦´ë":2036,"Ġëįĺ":2037,"ì»·":2038,"ê¼´":2039,"ìĭ±":2040,"Ġëĭ¬":2041,"ìĿĺë":2042,"Ġíĸī":2043,"ĠìķĦì§ģëıĦ":2044,"ĠëĤĺìĺ¨":2045,"íĬľë¸Į":2046,"ìĿĮë":2047,"Ŀ¼ëĬĶ":2048,"ì²´ë":2049,"ĠíĥĪ":2050,"ĠìĤ¬ì§Ħ":2051,"Ġë¹Ħë":2052,"Ġì²ľ":2053,"Ġìĸ¼ë§Ī":2054,"Ġë²Ī":2055,"Ġê°ĻìĿĮ":2056,"Ġëŀ":2057,"Ġëł":2058,"ĠíĶĮë":2059,"Ġíķľë²Ī":2060,"Ġìķħ":2061,"ìĤ¬ê°Ģ":2062,"ê·¸ëŀĺìĦľ":2063,"Ġë°Ķë¡ľ":2064,"ĠëĮĵ":2065,"ìĭľì¦Į":2066,"ħĦëĵ¤":2067,"Ġãħİ":2068,"íķĺëĬĶê²Į":2069,"Ġìĺģìĥģ":2070,"ê¿Ģ":2071,"ìĪĻ":2072,"Ġê³¼":2073,"¨ëĵ¤":2074,"ê·¼ë":2075,"Ġì¥":2076,"íĥķ":2077,"Ġë¨¸ë¦¬":2078,"ìĿ´ëŁ°":2079,"ĠíĨł":2080,"ìĮį":2081,"ìĿ¸ì§Ģ":2082,"ê°ĻìĿ´":2083,"ĵľëĬĶ":2084,"ĥĲëĵ¤":2085,"íĭ±":2086,"ĠíķĺëĬĶê±°":2087,"ë¸Ķë":2088,"ĠêµĲ":2089,"Ġê°¤ëŁ¬ë¦¬":2090,"ĠëĦ¤":2091,"ìħĭ":2092,"Ġë²Ħë":2093,"íļ¨":2094,"ĠíķĦìļĶ":2095,"ĠìŀĪëĬĶëį°":2096,"Ĩĵê³ł":2097,"ê°Īë":2098,"Ġë´¤":2099,"¦°ëĭ¤":2100,"ĠëıĮìķĦ":2101,"¶ķìĿ´ëĵ¤":2102,"ì§Ģê°Ģ":2103,"ì»¨":2104,"ì§Ģë§ī":2105,"ìķ¼íķ¨":2106,"Ġíķĺì§Ģ":2107,"ĠãħĨ":2108,"Ġê¼´ë":2109,"ì¥¬":2110,"ì§ĵ":2111,"ì¹ĺëĬĶ":2112,"ĺĲ":2113,"íĪ¬ë":2114,"18":2115,"ì¹ł":2116,"íĿĳ":2117,"²Ķ":2118,"ìª½":2119,"ŁŃ":2120,"Ġìĸ´ëĶĶìĦľ":2121,"Ġê¶ģê¸Ī":2122,"Ġë¹¡":2123,"ìĪĺê°Ģ":2124,"ĠìķĦëĭĮ":2125,"ı¼":2126,"ê±°ëĥĲ":2127,"ìĹ¬ìŀĲ":2128,"ĠìĽĲëŀĺ":2129,"íķŃ":2130,"ì»¤ë":2131,"ĠíĨłë":2132,"ê³¨":2133,"ì»µ":2134,"ê²¬":2135,"íĮ¬":2136,"ëĤ´ë":2137,"ĠìķĦëĭĪëĿ¼":2138,"Ġë¬":2139,"ëıħ":2140,"¹ìĬ¤":2141,"Ġ15":2142,"Ġë¹¨":2143,"ĠëĲľ":2144,"ìĺ¤ëĬ":2145,"ĠíĪ¬íĳľ":2146,"ì¹Ń":2147,"Ġê·¸ëŁ°":2148,"ĠëĤ«":2149,"ë¬´ë":2150,"ì¹ľë":2151,"ì¡°ê±´":2152,"ìļķ":2153,"ì¡°ë":2154,"ê°Ħëĭ¤":2155,"³´ëĬĶ":2156,"ãħĮ":2157,"ĠìĿ¸ì¦Ŀ":2158,"ì±ł":2159,"¹ìĭľ":2160,"ìĬ¬ë":2161,"Ġë¸Ķë":2162,"íĻľ":2163,"ë³´ë©´":2164,"Ġìĸ´ëĸ°":2165,"ìĤ´ë":2166,"200":2167,"ĠëĤĺìĻĶ":2168,"Ġ0":2169,"Ġê°ĻìĿ´":2170,"ìĬ¤íĬ¸ë":2171,"íķĺë©´ìĦľ":2172,"ĠìĨį":2173,"¡ľëĤĺ":2174,"íĭĢë":2175,"ķĮë§Īëĭ¤":2176,"15":2177,"ĠìĦ¸ë":2178,"Ġì±Ħ":2179,"ë§ŀ":2180,"ĶĶìĸ´":2181,"Ġì²ĺìĿĮ":2182,"Ġ'":2183,"íĹ¤":2184,"Ġë³´ëĬĶ":2185,"ìķ¼ëĲ¨":2186,"ëĭµ":2187,"ìķĦìķĦ":2188,"ìĿ´ê²Į":2189,"Ġì¢ĭìĿĮ":2190,"íĴĢ":2191,"ëĭĿ":2192,"ê¹Įë":2193,"Ġì¡´":2194,"Ġëĭ¤ìĿĮ":2195,"íĸĪëĦ¤":2196,"ìĤŃ":2197,"ĠëĿ¼ë":2198,"ë¶Ī":2199,"ĠìķĬëĥĲ":2200,"ëĲ":2201,"Īë¦¬":2202,"ĠìĹĲë":2203,"Ġìĸ¼êµ´":2204,"ĠìĦ¤ë":2205,"ĪëıĦ":2206,"Ġëķ":2207,"ìķĹ":2208,"Ġíį":2209,"ê·¹":2210,"ĠëĭĪ":2211,"ìŀĲëĵ¤":2212,"ĠëĤ´ìĿ¼":2213,"ĠìĤ°":2214,"Ġãħ¡":2215,"ĬĲ":2216,"ĠìĿ¼ë³¸":2217,"Ġíĥľ":2218,"ì¤Įë":2219,"Ġê¸ī":2220,"ìŀĪëĬĶëį°":2221,"łĪê¸°":2222,"£¹":2223,"ìı":2224,"ì§ĢëĦ¤":2225,"ìĿ´ëıĦ":2226,"ìĻ¸ë":2227,"ìĹĨìĿĮ":2228,"ëĭ¤ìĿĮ":2229,"ìļĶë":2230,"ìĭľìĹĲ":2231,"Ġìļ°ë":2232,"ĠíĮĢ":2233,"íķłê¹Į":2234,"Ġë§¤ë":2235,"ë¶ģ":2236,"Ġìĸ´ëĸ¤":2237,"ĠëĶ°":2238,"ëł¹":2239,"ëĳĲ":2240,"ĠìĦ¤":2241,"ĠìĨĶì§ģíŀĪ":2242,"Ġíľ":2243,"ê³³":2244,"ì°ľ":2245,"íĢ´ëĵ¤":2246,"ìĺ¤ëĥĲ":2247,"Ġìµľê³ł":2248,"Ġì°½":2249,"íİĺë":2250,"ë¶ķ":2251,"ë¿¡":2252,"ĮĲ":2253,"Ġì¶ķ":2254,"¦¬ê°Ģ":2255,"ĠìķĦìĿ´ë":2256,"Ġíķĺë£¨":2257,"íķĺëĭĪê¹Į":2258,"ëĭĪëĵ¤":2259,"ê¾¸ë":2260,"ł¹":2261,">>":2262,"ê¼¬":2263,"Ġì¼Ģ":2264,"Ġë¯¸ì³":2265,"Ġê°Ģìŀ¥":2266,"ĠìĶ¨ë°ľë":2267,"Ġìļ´":2268,"ìĦ¤ìī¬":2269,"íĮŁ":2270,"14":2271,"ìĨįë³´":2272,"ëİ":2273,"ëĬĶê±°ëĥĲ":2274,"ê¶ģ":2275,"§ī":2276,"íŀĪë":2277,"ìŀł":2278,"Ĳľëĭ¤":2279,"ĠìĿ´íķ´":2280,"ĠëĳĲë":2281,"ìĿ´ì¦Ī":2282,"Ġìĭľê°Ħ":2283,"ĠìĿ´ë²¤íĬ¸":2284,"Ġìļ°ìĬ¹":2285,"Ġë¸":2286,"Ġë³Ħë¡ľ":2287,"Ġìŀĩ":2288,"Ġë¿":2289,"íģ¼":2290,"ìĿ´ìķ±":2291,"ĪĪ":2292,"Ġë³Ģ":2293,"ëª»":2294,"ìľ¼ëĭĪê¹Į":2295,"Ġê¹¨":2296,"ĠìĿĳ":2297,"Ġì´Ŀ":2298,"ë§ĪëĿ¼":2299,"Ġãħłãħł":2300,"ìľĦë":2301,"Ġë°ĺë":2302,"Ġê°ĳìŀĲê¸°":2303,"íħĲë":2304,"ê´´":2305,"ì²Ļ":2306,"ìĨĮë°Ķ":2307,"ì¤Ģëĭ¤":2308,"ê¾¹":2309,"ĠíĢ":2310,"íĶĦë¦¬":2311,"Ġ:":2312,"íĽĪ":2313,"Ĳëĭ¤":2314,"Ġì·¨":2315,"ìĹĲëıĦ":2316,"Ġíģ¬":2317,"ì£¼ë©´":2318,"ĠíĴĢë":2319,"íĺľ":2320,"ìĤ¬ìĭ¤":2321,"Ġê·¸ë§Į":2322,"ĠëĮĢì²´":2323,"ê°¤ìĹĲìĦľ":2324,"Ġë¬´ì¡°ê±´":2325,"ìŀħëĭĪëĭ¤":2326,"ĥĦ":2327,"ĠíĿĳ":2328,"¼ë³´ìĦ±":2329,"Ġëĭµ":2330,"íĮ¡":2331,"ĠëĨĴ":2332,"ĠëĬĲëĤĮ":2333,"Ĳĺë©´":2334,"ĠíļĮ":2335,"ìĹł":2336,"ĠìĤ¬ìĭ¤":2337,"ìłģìĿ¸":2338,"ìŀĲê°Ģ":2339,"ĠëĤĺìĺ¤ë©´":2340,"ë³´ê³ł":2341,"ê¼¬ë":2342,"ìºĲë¦Ń":2343,"ĠãħģãħĮãħĬ":2344,"íķĺê³łìĭ¶":2345,"Ġìĸ´ìłľ":2346,"ìķĦëĭĪëĥĲ":2347,"ĠíĸĪëĬĶëį°":2348,"ì¥Ĳ":2349,"Ġìķŀ":2350,"Ġì»¤ë":2351,"Īë²½":2352,"Ġë¿¡":2353,"Ġíĺ¸ë":2354,"Ġëĸ¨ìĸ´":2355,"ĠìķĦë¬´ë":2356,"Ġìĵ°ëĬĶ":2357,"ìĩ¼":2358,"ĠíĶ¼ë":2359,"íĶĦë¡ľ":2360,"Ġìĭ¶ëĭ¤":2361,"Ġê¾¹":2362,"19":2363,"Ķ°ë":2364,"ìĿ¸ìĿ´":2365,"ìĻĦ":2366,"ì§ĢìķĬëĥĲ":2367,"ëĭ¥":2368,"ë¹Ħë":2369,"íķĺìŀĲ":2370,"ĠìĿ´ê²Į":2371,"ë°°ë":2372,"ì¸µ":2373,"ĠìĿ´ìľłê°Ģ":2374,"Ġìĭ«ìĸ´":2375,"¨ëıĦ":2376,"ìĭłëĵ¤":2377,"ìĸ¼ë":2378,"ìĤĲ":2379,"ê±°ìķ¼":2380,"Ġìĸ¸ìłľë":2381,"ĠìĿ´ë¦Ħ":2382,"ł¤ëĤĺ":2383,"Ġë¶Ļ":2384,"Ġì²´":2385,"ì§Ģë§Ī":2386,"¨ëĿ¼":2387,"ê¸¸ëŀĺ":2388,"Ġíİĺ":2389,"łĮ":2390,"ê±°ê°ĻìĿĢëį°":2391,"êµ¬ê°Ģ":2392,"Ġìłķë¦¬":2393,"ĠìĹĦ":2394,"ì§Ŀ":2395,"ëĭ¤ëĭĪ":2396,"ĪëĮĢ":2397,"Ġë°ľë":2398,"íķľêµŃ":2399,"ĠìķĦëĬĶ":2400,"Ġê±¸":2401,"ĠìŀĺìĥĿ":2402,"ìĬ¤ëĬĶ":2403,"³´ëĭĪ":2404,"ë¸Į":2405,"íĺĲ":2406,"íĿ¥":2407,"Ġê·¸ê±°":2408,"ê²½ê¸°":2409,"´ëĭ¨":2410,"ıĻìķĪ":2411,"ĠìĿ¼ëŁ¬":2412,"Ġë³¼ë":2413,"Ġ50":2414,"Ġp":2415,"Ġìķ¼ë":2416,"ìĭ¤ë¶Ħ":2417,"ıĮë":2418,"ìĬ¤ê°Ģ":2419,"ìĸ´ëĸ":2420,"ĠìĹĨìĸ´":2421,"Ġê¼¬ë":2422,"ëĬĲë":2423,"ĠìĤ¬ëŀĳ":2424,"Ġì§ĢëŀĦ":2425,"ì§Ģë©´":2426,"ê·¸ëŀĺëıĦ":2427,"ĠëŃĶê°Ģ":2428,"ìłķëıĦë©´":2429,"ëĳ":2430,"Ġë¨¼":2431,"ìĺ¤ëĬĶ":2432,"ê±°ê°ĻìĿĮ":2433,"ìĭľëĬĶ":2434,"ì²ľë":2435,"Ġìĺ¨":2436,"¦¬ëĤĺ":2437,"ì³Ĳë":2438,"ìºł":2439,"Ġì¶©":2440,"ìĿĦëĵ¯":2441,"Ġë³´ëĭĪê¹Į":2442,"ìĸ´ëĤĺ":2443,"Ġì²ĺë":2444,"ëħĢ":2445,"ãħľãħľ":2446,"į±":2447,"Ġ13":2448,"ê°¤ì£¼":2449,"Ġãħĭãħĭãħĭãħĭãħĭãħĭãħĭãħĭãħĭ":2450,"ë´ī":2451,"ìĺ·":2452,"ê·ł":2453,"ê°Ĳë":2454,"ê°Ģë¦¬":2455,"ì¯¤":2456,"ĠìĿĺë":2457,"Ġê²½ê¸°":2458,"ìĹĲëĬĶ":2459,"Ġìĸ´ëĬĲ":2460,"ł¸ë":2461,"Ġíĺ¼":2462,"łī":2463,"ĠíĮ¬":2464,"ł¤ìĦľ":2465,"ĠìĽĶ":2466,"Ġíģ°":2467,"~~~~":2468,"ì¼ľ":2469,"ĠëĪĦë":2470,"ì§ĢëıĦ":2471,"ë¶Ħë":2472,"ìľ¼ëĭĪ":2473,"ŃĲ":2474,"Ġê½":2475,"ĠìŀĲê¾¸":2476,".....":2477,"ëĮ":2478,"ëįĶëĿ¼":2479,"ê¹ħ":2480,"°ëĮĢ":2481,"³Ħ":2482,"Ġìĭľì¦Į":2483,"Ġê·¼íĻ©":2484,"¹¨":2485,"ê°ĻëĦ¤":2486,"¦¬ëĥĲ":2487,"°ĸìĹĲ":2488,"¹Ī":2489,"¼ê³ł":2490,"!!!":2491,"³´ëĦ¤":2492,"Ġêº":2493,"ìĸ´ê°Ģ":2494,"ëŀĳ":2495,"Ħĺ":2496,"Ħ¤ë":2497,"ë¶ķìĿ´":2498,"ê²½ì°¬":2499,"ĠíŀĪ":2500,"ëĶ±":2501,"ĲĺëĦ¤":2502,"ì¢ĭìķĦ":2503,"ĠíķĺëĬĶëį°":2504,"ëĶ°":2505,"ëĦĪ":2506,"Ġê·¹":2507,"Ġê¼Ń":2508,"in":2509,"Ġë´ī":2510,"ìŀĪëĦ¤":2511,"ê±°ë©´":2512,"ìĤ¬ì§Ħ":2513,"ë³´ëĭĪ":2514,"Ġìļ´ë":2515,"ĠìķĪëĲĺ":2516,"ì£Ħ":2517,"Ġs":2518,"ê³Ħë":2519,"ĠìĥĪ":2520,"ĠìĤ¬ëŀĮëĵ¤":2521,"ĠìłĢê±°":2522,"Ġãħĭãħĭãħĭãħĭãħĭãħĭãħĭãħĭãħĭãħĭãħĭãħĭãħĭãħĭãħĭãħĭ":2523,"16":2524,"ê½":2525,"Ġë£¨":2526,"ĠëĤĺë§Į":2527,"Ġê¸°ë¶Ħ":2528,"íĹĪ":2529,"ë¡ľë":2530,"ĠíĮĶë":2531,"ĪĦëĤĺ":2532,"ëĦĪëĦ¤":2533,"ì§Ģíķĺê²Į":2534,"Ġ18":2535,"ĦĲ":2536,"íį¼ë":2537,"ĠëĪĦêµ¬ë":2538,"ìģĺ":2539,"ì¶Ķë":2540,"Ġëĵ£":2541,"¬ë£¨":2542,"Ġì²Ń":2543,"ìŀĦë":2544,"ì»´":2545,"ìĿ¼ë³¸":2546,"Ġë¯¿":2547,"ì¶©ëĵ¤":2548,"¹¡":2549,"ĠìĿ´ë¯¸":2550,"ĠíĬ¸ëłĪìĿ´ëĵľ":2551,"íħĲëį°":2552,"Ġ17":2553,"ìħĶ":2554,"ìĦľëıĦ":2555,"ĠS":2556,"Ġëī´ë¹Ħ":2557,"íľ´":2558,"Ġë§Īì§Ģë§ī":2559,"Ġìłķìĥģ":2560,"ê²łìĿĮ":2561,"íļĮë":2562,"Ġë£":2563,"Ġ11":2564,"ëĦĪë":2565,"Ġìĸĺê¸°":2566,"ìŀĶ":2567,"Ġë§Ĳë":2568,"ĠíĻĺ":2569,"ë¹µ":2570,"ë§Ĳê³ł":2571,"ëĵ":2572,"Ġíĺķ":2573,"Ġ=":2574,"Ġ\"\"":2575,"¦¬ë°Ķ":2576,"§Īê°¤":2577,"íĥľë":2578,"ìĭ¤íŀĪ":2579,"Ġê¿Ģ":2580,"Ĵ·":2581,"íķĺê¸´":2582,"ĠíĶ½":2583,"ĠìĿ¸ê¸°":2584,"·Ķ":2585,"ĠëĤĺìĺ´":2586,"ë½ĳ":2587,"ĠìĹĺë":2588,"Ġãħĭãħĭãħĭãħĭãħĭãħĭãħĭãħĭãħĭãħĭãħĭãħĭãħĭãħĭãħĭãħĭãħĭãħĭãħĭãħĭãħĭãħĭãħĭãħĭ":2589,"ìĥĪë":2590,"Ġë¶Īë":2591,"Ġìŀ¬ë¯¸":2592,"Ġìŀĺëª»":2593,"¤ëĦ¤":2594,"ë³Ģ":2595,"½ķ":2596,"ìłľë°ľ":2597,"ìĿ´ë²Ħ":2598,"ĠìŀĪëĭ¤":2599,"ì¤¬":2600,"ãħłãħłãħłãħł":2601,"!!!!!!!!":2602,"ĠëĮĵê¸Ģ":2603,"íĺĢ":2604,"ì±ħ":2605,"Ġíĳľ":2606,"ê¼´ë":2607,"ĸ¡":2608,"ĠìĬ¤íĨłë¦¬":2609,"Ġë§ŀìĿĮ":2610,"íĢĺ":2611,"Ġê·ĢìĹ¬":2612,"Ġê°Ĳë":2613,"ìĤ¬ëĬĶ":2614,"Ġ16":2615,"¡¤ë":2616,"ìĿ´ëĿ¼ëıĦ":2617,"ê¸°ëĵ¤":2618,"ê±°ì§Ģ":2619,"ĺëĦ¤":2620,"Ġìī¬":2621,"Ġíķ´ìķ¼":2622,"ìķ¡":2623,"ĠíĬ¹ì§ķ":2624,"Ġëļ":2625,"ìŀĺë":2626,"ìĹĪìľ¼ë©´":2627,"íĺķëĵ¤":2628,"ìĪĺìŀĪ":2629,"ìł¸ë":2630,"Ġ+":2631,"Ģëł¨":2632,"ĠìĬ¬":2633,"ĠëĤ¨ìŀĲ":2634,"Ġ.":2635,"ĩĮ":2636,"ìļĶìĿ¼":2637,"ìĤ¬ëŀĳ":2638,"Ġìĵ¸ë":2639,"ë¶ĢíĦ°":2640,"®¤":2641,"ê°ĢìļĶ":2642,"ìĦ±ìĿ´":2643,"ĠíĽĦë":2644,"ê°Ĵ":2645,"ì²©":2646,"ìģľ":2647,"ìĹĨìĿ´":2648,"ĠìĿ¸ìĥĿ":2649,"ìķĶ":2650,"Ġì°©":2651,"ĠëįĶë":2652,"ëįĶ":2653,"ìĿ¸ëĵ¯":2654,"Ġë²ł":2655,"ĵľì»µ":2656,"ëķ":2657,"ìĺ¥":2658,"´ĲëıĦ":2659,"ĠëŃĺ":2660,"ìĿ´ëĭĪ":2661,"Ġãħħ":2662,"Ġëıħ":2663,"íĹ¬":2664,"Ġë¡ľë":2665,"Ĥ¬":2666,"<<":2667,"ĽëĤł":2668,"¼ë¦¬":2669,"Ġë§ĮíĻĶ":2670,"Ŀ¼ìĿ´":2671,"ëĲĺ":2672,"Ķľ":2673,"ĠëĤĺìĺ¬":2674,"ê°ĻìĿĢê±°":2675,"íĽĦë":2676,"ìĻĶëĭ¤":2677,"ĠD":2678,"Ġê¸¸":2679,"ĠëħĲê¸Ģ":2680,"ìĺ¨ë":2681,"ìĽĶë":2682,"Ġíĩ´":2683,"ĠìĹĨëĭ¤":2684,"ìĺģìĥģ":2685,"ìĦ¤ë":2686,"ĠìĶ¨":2687,"¬¸ë":2688,"ĠìĹ´ë":2689,"ħãħħãħħãħħãħ":2690,"ë§Ĳë":2691,"¨ëĤł":2692,"íĶĪ":2693,"ìĭĿìĿ´":2694,"ìĪĺë¡Ŀ":2695,"ë¡¤":2696,"ĠìŀĦ":2697,"ìħľ":2698,"Ġíİĺë":2699,"ë¡Ŀ":2700,"Ġì§Ħê°ģ":2701,"ìķĦëĿ¼":2702,"ĨĪëĵ¤":2703,"ìķĦìķ¼":2704,"ĠìĤŃ":2705,"ĠíĮ©":2706,"ãħħãħĮãħĬ":2707,"ìĿ¼ì°¨":2708,"Ġê·¸ë¦¼":2709,"Ġê·¸ëłĩê²Į":2710,"ê°Ģì§Ģ":2711,"ì°Ĳ":2712,"ìĭ«":2713,"Ġì¡´ëĤĺë":2714,"¦¬ë°Ķëĭ¤":2715,"ìķ°ë":2716,"Ģë¹Ħ":2717,"Ġëª¸":2718,"Ġìļ¸":2719,"ì¹ĺê³ł":2720,"Ĳł":2721,"ëĶ©":2722,"Ġ14":2723,"ì£¼ëħĦ":2724,"ĺëĵ¤ìķĦ":2725,"ľ¨ë":2726,"ì²«":2727,"Ġë§ŀì§Ģ":2728,"Ġìĺ¬ëł¤":2729,"ĠëĨĢë":2730,"ľ¨":2731,"ëĬĶê±°ìķ¼":2732,"ìħī":2733,"Ġë¯¸ì¹ľ":2734,"Ġê¼¬":2735,"Ġìĸĺ":2736,"łĪìĬ¤":2737,"Ġëĺĳ":2738,"ëĺĲ":2739,"ħĲ":2740,"Ħë§Ī":2741,"ìķĦì§ģ":2742,"ìĹĨëĦ¤":2743,"Ġë¹ĦìĬ":2744,"Ġë°Ķê¿":2745,"Ġëį°ëł¤":2746,"ĠL":2747,"ħĢë":2748,"Ġê·¼ë":2749,"ĠëĤ®":2750,"ìķĦëıĦ":2751,"ìĦ¸ê³Ħ":2752,"°©ìĨ¡":2753,"ĠíķŃ":2754,"ĠìĹĨëĦ¤":2755,"ëį±":2756,"ĠíħĮ":2757,"ĠãħĤ":2758,"§Įíķľ":2759,"ĠíĮ¨ë":2760,"ìķŀ":2761,"ëĬĶì§Ģ":2762,"ĠíĶĦë¡ľ":2763,"ĠíĹĪ":2764,"ĲëĥĲ":2765,"§Ľ":2766,"ĠìĻľì¼Ģ":2767,"ĠìķĶ":2768,"ĠìĤ¬ê¸°":2769,"íĪ¬íĳľ":2770,"Ġíį¼":2771,"ê°Ķë":2772,"¦¬ìĬ¤":2773,"ĠìŀĪìľ¼ë©´":2774,"Ġì¹ľêµ¬":2775,"ĠëŃĶëį°":2776,"Ġê·¸ëŀĺëıĦ":2777,"ì´ĪìĹĲ":2778,"ì£¼ê³ł":2779,"ĠìŀĲê¸°":2780,"ìĭ¬ë":2781,"íĻĶëĥĲ":2782,"ëĸ¡":2783,"ĺìĬ¨":2784,"Ġë¬¼ë":2785,"ĠíĹ¬":2786,"Ġìį¨ë":2787,"ĠìĹĦì²Ń":2788,"ìĦ¤x":2789,"ĠëĲĺëĥĲ":2790,"Ġëı¼":2791,"Ġì¡°ë":2792,"³´ëĭĪê¹Į":2793,"Ġê¹Įë":2794,"ŀľë§ĮìĹĲ":2795,"ĠëŃĲìķ¼":2796,"ëıĪ":2797,"Ġë§Ĳê³ł":2798,"ìľłì§Ħ":2799,"Ŀ¼ë©´":2800,"ĠìŀĪëĤĺ":2801,"ĠìĭĿ":2802,"íĺĪ":2803,"ìļ±":2804,"ì·¨":2805,"Ġãħ¡ãħ¡":2806,"ê±´ë":2807,"ì¶ĺ":2808,"íĿ¬ë":2809,"ì¹ľêµ¬":2810,"Ġë©Ķë":2811,"Ġì±Ķ":2812,"Ġë¹łë":2813,"¦¿":2814,"Ġìĺ·":2815,"ĠíĮĲ":2816,"ìĻĵ":2817,"ëĬĶê±°ì§Ģ":2818,"Ġê³łëĭī":2819,"ìī½":2820,"Ġë°ĶëĢ":2821,"ëĭ¨ë":2822,"ĤĺìļĶ":2823,"íı´":2824,"ì±Ķ":2825,"ëĲľ":2826,"ĠT":2827,"Ġãħĭãħĭãħĭãħĭãħĭãħĭãħĭãħĭãħĭãħĭ":2828,"ê³¼ë":2829,"Ġë°¥":2830,"íĮ¨ë":2831,"ì°¨íĶ¼":2832,"Ġì¿ł":2833,"Ġìĩ":2834,"ĠíķĺëĦ¤":2835,"Ġì³Ĳ":2836,"ãħıãħı":2837,"17":2838,"Ġa":2839,"Ĥłë":2840,"ãħĭãħĭãħĭãħĭãħĭãħĭãħĭãħĭãħĭ":2841,"Ġê¸°ëĮĢ":2842,"ìĦľë²Ħ":2843,"ĠíĥĢë":2844,"ë°©ê¸Ī":2845,"ĠëĿ":2846,"ĠíĻ©":2847,"Ġë°©ë²ķ":2848,"ĠíĽĦê¸°":2849,"ìĪĺëıĦ":2850,"ìĶĢ":2851,"ìŀ¬ë°":2852,"Ġíıīê°Ģ":2853,"ìŀĲëĤĺ":2854,"ħķ":2855,"ìĿ´ìĸ´":2856,"Ġì§ľ":2857,"ìĨĶ":2858,"ìļ°ëĬĶ":2859,"´ĲëĿ¼":2860,"Ħ·":2861,"íķľëĭ¤ê³ł":2862,"íĸĪìĿĮ":2863,"ëļ":2864,"Ġìĸ¸ë":2865,"íĮĶë":2866,"Ġíŀĺëĵ¤":2867,"ë¸":2868,"íİĻ":2869,"ĠìĬ¤íĬ¸ë":2870,"ì£¼ëĿ¼":2871,"Ġì§±":2872,"ģíģ¬":2873,"©Ķë":2874,"³Ģ":2875,"Ġìı":2876,"ë³Ħ":2877,"Ġê°Ģë":2878,"Ġìĸ´ì¼Ģë":2879,"ê¹Ģë":2880,"ĠëĲł":2881,"íĬ¸ë¡ľ":2882,"ĠëĨĪ":2883,"ëħĲê¸Ģ":2884,"ê²łëħ¸":2885,"Ġìĺ¬íķ´":2886,"Ġë¸ĮìĿ´ìķ±":2887,"ìĸį":2888,"¨¹ê³ł":2889,"ìļ°ìĬ¤":2890,"ì¿łë":2891,"Ġíŀĺë":2892,"Ġë³Ħ":2893,"íģĲ":2894,"ĠãħĩãħĪ":2895,"ê°ĳìŀĲê¸°":2896,"Ġë°Ģ":2897,"Ġíķ´ëıĦ":2898,"Ġìį¨":2899,"§¤ë":2900,"ê±°ë¦¬":2901,"Ġê°ľì¢Ĩ":2902,"ĴëĦ¤":2903,"ìĻ¸ë¡ľ":2904,"Ġì¦Ŀ":2905,"Ġì¢ĭìķĦíķĺëĬĶ":2906,"Ġë¡¤":2907,"ìķļ":2908,"ĠíĤ¤ë":2909,"Ġëĸ¡ë°¥":2910,"į¤":2911,"ŀĻ":2912,"ìĹĳ":2913,"Ġê°Ģê²©":2914,"ìĿ´íĺķ":2915,"Ġìĵ¸":2916,"ìłľë¡ľ":2917,"ĠìķłëĭĪ":2918,"êµĲë":2919,"ìĽł":2920,"ë²ł":2921,"ĠëķĮë":2922,"ĠìĿ´ê¸°":2923,"ĠíĭĢ":2924,"Ġëľ¨":2925,"²¨":2926,"ìķĦê°Ģ":2927,"Ġë²ķ":2928,"íı¼":2929,"ìº¬ë£¨":2930,"ê°¤ëŁ¬ë":2931,"ĠíĻķìłķ":2932,"Įëį°":2933,"íħĲì¸ł":2934,"ì§Ħëĭ¤":2935,"ĠìĹĨëĬĶëį°":2936,"ł¤ëĬĶëį°":2937,"ìŀī":2938,"ìĻĶëĬĶëį°":2939,"ìĹŃìĭľ":2940,"ê±¸ë¡ľ":2941,"Ġì¹ĺë":2942,"ĠA":2943,"ëĭĮ":2944,"íĬ¼":2945,"ì°¬ë":2946,"Ġì£Ħ":2947,"ëĭ¤ëĵ¤":2948,"íķ´ì¤ĺ":2949,"ìĽĲëŀĺ":2950,"ê·¸ëŁ¬":2951,"ĠëĪĪë":2952,"ĦĪë":2953,"ê°Ļëĭ¤":2954,"ê·¸ë£¹":2955,"ĠìĺĪìĥģ":2956,"ìĿ´ê²ľ":2957,"ìĺ¤ëĬĺìĿĢ":2958,"Ġì¤ĳìĹĲ":2959,"Ġìļ´ëıĻ":2960,"ĠíķĺëĥĲ":2961,"ë³ĳìĭł":2962,"ìĿ´ëĦĪ":2963,"Ġê°Īë":2964,"22":2965,"¡Ń":2966,"ê²¹":2967,"ëħĦëĵ¤":2968,"Ġ40":2969,"íİľ":2970,"íĸĪìľ¼ë©´":2971,"Ġì¢Ĩê°ĻìĿĢ":2972,"©°":2973,"íĦ¸":2974,"Ġë¬´ê¸°":2975,"¥´ê³ł":2976,"ì¹´ëĵľ":2977,"ħģ":2978,"ĠìĹ¼":2979,"ìķ¼ëĲĺ":2980,"ĠìŀĪëĦ¤":2981,"íĮģ":2982,"Ġê°ľê¿Ģ":2983,"ëĵ¤ìĿ´":2984,"ìĶ¨ìłł":2985,"ë©Ķë":2986,"íķĺëĭĪ":2987,"ĲëĶ°":2988,"ĠìķĪëĲ¨":2989,"ĠìĦłìĪĺ":2990,"Ġt":2991,"ĠëĤłë":2992,"Ġãħľ":2993,"ìŀ¥ìĿ´":2994,"ĠìŀĪìĸ´":2995,"ĠìĤ¬ëĿ¼":2996,"ĠìĦ±ê³µ":2997,"Ġìĭ¤íĻĶëĥĲ":2998,"ì§ĢëŀĦ":2999,"ê¹¨ë":3000,"Ġê·ĢìĹ½":3001,"ìĭľìŀĳ":3002,"Ġì§Ģì§Ģ":3003,"ë²Ķ":3004,"ëĨĪ":3005,"ì¸łë":3006,"êµ´ë":3007,"ĠìºĲ":3008,"ê±´ê°Ģ":3009,"±ħ":3010,"Ħ£":3011,"ìĿ´íĶĦ":3012,"ĠìĬ¤íĤ¬":3013,"ìŀĲë§Ī":3014,"ì¦ĪìĽĲ":3015,"Ġì¤ĳìļĶ":3016,"Ġëħ¸ë¬´":3017,"ìħĢ":3018,"Ġìĸ´ì©":3019,"Ġìĭłê¸°":3020,"Ġì§Īë¬¸ì¢Ģ":3021,"µľë":3022,"ĠĠ":3023,"ìķĦëĬĶ":3024,"ĠìĻķ":3025,"ĠëĤĺëıĦ":3026,"íĨ¤":3027,"ìĺģë³µ":3028,"Ġê±°ìĿĺ":3029,"ëİĥ":3030,"°ĺë":3031,"įķ":3032,"íķĺëŁ¬":3033,"ë°©ìĨ¡":3034,"ĠP":3035,"ìķĦìĿ´ë":3036,"Ġì°¨ë":3037,"ê·¸ëŁ¼":3038,"ìĽĮìĦľ":3039,"Ġì°¨ìĿ´":3040,"ìŁĿ":3041,"Ġë¸Įë":3042,"íķ´ì£¼":3043,"ĠìĹ°ë":3044,"Ġìĺ¤ëĬ":3045,"Ġë¶Ħë":3046,"¹µ":3047,"ìĿ´ê¸Ķ":3048,"ê¸°ìĤ¬":3049,"Ġë²Įìį¨":3050,"Ġë¹ĦìĬ·":3051,"Ġë´Ĭ":3052,"Ľ°":3053,"Ġíĥĳ":3054,"Ġì½ľë":3055,"ìĽĥê¸°ëĦ¤":3056,"ãħİãħİ":3057,"Ġë³µê·Ģ":3058,"ĠìĿ´ìģĺ":3059,"íĮ©íĬ¸":3060,"ĳ¥":3061,"ìķĦë³´":3062,"ìŀĲë¦¬":3063,"ĠíĤ¹":3064,"§¨":3065,"ëĭ¤ë¦¬":3066,"ì¹¸":3067,"????????":3068,"ì²łêµ¬":3069,"ìŀĪëĭ¤":3070,"ĠíĹ¤":3071,"ea":3072,"ìķĺëĦ¤":3073,"ĠìĦľë²Ħ":3074,"²Īë":3075,"ìŀĲëĬĶ":3076,"ì¶Ķì²ľ":3077,"ìķłë¯¸":3078,"25":3079,"ìĿ´íģ¬":3080,"ìĬ¤íģ¬":3081,"Ġì¤Ģ":3082,"Ġëĸ³":3083,"ìĸ¸ëĥĲëĵ¤":3084,"Ġm":3085,"Ġê°Ķ":3086,"Ġì§¤ë":3087,"ìĭľê°Ħë":3088,"ĠìľłíĬľë¸Į":3089,"ê³łëĭī":3090,"Ġê¸¸ë":3091,"¬ëĵ¤":3092,"Ġì¢ĭëĭ¤":3093,"ĠìĪĺì¤Ģ":3094,"ĠìĭŃ":3095,"íĺĦë":3096,"Ġìķłë¯¸":3097,"ĠíĭĢëĵľ":3098,"ĲëĦ¤":3099,"Ġì°Ĳ":3100,"ìĺģìĿ´":3101,"Ġê³µë¶Ģ":3102,"ëŃĲìķ¼":3103,"Ġì«":3104,"Ġì¡¸":3105,"ì¢ĭìĿĢ":3106,"ìķķ":3107,"Ġë¹ĦêµĲ":3108,"ĥĲê³ł":3109,"Ġìħ":3110,"ĠìĿ½":3111,"ëª¬":3112,"Ġê³łë¯¼":3113,"ìľĦì¹ĺ":3114,"ê²¼ë":3115,"íĥŃ":3116,"ìĥģìĭĿ":3117,"ĠëĶľ":3118,"íģ¬ë¡ľ":3119,"Ġíĸīë³µ":3120,"ëĿ":3121,"Ġ19":3122,"Ġê´ĳê³ł":3123,"))":3124,"ģĿ":3125,"ĠìĹĶ":3126,"ì¡Įë":3127,"Ġëĭ¤ëĵ¤":3128,"ìŀĲë§ĪìŀĲ":3129,"ĮĢì²´":3130,"ëŁ¬":3131,"ìĹĪëĥĲ":3132,"ìĹĲìĦł":3133,"ĠëĭĪëĵ¤":3134,"ĠìĬ¤íĥĢ":3135,"Ġíı°":3136,"ì¨":3137,"ìĿ¸ì¤Ħ":3138,"ìĽĲìĿ´":3139,"ëłĪë":3140,"ãħį":3141,"ìĭ¸ë":3142,"ìĽ¹":3143,"ë°ľë":3144,"ĠëĬ¥":3145,"Ġëĭ´":3146,"ìĿ¼ëŁ¬":3147,"ê°¤ëŁ¬":3148,"ĠëĵľëĶĶìĸ´":3149,"ķĲ":3150,"Ġìľłì§Ħ":3151,"ĠìłĦë¶Ģ":3152,"ĠãĦ·":3153,"ĠìłĪëĮĢ":3154,"ê¸°ìķĪ":3155,"íĥ±":3156,"ê³Ħìłķ":3157,"Ġì»´":3158,"ë²Į":3159,"Īë²¨":3160,"__":3161,"ŀĮë":3162,"Ġìĸ´ëł¤":3163,"Ġì¢ĭìĿĢê±°":3164,"ĠíĶĮ":3165,"Ġíķľëĭ¤":3166,"íķłëĵ¯":3167,"Ġì°¨ëĭ¨":3168,"ãħ£":3169,"Ġë¹¨ë":3170,"ĠëĶ¸":3171,"ê³łìĭ¶ìĸ´":3172,"on":3173,"ê²ĮìĿ´":3174,"íĺĦìĭĿ":3175,"ĠëķĮë¬¸ìĹĲ":3176,"¼ëŀĢ":3177,"¬ëĦ¤":3178,"¦¬ìķĦ":3179,"íĵ":3180,"¨ë²Ķ":3181,"ìŀĪìĸ´":3182,"ĠëĨĪëĵ¤":3183,"ìķĺìĿĮ":3184,"ĠìķĦëĭĪë©´":3185,"Ġë°ĽìķĦ":3186,"ĠìĥģíĻ©":3187,"ĠëłĪìĿ´ëĵľ":3188,"ĠëĲĺëĬĶ":3189,"łĪëĤĺ":3190,"ìĹ°ë":3191,"ìĿ´ê±´":3192,"ë§¤ë":3193,"ìĭľìķĦ":3194,"ĠìĨĮë¦¬":3195,"Ġìĵ°ëłĪê¸°":3196,"Ġìķłë¯¸ë":3197,"ìĺĢëĬĶëį°":3198,"ĠëĤĺìĺ¤ëĬĶ":3199,"ìĦľìļ¸":3200,"ì°¾":3201,"Ġë³´ìĥģ":3202,"ê²łëĬĶëį°":3203,"íĨµëł¹":3204,"íķĺëĭ¤ê°Ģ":3205,"ìĺ¬íķ´":3206,"ĠìĥĢ":3207,"ê»ĺ":3208,"Ġíļ¨":3209,"ìĺĢìĿĮ":3210,"Ġë§¨ëĤł":3211,"Ġë°°ë":3212,"ì½ľë":3213,"ĠìĽĢ":3214,"ìļ°ë©´":3215,"Ġë´¤ëĬĶëį°":3216,"íļį":3217,"ë¥ĺ":3218,"Ġë§ĺ":3219,"íķ´ë³´":3220,"ì¼ĢìĿ´":3221,"ĠìĹ¬ìŀĲë":3222,"ĵ¬":3223,"ĠëĴ·":3224,"ëĭŃ":3225,"ìĹ¬ì¹ľ":3226,"Ġë³´ìĹ¬":3227,"ĠëĮĢëĭ¨":3228,"Ġëª¨ìĿĮ":3229,"ëŃĶ":3230,"ĠíĪ":3231,"Ġì§Ħìĭ¬":3232,"Ġê¸°ìĤ¬":3233,"¦Ħë":3234,"ê·¸ë¡ľ":3235,"Ġê¹Ģë":3236,"Ġì½ĺ":3237,"Ġë²Ħê·¸":3238,"íĥĪë":3239,"ìĿ´ëŀĢ":3240,"¦¬ì§Ģ":3241,"ì¤ĺë":3242,"^^":3243,"¯¼ë":3244,"Ķ¸":3245,"ìĸ´ë¡ľ":3246,"Ġê¸°ì¤Ģ":3247,"ìĺ¨ëĭ¤":3248,"ĠìĦłíĥĿ":3249,"Ġíķµ":3250,"Ġì§ķ":3251,"ì¡ĮëĦ¤":3252,"ìĶ¨ë":3253,"Ġë§İìĿĢ":3254,"ĠãħĨãħħãħĮãħĬ":3255,"ìĿ´ë²¤íĬ¸":3256,"Ġíĭ°ë":3257,"ĠãĦ·ãĦ·ãĦ·":3258,"Ġê²°íĺ¼":3259,"ê´ĳê³ł":3260,"ìĸ´ëĿ¼":3261,"ìĥĪëģ¼ë":3262,"Ġìĸ¸ê¸ī":3263,"ë¸Įë":3264,"ĠìĿµ":3265,"ĠìĿ¸ìĬ¤íĥĢ":3266,"Ġê¸°ìĸµ":3267,"ìĹĺë§Ī":3268,"ìĸĺ":3269,"ìĵ°ëĬĶ":3270,"ŀį":3271,"ìĿ´ìĹĲ":3272,"Ġê°Ģìł¸":3273,"ĠãĦ±ãħĬ":3274,"ëĤĺìļĶ":3275,"ë²łë":3276,"ìľ¼ë¡ľë":3277,"Ġê²°êµŃ":3278,"##":3279,"ëĪĦê°Ģ":3280,"Ġíĺ¼ìŀĲ":3281,"£Įë":3282,"³¸ë":3283,"ìļ´ëį°":3284,"ìĿ¼ê¹Į":3285,"Ġ200":3286,"Ġê´Ģëł¨":3287,"ĠëĿ¼ìĿ¸":3288,"íĺ¹ìĭľ":3289,"ĵľê°Ģ":3290,"Ġìĸ»":3291,"Ġë³Ħë":3292,"íĮĲë":3293,"ìĹĨëĥĲ":3294,"ê°¤ëŁ¬ë¦¬":3295,"Ġë¶ĪìĮį":3296,"êº¼ë":3297,"ê»´":3298,"ìĹĦ":3299,"ĠìĿ´ê±´":3300,"§Įíķ¨":3301,"³ĳìĭł":3302,"40":3303,"ıĪ":3304,"íķĺë£¨":3305,"ìĪĺëĬĶ":3306,"Ġê°Ļëĭ¤":3307,"ĠìĨĮë°Ķ":3308,"Ġê·¸ëŁ¼":3309,"Ġì¤ĳêµŃ":3310,"Ġê³łìĨĮ":3311,"ĠìķĬìĿĮ":3312,"Ġê³Ħìłķ":3313,"ìĺĢëĦ¤":3314,"íĥĲ":3315,"íķ´ìķ¼ì§Ģ":3316,"ìĹĪìĸ´":3317,"íķĻêµĲ":3318,"Ġëĳĺëĭ¤":3319,"ĠìĿ´ë²¤":3320,"ĠíĥĪë":3321,"ĠíĮ¨ì¹ĺ":3322,"Ġëĸ¡ìĥģ":3323,"ŀľ":3324,"ìĿ´ëĵľë":3325,"íĶ¼ìħľ":3326,"²łë":3327,"ìł¤":3328,"ĠëĤĺëĬĶ":3329,"ê°¤ìĿĢ":3330,"ĠìĿ¸ìłķ":3331,"Ġëĸ´ë":3332,"íĪ°":3333,"ìİ":3334,"Ġëī´":3335,"ĠìķĦëĭĪê³ł":3336,"ĠëĶ°ëĿ¼":3337,"íķĢ":3338,"íķľê±´":3339,"ëĤ¬":3340,"ĠìĥĪë¡ľ":3341,"Ġë¨¸ìŀĦ":3342,"§Ĳê³ł":3343,"Ġê±´ë":3344,"ë¡ľìķĦ":3345,"Ġëį±":3346,"Ġ<":3347,"ìĭľê¸Ķ":3348,"ãħĭãħĭãħĭãħĭãħĭãħĭãħĭãħĭãħĭãħĭ":3349,"Ġìĸµ":3350,"íħį":3351,"Ġë¬¼ìĸ´ë":3352,"ìĺ¹":3353,"ìĺ¤ìĬ¤":3354,"ê¾¼":3355,"»Ķ":3356,"Ġìĭľë°ľë":3357,"ĠìĦłë°ľ":3358,"ìĺ¤ëĬĺë":3359,"»Ĳ":3360,"ëĿ½":3361,"ìĤ¬ê¸°":3362,"ëĭĪëĦ¤":3363,"Ġì¶Ķê°Ģ":3364,"Ġë©´":3365,"ľìĹĲ":3366,"ìĿĢìĻĶ":3367,"ê¸°ëıĦ":3368,"Ġëĭ®":3369,"ëĵ¤ìĿĢ":3370,"ĠëıĦìĻĢ":3371,"ĠìĻ¸ë":3372,"ì£¼ìĿĺ":3373,"ì§Ħì§Ģíķĺê²Į":3374,"ìķĺëĥĲ":3375,"Ġê°Ħëĭ¤":3376,"°°ë":3377,"ĶëĶ©":3378,"íıĲ":3379,"ĲĺëĤĺ":3380,"ìĥĪëģ¼ëĵ¤ìķĦ":3381,"ĠìºĲë¦ŃíĦ°":3382,"Ġêº¼":3383,"PG":3384,"..?":3385,"ìĻĢìĿ´ìĬ¤":3386,"Ġêµ°":3387,"Ġì£¼ìĭĿ":3388,"Ġì§ģìĹħ":3389,"°Ģ":3390,"ĠìĻľë":3391,"¦¬ëıĦ":3392,"ĠìĻĢê¾¸":3393,"Ġ70":3394,"ìĿ¸ìĿĢ":3395,"Ġìłķìĭłë":3396,"ìĹĨìĸ´":3397,"ĠìĤ¬ëŀĮìĿ´":3398,"Ġê²°ê³¼":3399,"ĠìĿĢê·¼":3400,"2008":3401,"ĥī":3402,"Ġìĸ´ëłµ":3403,"Ġë©ĶìĿ´":3404,"----":3405,"23":3406,"ëĬĶì¤ĳ":3407,"ìĹ´ë":3408,"ìĿ´ê¸°":3409,"ìĸĺëĵ¤ìķĦ":3410,"ìŀĪìľ¼ë©´":3411,"ĠìķĮê³ł":3412,"ì°¬ìĿ´":3413,"Ĥ¸":3414,"Ġëº":3415,"ê²¨ë":3416,"ìĸĺê¸°":3417,"´ëĭ¹":3418,"ìĭ¬íŀĪ":3419,"ìĿ´ë¡ľ":3420,"ë§İ":3421,"ê°ĻìķĦ":3422,"íĳ¸":3423,"ĠìĦ±ëĬ¥":3424,"ê¿Ī":3425,"Ġì¡´ë²Ħ":3426,"ê±°ëĤĺ":3427,"ĠëłĪë":3428,"ìĽ¨":3429,"ìĪŃ":3430,"ì½©":3431,"íĳľë":3432,"ĠìķĦë¬´":3433,"ĲĲ":3434,"ìłĲë":3435,"ì§Ģê²Į":3436,"ĠìĥĿê°ģë³´ëĭ¤":3437,"ëĶĶë":3438,"ĠëĶĶìĭľ":3439,"Ġì¥¬":3440,"100":3441,"ĠV":3442,"ĪëĤĺë":3443,"íķĺëįĺ":3444,"ìĭłìĿ´":3445,"ìķĦë¬´ë":3446,"Ġíľ´":3447,"er":3448,"ĠëĩĮ":3449,"ë¶ķìĿ´ëĵ¤":3450,"ê½ĥ":3451,"Ġìį°":3452,"ê·¸ë¦¼":3453,"Ħë¦¬":3454,"ìķĦê¹Į":3455,"Ġê³¨ë":3456,"Ġë§ŀëĥĲ":3457,"ì²´ê°Ģ":3458,"Ġìķłëĵ¤ìĿĢ":3459,"Ġì°ľ":3460,"Ġìķļ":3461,"ĵ¤ìĸ´":3462,"¦¬ì¦Ī":3463,"Ġê°Ĳëıħ":3464,"ìĥ·":3465,"ìĿ¸ìĥĿ":3466,"Ġìľ¤":3467,"¦°ê±°":3468,"Ġì²łêµ¬":3469,"Ġìİ":3470,"ĠìĿ´ìĥĪëģ¼":3471,"Ġëĭī":3472,"ì°°":3473,"ì£¼ëĦ¤":3474,"ëĤĺë§Į":3475,"Ġìĺµ":3476,"60":3477,"±ìłķ":3478,"ëĲ¨":3479,"ĵ¤ìķĦ":3480,"íķĺëĬĶê±´":3481,"Ġìĸ´ëķĮ":3482,"ê°ĢëĿ¼":3483,"Ġê°¤ì£¼":3484,"ãħ¡ãħ¡ãħ¡ãħ¡ãħ¡ãħ¡ãħ¡ãħ¡":3485,"ë¸Ķ":3486,"ĠìĦ¹ìĬ¤":3487,"Ŀ¼ë³´":3488,"íķłê±°":3489,"Ġë®":3490,"ì§Īë¬¸":3491,"ìĥĪëģ¼ëĵ¤ìĿĢ":3492,"Ġìĥī":3493,"¥´ëĦ¤":3494,"ìĿ´ê¸´":3495,"ê³łë":3496,"ìĪĺëĵ¤":3497,"ìĿĦê±°":3498,"ë¹ł":3499,"ìĹī":3500,"ìĦ±ìĿĢ":3501,"ì£¼ëĥĲ":3502,"Ġë§ĪìĿĮ":3503,"Ġíķĳ":3504,"íĹĲ":3505,"ĠìĤŃìłľ":3506,"íķĮ":3507,"Ġì¡°íķ©":3508,"ê³¼ê¸Ī":3509,"ê¸°ë¡ľ":3510,"Ŀ¼ë¦¬":3511,"ĠìĽĶë":3512,"ìĹĨëĭ¤":3513,"ìķłëĭĪ":3514,"ë£¡":3515,"ìĻĶëĦ¤":3516,"Ġë³´ëĭĪ":3517,"Ġë¹Įë":3518,"ìļ´ëıĻ":3519,"Ġìłķë§Ĳ":3520,"ìķłëĵ¤ìĿĢ":3521,"ë¬¼ë":3522,"ìĹĪëįĺ":3523,"ì¤Ħë":3524,"ë§¥":3525,"Ġì¢Į":3526,"Ġíķľëªħ":3527,"Ġë©ĭ":3528,"Ġìī½":3529,"ì§ľë¦¬":3530,"ĠM":3531,"ë§¨":3532,"Ġê³µì§Ģ":3533,"ìĦ¤X":3534,"Ġë¿Įë":3535,"ĠìĹ¼ë³´ìĦ±":3536,"ĠìĬ¤ë°į":3537,"ëĪĪ":3538,"ãħĵ":3539,"ìĿ´íĦ°":3540,"ìĿ´ë§Īë":3541,"ĠìĭłìºĲ":3542,"ì¡´ë":3543,"Ġë´Ħ":3544,"Ġì±ħ":3545,"ãĦ´ë":3546,"ìļĶìĥĪ":3547,"Ġë³´ëĬĶëį°":3548,"Ġë¯¸ì¹ľë":3549,"ìĺ¬ëĿ¼":3550,"ĠíħĮë":3551,"³¼ë":3552,"ĠìĥĿìĿ¼":3553,"ìĺ¤ëĬĺìĿĺ":3554,"ê³łìĭ¶ìĿĢëį°":3555,"ìĭłìºĲ":3556,"ĠëĬĺ":3557,"ìĺ¤ëĬĺëıĦ":3558,"ìį°":3559,"ĳìĹĲ":3560,"ëĬĴëĦ¤":3561,"íĥľì§Ħ":3562,"ĠìĽĲíĥĳ":3563,"ŀĲ":3564,"íķ´ìļĶ":3565,"ì¡¸":3566,"ĠíĺĲ":3567,"ì¸Ħ":3568,"ĠíĿ¥":3569,"ë´Ĳ":3570,"Ġë°¤":3571,"ĠìĥĪë²½":3572,"ìĬ¤ë°į":3573,"ëĮĢë¡ľ":3574,"ëŀµ":3575,"íıīê°Ģ":3576,"Ġf":3577,"¥´ë©´":3578,"ĠíĴį":3579,"ĠìķĦìĿ´ëıĮ":3580,"´ë°°":3581,"ĠìļĶë":3582,"Ġì¢ĭìĿĢëį°":3583,"ĠãħħãħĮãħĬ":3584,"ìĿ¼ëĭ¨":3585,"ìłĢê±°":3586,"Ġãħĭãħĭãħĭãħĭãħĭãħĭãħĭãħĭãħĭãħĭãħĭ":3587,"ìĿ´ëĭĿ":3588,"ë¨¸ë¦¬":3589,"į¸":3590,"ìĬ¤íħ":3591,"Ġ60":3592,"ìł¸ìĦľ":3593,"ŀŃ":3594,"ìĹĲìĦľëıĦ":3595,"ìĺģìĽħ":3596,"Ġë´ĲëıĦ":3597,"Ġë³ĳìĭłëĵ¤":3598,"ĠëĮ":3599,"ì§Ģë§ĪëĿ¼":3600,"ĠìĻĦë":3601,"ĠíĥĿ":3602,"ëĵľ":3603,"Ġë³´ëĭ¤":3604,"ãħĩãħĪ":3605,"ĵľëĦ¤":3606,"Ġì¹´ëĵľ":3607,"Ġb":3608,"ê²Ģë":3609,"ĠìĽĥê¸°ëĦ¤":3610,"ë´":3611,"ìķĪëĤĺ":3612,"ĠìŀĪì§Ģ":3613,"ĠìĹĨìľ¼ë©´":3614,"§Įëĵ¤":3615,"Ĥĺë©´":3616,"ĠìĹŃëĮĢ":3617,"ĠìķĦëĭĮëį°":3618,"ë£¨ë":3619,"íĺĳ":3620,"ê³µì§Ģ":3621,"Ġë§Įëĵł":3622,"§Įíģ¼":3623,"¨¸ë¦¬":3624,"ĠìĺģíĻĶ":3625,"ĠìĻĶëĭ¤":3626,"Ġê·¸ëłĩ":3627,"ĠìłķëıĦë":3628,"ĠìĿ´ëŁ°ê±°":3629,"ì§ĢëĥĲ":3630,"ì¹ĺê°Ģ":3631,"ĠìĿ¸íĦ°ë":3632,"íĹĮ":3633,"Ġìĥģê´Ģ":3634,"ê²Łëĭ¤":3635,"Ġl":3636,"ìĿ´ë²¤":3637,"íĸĪëįĺ":3638,"Ġìĸ´ëĸ¡":3639,"21":3640,"ĵ£":3641,"Ķ´":3642,"ìĿį":3643,"ë°ĸìĹĲ":3644,"ĠìĦľìļ¸":3645,"ìĭľìłĪ":3646,"Ġê·¸ë¦¬":3647,"Ġëĵ¤ê³ł":3648,"ĤĺëĬĶ":3649,"ĠãħĪë":3650,"JPG":3651,"¿Ĳ":3652,"ìĶ¨ë°ľë":3653,"íĬ¸ê°Ģ":3654,"ĠìĬĪ":3655,"ĠìĨĶ":3656,"íĹ¨":3657,"³´ëĵľ":3658,"ìĤ¼ìĦ±":3659,"ê°Ģì¶ķ":3660,"ì£¼ëĭ¹":3661,"Ġê°Ģë©´":3662,"Ġê°ľì¶Ķ":3663,"íĸĪìĸ´":3664,"ë¹ħ":3665,"ĠìŀĺëĤĺ":3666,"Ġë¡¤ë":3667,"Ġê°ĸ":3668,"Ġìłķìĭł":3669,"ì»¬":3670,"ëı¼":3671,"Ġë²łë":3672,"ĥĪ":3673,"ê°ĢëĦ¤":3674,"Ġëĭ¤ìĭľë":3675,"ìĸ´ë³´":3676,"Ġì¢ĭëĦ¤":3677,"Ŀ¼ë§Ī":3678,"Ġë°ĺìĿĳ":3679,"íķĺê¸Ķ":3680,"ë³¼":3681,"Ġê³¨":3682,"£¡":3683,"ìĿ¸ê²Į":3684,"Ġë³´íĨµ":3685,"ł¸ëĭ¤":3686,"Ġì»·":3687,"ëĤ¨ìŀĲ":3688,"ĠíĻķë¥ł":3689,"ë©°":3690,"Ġì¢ĥ":3691,"ĠìĹĨì§Ģ":3692,"ãħĳ":3693,"Ġìĭľì²Ń":3694,"ìĥĪëģ¼ê°Ģ":3695,"ìĥĿê°ģíķ´ë":3696,"©ĶëĿ¼":3697,"³´ëĭ¨":3698,"ĪĪëĤĺ":3699,"łëĥĲ":3700,"ìĤ°ë":3701,"ëį°ìĿ´íĬ¸":3702,"ĠìłķëıĦ":3703,"Ġë¶Ģíĥģ":3704,"íķĺì§ĢìķĬ":3705,"Ġd":3706,"ľ¸":3707,"Ġìµľë":3708,"íķĦë":3709,"ì¹¨ë":3710,"ĠëģĿëĤĺ":3711,"íĵ¨":3712,"Ł´":3713,"Ġë§¥":3714,"ëĭĪê°Ģ":3715,"íĤ¤ì§Ģ":3716,"Ġë°©ê¸Ī":3717,"ĠìķĮë°Ķ":3718,"ĠìĽĥê¸°":3719,"70":3720,"ê²ģ":3721,"ĠìĿĮë":3722,"íĤ¬ë":3723,"Ġëĸłë":3724,"ĠìĻĦìłĦ":3725,"ĠíķĦë":3726,"Ġê°Ģì±ł":3727,"........":3728,"Ġv":3729,"ìĹ¼ë³´ìĦ±":3730,"íŀĺ":3731,"¯¼ìĿ´":3732,"Ġëĵ¯":3733,"ĠëĤľë":3734,"ĠëĤĺìĻĢ":3735,"Ġìľ¡":3736,"Ġë¨¹ê³ł":3737,"Ġì±Ļ":3738,"Ġíķĺê³łìĭ¶":3739,"@@@@":3740,"Ġë¸Ķ":3741,"Ġë°Ģë":3742,"ħãħħ":3743,"ĠìĬ¤íĤ¨":3744,"ĠìłĲê²Ģ":3745,"¡¯ëį°":3746,"ĠìĿ´ìķ¼":3747,"íķ´ìķ¼ë":3748,"Ġë¬´ìĦľ":3749,"ĠìĻľìĿ´ë¦¬":3750,"ìŃ":3751,"ì©Ķ":3752,"ì¤Įëĵ¤":3753,"ì§Ħê±°":3754,"Ġ25":3755,"Ġìĸ´ìºĲ":3756,"Ġë©ľë":3757,"ĠíĺĦìĭ¤":3758,"Ġì»¨íħĲì¸ł":3759,"Ŀ¼ìĦľ":3760,"ì¹¼":3761,"ĠìĹł":3762,"ĠëĤĺìĺ¤ë":3763,"ê¸´íķ¨":3764,"íĮ¨ì¹ĺ":3765,"ĠìĪľìľĦ":3766,"Ġê·¼ë³¸":3767,"Ĩį":3768,"ł·":3769,"Ġì§Ī":3770,"íŀĮ":3771,"Ġê¼´":3772,"Ġê»":3773,"ìĬ¤íĨłë¦¬":3774,"ìŀ¥ìĹĲìĦľ":3775,"ëª½":3776,"Ġìłķë³´":3777,"Ġë§ĪìĿ´ëĦĪ":3778,"ĠëĬ¦":3779,"ìį¨ë":3780,"Ġëľ¨ë":3781,"ì¡Įëĭ¤":3782,"ĠëĤĺìĺ¬ë":3783,"ĤĺëĿ¼":3784,"ëĳĲë":3785,"ł¨ëĵ¤":3786,"ìŀĲê³ł":3787,"ĠíĮĲë":3788,"ê²łìĸ´":3789,"ëĥ¥":3790,"Ġc":3791,"ħĦë":3792,"łĻ":3793,"ì¹©":3794,"ĠìĹĺ":3795,"ĠëĮĢê¸°":3796,"ìĬ¤ë¡ľ":3797,"ìĬ¤ëŁ¬":3798,"ëł¬":3799,"ìĹ¿":3800,"ëĭĪê¹Ĳ":3801,"ìĿ¸íĬ¸":3802,"Ġãħį":3803,"ì¤ĳìĿ¸ëį°":3804,"Ġãħİãħİ":3805,"Ġë¨¼ìłĢ":3806,"ĠìĿĺë¯¸":3807,"Ġn":3808,"ì½ľ":3809,"Ł¬ê°Ģ":3810,"ì¤Įë§Ī":3811,"or":3812,"íĮ¨ëĵľ":3813,"íķĺëĤĺë":3814,"ìłľê°Ģ":3815,"ĠìĦ¼":3816,"ĠìĪ¨":3817,"ĠìĪĻ":3818,"Ġëª»ìĥĿ":3819,"ìķłì´ĪìĹĲ":3820,"íĴĢë":3821,"ìĿ´ëĿ¼ëĬĶ":3822,"ìĬ¨ë":3823,"Ġëĭ¨ë":3824,"?????":3825,"Ġê¸Ģë":3826,"ĠëĶĶë":3827,"§¥":3828,"ĤĮ":3829,"ĠìķĪëĲĺëĥĲ":3830,"Ł¬ëĥĲ":3831,"ì¹ĺë©´":3832,"ĠëĬĲëĤĢ":3833,"ê¼¬ë§Ī":3834,"¦°ë":3835,"ĠìŁ":3836,"ì¼ľë":3837,"Ġë¯¸êµŃ":3838,"Ġìĭłê³ł":3839,"Ġì¹ľêµ¬ë":3840,"¹łë":3841,"ŀ¨":3842,"ĠìĤĲ":3843,"ìłķë³´":3844,"Ġê°ĢìĬ´":3845,"ìłģìĿ´":3846,"ëĤĺëĦ¤":3847,"ê·Ģë":3848,"Ġì²¨":3849,"Ġëª¸ë":3850,"ì¶ľë":3851,"ëįĶë":3852,"ĠíĭĢëĶ±":3853,"ĵĢ":3854,"ŀĦë":3855,"ĠìĪł":3856,"Ġìĺ¤ëŀĺ":3857,"ĠìĶ¹ëįķ":3858,"ì½ĶëĦ¤":3859,"ëĨĪëĵ¤":3860,"ģĶ":3861,"íĶĦëĿ¼":3862,"´ë°±":3863,"ĪëŁ°":3864,"íĸĪëĥĲ":3865,"Ġì¡¸ë":3866,"ê°¤ìĿ´":3867,"Ġ24":3868,"íķĺëĬĶê±°ìŀĦ":3869,"ĺ¥":3870,"ìĥĪë²½":3871,"ĠìĽħ":3872,"ì½ĶìĿ¸":3873,"Ġìĥģíĸ¥":3874,"Ĵ¤ì§Ħ":3875,"ĠíĻķìĭ¤íŀĪ":3876,"ì¤ĺëĿ¼":3877,"Ĥĺìĺ´":3878,"ĠìĺĪë":3879,"ìĿ¸ëĵ¤":3880,"ĵľë¦½":3881,"ìŀĪëĤĺ":3882,"Īëį°":3883,"ìĤ¬ëŀĮëĵ¤":3884,"Ġëª¨ë¥´ëĬĶ":3885,"ĠìĺĨ":3886,"ĠìłĦìĹĲ":3887,"ī´ë¹":3888,"ĠëĦĺìĸ´":3889,"ĠìłľëĮĢë¡ľ":3890,"ì¤Įë§Īë":3891,"ëł¤":3892,"ê²Ĩ":3893,"Ġìŀ¦":3894,"ĠìĬ¬ë":3895,"íĭ´":3896,"³´ê¸°":3897,"2020":3898,"íĻĢ":3899,"Ġê·¸ëŀĺ":3900,"ê·¸ìĺ¤":3901,"ìłĪë":3902,"Ġë¶ģ":3903,"Ġì¤ĺ":3904,"ëĶ°ë":3905,"ĠëĨĢ":3906,"Ġëħ¸ìŀ¼":3907,"Ġê´Ģìĭ¬":3908,"ĠìĹ´ìĭ¬íŀĪ":3909,"Ġì»¨ìħī":3910,"ìĿ¼ìĿ´":3911,"ìĸ´ëĶĶ":3912,"ĠìĹĨëĤĺ":3913,"Ġëª¨ëĵł":3914,"ĠìķĦëĭĲ":3915,"ê¸°ë§Į":3916,"ë§Ľ":3917,"¦¬ë¡ľ":3918,"íİ«":3919,"ŀ¬":3920,"ê²°ë":3921,"Ġë§ģíģ¬":3922,"ĠìĨĶë":3923,"Ġê³µê²©":3924,"Ġë´ĲëĿ¼":3925,"ìŀ¬ìĿ¸":3926,"ĠìĿ´ìģľ":3927,"Ġë©Ģ":3928,"ĠìķĮìķĺëĬĶëį°":3929,"ìķłë¯¸ë":3930,"ëĮķ":3931,"Ġì¸":3932,"íķĺìĦ¸ìļĶ":3933,"Ġê±±ìłķ":3934,"ĵľë¡ľ":3935,"ĠìķĪë³´":3936,"ãĦ·ãĦ·ãĦ·":3937,"Ġì¢Ĩë§Ŀ":3938,"Ġê°ķíĻĶ":3939,"ìĿĳìķł":3940,"Ġê¿Ī":3941,"íķµ":3942,"ìĬ¤íı¬":3943,"ìĿ¸ê³µ":3944,"ĠëĲĲ":3945,"³´ëĬĶëį°":3946,"ê³łìĭ¶ëĦ¤":3947,"ë¹ĦíĬ¸":3948,"ĠëĿ¼ìĿ´ë¸Į":3949,"ëĭ¤ë¥¸":3950,"ħĲê¸Ģ":3951,"ãħĨ":3952,"ìľĻ":3953,"íģ°":3954,"ĠëĤ´ëł¤":3955,"ìĿ´ëĿ¼ë":3956,"Ġêµ°ëĮĢ":3957,"ĠíĶĦ":3958,"ìĨĮë¦¬ë°Ķëĭ¤":3959,"íĥľê³¤":3960,"Ġê²ĮìĿ´":3961,"ìĿ´ë§Īë¥´":3962,"ŀĢë":3963,"ĠìŀĪëĬĶê±°":3964,"ìĹĨëĬĶëį°":3965,"ĠíĥĦ":3966,"ĠìŀĲìĤ´":3967,"ìķĮë°Ķ":3968,"ê³¨ëĵľ":3969,"ĠëĤ¨ë":3970,"ĠíĮ¬ë":3971,"ĠìĹ¬ì¹ľ":3972,"Ġíķ©ê²©":3973,"ì§ĢëĬĶê±°":3974,"ĠìķĪëĲĺëĬĶ":3975,"ĠìŀĲì£¼":3976,"ëĤĺë©´":3977,"Ġìŀ¬ë°ĭ":3978,"ĠìŀĳëħĦ":3979,"ìĿ´ìķĦ":3980,"ê¹Ķ":3981,"ìķ¼êµ¬":3982,"ìĤ¬ìĿ´":3983,"ìļ°ê³ł":3984,"Ġì¹Ń":3985,"Ġê°ĻìķĦ":3986,"ìĿ´ë²ĪìĹĲ":3987,"Ġì½ĶìĬ¤":3988,"ĠìĹĲíĶ½":3989,"ìĺ¤ëĬĺìŀĲ":3990,"ì½ĶìĬ¤":3991,"ĠíķĺëĤĺëıĦ":3992,"ĠíĪ¬ë":3993,"ìľĦê¸°":3994,"ĠãĦ±ãĦ±":3995,"ĠìĹ¬ê¸°ìĦľ":3996,"ìĹ¼ë":3997,"ãħĭãħĭãħĭãħĭãħĭãħĭãħĭãħĭãħĭãħĭãħĭãħĭ":3998,"ìŀ¥ìĿĢ":3999,"Ġëĭ¤íĸī":4000,"ìłĲê²Ģ":4001,"ìĥĪëģ¼ìķ¼":4002,"Ġíĳ¸":4003,"ĠëŀŃ":4004,"ê³łëĶ©":4005,"ìĿ´ëŀĺ":4006,"ĵľëĿ¼":4007,"ìŀĪì§Ģ":4008,"ëıĮë":4009,"Ġê¸°ëĮĢë":4010,"Ġëľ¬":4011,"ìĺĽëĤł":4012,"ì´Į":4013,"Ġëĸ´ëĭ¤":4014,"ìĸĳìĿ´":4015,"¥¸ë":4016,"ìĸ´ì°¨íĶ¼":4017,"íĬŃ":4018,"ĠìĽĮ":4019,"íĶ¼ìĬ¤":4020,"Ġë§İëĦ¤":4021,"ëĶĶìĭľ":4022,"Ł°ë":4023,"ëĵ¤ìķĦ":4024,"Ġë²Ķ":4025,"ë¹¨ë¦¬":4026,"ì§ĢìķĬìĿĮ":4027,"ê¸°ë¥¼":4028,"Ġíħľ":4029,"ëĦĪë¬´":4030,"ĠíĶ½ìĹħ":4031,"¤ë¹Ħ":4032,"íĮĿ":4033,"Ġë§ĲìĿ´":4034,"Ġë¬´ëĮĢ":4035,"Ġì±ĶìĬ¤":4036,"ëŁī":4037,"ìĺĪë":4038,"ìĬ¤íħľ":4039,"ëĭĪëĬĶ":4040,"Ġë°ĸìĹĲ":4041,"ìĿĦíħĲëį°":4042,"ìĶ¬":4043,"Ġê°¤ëŁ¬ë":4044,"ĠìľłëıĻ":4045,"ì§¤ëħĢ":4046,"08":4047,"Ġ/":4048,"ìķ¼ê²łëĭ¤":4049,"ìķłëĵ¤ìķĦ":4050,"ĠìłĢëłĩê²Į":4051,"¶Ģë¶Ħ":4052,"ëĵĿ":4053,"íĬ¸ëĬĶ":4054,"Ġì¢ĭëĥĲ":4055,"íĥĢìŀĦ":4056,"Ġë³´ê³łìĭ¶ëĭ¤":4057,"ì³¤":4058,"Ġê¸°ë³¸":4059,"ĠëĤ´ëħĦ":4060,"ĠìĮį":4061,"ľ¬":4062,"ìĦ¹ìĬ¤":4063,"ĢëĿ¼":4064,"íĢ¸":4065,"Ġìķ±":4066,"¤ë²Ħ":4067,"ĠìĹ¼ë³´":4068,"ìĿĺìĻ¸ë¡ľ":4069,"ìĹ¬ìŀĲë":4070,"ĠìĽ¹":4071,"ê´´ë":4072,"ìĦłìĪĺ":4073,"ë¹¨":4074,"ĠìķĦë¬´ëıĦ":4075,"¡¬":4076,"ê¹Ŀ":4077,"ê¹ĮìļĶ":4078,"ê²°êµŃ":4079,"ëĭĪìķĦ":4080,"ëĤłë":4081,"ìłķìĿ´":4082,"ĠìĨ¡":4083,"ŀľëĵľ":4084,"Ġìĸ´ëĬĲìłķëıĦ":4085,"§Ĳë":4086,"ģ¼ë":4087,"¨¹ìĿĮ":4088,"Ġì¤Ģë¹Ħ":4089,"ĠìľłíĬľë":4090,"ĠìĹ°ìĬµ":4091,"ì¹ĺëĦ¤":4092,"ł¸ëĦ¤":4093,"ĠN":4094,"íħĶ":4095,"ì¤ĳêµŃ":4096,"Ġê·¼ì²©":4097,"ĠëıĦëĮĢì²´":4098,"ĥĦìĥĪ":4099,"ëªĩ":4100,"ĠëĮĢì¶©":4101,"ì¤ĢìĿ´":4102,"ĠëĦĪëĦ¤":4103,"ĠíĶĦë¦¬":4104,"ì¤Ģë":4105,"ĠëĤĺê°Ģ":4106,"Ġìĸ´ëĶĶë":4107,"ĠìĭľìĥģìĭĿ":4108,"ĠëĶľë":4109,"Ġë§İìĿĮ":4110,"ĠìĥĿê°ģíķ´ë":4111,"ĠìķĦëĥĲ":4112,"ëĶ¸":4113,"Ġëį°ë·Ķ":4114,"ĠãħĤãħħ":4115,"ê¸°ë©´":4116,"ì¹°":4117,"ĠìĦŃ":4118,"~~~":4119,"ĩ¨":4120,"Ġíŀĺ":4121,"ĪëįĶëĭĪ":4122,"ìŀĳëħĦ":4123,"Ġëªĩê°ľ":4124,"Ġëįķ":4125,"Ġì½Ķë¡ľëĤĺ":4126,"Ġì¢Ĩê°ĻëĦ¤":4127,"ìłĸ":4128,"ìĬ¼":4129,"ìĥģìĿ´":4130,"Ġê¸Īë":4131,"ì¡°ìĦł":4132,"Ġë³´ëĤ´":4133,"ì±Ħë":4134,"íķľëĵ¯":4135,"ëŀŃ":4136,"íĻķìĭ¤íŀĪ":4137,"Ġë¡ľìķĦ":4138,"Ġjpg":4139,"¤ëıĦ":4140,"ìĿĦìĪĺ":4141,"ìĺ¤ëŀľë§ĮìĹĲ":4142,"ĠìĥģëĮĢ":4143,"íķ´ìķ¼íķ¨":4144,"ì§ĢìĽĲ":4145,"ê³łë³´ëĭĪ":4146,"ãĦ²":4147,"ì¢Ģë":4148,"ê·¸ëŀĺ":4149,"Ġê³µê°ľ":4150,"íĭ°ìĸ´":4151,"íĳ¸ë":4152,"Ġíı¬ê¸°":4153,"ëįĺíĮĮ":4154,"ĠB":4155,"ĠëĽ°":4156,"Ġìķ¨ë²Ķ":4157,"ì²¨":4158,"ìĸ´ë²Ħë":4159,"ķĮëıĦ":4160,"ĠìĤ¼ìĦ±":4161,"ì¨©":4162,"Ġì§Ħì§ľë":4163,"Ġë§İìķĦ":4164,"ìŀ¬ìķĻ":4165,"íİĺìĿ´":4166,"Ġìķłëĵ¤ìĿ´":4167,"Ł½ëĭ¤":4168,"ê¸°ìĹĲ":4169,"ìĭłê³¡":4170,"Ġì§Ģê¸Īë":4171,"Ġëª»íķĺ":4172,"ĠìĪĺìĺģë³µ":4173,"ĠìľłëĭĪ":4174,"ĠìķĦëĭĪì§Ģ":4175,"ìĿ¸ëĭ¤":4176,"ë³´ëĭĪê¹Į":4177,"íŀĽ":4178,"íĥĢëĬĶ":4179,"ĠìĤ¬ëĬĶ":4180,"ĠìĦ¸ê³Ħ":4181,"ë©ĶìĿ´":4182,"Ġê¾¸":4183,"ìĿĢê²Į":4184,"ìĺ¤ìĺ¤":4185,"¨¹ëĬĶ":4186,"ëħĲ":4187,"Ġë¹ħ":4188,"ìľ¼ë©´ìĦľ":4189,"ww":4190,"ìĬĪë":4191,"ĠíķĺëĬĶê²Į":4192,"Ġë§Įëĵ¤ìĸ´":4193,"ĠìĨĲìłĪ":4194,"íķĺê³łìĭ¶ëĭ¤":4195,"¥¼ë":4196,"ìŀ¦":4197,"Ġê³§":4198,"ãħĭãħĭãħĭãħĭãħĭãħĭãħĭãħĭãħĭãħĭãħĭ":4199,"¦¬ëħ¸":4200,"Ġìłķì§Ģ":4201,"Ġë§ĮëĤĺ":4202,"ĬĶë":4203,"Ġìĭ¹":4204,"ì¡ĭ":4205,"ĠìŀĪìĿĦê¹Į":4206,"ìŀĪëĬĶê±°":4207,"Ġë¬´ìĦŃ":4208,"ì£¼ëĶ±":4209,"ìĵ¸":4210,"ĠìĪĺë¹Ħ":4211,"ac":4212,"Ĥĺê°Ģ":4213,"Ġìĸ´ëĶ":4214,"Ġì¹¼":4215,"ìļ°ë¦¬ë":4216,"ìĿ¸ê°ĢìļĶ":4217,"Ĥ´ëĬĶ":4218,"ł¸ëĬĶëį°":4219,"ìĵ°ë©´":4220,"ê³¨ë":4221,"ĠìŀĶ":4222,"Ġê·¸ëŀĺìĦľ":4223,"Ġë¹µ":4224,"Ġìłķì¹ĺ":4225,"Ġì§ĢìĽĲ":4226,"Ġìŀ¬ë°Įë":4227,"ĠíķŃìĥģ":4228,"24":4229,"ķĮê¹Įì§Ģ":4230,"ĠëıĪë":4231,"ìłĲìĿ´":4232,"³¼ê¹Į":4233,"ëĭ¤ëĭĪìĹĺ":4234,"ìĿ´ë¦Ħ":4235,"ìĿ´ëĬĶëį°":4236,"ê·¸ëŁ°":4237,"ĠìĬ¤íı¬":4238,"Ġê´´ë":4239,"íĺĦìĿ´":4240,"ĠìĽĥê¸´":4241,"Ġìŀĳê°Ģ":4242,"Ġìĵ°ë©´":4243,"ĠìĹħëį°ìĿ´íĬ¸":4244,"ĠíĢĺ":4245,"ĦĮ":4246,"ìĿ´ìĿ´":4247,"íķ´ì¤Į":4248,"ê°Ħì§Ī":4249,"êµ¬ë¦¬":4250,"Ġãħĭãħĭãħĭãħĭãħĭãħĭãħĭãħĭãħĭãħĭãħĭãħĭ":4251,"ħĦìķĦ":4252,"ìĹĲìĿ´":4253,"ìĹĲíĶ½":4254,"ĠìĤ¬ìĿ´":4255,"íĺķëĭĺëĵ¤":4256,"ëĦĺ":4257,"ë¬´ê¸°":4258,"ëĵľëĶĶìĸ´":4259,"Ġê¼¬ë§Ī":4260,"ìĸ´ëĬĶ":4261,"Ġê³µëŀµ":4262,"ë²Ħë":4263,"íĥĪìĽĮ":4264,"íķľíħĮë":4265,"ìĭľëĭ¤":4266,"Ġë³´ì§Ģ":4267,"Ġê°ľìĿ¸":4268,"ĠíĹ¤ë":4269,"Ġìĭ¶ìĿĢëį°":4270,"Ġìķ¼êµ¬":4271,"ĠìĿ´ë²ĪìĹĲ":4272,"ìķ°ëĵ¤":4273,"Ġë§ĺìĹĲ":4274,"ĠK":4275,"ê°ĢíħĮ":4276,"Ŀ¼ê°Ģ":4277,"ĠìķĦìĺĪ":4278,"ìŀ¥ìĹĲ":4279,"ëĤĺìĦľ":4280,"ì¢ĭìĿĮ":4281,"Ġëĵ¤ìĸ´ê°Ģ":4282,"ĠìĹħëİĥ":4283,"ìĻĢëĿ¼":4284,"Ġíĩ´ê·¼":4285,"Ġãħľãħľ":4286,"][":4287,"¼ëĭ¤":4288,"¦¬ëĬĶê±°":4289,"ìĥĺìĬ¨":4290,"ĠìĺĽëĤł":4291,"íķĺëįĶëĿ¼":4292,"Ġë¨¹ëĬĶ":4293,"ĠëĨĵ":4294,"ĠìĿ¼ë°ĺ":4295,"ĠìµľëĮĢ":4296,"ĠF":4297,"ĩ´ë":4298,"ê·ľë":4299,"íķĺëįĺëį°":4300,"Ĥĺë§Ī":4301,"íĶĦëłĪ":4302,"Ġê²Ģìĥī":4303,"ëĭĺë":4304,"ìĹĪëħ¸":4305,"ĠìĹĨìĸ´ìĦľ":4306,"ëģĿ":4307,"Ġì¦Ĳ":4308,"ìĹĦë§Ī":4309,"Ġëª°":4310,"ìłĢëĬĶ":4311,"Ł¬ë©´":4312,"Ġë¬¸ê²½ì°¬":4313,"íķĺì§Ģë§Ī":4314,"ĠíĿ¬":4315,"ìŀĩìĿĮ":4316,"¶Ħëĵ¤":4317,"Ġk":4318,"ìĿ´ëĵł":4319,"ê·ĢìĹ¬":4320,"Ġë¹łëĬĶ":4321,"ĮíĹ¨":4322,"ĸ¼":4323,"¬´ê¸°":4324,"ĠëĤĺìĺ¤ëĦ¤":4325,"êµ¬ë§Į":4326,"ìļ´ê±°":4327,"ĠëģĬ":4328,"Ġíĺ¸ê°Ĳ":4329,"ê·¼ë³¸":4330,"ĠìĦ¤ëªħ":4331,"an":4332,"²½":4333,"¹Ļ":4334,"Ġê·¸ëŁ¬":4335,"ìĽĲìĺģ":4336,"ìļ°ê°Ģ":4337,"·°ì§Ģ":4338,"Ġìĸ´ì©Į":4339,"ĠìĽĢì§¤":4340,"80":4341,"Ġê°ĢëĬĶ":4342,"íİĢ":4343,"ĠëıĮë¦¬":4344,"ìŀħê°¤":4345,"......":4346,"©ìĿ´":4347,"Ġë£¨ë":4348,"íĹ¬ë":4349,"ìıĺ":4350,"ëĭ¤ë©´":4351,"ìĬ¤ì¹´":4352,"Ġê³¡":4353,"ì£¼ìħĪ":4354,"Ġê²¨":4355,"ĵľë¦¼":4356,"ëĦ¤ë":4357,"ĠìķĮìķĦë":4358,"ª¬":4359,"íĬĢ":4360,"Ġíĺľ":4361,"ĠìłĦìĦ¤":4362,"ìĵ°ê³ł":4363,"ĠìłĢëħģ":4364,"Ġê°ĪìķĦ":4365,"Ġe":4366,"ĠëŁ¬":4367,"ê°ĢìĿ´ì¦Ī":4368,"...?":4369,"Ġëª»ë":4370,"ë¬¸ê²½ì°¬":4371,"Ġì°¨íĬ¸":4372,"ĠëĵĢ":4373,"Ġì±ĦíĮħ":4374,"ìĻĦìŀ¥":4375,"Ġëļ«":4376,"ĠìĥĺìĬ¨":4377,"Ġ300":4378,"Ġìĵ´":4379,"???:":4380,"ìĥĪëģ¼ëĵ¤ìĿ´":4381,"ĠãĦ·ãĦ·ãĦ·ãĦ·ãĦ·ãĦ·":4382,"Ġë¬»":4383,"£¸":4384,"íĸĪëħ¸":4385,"Ġë§ŀëĬĶ":4386,"íĺĦìŀ¬":4387,"Ġëª©ìĨĮë¦¬":4388,"ĠìĬ¹ë¦¬":4389,"ĠíķĺëĤĺë§Į":4390,"ê¸°ê³ł":4391,"ĠìĤ¬ìļ©":4392,"ê±¸ê¹Į":4393,"Ġ80":4394,"ĠíĬ¸ëłĪ":4395,"Ġë¯¸ëŀĺ":4396,"¦ī":4397,"²Įë":4398,"ĨĶ":4399,"êµ°ë":4400,"íı´ë":4401,"ìĹ¬ìĦľ":4402,"ê°ľìĽĶ":4403,"íĻĶê°Ģ":4404,"ĠìŀĲëŁ¬":4405,"ĠìłĢëŁ°":4406,"ëłĪìĿ´ëĵľ":4407,"Ġì³Ĳë§ŀ":4408,"Ġì§ľì¦Ŀ":4409,"ª°":4410,"ìķĦìĽĥ":4411,"êµ¬ëĬĶ":4412,"ĠìĶ¨ë":4413,"ì²ľìĽĲ":4414,"Ġìĭłê²½":4415,"ë¯¸êµŃ":4416,"Ġìĭ¤íĮ¨":4417,"ĠìĿĳìĽĲ":4418,"°¤":4419,"Ġìĭ±":4420,"ìĿ¸ê°Ħ":4421,"ĠëĤĻ":4422,"ĠëĤĺìĺ¤ëĥĲ":4423,"ĠíĮģ":4424,"Ġì²´ë":4425,"Ġëħ¸ëŀĺë":4426,"ê¹ħìĿ´":4427,"ĠëĿ¼ìĿ¸ìĹħ":4428,"84":4429,"ìĬ¤íĤ¬":4430,"ìĭľíĤ¤":4431,"ĠìĿ´ëĵĿ":4432,"ĠìĨĲë":4433,"ê°ľìĿ¸":4434,"ëĭĺìĿ´":4435,"ì°¨ìĿ´":4436,"Ġë°Ķê¿Ķ":4437,"ĠO":4438,"ãħī":4439,"íĬ¸ë¦¬":4440,"ìĭ¤ìĭľê°Ħ":4441,"Ġíķ´ìĦľ":4442,"ìķĪëħķ":4443,"ĠìĻĶëĬĶëį°":4444,"Ġë©ľë¡ł":4445,"¦¼ë":4446,"ì§Ħìĭ¬":4447,"ĠìĽĮë":4448,"ĠíıĲ":4449,"ìĺĢìľ¼ë©´":4450,"ëħ¸ëŀĺ":4451,"ĠëĶ°ë¡ľ":4452,"łì§Ģ":4453,"ìŀĪëħ¸":4454,"ìľłíĬľë¸Į":4455,"ĵľëŀĳ":4456,"Ġì¤ĳê³Ħ":4457,"ê²łëĥĲ":4458,"Ġíıīê·ł":4459,"íĸĩëĬĶëį°":4460,"¶Ħë":4461,"ĠìĹ¼ë":4462,"ìĿĺìłĲ":4463,"Ġë¹¼":4464,"Ġ500":4465,"Ġë¹Ħíĭ±":4466,"ĠìľĦíķľ":4467,"ìĪłìĤ¬":4468,"ìĦłë°ľ":4469,"ê°±":4470,"Ġê¶":4471,"íķĺíķĺ":4472,"ìĭľì¼ľ":4473,"Ġê°Ģì§Ģê³ł":4474,"ì¤ĳê³Ħ":4475,"ì¹´íİĺ":4476,"íĹ¤ë":4477,"ìľĦíĦ°":4478,"ìĥĪëģ¼ëĬĶ":4479,"ĠìĿ´ìķ¼ê¸°":4480,"ê°Ŀ":4481,"ê°Ģëĭ¤":4482,"ìĭľìĺ¤":4483,"ëĤ¨ë":4484,"Ġêµ´ë":4485,"ĤĺëĦ¤":4486,"Ġíı¬ë":4487,"³¸ëĭ¤":4488,"ì±Ļ":4489,"ê²ĥê°Ļ":4490,"ìķĪëĲĺ":4491,"Ġê°ĢëĬ¥íķ¨":4492,"ìĹ¬ê¸°ìĦľ":4493,"ëĨį":4494,"íĶĦë¦¬ì¹´":4495,"įľ":4496,"ìķĦì¹¨":4497,"ê¸°ìłĦìĹĲ":4498,"¦¬ë¥¼":4499,"ıĻìĥĿ":4500,"ĠêµĲë":4501,"ĠìŀĺíķĺëĬĶ":4502,"ë§Īê°¤":4503,"Ġëĸł":4504,"ĠìłĢê²©":4505,"Ġìĭ¤ëł¥":4506,"ŁŃìĭľ":4507,"ĠìŃ":4508,"ìĹ¼ë³´":4509,"ê°ĢìĬ´":4510,"ê²ľë":4511,"ìĹĲìļĶ":4512,"ìľĹ":4513,"Ġì§Ħë":4514,"íĮ¬ë":4515,"íķłìĪĺ":4516,"Ġëħ¹":4517,"¦ŃìĬ¤":4518,"Ġëĵľë¦½":4519,"ìĦ¸ëĮĢ":4520,"ĠëıĦë°°":4521,"ĠíĮĮëĶ±":4522,"99":4523,"ĤĢ":4524,"ì§Ń":4525,"íķľê°Ģ":4526,"Ġìļ¸ë":4527,"Ġìĸ´ê·¸ë¡ľ":4528,"Ġìĺ¬ëł¤ë":4529,"ì¹ľêµ¬ë":4530,"Ġìķ¼ì§¤":4531,"ĠìĹŃìĭľ":4532,"Ġëķ¡":4533,"¯¸ê°Ģ":4534,"ì§Ħê°ģ":4535,"Ġê°ĻìĿĢê±°":4536,"ĠëĪĦêµ°":4537,"ìĸ¸ìłľ":4538,"ì¢ħìĿ¼":4539,"Ġìļķë¨¹":4540,"ëĭ¤ìĭľ":4541,"ìĿ´ëįĶ":4542,"Ġê³¨ëĵľ":4543,"Ġê¹Ķ":4544,"ĠëĮĢê°Ģë¦¬":4545,"ê´Ģë":4546,"Ġë°Ķê¾¸":4547,"ê±°ê°Ļëĭ¤":4548,"ĠíĦ¸ë":4549,"Ġê°ĲìĤ¬":4550,"ĠëĳĲê°ľ":4551,"³ìĿ´":4552,"´£":4553,"ĵłë":4554,"ìĿ´ìģ":4555,"ì§Ģì§Ģ":4556,"ìĤĲë":4557,"íķĺëĿ¼ê³ł":4558,"ìŀĲê¾¸":4559,"ìĨĮëħĢ":4560,"¥´ëĥĲ":4561,";;;":4562,"ĳĲë§ģ":4563,"ëĬĲëĤĮ":4564,"ãħĥ":4565,"Ġíķ«":4566,"ìĨ©":4567,"ì£¼ìĭĿ":4568,"ìļ°ìĬ¹":4569,"ĠíķľëĤ¨":4570,"ĠíĬ¸ë¡ľ":4571,"Ġë°ľíĳľ":4572,"ìĸ¼êµ´":4573,"ĠìŀĪë":4574,"Ġìłĸ":4575,"ì°Įë":4576,"ì£¼ìĿ¼":4577,"Ġë³´ìĬ¤":4578,"ìĨĮíĻĺ":4579,"ĠìĪĺìłķ":4580,"ê¹Ģì¹ĺ":4581,"ĠìĦ±ìłģ":4582,"ì½Ķëĵľ":4583,"Ġêµ¬íķ¨":4584,"ĠëŃĶì§Ģ":4585,"ãħľãħĳ":4586,"Ġì¥Ĳ":4587,"Ġê¿Ģìŀ¼":4588,"íĪ¬íĳľìĿ¸ì¦Ŀ":4589,"Ġìłķìĭłë³ĳ":4590,"¹¨ë":4591,"Ĥ«":4592,"ìĪĺìłĢ":4593,"ĠìĥģìľĦ":4594,"Ġìĺ¤ëŀľë§ĮìĹĲ":4595,"ĠìĿ¼ëĭ¨":4596,"ìķĪëĲ¨":4597,"ì«":4598,"Ġg":4599,"ìĿ´ê±¸":4600,"ìĺĨ":4601,"ìĻĦë":4602,"įĺê±°":4603,"ëħ¸íĬ¸":4604,"´¤ëĭ¤":4605,"ĠìĨĮë¦¬ë°Ķëĭ¤":4606,"ĠìĻ¤ìºĲ":4607,"Ġìķ½ê°Ħ":4608,"ĠìĬ¬ìĬ¬":4609,"ĠìĹŃëĮĢê¸ī":4610,"500":4611,"¸Ĳ":4612,"Ġê²ģ":4613,"Ġë¬´ìĭľ":4614,"Ġíķ´ì¤ĺ":4615,"ıĦëĲ¨":4616,"Ġë°ľìŀĳ":4617,"©´ëĲ¨":4618,"==":4619,"ìķ¤":4620,"ë³´ëĭ":4621,"íŀĻ":4622,"ì¹ĺê¸°":4623,"Ġì°ĲëĶ°":4624,"íķľë²Ī":4625,"ľëıĻ":4626,"ìĬ¤íĥĢë":4627,"ĶĶìĺ¤":4628,"ĠìĤ¬ì£¼":4629,"Ġëª»íķĺëĬĶ":4630,"ĠìĶ¹ì°½":4631,"Ġì¶ķíķĺ":4632,"Ġì´Ŀê³µ":4633,"ìķĦì§ģëıĦ":4634,"Ġì§Ģì§Ģìľ¨":4635,"ìĿ´íĶĦì¹ĺ":4636,"ìĿ´ë°į":4637,"ìĪ²":4638,"íĦ°ë¦¬":4639,"ìĹĨì§Ģ":4640,"íĮĮìĿ´":4641,"Ġë§İìĿ´ë":4642,"ĠíĽ¨":4643,"íĻĶë©´":4644,"ĠìŀĲëŀĳ":4645,"ë²Īì§¸":4646,"ĠìłķëıĦë©´":4647,"ar":4648,"¿ì¦Ī":4649,"Ł¼ëĵ¤":4650,"ìĹĪëĤĺ":4651,"ê°ĢëĥĲ":4652,"ìĦ¹":4653,"Ġìķ°":4654,"Ġíĺ¹ìĭľ":4655,"ĠíķĺìŀĲ":4656,"Ġì¡°ìļ©":4657,"Ġãħħãħħ":4658,"ê±°ëĵł":4659,"ĠëĪĦêµ¬ëĥĲ":4660,"ĠãĦ´":4661,"ŀ«":4662,"ĶëĦ¤":4663,"íı¿":4664,"ĠìķĪíķ¨":4665,"ì½±":4666,"Ġãħĭãħĭãħĭãħĭãħĭãħĭãħĭãħĭãħĭãħĭãħĭãħĭãħĭ":4667,"ìķłëĵ¤ìĿ´":4668,"ì¿łíı°":4669,"ħ¸ëŀĺ":4670,"ìŁģìĿ´":4671,"½Ģ":4672,"įĺë":4673,"ìĿ´ëłĩê²Į":4674,"ê¸°ìĹħ":4675,"Ŀ¼ì§Ģ":4676,"ĠìłĪë":4677,"ĠìķĦì¹¨":4678,"ìĺģíĻĶ":4679,"íķľëĤ¨":4680,"Ġë¶ĢíĻľ":4681,"ë³µê·Ģ":4682,"ìºĲë°¥":4683,"ì¶ķíķĺ":4684,"Ġëĭ¹ìĹ°":4685,"ħĦëĵ¤ìķĦ":4686,"ĠìĦ¤ìłķ":4687,"ìŀ¬ë°Į":4688,"33":4689,"¶Īë":4690,"¹Į":4691,"ë®":4692,"ì·":4693,"łĽ":4694,"íķ«":4695,"ìĿ´ë¯¸":4696,"ĠìķĦìī½":4697,"ì¶°":4698,"ĠìĿ´ëŁ¬":4699,"ìĥĪê¸°ëĵ¤":4700,"ĠíĻķìĿ¸":4701,"Ġìĺ¤ëĬĺë":4702,"¡Ģ":4703,"Ġëĵľ":4704,"Ġë¯¸ìķĪ":4705,"ĠìĭłìĿ¸":4706,"ìĪĺë¡ľ":4707,"ë§ĪëıĦ":4708,"ĠìĤ´ìķĦë":4709,"ãĦ±ãĦ±ãĦ±ãĦ±":4710,"²ħ":4711,"Ĺãħľãħĳ":4712,"ìķĦëĭĮ":4713,"ìĸ´ìķ¼ì§Ģ":4714,"ê¹Įì§Ħ":4715,"ĠìķĦê¹Į":4716,"ĠëĮĢìĥģ":4717,"Ġê³µìĭĿ":4718,"ĠìłĦíĻĶ":4719,"Ġì½ľëĿ¼ë³´":4720,"ĠìķĦëĭĲê¹Į":4721,"²Ļ":4722,"ìĭ¼":4723,"Ġë¹¼ë":4724,"Ġì²ľë":4725,"ëĮĵ":4726,"ĠìĹĦë§Ī":4727,"ĠìĬ¤íĥ":4728,"Ġìĸ´ëĸłëĥĲ":4729,"ë¶ĦìłĦ":4730,"ĠìĿ¸ë°©":4731,"ĠíĮ©íĬ¸":4732,"Ġìĩ¼":4733,"++":4734,"ë¥¼":4735,"ìŀ¼ë":4736,"ìľĪ":4737,"ìĥĺ":4738,"ìĸ´ì»¨":4739,"ĠìĹĨëĬĶê±°":4740,"ì¤ĦìķĮ":4741,"ĠíĪ¬ìĪĺ":4742,"ë¬":4743,"ģĦë":4744,"Ĵ¤ë":4745,"ì£¼ìĹĲ":4746,"ì¡¸ë":4747,"ìľłìłĢ":4748,"ĠìľłìłĢ":4749,"ĠìĦ±ê²©":4750,"Ġì¹ĺíĤ¨":4751,"Ġë¸ħ":4752,"ĠìĹĺë§Ī":4753,"90":4754,"ĠëŁ°":4755,"ĠìĥĿê°ģíķ¨":4756,"Ġê¼´ë¦¬":4757,"ĠìĦ±íĺķ":4758,"ĠëĬĲëģ¼":4759,"ë¦°":4760,"ë±ħ":4761,"ëĬĶëĮĢ":4762,"ì§ĢëĤĺ":4763,"ë°ĳìĹĲ":4764,"ìłĦìĿĢ":4765,"Ġíı´":4766,"Ġê¸°ëĭ¤ë":4767,"ë§Īë¦¬":4768,"Ġìłľëª©":4769,"íķĦìļĶ":4770,"Ķ°ë¦¬":4771,"ìķĦìĺ¤":4772,"ìľ¼ëŁ¬":4773,"ìĥģëıĦ":4774,"ĠìĤ¬ëĥ¥":4775,"Ġíķĺëĭ¤":4776,"Ġë§İëĥĲ":4777,"ìĭľë¡ľ":4778,"Ġíķ´ì£¼":4779,"Ġìĭłì²Ń":4780,"Ġì£¼ìŀĳ":4781,"ìĭłë¹Ħ":4782,"Ġê¸Īì§Ģ":4783,"¦´ëķĮ":4784,"ª¨ëĵľ":4785,"ĠE":4786,"Ĥ¨ë":4787,"Ĳëħ¸":4788,"ĠëĮĢíĨµëł¹":4789,"ĠëĶ´":4790,"Ġìĸ¼ë§Īë":4791,"Ġ90":4792,"ĠëĪĦëĤĺ":4793,"£©":4794,"Ġì¡±":4795,"ĠìķĪì¢ĭ":4796,"ìĺ¤ëĤĺ":4797,"ĠìĭľìłĪ":4798,"ĠìĿ¸ê°Ħ":4799,"íĬ¸ëĿ¼":4800,"ì£¼ëıĦ":4801,"ĠëĤ´ìļ©":4802,"118":4803,"ĠíķĻêµĲ":4804,"ìŀ¥ë¹Ħ":4805,"Ġì§Ħì§Ģíķĺê²Į":4806,"Ġì°¬":4807,"Ġë¹¼ê³ł":4808,"ìķĪìĹĲ":4809,"Ġíķĺê¸°":4810,"íĽĦë¡ľ":4811,"íİĺì½Ķ":4812,"íķľê±°ìŀĦ":4813,"ìĪľìĿ´":4814,"ĠëĪĦêµ¬ìŀĦ":4815,"íĩ´ê·¼":4816,"Ġìħĭ":4817,"ĪĪë":4818,"ì§Ģëħ¸":4819,"ì§Ģë°©":4820,"ĠìĿ´ê°Ħì§Ī":4821,"´ëĭ¬ë":4822,"Ġë©ĺ":4823,"ìŀ¡ê³ł":4824,"ĠìķĦë¬´ë¦¬":4825,"łĢ":4826,"ìĿ¸ë¬¼":4827,"ĠìĬ¼":4828,"Ġì§Ħíĸī":4829,"Ġê°ľìĶ¹":4830,"ĠìľłìĿ¼":4831,"Ġë²Įë":4832,"Ġê±°ì§Ģ":4833,"Ġìµľê·¼":4834,"Ġì²ľìŀ¥":4835,"ĠëĲľëĭ¤":4836,"ĠìĹĳ":4837,"ìĺ¤ëĬĶê±°":4838,"Ġëª»ë°Ľ":4839,"ë¹Į":4840,"ëŃĲëĥĲ":4841,"Ġìŀ¬ë°ĮìĿĮ":4842,"łµëĦ¤":4843,"ì¶ĺíĸ¥":4844,"ĠíĥĿë°°":4845,"ĠC":4846,"Ġ..":4847,"íĻĺë":4848,"Ġê°ĢìĦľ":4849,"ĠëĮĢíķľ":4850,"ê¸´íķľëį°":4851,"Ġìŀ¥ëĤľ":4852,"ĠíĺĦìŀ¬":4853,"Ġíĳ¸ë":4854,"Ġíķ©ë°©":4855,"íľĺ":4856,"ê°ĶëĬĶëį°":4857,"Ġìļ´ìĺģ":4858,"Ġê¸¸ëĵľ":4859,"ë¬¸ë":4860,"Ġìķķ":4861,"ĠìĹĶëĶ©":4862,"ê¹¡":4863,"íĺ¹":4864,"Ġê²©":4865,"íĤ´":4866,"ì¹ĺíĤ¨":4867,"ì¸¡":4868,"íķĻìĥĿ":4869,"ĠíĮĮíĭ°":4870,"ĠíĸĪëĭ¤":4871,"ĠìĬ¤íĬ¸ë¦¬ë":4872,"ĠãħĩãħĪãĦ¹":4873,"łģ":4874,"ìĦ¸íĬ¸":4875,"ìķĺìĸ´":4876,"ì¹´ëħ¸":4877,"ĠìĺĪìģ":4878,"ìķħìĿĺ":4879,"ł¨ìķĦ":4880,"Ġì»¤ìĹ¬":4881,"ê¶ģê¸Ī":4882,"ê°¤ëŁ¬ëĵ¤":4883,"ì£¼ê°Ģ":4884,"Ġê·¸ë£¹":4885,"Ġìŀ¬ë°ĮëĦ¤":4886,"Ġìį©":4887,"ìĸ´ëĸ»":4888,"§µ":4889,"ë¿":4890,"Īëł¨":4891,"ĠìĿ´ê¸¸":4892,"Ġëĭ¥":4893,"ĠìĤ¬ê³ł":4894,"ìĬ¤ëıĦ":4895,"ĠìļĶìķ½":4896,"ê±°ëŀĺ":4897,"łµëĭ¤":4898,"ê²¼ëĭ¤":4899,"ëĤ´ëħĦ":4900,"Ġì¡´ìŀ¬":4901,"ou":4902,"¶Ļ":4903,"ìķĦì§Ģ":4904,"ìĭľê°Ģ":4905,"ìļ°ìĦĿ":4906,"Ġì¹¨":4907,"ê²łìĬµëĭĪëĭ¤":4908,"ìĿ¼ëĵ¯":4909,"Ġìĭ¤ìĭľê°Ħ":4910,"ĠìŀĲëıĻ":4911,"ìĵ°ëĥĲ":4912,"ìĻĢëıĦ":4913,"ê²¼ëĦ¤":4914,"ìĦ¬":4915,"Ġì§Ń":4916,"Ġ22":4917,"Ġìĭłê·ľ":4918,"Ġìłľìŀĳ":4919,"ĠëĲĺì§Ģ":4920,"ìĹ¬ëıĦ":4921,"ìĹĩëĬĶëį°":4922,"ĠìķĦëĭĮê°Ģ":4923,"ì°¬ëĺĲ":4924,"Ġì¡¸ìĹħ":4925,"ve":4926,"Ġ??":4927,"íķľì§Ģ":4928,"ë³¼ë":4929,"Ġê°¤ìĹĲ":4930,"Ĳľê±°":4931,"ìĥĪê¸°":4932,"ĠìĿ´íķ´ê°Ģ":4933,"ì¾":4934,"ĩ½":4935,"íķĺëł¤ê³ł":4936,"ĠíĻĺë":4937,"ìłĢìĶ¨":4938,"ĠëĶ¸ë":4939,"ĠìĺģìĽħ":4940,"Ġì±Ħë":4941,"ĠëĲĺë©´":4942,"Ġë²ĪìĹŃ":4943,"íŀĪëł¤":4944,"st":4945,"Įë¦°":4946,"Ŀ¼ìĿ´ë¸Į":4947,"ìĭľíĭ°":4948,"ìŀ¥íĺĦìĭĿ":4949,"ìłĦìĿ´":4950,"íĮĮíĬ¸":4951,"ĠíĤ¤ìļ°":4952,"ì³ĲìĦľ":4953,"ĠìĻĦìŀ¥":4954,"Ġìļ°ë¦¬ë":4955,"Ġì¼ĢìĿ´":4956,"Ġìĺ¤ëĬĺëıĦ":4957,"ê°Ģì§Ģê³ł":4958,"ìĨĶë":4959,"Ĥĺë³´ëĦ¤":4960,"Ġìĸ´ìĿ´":4961,"ìĭľë°ľë":4962,"ê²ŁëĦ¤":4963,"ĠëĳĲë²Ī":4964,"Ġì£Ħëĭ¤":4965,"ìĿ´íĶĦì¹ĺíŀĪ":4966,"§ĺ":4967,"Ġëŀľë":4968,"ìķĦìĭľë°ľ":4969,"ë°ĺë":4970,"íķĺëĿ¼":4971,"Ġê°Ģì¶ķ":4972,"íĦ¸ë":4973,"ìĭłíĻĶ":4974,"Ł¬ìĬ¤":4975,"Ġë³´ê¸°":4976,"Ġíķľëĭ¬":4977,"ĠíķĺëĭĪê¹Į":4978,"ìĬ¤ë§Į":4979,"ĠìĺĪìłķ":4980,"ĠíĥĢê²©":4981,"ĠíĪ¬íĳľìĿ¸ì¦Ŀ":4982,"½Ģë":4983,"ê²¸":4984,"ìĪłë":4985,"íĮĮë¦¬":4986,"íķ´ì¤Ħ":4987,"Ġìĸ´ìļ¸ë":4988,"íĮĮíĭ°":4989,"Ġê±°ìŀĦ":4990,"ĠíĿ¬ë":4991,"Ġê°ģìĦ±":4992,"ì¹´ìĬ¤":4993,"íĬ¸ë¶ģ":4994,"ìĹ°íķ©":4995,"íĤ¤ìĽĢ":4996,"ĠìĹ°ìķł":4997,"Ġì¶©ê²©":4998,"ìĸ´ìĬ¤":4999,"ê·¸ë¦¬":5000,"ìĥĿíĻľ":5001,"ìķĪì§Ģë§Į":5002,"íĸĪëĭ¤ê³ł":5003,"Ġê°ĻëĥĲ":5004,"Ġê¸°ìĽĲ":5005,"ìĿ¼ë¦¬":5006,"ëĿ¼ìĿ¸":5007,"ĠëıĦìłĦ":5008,"Ġìĵ°ê³ł":5009,"ĠìķĦëĭĪìķ¼":5010,"Ġê·Ģì°®":5011,"Ġì¶ľê·¼":5012,"Ġì»¤ìĹ½":5013,"íĿ¥ë¯¼":5014,"ĠVS":5015,"ìĤ¬ê³ł":5016,"ĠãħĮ":5017,"ĠíĮĿ":5018,"ĠìĤ¬ë©´":5019,"ìŀĲëŀĳ":5020,"Ġìĸ´ì°¨íĶ¼":5021,"ĠìĥĿê¸´":5022,"ìĦłìĥĿ":5023,"Ġë¶Īíİľ":5024,"ìķĦìĿ´ëıĮ":5025,"©ľ":5026,"ê°Ģì±ł":5027,"ìĪ¨":5028,"Ġëª¬":5029,"ì½¤":5030,"ëħ¹":5031,"ìĹĨìľ¼ë©´":5032,"ĠãĦ·ãĦ·ãĦ·ãĦ·":5033,"Ġêµ¬ë§¤":5034,"ĠìłĳìĨį":5035,"Ġ...":5036,"İĢ":5037,"ĳĺ":5038,"¤ëĥĲ":5039,"Ġì§ľë":5040,"ì°ĲëĶ°":5041,"íĺľë":5042,"Ġìĺ¤íĶĪ":5043,"Ġëħ¼ëŀĢ":5044,"Ġë©į":5045,"ĠìĹ°ìŀ¥":5046,"Ġìĸ´ëĶĶê°Ģ":5047,"Ġìĸ´ëĸ»ê²Įë":5048,"°ĽìķĦ":5049,"ê²¨ìĦľ":5050,"Ġìĺ¬ìĬ¤íĥĢ":5051,"ĠëĵĿ":5052,"Ġì¹´íĨ¡":5053,"Ġìĩ¼ë":5054,"it":5055,"¹¼ê³ł":5056,"ë¯":5057,"Ġë°ı":5058,"Ġìĺ´":5059,"ìĭłì²Ń":5060,"²ĪìĹĲ":5061,"Ġëª»íķ¨":5062,"Ġìĺ¤ëĬĺìĿĢ":5063,"ĠìłĲíķĳ":5064,"ĠìĽĶëĵľì»µ":5065,"¸ëŁ°":5066,"ìĬ¤íĤ¨":5067,"ìĬ¤ëŁ½":5068,"Ġì¡°ìĸ¸":5069,"Ġìĺ¤ë©´":5070,"ì¶Ķê°Ģ":5071,"ì§Ģë¥¼":5072,"ĠìļĶìĥĪ":5073,"ìĪľìľĦ":5074,"íĮĮëĶ±":5075,"ìĿ´ìłķëıĦë©´":5076,"ìĻ¤":5077,"Ġìĥ¤":5078,"ë§Įìķ½":5079,"ĠìĽ¨":5080,"ĠìĬ¤íİĻ":5081,"ìŀĲëĦĪ":5082,"Ġìľłìŀħ":5083,"ë¹¡":5084,"Ġëģ¼":5085,"ĠìĿ´ìľłëĬĶ":5086,"ĠìĿ¼ëŁ¬ë":5087,"Ġìĭ¶ìĿĢ":5088,"Ġì²ĺìĿĮë":5089,"ĠíĶĮëłĪìĿ´":5090,"ìķĦë¬´ë¦¬":5091,"©ĺ":5092,"ê¸°ì¤Ģ":5093,"ì£¼ëĬĶê±°":5094,"ĠëĤĺì¤ĳìĹĲ":5095,"ìĤ¬ëıĦ":5096,"íĶĦíĬ¸":5097,"ë¶ĦìĹĲ":5098,"Ġìľłëªħ":5099,"Ġê¸īìĭĿ":5100,"ĠìĿ´ë¯¸ì§Ģ":5101,"ì¤¬ìľ¼ë©´":5102,"¹Įë":5103,"ĠãĦ¹":5104,"ìĿ´ìĥĪëģ¼":5105,"ìķĦê³ł":5106,"ìľ¾":5107,"ĠìĥĪë":5108,"Ġê°ľìĽĥê¸°ëĦ¤":5109,"ĠìĤ¬ëŀĮë":5110,"ĠëĪĮë":5111,"ĠìĿ¼ìĸ´ë":5112,"Ġëľ¸":5113,"ĠìĹ¬ë¦Ħ":5114,"ĸ¡ë°¥":5115,"Ġë¥ĺ":5116,"ëĬĶë²ķ":5117,"ĦëĮĢ":5118,"ìŀĲìĿ¸":5119,"ìĿ¼ìĹĲ":5120,"ĠìķĪíķĺê³ł":5121,"Ġê¹¨ë":5122,"Ġì»´ë°±":5123,"Ġíģ´":5124,"ìĺĪìłĦìĹĲ":5125,"Ġìłģìļ©":5126,"Ġìłģëĭ¹":5127,"Ġë¬´ë£Į":5128,"ê¸¸ëĵľ":5129,"Ġë¯¸ì³¤ëĦ¤":5130,"ìķŀìľ¼ë¡ľ":5131,"ìª":5132,"Ħ¨":5133,"ìĿ´ìĹĪëĬĶëį°":5134,"Ġê³³":5135,"ĠãħĬ":5136,"íĬ¸ìĤ¬ê°Ģ":5137,"ĠìĦ¹":5138,"Ġ23":5139,"ĠìķĪëĤ´":5140,"íķ´ë´Ħ":5141,"ë³´ê²Ģ":5142,"Ġìĭłê³¡":5143,"ĠëŃĲëĿ¼":5144,"Ġíķ´ëĿ¼":5145,"ĠìĨĮíĻĺ":5146,"Ġê°ĢëĬ¥íķĺëĥĲ":5147,"ĠìĹŃê²¨":5148,"íĭĢëĶ±":5149,"ëķĮë":5150,"ì§Ģë§Ĳê³ł":5151,"ĤĺìĦľ":5152,"íķĺëł¤ë©´":5153,"ìĥģìŀĲ":5154,"Ġê²¬":5155,"ìĿ¸ëĵľ":5156,"Ġíı¼":5157,"Ġê²½íĹĺ":5158,"Ġê°ľë¹¡":5159,"ĠìĤ´ìķĦ":5160,"Ġì½ĶìĿ¸":5161,"íĥĿë°°":5162,"ĠëĦĪíĶĦ":5163,"ìĿ´ëĭĪê¹Į":5164,"ì¤Įë§Īëĵ¤":5165,"ĲëĶ°ë":5166,"ìĦľíĬ¸":5167,"ì¢ĥ":5168,"Ġê·¸ëĮĢë¡ľ":5169,"ì¼°":5170,"ìķĦë¦¬":5171,"ìº¡":5172,"ì§ģìĹħ":5173,"ìħ¨":5174,"ìĹĨìĸ´ìĦľ":5175,"Ġíĺĳ":5176,"ìĵ´":5177,"íĤ¤ë¡ľ":5178,"ëĵĢ":5179,"ll":5180,"ìĹłë":5181,"ìĿ´ë¥¼":5182,"ĠìłĪ":5183,"Ġì°¢":5184,"ĠíĺĪ":5185,"íĺ¸ê°Ģ":5186,"ĠëģĮ":5187,"Ġìº¡":5188,"ìĤ¬ëŀĮìĿ´":5189,"Ġê°¤ì§Ī":5190,"ìĺĢëĥĲ":5191,"ê²¼ëĬĶëį°":5192,"Ġw":5193,"łëĵ¯":5194,"ĠìķĪëĵ¤":5195,"ìķłíĶĮ":5196,"Ġíĸĩ":5197,"ë¶ĢìĤ°":5198,"ì¿¤":5199,"Ġì£¼ëĶ±":5200,"ĠìºĲë°¥":5201,"Ġìķłë§¤":5202,"¹Ľ":5203,"íķ¸":5204,"ìĿĢëĵ¯":5205,"ì¹¼ë":5206,"ĠëĭĪëĦ¤":5207,"ìĿ¸ëıĦ":5208,"ìĺ¤ë¦¬":5209,"Ġë²Ĺ":5210,"íļĮìĪĺ":5211,"Ġëª¨ëĵľ":5212,"íĨłë¯¸":5213,"ĠëĲĺëĬĶê±°":5214,"ê²Łì§Ģ":5215,"ł¨ëĵ¤ìķĦ":5216,"ë½ķ":5217,"ĠìĿ´ìļ©":5218,"ë°¤":5219,"ìĺ¤ê³ł":5220,"°ĶìĿ¼":5221,"Ġìŀ¥ë¹Ħ":5222,"ìĿ´ëĵ¤ìķĦ":5223,"Ġë¦¬ê·¸":5224,"ìĹ¬ë¦Ħ":5225,"ĠãħĨãħĤ":5226,"Ġíıīê°Ģì¢Ģ":5227,"Ġíļ¨ê³¼":5228,"ëī´":5229,"ħ¼":5230,"ëıĦìĤ¬":5231,"ĠëŃĺë":5232,"íķłê²Į":5233,"ê¸´íķĺëĦ¤":5234,"ëħ¸ìŀ¼":5235,"Ĳĺëħ¸":5236,"ł¤ëıĦ":5237,"ìį©":5238,"ĠìĤ¬ëŀĮìĿĢ":5239,"ìłĢëħģ":5240,"Ĥľëĭ¤":5241,"ĠíĹ¤ìĸ´":5242,"act":5243,"59":5244,"ìĥµ":5245,"ì§ĦìĿ´":5246,"ìľłëĭĪ":5247,"Ġëª»ë¨¹":5248,"¡ľëıĦ":5249,"Ġì¤ĳê³ł":5250,"íĮ¨ìĬ¤":5251,"Ġìĭ¶ìĸ´":5252,"íĤ¤ëħ¸":5253,"ìŀĺìĥĿ":5254,",,,":5255,"ìĿ´ìĸ´íĬ¸":5256,"ëįĶëĭĪ":5257,"¸ë§Ŀ":5258,"ĠìķĦìī¬":5259,"ìŀ¥ëĭĺ":5260,"ìĭłìĿĢ":5261,"ìķĪíķ¨":5262,"Ġì£¼ìĿ¸ê³µ":5263,"ĠìĿ¼ì°į":5264,"ëĿ¼ìĿ´":5265,"ĠìħĢ":5266,"êµ¬ìĹŃ":5267,"Ġê·¸ë¦½":5268,"ĠíĻĪëŁ°":5269,"ì¡°ìĤ¬":5270,"Ġë§ŀì¶Ķ":5271,"ê³łìĭ¶ìĿĮ":5272,"Ġíģ´ë¦¬":5273,"ĠëŃĲëħ¸":5274,"ìķĮëª»":5275,"Ġë¶ĦìľĦê¸°":5276,"ìĭ«ìĸ´":5277,"Ġì¿łíı°":5278,"Ġë»":5279,"ëĭ¤ìļ´":5280,"ìķĦëĭ":5281,"ĠìĻĢë":5282,"Ġê³¼ë":5283,"íħĢ":5284,"ì¹´ìĺ¤":5285,"ĠëĬĺë":5286,"ìĵ¸ë":5287,"ĠìµľìĨĮ":5288,"Ġìĸ¸ìłľê¹Įì§Ģ":5289,"ìĩł":5290,"ìĵ°ëłĪê¸°":5291,"Ġë¸Ŀ":5292,"ĠëĬ¥ëł¥":5293,"ì§Ģê¸Īë":5294,"ľëį°":5295,"íķ´ì¤Ģëĭ¤":5296,"Ġê¸´":5297,"ĠìŀĪìĹĪëĬĶëį°":5298,"Ŀ¼ëĿ¼ë":5299,"íİĮ":5300,"Ġíķĺë©´ìĦľ":5301,"ìĹ°ìĬµ":5302,"ĠëĨį":5303,"Ġê°ĢëĬ¥ìĦ±":5304,"ì¡ĮëĬĶëį°":5305,"ëģ¼ë¦¬":5306,"ĠìĻľìĿ´ëłĩê²Į":5307,"ì±ĶìĬ¤":5308,"ë¸Ŀ":5309,"ìĻĳ":5310,"ìĪĺìŀĪìĿĮ":5311,"ĠëĤĺìĿĮ":5312,"´ëĭ¤ë":5313,"ê³łìĭ¶ìĿĢ":5314,"ì¢ĭëĭ¤":5315,"¶ĢëŁ¬":5316,"ĠíķĦìĪĺ":5317,"at":5318,"ĠG":5319,"íķĺëĭ¤ê³ł":5320,"ëĭĪíĦ°":5321,"íĥĵ":5322,"ì£¼ìĭ¤ë¶Ħ":5323,"ãħĭãħĭãħĭãħĭãħĭãħĭãħĭãħĭãħĭãħĭãħĭãħĭãħĭ":5324,"íĨ±":5325,"ĠìĹĨìĿ´":5326,"íİĳ":5327,"Ġê²°ìłķ":5328,"ĠãħģãħĬ":5329,"Ġì´Īë°ĺ":5330,"Ġë¯¸ì³¤":5331,"Ġìĭľì²ŃìŀĲ":5332,"ĸì¹ĺ":5333,"ëĭĽ":5334,"ì§ĢìĹĲ":5335,"ìļĶì²Ń":5336,"ìĥģìĿĢ":5337,"ìķĦëĤĺ":5338,"ê°ľì¢Ĩ":5339,"ĠëĮĢíļĮ":5340,"ìķ¼ëĲĺëĥĲ":5341,"ĠìłĲìĭ¬":5342,"ĠëĶĶìĶ¨":5343,"Ġ1000":5344,"ĠëĬĲê»´":5345,"ëĳ¥":5346,"Ġì²´ëł¥":5347,"ëķĮë¬¸ìĹĲ":5348,"Ġìª":5349,"¬ë¦¬":5350,"Ġìĸį":5351,"ë³´ëĭ¨":5352,"ìłķë¦¬":5353,"Ġê·¸ëĤĺë§Ī":5354,"ê°ĦìĹĲ":5355,"ĠìĶĢ":5356,"ìľłëıĻ":5357,"ìŀĺìķĮ":5358,"ìķĦìĿ´ì¦ĪìĽĲ":5359,"Ġì°¾ìķĦ":5360,"ª¸":5361,"ìŀĪë":5362,"ê³łìĥĿ":5363,"ìĨĲë":5364,"ł¤ëĬĶ":5365,"¥´ê²Į":5366,"íĬ¸ëłĪ":5367,"Ġë²¤":5368,"ê¶Įë":5369,"ë¬´ìĽĲ":5370,"ĠëĲĺê²Į":5371,"ĠãħĪãĦ´ë":5372,"ë³´ëĬĶ":5373,"ãħĪãĦ´":5374,"ê±°ê°ĻìķĦ":5375,"Ġë³¸ìĿ¸":5376,"ëĵľë¦½":5377,"ĠìĥĪëģ¼ëĵ¤ìĿĢ":5378,"ìµľê·¼":5379,"Ġìķŀìľ¼ë¡ľ":5380,"Ġë³¼ëķĮë§Īëĭ¤":5381,"Ġì§ķì§ķ":5382,"ìŃĪ":5383,"ëŁ¬ë":5384,"ëĪĦë":5385,"ìĿ´ëª¨":5386,"ì¹Ļ":5387,"ĠìĿ´ì§ĢëŀĦ":5388,"ìĿ¸ê±´":5389,"ĠìķĪíĥĢ":5390,"ìĹĲìĦľëĬĶ":5391,"ê·¸ëŀ¨":5392,"¨¸ëĭĪ":5393,"ê°ķëĭ¤ëĭĪìĹĺ":5394,"íķľê±°ëĥĲ":5395,"ëĬĶê±´ê°Ģ":5396,"ë²ĦìĬ¤":5397,"ĠíĨµíķ©":5398,"ĠëįĺíĮĮ":5399,"ĠíĥĪê°¤":5400,"ĠìĤ¬ëŀĳíķ´":5401,"ĠëĮķ":5402,"ëŁ°":5403,"ìĪĺìº¬ë£¨":5404,"Ġì°¬ë":5405,"ķĮëĬĶ":5406,"Ġìĺ¤íĶĦ":5407,"įĺê°Ģ":5408,"ë¹Ī":5409,"íķĺëĬĶê±°ëĥĲ":5410,"ĠëĤĺëĪ":5411,"ìĭľê°ĦìĹĲ":5412,"Ġê°ľë³ĳìĭł":5413,"ĠìĹŃê²¹":5414,"ìķĦìĿ´íı°":5415,"Ġì¶ľìĭľ":5416,"ê¸Ģë²Ļ":5417,"Ġíķłë§Į":5418,"ë£°":5419,"ĠíĮĮë°į":5420,"ë¦½":5421,"Ĩ¨":5422,"ĮĢëĬĶ":5423,"íĮį":5424,"íŀĺë":5425,"ê´ľ":5426,"ê°Ģë´Ĳ":5427,"Ġê¸°ìķĪ":5428,"Ġì¡°ìĦł":5429,"Ġìŀħìŀ¥":5430,"ì½Ķë¡ľëĤĺ":5431,"ĠíĻķìĭ¤":5432,"°ĽìĿĮ":5433,"ìľłë¡ľ":5434,"ĠìĦľë¡ľ":5435,"Ġëĵ±ìŀ¥":5436,"ìĸ´ëĸ»ê²Į":5437,"ê¸Ģë²Ļê¸Ģ":5438,"²ĪëıĦ":5439,"ê°Ģê³ł":5440,"ì§Ģë¡ľ":5441,"ë§ģíģ¬":5442,"íĥ¬":5443,"ëĤ¼":5444,"ìĺ¤ëĬĶëį°":5445,"Ġì¹ł":5446,"ĠíĬĢ":5447,"íģ¬ë¦¼":5448,"ĠíķłìĿ¸":5449,"Ġë§Įì¡±":5450,"ĠíĺĦíĥĢ":5451,"ì»¤ë²Ħ":5452,"Ġíİĺë¯¸":5453,"į¤ë":5454,"ê°ĢëĤĺ":5455,"ê¸į":5456,"ĠìĹī":5457,"ìĸ´ìĸ´":5458,"Ġì§§":5459,"Ġìłķë³ĳ":5460,"ìĤ¬ëĤĺ":5461,"Ġë²½":5462,"Ġê´Ģë¦¬":5463,"Ġíķ´ìķ¼ì§Ģ":5464,"Ġíķľë²Īë":5465,"ì¿¨":5466,"íĽĦìĹĲ":5467,"ìĮĪ":5468,"ì©Į":5469,"ĠìķĮëł¤ì¤Ģëĭ¤":5470,"____":5471,"©¸":5472,"ĠU":5473,"Ġê°ĢìĿ´ëĵľ":5474,"êµŃìĿ´":5475,"íķ´ë³¸":5476,"Ġì¢ĨëĲ":5477,"ìĺ¨ê±°":5478,"°Ľê³ł":5479,"Ġê¹ĮëĬĶ":5480,"ĠëłĪë²¨":5481,"55":5482,"NC":5483,"Ġ[":5484,"ŀ©":5485,"ê°ĢëĬĶëį°":5486,"ê³łë°±":5487,"Ŀ¼ìĬ¤":5488,"ĠìķĦëĭĪëĭ¤":5489,"ìĪĺìłķ":5490,"ìĹĪì§Ģ":5491,"íķ´ë´Ĳ":5492,"ê¸īìĭĿ":5493,"Ġë°Ķë¥´":5494,"°ĺì§Ģ":5495,"Ġìĭ¬ê°ģ":5496,"Ġê°ĵê²ľ":5497,"íĬ¸ë¡ľìĿ´":5498,"ī´ë¹Ħëĵ¤":5499,"cm":5500,"©į":5501,"±Ģ":5502,"ìĹĨê³ł":5503,"íı¬ìĿ¸íĬ¸":5504,"ĠìĺĪìģĺ":5505,"¡±ë¹µ":5506,"ĠìĦ¤ë§Ī":5507,"ê°Ĳëıħ":5508,"ìķ¼ëĲĺëĬĶëį°":5509,"ĠëĩĮìłĪ":5510,"36":5511,"le":5512,"ķľìĹĲ":5513,"ìĿ´ëįĺëį°":5514,"ìĭľê³ł":5515,"Ġ21":5516,"ê³µë¶Ģ":5517,"ĤĺëĤĺ":5518,"ëı¡":5519,"Ġíķľìłķ":5520,"ë³´ìĬ¤":5521,"ê°ĢëĿ½":5522,"ê²½ë¶ģ":5523,"Ġìľłê²©":5524,"íĨµëĭ¹":5525,"ĠíĿĲë":5526,"ĠíŀĲë":5527,"ĠëĤľìĿ´ëıĦ":5528,"ë°°ë©Ķ":5529,"ĠíİĺìĿ´":5530,"ëĿµ":5531,"ck":5532,"ķħ":5533,"ì²łë":5534,"ĠëĤĺìĿ´":5535,"ìķĦëĥĲ":5536,"ìŀĲë¡ľ":5537,"Ġë³´ë©´ìĦľ":5538,"ìķłê°Ģ":5539,"ìĬ¹ë¦¬":5540,"ë¯¸ì¹ľ":5541,"Ġìµľì¢ħ":5542,"ãħłãħłãħł":5543,"ĠëĵľëĿ¼ë§Ī":5544,"Ġê±°ë¶Ģ":5545,"ĠìķĦëĬĶìĤ¬ëŀĮ":5546,"Ġê¿ĢíĮģ":5547,"Ġëĸ´ëĥĲ":5548,"ĠìĻĦë£Į":5549,"ª°ë":5550,"ëĥī":5551,"ĨĢ":5552,"ĠìĿ´ìłķëıĦë©´":5553,"ĠëĤļ":5554,"¦¬ë§Į":5555,"íĻĶëĬĶ":5556,"ìĬ¤ëŀĳ":5557,"ëł¨":5558,"ë§Īì§Ģë§ī":5559,"íĿĲ":5560,"íı¬íĬ¸":5561,"ëĶľ":5562,"Ġíķľë§Īë":5563,"ìĽĶìĹĲ":5564,"ë³´ëĦ¤":5565,"ĠëıĮëł¤":5566,"ê°Ķëĭ¤":5567,"ĠëłĻ":5568,"ëıħëĮĢ":5569,"ĤĻ":5570,"ìĥ¤ë":5571,"ĠíĻľ":5572,"ê²łê¸Ķ":5573,"ĠìŀĲì²´ê°Ģ":5574,"ëłĪë²¨":5575,"ĠìĥĿê°ģíķĺëĬĶ":5576,"ĠíıīìĥĿ":5577,"ĠíĶĦë¦¬ë":5578,"íļ¨ëĭĪ":5579,"ì¶Ķì²ľì¢Ģ":5580,"íĥĪë¦¬":5581,"íķ´ìķ¼ëĲ¨":5582,"ìĪĺì¤Ģ":5583,"ìłľìĿ¼":5584,"ì£¼ì§Ģ":5585,"ĠìķĪëı¼":5586,"íİ¸ë":5587,"ë¹Ľ":5588,"íį½":5589,"íģ¬ë¦¬":5590,"Ġë¶Ħíĥķ":5591,"ĠìĿĢíĩ´":5592,"ìķĦìķĦìķĦìķĦ":5593,"ĠíļĮìĤ¬":5594,"Ġêº¼ë":5595,"ĠëģĿëĤĺê³ł":5596,"rea":5597,"¥ĺë":5598,"ĳĶ":5599,"ľ»":5600,"ìĿ´ë¸Įë":5601,"Ġëĭ´ë°°":5602,"¦¬ëŀĳ":5603,"ĠëĮĢíķĻ":5604,"ê°ĲìĿ´":5605,"Ġë¶Ģì¡±":5606,"!!!!!":5607,"ĠìŀĲë¦¬":5608,"Ġëłī":5609,"ê³łê¸°":5610,"ê³łìŀĪ":5611,"ìĹĲìĦľë":5612,"íķ´ì£¼ìĦ¸ìļĶ":5613,"¯¸ìħĺ":5614,"ìºĦ":5615,"Ġíĥ±":5616,"Ġíı´ë":5617,"ĠíĸĪìľ¼ë©´":5618,"Ġëĭ¬ëĿ¼":5619,"ing":5620,"ë³´ëĭĮ":5621,"ìĪĺìĺģë³µ":5622,"ìĽĲìĿĢ":5623,"ìħĢë":5624,"ëĵ¤ìĸ´":5625,"ìĭ¤ìłĲ":5626,"ĠëĦĪë¬´ë":5627,"Ġëĵ¤ìĸ´ë":5628,"Ġìĺ¤ë¥¸":5629,"Ġë©¤ë²Ħ":5630,"ĠëıĦìĽĢ":5631,"ĠìĤ´ê¹Į":5632,"Ġìļ°ìļ¸":5633,"Ġë¨¸ëĥĲ":5634,"¦´ê¹Į":5635,"ĠëĮĢë¶Ģë¶Ħ":5636,"ëģĶ":5637,"ì¼ĵëª¬":5638,"ĠìĶ¨ìłł":5639,"ìĥĿê°ģíķ´ë³´ëĭĪ":5640,"ìĺ¤ì§Ģ":5641,"Ġ150":5642,"ĠìĹĨëħ¸":5643,"ìĦ¸ìĥģ":5644,"ì°¨ëĭ¨":5645,"Ġë§ŀëĭ¤":5646,"Ġì¡°ê¸Ī":5647,"ê¼Ń":5648,"ëĳĺ":5649,"ãħĵãħĵ":5650,"¹Ĺ":5651,"Ŀł":5652,"ìłĦìĤ¬":5653,"Ġì¶Ķë":5654,"ë³´íĨµ":5655,"Ł¬ë¶Ħ":5656,"ë¬´ìĬ¨":5657,"ëĺĳ":5658,"ĠëģĿëĤ¬":5659,"ìĭ¸ê°ľ":5660,"íĶĮëłĪìĿ´":5661,"ĠíħĮìĬ¤íĬ¸":5662,"ĠëĿµ":5663,"ìĿĢìĻĶìĸ´ìļĶ":5664,"ëĵł":5665,"Ġi":5666,"Ĥľë":5667,"Ġìķ¡":5668,"Ġìķī":5669,"ìĸ´ìļ¸ë":5670,"Ġê²Ĩ":5671,"ìĦ±ê³µ":5672,"ĠìĻľìłĢë":5673,"Ġêµ°ë":5674,"ĠìĭľìĬ¤íħľ":5675,"ĠìĤ¬ë§Ŀ":5676,"ë³´ì§Ģ":5677,"©ĶìĿ´":5678,"Ġë°Ľê³ł":5679,"²Ħë¦°":5680,"Ġë§ĪëĿ¼":5681,"ĠìķĦìĿ´ì¦ĪìĽĲ":5682,"ãħģãħĬ":5683,"Ġìĸ¸ìłľëĤĺ":5684,"²Ħëĵ¤":5685,"ìĽĢë":5686,"íĮĢë":5687,"Ġê°Ģìŀħ":5688,"ķĮê°Ģ":5689,"Ġì§ĢìĹŃ":5690,"ì¢ĭëĦ¤":5691,"Ġë²ĦìĬ¤":5692,"ìķĺëħ¸":5693,"Ġëª©ë¡Ŀ":5694,"ĠëĤĺìĻĶìľ¼ë©´":5695,"Ġê±¸ê·¸ë£¹":5696,"ĦĪë¬´":5697,"ëĲĺëĬĶ":5698,"Ġx":5699,"łĮë":5700,"ĠìŀĪëħ¸":5701,"ĠëĤ¼":5702,"ĠìłķíĻķ":5703,"ì¶©ìĿ´":5704,"ìĺĢëĭ¤":5705,"Ġë©ĶìĿ¸":5706,"ìĸ¸ëĥĲ":5707,"íĹ¤ìĸ´":5708,">>>>":5709,"ìĭľëĬĶë¶Ħ":5710,"ìĿ´ì°¬":5711,"ê¸´ë":5712,"ĠìķĦê¸°":5713,"Ġê¹¡":5714,"Ġë¹Ħì¶Ķ":5715,"Ġíķľëį°":5716,"ĠëŃĲëĿ¼ê³ł":5717,"ãħĩãħĩãħĩãħĩ":5718,"Ġì´Īê¸°":5719,"Ġê¼´ë¦¬ëĬĶ":5720,"ĠìĿ¸íĦ°ë·°":5721,"¦İ":5722,"ĵ¤ëıĦ":5723,"¤ëĤĺ":5724,"íĻĢë":5725,"Ġê°ĢìŀĲ":5726,"Ġì²¨ë":5727,"Ġê¸°ë§Į":5728,"ë²Īë":5729,"íĤ¤ëĬĶ":5730,"ìķĺìľ¼ë©´":5731,"Ġì§Ģë°©":5732,"Ġë¶ĢìĤ°":5733,"ĠìĹ°ê¸°":5734,"Ĵ¤ìĹĲ":5735,"ĠìĿ´ìĥģíķľ":5736,"Ġê²ĥëıĦ":5737,"ëļ«":5738,"ĠìĥĢëĬĶëį°":5739,"27":5740,"CK":5741,"¡łë":5742,"¹Ķ":5743,"Ġìª½":5744,"Ġìŀĥ":5745,"Ġì¢Ģë":5746,"ìłķìĿĢ":5747,"ë¶Īë":5748,"ĠìĿ¸ìĦ±":5749,"ìĭľëĦ¤":5750,"Ġë°ĽìĿĢ":5751,"ìĺĪìĿ¸":5752,"ìĩ¼ë":5753,"¶ķìĿ´ëĵ¤ìķĦ":5754,"Ġë¸ĶëŀĻ":5755,"Ġo":5756,"Ġë¨":5757,"ìķµ":5758,"¦¬ê¸°":5759,"Ġë§µ":5760,"ĶĶìĭłë¹Ħ":5761,"íĥĢê°Ģ":5762,"ìĤ¬ëĥ¥":5763,"ê´Ģëł¨":5764,"ãħ¡íĥĢ":5765,"ìĬ¤ë¥¼":5766,"Ġëª¨ëĳĲ":5767,"ĠìĺĪìģľ":5768,"ł¥ìĿ´":5769,"ìĿ´ë²Īì£¼":5770,"ĠíĮ¨íĦ´":5771,"ĠìłĲìĪĺ":5772,"Īë²Į":5773,"ê·¸ëŁ¬ê³łë³´ëĭĪ":5774,"ĠíĿ¬ë§Ŀ":5775,"ê°¸":5776,"ê²¬ëĵ¤":5777,"ê³łê°Ģ":5778,"¡ľëĬĶ":5779,"¦¬ëĵľ":5780,"ëĦ¤ìĿ´ë§Īë¥´":5781,"ĠìĤ¬ê³¼":5782,"ĠëŃĲíķĺëĥĲ":5783,"ê·¼ì²©":5784,"ĠíĹĪë":5785,"ĠíĦ¸":5786,"íĻįë³´":5787,"Ġì¹´ìļ´":5788,"ĠìĿĮìĭĿ":5789,"ë¸ĶëŀĻ":5790,"ê¹Įë´Ĳ":5791,"ë£Į":5792,"ì§ĢëĬĶëį°":5793,"¦¬ëĬĶëį°":5794,"ĮĢê°Ģ":5795,"ìĺ¤íĶĦ":5796,"Ġë¹Ľ":5797,"ĠëĮĢìĭł":5798,"Ġì¢Ĩëª©":5799,"Ġìĭłìŀĳ":5800,"Ġë¨¹ìĿĦ":5801,"ĠìķĮìķĦ":5802,"ëģ¼":5803,"ĠëıĮëł¤ë":5804,"ëĿ¼ë¹Ħë":5805,"Ġë¬¸ë":5806,"Ġíķĺë£¨ì¢ħìĿ¼":5807,"ëŃĶê°Ģ":5808,"ëĪĦëĤĺ":5809,"Ġon":5810,"ëĭ´ë°°":5811,"ìłľíķľ":5812,"¯¸ëĬĶ":5813,"ĠìĦĿ":5814,"ìĦ±ë¹Ħ":5815,"Ġì¢ĭê²łìĿĮ":5816,"Ġë³´ìĿĢ":5817,"íĶ¼ìķĦ":5818,"ë²½":5819,"ëĶ°ë¦¬":5820,"ëĦ£":5821,"ĠíİĺëıĦ":5822,"Ġìŀ¥íĺĦìĭĿ":5823,"Ġìķ¼ìĬ¤":5824,"ĠìłĦë¬´":5825,"Ġì£¼ë¬¸":5826,"Ġë§¤ìĿ¼":5827,"ëĬĲê¸Ī":5828,"Ġìµľê³łìĿĺ":5829,"ĠìĻ¸ëª¨":5830,"°ĭ":5831,"Ġh":5832,"ł¨ë":5833,"Ġë½ķ":5834,"ê²»":5835,"ë§ģ":5836,"ìĭľê¹Įì§Ģ":5837,"ìĻľë":5838,"íĻĪ":5839,"Ġê³¨ëĿ¼":5840,"íĸĦ":5841,"ëĦ¤ìŀĦ":5842,"ĠìķĪíķĺëĬĶ":5843,"ê¸´íķ´":5844,"ìĭ¬ìĭ¬":5845,"ê°ĲìĬ¤íĬ¸":5846,"ìīĳ":5847,"ìłĢëıĦ":5848,"ìŀĩëĥĲ":5849,"ĠëĤĺìĺ¨ëĭ¤":5850,"Ġì°¨ëĿ¼ë¦¬":5851,"200813":5852,"48":5853,"ëĲĺë©´":5854,"ĠX":5855,"ìł¤ë":5856,"ìĥĢ":5857,"ìłĦê¸°":5858,"Ġì°Į":5859,"ĠëĪĪëĤĺ":5860,"ìĬ¤ëĤĺ":5861,"Ġãħĭãħĭãħĭãħĭãħĭãħĭãħĭãħĭãħĭãħĭãħĭãħĭãħĭãħĭ":5862,"ħĦìĿ´":5863,"ì§ĳìĹĲ":5864,"íķĺì§Ģë§ĪëĿ¼":5865,"ìĺĪìłķ":5866,"ĠìĨĮìĦ¤":5867,"ì§ĢìķĬëĤĺ":5868,"ìĻ¸ì§Ī":5869,"Ġê¾¸ë":5870,"ë¸ĮìĿ´ìķ±":5871,"ĠìĽĶê¸ī":5872,"Ġíĳľìłķ":5873,"?!":5874,"Ġì©":5875,"íŀĲ":5876,"ĠìŀĪìĿĦ":5877,"¨¹ìĿĦ":5878,"íĸĪì§Ģ":5879,"ĠìĹ¬ìŀĲëĵ¤":5880,"Ġìĥģìĥģ":5881,"ìķ¼ëĮĲ":5882,"Ġìĺģìŀħ":5883,"ì¹´ëĬĶ":5884,"ìĭłë¶Ħ":5885,"ìĸ¸ëĭĪ":5886,"ĠìĨĮê°ľ":5887,"Ġë¶Īíİ¸":5888,"ìĽĥê¸°":5889,"ëĺ¥ì°¬ìĿ´":5890,"Ġì¶ķêµ¬":5891,"łīíĦ°":5892,"ë¨¼":5893,"ĮĦ":5894,"Ġìŀ¼ë":5895,"ì¹łë":5896,"Ġê°±":5897,"ìĸ´ì¼Ģ":5898,"³´ìŀĲ":5899,"ê·¸ë§Į":5900,"ìŀĳê°Ģ":5901,"Ġìĸ´ëĸ¨":5902,"íĶĦë¡ľë":5903,"Ġì£¼ëĬĶ":5904,"Ġë©Ī":5905,"Ġì§ĢëŀĦë":5906,"Ġë°Ķë¦¬":5907,"Ġë¶ĪìķĪ":5908,"Ġëį¥":5909,"Ġë¶ĢëŁ¬":5910,"ê±°ê°ĻëĥĲ":5911,"ĠíĮ¨íĤ¤ì§Ģ":5912,"ĠìĿ´ìģĺë":5913,"Ġì°¾ìķĦë":5914,"ìĸ´ìķ¼íķ¨":5915,"ĠíĻįë³´":5916,"¨ëĿ¼ìĿ¸":5917,"ìĺ¨ëĥĲëĵ¤":5918,"Ġëı¼ì§Ģ":5919,"ìĿįëĭĪëĭ¤":5920,"íĵ¨íĦ°":5921,"ìĹĶë":5922,"ê¸´ëĭ¤":5923,"ĠëĭŃ":5924,"¹ĦìĬ¤":5925,"ì§ĦìŀĲ":5926,"ĠëĤĺìĻĢìĦľ":5927,"ĵľëĥĲ":5928,"ìĤ¬ë©´":5929,"ê³µê°ľ":5930,"Ġê¹Ķë":5931,"ĠìĿ¼ìĸ´ëĤĺ":5932,"ĦĪì§Ģ":5933,"ĠìłĲìłĲ":5934,"Ġìĸ´ì¼Ģíķ¨":5935,"ë°Ķë¦¬":5936,"Ġê½¤":5937,"Ġìĵ¸ë§Į":5938,"ĠW":5939,"Ġë¡¯ëį°":5940,"ĠìĿ´ê²ľ":5941,"Ġê°ĢëģĶ":5942,"ĠëĦ¤ë":5943,"Ĥĺë´Ĳ":5944,"ķĮë¶ĢíĦ°":5945,"ìĬµëĭĪê¹Į":5946,"Ġëħ¸íĬ¸":5947,"ìľłë¦¬":5948,"ĠìĻĢìĦľ":5949,"ëĵ±ê¸ī":5950,"Ġë¬¸ìłľê°Ģ":5951,"Ġë¸Ķë£¨":5952,"ìħĶì¸ł":5953,"·°ë":5954,"ĠH":5955,"Ġ~":5956,"ìĹĶëĶ©":5957,"Ġíĵ":5958,"ìĨ¬":5959,"ì¤ĳë¶ķìĿ´":5960,"Ġë¬´ìĬ¨ë":5961,"ë²¤":5962,"íĺ¸ê°Ĳ":5963,"ĠëĤĺëŀĳ":5964,"ê¿Ģë":5965,"?.":5966,"ê°ĸ":5967,"¦¬ìĺ¤":5968,"êµŃëĤ´":5969,"Ġíķľê±°":5970,"Ġìĺ¬ë¦¬ëĬĶ":5971,"ê¹Ģíĥľì§Ħ":5972,"ĠìĺģìĹħ":5973,"ī´ë¹Ħë":5974,"Ġìĭľë¡ľ":5975,"Ġê¹Ģì¹ĺ":5976,"ĠìĹĲìĿ´":5977,"ĠëĲĺëĦ¤":5978,"§İëĦ¤":5979,"ãħıãħıãħıãħı":5980,"Ġë®ĮíĹ¨":5981,"İħ":5982,"ĸ³":5983,"Ŀ¼ëĬĶëį°":5984,"Ġì¢ĭì§Ģ":5985,"ĠìĪłë":5986,"ìļ°ê¸°":5987,"ëħĢë":5988,"ìķĦë§Ī":5989,"ê²½ê´´":5990,"íĭ°ì¼ĵ":5991,"ëĭ¹íķ¨":5992,"ìĻĶìĸ´ìļĶ":5993,"ĠëĤ¨ìĿĢ":5994,"Ġíķľë²ĪëıĦ":5995,"Ġëª¨ì§ĳ":5996,"Ġê°ľëħĲ":5997,"Ġê°ķê°Ħ":5998,"ĠíĶĦëłĪ":5999,"Ġê°ĲìĬ¤íĬ¸":6000,"ĠìĦłë¬¼":6001,"ĠìĻ¸êµŃ":6002,"ãħħãħĩ":6003,"ì¯Ķ":6004,"ëı¼ì§Ģ":6005,"ìĹĲìĹĲ":6006,"ìĿ´ë¦¬":6007,"ìĦ±ê¸°":6008,"ëĮĢêµ¬":6009,"êµ¬ë§Ī":6010,"ìĹ°ìĿ´":6011,"Ġê±°ê¸°":6012,"íĤ¤ë©´":6013,"ìĻ¸íĺķ":6014,"ĠêµŃëĤ´":6015,"Ġì¿¨":6016,"ĠìĿµìĬ¤":6017,"ĠìĽ¹íĪ°":6018,"45":6019,"ì§Ħìĺģ":6020,"ĠìĤ¬íļĮ":6021,"ĠìĤ¬ìĿ´íĬ¸":6022,"ì¡°íķ©":6023,"Ġìĥģíĥľ":6024,"ìĿ¼ë°ĺ":6025,"Ġë°ĽëĬĶ":6026,"ì°¬íĺ¸":6027,"ìĺ¬ìĬ¤íĥĢ":6028,"Ġê¹Įì§Ģ":6029,"ĠíĮĶìķĦ":6030,"ĠëĬĲê¸Ī":6031,"įĶë§Į":6032,"Ġëª¸ë§¤":6033,"Ġê°¤ëŁ¬ë¦¬ëĬĶ":6034,"ĸ¨ìĸ´":6035,"ìķĦìĿ´ëĵ¤":6036,"ë§Įëĵ¤":6037,"ìĿ¸ë°©":6038,"ĠìŀĪìĹĪ":6039,"¨¹ìĿĢ":6040,"ĠëĦĺë":6041,"Ŀ¼ëĿ¼":6042,"Ġì¶¤":6043,"Ġì¢Ĩë°¥":6044,"íĺķìĿ´":6045,"íĺĦìĭ¤":6046,"Ġê¸°ë¡Ŀ":6047,"Ġë°ĶëŀĮ":6048,"Ġíķłê¹Į":6049,"ìĿ´ëĬĶê±°":6050,"ìĹĺë¡¯":6051,"ĠëĤ«ëĥĲ":6052,"Ġìĭ«ìĸ´íķĺëĬĶ":6053,"ìł¸ëıĦ":6054,"ĠëĿĦ":6055,"ëĿł":6056,"ìĪŃìĿ´":6057,"ë©ĶìĿ´íĶĮ":6058,"ê¸°ìŀ¥":6059,"ìĤ¼ë":6060,"ê¹ĥ":6061,"Ġë°ĳ":6062,"ìĻģ":6063,"íĮľ":6064,"íĺĶ":6065,"ìĤ¬ìłľ":6066,"ìĥģíĻ©":6067,"ìłķë¯¼":6068,"íĭ¸":6069,"ãĦ¹ãĦ¹":6070,"ĠìĬ¤íĨłë":6071,"Ġíĥľë":6072,"ĠëłĪìłĦë":6073,"ìŀ¬ëªħ":6074,"Ġë³µêµ¬":6075,"ĠêµŃë£°":6076,"Ġpc":6077,"ê°ĶëĦ¤":6078,"->":6079,"vp":6080,"ëĤ«":6081,"¹ĦëĬĶ":6082,"ìłĦê±°":6083,"ĠíĮĮë¦¬":6084,"ĠìĬµ":6085,"ĠëĦ¥":6086,"Ġìĺ¤ì§Ģê²Į":6087,"Ġìĺ¤íŀĪëł¤":6088,"êµ¬ëıĦ":6089,"ìĦłíĥĿ":6090,"ëįĺë":6091,"Ġãħħãħħãħħãħħãħħãħ":6092,"ĠëĤ¨ìŀĲë":6093,"íķĺì§Ģë§Į":6094,"Ġëįľ":6095,"Ġê¹Ģíĥľì§Ħ":6096,"ê¸¸íĥľ":6097,"ìĶ¹ëįķ":6098,"Ġë§Įëĵ¤ìĸ´ë":6099,"¹łëĬĶ":6100,"ĠìķĮëł¤ì¤ĺ":6101,"ìĭŃìĭľìĺ¤":6102,"Ġë¯¼ì£¼ëĭ¹":6103,"ìıł":6104,"ìŀ¬ë°ĭ":6105,"¦´ë¦¬":6106,"Ġë§¨":6107,"ĠìĿ´ê±¸":6108,"ìłķìĪĺ":6109,"ìĭłê³ł":6110,"ıĻìĤ°":6111,"ê±´ì°½":6112,"ê³µì£¼":6113,"íĹĪë":6114,"ĠìŀĺíķĺëĦ¤":6115,"ìĽĮì¦Ī":6116,"Ġëª¨ë¥´ë":6117,"ĠëĤĺëĿ¼":6118,"ĠìķĬëĤĺ":6119,"Ġì§Ģê¸Īê¹Įì§Ģ":6120,"Ġíķ´ë³¸":6121,"íĻįêµ¬":6122,"ì¿łíĮ¡":6123,"Ġìĭ¸ìļ°":6124,"ĥĲë©´":6125,"ĠìŀĪëĤĺìļĶ":6126,"Ġr":6127,"Ġ<<":6128,"íķ¨ë":6129,"´ëĵľ":6130,"¸ëĤĺ":6131,"ĠìĿ´ìĸ´":6132,"ë°į":6133,"íĤ¨ë":6134,"Ġì¹¼ë":6135,"ĠíĻĢë":6136,"ĠíĥŃ":6137,"íĮĮëĬĶ":6138,"íĬ¸ëıĦ":6139,"ëĭ¹íķľ":6140,"ĠëĪĦìłģ":6141,"ëħĦìłĦ":6142,"Ġê·¸ê²Į":6143,"Ġë¶Ģëª¨":6144,"ìĺĢì§Ģ":6145,"ìŀ¬ë¯¸":6146,"ê±¸ë¦¼":6147,"©´ëĲĺ":6148,"ĠíĥĪì¶ľ":6149,"ĠìĿ´ë¦ĦìĿ´":6150,"Ġìĺ¨ëĭ¤":6151,"ĠãħħãĦ±":6152,"Ġìıĺ":6153,"39":6154,"ë¥´":6155,"Ĥ¬ë":6156,"ĲĲëĦ¤":6157,"ìłłë":6158,"ìłķì§Ģ":6159,"ëĦ¤ìļĶ":6160,"Ġìĸ´ëķ":6161,"ĠìĿ¸ìĭ¸":6162,"Ġë³´ëĤ´ë":6163,"íĺ¸ì¤ĳ":6164,"ĠëħĦ":6165,"ìĿ¼ë¶ĢíĦ°":6166,"íķľëĮĢ":6167,"ê»Ħ":6168,"ĠìĹ¬ìŀĲê°Ģ":6169,"ëħ¸ë¬´":6170,"Ġì·¨íĸ¥":6171,"ìĸ´ëĸ°":6172,"ë²Įìį¨":6173,"ĠíķĦëıħ":6174,"¼ëĬĶëį°":6175,"ìĿ´ìĥĪëģ¼ëĵ¤":6176,"Ĥĺê°Ī":6177,"Ġë°Ŀ":6178,"ĠãħĹãħľãħĳ":6179,"ì£¼íĻį":6180,"´ëĭ´":6181,"§ĪíĬ¸":6182,"¬¸ìłľ":6183,"ĠìŀĪìĸ´ìĦľ":6184,"ĠëŃĲíķĺëĬĶ":6185,"Ġìŀħë¬¸":6186,"ĠìĹŃìłĦ":6187,"Ġë½ĳê¸°":6188,"ãĦ·ãĦ·ãĦ·ãĦ·ãĦ·ãĦ·ãĦ·ãĦ·":6189,"Ġë°ĶëĢĮ":6190,"¯¹":6191,"°Ģë":6192,"ëĴ·":6193,"ĨĴ":6194,"ŃĲëĥĲ":6195,"ê°Ģê²©":6196,"ìĬ¤íģ¬ë":6197,"ë§ĺ":6198,"ì¤ĳìŀĦ":6199,"²Ħê±°":6200,"íŀĪëĬĶ":6201,"ìĺģíĥģ":6202,"ë¹łë":6203,"Ġë¬¸ìŀ¬ìĿ¸":6204,"ĠìĦłìĥĿ":6205,"Ġë°°ê²½":6206,"Ġê°¤ëŁ¼":6207,"íĺģì¤Ģ":6208,"ĠìĥĪëģ¼ëĵ¤ìĿ´":6209,"ìķĦëĭĪëĿ¼":6210,"ĠëĤłìĶ¨":6211,"ì´ĪëĶ©":6212,"ë´Ĭ":6213,"ĠR":6214,"ìĸĢ":6215,"ìľ¼ëł¤ê³ł":6216,"ìłķìĭłë":6217,"ìĭĿìľ¼ë¡ľ":6218,"ĠëĮĢíķ´":6219,"ìĹ°ì°¨":6220,"íĶĦëĭ¤":6221,"íļĮìĤ¬":6222,"Ġëªĩëªħ":6223,"ìĽĲëıĦ":6224,"ãħ¡ãħ¡ãħ¡ãħ¡ãħ¡ãħ¡":6225,"ĠëĲĺëĤĺ":6226,"ĠìĤ´ëł¤":6227,"ì²´ëĬĶ":6228,"Ġë£©":6229,"Ġê°ľê¿Ģìŀ¼":6230,"Ĥ³":6231,"ìĿ½":6232,"ìĬ¤íĭ°":6233,"Ġìĺ¨ë":6234,"ìĭľê¸°":6235,"ĠìĿ´ë¦¬":6236,"íŀĪíĬ¸":6237,"ìĺ¤ëħ¸":6238,"íķłìĤ¬ëŀĮ":6239,"íĤ¤ìĬ¤":6240,"Ġëĸ¨":6241,"ĠìķĦëłĪëĤĺ":6242,"ł¤ëĿ¼":6243,"ĠëĤĺë¦Ħ":6244,"ĠëłĪìĿ´":6245,"¥¸ëĭ¤":6246,"ĠìĦ¸ìĥģ":6247,"Ġëľ»":6248,"ìķĺëĤĺ":6249,"Ġì¹´íİĺ":6250,"Ġìĭ¸ìĽĢ":6251,"ĠëĴ¤ìĹĲ":6252,"ĠíĬ¸ìľĦíĦ°":6253,"ĠëĳĺìĿ´":6254,"ìļĶëĦ¤":6255,"ìĥĪëĤĢ":6256,"Ġê¶Į":6257,"ìĻĦë£Į":6258,"ë¦°ìĿ´":6259,"ê³§":6260,"ëħķ":6261,"íİłë":6262,"ĠìĪĺíķĻ":6263,"Ġë§ĪìĬ¤íģ¬":6264,"Ġë°ĽìĿĮ":6265,"Ġìŀ¬ë°ĮëĬĶ":6266,"ĠìĿĺìĥģ":6267,"ìłķëıĦë¡ľ":6268,"Ġëĭ¬ìķĦ":6269,"ĠìĹĲë°Ķ":6270,"ĠìŀĺìĥĿê¸´":6271,"MD":6272,"ëŀĢ":6273,"ìĦ¯":6274,"ĠìĹ®":6275,"ì¤Ģë¹Ħ":6276,"ĠìĿ´ê²ĥ":6277,"ĠìĿ´ìłł":6278,"ìķ¼ê°¤":6279,"ë°Ģ":6280,"íģĲë":6281,"§ĪíĨł":6282,"íı°ë":6283,"ĠìĤ¬ê±´":6284,"Ġë¹Ī":6285,"ê¸ĢìĹĲ":6286,"Ġë§İìĿĢëį°":6287,"ê°ķíĻĶ":6288,"Ġê³łìłķ":6289,"íķľëıĻ":6290,"ĠìĽĥê¹Ģ":6291,"íĺ¼ìŀĲ":6292,"ìĺĢëħ¸":6293,"íģ´ëŁ½":6294,"ë¨¸ëĳĲë§ģ":6295,"Ġì»¤ë®¤":6296,"Ġìĸ´ì¼ĢëĲ¨":6297,"±ĥ":6298,"¹¼ë":6299,"ê°ĢëĬĶê±°":6300,"ê°Ļëħ¸":6301,"Ġë¹Ļ":6302,"ìĤ¬ëĵ¤":6303,"ìħĺë":6304,"ĠìľłíĬŃ":6305,"íĨµíķ©":6306,"Ġê¼½":6307,"ĠëĲĺëĬĶëį°":6308,"Ġìĸ´ëĶĶê°Ĳ":6309,"ë¬¸ìłľ":6310,"ì¶ķêµ¬":6311,"Ġì§ĳìĹĲ":6312,"Ġìĸ¼êµ´ë":6313,"Ġìĸĳìĭ¬":6314,"ĠíķłëķĮ":6315,"ëħĦëıĦ":6316,"ĠíĻįìĸ´":6317,"Ġíľ´ë":6318,"Ġë³Ħë¡ľìŀĦ":6319,"Ġê´´ë¡Ń":6320,"°ķìĿ´":6321,"Ĥ¬ëĦ¤":6322,"Ħ¹":6323,"Ġëĥī":6324,"¹Ħê°Ģ":6325,"íıĲë":6326,"ĠìĤ¬ìĦľ":6327,"Ġê¹Ĭ":6328,"ìłĲìĭ¬":6329,"ìĹ°ìķĦ":6330,"Ġìĺ¬ë¦°":6331,"íļĮì°¨":6332,"Ġìºł":6333,"Ġë¶Ģìĥģ":6334,"Ġìµľê°ķ":6335,"Ġìĸ´ëĶĶê¹Įì§Ģ":6336,"²Ħë¦¬":6337,"Ġë¨¸ê°Ģ":6338,"Ġì£¼ë§Ĳ":6339,"Ġìĵ°ëĥĲ":6340,"Ġê±°ëŀĺ":6341,"Ġë¶ĪëŁ¬":6342,"íķĺì²ł":6343,"ìķ¼ì§¤":6344,"Ġë³¸ë":6345,"ìĪĺìŀĪëĥĲ":6346,"ì¶¤":6347,"Ġê·¸ëł¤":6348,"Ġê·¸ë¦°":6349,"ëª¸":6350,"Ġë¹»":6351,"íŀĪìĸ´ë¡ľ":6352,"Ġì§Ģê°Ģ":6353,"íħĮìĿ¼":6354,"ìłĲíķĳ":6355,"ĠìĹ¬ìºĲ":6356,"°©ìĹĲìĦľ":6357,"Ġë¨¹ìľ¼ë©´":6358,"łĩê²Įë":6359,"ë³µìłĪ":6360,"ê¸°ëŀĳ":6361,"íĻķë¥ł":6362,"ĠìĻ¸ì§Ī":6363,"ĠìĿĺìĻ¸ë¡ľ":6364,"Ġìļ©ë³ĳ":6365,"ì´Ŀê³µ":6366,"ĠëĤ«ì§Ģ":6367,"Ġë°ĶëĢĲ":6368,"Ġëºı":6369,"ĠíĢĺìĬ¤íĬ¸":6370,"´ĩ":6371,"ë´Ħ":6372,"Ķĺ":6373,"ìĿ´ìĹĪ":6374,"ê°ĢëıĦ":6375,"¡ľìļ°":6376,"êµ°ëĮĢ":6377,"ë§¹":6378,"ìĿ¸íĦ°ë":6379,"ìłķíĽĦ":6380,"íĸĪë":6381,"ĠëĤĺíķľíħĮ":6382,"ê°Ļê¸Ķ":6383,"ìĦ±íĺķ":6384,"Ġ28":6385,"ĠìĹĨê³ł":6386,"Ġë¶ķ":6387,"ĠìĭľìĽĲ":6388,"Ġë³´ëĥĲ":6389,"Ġë§ŀëĬĶëį°":6390,"Ġëĭ¤ë¦¬":6391,"ĠëĤ¨ìĪľ":6392,"ìį¬":6393,"ëĤ¨ìķĦ":6394,"§Ŀíĺ¸":6395,"Ġíķłê±°":6396,"´īì¤Ģ":6397,"´¤ìŀĲ":6398,"ì§Ģë§ĮìĿ´íĺķ":6399,"ëŀľë":6400,"ìĬ¬ìĬ¬":6401,"ìķĮëł¤":6402,"Ġìļ°ë¦¬ê°Ģ":6403,"ì¹łíĶĮ":6404,"ìıĺë":6405,"íĹ¬ìĬ¤":6406,"ĠìĹ°ëĿ½":6407,"íķľíħĮëıĦ":6408,"Ġ!":6409,"ëĭ®":6410,"ìĿ´ìłł":6411,"ê°ĢìŀĲ":6412,"ìĸ´ì¤ĺ":6413,"Ġìĺ®":6414,"Ŀ¼ëĤĺ":6415,"ìķĪíķ´":6416,"ìĤ¬ëĿ¼":6417,"ĠíĻĪ":6418,"ì¹´ê°Ģ":6419,"íĬ¸ëłĪìĿ´ëĵľ":6420,"Ġìľłíĸī":6421,"Ġë°©ìĸ´":6422,"Ġãħĭãħĭãħĭãħĭãħĭãħĭãħĭãħĭãħĭãħĭãħĭãħĭãħĭãħĭãħĭ":6423,"Ġë§ŀìķĦ":6424,"ì¤ĦìĤ¬ëŀĮ":6425,"ìī¬ë":6426,"´Ĳìķ¼":6427,"ìį¹":6428,"Ġìĭľë¦¬ì¦Ī":6429,"ëĶĶìĶ¨":6430,"ìķĺëįĺ":6431,"Ġì§ģìłĳ":6432,"ëĭ¬ëĿ¼ê³ł":6433,"Ġê¿Ģë":6434,"íĺĪê·Ģ":6435,"Ġì¥¬ì§Ģ":6436,"real":6437,"en":6438,"Ġ,":6439,"ŀı":6440,"ì²¨ë":6441,"ĠìķĦíĭ°":6442,"Ġê°Ģì¡±":6443,"êµ¬íķ¨":6444,"ĠìķĪíķ´":6445,"Ġ27":6446,"ê´Ģë¦¬":6447,"ĠìĿ¸ìĤ¬":6448,"Ġë³´ëĿ¼":6449,"ìĿ¼ë¡ľ":6450,"ìłľë¶ĢíĦ°":6451,"ĠíĸĪìĿĮ":6452,"íĻķìłķ":6453,"Ġì¹´ë©ĶëĿ¼":6454,"ĠíĻĶìŀ¥":6455,"ìĿ´ëħ¸ìĬ¤":6456,"íĶĦë¦¬ì½ĶëĦ¤":6457,"Ġê½ĥ":6458,"Ġì¡¸ëĿ¼":6459,"ĠíĽ¨ìĶ¬":6460,"28":6461,"ë¦¼":6462,"ë¡¯ëį°":6463,"ĠI":6464,"íķĺê²łëĦ¤":6465,"ĠìŀĶë":6466,"ĠìĿ´ìłķëıĦ":6467,"ìłķìĭł":6468,"ìķĦë¬´":6469,"êµŃë°¥":6470,"ì»´ë":6471,"ìľĦíĤ¤":6472,"ĠìĪĺìº¬ë£¨":6473,"ìĨįëıĦ":6474,"ì±Ĺ":6475,"Ġìĸ´ëĶĶìĦľë":6476,"ìļĶì¦ĺìĿĢ":6477,"ĠíĮĮëĬĶ":6478,"ëĭīìĬ¤":6479,"ĠëĮĢë°ķ":6480,"ë£©":6481,"ĠìĬ¹ê²©":6482,"Ġìļ´ì§Ģ":6483,"ìĸ´ëĸ¤":6484,"Ġ180":6485,"Ġê·ĢìĹ¬ìļ´":6486,"35":6487,"¬´ëĤĺ":6488,"ìķĶë":6489,"Ġê°Ħë":6490,"ìĪľë":6491,"Ġëĭĺëĵ¤":6492,"ìĭľíĮĲ":6493,"ĠëĤĺìĻĶë":6494,"³´ì§Ģ":6495,"ìĹ¬ìŀĲëĵ¤":6496,"Ġêµ³ìĿ´":6497,"ëĮĢì²´":6498,"ĠìĥĿê°ģëĤĺëĦ¤":6499,"ì¿¼":6500,"ĠìķĬìķĺëĥĲ":6501,"ĠìĺĪìłĦìĹĲ":6502,"Ġë²ĦíĶĦ":6503,"ıĮìĿ´":6504,"Ġêµ¬ëĿ¼":6505,"ĠìľĦíķ´":6506,"íĶĮëłĪ":6507,"Ġëĭ¬ë¦°ëĭ¤":6508,"ëª¨ëĵł":6509,"Ġëª°ëŀĲ":6510,"ĠëĤĺìĻĶëĬĶëį°":6511,"ê°ľìĿ¸ìłģìľ¼ë¡ľ":6512,"íķĺìĿ´":6513,"ìĭłê·ľ":6514,"²ĦìłĦ":6515,"ĠìķĪëĲĺëĦ¤":6516,"ĠíĥĪë¦¬":6517,"¯¼ì²ł":6518,"Ġê¸°ìĪł":6519,"ë¦¬ê³ł":6520,"¬´ë¦¬":6521,"ĠëĺĲë":6522,"Ġë¬¸ìłľë":6523,"ë¯¼ì£¼ëĭ¹":6524,"Ġë°°ëĭ¬":6525,"ĠìĦ¸íĮħ":6526,"ë¨¹ê³ł":6527,"Ġê·ĢìĹ¬ìĽĮ":6528,"ĠãħįãħĮãħĬ":6529,"ìĹĮ":6530,"ĮĢìŀ¥":6531,"ìĿ¼ìĿĢ":6532,"ìķĦë¨¹":6533,"Ġê¸°ëĭ¤ë¦¬":6534,"ĠìŀĲìĭł":6535,"íĶĦëłĪìĬ¤":6536,"ëħĦìĥĿ":6537,"ĠëģĦ":6538,"ê±¸ìĿ´":6539,"Ġê³Ħíļį":6540,"íķľëĭ¤ëĬĶ":6541,"ĠëĤĺìĺ¤ëĬĶê±°":6542,"ì°¨ëĿ¼ë¦¬":6543,"Ġìĭ¤ë§Ŀ":6544,"ĠíĹ¬ìĬ¤":6545,"ì¡´ëĤĺë":6546,"300":6547,"ê²Ĳ":6548,"ĠìķĻ":6549,"ìĿ´ë§Į":6550,"Ġì§ĵ":6551,"ĠìĿ´íĽĦë¡ľ":6552,"ìľ¼ëĿ¼ê³ł":6553,"ìķĦëĵ¤":6554,"ìħĶë":6555,"ì¹´íİ«":6556,"Ġì¡°ìĭ¬":6557,"Ġì£¼ê³ł":6558,"ĠìĿ¼ë²ł":6559,"Ġìĸ´ëĶĶê°Ķë":6560,"ê°ľë¡ľ":6561,"Ġì¢ĭìķĦíķ¨":6562,"ëłĪìĿ´":6563,"Ĥ¬ëĭ¤":6564,"Ġë©įì²Ń":6565,"ãħĪë":6566,"¡ľìĬ¤":6567,"íķ´ì§Ĳ":6568,"ĠëĤ©":6569,"ìłķìĥģ":6570,"ĤĺëıĦ":6571,"ĠìĪĺëĬ¥":6572,"ëłĮ":6573,"ìĭľë©´":6574,"íķľë¯¼":6575,"Ġë¨¹ìĿĮ":6576,"ìĪĺë¹Ħ":6577,"ìĦĿìĿ´":6578,"Ġìŀħê³ł":6579,"??????":6580,"Ġê²°ìĬ¹":6581,"Ġëĵ¤ìĸ´ìĻĢë":6582,"íĪ½":6583,"ĠëĮĢë¦¬":6584,"Ġì½Ķëĵľ":6585,"Ġì´ĪìĽĶ":6586,"Ġëª¨ë¥´ê²ł":6587,"Ġê·¸ëŁ°ê±°":6588,"Ġë©ĶìĿ´íĶĮ":6589,"ĠìŁ¤":6590,"¥Ļ":6591,"Ł¿":6592,"íķĺê²łì§Ģ":6593,"ĠìĹłë":6594,"ìĭľìŀ¥":6595,"ì¼Ħ":6596,"íĥĢê³ł":6597,"³´ìĥģ":6598,"²ĦìĬ¤":6599,"ĠíĻľëıĻ":6600,"Ġíĥģ":6601,"Ġì½±":6602,"Ġì§ĢëĤĺ":6603,"ĠíŀĪë":6604,"ì½Ķë¦¬":6605,"íĮĢìĿ´":6606,"Ġëķħ":6607,"ìĽĶëĵľ":6608,"Ġê°ĸê³ł":6609,"ĠìľłíĬľë²Ħ":6610,"ìķ¨ë²Ķ":6611,"ìĽłë":6612,"ì¤ĺëıĦ":6613,"ĵľë¦¬":6614,"Ġìĺ¤íĥľê³¤":6615,"ìķĪíĥĢ":6616,"ĠìĥĿê¹Ģ":6617,"Ġê³µìľł":6618,"Ġë°©ì¶ľ":6619,"Ġë¹Ħìľ¨":6620,"ìļ°ëŀĮ":6621,"ì°½ëħĦ":6622,"Ġê³Ħìķ½":6623,"ê·ĢìĹ½":6624,"ìĺĢìĸ´":6625,"ìĿµìĬ¤":6626,"Ġëª°ëĿ¼ëıĦ":6627,"ĠìİĦ":6628,"¹¼":6629,"łë¡ľ":6630,"ĠìłĲë":6631,"ê¹Ĭ":6632,"ãĦ¸":6633,"ĠëĤĺìģĺ":6634,"Ġê°Ģìķ¼":6635,"ĠìĤ¬ê·Ģ":6636,"ìĹ°ìķł":6637,"ì½ĶíĬ¸":6638,"ê·¸ê±°":6639,"Ġì¤ĳë³µ":6640,"ë°©ë²ķ":6641,"Ġë¨¹ìĸ´ë":6642,"ëħĦì°¨":6643,"ĠìłĢìĥĪëģ¼":6644,"íĪ¬ìĪĺ":6645,"ĠìĹ°ìĨį":6646,"ìĺĪìķ½":6647,"íĮĮë©Ķ":6648,"Ġì¼ľ":6649,"ĠìĪľê°Ħ":6650,"§İìĿ´":6651,"Ġê¼´ë¦¼":6652,"Ġê·¸ëŁ°ê°Ģ":6653,"ĠìĤ°ëĭ¤":6654,"ìĸįìĸį":6655,"ìĽ¹íĪ°":6656,"Ġìķłë¯¸ëĴ¤ì§Ħ":6657,"ë²łë¥´ë":6658,"Įë¦°ì§Ģ":6659,"Ġìī´ë":6660,"íķĺìĭł":6661,"Ġê°ľë°ľ":6662,"ìĥĿìĿ¼":6663,"Ġë³´ê³łìĭ¶":6664,"Ġíķĺë£¨ë":6665,"Ĥĺëŀĳ":6666,"íķ´ëĬĶ":6667,"ìłĲìĿĢ":6668,"ì½Ķê°Ģ":6669,"³´ëĥĲ":6670,"íĺ¸ê¸°":6671,"Ġê´Ģë":6672,"íĿĻ":6673,"ê³Ħìķ½":6674,"ë¹Ħíĭ±":6675,"Ġê°ĢëĬ¥íķľ":6676,"ĠíĽĦíļĮ":6677,"ĠìķĪëĤĺìĺ´":6678,"ĠìĹ¬ë¡ł":6679,"ìļ´ëĵľ":6680,"Ġìĸ¸ìłľë¶ĢíĦ°":6681,"ëĮķìĿ´":6682,"ĠëĪĪë¬¼":6683,"Ġìĸµìļ¸":6684,"Ġì¹Ńì°¬":6685,"Ġê²ģëĤĺ":6686,"Ġ^^":6687,"ìĿ´ìĺ¤":6688,"ì§ĢìĹŃ":6689,"ìĥĮë":6690,"¨ëĦ¤":6691,"ìĿĺìĤ¬":6692,"íŀĪë¡ľ":6693,"ĵľë°±":6694,"ĠìķĪëĲĺëĤĺ":6695,"ìŀĲëıĦ":6696,"°ĶíĥĢ":6697,"ìĨĮìĦ¤":6698,"íĶ¼ê°Ģ":6699,"ìĹ°ìĨį":6700,"ìĻĶìĸ´":6701,"ĠìĿ¼ìłķ":6702,"ĠíĴĪ":6703,"Ġ99":6704,"łĪëĵľ":6705,"íķĳíģ¬":6706,"Ġìŀłê¹Ĳ":6707,"ĠëĬĲê·¸":6708,"Ġê³¼ê±°":6709,"ìĬ¬ëĿ¼":6710,"¸ëŁ°ìĬ¤":6711,"ìĻ¤ì¼Ģ":6712,"ĺĲë":6713,"ĠìĮĵ":6714,"ìķĦê¸°":6715,"¤ëħ¸":6716,"ì£¼íĸī":6717,"ë§ĮíĻĶ":6718,"Ġì§ĢëĬ¥":6719,"Ġì¤Į":6720,"Ġë°ĽìĿĦ":6721,"Ġë³µê°ģ":6722,"Ġëĸ¡ëĿ½":6723,"Ġì¼Ģë":6724,"ìºĲë¦ŃíĦ°":6725,"ê¹Ģë¯¼":6726,"ëĪĪë":6727,"Ĥ¨ëĵ¤":6728,"ëĬĲëĿ¼":6729,"ì§Ģìħĺ":6730,"Ŀ¼íķĮ":6731,"íŀĺëĵ¤":6732,"Ġíķĺëĵľ":6733,"ĠìĬ¤ì¹´":6734,"ê²½ìĽĲë":6735,"ëĬ¥ëł¥":6736,"ëĭ¨ê³Ħ":6737,"ì½ĶëĬĶ":6738,"¯¸ë¡ľ":6739,"ë¦¬ê·¸":6740,"íĿī":6741,"ìĿ¼ëıĦ":6742,"Ġìĺģìĸ´":6743,"ĠëıĦì°©":6744,"ëªħìĿ´":6745,"Ġë³ĳìĭłë":6746,"ìĿ´ëĿ¼ìĦľ":6747,"íĽĦê¸°":6748,"Ġë°°íĦ°ë¦¬":6749,"ıĮìķĦ":6750,"Ġ2020":6751,"ĨĪìĿ´":6752,"ĠãĦ±ãĦ´":6753,"Ġê°Ħëĭ¨":6754,"Ġì¶ľìĭł":6755,"Ġë¶ĦìĦĿ":6756,"ĠíĶĮìĺµ":6757,"Ġë©´ìłĳ":6758,"Ġëŀľëį¤":6759,"ĸł":6760,"Ġíĩ´ë":6761,"Ġê³±":6762,"ì§Ħì§ľë":6763,"ìłĦìĦ¤":6764,"íģ´ë¦¬":6765,"ìĽĲìĺģìĿ´":6766,"ĠìĿ´ë»Ĳ":6767,"Ġì¢ĨëıĦ":6768,"ê°ĢëģĶ":6769,"ìĹħëİĥ":6770,"ìĿ¼ëķĮ":6771,"ìļ´ê²Į":6772,"Ġì¡°íļĮìĪĺ":6773,"ìĪĺë¥¼":6774,"ê°¤ë¡ľ":6775,"ĠìķłíĶĮ":6776,"ë©´ë":6777,"ìĭ¸ìĽĢ":6778,"Ġê´ľíŀĪ":6779,"ĠëĴ·ê´ĳê³ł":6780,"ĠëŃĺë¡ľ":6781,"kg":6782,"íĲ":6783,"ìĬ¤íĨł":6784,"ìłķíķľ":6785,"íķĺëĬĶìķłëĵ¤":6786,"ëıĦìłģ":6787,"ĠìĻľìºĲ":6788,"ìĹĨëĤĺ":6789,"ĠëŃĲì§Ģ":6790,"ì£¼ëħ¸":6791,"Ġì¶Ķê°Ģë":6792,".......":6793,"íĥľìĸĳ":6794,"Ġë©¸ë§Ŀ":6795,"ë§Īë¦¬ëĤĺ":6796,"ìľ¼ìľ¼":6797,"ëĭĺëĵ¤ìķĦ":6798,"ĠëıĻìĥĿ":6799,"Ġëĵľëŀį":6800,"ìķĦëĭĪë©´":6801,"ĠêµĲíĻĺ":6802,"Ġíģ¬ê²Į":6803,"Ġì²´ê°Ĳ":6804,"ĠìĤ¬ëŀĮëĵ¤ìĿ´":6805,"ľ¨ë©´":6806,"Ġíŀĺëĵł":6807,"ëĬ¦":6808,"ìĹĪë":6809,"ê°Ģê°Ģ":6810,"¼ë§":6811,"ì§Ģê¸°":6812,"ëĭ¤ìĿ´ëħ¸ìĬ¤":6813,"ìĿ´ëĤĺë":6814,"ê±°ëĿ¼":6815,"ĮĢíĺ¸":6816,"ĠëĭĪë":6817,"ìĪĺìŀĪëĬĶ":6818,"ìłľìĿ´":6819,"ìŀ¥ë©´":6820,"ĠëŃĶë":6821,"ê¸Īì§Ģ":6822,"íŀĲë":6823,"²Ħì§Ģ":6824,"ĠìłķìĭĿ":6825,"ëĮĢìłĦ":6826,"Ġê°Ļê¸Ķ":6827,"íĶ¼ëĬĶ":6828,"íįĦ":6829,"ê²ĥê°ĻìĿĮ":6830,"Ġë¨¹ìĿĢ":6831,"ĠíŀĻ":6832,"ĠìłĢëŁ¬":6833,"ħãħħãħħ":6834,"ĠíĶĦë¡ľë":6835,"ĠìĥĪëģ¼ê°Ģ":6836,"Ġë°ĺëĮĢ":6837,"ĠëŃĺê¹Į":6838,"ëĭĺëįľ":6839,"ìĤĲë¶Ģ":6840,"Ķľë":6841,"ì§¹":6842,"ìĿ´ìĹĪìĿĮ":6843,"Ģëį°":6844,"ĠìĥĮë":6845,"ê°ĻëĥĲ":6846,"ĠìķĪíķĺëĥĲ":6847,"ë§ĮìĽĲë":6848,"ĠìķĪëĲľëĭ¤":6849,"ìĤ¬ë¡ľ":6850,"Ġìĸ´ì©Ķ":6851,"Ġì¢Ĩë":6852,"ìĭľëĮĢ":6853,"Ġê±°íĴĪ":6854,"ìķ¼ëı¼":6855,"ëħĦìĹĲ":6856,"ëĦ·":6857,"Ġëª¨ìĬµ":6858,"íĸīë³µ":6859,"Ġê¸°ëħĲ":6860,"ĠëıĦìĤ¬":6861,"ĠëıĦìłģ":6862,"ìĺ¬ëł¤":6863,"Ġì£¼ë©´":6864,"ĠíļĮë":6865,"ìķĦìĿ´ìľł":6866,"ë¯¸ëŀĺ":6867,"ĠìĿĮìķħ":6868,"Ġì¶©ë¶Ħ":6869,"íķľë¯¼êµŃ":6870,"ĳł":6871,"ĠëķĮë¬¸":6872,"ìĿ´ìŀĸìķĦ":6873,"ìĿ´ëŁ¬":6874,"íĺ¼ë":6875,"ĠìķĦíĶĦë¦¬ì¹´":6876,"íĬ¸ìĻĢìĿ´ìĬ¤":6877,"¦¬ë©´ìĦľ":6878,"ĶĶìħĺ":6879,"íħĮìĬ¤íĬ¸":6880,"°©ìĹĲ":6881,"ĠìĿ¼ì£¼ìĿ¼":6882,"íį¼ì¦Ī":6883,"°ķìĬ¤":6884,"ë§Ŀíĺ¸":6885,"ĠëıĮíĮĮ":6886,"Ġë¬´ë£Įë":6887,"íĮĶìĿ´":6888,"Ġë´Ĳìķ¼":6889,"Ġíķĺë£¨ìĹĲ":6890,"ĠìĿ¸íĦ°ëĦ·":6891,"ìķĪëħķíķĺìĦ¸ìļĶ":6892,"ĠíĬ¸ë¡ľìĿ´":6893,"Ġë·°ì§Ģ":6894,"ê°Ģê¸°":6895,"¸ëĵľ":6896,"ëĭ¤ëĬĶëį°":6897,"Ġë°´":6898,"ìłķíĻĺ":6899,"Ġìľ¾":6900,"Ĥĺë¯¸":6901,"¯¼íĺģ":6902,"íķłê±°ë©´":6903,"ìĨĮëĤĺ":6904,"Ġìĺ¬ë¦¬ë©´":6905,"íķĻìĽĲ":6906,"íĨłëģ¼":6907,"ĠëĤĺëĿ½":6908,"Ġíķ´ëªħ":6909,"ĠëĶ°ë¨¹":6910,"ĠìķĦìĿ´íı°":6911,"ìĿ´ìĥģíĻĶ":6912,"ĠãħİãħĮãħĬ":6913,"Ġë³Ħë¡ľë":6914,"ĠíĺĲìĺ¤":6915,"ĠíĮ¬ëį¤":6916,"Ġë¸ħìĭł":6917,"Ġíģ´ë¦¬ìĸ´":6918,"26":6919,"¦ĩ":6920,"íķı":6921,"ì§Ħëĵ¤":6922,"Ġìłł":6923,"Ġìĭ¸ë":6924,"ĮĢìłĦ":6925,"ìĿ¸ìĬ¤íĥĢ":6926,"ì£¼ê³µ":6927,"ëĤĺê³ł":6928,"Ġëĭ¤ëĭĪ":6929,"ê·¸ë¦¬ê³ł":6930,"ĠìķĪë§ŀ":6931,"ĠìĭľíĹĺ":6932,"Ġê°Ļì§Ģ":6933,"ê¸ĢìĿ´":6934,"¡ľë§Į":6935,"ìļ°ëĵľ":6936,"Ġìŀ¥ë©´":6937,"Ġë§Īë¦¬ëĤĺ":6938,"Ġë§¤ì¹Ń":6939,"Ġíĭ°ì¼ĵ":6940,"ë¯¸ëĶĶìĭłë¹Ħ":6941,"ìľ¤ì§Ģ":6942,"ì²ĺìĿĮ":6943,"Ġë§¤ëł¥":6944,"íİĺë¯¸":6945,"Ġì§±ê¹¨":6946,"Ġì¦Ŀê±°":6947,"ĠìĥĪë²½ìĹĲ":6948,"ĠìĹīëį":6949,"ªĩ":6950,"İģ":6951,"ëĭ´ë":6952,"íħĶëĿ¼":6953,"ì¹ĺëĬĶê±°":6954,"ĠìŀĪëĭ¤ê³ł":6955,"Ġì¹¨ë":6956,"ìĹĨëĬĶê±°":6957,"ê²½ë¯¼":6958,"ìĭľëĤĺ":6959,"Ġì¡°ìŀĳ":6960,"ë¬¸íĪ¬":6961,"Ġë§ĮëĵľëĬĶ":6962,"ĠìķłëĭĪë":6963,"ë§Ŀìĺ¤ìĬ¤":6964,"íİ¸ìĿĺìłĲ":6965,"íĪ´":6966,"íĬľë²Ħ":6967,"Ġë¸Įê¸Ī":6968,"Ġëª¨ë¥´ê²łìĿĮ":6969,"ì»¨íħĲì¸ł":6970,"ì¥¬ìĸ¼":6971,"ìİĦë¦¬":6972,"Ġìī½ê²Į":6973,"ëĿ¼ê³ł":6974,"ĠëĥĦìĥĪ":6975,"ĺë§Ī":6976,"į°ìĿ´":6977,"ê³łìĪĺ":6978,"ĠëĤĺìģľ":6979,"ĠìĪĺëıĦ":6980,"ìľłìŀħ":6981,"ĠëĦ·":6982,"íİŃ":6983,"Ġì¹©":6984,"ĠìĬ¤ì¼Ģ":6985,"ĮĢë¨¹":6986,"³´ëĤ´":6987,"ìĭľë¸Į":6988,"ë°©ì¶ķíķĺ":6989,"ìĸĳìĭ¬":6990,"ĠíĹ¬ë":6991,"ĠìĿ¼ë¶ĢëŁ¬":6992,"ĠìĺĪìłĦ":6993,"ì¹ĺë¡ľ":6994,"ĠíĶ¼ê³¤":6995,"ìłĢëŁ°":6996,"Ġë¶Ģë¶Ħ":6997,"ĠíĶĦëĿ¼":6998,"Ġë°ľê²¬":6999,"Ġìĭ¬ìĭ¬":7000,"Ġë§ĽìŀĪ":7001,"Ġëĵ±ë¡Ŀ":7002,"Ġì´ĪëĶ©":7003,"ĠëĨĴìĿĢ":7004,"Ġìĸ´ì©Įë":7005,"Ġëĸ³ëĭ¤":7006,"ĠìľłëĭĪíı¼":7007,"Ġìŀ¬ë°ĮëĥĲ":7008,"ĠìĬ¹ê²©ìĿĦ":7009,"íĮĮë©Ķì¹´ëħ¸":7010,"ìĿ´íĭĢ":7011,"íķĺìĬ¤":7012,"ĠìķĦê¹Ŀ":7013,"Ġê°ĢìĦ±ë¹Ħ":7014,"ëĥĲê³ł":7015,"ìĹ¬íĸī":7016,"Ġë³´ìĿ´ëĬĶ":7017,"Ġ35":7018,"ĠìĪĺìĥģ":7019,"ì¦Īê°¤":7020,"íĿĶ":7021,"ĠìłĦìŁģ":7022,"ëĤľëĭ¤":7023,"Ġì¶Ķì²ľë":7024,"ìĿĢê±°ìŀĦ":7025,"ëŃĲìŀĦ":7026,"ìĿ´ìľłê°Ģ":7027,"ĠìĻľìĿ´ëŁ¼":7028,"ë°°ë¯¼":7029,"Ġëĵ£ê³ł":7030,"íı´ê°ĢìĿ´ì¦Ī":7031,"Ġëĸ³ëĥĲ":7032,"ĠìĬ¤íĬ¸ë¦¬ë¨¸":7033,"op":7034,"ë¡¤ë":7035,"¶Ģíĥģ":7036,"Ġ26":7037,"ê°Ħê±°":7038,"ì²ľìŀ¥":7039,"ĠìĥĿê°ģíķĺë©´":7040,"Ġìŀ¬ë£Į":7041,"ĠëŃĲëŃĲ":7042,"ĠíĬ¸ìĻĢ":7043,"ë§Įëªħ":7044,"ĠëįĺìłĦ":7045,"Ġíķĺì§Ģë§Ī":7046,"ì±ĦëĦĲ":7047,"700":7048,"ê²Ķ":7049,"ê¸°ë¶Ħ":7050,"ì¤«":7051,"ì¦ī":7052,"Ġì¢ĭê²łìĸ´":7053,"ì¤ĳìĿ¸":7054,"Ġêµ¿ì¦Ī":7055,"Ġê¸°ê°Ħ":7056,"Ġëħ¼":7057,"ĠìĭłíĻĶ":7058,"Ġì½ľ":7059,"Ġëĭ¤ë¥¸ë":7060,"Ġë¬¸ìŀĲ":7061,"ĠíĿĺë":7062,"ĠíĤ¤ìĽĮ":7063,"ĠíĤ¤ìĽĮë":7064,"ĠíĶ¼íķ´":7065,"íĻįìĸ´":7066,"ìĦ¼ìĦ¸":7067,"Ġì¢Ĩê°ĻìĿ´":7068,"ëħĦëĮĢ":7069,"ĠëĳĲëªħ":7070,"Ġê¾¹ì°ľ":7071,"ì¡ĮëĥĲ":7072,"ĠíĮĲë§¤":7073,"Ġì¹ľêµ¬ëĵ¤":7074,"²¨ë":7075,"ìĸ´ìĿ´":7076,"ĠìĿ´ìłģ":7077,"ë³¸ë":7078,"Ġê°ĢëĿ¼":7079,"Ġìĺ¤ëĬĶ":7080,"ëĮĢì¶©":7081,"ìĹĨëħ¸":7082,"°Ķíģ¬":7083,"ĠìĹ¬ìĦ±":7084,"ìĭľë¶ĢíĦ°":7085,"ĠìĥģìĬ¹":7086,"ê²ĥëĵ¤":7087,"ĠìłĢìŀ¥":7088,"Ġê²½ìŁģ":7089,"êµĲìľ¡":7090,"ê°ľë§Į":7091,"Ġìĭ¤íĻĶ":7092,"Ġë§Īë²ķ":7093,"Ġìĸ¸ìłľì¯¤":7094,"ìŀ¬ë£Į":7095,"ĠìĦľíı¿":7096,"ĠìľĦíĹĺ":7097,"ì°¨ëıĦ":7098,"Ġì¡´ìŀĺ":7099,"Ġë³Ģê²½":7100,"Ķ°ëĿ¼":7101,"Ġê·¹íĺĲ":7102,"ìĽłëĬĶëį°":7103,"ĠìķĦë¬´ê²ĥëıĦ":7104,"32":7105,"400":7106,"¬ĺ":7107,"Ĥ¼":7108,"ĠëĿ½":7109,"ìĸ»":7110,"ĠìĿ´íĽĦ":7111,"Ġê±°ë¦¬":7112,"Ġê·¸ë§Įë":7113,"ĠìĿ´ëĶ´":7114,"²Ħê·¸":7115,"²ĦíĴĢ":7116,"ìķĦëŀĺ":7117,"Ġê°ľìĨĮë¦¬":7118,"Ġìĭľì¼ľ":7119,"ê°ĢëįĶ":7120,"ëł¤ë":7121,"ìĭľë¦¬ì¦Ī":7122,"ĠìłĦíĪ¬":7123,"ĠëĬĻ":7124,"Ġ400":7125,"ê²ĥê°ĻìĿĢëį°":7126,"Ġìĺ¬ë¦¬":7127,"íķĺëĬĶê±°ìķ¼":7128,"ëĿ¼ìĬ¤":7129,"ê°¤ëŁŃìĭľ":7130,"Ġë¶ĢëŁ½":7131,"ê±°ê°Ļìķł":7132,"ìĺĢëĤĺ":7133,"ĤłëĳĲ":7134,"ĠìĬ¤íĥ¯":7135,"ëĿ¼ë¹Ħëįĺ":7136,"Ġìĭľë¡ľì½Ķ":7137,"UMD":7138,"ga":7139,"ª¨ë¦¬":7140,"ŀµ":7141,"ì§Ģì»¬":7142,"ĠìķĶë":7143,"ĠìŀĬ":7144,"ê¹Ķë":7145,"ìĽ°":7146,"ëĭĪíĭ°":7147,"ìŀ¥ìķł":7148,"ìĤ¬ëłĮ":7149,"íĹ¨ë":7150,"¥´ì§Ģ":7151,"¥´íı¬":7152,"Ġê¸°ëĬ¥":7153,"ì°¨ëĬĶ":7154,"ãĦ±ãħĭ":7155,"ĠìłĦì²´":7156,"Ġê³łìĸĳìĿ´":7157,"Ġë§ĲíķĺëĬĶ":7158,"ëĤĺëŀĳ":7159,"Ġë¶ĢëŁ½ëĭ¤":7160,"ê°Īê¹Į":7161,"ĠëĶĶìŀĲìĿ¸":7162,"ĠìļķíķĺëĬĶ":7163,"Ġìŀ¬ëĬ¥":7164,"ĠëĮĢëĨĵê³ł":7165,"ĠíĬ¸ìľĦì¹ĺ":7166,"Ġíİ¸ì§ĳ":7167,"ĠìĮī":7168,"Ġë¹¨ìķĦ":7169,"ìķĹëĬĶëį°":7170,"ĠíĤ¤ë³´ëĵľ":7171,"ãħ£ãħ£":7172,"íĩ´ë":7173,"Ġ)":7174,"ģ¼ë¦¬":7175,"Ķ§":7176,"Ġê·ľ":7177,"ìĺ¤íĥľê³¤":7178,"ìłĦìŁģ":7179,"ìķĪíķĺê³ł":7180,"Ġì§Ģìĺ¥":7181,"ëĮĢëĬĶ":7182,"ìŀĲë©´":7183,"ĠìĥĿê¸°":7184,"ìĦłìĿ´":7185,"ĠìłĦìŀ¥":7186,"ìŀħê³ł":7187,"ĠìłĢê²Į":7188,"ĠìķĬìĿĦê¹Į":7189,"ê´Ģê³Ħ":7190,"Ġë°Ķê¾¸ë":7191,"Ġìį¸ë":7192,"Ġì§Īë¬¸ìłĲ":7193,"ì°įê³ł":7194,"ĠìĹĲìĸ´ì»¨":7195,"Ġë¯¸ë¦¬":7196,"ë¸Ķë£¨":7197,"ëİħ":7198,"Ĥ¬ëĬĶëį°":7199,"ĠìĿ´ìģĺëĭ¤":7200,"ìľ¼ë¡ľëıĦ":7201,"ĠìĬĪíį¼":7202,"ŀ¬ëĬĶëį°":7203,"Ġì§Ħì§ľë¡ľ":7204,"ì¾Į":7205,"88":7206,"ìµľë":7207,"ìĭ¹":7208,"ìĿ´ëıĻ":7209,"ìĿ´ëĪĦ":7210,"¦¬ì¹´":7211,"ìĤ¿":7212,"ìĬ¤íĦ°ë":7213,"ëĭĪìłĢ":7214,"ĠëĤĺìĻĶëĦ¤":7215,"ëĦ¤ìĿ´ë²Ħ":7216,"Ġê°ĢíħĮ":7217,"ì¤ĳìĿ´":7218,"ëª¨ëĵľ":7219,"ĠìĥĿê²¼":7220,"Ġë§İìķĦìĦľ":7221,"ê³ĦìĨį":7222,"Ġë§ŀì¶°":7223,"íĮ¨íĤ¤ì§Ģ":7224,"ë¬¸ìŀ¬ìĿ¸":7225,"ì§Ģëŀĳ":7226,"Ġê°ľëħĲê¸Ģ":7227,"ĠìĨĮìĭĿ":7228,"ĠìĥĪëģ¼ë":7229,"Ġìķłê¸°":7230,"íĶ½ìĹħ":7231,"Ġìŀ¬ë°Įëĭ¤":7232,"Ġëĵ±íĮĲ":7233,"ŃĲìŀĦ":7234,"ĠìĹĺë¦¬":7235,"ĥĪëĭ¤":7236,"ĠìŃī":7237,"OP":7238,"fact":7239,"pc":7240,"į¥":7241,"į¸ë":7242,"Ġëĵł":7243,"ãħĹ":7244,"ëĬħ":7245,"ìĿ´ìĭľ":7246,"ĠíĲ":7247,"ëĭ¤ìĭľë":7248,"ê³łë¯¼":7249,"ì¹´ëĤĺ":7250,"Ġì§Ŀ":7251,"ìĿ¸ê¸°":7252,"ìĿ¸ì²Ļ":7253,"§Īê°Ģ":7254,"ĠìŀĪê¸´":7255,"Ġìłķê°Ģ":7256,"Ġëª»ìŀ¡":7257,"ìĨĮìļ¸":7258,"ì¡°ê°ģ":7259,"íĮĮìĦľ":7260,"Ġì½©":7261,"ìķ¼ë¶ķìĿ´":7262,"ì¹ľêµ¬ê°Ģ":7263,"ê²ľìĿĢ":7264,"ì§Ģê¸Īê¹Įì§Ģ":7265,"ì¹´ë¦¬":7266,"Ġëªĩë²Ī":7267,"Ġë¶ĢìºĲ":7268,"ĠíĿ°":7269,"Ġë¶Īê°ĢëĬ¥":7270,"eat":7271,"ë£¨ëĤĺ":7272,"íī":7273,"ìĿ´ì§¤":7274,"íķĺê²Įë":7275,"ĠìŀĪëįĺ":7276,"ĠìĤĲë":7277,"íķĺëł¤":7278,"ĠëĤ³":7279,"ìłĦìŀĲ":7280,"ĠìľĦë":7281,"ĠìĹĨëĭ¤ê³ł":7282,"ĠìķĪëĲ":7283,"įĺìłĦ":7284,"Ġë¬´ìłģ":7285,"ĠëħĦëĵ¤":7286,"Ġíķ´ìĦ¤":7287,"ëĶľë":7288,"ëĦ¥":7289,"ëĤĺë³´ëĦ¤":7290,"ê°¤ëıĦ":7291,"ë°ķë³´ê²Ģ":7292,"Ġë°ĺì§Ģ":7293,"¥´ëĬĶê±°":7294,"Ġì²łêµ¬ë":7295,"ì±ĦìĽĲ":7296,"ê¼´ë¦¬ëĬĶ":7297,"ëķħ":7298,"ëĸ¡ë°¥":7299,"Ġìĸ´ëł¤ìĽĢ":7300,"ìĺ¤ëĬĺë¶ĢíĦ°":7301,"íķĺì§ĢìķĬëĥĲ":7302,"ë·Ķ":7303,"ìĹĲë§Į":7304,"Ġìŀ¼":7305,"Ġìĭ¬ë":7306,"ìľ¼ëł¤ë©´":7307,"ìĤ¬ê±´":7308,"ĠìķĪë¨¹":7309,"ìķĦëłĪëĤĺ":7310,"Ġ36":7311,"ĠëŃĲê³ł":7312,"Ġìĸ´ìºĲë":7313,"¦°ëį°":7314,"ìļ©ë³ĳ":7315,"Ġìľłì§Ģ":7316,"ì¢Ĩê°ĻìĿĢ":7317,"Ġìĺģíĸ¥":7318,"Ġëª¨ìŀĲ":7319,"ìĤ¬ëŀĮìĿĢ":7320,"ìķ½ëıħëĮĢ":7321,"Ġë°°ìĨ¡":7322,"Ġë§Įëĵľ":7323,"íĥĢë¡ľ":7324,"ĠíĦ±":7325,"Ġê³łë§Ī":7326,"ìĮ¤":7327,"íĸĩëĭ¤":7328,"Ġíĭ°ìĸ´":7329,"ëķ¡":7330,"Ġìĺµìħĺ":7331,"zz":7332,"ìŀĶë":7333,"Ġìķµ":7334,"ìķĦìĶ¨ë°ľ":7335,"ìĥĪë¡ľ":7336,"Ķëĵ¤":7337,"Ġì§Ĳ":7338,"ìĭłê¸°":7339,"Ġë¶Ħëĵ¤":7340,"ìĺ¤ë¹ł":7341,"ìĤ¬ëŀĮë":7342,"êµ¬ëĿ¼":7343,"êµ¬ë¡ľ":7344,"¥´ê¸°":7345,"Ġìĺ¬ë¦¼":7346,"Ġë°Ľìľ¼ë©´":7347,"ëıĦëĮĢì²´":7348,"Ġë°°ìļ°":7349,"°ĽëĬĶ":7350,"Ġë¯¸ëĵľ":7351,"ì¡Įìĸ´":7352,"ë°Ķë¡ľ":7353,"ë¨¸ìķ¼":7354,"Ġëŀ©":7355,"ì»¨ìħī":7356,"ı¼ì§Ģ":7357,"®¤ì§ģ":7358,"NCëĭ¤ìĿ´ëħ¸ìĬ¤":7359,"ìĹ¥":7360,"ĠíĥĲ":7361,"¡ľê·¸":7362,"Ġë§¡":7363,"ë³¶":7364,"íķ´ìĻ¸":7365,"íĬ¸ìľĦì¹ĺ":7366,"ì§Ħì§Ģ":7367,"ł¤ìķ¼":7368,"ìĽĲìĹĲ":7369,"Ġì§ĦíĻĶ":7370,"Ġë¹Į":7371,"ìº£":7372,"ìºĶ":7373,"ĠìĹ¬íĸī":7374,"Ġíķĺëĭ¤ê°Ģ":7375,"ĠìĪĺìĿµ":7376,"Ġê¸°ìķĦ":7377,"ìĭľë°©":7378,"ê¹Įì§ĢëĬĶ":7379,"Ġëĸ´":7380,"ìĨĮëĵĿ":7381,"íķ©ê²©":7382,"ĠëĤ¨ì¹ľ":7383,"ëĿ¼ëĬĶ":7384,"ëĿ¼ìĿ´íĶĦì¹ĺíŀĪ":7385,"ĠìķĬëĬĶ":7386,"ĠìĨĮìĨį":7387,"Ġêµ¬ê²½":7388,"ê²°ê³¼":7389,"ĠìĹŃìĤ¬":7390,"Ġì£½ìĸ´":7391,"Ġìŀ¡ìķĦ":7392,"íĨ¡ë°©":7393,"ĠíĶĮëłĪ":7394,"íĪ¬ëł¥":7395,"ĠìĨįëıĦ":7396,"Ġë¡¤ëĵľì»µ":7397,"°ĶëĿ¼":7398,"ë»":7399,"ìĿ´ìĹĪëĦ¤":7400,"łëıĦ":7401,"ĠìłĬ":7402,"ìĿ¼ìĸ´ë":7403,"íĬ¸ìĻĢ":7404,"¦¬ëĵ¤":7405,"ê°ĻìķĦìĦľ":7406,"Ł¬ì§Ģ":7407,"ëª°ë":7408,"ëĮĢíķĻ":7409,"ĠíĺĦë":7410,"Ġíķľëĭ¤ê³ł":7411,"ì£¼ë§Ĳ":7412,"ĠãĦ¹ãħĩãħĭãħĭ":7413,"Ġíķ´ìĻ¸":7414,"Ġíķ´ìķ¼íķ¨":7415,"Ġë¹Ħìĭ¸":7416,"ìļ°ëĥĲ":7417,"ìĪĺë¦¬":7418,"Ġëª¨ë°ĶìĿ¼":7419,"Ġê²½ì°°":7420,"ëĤłìĶ¨":7421,"ĠìĨĲíĺģ":7422,"íľ´ë":7423,"ĠìĻĦìĦ±":7424,"íļ¨ê³¼":7425,"ìĦ¤ë§Ī":7426,"Ġìĸ¸ëĥĲëĵ¤":7427,"Ġì½ĺìĦľíĬ¸":7428,"Ġë©ĶìĿ´ìłĢ":7429,"ë¸Ķíķĳ":7430,"ĠìŀĲëŁ¬ê°Ĳ":7431,"al":7432,"³Ħë":7433,"ë¯¼ë":7434,"ê³°":7435,"ì§ĢìłĲ":7436,"ìķĦíģ¬":7437,"ìĿĮìĭĿ":7438,"íķľìłģ":7439,"íķľìłĲ":7440,"ì½ĺë":7441,"ì¤ĳìĹĲìĦľ":7442,"ê·¸ë©ľ":7443,"Ġíķĺëħ¸":7444,"Ġì¡´ëĤĺê²Į":7445,"ì¼ĢìĿ´ìĬ¤":7446,"ì¤ĢìĿ¼":7447,"Ġë³´ëŁ¬":7448,"ë¹»":7449,"ìĿ¼ëĤł":7450,"Ġë´Ĳë":7451,"ìŀ¬ìĿ¼":7452,"ìĦ¤ì²«":7453,"Ġì§Ģëĵ¤":7454,"ĠëģĿëĤĺë©´":7455,"Ġê³łë¯¼ë":7456,"ìĭ¸ê°ľë":7457,"ĠìŀĳìĹħ":7458,"Ġì§ģê´Ģ":7459,"Ġì§ģìºł":7460,"ĠíĬ¸ìľĹ":7461,"ĠìĹ°ë´ī":7462,"Ġë³´ëĭ¤ê°Ģ":7463,"ĠëĬ¦ê²Į":7464,"ıĮë¦¬":7465,"ìŀŃ":7466,"Ŀ¼ìĿ¸":7467,"ëĤ¬ëĦ¤":7468,"íķĺëĬĶë²ķ":7469,"ìĹ¬ê¸´":7470,"ë¶Ļ":7471,"Ġê¹ľ":7472,"ìĹĪëĭ¤ê³ł":7473,"ĠëĮĢê²°":7474,"íĭ°ì½ĺ":7475,"ĠìĭłìºĲë":7476,"Ġê¼´ëį°":7477,"íį¼ëĬĶ":7478,"ìĿ´ëĿ¼ëĬĶëį°":7479,"Ġê³ĦìĤ°":7480,"ìĿ´ì§Ģë§Į":7481,"ëŃĲë":7482,"ëŃĶëį°":7483,"Ġì°¨ìĿ´ê°Ģ":7484,"Ġë§Ŀê°Ģ":7485,"ë©ľ":7486,"ĠìłĦë¬¸":7487,"§ŀìĿĮ":7488,"ĠíĻĶëł¥":7489,"ìĤŃìłľ":7490,"ĠëĭĪê°Ģ":7491,"Ġì·¨ìĨĮ":7492,"Ġíĺ¸ëª¨":7493,"Ġëĭ¤ìĭľë³´ê¸°":7494,"Ġì¡°ìĸ¸ì¢Ģ":7495,"Ġê±°ë¶Ģíķ©ëĭĪëĭ¤":7496,"ìĹĲìĸ´":7497,"ìĿ´ë¸Ķ":7498,"ê¸°ìĽĲ":7499,"ëĤľë":7500,"íĤµ":7501,"íİľë":7502,"Ġìłķê³µ":7503,"ê°ľê°Ģ":7504,"ê°Ģëħ¸":7505,"Ġë§ŀëĬĶê±°":7506,"ê²ĥë§Į":7507,"ĠìķĦëĭĪëĦ¤":7508,"ĠíŀĪë¡ľ":7509,"ë³ĳìĭłëĵ¤":7510,"Īë²ķ":7511,"íĮĢìĿĢ":7512,"Ġì°įë¨¹":7513,"ĠëĶĶìĬ¤":7514,"ëŀĸì¹ĺ":7515,"Ġíķ©ìĦ±":7516,"łĪìĿ´íģ¬":7517,"ĠìłķìĥģìŀĦ":7518,"ìĿ´ìĹĲìļĶ":7519,"Ġê»´":7520,"ĵľë¦½ëĭĪëĭ¤":7521,"ê·¸ëŁ°ëį°":7522,"Ġë°Ķë¥´ìĥ¤":7523,"ëŀĺ":7524,"ëĬĶëĶĶ":7525,"ìĿĢê±´":7526,"ëĤĻ":7527,"ìĭłìĿĺ":7528,"ĵľëıĦ":7529,"ê³µê²©":7530,"ì£¼ëĤĺ":7531,"ì£¼ë¬¸":7532,"Ġìŀĺíķ´":7533,"íİĺíĨł":7534,"íķľê±°ì§Ģ":7535,"ĠíĿĻ":7536,"Ġë§Įìķ½":7537,"ĠìĻ¸íĺķ":7538,"ëĸ³":7539,"ìĨĲíĺģ":7540,"ëĿ¼ë©´":7541,"Ġë¯¼ìĭ¬":7542,"ìĬĪíį¼":7543,"Ġë®¤ë¹Ħ":7544,"ìĬ¤ë°įìĿ¸ì¦Ŀ":7545,"29":7546,"om":7547,"ss":7548,"ë¡ł":7549,"ìĿ´íķ´":7550,"¬ëĥĲ":7551,"íķĺìŀĸìķĦ":7552,"íĶĶ":7553,"ĠìĤ½":7554,"ìĤ¬ìĿ´íĬ¸":7555,"ìĥģìľĦ":7556,"ì£¼ì°¨":7557,"íķĺëĬĶì§Ģ":7558,"ĠìŀĪìĸ´ìķ¼":7559,"ĠìĤ¬ìķ¼":7560,"ĠìķĪëĵ¤ìĸ´":7561,"Ġíķĺëįĺ":7562,"Ġíĺ¼ë":7563,"Ġì¢Ĩë³ĳìĭł":7564,"ê°Ģë¡ľ":7565,"¡ľëĵľ":7566,"ì¢Ĩë§Ŀ":7567,"ê¹Įì§Ģë§Į":7568,"ë¹Įë":7569,"Ġ45":7570,"ĠìĺĪìķ½":7571,"ì¹ĺëĥĲ":7572,"ĪĦêµ¬":7573,"ĠìĤ´ì§Ŀ":7574,"Ġíķłê²Į":7575,"Ġëĭµëĭµ":7576,"ãħľãħľãħľãħľ":7577,"ãħłãħłãħłãħłãħłãħłãħłãħł":7578,"Ġë¶Ħëªħ":7579,"ĪëĤĺë³´ëĦ¤":7580,"ì¹¨ë¶ĢíĦ°":7581,"Ġëĭ¹ìĹ°íŀĪ":7582,"Ġíı´ê°ĢìĿ´ì¦Ī":7583,"¼ë§ł":7584,"·Ķë":7585,"ê³±":7586,"ìĸĺë":7587,"ìĬ¤íĤ¤":7588,"ĠìĿ´ìĥĪëģ¼ëĵ¤":7589,"ì¹ĺì»¤":7590,"ĠìŀĪìĹĪëĦ¤":7591,"Ġì¢ĭìķĺ":7592,"ëª¨ë¦¬":7593,"ĠìĤ¬ëĬĶê²Į":7594,"íİĦ":7595,"ëĭĪëĵ¤ìĿĢ":7596,"¡ľëĤĺë":7597,"ì¤ĢìĪĺ":7598,"ìĭłëłĪ":7599,"Ġì§Īë¬¸ë":7600,"ĠíħĲ":7601,"Ġíĭ°ìłĢ":7602,"ì¯¤ë":7603,"Ġì»¤ë²Ħ":7604,"~~~~~~~~":7605,"ĠëĤ´ëħĦìĹĲ":7606,"Ġíķľë²Īë§Į":7607,"IA":7608,"Ĳë¦¬":7609,"ì²¼":7610,"Ġãħī":7611,"Ġìĸ´ë¦°":7612,"Ġ29":7613,"ìķĦë¥´":7614,"ê°ľëĬĶ":7615,"ìĺ¤ë²Ħ":7616,"Ġì¢Ĩê°ĻìĿĮ":7617,"íĹĺë":7618,"ë²Įë":7619,"ìĭľëĵľ":7620,"ë°©íĥĦ":7621,"ìĨĮëĵľ":7622,"ĠëĬĴëĦ¤":7623,"íķĺëĥĲê³ł":7624,"ĠíĽĪëł¨":7625,"ë¯¸ì§Ģ":7626,"Ġëħ¸ëł¥":7627,"ĠëıĦìķĪ":7628,"ĠíĤ¤ìĽĢ":7629,"ĠìĦłìĪĺëĵ¤":7630,"íĻĶë¡ľ":7631,"Ġë³¸ìĥģ":7632,"ë²ĪìĹŃ":7633,"ãħİãħĩ":7634,"Ġêµ¬ëıħ":7635,"ª½ìĸ´ìĬ¤":7636,"Ġì¢ĭìĿĢìłĲ":7637,"ĠìķĮëł¤ì¤Į":7638,"ĠëĦ¤ìĿ´ë²Ħ":7639,"ëĲĲ":7640,"Ġë¿Ĳ":7641,"ĠìĤŃìłľë":7642,"Ġë°Ģìĸ´":7643,"ì¡Įëħ¸":7644,"êº¼ë©´":7645,"Ġë³ĳìĭłëĵ¤ìķĦ":7646,"ìķħìĿĺê½ĥ":7647,"§Ļ":7648,"ìĹĦë":7649,"ìĿ´ìģĺ":7650,"ìłĿ":7651,"ìĸĦ":7652,"ìļĺ":7653,"ê¸°ëĬ¥":7654,"ìĬ¤ì¼Ģ":7655,"ĠìķĦì£¼":7656,"ìŀ¥íĮĲ":7657,"´ëĭī":7658,"ĠìĿ´ëª¨":7659,"ìķĦë¹ł":7660,"êµŃë°©":7661,"ĠìĬ¤íħ":7662,"Ġìĸ´ê¹¨":7663,"ì¹´ìĿ´":7664,"ë²¨":7665,"ìĹ°ìĬ¹":7666,"ìĬ¤ë§Ī":7667,"ìĭľëıĦ":7668,"ìļ©ìĿ´":7669,"Ĳĺê³ł":7670,"Ġì¡°ê±´":7671,"ëĶ¸ë":7672,"Ġìĺ¤ë²Ħ":7673,"ìĪĺë§Į":7674,"Ġëĭ¤ë¦Ħ":7675,"Ġê±°ë¥´ê³ł":7676,"ë°ĶëŀĮ":7677,"ĠëĦ¤ìĿ´ë§Īë¥´":7678,"Ġê¶ģê¸Īíķľê±°":7679,"Ġì·¨ê¸ī":7680,"Ġë¹ĦìĬ·íķľ":7681,"Ġë¸Ķíķĳ":7682,"ĠìĨĶë¡ľ":7683,"íİĢì¹ĺ":7684,"ĠíĻĺë¶Ī":7685,"**":7686,"¬¼ëĵ¤":7687,"ëľ¨":7688,"ĠJ":7689,"ĠëĴ¤ë":7690,"ê²¬ë":7691,"íķĺê²łëĭ¤":7692,"ìĭłìĿ¸":7693,"ìĥĿìĿ´":7694,"ìĥĿê¹Ģ":7695,"ìŀĳìĿĢ":7696,"ìłĢìĬ¤":7697,"ìĨĮìĹĲ":7698,"ë§ĪìĿ´":7699,"ĠíĸĪëįĺ":7700,"ĠìĺĪëĬ¥":7701,"Ġìĭľë°Ķ":7702,"Ġê³łë°±":7703,"Ġëĭ¨ìĸ´":7704,"ĠëĤĺìĺ¤ëĬĶëį°":7705,"ëŀ©":7706,"ìķĦìĿ´íĮ¨ëĵľ":7707,"Ġì½ĶëĶĶ":7708,"ëģ¼ë":7709,"ĠìĪľìĪĺ":7710,"ë¨¸ìŀĦ":7711,"ĠìĥĪëģ¼ëĬĶ":7712,"ìĽ¨ìĿ´":7713,"Ġíķĳê¹Į":7714,"ts":7715,"©ĭ":7716,"Ġy":7717,"ĥħ":7718,"´ë²Ħ":7719,"ìķĦìŀ¬":7720,"ìĬ¤íĮĮ":7721,"ĠìŀĪìŀĸìķĦ":7722,"³´ìŀĦ":7723,"Ġì¡´ëĤĺìĽĥê¸°ëĦ¤":7724,"ìĹ°ìŀ¥":7725,"ìļ´ì§Ģ":7726,"ĠìĦ±ìŀ¥":7727,"ĠãħĩãĦ·":7728,"ìķħìĦ¸":7729,"ĠìĻĢê¾¸ë":7730,"Ġãħłãħłãħł":7731,"íĦ°ë¡ľ":7732,"Ġëª©íĳľ":7733,"ĠíĢ¸":7734,"ë§ĲëĿ¼ê³ł":7735,"Ġì¿łíĮ¡":7736,"ĠìĨĶíĶĮ":7737,"²¤ë":7738,"ëĴ¤":7739,"Ġë¯":7740,"ìĹ£":7741,"íĥĦë":7742,"ìŀĲìĿĺ":7743,"ìĤ¬ìĦľ":7744,"íģĺ":7745,"ìļ°ìļ°":7746,"Ġìĭľê°Ħë":7747,"Ġê¹Ŀ":7748,"Ġì¡´ëĤĺìĽĥ":7749,"ìĨįìĦ±":7750,"ìķĦëĭĪê³ł":7751,"ë©´ìĦľ":7752,"ìºĲëĬĶ":7753,"ìłĦë¶ĢíĦ°":7754,"Ġëª¨ëĭĪíĦ°":7755,"ìĿĦë§Į":7756,"ĠíĽĪ":7757,"ŀĢëĭ¤":7758,"Ġê°¤ìĹĲìĦľ":7759,"Ġê°¤ê¸¸":7760,"ĠíĿī":7761,"ê²°íĺ¼":7762,"ĠëģĿëĤľ":7763,"Ġê³łë§Ļ":7764,"ĠìŀĳìĿĢ":7765,"ê±°ëĿ¼ê³ł":7766,"Ġì¹ĺê³ł":7767,"Ġë¸Įìķ±":7768,"íģ´ëĿ¼":7769,"ĠíĴĢìĸ´":7770,"ĠìķħìĦ¸":7771,"íĭĢëĵľ":7772,"ĠëĿ¼ë©´":7773,"ĠíĻĺìĥģ":7774,"ìŀĺëª»":7775,"ĠìŀĦìĭł":7776,"Ġíŀĺëĵ¤ëĭ¤":7777,"ĠìĻĦë²½":7778,"ĠìĺĨìĹĲ":7779,"ī´ë¹Īëį°":7780,"ìĺĽëĤłìĹĲ":7781,"Ġ#":7782,"Ĥ®":7783,"ê°ĢìĬ¤":7784,"ĠìŀĦë":7785,"ê¸°ê°Ħ":7786,"ìĬ¤ìĹĲ":7787,"ëĤĺìĺ´":7788,"ëĤĺìĺ¤ë©´":7789,"ĠíĮľ":7790,"ĠìĬ´":7791,"ĠìĹĨëĬĶê²Į":7792,"ê°Ħì§Ģ":7793,"ĠëŃĲíķ¨":7794,"íķ´ëıĦë":7795,"ìłĢìĥĪëģ¼":7796,"ĠìŀĲê³ł":7797,"ĲĺëĬĶê±°":7798,"ĠìĥĿê°ģìĿ´":7799,"Ġíĭ±":7800,"Ġë©°":7801,"ë¹ĦíĬ¸ë":7802,"íĨłëª©":7803,"ë¯¼íĺ¸":7804,"ìĭłë°ľ":7805,"ë°°ëĭ¬":7806,"Ġë§ĪëıĦ":7807,"Ġíı¬ìĪĺ":7808,"Ġíı¬ìĿ¸íĬ¸":7809,"ìĪľê°Ħ":7810,"íĥĢëł¹":7811,"´¤ìĿĮ":7812,"Ġë³¸ëĭ¤":7813,";;;;":7814,"ĠëĤĺìĺ¤ê³ł":7815,"ìĭ¤ëł¥":7816,"íĢ´ëĵ¤ìĿ´":7817,"Ġì°¸ìĹ¬":7818,"ĶĶëį¤ë":7819,"Ġê´Ģê³Ħ":7820,"Ġê°ģìĿ¸":7821,"ĠìĿĮìĽĲ":7822,"ì¦Īë£¨":7823,"ê·¼ëĮĢ":7824,"Ġê¶ģê¸Īíķľê²Į":7825,"Ġì¼ĢìĿ´ìĬ¤":7826,"Ġê°Ķëĭ¤":7827,"ë§¤ëıĦ":7828,"--------":7829,"Ġëľ¨ë©´":7830,"ĠãħĬãħĬ":7831,"ps":7832,"ti":7833,"Ħ¥":7834,"ĦìĬ¤":7835,"łĺ":7836,"ëĭ¤ìĿ´":7837,"¦¬ê·¸":7838,"ìľĦë¡ľ":7839,"ìĬ¤íħĮ":7840,"ìĬ¤íĨ¤":7841,"ë°Ģë":7842,"ìĤ¬ìŀ¥":7843,"ìĥģíĥľ":7844,"¹ĦìķĦ":7845,"íħľë":7846,"íĤ¥":7847,"¨¹ìľ¼ë©´":7848,"ĠìķĪëĤ¨":7849,"ê°ľìĶ©":7850,"Ġê°ľì©":7851,"Ġì¤Ģë":7852,"ëĮĢê°Ģ":7853,"ëĮĢê°Ģë¦¬":7854,"ì¹´íħĮ":7855,"ê°Ģëĵł":7856,"ê¸ĢìĿĢ":7857,"Ġê¸°ìĥģ":7858,"Ġê¸°íļĮ":7859,"Ġë¯¸ìħĺ":7860,"ì¹ľëĭ¤":7861,"ìĪĺë°ĸìĹĲ":7862,"ĠíķľëıĻ":7863,"ĠëªĩëħĦ":7864,"Ġìŀ¥ìķł":7865,"ëĤ¨ìĪľ":7866,"ĠãħĪãĦ¹":7867,"ê°ľëħĲ":7868,"!!!!!!":7869,"ĠëĿ¼ìĿ´":7870,"Ġë¦¬ìĦ¸ê³Ħ":7871,"Ġëĭ¹ìŀ¥":7872,"íĭ°ë¹Ħ":7873,"ì±ĦíĮħ":7874,"ĠíķĺëĬĶê±°ìŀĦ":7875,"ĠíĿĳìļ°":7876,"ĠëĬĺìĸ´ë":7877,"ìĥĪë²½ìĹĲ":7878,"ģĦëŁ¬":7879,"ĠëĬĲëģ¼ëĬĶ":7880,"Ġìĸįìĸį":7881,"Ġ$":7882,"ŀĲëĦ¤":7883,"ëĭ¼":7884,"ìĿ´êµ¬ëĤĺ":7885,"ê³¤ë":7886,"ê°Ģìķ¼":7887,"ê·Ħ":7888,"ìĥģëĭ´":7889,"ê°¤ìĿĦ":7890,"ĠìķĪíķĺë©´":7891,"ĠìŀĪìĹĪìĿĮ":7892,"ê±´ì§Ģ":7893,"ìŀĪìĸ´ìĦľ":7894,"Ġê°ĻëĦ¤":7895,"ĠìĹ¬ìºł":7896,"ì¡°ìķĦ":7897,"íĺķëĭĺ":7898,"Ġíķ´ì£¼ìĦ¸ìļĶ":7899,"Ġë¯¸ì¹ĺ":7900,"Ġë¹Ħìĭ¼":7901,"ê¼½":7902,"ê¼Ī":7903,"ì¤ĺìķ¼":7904,"ëıĻíĿ¬":7905,"ìłĢë²Ī":7906,"Ġìĵ°ëĬĶëį°":7907,"ĠíĥĢê³ł":7908,"Ġë½ĳìķĦ":7909,"Ġìŀ¬ë°Įê²Į":7910,"íĶĮë¡ľ":7911,"ĠíĬ¸ìĻĢìĿ´ìĬ¤":7912,"Ġíģ´ë¦°":7913,"ìĭ±ê¸Ģë²Ļê¸Ģ":7914,"ĠëĤĺìĺ¨ê±°":7915,"ìĹ¬ìŀĲê°Ģ":7916,"Ġë¬¶":7917,"ë¹Ħë¹Ħ":7918,"Ġê·ĢìĹ¬ìĽĢ":7919,"Ġì¹ĺë©´":7920,"ê·ĢìĹ¬ìļ´":7921,"Ġê°ĲìĤ¬íķ©ëĭĪëĭ¤":7922,"05":7923,"Ġu":7924,"ģĪ":7925,"Ġì·":7926,"ìĿĢê·¼":7927,"Ġìĺ¨ëĿ¼ìĿ¸":7928,"ìĿ¸ìĤ¬":7929,"íķĺëįĶëĭĪ":7930,"ìľ¼ë¡ł":7931,"ħ¸íĬ¸":7932,"ìłľëĬĶ":7933,"íĸĪëįĶëĭĪ":7934,"ëĦ¤ì¢Ĩ":7935,"ĠìķĪìŀ¡":7936,"ìĹ¬ìĭł":7937,"ëĮĢìŀ¥":7938,"ì»¬ë":7939,"ĠìĤ¬ëıĦ":7940,"ë³´ìĿĢ":7941,"ĠíĸĪëĦ¤":7942,"ĠìķĦë¹ł":7943,"ìĻĶìĿĮ":7944,"ĠëģĮë":7945,"ì¤Ħê²Į":7946,"ìĤ´ê¹Į":7947,"Ġëª¨ìľ¼":7948,"Ġìº¬ë£¨":7949,"Ġìķłì´ĪìĹĲ":7950,"ĠëģĿê¹Įì§Ģ":7951,"ĠìĽĥê²¨":7952,"Ġë¦¬ìĦ¸":7953,"Ġê¸ĢìĤŃ":7954,"Ġë³´ê³łê°Ģ":7955,"Ġìŀ¬ë°Įìĸ´":7956,"Ġíķ¨ê»ĺ":7957,"ê·ľìĸ´":7958,"Ġì¶ľìĹ°":7959,"Ġëĭ¬ëł¤":7960,"ãħĮãħĮ":7961,"ĠíĶ¼ë¶Ģ":7962,"Ġê½ģ":7963,"ĠëĶĶìĭľì½ĺ":7964,"ĠìĬ¤ë°įìĿ¸ì¦Ŀ":7965,"Ġë©ĺíĥĪ":7966,"íĨµíķ©ëĭ¹":7967,"¿Įë":7968,"Ġ&":7969,"ê¸°ìķĦ":7970,"íķĺëĪĦ":7971,"ìŀĲì§Ģ":7972,"ì£¼ìŀĳ":7973,"íĥĢì§Ģ":7974,"ìĤ¬ëĥĲ":7975,"Ġíķľê¸Ģ":7976,"ĠìľłëĭĽ":7977,"¨¸ìŀĦ":7978,"ê³ĦìĿĺ":7979,"Ġíķ´ì²´":7980,"Ġì¡°ìķĦ":7981,"Ġë¨¹ìĹĪëĬĶëį°":7982,"ĠíĹĽ":7983,"ëıĻëĦ¤":7984,"ì´ĪìĽĶ":7985,"ì¶ľê·¼":7986,"ĠìŀĳíĴĪ":7987,"Ġìŀ¡ê³ł":7988,"ĠêµŃë°¥":7989,"Ġê´ľì°®ìĿĢ":7990,"ì²´ë¡ľ":7991,"Ġë²Īíĺ¸":7992,"Ġë§¤ë¬¼":7993,"Ħ¤ëĵ¤":7994,"!!!!!!!!!!!!!!!!":7995,"ħĢëĵ¤":7996,"Ġíķĺê³łìĭ¶ëĭ¤":7997,"ìĨĮíĻĺìĤ¬":7998,"1000":7999,"RO":8000,"TS":8001,"ıĭ":8002,"Ġë½Ģë":8003,"ì§Ģê°ģ":8004,"ëĭ¤ëĭĪë":8005,"ìľ½":8006,"ĶëĥĲ":8007,"ìĬ¤íĭ±":8008,"Ġìĭ¼":8009,"Ġëĭ´ëĭ¹":8010,"Ġê·Ģë":8011,"íķ´ì§Ģ":8012,"Ġì°ĲëĶ°ë":8013,"ĠìĪı":8014,"ìĻĢì¤ĳìĹĲ":8015,"Ġë³´ìŀĦ":8016,"ìĺ¤ë§Ī":8017,"íķ´ë´¤ëĬĶëį°":8018,"ëĵ¤ëıĦ":8019,"ĠìĥĿíĻľ":8020,"Ġê³µìĿµ":8021,"Ġë³´ëĦ¤":8022,"ĠìķĦë§Ī":8023,"íĴĪë":8024,"Ġìĺ¤ë¥ĺ":8025,"ì³ĲëıĦ":8026,"ĠìķĦëĭĪëħ¸":8027,"ì¿¼ë":8028,"ìĿ´ìķ¼ê¸°":8029,"ë¯¼ê·ľ":8030,"ìºĲë¥´":8031,"¨ë¦¬ìĽ¹":8032,"ĠíĮ¨ì¹ĺë":8033,"ĠíĺĦì§Ī":8034,"ĠìłĦëĿ¼ëıĦ":8035,"ê¸°ë¡Ŀ":8036,"ĠêµŃê°Ģ":8037,"ëĭ¬ëĿ¼":8038,"Ġì¼ľë":8039,"íķĺëĤĺìļĶ":8040,"ëĸ¨ìĸ´":8041,"§İìĿĢ":8042,"ĠëĪĪì¹ĺ":8043,"ì°©ë§¨":8044,"Ġì¢Ĩê°Ļëĭ¤":8045,"Ġëĭ¬ìĦ±":8046,"Ġë¹Ħë¹Ħ":8047,"Ġìĭ¹ëĭ¤":8048,"¬ìĺģ":8049,"Ħ¬":8050,"íķĺìħĪ":8051,"ìľ¨ë":8052,"ĶëıĦ":8053,"ë§¨ëĤł":8054,"ĠìĿ´íķ´ë":8055,"Ġëª¹":8056,"ìĤ¬ìĭľ":8057,"Ġê²ľë":8058,"êµ¬ìļĶ":8059,"³´ìħĪ":8060,"Ŀ¼ë²¨":8061,"Ġë¹¤":8062,"ìĺ¤ë°Ķ":8063,"ëĭ¨ê¸°":8064,"ìĹ°ê°¤":8065,"ĲĺìĦľ":8066,"ĠìłĦìĤ¬":8067,"íĳ¼":8068,"Ġê³łì¶Ķ":8069,"ìłĦë¶ķìĿ´":8070,"ì¹´ëĶĶ":8071,"ì§ĳìĹĲìĦľ":8072,"íİĺìĿ´ì§Ģ":8073,"íĮ¨íĦ´":8074,"ìĸ¸ìłľë":8075,"ãħĪãĦ·":8076,"ĠëıĻëĦ¤":8077,"ħãħħãħħãħħ":8078,"Ġíħľë":8079,"Ġì§ĳì°©":8080,"Ġê±°ëĥĲ":8081,"Ġì»¤íĶ¼":8082,"Ġëª¨ë¥´ê²łëĭ¤":8083,"Ġìĭ¤ë¬¼":8084,"ĠëĮĵê¸Ģë":8085,"ë§ŀì§Ģ":8086,"Ġìĸ´ëĸ¡íķ¨":8087,"IF":8088,"¢°":8089,"ëĬĶëĭ¤ê³ł":8090,"ìĿ´ìģľ":8091,"êµ¿":8092,"ĮĢíļĮ":8093,"ì¤į":8094,"ìĺ¤íĶ¼ìħľ":8095,"ĠìķĪê²½":8096,"ê·¸ë§Ī":8097,"ĠëĮĢìĤ¬":8098,"íĸĪìĹĪëĬĶëį°":8099,"Ġìĸ´ìºĦ":8100,"Ġë¬´ìĹĩ":8101,"íķłì§Ģ":8102,"ì£¼ë¡ľ":8103,"Ġê³µë¬´ìĽĲ":8104,"ìĭľëħĢ":8105,"ê¸īìĿĢ":8106,"ĠìĥģìŀĲ":8107,"³¸ìĤ¬ëŀĮ":8108,"ìłĦëıĦ":8109,"ê°ľëĤĺ":8110,"Ġêµ¬ëĭ¨":8111,"Ġë§Ŀíķľ":8112,"Ġë§Īë¬´ë¦¬":8113,"ì¥¬ë":8114,"Ġê³łëĶ©":8115,"ìĻ¸êµŃ":8116,"Ġì£¼ë³Ģ":8117,"ì°¨ë¡ľ":8118,"Ġì«Ħ":8119,"ĠìĹĶìĶ¨":8120,"Ġë³Ħëªħ":8121,"´£ëĬĶëį°":8122,"Ġì¹´ìļ´íĦ°":8123,"se":8124,"êµ¿ì¦Ī":8125,"Ġìĸĺë":8126,"ìĭľìĬ¤":8127,"Ġê°Ģë§Į":8128,"ĠíĮħ":8129,"ĠìŀĪìĸ´ëıĦ":8130,"ĠìŀĪìĹĪìľ¼ë©´":8131,"ìłĢê¸°":8132,"ìļ©ìľ¼ë¡ľ":8133,"ì´ī":8134,"ë¹Ļ":8135,"ë¹¨ë":8136,"íĶĦê°Ģ":8137,"Ġì£¼ëĬĶê±°":8138,"Ġìĺģíĺ¼":8139,"ìłĦëĿ¼ëıĦ":8140,"Ġìĭ¤ìłģ":8141,"ì½Ķë¡ľ":8142,"ìĺ¬ë¦¼":8143,"Ġìĵ°ëĬĶê±°":8144,"¶Ģë¡ľ":8145,"Ġë¡ľê·¸":8146,"ĠíĨłëª©":8147,"ëĭ¤ìĿĮì£¼":8148,"ĠìķĦìĿ´ëĶĶ":8149,"ĠìķĪëĲĺëĬĶëį°":8150,"Ġëħ¸ë¬´íĺĦ":8151,"ĠìĥĪë¡ľìļ´":8152,"ìĺ¹ìĿ´":8153,"ĠëĭīëĦ¤ìŀĦ":8154,"ĠëĤľë¦¬ë":8155,"ĠëĬĲëĤĢìłĲ":8156,"ay":8157,"ìĳ":8158,"Ġë¦°":8159,"ìĿ´ëĿ¼ë©´":8160,"Ġë§¹":8161,"ê¹ĮëĬĶ":8162,"ìĺ¤íĶĪ":8163,"ìĤ¬ì£¼":8164,"Ġ120":8165,"ì£¼ìĸ¼":8166,"íĦ±":8167,"Ġëĭ¤ìļ´":8168,"ĠìĿ´ë¦Ħë":8169,"ìĻĢê¾¸":8170,"ìĥĿê¸´":8171,"Ġì¹°":8172,"íĬ¸ë¥¼":8173,"Ġìŀĺíķ¨":8174,"ì½Ķìĸ´":8175,"ë¹Ĺ":8176,"ìĿ¼ëŁ¬ë":8177,"ìĿ¼ë¦¬ì§Ģ":8178,"Ġëģ¼ë":8179,"ĠëĤ¨ìŀĲê°Ģ":8180,"Ġë°ķìłľ":8181,"íĻĶë¥¼":8182,"Ġìĭ¶ìĿĮ":8183,"Ġìķłëĵ¤ìķĦ":8184,"Ġëľ°":8185,"Ġìľłë¦¬":8186,"ĠìĿĺìĤ¬":8187,"íľ¼":8188,"Ġíİ¸ìĿĺìłĲ":8189,"ëħĦë§ĮìĹĲ":8190,"ìĿ´ëŁ°ê±°":8191,"ìĹ¬ìŀĲëĬĶ":8192,"Ġíĥľìĸ´ë":8193,"íĢ´ëĵ¤ìķĦ":8194,"Ġ135":8195,"íĿ¬ë¡±":8196,"ìŀĪëĤĺìļĶ":8197,"¥´íı¬ìŀĲ":8198,"Ł¼ë":8199,"ìķ¤ë":8200,"ìĿ´ì¶ĺíĸ¥":8201,"Ġìķ°ë":8202,"ê±°ëĭ¤":8203,"ìĬ¤íĥ":8204,"ìķ¼ìĿ´":8205,"íĬ¬":8206,"ĠìķĦëĭ¤":8207,"ìĪĺíķĻ":8208,"ìŀ¥ëıĦ":8209,"Ġê°Ģì¹ĺ":8210,"ëĤĺìĿ´":8211,"ĠìĬĪë":8212,"Ġëĭ¤ìĿ´ìķĦ":8213,"Ġê±Ķ":8214,"íĥĢìŀĲ":8215,"ìļ°ìļ¸":8216,"Ġë³´ìłķ":8217,"íĸĪê¸Ķ":8218,"íĺķìĿĢ":8219,"ì¦ĪëĬĶ":8220,"íĶĦëĦ¤":8221,"ķĮë§¤":8222,"ì§ĪìĿ´":8223,"ì°½ëħĦëĵ¤":8224,"ìĦŃìĿĢ":8225,"°ĽìĿĢ":8226,"íĤ¤ë³´ëĵľ":8227,"ëĵ±ìĿ´":8228,"Ġê´ľì°®ìĿĢëį°":8229,"ĠìĬ¹ë¥ł":8230,"Ġê±¸ë¦°":8231,"ëĨĢ":8232,"ĠìĤ¬ìĭ¤ìĥģ":8233,"Ġë¨¼ê°Ģ":8234,"¹Īì¹ĺ":8235,"ĠìĤ¬ëŀĮëĵ¤ìĿĢ":8236,"ìł¸ëĿ¼":8237,"ìĺ¨ëĥĲ":8238,"Ġë°¥ë¨¹":8239,"Ġê·ĢìĹ½ëĭ¤":8240,"°ĺëĸ¼":8241,"Ġê¹Ģë¯¼":8242,"Ġê¾¸ì¤Ģ":8243,"ĠìľłìĿ¼íķľ":8244,"34":8245,"lc":8246,"li":8247,"´Ĭ":8248,"ë´ĲëĿ¼":8249,"íĩ":8250,"Ĥ©":8251,"ëĭ«":8252,"ì§ĢìĪĺ":8253,"ìĦľìĭ¤":8254,"ìĦľì»¤":8255,"Ġë°ĳìĹĲ":8256,"ĮĢìĹĲ":8257,"íķľìĤ¬ëŀĮ":8258,"íĥĶ":8259,"ì°¢":8260,"ìĺ¤ìļ°":8261,"ìĪĺê¾¼":8262,"Ġê¸ģ":8263,"ì¶°ë":8264,"êµ¬ëĭ¨":8265,"Ġìĸ´ëĶ°":8266,"ŀĺê³¤":8267,"ĠìķĪëħķ":8268,"Ġë³´ìĨĮ":8269,"ìĦ¸íĮħ":8270,"êµ¬ëĵ¤":8271,"ì¡°ìŀĳ":8272,"³´ë©´ìĦľ":8273,"Ġë¯¸ëĭĪ":8274,"ĳĲê³ł":8275,"ĠëĤĺë¨¸":8276,"ë¯¼ì£¼":8277,"ë³´ëĬĶëį°":8278,"¸Ķë¦¿":8279,"Ġêµ¬ìĨį":8280,"Ġë°°ê³ł":8281,"Ġëħ¸íĬ¸ë¶ģ":8282,"ĠíĥĢìĿ´ë°į":8283,"ê»ı":8284,"Ġë³ĳìĭłê°ĻìĿĢ":8285,"ë²Ħê·¸":8286,"ì¡Įìľ¼ë©´":8287,"ìµľê³ł":8288,"íģ´ë¡ľ":8289,"Ġíķĺì§Ģë§ĪëĿ¼":8290,"ĠìŀĺìĥĿê²¼":8291,"Ġë¯¿ê³ł":8292,"ĠëıĦìĻĢì¤ĺ":8293,"Ġë¹Įëĵľ":8294,"ĠíĶĦëłĪìŀĦ":8295,"ìĥĪëĵ¤":8296,"łëĵł":8297,"ĠìĹĮ":8298,"Ġì§¹":8299,"ìķ¼ìĬ¤":8300,"íĮ¬ëĵ¤":8301,"ìĤ¬ìľĦ":8302,"ãħĭãħĭãħĭãħĭãħĭãħĭãħĭãħĭãħĭãħĭãħĭãħĭãħĭãħĭ":8303,"ì¦Ļ":8304,"ì¦Įë":8305,"ĠìķĪì¢ĭìĿĢ":8306,"Ġê·¸ë¦¬ê³ł":8307,"ĠìĿ´ëĶ°":8308,"ìķĦëŀĳ":8309,"Ġìĺ¤ì§ĢëĦ¤":8310,"ĠëĮĢíĳľ":8311,"ìĦłê¶Į":8312,"Ġë¯¸íĨµëĭ¹":8313,"íķľíħĮëĬĶ":8314,"¥´ëħ¸":8315,"ĠíĸĪëįĶëĭĪ":8316,"ãĦ´ãĦ´":8317,"ê¹Ģíĥľ":8318,"ìĹŃëĮĢ":8319,"ì¢ĭê²łëĭ¤":8320,"ìĸĳì¤ĢìĿ¼":8321,"ĠíĹĮ":8322,"Ġìŀ¥ìłĲ":8323,"ê°¤ëŁ¼ëĵ¤":8324,"ìĵ°ëĬĶëį°":8325,"Ġëĺ¥ê¼¬":8326,"ĠëıĪìĿ´":8327,"ĠìĻľìĿ´ëŀĺ":8328,"¦´ëĿ¼":8329,"Ġë²Ħë¦¬ê³ł":8330,"Ġë¬ĺ":8331,"ë¬´ë£Į":8332,"ĠíĮ¬íĭ°":8333,"Ġãħĭãħĭãħĭãħĭãħĭãħĭãħĭãħĭãħĭãħĭãħĭãħĭãħĭãħĭãħĭãħĭãħĭãħĭãħĭ":8334,"Ġê¸°ë¶ĦìĿ´":8335,"ĠëļĿ":8336,"ĠëįĶë¸Ķ":8337,"ìĽłëĭ¤":8338,"Ġê·ĢìĹ½ëĦ¤":8339,"¦Ħëıĭ":8340,"Ġìĸ´ëķł":8341,"oll":8342,"¥´ëĭ¤":8343,"Ġë»Ķ":8344,"ê°ł":8345,"ê°Ģìŀ¥":8346,"ìĸĺëĦ¤":8347,"ìĬ¤íİĻ":8348,"ìŀĦìĺģìĽħ":8349,"ëĤŃ":8350,"íķ´ì§Ħ":8351,"ìĤ¬ìĹĲ":8352,"ıĻìĿĺ":8353,"Ġ2000":8354,"ì¤ĳëĶ©":8355,"Ġê°ľìĶ¨ë°ľ":8356,"Ġì¤¬":8357,"ĠëĮĢê¹¨ë":8358,"ì¹´íĨ¡":8359,"êµ¬ë§¤":8360,"ĠíķľíħĮ":8361,"°ĶìĿ´":8362,"ĠíķĺìľĦ":8363,"ì½ĶíĨł":8364,"Ġë§İìĿĢê±°":8365,"¬´ëĿ¼":8366,"íĿ¡":8367,"Ġë§ĪìĿ´":8368,"ëĶ´":8369,"ìłľëıĦ":8370,"ĠëĤĺë¬´":8371,"ì¢ĭìĿĢëį°":8372,"ĠìĺĪê³ł":8373,"Ġì¢ĭìķĦìļĶ":8374,"ëĺĲë":8375,"ìŀĸìĿĮ":8376,"íĥĢëĿ¼":8377,"ìĮĪë":8378,"ĠìĹ¬ëŁ¬":8379,"ìĦ¼íĦ°":8380,"ĠíĻĶë©´":8381,"Ġíķľë²ĪìĹĲ":8382,"Ġê³¼ê¸Ī":8383,"Ġ<-":8384,"Ġë²łë¥´ë":8385,"97":8386,"¥ľ":8387,"Ľ°ë":8388,"Ġë¡±":8389,"ì§ĢëĭĪ":8390,"ì§Ģë§Ĳ":8391,"ĠìķĪëģ":8392,"ĠìĿ´ìĦ±":8393,"ìĭľìĬ¤íħľ":8394,"ìĿ¸ìĭ¸":8395,"ĠëĤŃ":8396,"ìļĶíķľ":8397,"ì¦ĪëĤĺ":8398,"ìĿ¸ë§Ī":8399,"ıĻìĿ´":8400,"ëĭĪëĵ¤ìĿ´":8401,"ê²½ìĽĲ":8402,"Ġìŀĺìĸ´ìļ¸ë":8403,"Ġë§ĪìĬ¤íĦ°":8404,"ëį¤ë":8405,"ìķĺëĭ¤ê³ł":8406,"íĽĪëł¨":8407,"Ġë¨¹ê³łìĭ¶ëĭ¤":8408,"Ġíĸ¥":8409,"íķĺëĦ¤ìļĶ":8410,"ìĻĶìľ¼ë©´":8411,"íĮ¨ëĬĶ":8412,"Ġê²½ê´´":8413,"Ġíķ´ë´¤ëĬĶëį°":8414,"ìĿ´ëĵ¤ìĿĢ":8415,"ë³´ëĿ¼":8416,"ĠëĿ¼ìĬ¤":8417,"Ĥľê±°":8418,"ĠìĽĲë³¸":8419,"íĬ¹ì§ķ":8420,",,,,":8421,"íŀĪë©´":8422,"Ġë¸¨":8423,"ĠëĬĲëĤĮìĿ´":8424,"Ġë£°ë":8425,"ìĥĪë´Ħ":8426,"ľ¨ëĦ¤":8427,"ĠìĬ¤íĥĢìĿ¼":8428,"ìķĦëĭĮëį°":8429,"Ġì·¨ë":8430,"tr":8431,"į°ìĬ¤":8432,"ìľ¤ë":8433,"ê¸°ìĸ´":8434,"ĠìĸĺëĦ¤":8435,"ê²ĮìĿ´ìķ¼":8436,"ì°Ĳë":8437,"ëĤ®":8438,"ì¼Ī":8439,"ì¤ĳê³ł":8440,"ĠìĨ©":8441,"ĠìĤ¬ìłĦ":8442,"êµŃìĪĺ":8443,"ìĹĨì°Ĳ":8444,"íķ´ëĨĵê³ł":8445,"ĠìŀĲê¸°ê°Ģ":8446,"íĤ¤ê°Ģ":8447,"ĠìłĦê¸°":8448,"ìķ¼ëĲĺëĤĺ":8449,"ê¹Ģíĺ¸ì¤ĳ":8450,"ì¶©ê²©":8451,"ê²ľìĿ´":8452,"ì¿Ħ":8453,"Ġì´ī":8454,"ãħħãħį":8455,"Ġìľłëıħ":8456,"Ġë§¤ìĪĺ":8457,"Ġì¦ī":8458,"ì´Īë°ĺ":8459,"Ġì¿łë":8460,"Ġíģ´ë¡ľ":8461,"Ġëª¨ë¥´ê²łëĬĶëį°":8462,"Ġëĭ¬ëĭ¬":8463,"Ġìĸ¼ë§ĪìŀĦ":8464,"ì¥¬ì§Ģ":8465,"ìĸ¼ë§Ī":8466,"ì²ľë§Į":8467,"ĠëķĮëł¤":8468,"ĠìĽĥê¸´ê²Į":8469,"Ġê²¨ìļ°":8470,"ëĵľë¦½ëĭĪëĭ¤":8471,"ĠëĤĺëĪĶ":8472,"ìĿ¸íĦ°ëĦ·":8473,"TX":8474,"§ĪëĥĲ":8475,"ĠY":8476,"ĠëĥĦ":8477,"ìĿ´ëįĶëĿ¼":8478,"ìľµ":8479,"ê¸°ìĪł":8480,"ìĭľíĹĺ":8481,"ĠìĤ¼ë":8482,"ĠìķĦìĽĥ":8483,"Ġ118":8484,"ì¦Ĳ":8485,"íĸĪëĤĺ":8486,"ìĦ±ëĬ¥":8487,"ĠìķĪìĹĲ":8488,"ĠìĹĨìĸ´ëıĦ":8489,"³´ìĹ¬":8490,"Ġêµ¿":8491,"Ġê°ľìĽĥ":8492,"ìĭĿìĿĢ":8493,"ë¦¬ìĦ¸ê³Ħ":8494,"Ġë²¨":8495,"ë§Īëĭ¤":8496,"ê¸īìľ¼ë¡ľ":8497,"ê°ķê°Ħ":8498,"ĠìłĦíĺĢ":8499,"Ġë§ŀëĦ¤":8500,"ìĬ¹ìļ°":8501,"ĠìĥĿê°ģíĸĪëĬĶëį°":8502,"ĠíİĮ":8503,"íĨłíĥĪìĽĮ":8504,"Ġê²ĮìŀĦë":8505,"íķłë§Į":8506,"ëĤĺë¬´":8507,"ë³´ë¯¼ìĿ´":8508,"ëĭ¬ìĹĲ":8509,"ĠìĦ¸íĬ¸":8510,"Ġë§¤ì¶ľ":8511,"ĠëıĦë§Ŀ":8512,"ëĺ¥ì°¬":8513,"ìĹĩëĭ¤":8514,"ìĨĲíĿ¥ë¯¼":8515,"Ġê´ľì°®ìĿĮ":8516,"Ġìĸ¼ë§ĪìłķëıĦ":8517,"ë§ŀìĿĮ":8518,"Ġëĵ£ëĬĶ":8519,"ì¤¬ëĬĶëį°":8520,"ìļĶìĿ¼ìĹĲ":8521,"Ġì°©ê°ģ":8522,"Ġê¸°ì¤ĢìĿ´":8523,"Ġì±Ļê²¨":8524,"Ġìī´ëĵľ":8525,"¹»":8526,"Ġ>":8527,"Ģ¨":8528,"ì¹ĺëıĦ":8529,"Ġìĺ¥":8530,"ĠìĿ´ì§¤":8531,"íķĺëł¤ëĬĶëį°":8532,"ë³Ħë":8533,"Ġê²¨ë":8534,"ĠíĮĲëĭ¤":8535,"ë§Įíģ¼":8536,"ê·¸ë¡ľë":8537,"íİĺëıĦ":8538,"Ġê°ľê¼´ë":8539,"ê³µìĿµ":8540,"ĠìĶ»":8541,"ë³´ìĥģ":8542,"ë³´ìĦ±":8543,"ìľĦê°Ģ":8544,"íķłê±°ìŀĦ":8545,"¯¸ëĵ¤":8546,"ê°ķìĭłì²Ń":8547,"Ġì£¼ìĽĮ":8548,"íĨµíĶ¼":8549,"ëħĦìĿ´":8550,"ìłĦë¬´":8551,"Ġë¬¸ìĿĺ":8552,"Ġë¶Ģìłķ":8553,"Ġë¶ĢíĦ°":8554,"´ĲìĦľ":8555,"Ġê²½ìĽĲë":8556,"ĠìķĮë¦¼":8557,"Ġìį¨ëıĦ":8558,"ĦĪìĬ¤":8559,"Ġì°įìĿĢ":8560,"íĿ¬ì°¬":8561,"ĠìĿ´ìĥģíķ´":8562,"ëĵľëĿ¼":8563,"ê²Łëħ¸":8564,"ìĹ¬ëŁ¬ë¶Ħ":8565,"ëĭ¬ëŁ¬":8566,"ë°Ľê³ł":8567,"ë°±íĺ¸":8568,"ìļ¸ëĮĢ":8569,"ê°Ħë§ĮìĹĲ":8570,"Ġëĳĺì¤ĳ":8571,"ħ¸ë¸Ķ":8572,"ëĨĢë":8573,"Ġì»¤ë¦¬":8574,"ë¸ĮìĿ´":8575,"ł¸ëħ¸":8576,"ëķľìĹĲ":8577,"Ġëĺĳê°ĻìĿĢ":8578,"Ġìĸ¸ëĥĲ":8579,"íĥ±ìĿ´":8580,"Ġìķłë¯¸ëĴ¤":8581,"Ġì±ĦëĦĲ":8582,"²³":8583,"³Ħë¡ľ":8584,"ìĿ´ë¹Ħ":8585,"ìĿ´ë³´ëĭ¤":8586,"íķĺìķĦ":8587,"ìĬ¤íĶ¼":8588,"ìĸ´ìļ°":8589,"ì£Ħë":8590,"Ġì¡Į":8591,"êµ¬ìķ¼":8592,"ĠìķĪìłķ":8593,"ĠìĪ«":8594,"ê·¸ëŀĳ":8595,"Ġë³´êµ¬":8596,"Ġ32":8597,"Ġëª»íķ´":8598,"ìĬ¤ë¯¸":8599,"ìķĺì§Ģ":8600,"íķĺëĬĶê±°ì§Ģ":8601,"Ġãħħãħħãħħ":8602,"ëĤĺëĿ¼":8603,"ĠìĹ°ìĺĪìĿ¸":8604,"Ġìļ°ê²°":8605,"Ġê²°ìłľ":8606,"Ġíı¬ì¹´":8607,"°ĽëĬĶëĭ¤":8608,"Ġê¹Ģíĥľ":8609,"ìŀĩëĬĶ":8610,"Ġë©Ķê°Ī":8611,"Īë²ħ":8612,"Ł½ê²Į":8613,"ł¸ìĸ´":8614,"Ġìĭ«ëĭ¤":8615,"°ĶëĢ":8616,"ë£°ë":8617,"ĠìĪĺë¹Ħë":8618,"Ġë´Ĳì¤ĺ":8619,"Ġê²ĢìĿĢ":8620,"Ġì´ĪëıĻ":8621,"Ġìķ¼ëıĻ":8622,"ê½ģ":8623,"Ġíŀĺëĵ¤ìĸ´":8624,"ìķĦë³´ìŀĲ":8625,"Ġíļ¨ìľ¨":8626,"ìĬ¤ëŁ¬ìļ´":8627,"ĠìĪĻìłľ":8628,"ĠëĪĮëŁ¬":8629,"mm":8630,"Įķ":8631,"ìĿ´ê²ĮìŀĦ":8632,"ĤĺìĿ´":8633,"ìĹĲìĸ´ì»¨":8634,"ìĿĮìĿ´":8635,"ĠìĿ´ìľłë":8636,"ìĭľìĽĲ":8637,"ĠìĻģ":8638,"íĻĪëŁ°":8639,"ìĪĺëĬ¥":8640,"ìłķì¹ĺ":8641,"ì£¼ê¸°":8642,"ìŀ¥íķ´":8643,"ĠëĤĺìĿĢ":8644,"ĠëĤĺìķĦ":8645,"ĠìķĪíķ´ëıĦ":8646,"ìĭłìĺģ":8647,"Ġëĭ¤ëĭĪëĬĶ":8648,"Ġì¢ĭëĭ¤ê³ł":8649,"ĠìĭľìĦ¸":8650,"ĮĢë¡ľë":8651,"ĠìĹ¬ê³łìĥĿ":8652,"ĠìľłìłĢë":8653,"Ġìľłì¶ľ":8654,"Ġíķ´ê²°":8655,"Ġë¹ĦíĬ¸":8656,"Ġëĭ¤ëħĢ":8657,"ì¤Ħê¹Į":8658,"ħĦìĿĢ":8659,"Ġë°ĽìķĦë":8660,"íķĺì§Ģë§Ĳê³ł":8661,"ìĿ´ëĿ¼ëĭĪ":8662,"ë°°ê³ł":8663,"ëıĻìĽĲ":8664,"Ġëħ¸ê°Ģëĭ¤":8665,"Ġëĭ¹ì²¨":8666,"Ġê·¼ìľ¡":8667,"ìĹĩìĿĮ":8668,"ĠíĦ°ì§Ħ":8669,"íĶ¼ë¦¿":8670,"§İìĿĮ":8671,"ĠìĬ¹ë¶Ģ":8672,"ĠëĤłìķĦ":8673,"ìĹĺë¦¬":8674,"íı¬ëłĪìĬ¤":8675,"ĠëłĮ":8676,"ĠìĦ¤ì¹ĺ":8677,"Ġê¹¨ëĭ¬":8678,"ĠëĤĺìĺ¬ê¹Į":8679,"Ĳłê¹Į":8680,"ĠìŀĪëįĺëį°":8681,"Ġìłģëĭ¹íŀĪ":8682,"Ġì´Īê¸°íĻĶ":8683,"íı¬ëłĪìĬ¤íħĶëĿ¼":8684,"¬µ":8685,"Ġì©Ķ":8686,"ĠëĵľëĬĶ":8687,"ìĦ¼ë":8688,"Ĥĺìĺ¤ë©´":8689,"ĠìķĦíĮĮíĬ¸":8690,"ĠëĤĺìĻĵ":8691,"ĠìķĪì¢ĭìķĦ":8692,"ĠìŀĪê¸Ķ":8693,"Ġìĺ¤ì§Ģ":8694,"Ġìĺ¤íĨł":8695,"íĻĶìŀ¥":8696,"ìĺģìĸ´":8697,"ë³´ìĿĢìĻĶ":8698,"ìłĲìĪĺ":8699,"Ġë¬´íķľ":8700,"Ġê³µê°Ĳ":8701,"ìĭľë°Ķ":8702,"ëĭ¹íķĺëĬĶ":8703,"Ġì¡°ìłķ":8704,"ĠìĥĿê°ģëĤ¨":8705,"ê¼´ëį°":8706,"ë¯¸ëĭĪ":8707,"ì½ĶëĶĶ":8708,"²Ħë¦¼":8709,"ĠìļĶì²Ń":8710,"ëª¨ëĭĿ":8711,"Ġê²ĮìŀĦìĿ´":8712,"ìĩĦ":8713,"ĠìĿ´ìģĺëĦ¤":8714,"121":8715,"ĠìŀłìĪĺ":8716,"ĠëĿł":8717,"ìķ¼ëĲĺëĬĶê±°":8718,"Ġê²½íĹĺì¹ĺ":8719,"Ĥ³ëĮĢ":8720,"BT":8721,"ë·°":8722,"ĪĮë":8723,"ĸ´ë":8724,"ê³łìĸĳìĿ´":8725,"¤ë³´":8726,"ìĬ¤ëĭ¥":8727,"ìŀĲìĤ´":8728,"ìĤ¬íį¼":8729,"§Įíķĺë©´":8730,"ê°¤íĥŃ":8731,"ìłĦê¹Įì§Ģ":8732,"Ġëĭ¤ìļ´ë":8733,"ł¤ìļĶ":8734,"ĠìŀĪëĬĶê²Į":8735,"Ġì¢ĭê¸Ķ":8736,"ìľ¼ë¡ľëĬĶ":8737,"ìļ°íĦ°":8738,"ĵľë¥¼":8739,"ì§ģìºł":8740,"ëĮĢíļĮ":8741,"ê²½ìĿ´":8742,"ìľĦìĭł":8743,"íķłê²ĥ":8744,"ķĮë§Į":8745,"ĠìķĬìķĦ":8746,"Ġê²½ìļ°":8747,"ìĿ´ëĵ¤ìĿ´":8748,"Ġë°Ķê¿Ģ":8749,"ìĽĲëĵ¤":8750,"ĠìłĢë²Ī":8751,"ìŁĪ":8752,"Ġê°ĲìĦ±":8753,"íĮĮë°į":8754,"Ġëĺ¥ì°¬ìĿ´":8755,"ê°ĵê¸°":8756,"ŀľë§Į":8757,"ì£½ìĸ´":8758,"ë¶Ģëª¨":8759,"Ġë¹Ħë°Ģ":8760,"ê¹Įë§Ĳ":8761,"Ġãħĭãħĭãħĭãħĭãħĭãħĭãħĭãħĭãħĭãħĭãħĭãħĭãħĭãħĭãħĭãħĭãħĭ":8762,"ëĵĢë":8763,"ĠTOP":8764,"íķĺëĭĪê¹Ĳ":8765,"ĠëĨĪëĵ¤ìĿĢ":8766,"ìİĦ":8767,"Ġêº¼ìł¸":8768,"Ġë£¨ëĤĺ":8769,"ĠON":8770,"ìĹĺë¡¯ìĹ°íķ©":8771,"µ¸ë":8772,"ıëĶ°":8773,"´ëıĦ":8774,"ìĿ´íĮħ":8775,"Ġìĸĺëĵ¤ìķĦ":8776,"íķľíħĲ":8777,"ĠìĤ¶":8778,"ìŀĲìŀĦ":8779,"ìĥģê´Ģ":8780,"ìłķë¶Ģ":8781,"ìłĦìĹĶ":8782,"ìĸ´ëł¤":8783,"ë¶Ħëĵ¤":8784,"Ġëª»íķĺê³ł":8785,"Ġì²Ļ":8786,"Ġì²łë":8787,"ê³µìĿ´":8788,"ĠìĿ¸íĺķ":8789,"¥´ê°Ģ":8790,"íķłêº¼":8791,"ĠìŀĲì§Ģ":8792,"ĠëħĲ":8793,"íĮĲìĹĲ":8794,"¦¬ëĬĶê±´":8795,"ë¬´ê³¼ê¸Ī":8796,"Ġ95":8797,"ĠíĪ¬ìŀĲ":8798,"ĠìĽĲíķĺëĬĶ":8799,"Ġì°įìĸ´ë":8800,"ĠêµŃë¯¼":8801,"Ġìī¬ë":8802,"ĠëĴ¤ì§Ħ":8803,"ĠìĿ´ìģ¨":8804,"ì©¡":8805,"ìķ°ìĿ´":8806,"Ġíģ´ëŁ½":8807,"ëħĦëıĻìķĪ":8808,"ì§±ê¹¨":8809,"ĠëĤĺìĻĶëĭ¤":8810,"ĠëĭĪì¥¬":8811,"ĠìŀĩìĿĮ":8812,"ľ¨ëĥĲ":8813,"ĠëĭĪëĵ¤ìĿ´":8814,"Ġë§ĪìĿĮìĹĲ":8815,"Ġë©Ģíĭ°":8816,"Ġë¨¼ëį°":8817,"UMDi":8818,"gain":8819,"Ġíĭ±íĨ¡":8820,"31":8821,"49":8822,"ë¦´":8823,"ìĿ´ìļĶ":8824,"ìĿ´ì½Ķ":8825,"ìĬ¤íĨłë":8826,"Ġë°ĶëĿ¼":8827,"Ġëĭ«":8828,"ìĭľìĥģìĭĿ":8829,"ìĿ¸ì¹ĺ":8830,"Ġê·ł":8831,"íķ´ì£¼ëĬĶ":8832,"ìĺ¤íĽĦ":8833,"Ġê°Ģê³ł":8834,"ĠìķĪê°Ģ":8835,"ìĿ¸ëĵ¤ìĿĢ":8836,"ìĹ¬ê¸°ê°Ģ":8837,"íĦ°ì§Ĳ":8838,"ìĺ¤ë¥¸":8839,"ì»´ë°±":8840,"ëĭĺìĿĢ":8841,"ĮĢëĥĲ":8842,"ĵ¯ìĿ´":8843,"Ġë§Īê°Ĳ":8844,"Ġìĺ¤ëŀĺë":8845,"ĠìķĮìķĦìĦľ":8846,"ĠìĹ°ì¶ľ":8847,"íģ¬ë³´":8848,"¸Ķë¦¬":8849,"Ĥ´ê³ł":8850,"ê²ĢìĤ¬":8851,"ê±°ê°Ļê¸Ķ":8852,"Ġëį°ìĿ´íĦ°":8853,"Ġìĭ¸ê²Į":8854,"§Įëĵł":8855,"Ġì°¸ê³ł":8856,"ĠëĪĦêµ¬ìķ¼":8857,"ìĭ±íĦ´":8858,"180":8859,"ìķĹëĭ¤":8860,"ì²ľëªħ":8861,"ìĨĶê¹Į":8862,"íĺĦëĮĢ":8863,"Ġì»´íĵ¨íĦ°":8864,"ĠìĿĮë°©":8865,"Ġìĸ´ëĶĶë¡ľ":8866,"ĵľëŀĳìĿ´":8867,"ĠìķĦíĭ°ìĬ¤íĬ¸":8868,"IN":8869,"ëĩĮ":8870,"ģĦ":8871,"ĳĳ":8872,"ì§¸ë":8873,"ê¸ĭ":8874,"Ĥĺìĺ¤":8875,"Ŀ¼ìļ´":8876,"ë§µ":8877,"Ġë°¸ëŁ°ìĬ¤":8878,"ìĭľíĤ¨":8879,"ì£¼íĻĺ":8880,"¹Ħêµ°":8881,"ëıĦìĭľ":8882,"¶Ģê¸°":8883,"Ġê°ĢìĿĦ":8884,"íŀĪëĦ¤":8885,"ìĸ´ëĵ¤":8886,"ë§Įê°Ħ":8887,"Ġì¢ĭìĿĦê¹Į":8888,"Ġë³´ìŀĲ":8889,"ëĮĢê¸°":8890,"ìĹĪê¸Ķ":8891,"ê²½íĹĺ":8892,"íģ¬ìĬ¤":8893,"ê¸īìĿ´":8894,"Ġê³łì³Ĳ":8895,"Ġì£¼ìłĦ":8896,"Ġìłľê°Ģ":8897,"ĠíİŃ":8898,"ì¹´ë©ĶëĿ¼":8899,"ìĿĦëķĲ":8900,"ë¯¸ìķĪ":8901,"§ĪëıĦ":8902,"Ġê°¤íĶĮ":8903,"Ġíķ´ë³´":8904,"Ġë§Ŀìĥģ":8905,"ĠëıĻìķĪ":8906,"íĤ¹ë¡¤":8907,"Ġë§¤íģ¬ë¡ľ":8908,"Ġë¦¬ë©Ķ":8909,"Ġê·¸ëŁ°ëį°":8910,"Ġì²ĺìĿĮìľ¼ë¡ľ":8911,"Ġëĭµë³Ģ":8912,"Ġê½Ĥ":8913,"ĠíĮĶë©´":8914,"íļĮë¡ľ":8915,"ëĵ£":8916,"ĠíĽĦë°ĺ":8917,"Ġë¹łë¥¸":8918,"Ġê°ĶëĬĶëį°":8919,"íķĦëıħ":8920,"ìĭłê³¡íĻįë³´":8921,"ĠíİĺìĿ´ì»¤":8922,"07":8923,"SD":8924,"ot":8925,"Ġin":8926,"į©":8927,"Ł´ë":8928,"Ġëī´ë¹Ħëĵ¤":8929,"ëĬĺë":8930,"ì§Ģì½Ķ":8931,"íķĺìĦ±":8932,"íķĺìĹ¬":8933,"ìłķíĺ¸":8934,"ìĿ¼ê¸°":8935,"ìŀ¥ëĤľ":8936,"ê°¤ì§ĳ":8937,"ıĻëĦ¤":8938,"Ġëª»íķľ":8939,"Ġëª»íķĺëĦ¤":8940,"ìŀĲëĿ¼":8941,"ĠìĥĿì¡´":8942,"ì¢ĢìļĶ":8943,"êµ¬ë¥¼":8944,"ì°¨ê°Ģ":8945,"ì¦ĪìķĦ":8946,"ìķłê¸°":8947,"ìŀħìŀ¥":8948,"Ġìĺ¤ë¹ł":8949,"Ġëª¨ë¦Ħ":8950,"Ġë¬¸íĪ¬":8951,"ĠìķĮìķĺëĭ¤":8952,"ëĿ¼ìĿ´ë¸Į":8953,"ëĤĺë´Ĳ":8954,"ëıĦë¡ľ":8955,"Ġë³ĳìĽĲ":8956,"Ġê°¤ëŁ¬":8957,"ìĵ°ëĬĶê±°":8958,"ĠìĹĲìĸ´":8959,"ĠìĹ¬ëıĻìĥĿ":8960,"ì§¤ëĵľì»µ":8961,"ĠíĨłíĥĪìĽĮ":8962,"íĮ¡ìĿ´":8963,"íĺĢìĦľ":8964,"ìĽ¨ìĿ´ë¸Į":8965,"Ġì¸¡":8966,"06":8967,"¹¨ë¦¬":8968,"ľëĵ¯":8969,"ìĿ´ëŁ´":8970,"¦¬ëĭ¤":8971,"Ġíķ¨ë":8972,"ìĿ¸íĺķ":8973,"ê¹Įê³ł":8974,"ìĥģëĮĢ":8975,"ìłľìŀĳ":8976,"ìĦ±ìļ°":8977,"íĨ¨":8978,"§ĪëĬĶ":8979,"ëĤĺì¤ĳìĹĲ":8980,"êµŃë¯¼":8981,"ĠìĭľíĤ¤":8982,"Ġì¶ľë°ľ":8983,"ëıĪë":8984,"ĠìĥĿê²¼ëĦ¤":8985,"íĬ¸ëŀĳ":8986,"ìĭ¤íĮ¨":8987,"ìĨĮë¦¬ë":8988,"ĠìķĦëĵ¤":8989,"ãħħãħħ":8990,"ìĽĲë§Īê°¤":8991,"Ġì¶Ķì²ľìłĲ":8992,"Ġëį°ë¦¬ê³ł":8993,"ë©Ģ":8994,"ĠíĦ°ë":8995,"ãħİãħĮãħĬ":8996,"ĠëĦĺê²Į":8997,"ìłķëıĦëĬĶ":8998,"ìĽĮëĩ½":8999,"ëĤ´ìĿ¼ìĿĢ":9000,"ĠíĥĪì£¼":9001,"ê°ĪëķĮ":9002,"ĠëĤ«ëĭ¤":9003,"Ġìĸ¸ìłľëĤĺìĺ´":9004,"Ġë³¼ë§Į":9005,"ĠìĥĢëĭ¤":9006,"ì½ľëĿ¼ë³´":9007,"Ġíĭ°ë¹Ħ":9008,"Ġëī´ì§¤":9009,"ãħĨãħĤ":9010,"íķ«ìĤ°":9011,"´ëĭ¬ëĿ¼ê³ł":9012,"ĠíĶĦë¦¬ë·°":9013,"ëħ¸ë¬´íĺĦ":9014,"°ëĭ¤":9015,"Ħë²Ħê±°":9016,"ê±°ëĬĶ":9017,"ìķĦëĭ¤":9018,"ìķĦíĬ¸":9019,"Ġìłłì§Ģ":9020,"ê¹ľ":9021,"ëĭĪì¥¬":9022,"ì°ĲëĶ°ë":9023,"íĺĢë":9024,"ãħĭãħĭãħĭãħĭãħĭãħĭãħĭãħĭãħĭãħĭãħĭãħĭãħĭãħĭãħĭ":9025,"ìĿĦê±¸":9026,"Ġê°Ģì§Ģ":9027,"ëĤĺìĺ¤":9028,"Ġë³´ìĦĿ":9029,"Ġì¹ľë":9030,"ĠíķĺëĿ¼ê³ł":9031,"ìĤ¬ë¥¼":9032,"ìŀĲë¥¼":9033,"ìľĦëĬĶ":9034,"ìľĦìĹĲ":9035,"ì±łë":9036,"ìĪĺëŀĳ":9037,"íį¼ê°Ģ":9038,"Ġëª¨ìķĦë":9039,"ĠëıĦìĭľ":9040,"Ġìĭ¶ëĦ¤":9041,"ĠëģĿëĤ´":9042,"ãħĭãħĭãħĭãħĭãħĭãħĭãħĭãħĭãħĭãħĭãħĭãħĭãħĭãħĭãħĭãħĭãħĭãħĭãħĭãħĭãħĭãħĭãħĭ":9043,"ìĦ¸ë¸Ĳ":9044,"ìĿ´ìĬ¤íģ¬ë¦¼":9045,"Ġì¹ľêµ¬ê°Ģ":9046,"Ġì§ĳìĹĲìĦľ":9047,"ĠìĽĲëĶľ":9048,"ĠìĥĪëģ¼ëĵ¤ìķĦ":9049,"ì¡ĮìĿĮ":9050,"ìĺµìħĺ":9051,"Ġë¬¸ìłľìŀĦ":9052,"ĠìĮĶ":9053,"Ġëª°ëĿ¼":9054,"ê¾¹ì°ľ":9055,"ì¿łëĿ¼":9056,"íĥĪëŀĢ":9057,"ìĤ¬ìĿ´íį¼ì¦Ī":9058,"ĠëłĪìłĦëĵľëĦ¤":9059,"íĹ¨ëį¸":9060,"pl":9061,"un":9062,"ìĿ´ëĶ°":9063,"íķĺìĭ¤ë¶Ħ":9064,"ĠìĿ´ìĬ¹":9065,"ĠìĻĵ":9066,"íķ´ì£¼ë©´":9067,"Ġê³Ħë":9068,"ìłķë§Ĳ":9069,"ìłķë³ĳ":9070,"íģł":9071,"Ġëĭ¤ìĿ´ìĸ´íĬ¸":9072,"ìĸ´ë¦¬":9073,"ê°ģìĦ±":9074,"ĠìĬ¤íħĮ":9075,"ìłĲìĹĲìĦľ":9076,"ë²ķìĿ´":9077,"ĠìĥģëĮĢë¡ľ":9078,"ìĽĮì¹ĺ":9079,"Ġíģ¼":9080,"ëħĦìĿĢ":9081,"ĠìķĦëŀĺ":9082,"ìĻĶìİĦë¦¬":9083,"íĥľê·¸":9084,"Ġë©¤ë":9085,"ĠìķĦëĭĪëĿ¼ê³ł":9086,"íĮĲìĿ´":9087,"ĠìŀħëĭĪëĭ¤":9088,"íİĺìĿ¸":9089,"Ġë°Ķëĭ¤":9090,"ĠíĤ¤ìļ¸":9091,"ĠíĶ¼íĨµ":9092,"ãħĪãħĩ":9093,"Ġìľłë§Ŀ":9094,"ĠìłĦëł¥":9095,"ĠíķĺëĤĺëĬĶ":9096,"ëŀľ":9097,"ê²ŁìĿĮ":9098,"§Įë´ĲëıĦ":9099,"ê±°ëŀĳ":9100,"ĠìĦłëıĻ":9101,"ë°ĽëĬĶ":9102,"ìĦ¼ì§ķ":9103,"íħĮëĿ¼":9104,"ìĭŃìĩ¼":9105,"Ġíģ¬ë¦¬":9106,"Ġì¢ħëª©":9107,"ĠêµĲìľ¡":9108,"ĠíķĦìļĶíķľ":9109,"ë¬´ëĮĢ":9110,"####":9111,"ĠíĥĪëĿ½":9112,"Ġë¯¸ì¹ľëĨĪ":9113,"ì¡¸ìĹħ":9114,"Ġê·¸ëŀĺíĶ½":9115,"ì·¨ë":9116,"Ġìº¡ì³Ĳ":9117,"ìĨ¬ìĤ¬":9118,"ROCK":9119,"Roll":9120,"df":9121,"ģĮ":9122,"ĤĺìĻĢ":9123,"ìĿ´ëĵĿ":9124,"ìĥĮ":9125,"ìĬ¤íĮħ":9126,"ìĭľì¼ľë":9127,"ĠìĻ¼":9128,"ĠìĻĶë":9129,"íķ´ìłľ":9130,"ì£¼ìŀĲ":9131,"ŀĳìĿ´":9132,"ĠëĤĺìĻĢëıĦ":9133,"ê°Ļì§Ģ":9134,"Ġê°ĢëĥĲ":9135,"ìĦ±ìłģ":9136,"ìĿ¸ëĶĶ":9137,"ĠìĹĨìķł":9138,"ĠëĦĵ":9139,"Ġìłķê·ľ":9140,"Ġìĭľê³Ħ":9141,"ĠìĬ¤íģ¬ë":9142,"£¨ëĬĶ":9143,"ĠìĹ¬ìłĦ":9144,"ê¸ĢìĦŃ":9145,"íķłìĪĺë¡Ŀ":9146,"íĬ¸ëĦĺ":9147,"¡ľë¡ľ":9148,"íģ¬ëĬĶ":9149,"ìķĺê¸Ķ":9150,"ê²ĥê°Ļëĭ¤":9151,"Ġì£¼ìłľ":9152,"íĪ¬íĳľë":9153,"Ġìĸ´ëĶĶìĹĲ":9154,"ĠíĤ¤ìļ°ëĬĶ":9155,"Ġìĭ¶ìľ¼ë©´":9156,"ìłĢë²ĪìĹĲ":9157,"ì¶ľìĭł":9158,"ê¶ĮìĿĢ":9159,"Ġê°Ĳìłķ":9160,"íĿ¬ìŀ¬":9161,"Ġë§Įëĵ¤ë©´":9162,"Ġì§ĳì¤ĳ":9163,"ł¸ìĿĮ":9164,"íķ´ìķ¼ê²łëĭ¤":9165,"ìį¨ìĦľ":9166,"ì©į":9167,"íĭ°ë¸Į":9168,"ë¬¼ê³ł":9169,"Ġë²ĪíĬ¸":9170,"Ġë§¤ëıĦ":9171,"Ġê·¸ë§Įíķ´":9172,"ëĳ¡":9173,"Ġë°ĶëĢľ":9174,"ĠìĹ¼ìĥī":9175,"ĠìĹ¼íĢ´":9176,"Ġìĸ´ëł¤ìļ´":9177,"Ġëĸ´ëĬĶëį°":9178,"ëĥ¥ìĿ´":9179,"ĠíĪ¬ëł¥":9180,"ĢëĿ¼íķľ":9181,"ĠëĪĦêµ°ëį°":9182,"ĠëĤļìĭľ":9183,"ingRoll":9184,"ìĸĳì¤ĢìĿ¼ê°¤":9185,"ROCKingRoll":9186,"09":9187,"211":9188,"¸Įë¦¬":9189,"Ħ¼":9190,"ľ¯":9191,"ìĿĢíķĺ":9192,"íķľìłķ":9193,"ĠìĤ¿":9194,"ìľ¼ëł¤ëĤĺ":9195,"íĬ¸ìľĦíĦ°":9196,"ì£¼ëĬĶëį°":9197,"ìłĦíĪ¬":9198,"ìĽĲìĪľ":9199,"ìĸ´ëª½ìĸ´ìĬ¤":9200,"³´ìĿĢìĻĶ":9201,"ĵľëĤĺ":9202,"ìķĪê²½":9203,"êµŃê°Ģ":9204,"ìĺģìłĦ":9205,"ì£¼ëħĦë":9206,"ì°¨íĬ¸":9207,"ìļ©ìłľ":9208,"ì¢ĨìĬ¨":9209,"Ġë¨¹ìĸ´":9210,"ìĪĺë©´":9211,"ê·¼íĺľ":9212,"ĠìķĬìĿĢ":9213,"Ġê°¤ìĿ´":9214,"ëĤ¨ìĿĢ":9215,"ìºĲë¡ľ":9216,"Ġë§Īëłµëĭ¤":9217,"Ġíı¬íķ¨":9218,"ë©¸":9219,"ĠíĺĦìĹŃ":9220,"ĠíıīíĥĢ":9221,"ìŁ¤":9222,"ìłłì§Ģ":9223,"íĻįìĿ´":9224,"ë£¸":9225,"ĠìĿ¸ë³Ħ":9226,"ìĪĻìĿ´":9227,"ĠìĨįìĦ±":9228,"ê¾¸ëĿ¼":9229,"ĠìĶ¨ë°ľëł¨":9230,"Ġì°©íķľ":9231,"Ġë¶ĦëŁī":9232,"Ġëī´ìĬ¤":9233,"ë®ĮíĹ¨":9234,"66":9235,"GIF":9236,"¬ëĭ¤":9237,"ê°Ģì¡±":9238,"ì§ĢíĺĦ":9239,"ìķĦíĮĮ":9240,"ëĭĪì§Ģ":9241,"íķľíĻĶ":9242,"ìĭľíĤ¤ë":9243,"ìĿĺìĥģ":9244,"Ġê±·":9245,"ł¤ëĭĪ":9246,"ìĽĲìłķ":9247,"ĠìĿ´ëŁ¼":9248,"Ġìłķìļ°ëŀĮ":9249,"Ġìłķì£¼íĸī":9250,"ìº¬":9251,"íĻĶì§Ī":9252,"Ġíĺ¹":9253,"ìĺģìĤ¼":9254,"ì¹´ì¹´ìĺ¤":9255,"íĹī":9256,"ĠìŀĲìĦ¸":9257,"ìĬ¤ë§Īê°¤":9258,"ì¢Ĩëª©":9259,"ĠìĿ´ê±°ì§Ģ":9260,"Ġì¤ĳìĿ¸ëį°":9261,"íĶĦë¦¬ë":9262,"ĠìłľìĻ¸":9263,"ìĪĺëł¨":9264,"ĠëĤ¨ìķĺëĭ¤":9265,"ìį¸":9266,"Ġìĸ´ëĶĶìŀĦ":9267,"ĠìĺĪì¸¡":9268,"ìĿ´ëĿ¼ëĬĶê²Į":9269,"ìĸ¸ëĭĪëĵ¤":9270,"ĠíĻķì§ĦìŀĲ":9271,"ãħĪãĦ±":9272,"Ġë²Ħíĭ°":9273,"Ġë¶ĢëıĻìĤ°":9274,"ë©į":9275,"Ġëĭ¨ì²´":9276,"ìķłë¹Ħ":9277,"ëĵľë¦¼":9278,"íĶĮëŁ¬ìĬ¤":9279,"ë²Ħíį¼":9280,"Ġê°Ħì§Ģ":9281,"ĠìĦľë¸Į":9282,"ì§Īëĵ¯":9283,"ëī´ë¹ĦìĿ¸ëį°":9284,"ãħĤãĦ¹":9285,"@@@":9286,"ìĦłë¬¼":9287,"ĠíĮĶê³ł":9288,"ì§ĦëıĦ":9289,"Ġê¼¬ëĿ¼ì§Ģ":9290,"ê°¤ì£¼ëĭĺ":9291,"Ħ¤ëıĦ":9292,"Ġëļľë":9293,"ê³¼ëª©":9294,"ì³¤ëĭ¤":9295,"Ġì§Ģê¸ĪëıĦ":9296,"ĠíĬ¸ëłĪìĿ´ëĵľë":9297,"ĠìĹ¼ë³´ë":9298,"ìķĦëĭĮê°Ģ":9299,"ë¹ĦíĬ¸ëįĺ":9300,"ëŁ½":9301,"ëī´ë¹Ħëĵ¤":9302,"Ġì¯":9303,"ìķĮë¦¬":9304,"ê¸°ê³Ħ":9305,"¡ľìĽĮ":9306,"Ġìł¤ë":9307,"ìķ¼íķ´":9308,"ìĤ¬ì§Ģ":9309,"ì§Ħìļ±":9310,"ĠìķĪìłĦ":9311,"Ġì°Įë":9312,"Ġì¢ĭëįĶëĿ¼":9313,"ê°ģê°ľ":9314,"êµŃìĸ´":9315,"Ġìĸ´ì°Į":9316,"ì¡°ìĥĪ":9317,"ĠíĬķ":9318,"íĿł":9319,"ìŀ¬ìĽĲ":9320,"ë©´ìłĳ":9321,"ĠìķĦë°ĶíĥĢ":9322,"½ĳê¸°":9323,"Ġê¸°ë¶Ģ":9324,"ĠëłĪìķĮ":9325,"ìķĪëı¼":9326,"ì¹ĺë§Ī":9327,"ĠìĦłì°©":9328,"Ġë°°ëĭ¹":9329,"ì»¤ìĹ¬":9330,"Ġë¨¸ìķ¼":9331,"ĠëĵľëŁ¬ë":9332,"Ġë§ĮìĽĲ":9333,"Ġê°¤ëŁŃìĭľ":9334,"Ġì£½ìĹ¬ë":9335,"ë²ĦëĭĿ":9336,"ĠëĴ¤ì§Ģ":9337,"ĠíĦ°ì§Ĳ":9338,"ĠìĿĺìĭ¬":9339,"ãħĤãħħ":9340,"ì§ľë¡ľ":9341,"ëĪĦêµ¬":9342,"Ġë¦¬ë·°":9343,"ĠìķĦìĿ´íĶ¼":9344,"ĠíĥĪíĩ´":9345,"Ġë¶Īë§Į":9346,"ĠëĨĢëŁ¬":9347,"ĠìĸĺëĬĶ":9348,"Ġëĭ®ìĿĢ":9349,"ĠëĤľë¦¬":9350,"Ġëª»ìĥĿê¸´":9351,"ìķłë¯¸ëĴ¤ì§Ħ":9352,"Ġì§ľì¦ĿëĤĺ":9353,"ĠìĹīëį©ìĿ´":9354,"sa":9355,"©Ģ":9356,"ª¹":9357,"¹łëĵ¤":9358,"¬ë£¨ë":9359,"Ĥĺê²Į":9360,"Ħ¤ìļĶ":9361,"¡ľê±´":9362,"Ġë§ĲëıĦ":9363,"ë°´":9364,"ë°Ķëį°":9365,"§ĮíĻĶ":9366,"ìĭłìĪĺ":9367,"ĠíĮ¡":9368,"Ġê·¸ëŁ¬ë":9369,"ĠìĿ´ë¶Ħ":9370,"ĠìŀĪê³ł":9371,"ë§ĮìĹĲ":9372,"ëª°":9373,"ìĻĢìĿ´":9374,"ìĥĿì¶ķ":9375,"ìŀĪìĹĪëĬĶëį°":9376,"Ġì¤Įë":9377,"ĠìĬ¤íĮĢ":9378,"ĠìĤ¬ëĥĲ":9379,"ĠíķľíĻĶ":9380,"Ġíķľëĭ¬ë":9381,"Ġì¢ĨëĤĺ":9382,"íĬ¸ë¡¯":9383,"íĤ¤ìļ°":9384,"ĠìľłíĪ¬ë":9385,"Ġëħ¼ë":9386,"°©ë²ķ":9387,"ĲĺëĬĶëį°":9388,"íķľë²Īë":9389,"ìĵ´ëĭ¤":9390,"¥´ëĬĶëį°":9391,"ê·¼ìŀ¥":9392,"Ġëªĩìĭľê°Ħ":9393,"ĠëŃĲë¶ĢíĦ°":9394,"íİĺìĬ¤":9395,"Ġê°ľë´ī":9396,"???????":9397,"ĠãĦ·ãĦ·ãĦ·ãĦ·ãĦ·":9398,"ìłĢëŀĳ":9399,"Ġë²ĦìłĦ":9400,"ĠëıĻìĭľìĹĲ":9401,"ĠëĿ¼ìĿ´íĶĦì¹ĺíŀĪ":9402,"Ġì°įê³ł":9403,"ëª¨ìŀĲ":9404,"ìĹ´ìĿ´":9405,"ĠìĨĲíĿ¥ë¯¼":9406,"ĠìĻĶìĬµëĭĪëĭ¤":9407,"íıŃìĽĲ":9408,"ìĽĮëĩ¨":9409,"135":9410,"Ġê±¸ëŁ¬":9411,"ìĺĢëįĺ":9412,"ĠìķĦëĭĮì§Ģ":9413,"Ġë°ľë§¤":9414,"ĠìĹ´ëĵ±":9415,"ìĭ«ëĭ¤":9416,"ëĭ¨ëıħ":9417,"Ġëľ¨ëĬĶ":9418,"ĠìİĪ":9419,"ê°Ģì¶ķëĵ¤":9420,"Ġê¸°ëĮĢëĲľëĭ¤":9421,"====":9422,"ì»´ëĶĶ":9423,"ëľ¬":9424,"ìķĦíĶĦë¦¬ì¹´":9425,"¦¬ëĬĶê²Į":9426,"ê¸°ëħĲ":9427,"ë§ł":9428,"ê²ĮìļĶ":9429,"ĠìĿ´ì§Ģ":9430,"íĬľ":9431,"ë°ĳ":9432,"ìŀĲì£¼":9433,"ĠìĻłì§Ģ":9434,"ĠìķĦì¤Įë§Ī":9435,"ìĦ±ìĿĦ":9436,"Ġì¢ĭìķĦë³´":9437,"ĠìķĪëĲľ":9438,"Ġëª»ì°¸":9439,"ê³µíĺģì¤Ģ":9440,"ìŀĲëĵ¤ìĿĢ":9441,"Ġìĸ´ìĽĮì¦Ī":9442,"ê°Ģë¥¼":9443,"Ġê³µë¶Ģë":9444,"ëĭ¨ìĿ´":9445,"ì½Ķì½Ķ":9446,"ëħ¸íĬ¸ë¶ģ":9447,"ìķĦëĭĪìĭľë°ľ":9448,"ĠíģĲ":9449,"ĠëĤ¨ìķĦ":9450,"íķľê±°ìķ¼":9451,"ì¤ĺìĦľ":9452,"ìĺĪìĥģ":9453,"Ġìĭ¤ìłľë¡ľ":9454,"ê²ĢìĿĢ":9455,"Ġë²Ħíį¼":9456,"Ġë§Īëł¤":9457,"ĠíĬ¸ë¦¬":9458,"Ġë¨¸ëĳĲë§ģ":9459,"Ġì°įìĸ´":9460,"Ġìŀ¬ë°ĮëĬĶëį°":9461,"Ġë¯¸ë§Į":9462,"§ŀì¶Ķ":9463,"ĠìĻĶìĸ´ìļĶ":9464,"ĠëıĮë¦¬ëĬĶ":9465,"Ġì°¾ìķĺëĭ¤":9466,"ìĭŃëĭĪê¹Į":9467,"ĠìķĦìĿ´íħľ":9468,"ì³Ĳë¨¹":9469,"Ġì²ĺëŁ¼":9470,"Ġíĺķëĭĺëĵ¤":9471,"ĠìĽĢì§ģ":9472,"ìķĦë¬´ëıĦ":9473,"ëº":9474,"ëŀĮ":9475,"Ĭ¥":9476,"Ġìĳ":9477,"ĠìŀĦëĮĢ":9478,"ìĦľê´Ģ":9479,"ìĬ¤íĦ´":9480,"ĠìĹĦë":9481,"íĶĪëį°":9482,"¬´ìĦľ":9483,"ĠëĤĺìĦľ":9484,"ĠíĮĢë":9485,"ìĸ´ë¦°":9486,"íĭĪ":9487,"ê·¸ëłĩê²Į":9488,"Ŀ¼ëŀĳ":9489,"íŀĪíŀĪ":9490,"Ġ39":9491,"Ġì¶ľë":9492,"Ĥĺë¹Ħ":9493,"Ġíĺģ":9494,"°ĶìĹĲ":9495,"ĠìĹ¬ìĭł":9496,"ĠìĪĺê¸ī":9497,"Ġê³µíĨµ":9498,"Ġê±°ìķ¼":9499,"Ġíİ¸ë":9500,"Ġë©ľ":9501,"ìĤ´ìĿ´":9502,"ĠëŃĲë¡ľ":9503,"ì¹ĺë¥¼":9504,"ì¥Ĳë":9505,"ìĹ´ìĩł":9506,"ìļ°ë¦¬ì§ĳ":9507,"Ġì»¤íĶĮ":9508,"ë£¬":9509,"Ġê±¸ë¦¼":9510,"Ġìĭłë°ľ":9511,"ĠëĦ£ìĸ´":9512,"íı¬ëıĦ":9513,"ĠìĮĪ":9514,"ìĺ·ìŀ¥":9515,"ê·¸ëŁ¬ê³ł":9516,"ĳ¥ìĿ´":9517,"ì¡´ë²Ħ":9518,"Ġë¬´ìĦľìļ´":9519,"ĠëŀŃíĤ¹":9520,"íİĺìĿ´ì»¤":9521,"ĠìŃĪ":9522,"ĠíĺĪê·Ģ":9523,"Ġãħīãħī":9524,"°§":9525,"ëĥĲë":9526,"ı¼ë":9527,"Ĳłëĵ¯":9528,"ļĿ":9529,"Ġì¾":9530,"ê¸·":9531,"ê¸´ëį°":9532,"ìĦľìĸĳ":9533,"ëĭĪìĬ¤":9534,"ìĪı":9535,"ìķ¼íķľëĭ¤":9536,"ĠìķĦìŀ¬":9537,"ĠìĦ¬":9538,"¶Ģê°Ģ":9539,"ĠìĻľìŀĲê¾¸":9540,"ê³µìĭĿ":9541,"ìĹĨëĭ¤ê³ł":9542,"ìłģìĿĺ":9543,"ìłģíĻĶ":9544,"ìłĢê²©":9545,"ĮĢëıĦ":9546,"©Ķê°Ģ":9547,"ĠíķĺìĬ¤":9548,"ĠìĥĿê°ģëĤĺ":9549,"Ġë§ĲíĪ¬":9550,"ë¶Ħê°Ħ":9551,"Ġë©¸":9552,"ĠìķĮìķĦë³´ìŀĲ":9553,"Ĥ¨ìŀĲ":9554,"Ġìĭ¤ìĪĺ":9555,"ĠìĤ´ê¸°":9556,"Ġë§ĪëłµëĦ¤":9557,"ë©ľë":9558,"ĠìĨĮë¦Ħëıĭ":9559,"ìĮĶ":9560,"Ġëĭ¨ìŀ¥":9561,"Ġë§Įëĵ¤ê³ł":9562,"°ĶëŀĮ":9563,"ĠìĹħìłģ":9564,"ìĹĩëĦ¤":9565,"íĸĩëĦ¤":9566,"Ġíĭ°ìķĦê³ł":9567,"Ġëŀľ":9568,"Ġë¬µ":9569,"ĠëĿ¼ëĶĶìĺ¤":9570,"ìĭľê°ĦëıĻìķĪ":9571,"ĠíĹ¤ëĵľ":9572,"íĶĦëłĪìŀĦ":9573,"Ġìĸ´ì©Įê³ł":9574,"ĠìķĪëĵ¤ìĸ´ê°Ģ":9575,"ĺë§ĪíĨµ":9576,"ê¹Įë§Ĳê¹Į":9577,")(":9578,"Ķ¸ë":9579,"ëĭ´ëĭ¹":9580,"ìĿ´ìĬ¹":9581,"ê¸°ë³¸":9582,"ìĿ¸ìĽĲ":9583,"ëĤļ":9584,"ĠìķĦìĭľëĬĶë¶Ħ":9585,"íķ´ì¤Ģ":9586,"ìĪĺì¹¸":9587,"íĬ¸ìĹĲ":9588,"ì£¼ìĿ¸ê³µ":9589,"ìĿĺì§Ģ":9590,"Ġê·¸ëķĮ":9591,"ìķĦëħ¸":9592,"ê°ľì¶Ķ":9593,"Ġì§Ģì½Ķ":9594,"Ġê¹ľë":9595,"ĠìĬ¤ìľĦ":9596,"Ĥĺë¦¬ìĺ¤":9597,"ë³´ê²¸":9598,"ĮĢëĦ¤":9599,"ì£¼ëŀĳ":9600,"íĺ¸ëĬĶ":9601,"Ł¬ëıĦ":9602,"ìļ©íĻĺ":9603,"ĠìłĦìļ©":9604,"Ġë¹Ħíķĺ":9605,"Ġê³łê¸°":9606,"Ġê³łìĥĿ":9607,"íı¬ìĬ¤":9608,"ìķ¼ëĲĺëĬĶ":9609,"Ġë§ĲìķĦ":9610,"ì³£":9611,"Ġë©Ģë":9612,"ìłľëª©":9613,"ì¹´ëį°":9614,"ĠíĹĪë¦¬":9615,"³´ëĭ¤ëĬĶ":9616,"Ġì±Įë¦°ì§Ģ":9617,"ìĺ¬ê¹Į":9618,"Ġìķ¼ê°¤":9619,"ìķħëª½":9620,"Ġíı¬ì§Ģìħĺ":9621,"ìĵ°ê¸°":9622,"Ġë¦¬ìĬ¤íĬ¸":9623,"ë°Ķì§Ģ":9624,"íĿ¬ëĬĶ":9625,"ìĵ°ëĦ¤":9626,"Ġëħ¸ëŀĺëĬĶ":9627,"ëĿ¼ëĿ¼ëĿ¼ë":9628,"ĠìĤ´ë§Į":9629,"Ġë¹¡ìĦ¸":9630,"ĠìķĦëĭĮê±°":9631,"ëĲł":9632,"ë¿¡íŀĽ":9633,"ĠìķŀìĹĲìĦľ":9634,"ëĦĪëĦ¨":9635,"ìĽĶëŁī":9636,"ëĲľê±°":9637,"ëļ±":9638,"ĠìĬ¤íĬ¸ëłĪ":9639,"Ġê°Ģë¥´":9640,"ĠìĻķëĶ°":9641,"ìĥĪëģ¼ëıĦ":9642,"Ġëĭ¨ëıħ":9643,"ĠìĤ´ìķĦëĤ¨":9644,"ĠìĿ¸ë°©ê°¤":9645,"ĠíļĮë³µ":9646,"38":9647,"ON":9648,"os":9649,"ë¥´ë":9650,"ľ©":9651,"ŀ¬ë":9652,"ŀĲëĭ¤":9653,"ëĬĶê²ĥëıĦ":9654,"ìŀĥ":9655,"íķĺìŀĲë§ĪìŀĲ":9656,"ĮĢê²°":9657,"ìĭľì²Ń":9658,"ìĿ¸ê±°ìŀĦ":9659,"Ġëª½":9660,"ìĤ¬íķŃ":9661,"ì£¼ìĿ¸":9662,"Ġê²¹":9663,"Ġê²°ë":9664,"ĠìŀĪìĬµëĭĪëĭ¤":9665,"íĭ¸ë":9666,"ĠìĨ¬":9667,"ĠìķĪëľ¨":9668,"ìŀĪê³ł":9669,"ê°ľìĶ¨ë°ľ":9670,"ìĤ¬ë¬´":9671,"ìŀĲëĵ¤ìĿ´":9672,"ĠìĿ¸ìĭ¸ë":9673,"ĮĢë©´":9674,"íĶ¼ìĸ¸":9675,"íĮĮê°Ģ":9676,"Ġê³µë°©":9677,"íĿ°":9678,"ê³ĦíĺĦ":9679,"Ġë§Īê°¤":9680,"Ġëĸ¼":9681,"Ġì¤ĳìĹĲìĦľ":9682,"Ġê³łìĿ¸ë¬¼":9683,"íı¬ìĪĺ":9684,"Ġë¨¹ìĹĪëĭ¤":9685,"ĠìķĦë¬´ëĤĺ":9686,"íķĻêµĲë":9687,"ªħìĿ´":9688,"ì¹´ëĥĲ":9689,"§Īë¦¬":9690,"ĠìĹ°ê²°":9691,"ĠíķĺëĬĶê±´":9692,"ħĢê°Ģ":9693,"ª»íķ¨":9694,"Ġìķłê°Ģ":9695,"Ġëį°ìĿ´íĬ¸":9696,"Ġêµ¬ë¶Ħ":9697,"ĠìľĦì¹ĺ":9698,"ĠìķĪëĤĺìĺ¤ëĥĲ":9699,"ĠíĦ°ì§Ī":9700,"Ġíĭ°ìħĶì¸ł":9701,"ĠëĪĪíĮħ":9702,"Ġë¦¬ë²ĦíĴĢ":9703,"ĠìŀłìĿ´":9704,"Ġëĭ¤ìĿĮì£¼":9705,"ìļĶë¦¬":9706,"Ġë¯¸ì³£":9707,"íĺľìĦ±":9708,"ëĭ¤ëĭĪëĬĶ":9709,"ê·łìĹ´":9710,"ĠìĿ¸ê¸°ë§İ":9711,"ĠëĪĪë¬¼ë":9712,"ĠíĥĪëª¨":9713,"Ġëĭ¨ëĶĶ":9714,"ĠëĶľëŁ¬":9715,"ĠìĺĽëĤłìĹĲ":9716,"ĠëĵĢìĺ¤":9717,"Ġìĩ¼ë£¸":9718,"íĩĺ":9719,"as":9720,"ëĭ¤íģ¬":9721,"ìĦľê°Ģ":9722,"ìķ¼íķĺëĥĲ":9723,"ĠìķĦëĬĶëį°":9724,"ìĪĺìŀĩ":9725,"ĠìĦŀ":9726,"ê°¤ìĿĺ":9727,"ĠìķĪìĺ¬ëĿ¼":9728,"ìĿ¸ëĮĢ":9729,"ĠìľĻ":9730,"ĠìĹĨìĿĦ":9731,"ĠëĦĮ":9732,"Ġì¹¸":9733,"ê°ľìĽĶë":9734,"Ġ3000":9735,"Ġëª»ë³´":9736,"ê²łëĭ¤ê³ł":9737,"ìŀĲë§Į":9738,"Ġìĸ´íĶĮ":9739,"ìłĢê²Į":9740,"ë³´ìĨĮ":9741,"íķłìĿ¸":9742,"ĠìŀĲìĹ°":9743,"Ġìĵ´ëĭ¤":9744,"Ġë´£":9745,"ĠìłĦëĭ´":9746,"ĠìłĦìĦ±ê¸°":9747,"íı¬ìĹł":9748,"Ġì¶Ķìĸµ":9749,"ë¶ĢìºĲ":9750,"ì³¤ëĦ¤":9751,"Ġãħħãħį":9752,"ìĤ´ìķĦ":9753,"ìĤ´ê¸°":9754,"ĠëĤĺë¥¼":9755,"ĠíĽĶ":9756,"Ġê°ľëħ¸":9757,"Ġê°ķëĤ¨":9758,"ëĭ¬ê³ł":9759,"Ġ800":9760,"ìĹĶìĶ¨":9761,"Ġê¸ĢìĿ´":9762,"´¤ìĸ´":9763,"Ġë¬´ë¦İ":9764,"íĢ´ëĵ¤ìĿĢ":9765,"íĹĺìĥĿ":9766,"ëħ¸ëŀĺë":9767,"Ġë´Ĳìķ¼ì§Ģ":9768,"Ġê°ĵê¸°":9769,"Ġ->":9770,"ĠíķĻìĽĲ":9771,"íĽĪìĿ´":9772,"ìĸ´ëĤĺìĦľ":9773,"Ġë´īíĢ´":9774,"Ġ170":9775,"ĨĪëĵ¤ìķĦ":9776,"Ġai":9777,"Ġì«Į":9778,"Ġíľ´ê°Ģ":9779,"Ġê·¸ëłĩê³ł":9780,"ĠìłĪë°ĺ":9781,"ìĬ¤íĨłìĸ´":9782,"ëĿ¼ëĿ¼ëĿ¼ëĿ¼ëĿ¼":9783,"150":9784,"¥µ":9785,"ë±Ģ":9786,"Ġgif":9787,"ķ¡":9788,"ĸĦ":9789,"ëĬĶëĵ¯":9790,"ĠìĿį":9791,"ìĿ´ëįĺ":9792,"ìĿĢì§Ģ":9793,"ê¸°ëĥĲ":9794,"ĠìĿ´ê²ĥëıĦ":9795,"ìĤ¬íļĮ":9796,"ìĪĺìłĢë":9797,"ì£¼ìĦ¸":9798,"Ġê°ĢëĬĶê²Į":9799,"êµ¬ê°Ħ":9800,"ĠìĿ´ëŁ¬ë©´":9801,"ìĶ¨ëĵ¤":9802,"ĠìĤ¬ëĬĶê±°":9803,"ëħ¼":9804,"Ġë³´ìĿĢìĻĶìĸ´ìļĶ":9805,"ìĺ¤ë¦Ħ":9806,"ìķĪìĿ´":9807,"ìĦ¸ìĿ´":9808,"Ġì¤«":9809,"ĤĺëĥĲ":9810,"ì¡°ìļ©":9811,"Ġë§İëĭ¤":9812,"ìķĦëĭĪê·¼ëį°":9813,"Ġëĵ¤ìľ¼ë©´":9814,"Ġìłľíķľ":9815,"Ġìĺ¬ë¦´":9816,"Ġìĺ¬ë¦¬ê³ł":9817,"Ġë§Ĳê¹Į":9818,"Ġë§ĲìĿĦ":9819,"Ġê²ĮìĿ´ìķ¼":9820,"ĠíĨ¡":9821,"ë¯¸ì¹ľë":9822,"íķłëŀĺ":9823,"ë°°ìĪĺ":9824,"Ġì¢ĭìķĦìĦľ":9825,"ê¶ĮìĿ´":9826,"Ġëĳĺë":9827,"ì²ĺë¦¬":9828,"ĠíĬ¹ìĿ´":9829,"ĠíĺĦíĻ©":9830,"Ġê·Ģìĭł":9831,"Ł½ëĦ¤":9832,"Ġë¬´ëĤľ":9833,"Ġë½ĳìĿĦ":9834,"Ġë³ĳìĭłìŀĦ":9835,"ĠëĤĺìĺ¤ì§Ģ":9836,"Ġì§ĳíļĮ":9837,"ĠìĿ´ë²Īì£¼":9838,"Ġì¹´ëįĺ":9839,"Ġë°±ìĹħ":9840,"ĠëĪĪìĿ´":9841,"ê°Ķëĭ¤ê°Ģ":9842,"ĠìĿĮíķ´":9843,"ĠêµĲì²´":9844,"ì§ĵë§Ĳ":9845,"ìļĶë¯¸":9846,"ìĪĺìŀĪìĿĦê¹Į":9847,"ëķĥ":9848,"ë§Ĳë³µ":9849,"Ġì¤ĳìļĶíķľ":9850,"Ġì¤Ģëĭ¤":9851,"ë¬¼ëĥĲ":9852,"ëĮĵê¸Ģ":9853,"ë¿Į":9854,"ê°ķëĭ¤ëĭĪìĹĺê°¤":9855,"Ġì°¬ëĺĲ":9856,"ĠëĦ¥ìĬ¨":9857,"ëĿ¼ë¹ĦëįĺìĬ¤ë§Īê°¤":9858,"gainìĭłê³¡íĻįë³´":9859,"ig":9860,"ke":9861,"¯Ħ":9862,"ëĪĪëĤĺ":9863,"ëī´ë¹Ħë":9864,"ģãħĩãħĪ":9865,"ł´":9866,"ëĭĲ":9867,"ì¹¸ë":9868,"ìķ¼íķĺëĬĶëį°":9869,"íķĺë£¨ë":9870,"ìĤ¬ëĭĺ":9871,"ìĿ¼ìĦŃ":9872,"íķĺëĬĶì¤ĳ":9873,"ì§Ħíĺģ":9874,"Ġê²Ģë":9875,"ì½¥":9876,"ìĸ´ëĬĲ":9877,"ĠìĪľë":9878,"ê·¸ëĤĺ":9879,"Ġìłķë¶Ģ":9880,"ìķĦë²Ħë":9881,"ìºłë":9882,"Ġìĺ¤íĽĦ":9883,"Ġ33":9884,"ĠëŃĲìŀĪìĿĮ":9885,"ìĹĪìĬµëĭĪëĭ¤":9886,"íĮĮìĬ¤íĥĢ":9887,"ĠìĪĺê°Ģ":9888,"ĠìŀĲê²©":9889,"Ġë°©íĥĦ":9890,"ìĿ¼ë²ł":9891,"Ġëĸ¨ë":9892,"Ġì¤ĳëıħ":9893,"íĶĦëĬĶ":9894,"Ġê³łìĪĺ":9895,"íĺĦì¤Ģ":9896,"ĠìĥĿê°ģíķĺëĥĲ":9897,"Ġíİłë":9898,"ĠíĿĶ":9899,"ìĽĶê¸ī":9900,"ìĸ¸ê¸ī":9901,"ê²°ìłķ":9902,"ê±°ê°ĻëĦ¤":9903,"ë¥łë¡ľ":9904,"ĠëĤ´ëĬĶ":9905,"ĠíķĺëĤĺìĶ©":9906,"ĠìĨĮë°©":9907,"ĠìłģìĿĳ":9908,"Ġìĺ¬ëĿ¼ìĺ¨":9909,"ë£¨ìĭľ":9910,"Ġëĭ¤ë¥¸ê±°":9911,"ê°Ķìĸ´":9912,"Ġëŀ¨":9913,"Ġíģ¬ê¸°":9914,"ëĶ°íļ¨ëĭĪ":9915,"Ġëī´ë¹ĦìĿ¸ëį°":9916,"ĠíĥĢëł¹":9917,"ĠëĲłê¹Į":9918,"223":9919,"ëĶĶëłīíĦ°":9920,"¤ëıĦìĺģ":9921,"Ġëĭ¨ëĶĶìĻĶìİĦë¦¬":9922,"¦ħ":9923,"ë¡±":9924,"ĨĢë":9925,"ĠëŁ¬ë":9926,"ìĿ´ê¹Ģ":9927,"ê³łìĨĮ":9928,"ê¸°ëĬĶê±°":9929,"ĠìĹĶë":9930,"íķĺëĵľ":9931,"ì¢Įë":9932,"ìĤ¬íĤ¤":9933,"ìĿ¼ìĭľ":9934,"ĠìĦ¹ìĭľ":9935,"ìłĦíĻĶ":9936,"Ġê°Ģê¹Į":9937,"ĠíĮ¬ëĵ¤":9938,"íŀĪëĤĺ":9939,"ìĸ´ëķĮ":9940,"ìĹ¬ìºĲ":9941,"Ġìłķì§Ģë":9942,"Ġë¶Īë²ķ":9943,"ĠíķĺëĿ½":9944,"êµŃì§Ģ":9945,"Ġìĭľì¼ľë":9946,"ìĨĮìĹĲìĦľ":9947,"ĠìŀĲìłĦê±°":9948,"íģ¬ê°Ģ":9949,"ì¦Īê°Ģ":9950,"ë¦¬ìĦ¸":9951,"ê°ĻìĿĢê±´":9952,"Ġíķ´ìķ¼ëĲ¨":9953,"Ġì¤ĳë§Ŀíĺ¸":9954,"Ġê³łíıīê°Ģ":9955,"íı¬ì¼ĵëª¬":9956,"ìļ°ëıĦ":9957,"íĺĦì§ģ":9958,"ĠíĸĦ":9959,"ëħĦê°Ħ":9960,"ìĦ¤ìłķ":9961,"ìºĲìĭľ":9962,"ìĿ´ëĦ¤ìļĶ":9963,"ª¨ìĿĮ":9964,"Ġãħĩãħħãħĩ":9965,"ëĿ¼íķĮ":9966,"ì¹´ëįĺ":9967,"ìķĪëĲĺëĬĶ":9968,"ĠìĹ°ìŀ¬":9969,"ìį¬ë":9970,"ë§Īë²ķ":9971,"ìĽĶìĿ´":9972,"Ġìĸ¼ë§ĪëĥĲ":9973,"ìĽĲë§Į":9974,"ıĦë¦¬":9975,"ìľłë¯¸":9976,"ìŀĩëĬĶëį°":9977,"íĿ¬ìĻķ":9978,"ĠãĦ±ãĦ±ãĦ±":9979,"ê¸Īë¯¼ì²ł":9980,"ĠëĦ¤ì¢Ĩ":9981,"ĠíĮĢìĿ´":9982,"Ġãħĭãħĭãħĭãħĭãħĭãħĭãħĭãħĭãħĭãħĭãħĭãħĭãħĭãħĭãħĭãħĭãħĭãħĭ":9983,"ìĦ¤ëªħ":9984,"ì²«ë°©ì¶ķíķĺ":9985,"Ġë¹ĦìĬĪë":9986,"ë¸Įë¦¬":9987,"Ġë³Ħê±°":9988,"ê±°ë¦¬ëĬĶ":9989,"Ġë´ĬëıĮ":9990,"ĠëĬ¥ì§Ģ":9991,"ĠíĶĦë¦¬ì½ĶëĦ¤":9992,"Ġê²¨ìļ¸":9993,"íĤ¤ìĽĢíŀĪìĸ´ë¡ľ":9994,"ĠìĹŃê²¨ìļ´":9995,"ìĿ´ì°¬ìĽĲë§Īê°¤":9996,"Ġíĩ´ë¬¼":9997,"46":9998,"ME":9999,"kt":10000,"od":10001,"¼Ī":10002,"ıĶ":10003,"ĠìĮĢë¨¹":10004,"ëĭĲë":10005,"ìĿ´ë²Į":10006,"ìķĦãħĭãħĭ":10007,"ìķĦì¹ĺ":10008,"ìķĦìĶ¨":10009,"ìŀĲìĪĺ":10010,"ìĺ¤ê°Ģ":10011,"Ġ110":10012,"¦¬ë´ĲëıĦ":10013,"§Īì¼ĵ":10014,"ĠìĹĨìľ¼ëĭĪê¹Į":10015,"ìľłíĤ¤":10016,"³´ê°Ģ":10017,"Ġë³´ê³łìĭ¶ìĸ´":10018,"¥¼ê¹Į":10019,"êµ¬ëŀĳ":10020,"ê²½ëħĢ":10021,"Ġê³µì£¼":10022,"¡ľë§Ī":10023,"Ġíķ´ì£¼ëĿ¼":10024,"ìĨĮëħĦ":10025,"ì§ĪìĿĢ":10026,"íĴĭ":10027,"ĲĺëĤĺìļĶ":10028,"Ġê·¸ìĥĪëģ¼":10029,"ìĦĿìĿĢ":10030,"ĠëĤĺëĮĢ":10031,"íĪ¬ìĬ¤":10032,"ëŃĺ":10033,"ëĭ¬ìķĦ":10034,"ë°ķì§Ħìĺģ":10035,"°ķê³ł":10036,"Ġë§ĮëĤľ":10037,"Ġëĵ¤ìĸ´ìĻĢ":10038,"ĠíĪ¬êµ¬":10039,"ĠìĽĲìłķ":10040,"ìķĮê³ł":10041,"ì§ĢìķĬìķĺëĥĲ":10042,"ì²łêµ¬ê°Ģ":10043,"ìĦ¸ëĿ¼íķĮ":10044,"Ġêµ¬ë¦°":10045,"ĠëĶ±íŀĪ":10046,"ê¸Īë§Ī":10047,"ĠíĻĶê°Ģ":10048,"Ġê³¼íķĻ":10049,"Ġë´¤ëĭ¤":10050,"ëĤ´ëĬĶ":10051,"ìĬ¤íĬ¸ë¡ľ":10052,"ëĲĲëĭ¤":10053,"ĠìĹĲë°":10054,"ĠìĿ¼ëŁ¬ìĬ¤íĬ¸":10055,"ì³Ĳë§ŀ":10056,"Ġë´īì¤Ģ":10057,"Ġìī¬ìļ´":10058,"ì°ĲíĬ¹":10059,"ì·¨ê¸ī":10060,"ĠìĿ´ê¸°ë©´":10061,"Ġì¹ĺëªħ":10062,"Ġì§Ħìĭ¬ìľ¼ë¡ľ":10063,"ãħ¡ãħ¡ãħ¡ãħ¡ãħ¡ãħ¡ãħ¡ãħ¡ãħ¡ãħ¡":10064,"ĵ£ëħ¸":10065,"Ġãħįãħį":10066,"íĶĦëĿ¼ìĿ¸":10067,"ì½ĶìĬ¤íĶ¼":10068,"ĠìľłíĬľë¸Įë":10069,"wwww":10070,"ìķĦì¹¨ìĹĲ":10071,"ĠíĬĢìĸ´ëĤĺ":10072,"Ġê¹ĶëģĶ":10073,"Ġëª¨ë¥´ê²łê³ł":10074,"ìĽ°ì»´":10075,"01":10076,"ĬĲë":10077,"ìĬ´ë":10078,"ĵ¤ê³ł":10079,"ê¸°ê¸°":10080,"Ġê°ł":10081,"ìĭľê³Ħ":10082,"ìĪĺíİĺì½Ķ":10083,"ĠëĤĺìģ":10084,"Ġëĭ¤ëĭĪë":10085,"ĠìĿ´ë¯¼":10086,"íĥĢì¿ł":10087,"ìļ°ìĦ±":10088,"íĦ°ì§Ħ":10089,"Ġíķĺëįĺëį°":10090,"ĠìĬ¤ìĥ·":10091,"íĸĪìŀĸìķĦ":10092,"Ġê°ĻìķĦìĦľ":10093,"ĠíķĺìĿ´ë":10094,"ĠíķĺëĬĺ":10095,"ĠìĪĺê³ł":10096,"ìĭ¤ìĹĲìĦľ":10097,"ìĿ¼ë§Į":10098,"ìķ¼ëĲľëĭ¤":10099,"íķĻê³¼":10100,"ì¢ĭëĥĲ":10101,"íİĺê·¸ìĺ¤":10102,"Ġê²½ìĽĲ":10103,"ìĭľê°ĦìĿ´":10104,"ì»¤ìĹ½":10105,"Ġë§Ŀíķ¨":10106,"ĠíĮĮìĽĮ":10107,"°°ìļ°":10108,"Ġëĵ¤ìĸ´ê°Ģë©´":10109,"ìĥīìĿ´":10110,"ĠìĽĥìĿĮë":10111,"ĠìºĲë¦¬":10112,"íĥĪì¶ľ":10113,"ìĶ¹ìĬ´":10114,"ĠìĻĶì°¬ëĺĲ":10115,"ê°ĢëĬ¥íķ¨":10116,"ãħĤãĦ·":10117,"Ġì¢ĭìĿĢëĵ¯":10118,"íĭ°ëĤĺ":10119,"Ġíĭ°ëĭĪìķĦ":10120,"íĴįê¸°":10121,"Ġê¸ĪìļĶìĿ¼":10122,"ĠëĦ£ìľ¼ë©´":10123,"Ġíģ´ëĿ¼":10124,"Ġìĸ¼ë§ĪìĹĲ":10125,"ĠëķĢ":10126,"ĠìĶ¨ë°ľëł¨ëĵ¤ìķĦ":10127,"ĠìķŀìĹĲ":10128,"ê³ĦëŀĢ":10129,"ĠìłķìĥģìĿ´ëĥĲ":10130,"ĠíĮ¨ëĵľë¦½":10131,"ìľ¼ë¡ľë§Į":10132,"Ġë³´ëĭĪê¹Ĳ":10133,"ìĥĿê°ģíķ´ë³´ëĭĪê¹Į":10134,"ĠëĲĲëĬĶëį°":10135,"ĠìĭłìĿ¸ìĥģ":10136,"Ġë¯¸ì³¤ëĭ¤":10137,"Ĩ¨ëĬĶëį°":10138,"ĠìłķíĻķíŀĪ":10139,"ĠìłĬìĿĢ":10140,"ow":10141,"¸íĮ¨":10142,"ëĿ¼ëıĦ":10143,"ļľë":10144,"Ġë·°":10145,"Ġë·Ķ":10146,"ìł¬":10147,"ìĭ´":10148,"ì§Ģìĺ¥":10149,"ëĭ¤ìĿ´ìĸ´íĬ¸":10150,"ĠìĿ´ê±¸ë¡ľ":10151,"ìĿ¸ì²ľ":10152,"ìĿ¸ìĿ´ìľł":10153,"ë°Ģë¦¬":10154,"íķĺë©´ë":10155,"ĠëĤĺìĿĺ":10156,"§ĪìĬ¤íĦ°":10157,"ĠìĹĨê¸Ķ":10158,"ìĹ¬ê³łëĶ©":10159,"ìļ°ìĺģ":10160,"Ġë³´ìĿ¸ëĭ¤":10161,"Ġê°ľìŀĺ":10162,"ìħ¨ë":10163,"ê²łì§Ģë§Į":10164,"ĠëĮĢêµ¬":10165,"ĠëĮĢíĺķ":10166,"ìĨĮëĬĶ":10167,"íķłê±´ëį°":10168,"íĬ¸ë¡¤":10169,"ë²¨ë":10170,"ìĭľëĤĺìļĶ":10171,"ìĭ¬íķľ":10172,"ê°ĻìĿĢê²Į":10173,"ìķĦëĭĪìĶ¨ë°ľ":10174,"ìļ°ëĦ¤":10175,"Ġë§ĲìĿ´ë":10176,"ê¹ĢìĹĲ":10177,"ì¹´ëĿ½":10178,"íĮĲìĿĢ":10179,"ê´ĢìĻķ":10180,"Ġê°ľë¯¸":10181,"Ġê°ķìĿĺ":10182,"ìĽĢì§¤":10183,"Ġ88":10184,"ĠíĶ¼ì§Ģì»¬":10185,"ãħĪãĦ¹":10186,"ĠíĺĦê¸Ī":10187,"ĠëĵĢë":10188,"ĠìĹ¬ìŀĲëĬĶ":10189,"êº¼ìŀĦ":10190,"ë°Ķë¥´":10191,"Ġíĺ¸êµ¬":10192,"¶Īíĺ¸":10193,"Ġì³Ĳë¨¹":10194,"Ġíį½":10195,"íķĺê³łìĭ¶ìĸ´":10196,"Ġì²ĺëħĢ":10197,"ì¯¤ìĹĲ":10198,"ĠíŀĪìĸ´ë¡ľ":10199,"ì¢ĭìķĦíķĺëĬĶ":10200,"ĠëĤłëĿ¼":10201,"Ġê¹Ģë´īì¤Ģ":10202,"Ķ¸ìĿ´":10203,"ĲĲëĬĶëį°":10204,"Ġê·¸ëłĩì§Ģ":10205,"Ġëĭ¤íĸīìĿ´ëĭ¤":10206,"Ġê¸Īë°©":10207,"Ġë§ŀëĬĶëĵ¯":10208,"ĠëĪĦêµ°ì§Ģ":10209,"Ġë¹¼ë©´":10210,"ĠìĬ¤íĨłë¦¬ë":10211,"77":10212,"¤ëĬĶëį°":10213,"Ġq":10214,"ĲĮ":10215,"ìĿ´ìĦ±":10216,"ìĿ´ë²Ħë":10217,"ìĿ´ëıĮ":10218,"ê±°ê¸Ķ":10219,"ê¸°ì§Ģ":10220,"Ŀ¼ëĭĪ":10221,"ìĺ¤ìŀĲ":10222,"ìĪĺê´ĳ":10223,"ì£¼íĥĿ":10224,"ì§ĦìķĬ":10225,"ìłĦìĹĲìĦľ":10226,"Ġì°Ĳë":10227,"íĥĢìĿ´":10228,"³´ìĿ´":10229,"íİł":10230,"ìķĦë°ĺëĸ¼":10231,"Ġìĺ¤íĨłë":10232,"Ġê°ľìĥĪëģ¼":10233,"Ġëª»íķĺëĥĲ":10234,"ìłģìĿĢ":10235,"ê°Ģë¦¬ë":10236,"íĹĿ":10237,"ĠíķĺìĿ´":10238,"íĬ¸ë§Į":10239,"ĠìĪĺíİĺì½Ķ":10240,"ì¤ĢìĹ´":10241,"íĭ°ìłĢ":10242,"¯¸ëĤĺ":10243,"ãĦ±ãħĩ":10244,"Ġíķ´ê²°ë":10245,"Ġë°©ìĹŃ":10246,"Ġì»¨ë":10247,"ê²ĥìĿ´":10248,"Ġìĺ¬ë¦¬ë":10249,"ëħĦìķĦ":10250,"ĠíĤ¬ë":10251,"Ġìĺ¤ëĤĺ":10252,"íķ©ë°©":10253,"ĠëĤ¨ìĿĮ":10254,"ê·¼íĻ©":10255,"ĠëĤĺë³´ëĭ¤":10256,"ìķĪëĲĺëĥĲ":10257,"ìĭłëıĦ":10258,"Ġë§ĮëłĻ":10259,"íĸ¥ìĿ´":10260,"íİ¸ìŀĦ":10261,"ì½ĺìĦľíĬ¸":10262,"ë°Ķëĭ¤":10263,"ĠìĿ´ìĥģíĻĶ":10264,"Ġìĭľìŀĳíķľ":10265,"ĠìĿ´ë²ĪìĹĶ":10266,"íĢ´ì¦Ī":10267,"ìĻĶëĮĢíĺ¸":10268,"ìĹ¼íĢ´":10269,"Ġì¢ħê²°":10270,"ìķĦìķĦìķĦ":10271,"íķĺê³łìĭ¶ìĿĢëį°":10272,"Ġíĺķëĵ¤":10273,"Ġìĺ¬íķ´ìĿĺ":10274,"ĠìĽĶëĵľ":10275,"ìĬ¤íħĢ":10276,"@@@@@@@@":10277,"Ġë¬´ìĦľìĽĮ":10278,"ed":10279,"¸Ŀ":10280,"ë¿Ĳ":10281,"ĩĮë":10282,"ìĿ´íķľíħĮ":10283,"ê³½":10284,"ê³łë¡ľ":10285,"ĦëĦ¤":10286,"ìĿ´ë°ľ":10287,"ìľĮ":10288,"ê¸°ëĮĢ":10289,"ĠìĿ´ê¸°ëĬĶ":10290,"Ġê°ĢëĬĶëį°":10291,"ì§ľì¦Ŀ":10292,"ë§Įê°¤":10293,"³´ìĬ¤":10294,"²Īíĺ¸":10295,"Ġìłķì²´":10296,"ìĺ¤ë¥´":10297,"ìĦ¸ê°Ģ":10298,"ëĮĢê¹¨ë":10299,"ĠìĬ¤íĤµ":10300,"ĠíķĺíĬ¸":10301,"íĭ°ê°Ģ":10302,"ĠëĤ´ìķ¼":10303,"ìĿ¼ë§ĮìĹĲ":10304,"ìķĦëĭĪìķ¼":10305,"íĨµìĿ´":10306,"ĠìķĦë¥´":10307,"Ġíİ«":10308,"ĠìķĮìķĺìĿĮ":10309,"ìį¨ëıĦ":10310,"ìĿĢê±°ëĥĲ":10311,"ì§Ģë¥´":10312,"ë³µì»¤":10313,"Ġë§ĮëĤĺë©´":10314,"Ġ700":10315,"Ġë©ĶíĥĢ":10316,"Ġëľ¯":10317,"ê»į":10318,"ĠìĹĲíĶ¼":10319,"§ŀì§Ģ":10320,"Ġëĵłëĵł":10321,"Ġê²ĮìŀĦìĿĢ":10322,"Ĥ´ë©´":10323,"ł¸ìľ¼ë©´":10324,"ĠíĨµíĶ¼":10325,"ĠìĭłëłĪ":10326,"ë°ĺì§Ģ":10327,"ĠìĻľìĿ´ëŁ¬ëĥĲ":10328,"ĠìĿ¸ëį°":10329,"ê·¼ë¡ľ":10330,"ë§ŀëĥĲ":10331,"Ġë³´ëĬĶê±°":10332,"Ġìĸ¼êµ´ìĿ´":10333,"ŃĲìķ¼":10334,"ĠìķĪëĲĺëĬĶê±°":10335,"Ġãħĭãħĭãħĭãħĭãħĭãħĭãħĭãħĭãħĭãħĭãħĭãħĭãħĭãħĭãħĭãħĭãħĭãħĭãħĭãħĭãħĭãħĭ":10336,"Ġì¡´ëĤĺë§İ":10337,"Ġts":10338,"ĠëĤĺìĺ¬ëķĮ":10339,"Ġë²Ķì£Ħ":10340,"Ġë¬´ìĦŃëĭ¤":10341,"Ġìĭ±ê¸Ģë²Ļê¸Ģ":10342,"ĠìķĦìī½ëĦ¤":10343,"ĠìħĢì¹´":10344,"________":10345,"Ġíķľë§ĪëĶĶ":10346,"Ġíĵ¨":10347,"?(":10348,"ip":10349,"½ìĦŃ":10350,"ë´ĲëıĦ":10351,"ħķìĿ´":10352,"Ŀµ":10353,"ĠëŀĢ":10354,"ê°ľë°ľ":10355,"ìĿĢìĥģ":10356,"ìĦľëĬĶ":10357,"ìĤ¶":10358,"ê¹į":10359,"ê¹İ":10360,"ì£¼ëĬĶê²Į":10361,"ìĿĦê±°ê°ĻìĿĢëį°":10362,"ìĿĺìĭĿ":10363,"ì§ĦíĻĶ":10364,"ĠëĤĺê°Ģë©´":10365,"ìĿ¸ë¬¼ëĵ¤":10366,"Ġëĭ¤ìĿ´":10367,"ì¹ĺëĬĶëį°":10368,"²ĦíĶĦ":10369,"ìºī":10370,"ìĺ¤ëĿ¼":10371,"Ġíķĺëł¤ê³ł":10372,"Ġê¹¼ëĭ¤":10373,"ĠìĬ¤ì°Į":10374,"Ġì¶ĺ":10375,"ìłģìŀĦ":10376,"ĠëĮĢìĦł":10377,"°Ķíİĺ":10378,"ìĨĮìĭĿ":10379,"ì¡°êµŃ":10380,"Ġíķĺíĸ¥":10381,"Ġê³µíĬ¸":10382,"Ġê¸°ìĸ´":10383,"ë²Ĺ":10384,"Ġê´´":10385,"ì¢ĨëĳĲ":10386,"ë¹¼":10387,"ëį©":10388,"ìĨĮë¯¸":10389,"ìķ¼ëĮĢ":10390,"ê¼´ë¦¬":10391,"ì¶©ìĿ¸ëį°":10392,"ĠìĺģìĽĲ":10393,"ì¶ĶëĬĶ":10394,"Ġê²ĮìĭľíĮĲ":10395,"Ġìĭľë°ľìķĦ":10396,"ë¹ĦìĬĪë":10397,"Ġë°ĽìķĺëĬĶëį°":10398,"ê°ľë¹Ħ":10399,"ì¹ĺëħ¸":10400,"ì»¤íĶ¼":10401,"íĮĮëĿ¼":10402,"ĠíķĦê¸°":10403,"ë°ľíĳľ":10404,"¬¼ë¡ľ":10405,"ª©ë¡Ŀ":10406,"ìĽħìĿ´":10407,"ĠìĹ¬ëŁ¬ë":10408,"ĠìĹ¬ëŁ¬ë¶Ħ":10409,"ëıĮìķĦ":10410,"ĠëĤłìĿ´":10411,"ìĻĶëħ¸":10412,"Ġëª¨ë¥´ê³ł":10413,"ì²´ë¥¼":10414,"Ġíķľë²ĪìĶ©":10415,"ê¿Ģìŀ¼":10416,"ìĬ¤íĬ¸ë¦¬ë":10417,"Ġë¸Įë¦¬":10418,"łīìĬ¤":10419,"ìĤ¬ëŀĳíķ´":10420,"íĽĦë°ĺ":10421,"ĠLI":10422,"ëļľë":10423,"ĠìĬ¤íĬ¸ëłĪìĬ¤":10424,"ĠíŀĺëĵľëĦ¤":10425,"ĠìħĶ":10426,"Ġê¸°ìĤ¬ìĤ¬ì§Ħ":10427,"Ġê±´ëĵľë":10428,"Ġìĸ´ëĸ¡íķĺëĥĲ":10429,"ĠìŀĳëħĦìĹĲ":10430,"ĵłëį°":10431,"ĠìľłìĿ¼íķĺê²Į":10432,"ë¿Įë":10433,"Ġë§ŀì¶Ķê¸°":10434,"Ġìª¼":10435,"ëª¨ë¦¬ì¦Ī":10436,"am":10437,"he":10438,"·ëıĻ":10439,"ëĲľëĭ¤":10440,"ë¦´ë¦¬":10441,"ĠëķĮë§Īëĭ¤":10442,"Ġë½Ģ":10443,"ãħĶ":10444,"ãħĹãħľãħĳ":10445,"ìĿ´ìŀ¬ëªħ":10446,"íķĺìĿ´ë":10447,"ìķĦì¹´":10448,"ĲëĤĺ":10449,"ĠìĿ´ìŀ¬ëªħ":10450,"ìĺ¤ëĭĪ":10451,"ìļĶì¦":10452,"ìĥģìłĲ":10453,"ìłľì£¼ëıĦ":10454,"ĠëĤĺíĥĢë":10455,"Ġê°ĢìĪĺ":10456,"ìĦ±ìľ¼ë¡ľ":10457,"ëĤĺìĿĺ":10458,"ĠìĿ´ëŁ¬ëĥĲ":10459,"Ġì§Ħì§Ģ":10460,"íĥĢê¸°":10461,"Ġì§Ģíķĺì²ł":10462,"êµŃìĹĲ":10463,"ê³µëŀµ":10464,"íĸĪìĿĦëķĮ":10465,"ĠìĹ¬ê°¤ëŁ¬":10466,"íĶ¼ê²¨":10467,"ì¡°ê°Ģ":10468,"íĺ¸íĻĺ":10469,"ëłī":10470,"ìĭ¬ìĿ´":10471,"Ġ5000":10472,"ìĨįëį±":10473,"ìĨĮë°©":10474,"Ġë¹Ħíķ´":10475,"Ġë§ŀëĤĺ":10476,"íķľë¥ĺ":10477,"ê³¼íķĻ":10478,"ì¹ľê±°":10479,"ĠíĤ¬":10480,"ª¨ìĬ¤":10481,"Ġë¬¸ìĥģ":10482,"ĠìķĮì§Ģ":10483,"íĨłë¥´":10484,"ĠìĿ¼ë³¸ë":10485,"ê´ĢìĿ´":10486,"ĠëĲĺê³ł":10487,"Ġë°ĶìĿ´":10488,"Ġìĭ¤ìłľ":10489,"ê¿Ķ":10490,"ì»¤ìĬ¤":10491,"Ġë²ĦíĶĦë":10492,"ìĺ¬ëķĮ":10493,"°Ľìľ¼ë©´":10494,"Īë²Įë":10495,"íĮĢìĹĲ":10496,"ĠìºĲë¥´":10497,"ê»Ģëį°":10498,"Ġãħłãħłãħłãħłãħł":10499,"ê°ĵê²ľ":10500,"Ġìĭ«ìĿĮ":10501,"ĠëĴ¤ì§ĳ":10502,"íĢ´ëĬĶ":10503,"Ġë¹łì§Ħ":10504,"Ġì²łìĹ¼":10505,"Ġìłľë¡ľ":10506,"Ġíģ´ëŀĺ":10507,"Ġíģ´ë¦Ń":10508,"Ġëª°ëł¤":10509,"ĠíĶĮëŀĺ":10510,"ħĦëĵ¤ìĿ´":10511,"Ġíį¼ë":10512,"ìĸ¼ë§ĪëĤĺ":10513,"Ġíģ°ìĿ¼ë":10514,"Ġìĵ¸ë§Įíķ¨":10515,"Ġë²łìĬ¤íĬ¸":10516,"Ġëª¸ìĿ´":10517,"ĠíĶĦë¡ľíķĦ":10518,"Ġë¹łë¥´ê²Į":10519,"ê²¹ìĤ´":10520,"Ġìĸ´ëł¤ìĽĮ":10521,"ìķłë¯¸ëĵ¤":10522,"ëĤ´ëħĦìĹĲ":10523,"Ġìĥ¤ìĽĮ":10524,"ê´ľì°®":10525,"íİłë¦ŃìĬ¤":10526,"¸ëĵľíı°":10527,"!(":10528,"//":10529,"TE":10530,"¹Ħëĵ¤":10531,"ĠQ":10532,"ê°ĲëıĦ":10533,"ì§ķìĿ´":10534,"ìĭ¯":10535,"ì§ĢëĬ¥":10536,"Ĥĺìĺ¤ëĦ¤":10537,"¤ëįĶëĭĪ":10538,"ìĬ¤íĭ´":10539,"íĮ¸":10540,"íĮ½":10541,"ĠìķĦìĿ´ìľł":10542,"íĻľëıĻ":10543,"Ġìĥ¤ë":10544,"ìĪĺì§Ģ":10545,"ìŀ¥ìľ¼ë¡ľ":10546,"Ġê°Ģì§Ħ":10547,"íħĶë":10548,"ìĿ¸ëĵ¤ìĿ´":10549,"ĠìĻľìķĪ":10550,"ĶĶê°Ģ":10551,"ì§ľíĶ¼":10552,"ìĸ´ë¨¹":10553,"ĠìĿ´ëłĩê²Įë":10554,"ì¤ĳìļĶ":10555,"Ŀ¼ë©°":10556,"ĠìĽ°":10557,"Ġëª»ëĤĺ":10558,"ìĹĨëĬĶê²Į":10559,"°Ķì§Ģ":10560,"ìłĢê°Ģ":10561,"Ġê¸°ì¡´":10562,"Ġìŀĺíķľëĭ¤":10563,"Ġë³´ëĬĶë":10564,"¬´ëĬĶ":10565,"ìŀ¬íķĻ":10566,"ìķłëĬĶ":10567,"³¸ìłģ":10568,"íķľëĨĪ":10569,"Ġì¡°ê°ģ":10570,"ê³¼ê±°":10571,"ê²ĥê°ĻìķĦ":10572,"ĠìłľìĿ¼ë":10573,"ĠìĥĿê°ģëĤľ":10574,"Ġìĺ¤ëĥĲ":10575,"ëĦ´":10576,"Ġëªĩíį¼":10577,"ĠíĹ·":10578,"Ġì§Ģê¸ĪìĿĢ":10579,"ëĤ¨ìŀĲëĬĶ":10580,"³´ëĭ¤ê°Ģ":10581,"2019":10582,"ĠíĤ¤ìĬ¤":10583,"§Ŀêµ¬":10584,"Ġì¢ĭìķĦíķ´":10585,"ĠíĶ¼ê·ľìĸ´":10586,"Ġëį¤ë":10587,"ìĬ¤íĥĢìĿ¼":10588,"Ġëĭ¹ì²¨ë":10589,"ì°įìĿĮ":10590,"ĠëĦĺìĸ´ê°Ģ":10591,"ĠìĿ´ìĥģíķ¨":10592,"Ġìĭ«ìĿĢ":10593,"ĠìĦłë°ľë":10594,"ĠíĦ°ì§Ģ":10595,"ëĸłë":10596,"ĠìķĦìĿ´íĮ¨ëĵľ":10597,"ĠëĦĪíĶĦë":10598,"¦´ëĵ¯":10599,"Ġëĭ¬ê³ł":10600,"ĠëĲľê±°":10601,"ĠìĶ¨ë°ľëħĦ":10602,"Ġë°ĺë°ķ":10603,"Ġìĵ¸ëį°":10604,"ĠìĤ¬ëĿ¼ì§Ĳ":10605,"ãħİãħİãħİãħİ":10606,"ĠìĹ¬ìŀĲëŀĳ":10607,"ĠëłĪëĵľ":10608,"ĠíĪ¬íĳľìĿ¸ì¦ĿìĻĶ":10609,"ëĴ·ê´ĳê³ł":10610,"Ġë©°ì¹ł":10611,"²Ĺ":10612,"ĤŃ":10613,"ĳĺë":10614,"ļľ":10615,"ŃĶëį°":10616,"ìŀĪëįĺ":10617,"ìĿ´ë»Ĳ":10618,"ĮĢê¸°":10619,"ìķ¼ìķ¼":10620,"ìķ¼íķĺëĬĶ":10621,"ĠëĭĮ":10622,"ìĥģìĬ¹":10623,"ìŀ¥ìĿĦ":10624,"ì§ĦìĿĢ":10625,"íĤ·":10626,"Ġê·¸ëł¤ë":10627,"ĠìĤ¬ìłľ":10628,"ĵľë§Į":10629,"ê°ģìĿ¸":10630,"ĠìĬ¤ìŀĳ":10631,"ĠëĮĢíĻĶ":10632,"ìŀĲëıĻ":10633,"ìłĢíŀĪ":10634,"ìĨĮê°Ģ":10635,"ê°Ģë´Ħ":10636,"ê°Ģë©´ìĦľ":10637,"íĮĮìĽĮ":10638,"Ġê³µìĹ°":10639,"ê¸´íķĺëĭ¤":10640,"Ġ55":10641,"íı¬íĦ°":10642,"ìļ´ìĺģ":10643,"Ġì»µ":10644,"ì²´ê²°":10645,"íĢ¸ë":10646,"ì°½ëª¨":10647,"ì°½ëħĢ":10648,"ãħĬãħĬ":10649,"Ġê·¸ê±´":10650,"Ġíİľ":10651,"Ġê²ĮìĬ¤íĬ¸":10652,"ëıĦë¦¬":10653,"ìį»":10654,"ĠãħĪê°ĻëĦ¤":10655,"ê°ľëħĲê¸Ģ":10656,"ĠíĤ¤ìļ°ë":10657,"Ġì§ĪëłĢ":10658,"ĠìĦłìĪĺë":10659,"ê¿į":10660,"Ġìķłìłķ":10661,"Ġìĵ°ëĬĶê²Į":10662,"ĠìķĦëĭĪìĹĪëĥĲ":10663,"ìľłëŁ½":10664,"ĠìľłëŁ½":10665,"ĠêµŃìĸ´":10666,"Ĥ´ëł¤":10667,"íĻķìĭ¤":10668,"ëĺ¥íĢ´ëĵ¤":10669,"Ġíķłë§Įíķ¨":10670,"Ġê´ľì°®ìķĦ":10671,"Ġê´ĳë³µìłĪ":10672,"ĠíĻĶì§Ī":10673,"Ġê±´ê°ķ":10674,"íĭ±íĨ¡":10675,"Ġê¶ģê¸Īíķľ":10676,"Ġê·¸ëŁ°ì§Ģ":10677,"Ġìĭľê°ĦìĹĲ":10678,"ĠìĿĳìĽĲë":10679,"íĢĺìĬ¤íĬ¸":10680,"ĠíĮ¨ëĦĲ":10681,"Ġìĸ¸ëįĶ":10682,"êµ´ë¹Ħ":10683,"Ġëĸ´ëĦ¤":10684,"ĪëĤĺë´Ĳ":10685,"Ġë¶Ģíĥģëĵľë¦½ëĭĪëĭ¤":10686,"ĠëĶĶëłīíĦ°":10687,"ëĶ°ëĿ¼":10688,"Ġëľ¬ê¸Ī":10689,"Ġìĸ´ëĶĶëĥĲ":10690,"Ġìłķì¹ĺì§Ī":10691,"Ġìĺ¤ëĬĺë¶ĢíĦ°":10692,"ë¸ĶëŀĻíķĳíģ¬":10693,"Ġê±°ê¸°ìĦľ":10694,"04":10695,"id":10696,"£¬":10697,"ģĹ":10698,"ĲĲëĭ¤":10699,"łľ":10700,"Ġëĥħ":10701,"ì§Ģíļ¨":10702,"ìĹĲìĬ¤":10703,"Ġë§ĲëĿ¼":10704,"¨ëĶľ":10705,"ìĬ¤ê°¤":10706,"ìĬ¤ìľĻ":10707,"ìĸ´ì©":10708,"ĠìĿ´ê¹Ģ":10709,"ì°¡":10710,"ĠìķĦìłĢìĶ¨":10711,"ĠëĤ¸":10712,"ìłķê¸Ģ":10713,"ìĿ¼ì§¸":10714,"ì£¼ìĪłìĤ¬":10715,"Ġê¸·":10716,"Ġê¸į":10717,"ĠìĿ´ëķĮ":10718,"ë§Įìŀ¥":10719,"Ġìľ¼":10720,"Ġì¢ĭê²łëĦ¤":10721,"ìĶ»":10722,"íŀĪê³ł":10723,"ĠíķĺëįĶëĿ¼":10724,"Ġê°ľì¡°":10725,"ĠëĮĢëĭµ":10726,"ĠìŀĲì§¤":10727,"ìĭľëĥĲ":10728,"ê·¸ëĭĪê¹Į":10729,"ê°ķë¶Ģ":10730,"ëį¸":10731,"íı¬ì¹´":10732,"Ġì»´ë":10733,"íķľëªħ":10734,"Ġì£¼ìĿ¸":10735,"ĠëĪĦêµ´":10736,"Ġëª¨ìħĺ":10737,"§Īëŀĳ":10738,"ëªħìĿĢ":10739,"ĠìĦłìĸ¸":10740,"ĠíĶ¼ìĭľë°©":10741,"ĠíĮ¨ìĬ¤":10742,"Ġë¨¸ë¦¬ë":10743,"Ġëĭ¨ìłĲ":10744,"Ġì¹ľì¶Ķ":10745,"ĨĵìĿĢ":10746,"ĠëĮĢë¬¸":10747,"ëĺ¥íĢ´":10748,"ĠìĹħê¸Ģ":10749,"ĠìķĪëĤĺìĺ¤":10750,"ĠíĬ¸ìĤ¬ê°Ģ":10751,"íĸĩìĿĮ":10752,"Ġì°¾ìĿĮ":10753,"ĠìļĶì¦ĺìĿĢ":10754,"Ġê²ĢìĤ¬":10755,"Ġëª¨ë¥´ê²łëĦ¤":10756,"Ġìķħì§Ī":10757,"ŁŃìĬ¤":10758,"ĠìĶ¨ë°ľëħĦìķĦ":10759,"ĠìĿ´íķ´ìķĪ":10760,"ê¾¹ìķ°":10761,"ĠìŀĺìĥĿê¹Ģ":10762,"ĠìĿĺëĮĢ":10763,"ìŀĶìķĦ":10764,"ë§Ĳë¡ľ":10765,"Ġíİĺë¯¸ë":10766,"Ġìĺ¬ëł¤ì¤ĺ":10767,"íĿ¬ë§Ŀ":10768,"ĠPC":10769,"ëłĪëĵľ":10770,"Ġfa":10771,"ĠëĤĺìĺ¬ëĵ¯":10772,"Ġë©Ģì©¡":10773,"Ġê¸°ëĭ¤ëł¤":10774,"Ġíı´ëĿ¼":10775,"Ġë¸Ķë£¨ì¹´íİ«":10776,"ĠìĦłìĥĿëĭĺ":10777,"Ġìĸ´ëĶĶê°ĶëĥĲ":10778,"75":10779,"re":10780,"Ħëĭ¤":10781,"ĠìħĢë":10782,"Ġë±ħ":10783,"ì§§":10784,"ê³Ħë¡ľ":10785,"ì§Ģíķĺì²ł":10786,"ìĿ´ë³´":10787,"ĠìĹ¿":10788,"ìĸ´ì©Į":10789,"ìĻ¼":10790,"ìĺ¤íĨł":10791,"íĻľë":10792,"ìĤ¬ê³¼":10793,"ìĪĺìĺģ":10794,"ìłľìĦ±":10795,"ìŀ¥ìĽĲìĺģ":10796,"Ġê°Ģê¸°":10797,"ıĻìĿĢ":10798,"ĠìľĹ":10799,"ìľłíĬŃ":10800,"ìļ°ì£¼":10801,"ìļ°íĮĮë©Ķì¹´ëħ¸":10802,"Ġëª»íķĺë©´":10803,"ê³µìŀ¥":10804,"ĠíĺĦëĮĢ":10805,"Ġìĸ´ê·¸ë¡ľë":10806,"ê²½ì°°":10807,"Ġê¸°ê³Ħ":10808,"ì°¨ì§Ģ":10809,"ë¦¬ìķĦ":10810,"¬¼ìĿ´":10811,"ë§Īê·¸ë©ľ":10812,"íĿĲë":10813,"Ġë°©íķĻ":10814,"ìŀħë¬¸":10815,"ê¹Ģì¤ĢìĪĺ":10816,"ëĦ¤ëĦ¤":10817,"Ł¼íĶĦ":10818,"ì¤ĦìĿĢ":10819,"ìĤ°ëĭ¤":10820,"ìĤ´ì§Ŀ":10821,"Ġëª¨ìŀĦ":10822,"íķłëķĮë§Īëĭ¤":10823,"íķłëķĲ":10824,"Ġì´¬ìĺģ":10825,"ìĺĪì§Ģ":10826,"ë¯¼íĬ¸":10827,"ĠíĶ¼ìħľ":10828,"ĠìĭľëĦĪì§Ģ":10829,"Ġë¦¬ìħĭ":10830,"Ġìľłë¡ľ":10831,"Ġêµ¬ë¦¬":10832,"Ġê¹ĮìĿ´ëĬĶ":10833,"---":10834,"Ġì¦Ļ":10835,"ĠíıŃìĽĲ":10836,"ĠëĦ£ê³ł":10837,"Ġë¯¼ì£¼":10838,"ìĿĺë¯¸":10839,"ĠëıĮìķĦê°Ģ":10840,"Ġë¹¨ê°Ħ":10841,"ìĬ¤íĬ¸ëłĪ":10842,"ĠìĶ¨ë°ľëł¨ìķĦ":10843,"ĠìŀĩëĥĲ":10844,"ĠíĿĳìĿ¸":10845,"ĠëĪĦêµ¬ëŀĳ":10846,"ĠíĮ¨ë°°":10847,"ĠíĶĦë¡ľê·¸ëŀ¨":10848,"ëĤ¬ëĬĶëį°":10849,"Ġìĸ´ëłµëĭ¤":10850,"Ġëľ¨ëĦ¤":10851,"Ġê°ĢìĬ´ìĿ´":10852,"Ġëħ¸ëŀĺë°©":10853,"ì¹ľêµ¬ëĵ¤":10854,"Ġìµľê·¼ìĹĲ":10855,"ìĿ´ì°¬ìĽĲ":10856,"ìłķìĭłëĤĺê°Ī":10857,"íĥĪëŀĢíĥĢ":10858,"ic":10859,"²Ķë":10860,"ë¨":10861,"ë½Ģë":10862,"Ġ;;":10863,"ŀ´":10864,"ìķī":10865,"ìŀİ":10866,"ëĭ¤ìĿ´ìķĦ":10867,"ìĹĲëĭ¤":10868,"ìķĦì¹¨ë¶ĢíĦ°":10869,"ìĸ´ê·¸ë¡ľ":10870,"ëĭĪíı¼":10871,"Ġë°ĸ":10872,"ìŀĲìłĦê±°":10873,"ìĤ¬ìłĦ":10874,"ìĤ¬ì¹ľ":10875,"ì£¼ìĭ¤":10876,"ìĿĺìŀĲ":10877,"¦¬ë²Ħë":10878,"Ġê°ĢëĬĶê±°":10879,"¬¸íķĻ":10880,"ĶĶëĬĶ":10881,"Ġì¢ĭê²łê¸Ķ":10882,"ìĦ¸ìĬ¤":10883,"êµ¬ëł¤":10884,"Ġê°Ļëħ¸":10885,"ĠìĪĺì¹ĺ":10886,"Ġê³µíı¬":10887,"ìĭľëŀĳ":10888,"ì´Įë":10889,"ë§ĪìĿ¼":10890,"Ġíķ´ìĦĿ":10891,"Ĳĺì§Ģ":10892,"ìĬ¹íĻĺ":10893,"Ġì£¼ìĨĮ":10894,"Ġì£¼ìĦ¸ìļĶ":10895,"ĠìķĦëĤĺ":10896,"ì°½êµŃ":10897,"Ġìĸ¸íĶĮ":10898,"Ġìĺ¤ëĦ¤":10899,"Ġëģ¼ê³ł":10900,"ĠìĿ¼ìĿ´":10901,"ĠìĦ±ìļ°":10902,"ĠëªĩìĭľìĹĲ":10903,"íķľê±°ê°ĻìĿĮ":10904,"Ġ600":10905,"Ġë°Ķì§Ģ":10906,"Ġì°¨ê¸°":10907,"ê¾¸ëĭĪ":10908,"ĠëıĻë¬¼":10909,"Ġìķ¼íķľ":10910,"ĠìĦ¸íĥģ":10911,"Ġìŀĳìŀĳ":10912,"Ġì°įìĹĪëĭ¤":10913,"Ġíħį":10914,"ê´ĳë³µìłĪ":10915,"ĨĪìĿĢ":10916,"Ġìĭ¬íķ¨":10917,"ê¸Īë§Į":10918,"íĶ¼ëĤĺ":10919,"ĠëĬĲëĤĮë":10920,"ĠëĪĪìĹĲ":10921,"ĠíĸīìĤ¬":10922,"Ġëŀĸì¹ĺ":10923,"ĠíķĺëĬĶê±°ëĥĲ":10924,"Ġë¯¸ì³¤ëħ¸":10925,"ê´´ìĪĺ":10926,"Ġë£¨ìĭľ":10927,"ìĿ´ê²ľìĿĢ":10928,"ì½ľëĿ¼":10929,"ĠìĦłíĥĿê¶Į":10930,"ĠìļĶë¦¬":10931,"íķ´ìķ¼ëĲĺëĥĲ":10932,"íĶĦëĿ¼ìĿ´ì¦Ī":10933,"ĺ¥ì°¬":10934,"Ġì½ĶìĬ¤íĬ¬":10935,"Ġê·¸ëŁ¬ëĬĶëį°":10936,"íĺľë¦¬":10937,"Ġê·¸ë¦½ëĭ¤":10938,"02":10939,"03":10940,"120":10941,"600":10942,"XIA":10943,"²¼":10944,"Ġëŀĳ":10945,"ĠëĿ¼ê³ł":10946,"ìĿ´ì¤Ģ":10947,"ìĿ´ìĸ¸":10948,"¼ëĦ¤":10949,"ìĬ¼ë":10950,"ìĿĢíĴĪ":10951,"ê¸°ëĬĶëį°":10952,"ì¹¸ëĤĺ":10953,"ìĬ¤íĥĿ":10954,"ì°Ķ":10955,"ìŀĲìķ¼":10956,"êµ¬ìĦĿ":10957,"ĠìĿ´ëŁ°ë":10958,"ĠíķĺëŁ¬":10959,"Ġëı¡":10960,"ê³µíı¬":10961,"Ġê¹Ĳ":10962,"ĠìĬ¤íĬ¸":10963,"ì¹´ìļ´":10964,"Ġì¢ĨëıĮ":10965,"¥´íģ¬":10966,"ìĭľë§Ī":10967,"ëĭ¹ìĿ´":10968,"ìķłëĭĪë":10969,"ìļ°ëĵ¤":10970,"Ġë¨¹ë°©":10971,"ëĦ¹":10972,"ì¶Ķìĸµ":10973,"ìłĦë¬¸":10974,"ì¿¨ë":10975,"Ġìµľì´Ī":10976,"ĠëĲĺìĸ´":10977,"Ġíķ´ë³´ê³ł":10978,"ĠìĨĮê°Ĳ":10979,"ë°°ìļ°":10980,"Ġë°ķìłķ":10981,"Ġì°¨ëĭ¨ë":10982,"ĠíĶ¼ìŀĲ":10983,"Ġìĸ¸ìłľìŀĦ":10984,"ĠëģĿëĤ¨":10985,"Ġë³¸ìłģ":10986,"Ġë¬´ë¦¬":10987,"Ġìĭ¬íķ´":10988,"ëĵľëĿ¼ë§Ī":10989,"ĠìĨĲê°ĢëĿ½":10990,"íĶĮëŀĺ":10991,"íĺģìĿ´":10992,"ì°¨ë³Ħ":10993,"Ġíķ©ëĭĪëĭ¤":10994,"Ġëĳĺì¤ĳìĹĲ":10995,"ìĹĨëĬĶëĤł":10996,"ê¹¨ìĽĮ":10997,"Ġê¸ĪìĪĺìłĢ":10998,"Ġë¦¬ëįĶ":10999,"ëłĻìĿ¸ëį°":11000,"ê°Ķìľ¼ë©´":11001,"ĠìĹ´íıŃ":11002,"ê³³ìĿ´":11003,"Ġì°½ëħĢ":11004,"Ġìĭľê°ĦìĿ´":11005,"ĠíĶ¼ëĵľë°±":11006,"Ġë£¬":11007,"ìķ°ëĵ¤ìĿĢ":11008,"ĠĠĠĠ":11009,"ëŁ¬ìħĢ":11010,"ĠìĺĪë»Ĳ":11011,"ëł¤ê¸Ī":11012,"ĠìĨĶëŀŃ":11013,"ĠìĬ¹ë¦¬íķĺê³ł":11014,"ĠãĦ´ãĦ´":11015,"ì¤ĦìķĮìķĺëĬĶëį°":11016,"ĠìĤ¬ëŀĮëıĦ":11017,"ĠëłĻìĹħ":11018,"Ġê³łë§ĪìĽĮ":11019,"Ġê¹ľì§Ŀ":11020,"ìĺ¤ë§ĪìĿ´ê±¸":11021,"TXT":11022,"ê¹Ģì¤ĢìĪĺê°¤":11023,"NO":11024,"ë¡":11025,"Ġ???":11026,"Ġor":11027,"ŁìĪĺ":11028,"ëĭ·":11029,"ĠìĿĢë":11030,"ìĹĲë°Ķ":11031,"ìĬ·":11032,"íķĺëĬĺ":11033,"íķĺìĭŃìĭľìĺ¤":11034,"ê¸°ë¶Ģ":11035,"ì¹¼ë¦¬":11036,"ìĬ¤íĮĢ":11037,"ìĭľì§Ģ":11038,"ìĥģíĸ¥":11039,"ìĪĺìĿ¸":11040,"ìĭłê°ĢìļĶ":11041,"Ġ250":11042,"Ġë¹Ĺ":11043,"ìĤ¬ë§Įë":11044,"Ġì¤Ħë":11045,"ĠëŃĲíķ´":11046,"Ġíĥĵ":11047,"ìĺģíĺ¼":11048,"ĠíķľíĮĲ":11049,"ë³´ìĦĿ":11050,"íĶ¼ê³¤":11051,"ë§ĪìĬ¤íģ¬":11052,"íĿĺë":11053,"ê°ķëĤ¨":11054,"Ġë°©íĸ¥":11055,"Ġë¹Ħíĺ¸ê°Ĳ":11056,"Ġì£¼ìĪł":11057,"íĢĦ":11058,"ĠìķĦë¦¬":11059,"ì¸Ħë":11060,"Ġìĺ¤ëŀľë§Į":11061,"Ġì§Ģë¦¬ëĦ¤":11062,"ëĤĺëħ¸":11063,"§Īëĥ¥":11064,"ê±¸ê·¸ë£¹":11065,"Ġê²½ë¶ģ":11066,"êµĲíĻĺ":11067,"Ġ65":11068,"ë¯¼ìĿ´":11069,"ìĬ¤íĬ¸ìķĦíģ¬":11070,"êµ°ìļĶ":11071,"ìĽĲëĶľ":11072,"ıĦëª»":11073,"Ġë§ĮëĤĺë":11074,"Ġìĵ°ê¸°":11075,"ĠíĮ¨ìħĺ":11076,"ĠíĽĦíļĮë":11077,"Ġë½ĳìĿĢ":11078,"ë°ĶìĿ´":11079,"ĠìĦľíı¬íĬ¸":11080,"íĥĦìłĪ":11081,"Ġìŀ¬ê³Ħìķ½":11082,"ê±°ë´Ĳ":11083,"ĠëĲĺëĤĺìļĶ":11084,"ĠìĦľë²Ī":11085,"Ġì¹ĺëĬĶ":11086,"íĭĢíĢ´ëĵ¤":11087,"Ġê²ĥëĵ¤":11088,"ëŃĲì§Ģ":11089,"Ġìĺ¬ëĿ¼ìĺ´":11090,"ãħħãħĤãħħãħĤ":11091,"ĠìĿĢì¹´":11092,"ĠíķĺëĤĺë¡ľ":11093,"ĠíĸīëıĻ":11094,"ĠëķĲ":11095,"Ġì·¨ìĹħ":11096,"ĠëĪĦêµ¬ëĪĦêµ¬":11097,"ì¶Ķë©´":11098,"ì»´íĵ¨íĦ°":11099,"ìķ¡ìħĺ":11100,"ħãħħãħħãħħãħħãħħãħħãħħãħ":11101,"Ġëĺĳëĺĳ":11102,"ĠëĤ®ìĿĢ":11103,"Ġì«Ħë":11104,"ĠëĮĢëĭ¨íķľ":11105,"Ġì±ħìŀĦ":11106,"íķĺì§ĢìķĬìĿĮ":11107,"Ġìŀ¦ëıĮ":11108,"ê´´ë¬¼":11109,"ĠëĽ°ìĸ´ë":11110,"ìĿ´ë¦ĦìĿ´":11111,"ĠìŀĪëįĶëĿ¼":11112,"Ġì´Īë°ĺìĹĲ":11113,"Ġìľłê²©ìĪĺ":11114,"Ĥ¬ëħ¸":11115,"ì¿¼ëĵľ":11116,"Ġë¦¬ë©ĶìĿ´íģ¬":11117,"65":11118,"is":11119,"pp":11120,"¹Ħë¡ľ":11121,"¿Į":11122,"ìĮĢ":11123,"Ĩ¨ëĦ¤":11124,"Ĳłë":11125,"ŃĶ":11126,"ĠëĬĶ":11127,"Ġëĥ¥":11128,"ĠëŁ½":11129,"Ġëī´ë¹Ħë":11130,"ê°ĢìĦ¸":11131,"ê°Ģìł¸":11132,"ê²¨ëıĦ":11133,"ìĹĲíľ´":11134,"ìĿ´ëħĦ":11135,"ìĿ´ëŀĺìĦľ":11136,"ìķĦíĭ°":11137,"ìķĦíĤ¤ëħ¸":11138,"ê¸°íĥĢ":11139,"ê¸°ìĸµ":11140,"ë§ĲëĿ¼":11141,"ĠìĿ´ìłľë":11142,"ìĻĪ":11143,"ëĤ©":11144,"Ġìĥĺ":11145,"ìĽĲíĥĳ":11146,"ìĽĲíĶ¼ìĬ¤":11147,"Ġìľ¤ë":11148,"³´ê³łìĭ¶ëĭ¤":11149,"ìĤ¬ë§Ŀ":11150,"ëĮĢìĥģ":11151,"Ġìĭľì¼°":11152,"ĠìĬ¤íİĺ":11153,"íķ´ë²Ħë":11154,"ìŀĲëĦ¤":11155,"Ġìĸ´ì¹´ëĥĲ":11156,"ì£¼ëĵ¤":11157,"ëĭ¨ì²´":11158,"ĠìŀĲì¡´":11159,"ìĬ¤ë³´ëĭ¤":11160,"íĭ°ìķĦê³ł":11161,"ê°ĲìĦ±":11162,"Ġìĥģëĭ´":11163,"íĢĺë":11164,"Ġìĺ¤ë°Ķ":11165,"íĥľê°Ģ":11166,"ĠìĿ¼ìĥģ":11167,"ĠìĿ¼ì£¼":11168,"Ġê·¸ìłĢ":11169,"Ġëª¨ìĿĺ":11170,"ì¹´ëıĦ":11171,"ì§ĳíļĮ":11172,"ëĤĺë´ī":11173,"Ġìŀħìŀ¥ìĹĲìĦľ":11174,"íİĺìĺ¨":11175,"ëıĦëŀĢ":11176,"ĠíĿĲ":11177,"ìķĬìĿ´":11178,"Ġë°ķë³´ê²Ģ":11179,"ĠìĭľëĮĢ":11180,"Ġìĭľë²Į":11181,"Ġëį®":11182,"ĠìķĦëĭĪìĹĪìĿĮ":11183,"Ġì£½ìĿĮ":11184,"gisa":11185,"ĠëĤ´ëĨĶ":11186,"Ġë¬´ë½ĳ":11187,"ë²Ħì¦Ī":11188,"ëł¥ìĿ´":11189,"ĠìķĪëĤĺìĺ¤ëĦ¤":11190,"ìĥĿê°ģë³´ëĭ¤":11191,"Ġë¬¼ê±´":11192,"íĶ¼ë¡ľ":11193,"ĠíıŃë°ľ":11194,"ì°Įê°ľ":11195,"ì´Īë¡Ŀ":11196,"Ġë³Ģìĭł":11197,"Ġìķ¼ë¶ķìĿ´":11198,"ł¸ëĥĲ":11199,"ìķŀìĹĲìĦľ":11200,"ìĭ¬ë°Ķ":11201,"ģĿëĤĺê³ł":11202,"íķĺëĤĺë§Į":11203,"ìĿ´ëĿ¼ë©°":11204,"Ġëĵ¤ìĸ´ìĻĢë´Ĳ":11205,"Ġê°Ģë§ĮíŀĪ":11206,"44":11207,"NT":11208,"¬»":11209,"¯¹ìĬ¤":11210,"´Ĳë":11211,"¹Ķë":11212,"ľ°":11213,"ãħļ":11214,"ìĿ´ìĦľ":11215,"ìĿ´ê²Įë":11216,"ì§Ģëĵ¤":11217,"ê±±ìłķ":11218,"íķĺíĬ¸":11219,"ìķĦìķ¼ì§Ģ":11220,"êµ½":11221,"Ġìĸĺëĵ¤":11222,"ìĿĮìķħ":11223,"Ġëĭ´ë":11224,"ìĭľíĽĦ":11225,"ìĿ¸ê°Ģë´Ĳ":11226,"ìŀĲì´Ŀ":11227,"¬´ìĦŃ":11228,"ĠëĤĺìĿ´ë":11229,"Ġê°Ģìķ¼ì§Ģ":11230,"Ġê°Ģì¦ĪìķĦ":11231,"êµ¬ìĹĲ":11232,"ĠìŀĪìĸ´ìļĶ":11233,"ĠìŀĪìĹĪëįĺ":11234,"¨¹ëĥĲ":11235,"ĠìĹĨìĿĦê¹Į":11236,"ìľłíĬľë²Ħ":11237,"Ŀ¼ë¡ľ":11238,"ëħ¤":11239,"ìĥĿëĵ¤":11240,"ìĥĿëªħ":11241,"ĠëıĪë²Į":11242,"Ġì§ĢëĭĪ":11243,"Ġëª»íķ´ìĦľ":11244,"ĠìĥĿë°©":11245,"ìĨĮìĦľ":11246,"Ġë¬´ê³¼ê¸Ī":11247,"íĶ¼íĨµ":11248,"ëĭ¨ìĸ´":11249,"¡ľë²Į":11250,"Ġë³´ëĤ¸":11251,"íĤ¤íĥĢ":11252,"ëł¸":11253,"ë¦¬ìłľë¡ľ":11254,"Ġë¯¸ì²´ê²°":11255,"Ġê³łìŀ¥":11256,"ĠìĥĿê°ģíķ´":11257,"ĠìĥĿê°ģíķ´ëıĦ":11258,"ĠìłĢê¸°":11259,"ĠìłĢê±¸":11260,"ì¶©ìĿĢ":11261,"ĠëģĶ":11262,"ĠìĺģíĻĶë":11263,"ê·¼ìľ¡":11264,"Ġëª¨ëį¸":11265,"ë¶ĦìĿĺ":11266,"Ġìĺ¤ëĬĺìĿĺ":11267,"Ġëª¨ìŀĲë":11268,"ìĿĦëŀĺ":11269,"íĪ¬ê¸°ìŀ¥":11270,"ĠìŀħìĿĢ":11271,"íĮ¨ê³ł":11272,"ĠëıĦìĽĢë":11273,"Ġìŀ¥ë°ľ":11274,"ĠìĤ¬ëŀĮìĿĦ":11275,"ĠíĿ¡":11276,"Ġë°Ķê¾¼":11277,"ıĦëĿ¼":11278,"ĠëĿ¼ìĿ´íĬ¸":11279,"ìķħì§Ī":11280,"ĠìłĢë²ĪìĹĲ":11281,"Ġíıīë²Ķ":11282,"ĠìłģíıĲ":11283,"Ġë½ĳìķĦìķ¼":11284,"Ġë°ľìĸ¸":11285,"ê°ĳëĭĪëĭ¤":11286,"ĠëıĦëĦ¤":11287,"Ġíķłëĵ¯":11288,"ìĽĮëĿ¼":11289,"Ġì¦Ī":11290,"íħĲì¸łë":11291,"Ġë¬¸ìłľìłĲ":11292,"ãħģãħİ":11293,"ĠíĨłë²Į":11294,"ëİĢ":11295,"Ġê½ī":11296,"ĠìķĪëĲĺì§Ģ":11297,"Ġíĩ´ê°¤":11298,"ëĸ¡ê³ł":11299,"ĠíĮĲëĭ¨":11300,"ìŀ¬ë°ĮëĦ¤":11301,"ìĺ¬íķ´ìĿĺ":11302,"ĠíħĮëŁ¬":11303,"³¼ë§Į":11304,"ĵ£ê³ł":11305,"Ġìľ¡ìĦ±":11306,"ĠìĿĺë¯¸ê°Ģ":11307,"ĠìĦ¼íĦ°":11308,"Ġëįķë¶ĦìĹĲ":11309,"ìļ°ë¦¬ëĤĺëĿ¼":11310,"ĠUSD":11311,"ìĹĲìĦľë§Į":11312,"ĠXBT":11313,"Ġìĸ´ëĸ¨ê¹Į":11314,"NCëĭ¤ìĿ´ëħ¸ìĬ¤ê°¤ëŁ¬ë¦¬":11315,"ĠëĤĺë¨¸ì§Ģ":11316,"PC":11317,"bo":11318,"ëĲĺëĥĲ":11319,"ë¡Ģ":11320,"Ġ^":11321,"Ĩ¨ë":11322,"ļ«":11323,"ëĬĶìķłëĵ¤":11324,"ìĿ´ì¦Īë":11325,"ĺë©´":11326,"ê°Ģì¹ĺ":11327,"ìĿ´ë¨¸":11328,"ìĦľê±´ì°½":11329,"Ġìĭ¬ë¦¬":11330,"ìĪĳ":11331,"ĠìĿ´íĭĢ":11332,"ĠìķĦê°Ģ":11333,"ì¢ģ":11334,"ìĪĺìĿĺ":11335,"ìĪĺìĪł":11336,"ìŀ¥ëł¤ê¸Ī":11337,"łĪìĿ¸":11338,"ĠíĮŁ":11339,"¨¹ìĸ´":11340,"ìľłìĭĿ":11341,"³´ìĿĢ":11342,"ĠìĤ¬ì§Ħë":11343,"ìļ°ì§Ħ":11344,"ĠìķĪë½ĳ":11345,"Ġë³´ìĿ´ìĬ¤":11346,"Ġê°ľíİ¸":11347,"ìķĪíķĺë©´":11348,"Ġì¤į":11349,"Ġìĭľìŀ¥":11350,"ê°ĢëĶĶ":11351,"Ġê³µê°ľë":11352,"ĠìŀĲìķ¼ì§Ģ":11353,"ìĦłìĿĢ":11354,"ê³łìĭ¶ëħ¸":11355,"ĠíģĲë":11356,"Ġìłľì£¼ëıĦ":11357,"Ġë§ĲíķĺëĬĶê±°":11358,"ê¹Ģì¢ħ":11359,"ê¹ĢìĹ°ìķĦ":11360,"ª¨ê°Ģ":11361,"ë¯¸íĨµëĭ¹":11362,"ìĭľê°Ħì§¸":11363,"ìĭłë¯¼íĺģ":11364,"ë¬¸ìŀ¬":11365,"ìĿ´ëĿ¼ëĭĪê¹Į":11366,"êµ°ìĿ´":11367,"ê²°ìĬ¹":11368,"Ġë²Ħê·¸ë":11369,"ìĺĢêµ¬ëĤĺ":11370,"Ġë§Įê°¤":11371,"Ġê³łëĵ±":11372,"Ġì£½ìĿ´":11373,"¡łíĨł":11374,"ĠëıĮìķĦë":11375,"ìĦ¸ëĦ¤":11376,"Ġì½Ķìĸ´":11377,"Ġìŀ¬íıīê°Ģ":11378,"Ġíĳľë":11379,"Ġìķ½ìĨį":11380,"Ġì¢ĭìĿĢê²Į":11381,"Ġê´ľì°®ìĿĢê±°":11382,"ì¡´ìŀĺ":11383,"139":11384,"Ġë°±ìĪĺ":11385,"íĮĶê³ł":11386,"ģ¼ê³ł":11387,"ĠëłĪìłĦëĵľëĭ¤":11388,"Ġë²Ħëł¤":11389,"¶ķìĿ´ëĵ¤ìĿĢ":11390,"íĺľìĽĲ":11391,"Ġì²ĺë¦¬":11392,"Ġê·¹ìŀ¥íĮĲ":11393,"Ġë§Īì§Ģë§īìĹĲ":11394,"Ġíĺķëĭĺ":11395,"Ġê°ĲëıĻ":11396,"íķ´ë³´ìŀĲ":11397,"ìĿ´ëŀĢê²Į":11398,"ìĹīíģ¼":11399,"Ġë°¤ìĹĲ":11400,"Ġì½ĶìĬ¤íĶĦëłĪ":11401,"ê¸įìłķ":11402,"Ġëª¨ë¥´ëĬĶëį°":11403,"Ġì»¤ë®¤ëĭĪíĭ°":11404,"ĠíĹ¬ìĬ¤ìŀ¥":11405,"ì½Ķë¦¬íĥĢ":11406,"ĠìłĲëł¹":11407,"ê²ĶìĬ¤ë§Į":11408,"ĠìĬ¤íħŁ":11409,"ĶĶëį¤ëĶĶ":11410,"Īë²ħì§Ģ":11411,"800":11412,"ch":11413,"~!":11414,"ĵ¦":11415,"ŀ¨ë":11416,"ì§ĢëĬĶê²Į":11417,"íķĺì£ł":11418,"¨ëĶ©":11419,"íķľìĦŃ":11420,"ì¤¬ë":11421,"íķĺë§Ī":11422,"ìŀĲìĹ°":11423,"íķĺëĬĶìĤ¬ëŀĮ":11424,"ĠìĦ¬ë":11425,"°ľìĿ´ê³ł":11426,"ì§Ħíĸī":11427,"´ëĭĿ":11428,"ĠìķĪìĤ¬":11429,"ĠìķĪê°Ĳ":11430,"ìĸ´ë¥¼":11431,"ìĹ¬ìĦ±":11432,"ìĹ¬ê¸°ëĬĶ":11433,"ê·¸ëĿ¼":11434,"ìŀĪê²Į":11435,"Ġìłķíķ´":11436,"Ġë³´ìħĪ":11437,"ìķĦë²Ħì§Ģ":11438,"ì§ģíŀĪ":11439,"Ġíĥ¬":11440,"¦°ê²Į":11441,"Ġíı°ë":11442,"íĮĮìĿ´íĦ°":11443,"Ġìŀĺíķĺê³ł":11444,"ĠìŀĲìľł":11445,"íĭ°ëĭĪìķĦ":11446,"Ł¬ëĿ¼":11447,"Ġìľłì§Ħë":11448,"ìĿ¼ëıĻìķĪ":11449,"ĠìłĢëĬĶ":11450,"ìĪĺëĿ¼":11451,"ìĹŃìĤ¬":11452,"ĠëĤ¨ìºĲ":11453,"íĮ¨ì¹ĺë":11454,"ŀĢíĬ¸":11455,"ê°¤ëŁ¼":11456,"ĠìĹ°êµ¬":11457,"ĠìĹ°íķ©":11458,"¸Ķë¦¬ì¦Ī":11459,"íķľëĭ¤ëĬĶëį°":11460,"ãħħãħĮ":11461,"ìłĢëĤĺ":11462,"Ġëį©":11463,"Ġê²°ìŀ¥":11464,"íĤ¤ëĵ¤":11465,"ĠíĺĦìŀ¥":11466,"ĠíĥĢìŀĲ":11467,"ĠìŀĳìłĦ":11468,"ìĹ´ìĭ¬íŀĪ":11469,"Ġìŀ¡ìĿĦ":11470,"Ġë³µì§Ģ":11471,"§ĮëĤĺ":11472,"ìķĦìĿ´ì½ĺ":11473,"ĠëŃĲëĥĲê³ł":11474,"ë°ĽìĿĢ":11475,"ëĸ¨":11476,"¥´ëĬĶê²Į":11477,"ëª¨ë¥´":11478,"¶ĪìĮį":11479,"ì°¸ì¹ĺ":11480,"ë¨¸ëĥĲ":11481,"Ġë¿¡íŀĽ":11482,"íľ´ê°Ģ":11483,"ĠíĶ½ëļ«":11484,"ĠëįĶëŁ¬":11485,"ìĻĵëĬĶëį°":11486,"Ġìĭłê¸°íķĺëĦ¤":11487,"Ġì«ĵ":11488,"ĠëĮĢëĭ¨íķĺëĭ¤":11489,"200812":11490,"Ġìĸ´ëłµëĦ¤":11491,"Ġë¡¤ë°±":11492,"ĠìĹłì¹´":11493,"ĠìĦŃì¢ħ":11494,"ĠìŀĶëĭ¤":11495,"²ĮëłĪ":11496,"íĮ¬ëį¤":11497,"ìĿ´ìģĺëĦ¤":11498,"Ġì°¬ìĦ±":11499,"ìĽłëįĺ":11500,"@.":11501,"ëĥ":11502,"ĨĶëĿ¼":11503,"ê°¯":11504,"Īë¸Į":11505,"íķĺê¸¸ëŀĺ":11506,"Ġë§ģ":11507,"ìķ¼ìĥĿ":11508,"ìĭľìķ¼":11509,"íĺĲë":11510,"ëĤ¬ë":11511,"¬´ê²Į":11512,"ìĿ¼ê¹Įì§Ģ":11513,"íķĺëĬĶê²ĥëıĦ":11514,"ì§Ħêµ¬":11515,"ĠëĤĺê°ĢìĦľ":11516,"¦¬ëįĺëį°":11517,"íĨ°":11518,"Ġì§Ħìŀħ":11519,"Ġì¢ĭìĿĦ":11520,"Ł¬ëĬĶ":11521,"ĠìĤ¬ê³¼ë":11522,"ĠìķĪë°Ľ":11523,"Ġê¹°":11524,"ë³´ê¸°":11525,"ìłĲê²Ģë":11526,"ìĨĮê°ľ":11527,"Ġê¸°ìĹħ":11528,"ì°¨ìłĦ":11529,"ĠìŀĺíķĺëĬĶê±°":11530,"íĤ¤ê³ł":11531,"ãĦ±ãĦ´":11532,"Ġë¹Ħìĭ¸ë":11533,"íĶĦëŀĳ":11534,"ìļ°ë¡ľ":11535,"ì°½ìĭľìłĪ":11536,"Ġìĸ¸ëĭĪ":11537,"Ġë§ĲìĿ´ìķ¼":11538,"ìĸĳìĿ¸":11539,"ìĺĪìģľ":11540,"ê·Ģì°®":11541,"Ġê°ķìłľ":11542,"ĠíĤ¤ê°Ģ":11543,"Ġìĭ¶ìĸ´ìĦľ":11544,"ıĦë¥´":11545,"Ġëĵľëŀĺ":11546,"ë©ĺ":11547,"ìĽĥê¸´":11548,"Ġì°įìľ¼ë©´":11549,"ê»ĺë":11550,"Ġë§Įëĵ¤ìĸ´ìĦľ":11551,"Ġãħłãħłãħłãħł":11552,"ì¹¨ì°©ë§¨":11553,"ĠìĪĺë¡Ŀ":11554,"Ġê´ľì°®ëĦ¤":11555,"ìµľê°ķ":11556,"ìĭŃëĭ¤":11557,"ëª¨ëª¨":11558,"Ġíģ¬ë³´":11559,"Ġãħİãħĩ":11560,"ĠíĻĺìĺģ":11561,"ĸ¡ìĥģ":11562,"Ġê¸¸íĥľ":11563,"Ġ140":11564,"Ġëĺĳê°ĻìĿ´":11565,"Ġë©Ķë¦¬":11566,"Ġë¸ĮëĿ¼":11567,"ìį¨ë¶ĢíĦ°":11568,"ĠëĮĢê¸°ìĹħ":11569,"ëĨĪëĵ¤ìĿĢ":11570,"Ġì±ĦíĮħì°½":11571,"ĠìķĦì¹¨ìĹĲ":11572,"ì¾ħ":11573,"Ġì¢Ģë§Į":11574,"Ġê°±ìĭł":11575,"ìłķìĭłë³ĳ":11576,"ì¯¤ëĲĺë©´":11577,"47":11578,"´ħ":11579,"ë¯¿":11580,"Ġj":11581,"ĸ´ëĭ¤":11582,"ìķľ":11583,"ìĿ´ì£ł":11584,"ìĿ´íĻįêµ¬":11585,"ìŀ£":11586,"ľë¦¬":11587,"ĵ¤ìĿĺ":11588,"ìĽŁ":11589,"Ġë°Ģë¦¬":11590,"Ġì¢ģ":11591,"ĠìĤ°ë":11592,"ìŀĲëĭ¤":11593,"ìĤ¬ìĿ¼":11594,"¦¬ëŁ°":11595,"ĠìķĪì§Ģë§Į":11596,"ĠìķĪê±¸ë":11597,"ĠìķĪìĵ°ë":11598,"ĠìĿ´ëıĻ":11599,"Ġì¢ĭìķĺëĬĶëį°":11600,"Ġì¢ĭê²Łëĭ¤":11601,"Ŀ¼ëĵľ":11602,"Ġìłķê¸Ģ":11603,"Ġëª»ìĵ°":11604,"êµŃìĿĢ":11605,"ĠëŃĲìŀĪëĥĲ":11606,"ìĹĪìĸ´ëıĦ":11607,"ìŀĲëħ¸":11608,"êµ¬ë¡±ë¹µ":11609,"ĠìĿ¸ìĽĲ":11610,"Ġì¢Ĩëħ¸ìŀ¼":11611,"íķłê±°ìķ¼":11612,"ĠìĪĺì§ĳ":11613,"Ġê³µëªħ":11614,"íĤ¤ëĭĪ":11615,"ëł¨ëĵ¤":11616,"ìĭľë°ĺ":11617,"ê³Ħíļį":11618,"ê·¸ëĭĪ":11619,"ëĭ¹íķĺë©´":11620,"Ġê³łíĨµ":11621,"ìļ°ë¦¬ëĬĶ":11622,"Ġì¶ĶìĿ´":11623,"Ġìĺ¤ë¸Į":11624,"ĠëģĦë":11625,"íĨłìĬ¤":11626,"Ġì§Ģëĵ¤ìĿ´":11627,"ëĿ¼ìĿ´íĬ¸":11628,"íĳľìłķ":11629,"Ġê¸°ë¶Ħë":11630,"ë¬´ê³µ":11631,"ìĿ´ëĥĲê³ł":11632,"¸ĶëĿ½":11633,"ì§ĢëĿ¼ê³ł":11634,"Ġë°ķì°¬íĺ¸":11635,"!!!!!!!":11636,"ıĦë¡Ŀ":11637,"ìºĲë¦¬":11638,"ĠìķĦëĭĪê¸Ķ":11639,"Ġëħ¸ìĺĪ":11640,"Ġëħ¸ëĭµ":11641,"ĠíĬ¹ìĦ±":11642,"ĠíĬ¹ë³Ħ":11643,"Ġìĸ´ëĸ»ê²Įíķ¨":11644,"ĠìĽĲìĺģìĿ´":11645,"ì¥°":11646,"Ġë¦¬ìĸ¼":11647,"Ġê¸ĢìĿĦ":11648,"ìŀ¬ëĦĮ":11649,"Īë²¨ë":11650,"Ġë¨¸ë·Ķ":11651,"¶ĢëĮĢ":11652,"Ġëĭ¹íķľ":11653,"ê¸°ëĳ¥":11654,"ĠìĿ´ìĥģíķľê±°":11655,"Ġìĭľìŀĳíķ¨":11656,"ĠìĭľìŀĳíĸĪëĬĶëį°":11657,"Ġìŀ¬ìķĻ":11658,"ëŃĲê°Ģ":11659,"Ġíķłë§Ĳ":11660,"§İìķĦ":11661,"Ġë¸ĮìĿ´":11662,"ë¦¬ë©Ķ":11663,"Ġëª°ëĿ¼ìĦľ":11664,"ĠëĬĲëĤĮìŀĦ":11665,"¹ĪìĿ´":11666,"ëĦĪíĿ¬ë":11667,"Ġãħĭãħĭãħĭãħĭãħĭãħĭãħĭãħĭãħĭãħĭãħĭãħĭãħĭãħĭãħĭãħĭãħĭãħĭãħĭãħĭ":11668,"ĠëıħìĿ¼":11669,"Ŀ¼ìĿ´ìĸ¸":11670,"Ġë©Ķëª¨":11671,"ê¹Ģë´īì¤Ģ":11672,"Ġìĸ´ëłµëĥĲ":11673,"ìĹ¬ìŀĲëĵ¤ìĿĢ":11674,"Ġê°ľìĿ¸ìłģìľ¼ë¡ľ":11675,"ĠìłĦìĦ¤ìĿ´ëĭ¤":11676,"Ġìĭ±ê¸Ģ":11677,"ĠêµĲë³µ":11678,"ìĭľë¡ľì½Ķ":11679,"ëĳ¥ìĿ´":11680,"ìŀĪëįĺëį°":11681,"ê²½ìĽĲë°ĺì§Ģ":11682,"Ġì§ĦíĻĶìĦĿ":11683,"Ġê³łë§Ļëĭ¤":11684,"ĠìĿ´ìľłë¥¼":11685,"@.@":11686,"OM":11687,"£½":11688,"¹ħ":11689,"ħìĭł":11690,"į´":11691,"Ġë¦´ë":11692,"ãħĲ":11693,"¼ëıĦ":11694,"ì§Ģìĸ´":11695,"Ĥĺìĺ¨":11696,"ìĸĮ":11697,"¦¬ê²Į":11698,"ëį°ìĿ´íĦ°":11699,"ê²ĮìĿ´ëĵ¤ìķĦ":11700,"ĠìĿ´ê¸´":11701,"íķĺë©°":11702,"ĠìķĦíĶĦ":11703,"ìĪĺìĽĲ":11704,"ìłķëł¹":11705,"ĠëĤĺê°Ī":11706,"ì¡·":11707,"¦¬ëĿ¼ê³ł":11708,"ê°Ļìķł":11709,"ìłĦìŀ¥":11710,"Ġê°ĢìĤ¬":11711,"Ġê°Ģë°©":11712,"ê·¸ëŀĺë":11713,"ëª¬ë":11714,"ĠìĤ¬ìŀ¥":11715,"íĦ°ëĬĶ":11716,"Ġë³´ìĿ´ëĬĶëį°":11717,"Ġìĺ¤íĶ¼ìħľ":11718,"Ġì§Ģê³ł":11719,"ìĦ¸ìĭ¤":11720,"Ġì¤ĺë":11721,"ê³µë¬´ìĽĲ":11722,"Ġìĭľê¸ī":11723,"ĠìĬ¤íĮĮ":11724,"ëĭĪëŀĳ":11725,"ĠëĮĢìłĦ":11726,"íĸĪëĭ¤ê°Ģ":11727,"êµ¬ë©į":11728,"ĠìĿ¸ìĭĿ":11729,"ìłĢìŀ¥":11730,"ĠìĹ¬ì´Ī":11731,"Ġìŀĺíķĺë©´":11732,"ìĬ¤ëŁ½ëĭ¤":11733,"Ł¬ëħ¸":11734,"Ġìĥģìŀ¥":11735,"ĠìĥģíĴĪ":11736,"ê¾¼ë§ł":11737,"ìļ°ë¦¬ëıĦ":11738,"íĺĦìĿĢ":11739,"Ġë¨¹ëĬĶê±°":11740,"Ġë§ĲìĿĢ":11741,"ĠëģĪ":11742,"ĠìĦ±íĿ¬ë¡±":11743,"ìīĲ":11744,"ë¬´íľ¼":11745,"ê°ľëıĦ":11746,"ê°ľë¥¼":11747,"ëĺł":11748,"Ġë²ĦíĬ¼":11749,"ĠíĮĮíĬ¸":11750,"ĠíĸĪìĸ´":11751,"Ġíı¬ìĬ¤íĦ°":11752,"Ġíı¬ì¼ĵëª¬":11753,"Ġìį¼":11754,"ł¨ìĿ´":11755,"Ġëĵ¤ìĸ´ê°ĢëĬĶ":11756,"ĠìĽĲìĺģ":11757,"ë¥ĺë":11758,"Ġë³´ê³łê°ĢëĿ¼":11759,"ĠëĤ´ëĨĵ":11760,"ê¸°ëķĮ":11761,"ëª¨ëĭĪíĦ°":11762,"íĪŃ":11763,"ĠìĹĲìĿ´ìĬ¤":11764,"íĿ¬ê°Ģ":11765,"ĠíķĦíĦ°":11766,"ĠëıĦëŀĢ":11767,"ĠìĦłëĦĺ":11768,"ë°ĽìĿĮ":11769,"ê°ĢëĬ¥ìĦ±":11770,"Ġê°ĪìĪĺë¡Ŀ":11771,"êº¼ìķ¼":11772,"ë§ĮëĶ°ë¦¬":11773,"ĠëıĮë¦¬ë©´":11774,"ìĽĮëıĦ":11775,"íħĮëŁ¬":11776,"Ġë³¼ìĪĺë¡Ŀ":11777,"ĠãħİãĦ·ãĦ·":11778,"Ġë¨¸ë¦¬ê°Ģ":11779,"ĠëĦ¤ìŀĦë":11780,"ĠíĨłëģ¼":11781,"Ġë¿Įë¦¬":11782,"ĠíĽĦëł¤":11783,"ĠíĮ¨ëŁ¬ë":11784,"ê°Ķëħ¸":11785,"ĠëĨĪìĿ´":11786,"íķĺë£¨ì¢ħìĿ¼":11787,"ĠìĦŃìĻ¸":11788,"íķĺíķĺíķĺíķĺ":11789,"ìĿ´ë¯¸ì§Ģ":11790,"Ġìľłëªħíķľ":11791,"ìª¼":11792,"ĠìķĦìī¬ìļ´":11793,"ìĥĢëĬĶëį°":11794,"ê°ĸê³ł":11795,"Ġíĥľë¸Ķë¦¿":11796,"ë²łë¥´ëĦĪ":11797,"Ġìĸ´ì©ĶìĪĺ":11798,"Ġë¡ľê·¸ìĿ¸":11799,"110":11800,"BO":11801,"¥´ëĤĺ":11802,"§ĺëĵ¤":11803,"ë¦´ë":11804,"Ĥ°":11805,"ĠìĮĢ":11806,"Ġëī´ë":11807,"Ġë¦´ë¦¬":11808,"íķĢë":11809,"ìĿ´ìłķëıĦ":11810,"ìĿ´ìĺĢëĬĶëį°":11811,"ê°ĢìĪĺ":11812,"ìļ´ëĭ¤":11813,"ìĦľíı¿":11814,"Ġê°Ŀ":11815,"ìĭľíĤ´":11816,"ĠìķĦì¹´":11817,"ìŀ¥ê°ĳ":11818,"ĠëĤĺê°Ģë":11819,"ĠëĤĺìĺ¨ë":11820,"ê°¤ìŀĦ":11821,"ê°¤ê¸¸":11822,"Ġê°Ģì§ľ":11823,"êµ¬ëĭĪ":11824,"ìĦ±ë°°":11825,"´ëĭ¬":11826,"ĠìķĪíĸĪëĬĶëį°":11827,"ì½ĶëĿ¼":11828,"Ġì°Ķë":11829,"ì¤ĳìĿ´ëĭ¤":11830,"ĵľëĵ¤":11831,"ìĺ¤ë¸Į":11832,"ìķĪíķĺëĬĶ":11833,"ĠíĻĪë":11834,"ìĹĪêµ¬ëĤĺ":11835,"£¨ê°Ģ":11836,"ĠìĿ¸ê°ķ":11837,"ë³´ìĿĢìĻĶìĸ´ìļĶ":11838,"ìłĲìĭ¬ë":11839,"íķłíħĲëį°":11840,"ĠíĬľ":11841,"ìĹ°íĮ¨":11842,"ì¤Ģíĥľ":11843,"íĺ¸ìĤ¬":11844,"ì²ľíŀĪ":11845,"Ġíķ´ì¤Ħ":11846,"ëĭ¹íŀĪ":11847,"ìŀ¬ëĬ¥":11848,"¥´ë§Īëĭ¤":11849,"íĺĦìĭĿìĿ´":11850,"Ġë¨¹ìĸ´ëıĦ":11851,"Ġìĺ¬ëŀĲ":11852,"ĠìķĦë¦Ħ":11853,"Ġìĺ¤ë¦¬":11854,"Ġëĭ¤ë¥´":11855,"ìĹŃê²¹":11856,"íĨłì¸ł":11857,"ì§Ģê¸ĪìĿĢ":11858,"íĨłë²Į":11859,"ë¯¸ìħĺ":11860,"íķłë§Įíķľ":11861,"íķĺëĭ¤ëĬĶ":11862,"ì§ĢëŀĦë":11863,"Ġêµ¬ê¸Ģ":11864,"Ġìĭ¶ìĹĪëĬĶëį°":11865,"ĠìķĮëł¤ë":11866,"Ġë¶Ģë¥´":11867,"ĠìĦ¸ê¸Ī":11868,"ìľłëĤĺ":11869,"ìŀĩëĦ¤":11870,"ìĭ¸ìļ°":11871,"ĠìłĦë¶ķìĿ´":11872,"ì²łê¶Į":11873,"Ġì£¼ëĥĲ":11874,"Ġë½ĳìľ¼ë©´":11875,"ĠìĿ´ìĥģíĺķ":11876,"Ġìŀ¬ë°ĮëĬĶê±°":11877,"ëłĪìłĦëĵľ":11878,"§ŀê³ł":11879,"ìłĳìĨį":11880,"ĠìĨĲíķ´":11881,"ìĹ¬ëıĻìĥĿ":11882,"ìĬ¬ìĿ´":11883,"ĠìĻ¸ìķ¼":11884,"ĠëıĮë¦´":11885,"ãħħãĦ±":11886,"ìĦ¼ìĬ¤":11887,"ª¨ë¥´":11888,"íģ´ë¦Ń":11889,"ìĿ¸ê±°ëĥĲ":11890,"ìľ¤ìĿ´":11891,"ìķ°ì°½":11892,"ĠìĮ©":11893,"ì¦ĪëĿ¼ìĿ´ë¸Į":11894,"ë¸Ķë³¸":11895,"ĠíķĦìļĶíķ¨":11896,"ê°Īë¹Ħ":11897,"ê·¹íĺĲ":11898,"Ġìĭ«ìĸ´íķ¨":11899,"ıĮë¦¼":11900,"ĠìĥĪê¸°ëĵ¤":11901,"ĠíĻĺê¸ī":11902,"Ġìŀ¬ë¯¸ê°Ģ":11903,"Ġê·¼ë¬´":11904,"Ġê°ľì¢Ĩê°ĻëĦ¤":11905,"Ġì¡¸ì»¤":11906,"íĮĲë§¤":11907,"ĠìĿĢê·¼íŀĪ":11908,"ë§İìĿ´":11909,"Ġìľ¤ì§Ģ":11910,"Ġë§ĪìĿĮìĿ´":11911,"Ġê·¸ëłĩëĭ¤":11912,"Ġì½ĶìĬ¤íĶ¼":11913,"ëħ¹ëĳĲë":11914,"ìµľê·¼ìĹĲ":11915,"Ġëª°ëŀĲëĬĶëį°":11916,"ê·ĢìĹ½ëĦ¤":11917,"KT":11918,"ëĲĺëĦ¤":11919,"Ġ....":11920,"ħĶ":11921,"ĸ¨":11922,"ĺĳ":11923,"Ġë¦´":11924,"ëĬĶëĤł":11925,"ìĿ´ìĹ¬":11926,"ìĿ´ìĹĪìľ¼ë©´":11927,"ëĭ¤ëĭĺ":11928,"ìĺĪëĤĺ":11929,"ê±°ê°Ģ":11930,"ìķĦìĭ¸":11931,"ìĸ´íľ´":11932,"Ġë°Ł":11933,"ĠìĿ´ìľłë¡ľ":11934,"ìĤ¬ìĬ¤":11935,"ìĤ¬ìļ©":11936,"ìļĶìķ½":11937,"ìłķìĿĺ":11938,"ì§Ħíķĳ":11939,"íħħ":11940,"íı´ë¦¬":11941,"ìĸ´ëŀĳ":11942,"ĠìĿ´ëŀĺ":11943,"ĠìĿ´ëĮĢë¡ľ":11944,"ĠìŀĪìľ¼":11945,"ĠìĹĨìľ¼ëĭĪ":11946,"ĠìĤ¬ìĹħ":11947,"Ġì¹¸ë":11948,"ìĺ¤ëŀĺ":11949,"Ġì§ĢìĽĮ":11950,"ĠëĲłë":11951,"ĠìĬ¤ê°¤":11952,"Ĥĺëħ¸":11953,"ĠìĥĿë¦¬":11954,"ĠìĥĿê¸°ë©´":11955,"ëĭĺìĿĺ":11956,"ìĨĮìĨį":11957,"íĹĽ":11958,"íĮĮìĪĺê¾¼":11959,"ĠìĪĺìĺģ":11960,"Ġê³µì§ľë¡ľ":11961,"ì°¨ê¸°":11962,"íĭ°ìħĶì¸ł":11963,"Ł¬ëĵ¤":11964,"ê°ĲìŀĲ":11965,"ĠìĿ´ê±°ìŀĦ":11966,"ëįķìĿ´":11967,"Ġì¤ĳê°Ħ":11968,"ĠëįĶìĿ´ìĥģ":11969,"ìŀ¬ê¸°":11970,"Ġë¹Ħê²Į":11971,"Ġë§ŀê³ł":11972,"ìĵ°ë¦¬":11973,"íĺĦìĭľ":11974,"ìĻĶíĤ¹ë¡¤":11975,"ĠìłĢëĬ¥":11976,"ë¶Ħê¸°":11977,"ëĤĺëĥĲ":11978,"§Īë¡ľ":11979,"Ġìµľìķł":11980,"ë§ĪëłĪ":11981,"Ġíķ´ë´Ħ":11982,"ĠíĶ¼ê²¨":11983,"ìĿ´ë²ĪìĹĶ":11984,"Ġ75":11985,"ìĿ¸ê°Ģë³´ëĦ¤":11986,"ìŀĩìĸ´":11987,"¸Įë¡ľ":11988,"íı°ìľ¼ë¡ľ":11989,"Ġì½ĶíĬ¸":11990,"Ġë½ĳìķĺëĬĶëį°":11991,"ĠíĶĦë©Ķ":11992,"ĠíķĦíķ©":11993,"Ġëĺ¥íĢ´":11994,"ë©Ķê°Ī":11995,"ĠëĴ¤ìł¸":11996,"ë§ĮìĽĲìĹĲ":11997,"ìĦ¼íĬ¸":11998,"ĠëĦ£ìĸ´ë":11999,"ëª¨ë°ĶìĿ¼":12000,"ìĥ¤ìĽĮ":12001,"įĶëĿ¼ëıĦ":12002,"Ġì´Īë¡Ŀ":12003,"Ġê¶ģê¸Īíķ´ìĦľ":12004,"ëĳĲìĤ°":12005,"ĠìĶ¨ë°ľëħĦëĵ¤ìķĦ":12006,"Ġë¿Į":12007,"ë¹ĦëıĻìĿĺ":12008,"ì¤¬ìĿĮ":12009,"Ġìĺ·ìŀ¥":12010,"ìĻĵëĭ¤":12011,"ĠTV":12012,"ëļĿ":12013,"Ġìıł":12014,"ĠìºĲìĭľ":12015,"Ġë¶Ħëħ¸":12016,"ĠëĭĪëĵ¤ìĿĢ":12017,"ĠíĪ½":12018,"###":12019,"Ġê³¨ë°ĺ":12020,"Ġlck":12021,"ĠëĤĺìĺ¤ëħ¸":12022,"ìĦłìĥĿëĭĺëĵ¤":12023,"Ġê²¬ìłģ":12024,"Ġìĺ¤íĶĦëĭĿ":12025,"Ġì¢ĨëĲĲëĭ¤":12026,"Ġìŀ¥ìķłìĿ¸":12027,"ìĥĿì¶ķë³´ìĿĢìĻĶìĸ´ìļĶ":12028,"ëĿ¼ëĿ¼ëĿ¼ëĿ¼ëĿ¼ìĥĿì¶ķë³´ìĿĢìĻĶìĸ´ìļĶ":12029,"43":12030,"OO":12031,"ol":12032,"ëĪ":12033,"Ġ00":12034,"Ĥ¼ë":12035,"ĨĲ":12036,"ĳ¬":12037,"ĠëĮĲ":12038,"ì§Ģê°Ħ":12039,"ê³łêµ¬ë§Ī":12040,"ìĿĢíĸī":12041,"ìĦľìĬ¤":12042,"ìĤ½":12043,"ĠìĹ½":12044,"ê¹¸":12045,"ê²ĮìŀĦë":12046,"Ġë°į":12047,"ìĭľê³µ":12048,"ìĭľì¼°":12049,"ìŀĲì²´ê°Ģ":12050,"ĠìķĦíĮĮ":12051,"ìĥģìĪĺ":12052,"ìŀ¥ìĿ¸":12053,"Ġê°Ģìĺ¨":12054,"ĠìķĪíķĺëĬĶëį°":12055,"Ġëĭ¤ê°Ģ":12056,"Ġëĭ¤íģ¬":12057,"Ġëĭ¤ìĿĮë":12058,"¨¹ê¸°":12059,"¨¹ê³łìĭ¶ëĭ¤":12060,"ĠìĹĨìŀĸìķĦ":12061,"ĠìĹĨìĹĪìľ¼ë©´":12062,"ì¤ĳìĿ¼":12063,"ê·¸ëłĩ":12064,"ĠìĤ¬ê²½":12065,"Ŀ¼ëħ¸":12066,"Ġë¹¨ëĿ¼":12067,"Ġë³´ìĿ´ëĦ¤":12068,"ìķĪíķĺëĥĲ":12069,"ĠìĬ¤íģ¬":12070,"ĠìĿ¸ì²ľ":12071,"Ġì¢ĨëĲľ":12072,"ë³´ìŀĲ":12073,"ê°Ģë´ĲëıĦ":12074,"ëĭ¨ìŀ¥":12075,"¡ľë¦¬":12076,"ì¤ĢìĭĿ":12077,"ì¤Ģëĭ¤ê³ł":12078,"ĠìľłíĪ½":12079,"Ġíķ´ì£¼ë©´":12080,"ĠìĥģìłĲ":12081,"ëĭ¹íķĺê³ł":12082,"ĠìłĦìĹŃ":12083,"Ġê±°ì§ĵë§Ĳ":12084,"ê²ĥë³´ëĭ¤":12085,"ìķ¼ëıĻ":12086,"ê¹Ģìļ°ìĦĿ":12087,"Ġãħħãħħãħħãħħ":12088,"íĨłê°Ģ":12089,"ĠëĤĺë°ľìĿ´ê³ł":12090,"ì¢ĭìĿĢê±°":12091,"ìĶ¨ìķ¼":12092,"Ġìŀ¥ê¸°":12093,"ĠìµľíĽĦ":12094,"ëĤ¨ìŀĲê°Ģ":12095,"ìľ¼ìĿĳ":12096,"ĠíĤ¤ìļ¸ë":12097,"ĠíķłìĤ¬ëŀĮ":12098,"Ġêµ¬ìĦ±":12099,"ì»¤íĶĮ":12100,"Ġë§Ŀìĺ¤ìĬ¤":12101,"íĥĢë©´":12102,"Ġê°¤ëŁ¼ëĵ¤":12103,"ĠìĽĥê³ł":12104,"Ġìľłë£Į":12105,"Ġë¬´ëĦĪ":12106,"ëĮĢë§Į":12107,"ĠëĤĺìĺ¤ê²łì§Ģ":12108,"Ġê·¼ìŀ¥":12109,"íĺ¼ìĤ°":12110,"§ģíģ¬":12111,"Ġìĭ¸ìļ°ëĬĶ":12112,"ĠìĿĺê²¬":12113,"ĠìĬ¹ê¸ī":12114,"ĠëĳĲê³ł":12115,"Ġì²łê¶Į":12116,"ëª¨ëĳĲ":12117,"ĠíĻĶëĤľ":12118,"ëĬĲê·¸":12119,"ħĦëĵ¤ìĿĢ":12120,"ĠíķĦìļĶê°Ģ":12121,"Ġ06":12122,"ĠìĿĳëĶĶ":12123,"ĠíĢµ":12124,"Ġíģ¬íĬ¸":12125,"Ġë´īì¤ĢìĿ´":12126,"Ġë£¸":12127,"ĠìĿ¸ê¸°ìĥģ":12128,"ë½ĳê¸°":12129,"ĠíĽĦë³´":12130,"Ġê¼¬ì¶Ķ":12131,"Ġë°Ķê¿¨":12132,"Ġë°Ķê¿Ķë":12133,"ĠìĿ´ê¸°ê³ł":12134,"????????????????":12135,"ìĬ¤ëŁ¬ìĽĮ":12136,"ëįĶë¸Ķ":12137,"Ġë¶ģì»¤ë²Ħ":12138,"ãħĨãħħãħĮãħĬ":12139,"Ġëįķì§Ī":12140,"ìĿ´ìĿ´ìĿ´ìĿ´":12141,"ì¹ľêµ¬ëŀĳ":12142,"Ġì¶ķíķĺíķ´":12143,"ľ»ìŀĦ":12144,"Ġì£¼ë§ĲìĹĲ":12145,"Ġê°Ħë§ĮìĹĲ":12146,"ĠìĹ¬ìłĦíŀĪ":12147,"ĠìĹ´ëĵ±ê°Ĳ":12148,"gainìĭłê³¡íĻįë³´ìĻĶíĤ¹ë¡¤":12149,"ĠíĹ·ê°Īë":12150,"ID":12151,"if":12152,"xx":12153,"§¹":12154,"ë®¤":12155,"ë·°ì§Ģ":12156,"İĮ":12157,"Ġëŀĺ":12158,"ìĿ´ìļ©":12159,"ìĿ´ìłķíĽĦ":12160,"ì§Ģíĺģ":12161,"ëĭ¤ëħĢ":12162,"į°ë¦¬":12163,"ê³łëĤĺ":12164,"¤ëįĺ":12165,"ê¸°ìĺģ":12166,"Ŀ¼ëĭĪê¹Į":12167,"ìĤ´ëĭ¤":12168,"ì¹´ëĭī":12169,"ìĸ´ì¼Ģë":12170,"íķ´íĤ¹":12171,"ìľ¼ëł¤":12172,"ìĪĺìĥĿ":12173,"ìĿ¼ìŀĦ":12174,"ĠëĤĺìĻĢëĿ¼":12175,"¦¬ëįĺ":12176,"¶ĢëĬĶ":12177,"ê¸ĪìĿĢ":12178,"Ġê·¸ëıĻìķĪ":12179,"Ġì§Ħìĭ¤":12180,"Ġìľ¼ë":12181,"ĠìĤ¬ìĿ´ì¦Ī":12182,"íŀĪíĨłë¯¸":12183,"Ġìĺ¤ìĹ´":12184,"Ġìĺ¤íĶĦëĿ¼ìĿ¸":12185,"Ġê°ľìĽĥê¸°":12186,"ìĿ¸ëį°ëıĦ":12187,"Ġì§Ģêµ¬":12188,"Ġê¹ĥ":12189,"ĠìĤ¬ë¬´":12190,"ìłĲíĶĦ":12191,"ì¼ĢìĿ¸":12192,"ĮĢë¥¼":12193,"íĬ¸ëĤ¨":12194,"ëĭ¨ìĿĢ":12195,"ĠìŀĲì²´":12196,"ì¤Ģê±°":12197,"ê°ĲìĤ¬":12198,"ê³Ħê°Ģ":12199,"ê°ķìĿ´":12200,"Ġ42":12201,"Ġ48":12202,"ĠìłĢê±´":12203,"Ġìĺ¤ë§Ī":12204,"íĶĮìĬ¤":12205,"Ġì§ĢëıĦ":12206,"Ġì§Ģë°°":12207,"ĠìķĮê²łëĭ¤":12208,"ì¹´ë¡ľ":12209,"ĠëªĩìĤ´":12210,"Ġë°Ľìķĺëĭ¤":12211,"ë¯¸ì£¼":12212,"§Īëł¤":12213,"ëıĦëª»":12214,"´Ĳìķ¼ì§Ģ":12215,"ĠìĤ¬ëŀĮìĿ¸ëį°":12216,"ë¬´íİĺíĨł":12217,"ĠãħĪê°ĻìĿĢ":12218,"êµĲíĸī":12219,"Ġë°ķìĤ´ë":12220,"ĠìĤ´ìĿ¸":12221,"ëıĻìķĪ":12222,"Ġì°¨ìĿ´ë":12223,"ĠìķĦëĭĪê²łì§Ģ":12224,"ë§Ŀê°Ģ":12225,"ì²ĺëħĢ":12226,"Ġëĵ¤ìĸ´ìĺ¤":12227,"¸ĮëĿ¼":12228,"Ġìĸ´ì¼ĢíķĺëĥĲ":12229,"ì¡±ìĿ´":12230,"Ġíļ¡":12231,"Ġíķ¨ìĦ±":12232,"Ġì§ģìĽĲ":12233,"ĠëıĪìĿĦ":12234,"Ġê¹Įê³ł":12235,"ê²ĮìŀĦìĿĢ":12236,"ĠìķĪëĤĺìĺ¨":12237,"ĠìĿĺìŀĲ":12238,"ìļ°ë¦¬ê°Ģ":12239,"ģ¼ëĬĶ":12240,"ĠìĹ´ìĩł":12241,"Ġíģ¬ë¦¬ìĬ¤":12242,"Ġê³¼ìĹ°":12243,"ìª½ìľ¼ë¡ľ":12244,"Ġíľĺ":12245,">>>":12246,"ĠãħģãħĮãħĬëĥĲ":12247,"Ġê¾¹ìķ°":12248,"ìĤĲëĬĶ":12249,"ê³ĦëıĦ":12250,"ë¡ľëĵľ":12251,"Ġëıħë¦½":12252,"ìĿ´ìĸ´íı°":12253,"ĠëĤłë¨¹":12254,"Ġìĭłê¸°íķ¨":12255,"íķĺë£¨ìĹĲ":12256,"ë¶ķìĿ´ëĵ¤ìķĦ":12257,"ħĦëıĦ":12258,"ĠìĽħìŀ¥íķ´":12259,"§Ĳë¡ľ":12260,"ĠìĥĿê°ģíķ´ë³´ëĭĪ":12261,"ìĺ¤ìĺ¤ìĺ¤ìĺ¤":12262,"ĠìĬ¤íı¬ì¸ł":12263,"Ġëª»ë´Ħ":12264,"ìĺĨìĹĲ":12265,"Ġì¡°ìļ©íŀĪ":12266,"ĠìķĦìī½ëĭ¤":12267,"ë¸ĿëĶ±":12268,"ĨĢìĿ´":12269,"Ġë°ĶëĢĲê±°":12270,"ìĸĳìĭ¬ê³łë°±":12271,"íī¤":12272,"ë³¶ìĿ´":12273,"Ġíķĳê¹Įì¢Ģ":12274,"Ġê¾¸ì¤ĢíŀĪ":12275,"Ġë¹ĦìĬĪë°Ķíģ¬":12276,"ìĤ¬ë§Įë£¨":12277,"42":12278,"YA":12279,"°ĺëıĦ":12280,"ëī´ë¹Īëį°":12281,"īìĿĢ":12282,"Ġë®¤":12283,"ãħĽ":12284,"ìĿ´ê²ĥëıĦ":12285,"ì§ĢíĺĦìĿ´":12286,"ìĿ´ë¯¼":12287,"ĵ¤ë§Į":12288,"Ŀ¼ëĬĶê²Į":12289,"ìĬ¤ìķķ":12290,"ìĽ¬":12291,"ĠìĺĢ":12292,"ìĥģëĮĢë¡ľ":12293,"ìłķê³µ":12294,"ëĬĶê±°ë³´ë©´":12295,"ìľłìłĢë":12296,"ìľłíĬľë":12297,"ì¤ĳìĥĿ":12298,"ëª¸ë":12299,"ìŀĪìĿĦ":12300,"ĠìłķìĿĺ":12301,"ê³µìķ±":12302,"ĠìĬ¤íĤ¬ë":12303,"ê²łìĬµëĭĪê¹Į":12304,"íķ´ëıĦëĲ¨":12305,"íĮĮìĿ´ìĸ´":12306,"ĠãĦ¹ãħĩìŀĦ":12307,"Ġë§İëħ¸":12308,"ë¹¼ê³ł":12309,"Ġë´¤ëĥĲ":12310,"Ġê³łìĨĮë":12311,"Ġì£¼ìĿĺ":12312,"Ġëĵ¤ìĿĢ":12313,"íļĮìĹĲ":12314,"ĠëĤ¨ìķĺëĬĶëį°":12315,"Ġëª¨ìıł":12316,"ìļ¸íĬ¸ëĿ¼":12317,"ìĺĪìģ":12318,"Ġê°ķíķľ":12319,"Ĥ´ê°Ģ":12320,"êµ°ìķĦ":12321,"ĠìĤ´ìĤ¬ëŀĮ":12322,"ĠìķĮë°Ķë":12323,"íĥĢëıĦ":12324,"ĠíĮ¨ëĬĶ":12325,"ãħĭãħĭãħĭãħĭãħĭãħĭãħĭãħĭãħĭãħĭãħĭãħĭãħĭãħĭãħĭãħĭãħĭãħĭãħĭãħĭãħĭãħĭãħĭãħĭãħĭãħĭãħĭãħĭ":12326,"ĠìĽĥìĿĮ":12327,"ìŀ¡ìĿ´":12328,"ĠíķĺëĤĺê°ĻìĿ´":12329,"ì°įìľ¼ë©´":12330,"Ġë°ľìłĦ":12331,"ĠìĻ¤ì¼Ģë":12332,"Ġêµ¬ë©į":12333,"íĺ¼ëĭ¤":12334,"Ġë¯¸ë¦¬ë":12335,"ĨĵìĿĢê±°":12336,"ĠìĨĲíķ´ë":12337,"ĠëĳĲìĤ°":12338,"ë¶Ģë°ĺ":12339,"Ġíİ¸ìĦ±":12340,"ìĻĶëĥĲ":12341,"ĠìĹĨëĬĶëĵ¯":12342,"ëĨĴ":12343,"Ġíģ¬ë¦¼":12344,"ìĥ¤ìĥ¤":12345,"Ġëª°ë¹µ":12346,"ì¹łìĿ´":12347,"ĠíĴĢë°ľ":12348,"ìĤĲìķ°":12349,"Ġpve":12350,"Ġê¼¬ëĿ¼ë":12351,"Ġss":12352,"Ġìī¬ìĽĢ":12353,"ħĢëŀĳ":12354,"ĠìıŁ":12355,"Ġì½ľë¡ľ":12356,"íĺĦë¬´":12357,"ê²¼ëħ¸":12358,"Ġê±´ë¬¼":12359,"ë¹łëĬĶ":12360,"Ġê¸Īë¯¼ì²ł":12361,"ĠíĺľìŀĲ":12362,"ìĭľíĤ¤ê³ł":12363,"ĠìĿ´ëĵĿìŀĦ":12364,"ìĬ¤ëŁ½ê²Į":12365,"ĠìĹŃê²¹ëĦ¤":12366,"ìĬ¹ë¦¬ìĿĺ":12367,"Ġìª½íĮĶë":12368,"ëłĮíĥĪ":12369,"ìĿµìĬ¤íĶĦëłĪìĬ¤":12370,"Ġìľłë§Ŀì£¼":12371,"PL":12372,"ap":12373,"Ġtxt":12374,"ĪĶ":12375,"Ĳ«":12376,"Ġë¯¼ë":12377,"ê°Ħëĵ¤":12378,"ìĿ´ìĿµ":12379,"ê°Ģìŀħ":12380,"į°ëł¤":12381,"ê³łëıĦ":12382,"ìĸĺëĵ¤":12383,"ê±°ìļ´":12384,"ìķĦíĮĮíĬ¸":12385,"Įëĵ¯":12386,"Ġìŀłë":12387,"ìĥĪëĤĺ":12388,"ê·¤":12389,"Ġì§¬":12390,"ëĭĪì¹´":12391,"ìĪį":12392,"ĠìĿ´íĻįêµ¬":12393,"ìĿ¸ìĦ±":12394,"ĠìĻĢëĿ¼":12395,"ìłķëĥĲ":12396,"ì£¼ìĪł":12397,"ê°Ļìľ¼ë©´":12398,"êµ¬ìŀ¥":12399,"ĠìķĪíķľ":12400,"ĠìķĪíĦ°":12401,"Ġê·¸ëŁ¬ë©´":12402,"ì¹ĺìĿ´":12403,"ĠìĿ´ë»":12404,"Ġì§ĦìŀĲ":12405,"ĠìĹĨëĤĺìļĶ":12406,"ëª¹":12407,"Ġìłķë¦¬ë":12408,"ìĦ¸íĺģ":12409,"ëĮĢíķľë¯¼êµŃ":12410,"ĠëĲĲëĦ¤":12411,"ìŀĲë³¸":12412,"ĠìĿ¸ìĹ°":12413,"ë³´ì¶Ķ":12414,"ê²½ìĿĢ":12415,"íķłê±°ê°ĻìĿĢëį°":12416,"ì£¼ë³Ģ":12417,"ëĤ´ìĿ¼ë¶ĢíĦ°":12418,"íĺ¸ìĦł":12419,"¯¸ëıĦ":12420,"ê·¸ìłĢ":12421,"ìŀ¬ìĹħ":12422,"ìĬ¹ìĿ´":12423,"ìļ°ëĿ¼":12424,"ê³łìĭ¶ìľ¼ë©´":12425,"ìŀħëĭĪê¹Į":12426,"íķĻì¹ĺì»¤":12427,"ĠëĤ¨ìĪľìĿ´":12428,"ì¶Ķíĸī":12429,"ĠìķĬìķĺ":12430,"Ġë°ĽëĬĶëĭ¤":12431,"§ĪëĿ¼":12432,"ìĦľë¡ľ":12433,"ê´Ģìłģìľ¼ë¡ľ":12434,"¥¸ê±°":12435,"Ġë³ĳìĤ´":12436,"íģ¬ë¦°ìĿ´":12437,"íģ¬ë¦¬ìĬ¤":12438,"ĠìĺĪêµ¬":12439,"§¤ìĪĺ":12440,"ì½Ķëŀĳ":12441,"ĠíķĺëĬĶë²ķ":12442,"Ġìļ°ìľł":12443,"Ġìļ°ìĦł":12444,"íĻĶëıĦ":12445,"ĠìĭľëĤĺë¦¬ìĺ¤":12446,"Ġëįľë":12447,"Ġë§Įë£¨":12448,"Ġë¶ĢëŀĦ":12449,"ì²ĺë¨¹":12450,"Ġëĵ¤ìĸ´ê°Ħ":12451,"ĠíĥĢìĿ´íĭĢ":12452,"ê²ĮëıĦ":12453,"ê²ĮëĲ¨":12454,"Ġì°įëįķ":12455,"ì°įìĿĢ":12456,"ìĹ´ìĸ´":12457,"ĠìĦľìĹ´":12458,"íĮĮëıĦ":12459,"115":12460,"117":12461,"Ġë§¤ëĭĪìłĢ":12462,"íķ´ìķ¼íķĺëĥĲ":12463,"ê²ĮìŀĦìĿ´":12464,"ìĥĿê°ģíķ¨":12465,"ì£½ìĿ´":12466,"§İëĥĲ":12467,"ìĦłë¹Ī":12468,"ĠìºĲë¦ŃíĦ°ë":12469,"ë¶Ģëĵ¤":12470,"ë¶Ģë¶Ħ":12471,"Ġë´Ĳì£¼ëĿ¼":12472,"Ġëħ¸ëŀĺê°Ģ":12473,"ì§Ħëĵ¯":12474,"ì°¸ê¸°":12475,"ì§¤ë¡ľ":12476,"Ġë²Įìĸ´":12477,"Ġìĭ¤ë²Ħ":12478,"Ġìķħë§Ī":12479,"ĠíĨłíĨł":12480,"Ġ1500":12481,"ĠëĭµìĿ´":12482,"ĠëĨĴìķĦ":12483,"ĠëĨĴìĿĮ":12484,"ë¶Ħë§ĮìĹĲ":12485,"Ġãħĭãħĭãħĭãħĭãħĭãħĭãħĭãħĭãħĭãħĭãħĭãħĭãħĭãħĭãħĭãħĭãħĭãħĭãħĭãħĭãħĭãħĭãħĭãħĭãħĭãħĭãħĭãħĭãħĭãħĭ":12486,"Ġíķ´ìķ¼ê²łëĭ¤":12487,"<<<":12488,"Ġë¹łëĶ°":12489,"Ġíŀĺëĵ¬":12490,"ëŁ¬ìĭľìķĦ":12491,"ãħ£ë°ľ":12492,"ł·ëĭ¤":12493,"Ġìĸ´ëĶ¨ë":12494,"Ġì»¤ìĹ¬ìĽĮ":12495,"ìĨĶë¡ľ":12496,"ìľłëĭĪíı¼":12497,"ëĿ¼ìĿ´ìĺ¨":12498,"íĲŀ":12499,"ìĹĲìĸ´íĮŁ":12500,"ë¹Ħë¹ĦíģĲ":12501,"ê°łìłģìľ¼ë¡ľ":12502,"§ŀì¶Ķê¸°":12503,"Ġê°ľëħ¸ìŀ¼":12504,"¦¬ë²Ħëĵľ":12505,"MA":12506,"YP":12507,"et":12508,"ver":12509,"ëĮĲ":12510,"ĸłë":12511,"ĸ¨ë":12512,"ì§ĢëĭĪê¹Į":12513,"ê³łìĤ¬":12514,"ìķĦì£¼":12515,"¦¬ìŀĲ":12516,"ê¸°ê´Ģ":12517,"ëį°ëĵľ":12518,"ê²ĮìĭľíĮĲ":12519,"ĠìĿ´ê²¼":12520,"ìĿ¸ìĿĺ":12521,"ì°°ë":12522,"Ġê³°":12523,"ìļĶìłķ":12524,"ìĥģëĤ¨ìŀĲ":12525,"ìłķê·ľ":12526,"Ġì¡·":12527,"íħĲëıĦ":12528,"ìĦ±ìŀ¥":12529,"¬¸ê³ł":12530,"ê¸ĪìĿ´":12531,"ì½ķ":12532,"¨¹ìĹĪëĭ¤":12533,"ì¼Īë¦¬":12534,"ìĹ¬ëĭĪ":12535,"ìŀĪëĬĶê²Į":12536,"ìŀĪìĿĦê¹Į":12537,"ĠìĬ¤ìľĦì¹ĺ":12538,"ĠëŃĲê¸Ķ":12539,"ĠëĮĢìŀ¥":12540,"Ġë¬´ê´Ģ":12541,"ê°Ģëĵľ":12542,"íĶ¼ìŀĲ":12543,"ê¸ĢìŀĲ":12544,"íķłìĪĺìŀĪ":12545,"Ġê¸°ëĭ¤":12546,"ìĦłì°©":12547,"ìĭľëĿ½":12548,"íĭ°ëĬĶ":12549,"ë§ĪìĿĮ":12550,"ê¸īìŀĦ":12551,"Ġì¤ĳëĶ©":12552,"ì±Ī":12553,"Ġì¡°ìĿ´":12554,"ĠíĸĪëĥĲ":12555,"Ġë©¤":12556,"íĸīìĭľ":12557,"ëĤĺë³´ëĭ¤":12558,"ìĸµê²½":12559,"§Ŀê²ľ":12560,"ıĦë°°":12561,"ìºĲëĵ¤":12562,"ĠëıĻëĤ¨ìķĦ":12563,"Ġë¶Ģë°ĺ":12564,"ìľłëıĦ":12565,"íĤ¤ë¯¸":12566,"§ĲìĿ´ìķ¼":12567,"Ġë³ĳìĭłìķĦ":12568,"ëįĺìłĦ":12569,"Ĩĵìľ¼ë©´":12570,"Ġì¹´ìĿ´":12571,"Ġë§¤ìļ°":12572,"ìĭ¤ë²Ħ":12573,"ĠìķĪëĤĺìĺ¤ëĬĶ":12574,"ĠìĪľìĦľ":12575,"ìĨĲìłĪ":12576,"Ġëª©ìĨĮë":12577,"Ġê²ľìĿ´":12578,"Ġì°¾ëĬĶ":12579,"Ġì²łêµ¬ê°Ģ":12580,"ĠíĻĶìĿ´íĮħ":12581,"Ġëªħìŀĳ":12582,"Ġëŀĸ":12583,"Ġê¶ģê¸Īíķ´":12584,"ìĤ´ëł¤":12585,"ĠëķľìĹĲ":12586,"íķĺìŀĲê³ł":12587,"Ġì¶©ìłĦ":12588,"ĠìĿĺë¬¸":12589,"Ġãħĭãħĭãħĭãħĭãħĭãħĭãħĭãħĭãħĭãħĭãħĭãħĭãħĭãħĭãħĭãħĭãħĭãħĭãħĭãħĭãħĭ":12590,"ì¶©ëĵ¤ìĿĢ":12591,"Ġëļ±":12592,"ìķŀìĹĲ":12593,"Ġíį¼ìĦŃ":12594,"Ġë¬¼ëĥĲ":12595,"ê°¤ëŁ¬ëĵ¤ìķĦ":12596,"ĠìĿ´ìģĺê²Į":12597,"ãħįãħĩãħĪ":12598,"ĠëĬ¥êµŃ":12599,"ë§¤ë§¤":12600,"ĠìĿµìĪĻ":12601,"Ġ2008":12602,"Ġë©´ìĥģ":12603,"ĠìĿĮë£Į":12604,"ĠìĬ¬ëĿ¼":12605,"ì³¤ëĬĶëį°":12606,"ëħĲê¸Ģë":12607,"Ġìĸ´ëĶ¨":12608,"ìĹĦë§Īê°Ģ":12609,"ĠëĤĻìĦľ":12610,"ë§Įìķ½ìĹĲ":12611,"Ġë²¤ì¹ĺ":12612,"ĠìĿ´ìĸ´íı°":12613,"íĹ¬ìĬ¤ìŀ¥":12614,"Ġë¸¨ìķ±":12615,"Ġê·łìĹ´":12616,"95":12617,"pn":12618,"ëī´ë":12619,"ĦĲë":12620,"ì§ĢìĦ±":12621,"ê±°íĴĪ":12622,"ìĥĽ":12623,"łëį°":12624,"ëį°ìĿ´":12625,"Ġì¢ĩ":12626,"ĠìķĦíĶĪ":12627,"ħ¸ìĬ¤":12628,"ìłķëıĻìĽĲ":12629,"ìłľíĴĪ":12630,"Ġê°ĢëıĦ":12631,"ĠìķĪìĵ°":12632,"ĠìĹĨìķłë":12633,"Ġì¢ĭê¸´":12634,"Ġì¢ĭëħ¸":12635,"Ġì¢ĭëįĺëį°":12636,"ê·¸ë¦°":12637,"Ŀ¼ëĦ¤":12638,"ìķĦë¨¸":12639,"ìĺ¤ëİħ":12640,"Ġìĺ¤ìłĦ":12641,"ĠìĬ¤íĭ°":12642,"ĠëŃĲíķĺëħ¸":12643,"ĠìĤ¬ë£Į":12644,"íĸĪìĬµëĭĪëĭ¤":12645,"Ġìĸ´ì°Įë":12646,"ìŀĳìĹĲ":12647,"êµ¬ë¯¸":12648,"Ġíķľê²Į":12649,"Ġì¢Ĩì°½":12650,"ìłĲì°¨":12651,"Ġê°Ļìķł":12652,"¥´ì¸ł":12653,"ì¡°ëĭŃ":12654,"ĠìŀĺìŀĲ":12655,"ĠëĶ¥":12656,"ìĹ°ê¸°":12657,"ì¤Ģì§Ģ":12658,"ì¢Ĩê°ĻëĦ¤":12659,"Ġì¤ĳë¶ķìĿ´":12660,"Ġì¤ĳê°ĦìĹĲ":12661,"ìŀ¬ê°Ģ":12662,"ìļ´ìłĦ":12663,"íķľëĤ¨ëĵ¤":12664,"ì§Īê¹Į":12665,"ìĬ¹ìĹ½":12666,"ìĻĶìĬµëĭĪëĭ¤":12667,"ìĨ¡íķ©ëĭĪëĭ¤":12668,"ì°½ê¸°":12669,"ĠëĤ¨ìĦ±":12670,"ê¶¤":12671,"Ġë¬¸ìŀ¬ìķĻ":12672,"ëĿ¼ìļ´ëĵľ":12673,"Ġë°Ľìķĺ":12674,"Ġë°ĽìķĦìĦľ":12675,"Ġì§Ģê¸ĪìĿ´":12676,"Ġë°Ķë³´":12677,"ĠìµľìķħìĿĺ":12678,"ĠíĿĶëĵ¤":12679,"ĠëĲĺëĬĶê±°ìŀĦ":12680,"ĠíĴĭ":12681,"Ġìĭľë¹Ħ":12682,"Ġë§ĮëĤ¨":12683,"ĠëıĻìĿ¼":12684,"Ġë¶Ģëĵ¤":12685,"ĠëĿ¼íķĮ":12686,"Ġíı¬íħĲ":12687,"ë³ĳìĽĲ":12688,"Ġê¸ĢìĦŃ":12689,"ì§ĢìķĬìĿĦê¹Į":12690,"ë²Īíĺ¸":12691,"£¨ë£¨ë":12692,"ĠëĶĶìŀĲ":12693,"ĠìĿ´ìĥģíķĺê²Į":12694,"Ġìĭ¬ìŀ¥":12695,"ëŀ¨":12696,"íĶĮëŁ¬":12697,"ĠìĿ´ëŁ°ê±´":12698,"Ġìŀ¬íĥķ":12699,"Ġìĭ¸ìļ°ë©´":12700,"Ġìķłë¹Ħ":12701,"Ġë¶ĦìľĦ":12702,"ĠíĦ°ì§Ģë©´":12703,"íĢ´ê°Ģ":12704,"Ġíķłë§Įíķľ":12705,"Ġë°±íį¼":12706,"ĶĶëĶĶ":12707,"Ġë§ĽìĿ´":12708,"Ġë§Ľì§ĳ":12709,"ë°ĺê³ł":12710,"Ġëª°ëŀĺ":12711,"ì¦ĪëıĦ":12712,"ìĿĺëĮĢ":12713,"Ġê·¸ë§Įíķĺê³ł":12714,"Ġë³¼ëķĮ":12715,"ł¸ëįĺ":12716,"~~~~~":12717,"ĠíŀĪíĬ¸":12718,"ine":12719,"ì£Ħìķħ":12720,"íį¼ë¡ľ":12721,"Ġãħĭãħĭãħĭãħĭãħĭãħĭãħĭãħĭãħĭãħĭãħĭãħĭãħĭãħĭãħĭãħĭãħĭãħĭãħĭãħĭãħĭãħĭãħĭãħĭãħĭ":12722,"ĠìŀĪëĭ¤ë©´":12723,"ĠìĬ¬íį¼":12724,"Ġìĵ¸ëª¨":12725,"ëļľ":12726,"Ġìį¨ìķ¼":12727,"Ġì¦Ŀëªħ":12728,"ë©Ķë¦°ìĿ´":12729,"Ġë¹¨ë¦¬ë":12730,"ĠìĹ¬ìŀĲëĵ¤ìĿ´":12731,"Ġì¥¬ìĸ¼":12732,"Ġìĸ´ëĬĲìłķëıĦìŀĦ":12733,"Ġìĸ´ëĶ§":12734,"ë¬ĺ":12735,"ëĿ¼ìĿ¸ìĹħ":12736,"ìĦłìĥĿëĭĺ":12737,"Ġê²¬ìłľ":12738,"ìŀĺìĥĿê¸´":12739,"ëŀľëį¤":12740,"Ġê³±ì°½":12741,"Ġë°Ķê¾¸ë©´":12742,"ĠëħĲê¸Ģë":12743,"Ġìĺ¤ëĤĺíĻĢ":12744,"ë¹ĦìĬĪë°Ķíģ¬":12745,"ĠíĪ¬íĳľìĿ¸ì¦ĿìĻĶXIA":12746,"VE":12747,"bs":12748,"¹ķ":12749,"ĠëİĢ":12750,"ìĿ´ìłľë":12751,"ìĦĢë":12752,"¬ëĿ¼":12753,"ê±´ëĭ´":12754,"ìĬ¥":12755,"ìĿ´ë¶Ħ":12756,"ìĿ´ëĶ´":12757,"íķĺìĭľ":12758,"ëĭĪìĸ´":12759,"ĮĢìĭł":12760,"ĠìĿ´ì¤ĳ":12761,"ìĭľìĥĿ":12762,"ì²¸":12763,"ìŀĲì§¤":12764,"ìĤ¬ì§Ħë":12765,"ìĿ¼ì§Ģ":12766,"Ġê¸Ģë¦¬":12767,"ĠìķĪê³ł":12768,"Ġê·¸ëŀ¬":12769,"íĥĢê²©":12770,"ĠëĦĲë":12771,"ĠìĤ¬ê·":12772,"Ġìłķìķ¡":12773,"Ġë³´ìĿ´ëĥĲ":12774,"Ġêµ´":12775,"ìº¬ë£¨ë":12776,"íŀĪê¸°":12777,"ìĺ¤ë¥´ëĬĶ":12778,"Ġíķĺëł¤ë©´":12779,"Ġê°ľìĤ¬ê¸°":12780,"Ġ37":12781,"Ġëª»ê°Ģ":12782,"êµŃíŀĻ":12783,"ĠìĤ¬ë¥´íı¬ìŀĲ":12784,"íħĮìĬ¬ëĿ¼":12785,"Ġìĸ´ìĿ´ê°Ģ":12786,"ìĺģì§ĢìłĲ":12787,"£¨ìĬ¤":12788,"ê°Ģë¦¬ê°Ģ":12789,"ĠìĹ¬ê³łëĶ©":12790,"ĠíķĺëĭĪ":12791,"Ġê³µì¤ĳ":12792,"Ġê¸°íĥĢ":12793,"ìĹ°íŀĪ":12794,"³´ë¡ľ":12795,"¯¸ëŀĳ":12796,"Ġ58":12797,"°©ìĿ´":12798,"ĠìĥģëĮĢë":12799,"Ġë°©íĮ¨":12800,"Ġë°©ë¬¸":12801,"Ġë§Īìļ°ìĬ¤":12802,"Ġë¹Ħì£¼ìĸ¼":12803,"íĶĦíĶ¼":12804,"Ġê³łê¸ī":12805,"Ġë¨¹ìĸ´ìķ¼":12806,"Ġìĺ¤ë¥´ëĬĶ":12807,"ê¶Ī":12808,"ìĤ´ìĹĲ":12809,"Ġëª¨íĹĺ":12810,"ì¿µ":12811,"ì¿°ë":12812,"Ġëªĩìĭľ":12813,"ĠëªĩìŀĦ":12814,"Ġê²½ìłľ":12815,"ëĤ¨ì¹ľ":12816,"ê°ľë©´":12817,"ì§ĢëĪĦ":12818,"Ġ85":12819,"Ġë¶ĪíĥĢ":12820,"ĠìĭľëıĦ":12821,"²Ħëł¤":12822,"²Ħë¦¬ê³ł":12823,"ıĦëĲĺëĥĲ":12824,"ĠìķĮëŀĮ":12825,"Ġëį°ë¯¸ì§Ģ":12826,"ĠíĬ¸ë£¨":12827,"¶Ģë¶Ģ":12828,"Ġëĭ¨ìĪľ":12829,"ê±¸ë¦°":12830,"Ġë¯¸ëª¨":12831,"Ġë§Įëĵ¤ê¸°":12832,"ĠëıĦë°°ë":12833,"íĺ¸ëŀĳ":12834,"ëıĮìĿ´":12835,"ë¶ĢëıĻìĤ°":12836,"Ġë¬¸ìłľëĬĶ":12837,"Ġê´Ģìĭ¬ë":12838,"ìĿ¸ê±°ì§Ģ":12839,"ĠìĮĪë":12840,"ĠíķĻìĥĿ":12841,"ê·¼ë¬´":12842,"¶ķìĿ´ëĵ¤ìĿ´":12843,"ìª½ìĿ´":12844,"ŁŃíĤ¤":12845,"íķŃìĥģ":12846,"íķłê¹ĮìļĶ":12847,"Ġíĺ¸ëĤłëĳĲ":12848,"Ġíİĺê·¸ìĺ¤":12849,"ĠìĽĶê´ĳ":12850,"Ġì²ŃìĨĮ":12851,"Ġë§Ĳë³µ":12852,"íĥľë¡ľ":12853,"ĠëħĲê¸ĢìĹĲ":12854,"ĠìºĲìĬ¤íĦ°":12855,"íģ¬ë¡ľìķĦ":12856,"Ġìķłë¯¸ëĵ¤":12857,"ìĹ¬ì¹ľê°¤":12858,"Ġë¶ĪìĮįíķ´":12859,"ìĪŃìķĦ":12860,"ìłĲëĮĢ":12861,"Ġì¢ĮíĮĮ":12862,"ĠìļĶëĦ¤":12863,"ìĤ¬ëŀĮëĵ¤ìĿĢ":12864,"ìŀĳëħĦìĹĲ":12865,"Ġkt":12866,"Ġë²ĮëłĪ":12867,"Ġìĸ´ëĸ»ê²ĮëĲ¨":12868,"Ġìĩ¼ë¯¸":12869,"ì´ĪëĶ©ëķĮ":12870,"Ġë°©ìĸ´êµ¬":12871,"ĠíĻĶìŀ¥ìĭ¤":12872,"ROCKingRollA":12873,"37":12874,"fc":12875,"ĠãĦ²":12876,"ìĹĲëĭ¤ê°Ģ":12877,"ìĿ´ëªħ":12878,"¦¬ì¹ĺ":12879,"ê¸°ìĿ¸":12880,"Ŀ¼íĥĢ":12881,"ĠìĿ´ê²Įë":12882,"ĠìĿ´íĮĢ":12883,"ìĿ¸íģĲ":12884,"ìĤ¬ìķ¼":12885,"ìĤ¬ìŀĲ":12886,"ìĿ¼ê±°":12887,"¹Ħíĭ°":12888,"ìĿĺìĽĲ":12889,"ê°¤ì§Ī":12890,"¦¬ë¸Ķ":12891,"¶ĢíĦ°ë":12892,"¶ĢíĦ´":12893,"ëĤĺê°Ģ":12894,"ĠìķĪíķĺëĦ¤":12895,"ìĸ´ëĨĵê³ł":12896,"Ł¬ìĦľ":12897,"íĥĢìŀħ":12898,"ìĥĿì¡´":12899,"²Īì§¸":12900,"Ġë³´ìĿ´":12901,"ìºİ":12902,"Ġì§Ģê°ĳ":12903,"ìĤ¬ë£Į":12904,"êµŃìŀ¥":12905,"ĠìĭľìłĲ":12906,"ĠìĬ¤ìľĻ":12907,"Ĥĺë´Ħ":12908,"ĠëŃĲëĭĪ":12909,"ëĵ¤ìĿĺ":12910,"ĠëĮĢíķľë¯¼êµŃ":12911,"íħĮëĭĪ":12912,"ìĺģíķĺ":12913,"ĠìĿ¸ê¸°ê°Ģ":12914,"ĠìĹ¬ìŀ¥":12915,"ìľĦíķ´":12916,"Ġê¸°ê´´":12917,"Ġë§Īíķ¸":12918,"Ġì½¤ë³´":12919,"ìĨĮë°Ķë":12920,"Ġë§ŀì¶°ë":12921,"Ġ47":12922,"Ġì¡°ìĤ¬":12923,"ìķ¼ë§Ī":12924,"íĢµ":12925,"ĠìĿ¼ìĦŃ":12926,"ìĹŃìłĦ":12927,"ìłĦë§Į":12928,"ĠíĨ¤":12929,"ëıĦë°°":12930,"ìīĲë":12931,"ĠëłĪìłĦ":12932,"Ġê°¤íĥŃ":12933,"Ġ61":12934,"Ġë°Ķëĭ¥":12935,"ë°°ê²½":12936,"ë³µêµ¬":12937,"Ġíķłê±°ë©´":12938,"Ġìŀĺë§ŀ":12939,"Ġì¢ĭìķĦíķĺëĬĶëį°":12940,"ìĺ¬ëĵ¯":12941,"ìŀĸìĸ´":12942,"ĠíĥĢìĿ´":12943,"ĠíĥĢìŀĦ":12944,"ĠìŀĲë£Į":12945,"Ġì£½ìĿĢ":12946,"Ġë©Ķì¢Ĩ":12947,"ìŀ¬ëĵ¤":12948,"Ġë½ĳê³ł":12949,"ĠìĹĲìĦľ":12950,"ë°Ķëĭ¥":12951,"ê±¸ëłĪ":12952,"ëĵľëłĪìĿ´íģ¬":12953,"íĶĮë¦ŃìĬ¤":12954,"Ġìĭ¸ìĿ¸":12955,"ë²ĦìłĦ":12956,"ì§Īë¡ľ":12957,"Ġíķ©ë¦¬":12958,"ĠìłĳëĬĶëĭ¤":12959,"ëĭ´ì£¼":12960,"ĠëķĮëĬĶ":12961,"ħ¸ë¬´":12962,"ê°ĶìĿĮ":12963,"ĠíķľêµŃìĿ¸":12964,"ì²´ëł¥":12965,"íĿĳíĿĳ":12966,"ìª½ìĿĢ":12967,"ì»¤ë®¤":12968,"ĠìķĦìĿ´ëıĮë":12969,"Ġë³ĢíĻĶ":12970,"ìĹłì¹´":12971,"ëĬĲë°Ķ":12972,"ë´īì¤Ģ":12973,"íĥľë¯¼":12974,"Ġ160":12975,"Ġìĵ¸ë§Įíķľ":12976,"ĠëĤ®ë°©":12977,"³Ģê²½":12978,"ê·¸ëŁ¬ëĭĪê¹Į":12979,"Ġì§¤ëħĢ":12980,"ĠìķĦë¬´ê±°ëĤĺ":12981,"Ġë¹Įëł¤":12982,"ĠëĸłëĤĺìĦľ":12983,"ĠëĤĺìĻĢìķ¼":12984,"Ġì¸Ħ":12985,"Ġë¬´ìĦŃëĦ¤":12986,"Ġìĸ´ìļ¸ë¦¬ëĬĶ":12987,"Ġëª¬ìĬ¤íĦ°":12988,"ĠíķĦìĪĺìŀĦ":12989,"Ġì¡°ìĦłì¡±":12990,"ĠíĿĲë¦Ħ":12991,"ê¿Ģë²Į":12992,"ëĿłëĭĪ":12993,"ĠìĤ¬ìłĦìĺĪìķ½":12994,"ìŀĲì£¼êµŃë°©":12995,"ëĤļìĭľ":12996,"ĠìĽĥìĿĮë²¨":12997,"ROCKingRollAgainìĭłê³¡íĻįë³´ìĻĶíĤ¹ë¡¤":12998,"62":12999,"AY":13000,"ro":13001,"te":13002,"ľëĭ¤":13003,"ŃĲëħ¸":13004,"Ġë±ĥ":13005,"ìĿ´ìĿĢìĥģ":13006,"íķĺìľĦ":13007,"Ġê°¸":13008,"ìĬ¤íİĺ":13009,"ìĬ¤ìľĦì¹ĺ":13010,"ê¹Įëĵ¤":13011,"ë§ĪëĤĺ":13012,"íķľìĬ¹ìļ°":13013,"ë°´ëĵľ":13014,"ĠìķĦê°Ģë¦¬":13015,"íķ´ìĦ¤":13016,"ìĥģìĿĦ":13017,"ĠëĤĺìĿĢê±°":13018,"Ġê°Ģë³¸":13019,"ì¹ĺì§Ģ":13020,"ì¹ĺê²Į":13021,"ë§ĮìĿ´":13022,"ê·¸ëł¤":13023,"ê·¸ë¦½":13024,"ĠìķĪë¯¿":13025,"ĠìķĪëĮĲ":13026,"ê°ľìŀ¥":13027,"ê°ľìĶ¹":13028,"Ġìĺ¤ì¤Į":13029,"Ġê°ľìĦł":13030,"Ġê°ľìĥĪëģ¼ëĵ¤ìķĦ":13031,"ìĦ¸ëĬĶ":13032,"ìĹĨê¸Ķ":13033,"ĠëĲłëĵ¯":13034,"ì»¨ë":13035,"ĠëŃĲìĶĢ":13036,"Ġíķľìĭľê°Ħ":13037,"©Ķìĺ¤ëĦ¤":13038,"ĠìĪĺíĺ¸":13039,"ìĹ°ìłĦ":13040,"íģ¬íĬ¸":13041,"ìĭľë¥¼":13042,"ìĭľëĦĪì§Ģ":13043,"Ġ59":13044,"Ġìĸ´ëĸ¤ë":13045,"ì±Įë¦°ì§Ģ":13046,"Ġê³łìĸĳ":13047,"íĶĦë§ģ":13048,"Ġìĺ¬ë¦°ëĭ¤":13049,"ëħĦìłĦìĹĲ":13050,"ĠìĥĿê°ģìĿĦ":13051,"ìĨ¡ê°Ģ":13052,"íķĻê¸°":13053,"ĠíķľëĮĢ":13054,"íĶĮìĿĢ":13055,"Ġë¬¸íĮĮ":13056,"ì¹´ëĿ¼":13057,"íķłëł¤ê³ł":13058,"ìĶ¨ê°Ģ":13059,"ìį¸ë":13060,"Ġìµľìķħ":13061,"Ġíķ´ë³´ë":13062,"ë°°ê¸°":13063,"ĠìĤ´ê³ł":13064,"ë§ĲìĿ´":13065,"ì´Īê¸°":13066,"ĠíĶ¼ê°¤ì§ĳ":13067,"ĠãħħãħĤãħĭãħĭ":13068,"Ġë§ĿíĸĪëĦ¤":13069,"Ġë²Ħì¦Ī":13070,"Ġë¶Ģë¥´ëĬĶ":13071,"Ġë¨¸ìĦł":13072,"ì§ķìĸ´":13073,"ĠëĶĶì½Ķ":13074,"ìĦ¸ë¡ľ":13075,"Ġëĭ¨íĨ¡":13076,"ĠìĦľê±´ì°½":13077,"ì¡±êµ¬":13078,"ĠëĵĢëĿ¼íķľ":13079,"Ġìĵ°ëłĪ":13080,"Ġê¹Įì§Ī":13081,"ìķĦëĭĪëĦ¤":13082,"Ġê´ľì°®ëĥĲ":13083,"ë§ĮìĽĲì§ľë¦¬":13084,"ª¨ëľ¨":13085,"ĠìĬ¤ë§ĪíĬ¸":13086,"ìľ¤ìĦĿ":13087,"Ġê°ģê°ľ":13088,"ëĬĲê¿Ī":13089,"Ġíĸīìłķ":13090,"Ġê³¼ìŀĲ":13091,"ê°Īëĵ¯":13092,"³´ëĬĶê±°":13093,"ëĲĲëĦ¤":13094,"ê·¹ê¸°":13095,"ëĳĲê³ł":13096,"Ġìļ´ìłĦ":13097,"Ġì»¤ë¯¸ìħĺ":13098,"Ġëĸ¨ìĸ´ì§Ĳ":13099,"ĠíĶ¼ë°©":13100,"ê³Ħë¥¼":13101,"ì¶©ëĵ¤ìĿ´":13102,"Ġë£¨ë¦¬ìĽ¹":13103,"ìļ±ìĿ´":13104,"Ġì±ĶíĶ¼ìĸ¸":13105,"ĠíĻ©ê¸Ī":13106,"íİĻíĬ¸":13107,"ìķĦëĬĶìĤ¬ëŀĮ":13108,"Ġì¢ĭìĿĢê±°ìŀĦ":13109,"Ġë°°ë©Ķ":13110,"ĠëıĦìĻĢì£¼ìĦ¸ìļĶ":13111,"Ġì¢Įíĳľ":13112,"ĠíħĮë§Ī":13113,"§Įíģ¼ìĿĢ":13114,"ë¹ħíŀĪíĬ¸":13115,"Ġê°ĸëĭ¤":13116,"ĠìłķëıĦëĬĶ":13117,"íŀĮê±°":13118,"ĠíĭĢëĶ±ëĵ¤":13119,"ª°ìĿ´":13120,"ìĿ´ìģ¨":13121,"ãĦ±ãĦ±ãĦ±ãĦ±ãĦ±ãĦ±ãĦ±ãĦ±":13122,"ê¶ģê¸Īíķľê²Į":13123,"ãħĩãħĩãħĩãħĩãħĩãħĩãħĩãħĩ":13124,"Ġìŀ¼ë¯¼":13125,"Ġë°°ê²½íĻĶë©´":13126,"Ġì¶©ë¶ĦíŀĪ":13127,"ìĭłë°ľìĸ¸":13128,"bb":13129,"hz":13130,"©ëĭĪëĭ¤":13131,"ëľ¸":13132,"ĤĦ":13133,"ŃĲë":13134,"ëĬĴ":13135,"ľë¯¸":13136,"Ġìķİ":13137,"Ĥĺìĺ¤ëĬĶ":13138,"ìĿĢìļ°":13139,"Ġì§ł":13140,"ĠìĺĽ":13141,"íķľëĭ¬":13142,"Ġëĭ¨ë°ľ":13143,"ìĭľíĤ¤ë©´":13144,"ìĿ¸ìłĲ":13145,"ìĿ¸ê±°ê°ĻìĿĮ":13146,"íķĺëł¤ëĤĺ":13147,"ĠìĻĶëĦ¤":13148,"¬´ìĭľ":13149,"ìłķê°Ģ":13150,"ìĿ¼ì°į":13151,"ì£¼ê±°":13152,"Ġê°Ģìłķ":13153,"ĠìķĪíķľëĭ¤":13154,"ĶĶìĬ¤":13155,"ìĹ¬ìķ¼":13156,"ĠìķĪë³´ë":13157,"íŀĪëĬĶê±°":13158,"ìĺ¤ëĿ¼ê³ł":13159,"Ġ31":13160,"ĠìĬ¤íĶ¼":13161,"ê²łì£ł":13162,"ëĵ¤ê³ł":13163,"ìĺģìĹħ":13164,"ĠìĥĿìĿ¼ë":13165,"ĠíķľìĭĿ":13166,"Ġíķľê°ķ":13167,"Ġì¢ĨëĲĺ":13168,"ê°Ģë£¨":13169,"©ĶìĿ¼":13170,"ê²½ìĥģëıĦ":13171,"Ġê¸°íļį":13172,"ĠìŀĺíķĺëĥĲ":13173,"ĠìŀĲì²´ëĬĶ":13174,"Ġë³´ë¹Ķ":13175,"Ġë²¨ë":13176,"Ġìĭłì§Ģ":13177,"ëį´ë²Ħ":13178,"Ġë´ĩ":13179,"Ġ49":13180,"ì±ķ":13181,"íı¬íķ¨":13182,"ìķ¼ëĲł":13183,"ìĦ¤ì´Ŀ":13184,"ĠìĦ±ê³¼":13185,"ìĹŃê²¨":13186,"ë¶Ħíĥķ":13187,"Ġì§ĢëĤľ":13188,"ì¹´ëŀĳ":13189,"ì¢ĭëħ¸":13190,"ĠìķĬëħ¸":13191,"íĮĲëĭ¤":13192,"ĠëıĦìłĢíŀĪ":13193,"ìķĪëĤ¨":13194,"ì°¬ìĽĲ":13195,"Ġíķ´ë³¼ê¹Į":13196,"ĠìĺĪìĸ¸":13197,"ê°ľë´ī":13198,"ì¹ĺëŀĳ":13199,"ĠìĤ´ìĿ¸ë§Ī":13200,"Ġìŀĺë½ĳ":13201,"ĠíĴĪë":13202,"ĠíĶ¼ìĬ¤":13203,"ĠìļĶêµ¬":13204,"Ġë§Įëĵ¬":13205,"ĠëĿ¼ëĬĶ":13206,"Ġìį¼ëĬĶëį°":13207,"Ġì£½ìĿ´ê³ł":13208,"ĠëĬĲë°Ķ":13209,"ìĦ¸ëł¥":13210,"ĲëĿ¼ìĿ´":13211,"ëĭ¬ë¦¬":13212,"ë²ĦíĬ¼":13213,"ìĭ¤ëĵľ":13214,"Ġê°Īê¹Į":13215,"Ġì°¸ê°Ģ":13216,"Ġë°±ìĭł":13217,"§İìĿ´ë":13218,"ĠíĮĮëŀĢ":13219,"ĠìĻĦê²°":13220,"ìŁģìĿ´ëĵ¤":13221,"ë§¤ìĿ¼":13222,"Ġì¤Ħìĸ´ë":13223,"ĠêµĲíĨµ":13224,"íĹ¤íĹ¤":13225,"ë¶Īê°Ģ":13226,"ĪëıĦìļ°":13227,"Ġë§¤ë²Ī":13228,"Ġë¯¸ì³¤ë":13229,"ëĳł":13230,"Ġì²ĺë¨¹":13231,"ëĮĦ":13232,"ë¡ľë¹Īì¹ĺ":13233,"íļĮë³µ":13234,"íķĺê¸´íķ¨":13235,"ì¤¬ëĭ¤":13236,"Ġë²łìĿ´":13237,"ê°ĶëĥĲ":13238,"Ġìį¨ìĦľ":13239,"ìĽłìĿĮ":13240,"ìĿ¸ì¤ĦìķĮ":13241,"ĠëĨĪëĵ¤ìĿ´":13242,"°°ëĵ¤":13243,"ìĤ¬ëŀĮëĵ¤ìĿ´":13244,"ìĹ¬ìŀĲëŀĳ":13245,"íı´ëĵľ":13246,"ìĭľíĤ¤ëĬĶ":13247,"Ġê¶Įë":13248,"ĠíĮĿëĭĪëĭ¤":13249,"Ġë»ĺ":13250,"ĠìĨĮê°ľíĮħ":13251,"ĠëĦĺëª¨":13252,"ëĦ¥ìĬ¨":13253,"·Ķë¹¡":13254,"ĠëĮĢê¹¨ë¬¸":13255,"Ġì»¤ë¦¬ìĸ´":13256,"?\"\"":13257,"CT":13258,"ew":13259,"feat":13260,"¬ëĬĶëį°":13261,"ë¡¯":13262,"Ġ!!":13263,"ģĬ":13264,"Ĳı":13265,"ĳìĿ´":13266,"ê¸©":13267,"ìłĪëĮĢ":13268,"ìĦ¬ë":13269,"ìĺĮ":13270,"ìķĦìļĶ":13271,"¦¬ìĹĲ":13272,"Ŀ¼ëĬĶê±°":13273,"Ġë§ł":13274,"Ġë³´ëĭ¤ë":13275,"ìĤ¬ê¸°ëĦ¤":13276,"ìĥģíĺĦ":13277,"ìĿ¼ê°Ħ":13278,"ëıĦìłĦ":13279,"ìłĦìĥĿ":13280,"êµ¬ê¸Ģ":13281,"ĠìķĪíĸĪìľ¼ë©´":13282,"ĠìķĪìĵ°ëĬĶ":13283,"ìĭłìłķíĻĺ":13284,"ìĿ¸ë§Į":13285,"ìĿ¸ë¶Ħ":13286,"Ġìļ±":13287,"ĠíĮį":13288,"ìĸ´ë³¸":13289,"ìĸ´ë´Ħ":13290,"ĠìĿ´ëŁ´":13291,"ĠìľĪ":13292,"ĠìĹĨìĹĪìĿĮ":13293,"Ł¬ê°Ħëĭ¤":13294,"ìĶ¸":13295,"ê±´ê°ĢìļĶ":13296,"ìŀĪëĭ¤ê³ł":13297,"Ġì¹¸ëĤĺ":13298,"Ġê°ľíĦ¸ë":13299,"Ġì§ĢìĨį":13300,"ì§ģê´Ģ":13301,"ìħľë":13302,"Ġì§Ħì§ľìŀĦ":13303,"Ĥĺëĵ¤":13304,"ìŀĲëĥĲ":13305,"ìĺģìĿĢ":13306,"ëı¼ë":13307,"ê²½ìļ°":13308,"Ġê³µìĨį":13309,"ĠìŀĲìľĦ":13310,"ëĤ´ìĹŃ":13311,"ë²ħ":13312,"ìĦłê±°":13313,"íĭ°ì¦Ī":13314,"ë¦¬ëĬĶ":13315,"Ġ56":13316,"ëĭ¹ìŀ¥":13317,"ìĿ¼ë³¸ë":13318,"ìŀ¬ëĬĶ":13319,"ìĽĮìļĶ":13320,"Ġë¨¹ëĬĶëį°":13321,"ë¡ľìĸĦ":13322,"ì°½ìĿ´":13323,"ìłľëŀĳ":13324,"Ġë¬¸íĻĶ":13325,"Ġë¬¸íķĻ":13326,"íį¼ìĦŃ":13327,"íĨłë§ī":13328,"íĨłë§ĪíĨł":13329,"íķľê±°ê°ĻìĿĢëį°":13330,"Ĥ¨ìĿĢ":13331,"íģ¬ë¡ľë":13332,"Ġíķ´ë´Ĳ":13333,"Ġ64":13334,"Ġìĭ¤íĹĺ":13335,"Ĥ´ìļ©":13336,"íĻ©íĿ¬ì°¬":13337,"Ġë°ķìłķìĪĺ":13338,"Ġë°ķì£¼íĻį":13339,"ĠíķłìĪĺ":13340,"íĻĶë¬¸":13341,"ĠíĻķìŀ¥":13342,"ë°ķì£¼íĻį":13343,"ĠìļĶì¦":13344,"Ġë§Įë§Į":13345,"ìķħë¬¼ê³ł":13346,"ĠìĹŃíķł":13347,"ãħĭãħĭãħĭãħĭãħĭãħĭãħĭãħĭãħĭãħĭãħĭãħĭãħĭãħĭãħĭãħĭãħĭãħĭãħĭ":13348,"ĠìłĲíĶĦ":13349,"ìĶ¨ë°ľìĶ¨ë°ľ":13350,"ĠìŀĲë§ī":13351,"Ġì£½ìĿĦ":13352,"ìŀĺíķ´":13353,"ĠìĨĮë°Ķë":13354,"Ġì£¼ë¨¹":13355,"Ġëĭ¨íĨ¡ë°©":13356,"íĥĪê°¤":13357,"Ġìĭ¬íķĺëĦ¤":13358,"Ġë§¤ìŀ¥":13359,"Ġì»¤ìĬ¤íħĢ":13360,"ë§Įë¶ķìĿ´":13361,"ë¯¸ëĤĺ":13362,"ãħģãħģ":13363,"ĠãħĨãħİãħĮãħĬ":13364,"ĠëĤĺìĻĶìĿĮ":13365,"íĹ¤ì¹´íħĮ":13366,"Ġëĭ¤ìĿĮìĹĲ":13367,"ĠëĶ°ì§Ģë©´":13368,"140":13369,"Ġë¶Ļìĸ´":13370,"Ġë¶Ļìľ¼ë©´":13371,"Ġpvp":13372,"Ġì§ĢëŀĦíķĺëĬĶ":13373,"ĠíĮĶë¡ľìļ°":13374,"Ġë§ĲëĿ¼ê³ł":13375,"ìķ°ëĵ¤ìĿ´":13376,"§¤ëŁī":13377,"Ġì¤ĳìļĶíķ¨":13378,"ê²¼ëĥĲ":13379,"ìĬ¤íħŁ":13380,"ĥĪëĬĶëį°":13381,"Ġì¹ľêµ¬ëŀĳ":13382,"Ġê·¸ëŀĺíĶĦ":13383,"Ġë¯¸ìķĪíķ´":13384,"ĠëĳĲë²Īì§¸":13385,"ĠìĽ¨ìĿ´ë²Ħ":13386,"ĠëĴ¤ë¡ľ":13387,"Ġê²¨ëĵľëŀĳìĿ´":13388,"Ġê³µíĨµìłĲ":13389,"EA":13390,"FA":13391,"ht":13392,"ëĭ¨ë°ľ":13393,"ìĿ´ì²ĺ":13394,"ê°Ģìķ¼ì§Ģ":13395,"íķĺêµ¬ëĤĺ":13396,"íķĺê²łìĬµëĭĪëĭ¤":13397,"Ġìŀī":13398,"ê¸°ìĥĿ":13399,"Ġì§Ħë¡ľ":13400,"ê¹Ĳë":13401,"íķľê²ĥ":13402,"ìķ¼ê°Ģ":13403,"ìĭľíĻĺ":13404,"ë°ĺê¸°":13405,"ë³Ħë¡ľ":13406,"ĠìķĦì¸ł":13407,"ĠìķĦëĭ¤ë":13408,"ìĺ¤ëĭĪê¹Į":13409,"ì£¼ê°¤":13410,"ì¶ĺë":13411,"ìłĦìļ©":13412,"ìĦ±ìķł":13413,"ì½§":13414,"Ġê·¸ë¶Ħ":13415,"ëĬĶê±°ìķĦëĭĺ":13416,"ĠìĿ´ë¥Ļ":13417,"ìĹ¬ê³łìĥĿ":13418,"²ĦëĬĶ":13419,"ĠìĤ¬ëĬĶëį°":13420,"Ŀ¼ë¯¸":13421,"ĠìķĪë³´ê³ł":13422,"ĠìķĪëĲł":13423,"ĠìĽ¬ë":13424,"ìĺ¤ëĢ¨":13425,"Ġê°ľì§ĢëŀĦ":13426,"ĠìĭľìľĦ":13427,"ĠìĭľíĤ¨":13428,"ìħ°":13429,"ĠíĥĲë":13430,"ëıĮëĵ¤":13431,"ëıĮë¦¬":13432,"ì¹´ì¹´":13433,"ĠìĹ¬ê¸´":13434,"Ġíķĺì°¨":13435,"ĠìĪĺìĤ¬ëłĮ":13436,"Ġê¸°ìĤ¬ë":13437,"Ġë§İìľ¼ë©´":13438,"ìĦłìĪĺëĵ¤":13439,"íĭ°ìĬ¤":13440,"Ġê±°ìĬ¬ë":13441,"ìĬ¹ë¶Ģ":13442,"Ġì£¼ì§Ģ":13443,"Ġì£¼ê³µ":13444,"ë¶Ģì²ľ":13445,"ĠìĿ¼ê°Ħ":13446,"Ġëĭ¤ë¥´ê²Į":13447,"Ġê·¸ê±¸":13448,"ìģł":13449,"ë¶ĦìĦĿ":13450,"ìĿĦëķĮë§Īëĭ¤":13451,"íĪ¬ìŀĲ":13452,"ĠìĹ°ìĺĪ":13453,"ĠíĿł":13454,"ĠãħĪê°Ļ":13455,"íķľëĭ¤ë©´":13456,"Ġë°ķê³ł":13457,"Ġë°ķë¯¼":13458,"ê²Ģìĥī":13459,"ë°ķìłķ":13460,"ë°ķìĽĲìĪľ":13461,"ìĿ´ë²Īëĭ¬":13462,"Ġìķ¼ìĭĿ":13463,"Ġìĵ°ì§Ģ":13464,"ĠìĦ¸ìĿ¼":13465,"ĠíĸĪìĹĪëĬĶëį°":13466,"°ĽëĦ¤":13467,"Ġëĵ¤ìĸ´ê°ĢìĦľ":13468,"Ġê¹Ģìŀ¬":13469,"ë©¤ë²Ħ":13470,"ĠìŀĲëĤ³ëĮĢ":13471,"Ġë³¸ìĦŃ":13472,"Ġì°įìĿĮ":13473,"íĶ½ëļ«":13474,"ìĮĵ":13475,"Ġì£¼ëĦ¤":13476,"³ĳìĭłë":13477,"ìķĺëįĶëĭĪ":13478,"íĸĪëĭ¤ëĬĶ":13479,"ìĻķêµ´":13480,"ĠìĭľìŀĳíķĺëĬĶ":13481,"Ġëĸ¡ìĿ¸ì§Ģ":13482,"Ġì§ģìłĦ":13483,"ĠìĿ´ë²Īìĭľì¦Į":13484,"ĠìĿ´ìģľëį°":13485,"Ġê´ľì°®ì§Ģ":13486,"ĳĲë©´":13487,"Ġë§ĽìŀĪìĿĮ":13488,"ìĸ¸ëįĶ":13489,"ĠíıŃìĤ¬":13490,"ĠìĮĺ":13491,"Ġì²ľì²ľíŀĪ":13492,"ìĬ¬ë¡¯":13493,"ĠíĶ¼ëİģ":13494,"ê²½ê¸°ëıĦ":13495,"ë´īíĢ´ëĵ¤":13496,"Ħĺìĸ´":13497,"ĠíĻĺìŀ¥":13498,"Ġãħĭãħĭãħĭãħĭãħĭãħĭãħĭãħĭãħĭãħĭãħĭãħĭãħĭãħĭãħĭãħĭãħĭãħĭãħĭãħĭãħĭãħĭãħĭãħĭãħĭãħĭãħĭ":13499,"ĠíĳľìłĪ":13500,"ĠìĬ¬íĶĪ":13501,"ìĹĳìĬ¤":13502,"ĠíĥĳìĬ¹":13503,"Ġëĭ´ì£¼":13504,"ĠìĻ¸ëª¨ë":13505,"ĠìłķìĭłëĤĺê°Ī":13506,"Ħë¦¬íķĢ":13507,"Ġìĥģê´ĢìĹĨìĿĮ":13508,"ìŃī":13509,"Ġë¶ģíķľ":13510,"ĠìĿ´ìģľê±°":13511,"ĠìĦ¸ê³Ħê´Ģ":13512,"ì¡ĭëĦ¤":13513,"íķľíħĮë§Į":13514,"¦¼ëıĦ":13515,"ìŀ¼ë¯¼":13516,"Ġì°¬ìĸĳ":13517,"Ġìļ°ë¦¬ëĤĺëĿ¼":13518,"Ġë¸ĿëĶ±":13519,"ëŁ¬ë¸Ķë¦¬ì¦Ī":13520,"ĠìĮīê°ĢëĬ¥":13521,"Ġìį¸ëĦ¤":13522,"µ¸ë¹Ħ":13523,"ê°ĢëĶĶìĸ¸":13524,"em":13525,"hat":13526,"yp":13527,"ĦĮë":13528,"ĮĶ":13529,"ŀĹ":13530,"ìŀłë":13531,"ĺëħ¸":13532,"ê°ĢìĹĲ":13533,"ìĿ´ëįĶë":13534,"Įë©´":13535,"ìļľ":13536,"ê¸°ìŀĦ":13537,"ê¸°ìŀĲ":13538,"Ġì§¸":13539,"Ġìĺ¹":13540,"íķľê±´ëį°":13541,"íĥ¬ë":13542,"ĠìĿ´ìłĦ":13543,"Ġëĭĺ":13544,"ìŀĲì²´":13545,"ĠìķĦìĭ¸":13546,"ìľ¼ë©´ë":13547,"ħ¸ê°Ģ":13548,"ìĪĺê¸ī":13549,"Ġê±´ëį°":13550,"ł¤ëĭ¤ê°Ģ":13551,"¨¹ì§Ģ":13552,"ĠìľĦë¡ľ":13553,"ĠìĹĨìĹĪëĬĶëį°":13554,"ì¼¯":13555,"ìļ°íĿ¥":13556,"ìĻĢìļ°":13557,"ìŀĪê¸Ķ":13558,"ìŀĪìĸ´ìļĶ":13559,"Ġìĺ¤íĶ¼":13560,"Ġìĺ¤íģĺ":13561,"Ġê°ľìĥĪëģ¼ìķ¼":13562,"Ġëª»ë³¸":13563,"Ġê¹»":13564,"ìłģìļ©":13565,"íķ´ë³´ë":13566,"ĠëĮĢíķ´ìĦľ":13567,"ãħ¡ë°ľ":13568,"Ġíķľê°Ģ":13569,"¥´íĬ¸":13570,"íĮĮíģ¬":13571,"íķłì¤Ħ":13572,"ê¸´ê¸ī":13573,"ì²ľìŀ¬":13574,"ë§Īìļ°ìĬ¤":13575,"ê³ĦëĬĶ":13576,"Ġìĥģë°Ľ":13577,"Ġì¡°íļĮ":13578,"ë¡ľì¼ĵ":13579,"ìĿ´ëĭ¤ë":13580,"ì°½ëĵ¤":13581,"ĠìłĢíıīê°Ģ":13582,"Ġìĺ¤ë²Ħë":13583,"ĠëĤ¨ìŀĲëĵ¤":13584,"Ġê²ĮìĿ´ëĵ¤ìķĦ":13585,"ĠìķĮìķĺëĦ¤":13586,"íĪ¬êµ¬":13587,"§ĪëłµëĦ¤":13588,"ê±¸ê³ł":13589,"ê´Ģìĭ¬":13590,"ë§ĪëĮĢ":13591,"ìķ½ê°Ħ":13592,"ì¹ĺë§Į":13593,"ĠìĶ¨ë°ľìķĦ":13594,"ìĿ´ëĿ¼ìĿ´íĬ¸":13595,"ë³´ëĿ¼ë":13596,"ĠíŀĲ":13597,"ëıĻìĥĿ":13598,"°ľëĿ¼":13599,"ìĻľì¼Ģ":13600,"Ġêµ¬ëĭ¤":13601,"Ġë°°íı¬":13602,"ìľłë§Īê°¤":13603,"Ġê¹Ģì¢ħ":13604,"ãħĭãħĭãħĭãħĭãħĭãħĭãħĭãħĭãħĭãħĭãħĭãħĭãħĭãħĭãħĭãħĭãħĭãħĭãħĭãħĭãħĭãħĭãħĭãħĭãħĭãħĭ":13605,"Ġê¸ĢìĹĲ":13606,"ìĿĳì§Ģ":13607,"ê²¨ìļ¸":13608,"ĠìłĦëŀµ":13609,"Ġëĭ¹íķĺëĬĶ":13610,"ê¸°ëĿ¼ê³ł":13611,"ëª¨ìĬµ":13612,"ĠìķĦëĭĻ":13613,"¹ĦëıĦ":13614,"ĨĪìĿĺ":13615,"ëįĺê±°":13616,"íĶĮëĿ¼":13617,"Ĥ´ëĿ¼":13618,"ë©Ķìĭľ":13619,"ĠëĶ±ëĮĢ":13620,"ê¸¸ëĵ¯":13621,"Ġìķ½ëıħëĮĢ":13622,"íĸĩìĸ´":13623,"Ġë§ĽìŀĪëĬĶ":13624,"Ġì¢Ĩê°ĻìķĦ":13625,"ĠíĻĶëĤĺ":13626,"Ġë¨¸ë¦¬ìĥī":13627,"Ġê¶ģê¸ĪíķĺëĦ¤":13628,"íĮ¬íĭ°":13629,"ĠìĦ¸ëĮĢ":13630,"ĠìĦ¸ëĿ¼íķĮ":13631,"ĠìĿ¼ë³¸ìĸ´":13632,"Ġì¼ĢíĭĢ":13633,"Ġëĸ¨ìĸ´ì§Ħ":13634,"Ġìĸ´ëĬĲìłķëıĦë":13635,"ë¶Ħëªħ":13636,"Ġãħĭãħĭãħĭãħĭãħĭãħĭãħĭãħĭãħĭãħĭãħĭãħĭãħĭãħĭãħĭãħĭãħĭãħĭãħĭãħĭãħĭãħĭãħĭ":13637,"ĠëĤ¨ìŀĲëĬĶ":13638,"ë²Ķì£Ħ":13639,"ĠìĹ°ëıĻ":13640,"ì¡ĮëĤĺ":13641,"Ġë¹ĮëŁ°":13642,"Ġdlc":13643,"ĠìĽĥê¸°ëħ¸":13644,"íĤ¬ëłĪ":13645,"ĠëŀŃíģ¬":13646,"ĠìĥĿê°ģíķ´ë³´ë©´":13647,"ëĭ¤ë©´ìĦľ":13648,"Ġë»¥":13649,"ì©ĮëĬĶ":13650,"ìķĦë§Īì¡´":13651,"ĠìķĻë§Ŀ":13652,"íĿĻìĪĺìłĢ":13653,"ìĥĮë°ķ":13654,"Ġë©¤ë²Ħëĵ¤":13655,"64":13656,"LC":13657,"ct":13658,"Ĩ§":13659,"ĲĲëĥĲ":13660,"łĲ":13661,"Ġë·°ë":13662,"ìĹĪëįĶëĭĪ":13663,"ìĿ´ì¯¤":13664,"íķĺìĭľê¸Ķ":13665,"íķĺìħ¨":13666,"ìľķ":13667,"ê¸°ëĭ¤ë":13668,"Ġë§ĪëĤĺ":13669,"Ġë§ĺë§ĪíĨµ":13670,"ìĬ¤ìľĦ":13671,"ìĬ¤ì¹´ëĶĶ":13672,"ĠìĹ³":13673,"ìĸ´íĶĮ":13674,"ê¹ľë":13675,"ĠìĿ´ê²¨":13676,"ìķ¼ëĬĶ":13677,"ìĭľíĶ¼":13678,"ìĿ¸ê±¸":13679,"íĶĪë":13680,"ĠìķĦìĿ´ìĬ¤íģ¬ë¦¼":13681,"íķ´ì§ĢëĬĶ":13682,"ìĿ¼ìłķ":13683,"ìĿ¼ì£¼":13684,"ì£¼ìĭľê¸Ķ":13685,"ìĿĦì§Ģ":13686,"ì§Ħìļ°":13687,"ê°¤íĶĮ":13688,"ìĦ±ëıĦ":13689,"ĠìķĪíĮĶë":13690,"ìĿ¸ë²¤":13691,"ìľłê°Ģ":13692,"³´ìĿ´ëĬĶ":13693,"Ŀ¼ë©´ìĦľ":13694,"ê°ģìĿ´":13695,"Ġìłķëĭµ":13696,"Ġë³´ìĭľê¸Ķ":13697,"Ġ34":13698,"Ġì²¼":13699,"ì§ģìĽĲ":13700,"ê³µëªħ":13701,"ĠìĶĮ":13702,"ìŀĲëĿ¼ê³ł":13703,"Ġìĸ´ìĥī":13704,"ĠìĿ¸êµ¬":13705,"Ġì¢ĨëĳĲ":13706,"Ġê°ĻìĿ´ë":13707,"ê²½ìŁģ":13708,"ì¡°ê³ĦíĺĦ":13709,"íķłê±¸":13710,"ĠìĪĺê°ķìĭłì²Ń":13711,"ĠìŀĲê·¹":13712,"ì²ľìĤ¬":13713,"¬¼ìĿĢ":13714,"Ġë§ĪìĿ¼ë¦¬ì§Ģ":13715,"Ġê³łêµ¬ë§Ī":13716,"Ġê±°ìłĪ":13717,"Ġì£¼ê°Ħ":13718,"Ġë¨¹ê¸°":13719,"ĠíĸĦë²Ħê±°":13720,"Ġëĵ¤ìĹĪëĬĶëį°":13721,"Ġìĸ¸ìłł":13722,"Ġë§ĲìĿ¸ëį°":13723,"ëĦĲ":13724,"íķĻëħĦ":13725,"Ġëĭ¤ë¥´ëĦ¤":13726,"ĠëĤ¨ìķĺëĦ¤":13727,"Ġìĭľë°ľãħĭãħĭ":13728,"ĠìķĬìķĺëĤĺ":13729,"ĠíĹĪë²Į":13730,"ĠëłĪìĿ´ëĵľë":13731,"Ġìŀ¥ìĽĲìĺģ":13732,"ë§ĪëĦĮ":13733,"íģ¬ëĦ¤":13734,"ĠëĲĺê²łëĦ¤":13735,"Ġìĸ´ëĶĶëĭ¤":13736,"ĠìĶ¹ìĬ´":13737,"ë¬¸ìŀ¬ìķĻ":13738,"Ġê°ķëĭ¤ëĭĪìĹĺ":13739,"ĠìĭľëĮĢê°Ģ":13740,"ĠìķĮë©´":13741,"ìĺ¬ë¦¬ëĬĶ":13742,"Ġë¨¸ê°Ī":13743,"Ġë§Īë¦¬":13744,"ê±°ê°Ļì§Ģ":13745,"ĠíĸĪì§Ģ":13746,"ì§ĢìķĬëħ¸":13747,"¡łìĿĢ":13748,"Ġì°įëĬĶ":13749,"Ġìŀ¡ëĬĶ":13750,"ĠíĶĦëŀĳ":13751,"Ġê°ĲìŀĲ":13752,"ĠìĦľìĸĳ":13753,"íĮĮëłī":13754,"ëŀĦ":13755,"Ġëĺ¥ì°¬":13756,"ê²Łìĸ´":13757,"íĺģëªħ":13758,"Ġê¹ĮëĬĶê±°":13759,"ì§Īë§Į":13760,"Ġì½Ķë¡ľëĤĺë":13761,"ìĹĩìĸ´":13762,"ìķĦëĭĪëħ¸":13763,"ìĬ´ê³ł":13764,"ëĭ´íļĮ":13765,"ĠëķĮê°Ģ":13766,"ĠíıŃì¥Ĳ":13767,"ìľ¤ìłķ":13768,"Ġëĵ±ê¸ī":13769,"Ġì³Ĳë°ľë":13770,"ìĥ¤ìĿ´":13771,"ĠíķĻì¹ĺì»¤":13772,"Ġãħİãħİãħİ":13773,"Ġì¥Ĳë":13774,"Ġë¸Ķë£¨ë":13775,"ìĤ´ë©´ìĦľ":13776,"ìĬ¤íĬ¸ëĿ¼":13777,"Ġì¡´ê²½":13778,"ĠíįĦ":13779,"Ġìļ°ìĬ¹íķĺë©´":13780,"Ġëĸ¨ìĸ´ì§ĢëĬĶ":13781,"ì§Ģë§ĪìħĪ":13782,"ëĲĺê³ł":13783,"ĨĪëĵ¤ìĿĢ":13784,"Ġë¬¼ëŁī":13785,"ĠíĮĲìłķ":13786,"Ġì¦Ŀê°Ģ":13787,"Ġì°¨ë³Ħ":13788,"Ġëĭ´ìĽĲ":13789,"ĠìĿ´ë²¤íĬ¸ë":13790,"Ġê±´ëĵ¤":13791,"íĹĮíĦ°":13792,"ìĥĿê°ģíķ´ë³´ë©´":13793,"Ġì§ĪíĪ¬":13794,"ĠìŁģ":13795,"ìĸ´ëĶĶìĦľ":13796,"Ġê´´ë¬¼":13797,"Ġë£¨ë¨¸":13798,"íĺ¹íķľ":13799,"ĠìĿ¼ëŁ¬ëłĪ":13800,"Ġì°Įì°Į":13801,"Ġë¶Ģëª¨ëĭĺ":13802,"íĲģ":13803,"ĠìĥĮë°ķ":13804,"ëł¤ë©´":13805,"ĠìĤĲë¶Ģ":13806,"ĠíŀĪë¡ľìĿ¸":13807,"Ġê°ľì©ĮëĦ¤":13808,"ìĬ¤íĬ¸ë¦¬ë¨¸":13809,"Ġê¼¬ëĿ¼ë°ķ":13810,"hd":13811,"wa":13812,"¥´ëĭĪê¹Į":13813,"§¡":13814,"³¶":13815,"³´ëĭ":13816,"ħĲë":13817,"ıĦë¡ľ":13818,"Ġë±Ģ":13819,"ì§ł":13820,"ìĿ´íĽĦ":13821,"ê°ĢìĿ´":13822,"ì§ĢëĤľ":13823,"ê³łìĸĳ":13824,"ĦëıĦ":13825,"ĠìĿĦ":13826,"ìĹĲëĮĢ":13827,"ìĹĲëĶĶ":13828,"ìĿ´ë¸Ĳ":13829,"Ġë§ĺë":13830,"Ġë³Ģë":13831,"ìĭľì¦Ī":13832,"ì°¸ë":13833,"íķĺëĤ´":13834,"íķ´ìłģ":13835,"ìĺ¤íģĺ":13836,"ìĿ¼ìĸ´ëĤĺ":13837,"ì£¼ê°Ħ":13838,"íķĺëĬĶìĿ´ìľł":13839,"ì¦Īë¡ľ":13840,"ĠëĤĺê°Ħ":13841,"ĠëĤĺìĿ´ê°Ģ":13842,"Ġê²¸":13843,"ìłĦìĨĮë¯¸":13844,"êµ¬ëĭ¤":13845,"´ëĭ´ë":13846,"ìĭłìĦŃ":13847,"ĠìĻľíķ¨":13848,"Ġê·¸ë¦¬ëĬĶ":13849,"ë§Įê°ľ":13850,"ì¤ĳìĦŃ":13851,"Ŀ¼ë¥¼":13852,"ĠìķĪëĲĺëħ¸":13853,"Ġ38":13854,"Ġì¤ĺëıĦ":13855,"ê³µê¸°ìĹħ":13856,"ĠìĭľíĮĶ":13857,"Ĥĺë¦°":13858,"íĸĪìĿĦê¹Į":13859,"íĸĪìĸ´ìļĶ":13860,"êµ¬ëĥĲ":13861,"Ġì¢Ĩë°ķ":13862,"Ġíķĺê¼¬":13863,"ìĹ°ìĭľ":13864,"ìĭľëħ¸":13865,"Ġë²Ķë":13866,"ë§ĪìĿ¼ë¦¬ì§Ģ":13867,"ãĦ±ãħĭãħĭ":13868,"Ġíķ´ì¤¬ìľ¼ë©´":13869,"Ġìĥģëł¬":13870,"ëħ¸ê°Ģëĭ¤":13871,"ëį¥":13872,"Ġë§ŀìľ¼ë©´":13873,"íı¬ê°Ģ":13874,"íĶĦë©Ķ":13875,"Ġì»¬ë":13876,"íķľëħĢ":13877,"Ġì£¼ê°Ģ":13878,"ìŀħìĿĢ":13879,"ë¡ľìĬ¤íĬ¸ìķĦíģ¬":13880,"ãĦ´ãħĩ":13881,"ãĦ´ãħĩãħĪ":13882,"ê¹Ģìŀ¬":13883,"ê¹ĢìļĶíķľ":13884,"ĠìĦ±ìĿ¸":13885,"Ġãħħãħħãħħãħħãħħ":13886,"íĨłëĬĶ":13887,"Ġë¬¸ìŀ¬":13888,"ì§¤ìĿĢ":13889,"íİĺìĿ´íĬ¸":13890,"Ġê³Ħì¢Į":13891,"ìĥĪíĤ¤":13892,"Ġê°ľëª»":13893,"íĻĶëŀĳ":13894,"Ġãħĩãħĩãħĩ":13895,"Ķ±ìĿ´":13896,"ë©Ģë":13897,"Ġë¦¬ìķ¡ìħĺ":13898,"Ġë©Ķìĭľ":13899,"ìŀĺìŀĲ":13900,"ì¶ķìłľ":13901,"Ġì°įìĹĪëĬĶëį°":13902,"ì°įìĸ´":13903,"ĠíĽĦìŀ¥":13904,"Ġë³ĳìĭłìĿ´":13905,"Ġëĺ¥ëĥĲ":13906,"111":13907,"ê±°ë¦¼":13908,"Ġë§īì°¨":13909,"ëĭ¤ëįĶëĭĪ":13910,"Ġê¾¼ë§ł":13911,"ĠìķĪëĤĺìĺ¤ëĤĺ":13912,"ëĸł":13913,"ĠíĨµìĿ¼":13914,"ĠìĤ¼ì§Ħ":13915,"ĠëĤłì¡°":13916,"ĠìĬ¤ë§Ī":13917,"ãħģãĦ±":13918,"ĠíķĻêµĲë":13919,"ì¦Īë³¼":13920,"ëĬĲê¸Īë§Ī":13921,"ì»·ìĿ´":13922,"íĪ¬ë¦¬":13923,"íĪ¬ëªħ":13924,"ĠëĤ«ëĦ¤":13925,"ĠëĶ°ìŀĩ":13926,"Ġì»¤ë§Ī":13927,"ë¶ĦëıĻìķĪ":13928,"ìĿ¼ë³¸ìĿĢ":13929,"Ġëª¸ìĹĲ":13930,"Ġë¯¸ì¹ľìĥĪëģ¼":13931,"Ġëį°ëł¤ìĻĢ":13932,"êµĲë³´":13933,"ëħĦëĵ¤ìķĦ":13934,"ëĨĪìĿ´":13935,"Ġê°Ģìł¸ìĺ´":13936,"²łë¦¬":13937,"Ġìłķìĭłì°¨ë":13938,"íķĦëĵľ":13939,"Ġì§Īì§Ī":13940,"ĠìĪ¨ì°¸":13941,"ìĬ¤íı¬ì¸ł":13942,"ìĹ¬ìŀĲëĵ¤ìĿ´":13943,"ĠëĨĵê³ł":13944,"Ġìĸ´ì©Įëĭ¤":13945,"Ġìĸ´ì©Įêµ¬":13946,"íĹ¬ë¦°ìĿ´":13947,"íı´ëĿ¼":13948,"ê²ĥê°Ļìķł":13949,"ë¸Ŀíį¼":13950,"ãħĵãħĵãħĵãħĵ":13951,"Ġê·Ģìĭłê°ĻìĿ´":13952,"ìĤ´ì§ĿìĦ¤ë":13953,"¯¼ëĵ¤":13954,"¿Ķ":13955,"Īë§Į":13956,"ëĭ¤íĸī":13957,"ê±°ìķĦëĭĺ":13958,"ıĦê°Ģ":13959,"¤ëĵ¤":13960,"ĠíķĢ":13961,"ìĬ¤íĶ¼ë¦¿":13962,"ìĪ«":13963,"Ġëĭ¦":13964,"ìĭľì¦Įë":13965,"ì²¼ë":13966,"ìĥģìĿĺ":13967,"ìłķìķ¡":13968,"íķĺëĬĶëĵ¯":13969,"ìłĦê³µ":13970,"íĦ´ë":13971,"ĠìķĪìĶĢ":13972,
[...]
