#version: 0.2 - Trained by `huggingface/tokenizers`
Ġ ì
Ġ ë
ì Ŀ
ã ħ
ãħ ĭ
í ķ
ê °
ãħĭ ãħĭ
´ ë
ë ĭ
ë Ĭ
ì ķ
ì §
ëĬ Ķ
ì Ĺ
ìĿ ´
ì ŀ
Ġ ê
Ġ í
ĺ ë
ê ³
Ī ë
ê° Ģ
ê ¸
ì ł
¼ ë
ì Ħ
ì ĭ
¸ ë
¬ ë
ê ²
ì§ Ģ
ê ±
ľ ë
ëĭ ¤
Ġì ķ
į °
ê³ ł
Ĥ ĺ
Ħ ë
ãħĭãħĭ ãħĭãħĭ
ì ĸ
Ġì Ŀ
ì ĺ
ìĹ Ĳ
ì Ĭ
ìĿ ´ë
ê± °
ĵ ¤
íķ ĺ
ìĿ Ģ
ìķ Ħ
Į ë
ı Ħ
ì ļ
¤ ë
Ġì ŀ
¦ ¬
© ´
ì ľ
Ħ ¤
ê¸ °
Ĳ ë
ì ĥ
ĥ Ĳ
Ŀ ¼
ł ë
Ģ ë
¡ ľ
ìĦ ľ
. .
ì Ĥ
Ġ íķ
Ķ ë
Ġë §
ê µ
¨ ë
ì ¹
Ġ ê°
ìĬ ¤
Ġì ł
Ġì Ĺ
ë į°
ê ·
ìĸ ´
Ġì §
ê ¹
Ġì ĭ
ë §
Ġì ĸ
ì Ľ
ã Ħ
° ë
ê² Į
ëĭ Ī
Ġë °
ì Ī
Ġì ĺ
ìĿ Į
Į Ģ
íķ ľ
í ĥ
ì ¤
ëĬĶ ëį°
ĠìĿ ´
ìķ ¼
í Ĭ
Ġë ĭ
Ġë ³
ìĭ ľ
ìĿ ¸
ì £
ì Ļ
í Į
ì Ĩ
ì °
í ĺ
í Ķ
ìŀ Ħ
Ġì ¢
Ġì Ĥ
? ?
ë °
Ġë ª
íķ ĺë
ë Ĥ
ì ²
ìŀ Ĳ
Ġì Ļ
Ġê ·
ê¹ Į
ë ³
Ġìķ Ħ
íķ ´
Ġë Ĥ
ìľ ¼ë
ìĺ ¤
í Ļ
ì ¢
ìĤ ¬
Ġê ³
ìļ Ķ
ħ ¸
Ġ ãħ
¬ ´
Ġ 1
Ġì ĥ
ĵ ľ
ìĥ ģ
ìĪ ĺ
ìł ķ
ìĿ ¼
ìł ľ
íĬ ¸
ì£ ¼
íķĺ ëĬĶ
ãħĭãħĭãħĭãħĭ ãħĭãħĭãħĭãħĭ
¹ Ħ
¯ ¸
Ġì Ħ
ì ¦
í ĸ
ë ıĦ
ìĿ Ħ
Ġì ¡
ìŀ ¥
ìĿ ĺ
§ Į
Ġê ¸
° ľ
ì§ Ħ
ŀ ĳ
Ġë Ĥĺ
ê° ¤
ì ¡
Ġ ãħĭãħĭ
Ġë Ń
¦ ¬ë
Ġê ²
ê° Ļ
ãħ ĩ
ì ¶
¶ Ģ
ìł Ħ
ë Ħ¤
Ġ ê°Ģ
í ħ
í Ĥ
í Ħ
êµ ¬
ìĦ ±
í Ĩ
í ģ
ł Ī
´ë ĭ
íķ ¨
§ Ī
ë Ĥĺ
í ı
¬ ¸
ãĦ ·
Ġìķ Ī
ê¸ Ī
ìĭ ł
ì ½
ìĿ ¸ë
ĠìĻ ľ
Ġì ļ
Ġí Į
Ġìĸ ´ë
Ġì Ĭ
Ġëĭ ¤
ìĹĲ ìĦľ
í ŀ
Ġê ±
Ķ Ķ
Ġê· ¸ë
ë ĥĲ
ł ¤
ìĽ Ĳ
ì¹ ĺ
ì§ ľ
ëĬĶ ê±°
ìĸ ´ë
ĠìĿ ´ë
ı Ļ
Ġìŀ Ī
Ġ 2
Ġì§ Ħ
Ġì °
¨ ¹
ë§ Į
Ġì ľ
ĠìĹ Ĩ
¼ë į°
ŀ ĺ
Īë ģ
Ġì¢ ĭ
í ĭ
Ł ¬
Ġì Ī
ìľ ł
ì ¼
íĥ Ģ
ì¤ ĳ
Ġë Ħ
ëĬ ĺ
³ ´
ìľ¼ë ¡ľ
.. .
ìĹ ¬
ì Ķ
ê· ¸ë
ê° Ħ
Ġì Ĩ
ë ª
² Ħ
ĠìĤ ¬
ìļ °
Ġ ãħĭãħĭãħĭãħĭ
Ŀ ¼ë
ìĻ Ģ
íĦ °
ë ħ
ĵ ľë
ìĥ Ŀ
ê± ´
ê° ģ
² Ī
´ë Ĥĺ
Ġìķ Īë
ķ Į
ìŀ Ī
í İ
ãĦ ¹
ë ¶
į Ķ
Ġë ¹
Ġìł ķ
Ġë³ ´
ìķ Ħë
ê· ¼ëį°
Ġì £
Ġì Ľ
Ġê µ
Ġë ¶
ì º
Ġì ¹
íŀ Ī
ìľ¼ë ©´
ħ ãħ
ê° ľ
! !
ìĺ ¤ë
Ġìĺ ¤
Ġíķ ĺë
Ġê° ľ
ìķ Ī
Ġë ı
ìĿ¸ë į°
Ġ 3
0 0
Ġì§ Ģ
Ġëª »
ìĤ ¬ë
êµ Ń
íķĺ ê³ł
Ġì ²
ì§ ģ
Ġí Ļ
ìĦ ¸
Ġì ¤
ê³ µ
Ġí Ķ
ë ĮĢ
Ġìĭ ľ
ì ħ
ìĥ Īëģ
íĻ Ķ
ľë °ľ
ãĦ· ãĦ·
Ġì Ķ
ìĹ Ĩ
Ġì§Ħ ì§ľ
Ġë Ĳ
į ĺ
Ġê ¹
ì »
Ġì¡ ´ëĤĺ
ìĭ Ŀ
ĠìĬ ¤
Ġì ¶
Ĥ ĺë
ĠëŃ Ĳ
ê² ł
ëĭ Īë
Ġí ĺ
ĠìĤ ¬ë
ìł ģ
ìĹ Ī
ãĦ¹ ãħĩ
íķ ´ë
ë ĵ¤
Ġë ĮĢ
íĸ Ī
¥ ¼
Ġí ĥ
íħ Į
ŀ Į
ìŀ Ĳë
Ġìĸ ´
ìĺ ģ
¯ ¼
Ĭ Ķ
ìŀ ĳ
ë ı
¦ °
Ġë Ī
ì¹ ´
Ġí ı
ê ´
£ ¨
ãħ ¡
ãħĭãħĭ ãħĭ
Ġìĥ Ŀ
ì¢ Ģ
íķĺë ©´
êµ ¬ë
Ġíķ ľ
ĠìĿ ¸
° Ķ
ëĭ ĺ
ìł Ģ
Ġì¢ Ĩ
ë³ ´
ìĺ¤ ëĬĺ
ìł Ĳ
Ġê° Ļ
´ëĭ ¤
ìĨ Į
ì¼ Ģ
Į Ģë
Ġë ¬´
ê°Ģ ë
© Ķ
ĠìĹ ¬
í Ĺ
ê² ½
íĶ ¼
¥ ´
ì¡ °
ê¸ Ģ
ìľ Ħ
Ġ íķĺ
íĮ Į
íķ ł
ĺë ıĦ
íĬ ¸ë
ĵ ¯
ĠìĪ ĺ
ì£ ¼ë
Ġê³ µ
ëĬ ¥
Ġê¸ °
ëĭ ¨
ì° ¨
Ł °
ìĭ ¤
Ġìŀ ĺ
Ġìŀ Ĳ
ëĤ ´
í ļ
Ġí Ĭ
łë ĵ¤
ê¸ ´
¡ ľë
ë ²
Ġë Ķ
¸ Į
ìĹ °
ì½ Ķ
Ġ ãĦ¹ãħĩ
ìĬ ¤ë
ê¸ Ķ
Ġãħĭãħĭ ãħĭ
íĺ ķ
ìĭ ¶
p g
¼ë ĵ¤
íģ ¬
ì¤ Ģ
j pg
³ ´ë
Ġë³ ´ë
Ġë§ İ
ì¦ Ī
íĤ ¤
íĺ ¸
ë ł
ìĦ ł
ìĭ ľë
íĭ °
¯ ¸ë
Ġì ĵ
Ł ¬ë
ìļ ©
ìĹ ħ
Ġìľ ł
¨ ¸
ì² ľ
Ī ¬
ë ¦¬
Ġë ²
¬ ´ë
¬ ¼
ìĭ ¬
ì ´
Ġë ĺ
Ġ 5
ĠëĦ Īë
ê°Ļ ìĿĢ
ê° Ĳ
Ġë ħ
ĥ ¥
Ġê ´
ë§ Ī
Ŀ¼ ê³ł
í Ŀ
ãĦ ±
ê³ Ħ
Ġìĸ´ë ĸ
ëĭĪ ê¹Į
ëĭĪ ëĭ¤
ì¢ Ĩ
ìĿ´ë ŀĳ
ê¸ ī
Ġì¢ Ģ
Ġíķ ´
ê· ¸
ìĨ į
° ©
ê° ķ
Ġë ¯¸
Ġìĥ ģ
Ġë° ©
ê¹Į ì§Ģ
Ġë§ Ī
ëĭ¤ ê³ł
ë ¹
ëĭ ¹
¨ë °ľ
ĠëĤ ´
ãħ ł
ĠìĿ´ ê±°
Ġìĭ ł
ë ħ¸
ìĿ ¼ë
Ġ ãħĭãħĭãħĭãħĭãħĭãħĭãħĭãħĭ
ë į
Ġë ĸ
Ġì¤ ĳ
Ġë ´
Ġë įĶ
ìŀ ¬
ĺë ĵ¤
Ĳ ĺ
ìĽ Į
ë° ©
ê² ©
Ġì ½
ìķ ł
¦ ¼
ìķ ĺ
ìĨ Įë
Ġìł Ħ
Ġë ¹Ħ
í Ľ
ãħ¡ ãħ¡
Ġë§ ŀ
íĶ Ħ
íķľ íħĮ
ìķĦ ëĭĪ
³ ¸
Īë Ĥĺ
Ġë Ĭ
Ġ 4
í ĳ
ì ±
Ġê³ ł
íı ¬
ìļ ´
íĶ Ħë
Ġì »
ê ¾
íķ ľë
Īë Ħ¤
í į
Ġì¡ °
ì² ´
ķ Įë
ì§ Ī
Ġê± °
v s
ê³ ¼
ë ©´
ê² ĥ
ìĬ ¹
ì ĵ
ìļ °ë
ìķ ¼ë
Ġì£ ¼
¥ ´ë
íĺ Ħ
ê³ł ìĭ¶
Ġí ģ
ĠëĦĪë ¬´
Ġë ¨¹
Īë ĥĲ
ìĿ´ ê±°
Ġí ĸ
Ġë ĵ¤
íĨ µ
ĠëĪ Ħ
µ ľ
Ġìł ľ
Ġìĺ ¬ë
ëħ Ħ
ìŀ ħ
ëĤ ľ
ì¹ ľ
ĠìĥĿ ê°ģ
íķĺë Ħ¤
í Ģ
Ġìķ Ħë
Ġí Ĥ
ìĻ Ķ
Įë ĵ¤
ë ¡ľ
ãĦ ´
ìĥĪëģ ¼
ìĨ ¡
ìĿ´ë ĭ
íķĺëĬĶ ê±°
ë Ķ
Ġì¶ Ķ
ê ¼
í Ĵ
ì° ½
Ġê ¼
Ġìĸ ¸
ìĦ ¤
Ġìŀ ¬ë
ë ¶Ģ
Ġë§ Ĳ
ëĬĶ ê²Į
ìº Ĳ
ì ¸
Ġìł Ģ
Ġìĺ ¤ë
ê¹ Ģ
ë Ħ
ì¶ ©
¨ ¸ë
ìĪ ĺë
.. ..
Ĳ ¨
íĥ ľ
ìĺ ¨
ìĿ´ë Ħ¤
ì¦ ĺ
Ġë ģ
Ĳ ĺë
íķ ©
íķ Ļ
Ġìĺ ģ
ĠìĿ ¼
ì ³
ĳ Ĳ
´ëĭ Ī
Ġëĭ ¤ë
ĠìĦ ±
ª ħ
ª ¨
ãħ Ĭ
ĠìĿ´ ìľł
ķ ìĿ´
ł ¤ë
ì¦ Ŀ
Ġê· ¸
ìĹ Ń
Ġãħ ħãħ
íļ Į
ĠëĤ ¨
ê· ¼
Ġí ĭ
?? ?
Ġí İ
íķĺë ĥĲ
ì ģ
ê² ľ
ê ¶
ì¶ Ķ
Ġëª ¨ë
Ġíķ ľë
ìĦ Ŀ
½ ĳ
ł ĩ
ìł Ħë
ë¶ Ħ
Ġë ©
ìł ľë
Ġë Ĩ
Ł ¼
¶ Ħ
Ġãħ ĩ
ĵ ł
íĶ Į
íĨ ł
ìĥĪëģ ¼ëĵ¤
Ġë ¬¸
Ġì§ Ģë
ì¤ Ħ
Ġê² Į
ìĤ °
ĠìķĦ ëĭĪë
Ķë Ŀ¼
Ġìĭ ľë°ľ
ë ¹Ħ
ĵ ±
íį ¼
Ġìķ Į
ħ Ħ
ì§Ģ ê¸Ī
íĨ łë
ìĤ ´
ì§ ¤
Ġìĺ¤ ëĬĺ
íķ´ ìĦľ
Ġëª ¨
ë Ŀ¼
ì¹ ´ë
Ġí Ĩ
ì ¿
Ġëª ĩ
ĠëĤ ĺë
ì¢ ĭ
íĸ ī
Ġìķ Ĭ
ìĿ Ħë
Ġí Ľ
Ġë° Ľ
íĮ Ĳ
ìļ ¸
íĳ ľ
ì§ ĳ
ë ¯¸
ĠëŃ Ĳë
íķ łë
ëĤ ĺë
í Ī¬
Ġìŀ ħ
íİ ĺ
ìĸ ĳ
íķľ ê±°
Ġí Ĺ
ì§Ħ ì§ľ
§ Īë
Ġì ´
ìĶ ¨
ê± ¸
ìĬ ¨
ìĿĢ ëį°
Ġëħ ¸ë
íĮ ¨
Ġì º
Ġê¸ °ë
Ġë ¶Ģ
íķĺ ê²Į
¦¬ ëĬĶ
ê²ł ëĭ¤
Ġ vs
¦ Ħ
ìĤ¬ë ŀĮ
Ġë ıĦ
ëı Ħë
ìĦ ľë
ĠìĿ ¼ë
ì¤ ĺ
ì ī
Ħë ĵ¤
ŀ Ģ
ê´ Ģ
Ġë łĪ
Ġìŀ ¥
ê° ¤ë
íķĺ ì§Ģ
Ġì§Ģ ê¸Ī
ì² Ń
Ġë° Ķë
´ Ĳ
¶Ģ íĦ°
ìķ Īë
ĠìĹ °
ì į
ĠìĤ¬ë ŀĮ
~ ~
ëª ħ
Ġê² ½
Ġì µľ
Ķ ì§ģ
ìĺ Ī
ī ´ë
ë§ Īë
Ĥ ¨
¥ ¸
Ġê° ¤
ë ¬´
ĺë į°
ìĿ´ë ĥĲ
ìķ ½
Ġí Ŀ
ìĬ µ
Ġë³ ĳ
ëĤ ¨
³ ´ëĭ¤
íģ ¬ë
2 0
Ķì§ģ íŀĪ
ìĿ´ ìķ¼
ì° ¬
ìĽ Ķ
ĠëĲ ĺ
ìĭľ ê°Ħ
Ġìĸ´ë ĶĶ
Ġíķ ´ë
Ġãħ Ī
êµ Ĳ
ê² łë
Ġìĺ Ī
ìĿ´ë ĵ¤
Ġ 6
ë ¯¼
ìĿ´ë ĵľ
§ ¤
ĠìĶ ¹
ìľ ¼
ê° ľë
ìĿ´ë ©´
ì¹ ĺë
¦ Ń
łĩ ê²Į
ìĭ łë
Ġ1 0
ĠìĶ ¨ë°ľ
íķĺ ëĭ¤
ł ¥
ë ¬¸
ìĿ´ë Ŀ¼
Ġë° Ķ
ë³ ´ë
Ġê³ Ħ
Ĳ ľ
ìĿ´ë Ĥĺ
Ġëĺ Ĳ
Ĵ ¤
ìĿĢ ê±°
¸ Ķë
Ġìĭ ¤
íķľ ëĭ¤
Ī Ħ
ìķ Ĭ
ìĸ ¸
ìĿ´ëĭ ¤
° ĺ
ìĸ µ
ì§Ģ ë
ìĥ Ī
ãħł ãħł
íĽ Ħ
Ġê° ľë
Ġì ±
ìĬ¤ íĬ¸
Ġí ŀ
ê· Ģ
ĠìĨ Į
ìĺ ´
Ġê° ķ
Ĥ ´
ë° °
ĠíĤ ¤
ë³ µ
Ġê·¸ë ĥ¥
êµ °
íĻ ©
Ġìĥ Īëģ
Ġë° ķ
ìĽ Ģ
ì½ Ķë
§ Ŀ
ìĿ´ ì§Ģ
ĠìĤ ´
Ġãħĭãħĭãħĭãħĭ ãħĭ
Ġì§ Īë
ì¢ ħ
ë ıĻ
Ġ íķĺëĬĶ
Ġìļ °
Ħë ¡ľ
Ġíķ ł
° ľë
ìĻ ľ
ë§ Ĳ
ìł Ī
Ġìŀ¬ë °
ĠìĦ ł
² ¤
Ġìŀ ĺë
Ķë į°
ë Ń
ìķ łëĵ¤
ìķ¼ ì§Ģ
ì´ Ī
Ġìĸ ¼ë
íĻ Ķë
?? ??
Ġí Ĵ
ãħ ħãħ
!! !!
Ġêµ ¬
Ġì¢ĭ ìķĦ
ëĭ ¬
ê ¿
Ġë° °
ìĽ Ĳë
Ġìĸ´ëĸ »
ì» ¤
ìĺ ¬
Ġì° ¨
Īë ĵ¤
Ġ ãĦ·ãĦ·
ìĭ ľë°ľ
ê² Ģ
Ġìĭ ¶
ĠíĻ ķ
ê² °
ìļĶ ì¦ĺ
Įë ¦¬
ħ Ģ
ëĭ ĺëĵ¤
ìĦ Ń
Ġ 8
Ŀ ½
ĠíĶ ¼
Ġë¶ Ī
Ġìĭ ľë
ë° ķ
íĻ ĺ
ë ĺ
ìĿ´ë ĬĶ
° ķ
Ġãħħãħ Ĥ
² Ħë
ìĿ´ë ²Ī
Ġë§ Ŀ
Ġìļ Ķ
ãħ Ī
" "
ìł Ģë
ı Ħë
Ġë į
ì¶ ľ
Ġë ²Ħ
ìº Ĳë
Į ãħĬ
Ġë§ Įë
Ġìķ Įë
ĠìĿ´ ìłľ
ê¾ ¸
ª »
Ġë ıĻ
Ġê°Ģ ëĬ¥
Ġë¶ Ģë
ê¶ Į
Ġ 7
ìĺ ¬ë
ìĸ´ ìĦľ
ĠíĮ Į
ìĺ Ģ
Ġì¶Ķ ì²ľ
ãħĭãħĭãħĭãħĭ ãħĭ
¡ Ŀ
Ġìķ ¼
ìŀ ĸ
Ġë ¨¸
ë³ ¸
Ġë Ŀ¼
Ġê² °
ĠìŀĪ ìĿĮ
Ġìķ ł
ìĹ Ķ
Ġë ĵľë
Ġìĵ °
íķĺ ëĬĶëį°
Ġë§ Īë
ìĹĪ ëĬĶëį°
ĠìķĦ ëĭĪ
Ġìłľ ìĿ¼
Ġìĸ¸ ìłľ
ê±° ê°Ļ
Ġë ĳ
ĠìĦ ¸
Ġë ħ¸
ìł ¸
Ġíĸ Ī
ìķ ħ
Ġìķ łëĵ¤
Ġíı ¬
° Ľ
¨ë ¦¬
ìĿ¸ ê°Ģ
Ġë į°
° °
´ ī
Ġãħĩ ãħĩ
ì¤ĳ ìĹĲ
Ġì į
ìĬ¤ íĥĢ
Ġ 9
ìĪ ľ
ìľ łë
Ġëģ Ŀ
ł ¨
ë° ¥
ë§ Ŀ
Ŀ¼ë ıĦ
íĥ Ģë
ìĤ ¼
ì² ĺë
´ë į°
Ġëĵ¤ ìĸ´
Ġë§ Į
íĤ ¤ë
ê° Ī
Ġê¹ Ģ
ìĦ¸ ìļĶ
ĠíĮ ¨
Ġê° ¤ë
Ġí Ī¬
ìĵ °
Ķ ±
°ë ¦¬
§ Ĳ
íĸĪ ëĬĶëį°
ĠíĬ ¹
ìŀ ĩ
ĠìĹ Ń
1 0
ãħĭãħĭãħĭãħĭãħĭãħĭãħĭãħĭ ãħĭãħĭãħĭãħĭãħĭãħĭãħĭãħĭ
ĠëŃ Ķ
Ġìĸ´ëĸ» ê²Į
ë ©
ìĥ ī
ãħ ľ
Ġí Ħ
ìĿ´ ê°Ģ
ĠìĽ Ĳ
ìĨ Ķì§ģíŀĪ
ì ¥
ī´ë ¹Ħ
ĠìĽ ĥ
Ġíĺ Ħ
Ġì§Īë ¬¸
ìŀ ¡
Ħ Ī
ë² ķ
Ġìł Ĳ
ìĶ ¨ë°ľ
ë³ ĳ
Ġê³ łë
ì§ Ĳ
Ġíĥ Ģ
Ġë ¦¬
Ġê¸ Ģ
Ġìŀ Ĳë
Ġìł Ģë
£ Į
ëĭ¤ ê°Ģ
ìķ Į
ìĿ ĳ
¶ ģ
ìŀĸ ìķĦ
Ġì£ ½
ê² Įë
Ġë ©Ķ
ìħ ĺ
ìŀ ĺ
ìĭ ¸
ĠíĬ ¸ë
ìŀĪ ìĿĮ
´ ¤
Ġë³ ¸
ì¶ ķ
ìŀ ¬ë
ê² ¨
íĮ ħ
Ġë§İ ìĿ´
Īë ²
¸ Įë
¸ Ķ
ìĽ ĥ
íĤ ¹
Ġë ¨¸ë
ì§Ģ ìķĬ
ë ¥
¡ ł
ë ²Ī
g i
í ĮĢ
ı Į
´ Ħ
ëĭ ī
íı °
ê¸ ¸
íĸ ¥
¶ Ģë
Ġë ľ
ı ħ
©´ ìĦľ
Ġìľ łë
¦ ½
Ġìł Ħë
Ġëĭ ¹
Ġë³´ ê³ł
Ġìŀ ĳ
ìĿĦ ê¹Į
Ġê· Ģ
ĠëĤ ´ë
Ġíķĺë Ĥĺ
ê¸° ë
Ġíı ī
ì§ ķ
Ġì° į
Ġëı Į
ì¸ ł
ĠìĨ Įë
ħãħ ħãħ
ì Ł
ìĻ ¸
ãħ İ
ëª ¨
Ġí ħ
ì° į
ĠìķĦ ëĭĺ
ê´ ĳ
êµ ´
£ ¨ë
ê º
íĶ ½
ì Į
ĠëĦ ĺ
ì² ł
Ġë°© ìĨ¡
ìł ł
Ġë ĶĶ
ĠíĽ Ħ
ĠëĬ Ĳë
Ġãħĭãħĭãħĭãħĭ ãħĭãħĭ
Ĳë ıĦ
ê³ ¡
Ġì£ ¼ë
ì¤ Į
ë ĶĶ
ì§Ģ ë§Į
ìĦ ¸ë
íİ ¸
ê³łìĭ¶ ëĭ¤
gi f
Ł ½
Ġìł ģ
í Ī
Ġìº Ĳë
ĠìķĦ ì§ģ
ëĬĶ ê±´
Ġë ¬´ë
į ĺëį°
ìĹ ´
Ġê± į
ë ¨¹
Ġìŀ ¡
íķ´ë ıĦ
Ġì ³
ê »
ì½ ĺ
; ;
Ġì½ Ķ
Ġë ½ĳ
ĠìķĦ ëĭ
ìĿ´ ìłľ
ĠíĶ Ħë
³ ĳ
ĠìĹ Ĳ
Ķ °
ë³ ´ëĭ¤
ĠãħĪ ãĦ´
Ġê° Ĳ
ìĿ´ ìĬ¤
ëĤ´ ê°Ģ
Ġëĭ ¨
Ġ2 0
ìķ ĺë
ë° Ķ
íĥ Ī
Ġë° ľ
ëĤ ł
ìī ¬
ĵ¤ ìĿ´
ê²łë Ħ¤
¹ Ħë
ìĺ¤ë ©´
ì¦ Į
ĠìĻ ¤
ì° ®
ë ĮĢë
Ġë³ĳ ìĭł
Ġì¹ ľ
íĥ Ŀ
íĻ į
ìķ ±
ł¤ ê³ł
ĠìĦ ľ
ĠëĤĺ ìĺ¤
Ġêµ ¬ë
Ġë³ µ
ĠìĻ Ģ
Ĩ Ī
¶ ķìĿ´
´ëĭĪ ê¹Į
íĿ ¬
ãħ¡ãħ¡ ãħ¡ãħ¡
íĮ Įë
¿ ¡
Ĳë Ŀ¼
¦ ´
Ġíķ Ħ
ĠìĿ´ ìĥģ
Ĥ ł
íĸĪ ëĭ¤
ìķĦ ìĦľ
Ġìĺ ¬
ìĻ ķ
ìķ łë
Ġìŀ ĪëĥĲ
Ġìŀ¬ë° Į
êµ¬ë Ĥĺ
ìĸ´ë ıĦ
Ġìĸ´ ì¼Ģ
Ġìľ Ħ
Ġìĭ ¬
ë° ľ
ë ŀ
ê± ¸ë
Ġê· ¼
ë łĪ
° į
ìŀĲ ê¸°
ë ĵľë
íĺ ¼
Ġë ¯¸ë
Ġìĭľ ìŀĳ
ê²ł ì§Ģ
ì§Ģ ëĬĶ
ĩ ´
ë įĺ
ìĶ ¹
§ ŀ
Ĩ ĵ
ìł ĳ
Ġë§ Įëĵ¤
ĵ¤ ìĿĢ
íĬ ľë
Ġëĺ ¥
1 1
ê°ĻìĿĢ ëį°
ê° ĳ
ì¿ ł
ìĪ ł
ìĿ´ íĬ¸
Ġ ãĦ±
ê±° ìŀĦ
ì¡ ±
Ġìļ ķ
ŀ Ħ
Ġí ļ
ĠìĨ Ĳ
Ġë ĵ
Ġì¹ ´
ìłĦ ìĹĲ
Į ĵ
Ġë° ĺ
Ġì§ ĳ
íĶ Įë
Ġìĵ °ë
§ ģ
ĠìĿ´ë Ł°
Ġ (
Ġãħ ł
Ġëĸ ¡
íĥ Ħ
Ġë§ ¤
¨ë ĵľ
Ġìŀ ¬
Ġê²Į ìŀĦ
Ġêµ Ń
ãħĭãħĭãħĭãħĭ ãħĭãħĭ
ł Īë
Ķ ©
¬ ¼ë
Ġìĭ ¸
ķĮë ¬¸
íĦ °ë
Ġíķ ¨
ê² Ł
Ġì§ ģ
ë ĵ±
Ĭ Ķëį°
ê° ĵ
§ Įë
Ĥ ľ
Ġê´ ľ
Ġëı Ħë
ìĹ ¬ë
Ĥ ´ë
ëĭ ¬ë
ë ²Ħ
³´ ê³ł
ł ¸
ê±° ë
Ġë§ ī
íķ´ ìķ¼
Ġë³´ë ©´
¶ ķ
ŀ ĺëıĦ
ĠìķĦëĭĪë ĥĲ
§Į ìĹĲ
ĠëĲ ĺë
Ġìķ łë
ª ©
į ĶëĿ¼
Ġê° Ħ
ĠìĦ ľë
ìĭ ¤ë
ê¸° ê°Ģ
Ġëĭ¤ ìĭľ
Ĳ ê¸Ģ
ë ©Ķ
Ġë ĮĢë
Ġê· ¼ëį°
íĺ ģ
Ġìĭ «
Ġë¬´ ìĬ¨
Ġì ¼
ëĤ ĺëıĦ
ë§ ī
¹ ł
Ġê± °ë
íķ ĳ
Ġì ī
Ġì¹ ĺ
¡ ¤
ê· ľ
ìķĺ ëĬĶëį°
ìĸ ¼
íĻ ķ
ĠëĶ ±
Ġë ¡ľ
ª ½
ìķĦ ìĿ´
ĠëŃĲë ĥĲ
° Ķë
Ġí ĳ
ĠìĿ´ë ²Ī
Ġëı Ī
ì¹ ¨
¼ë ³´
ê¸° ëĬĶ
ĠëĪĦ ê°Ģ
ŀ ľë
ìĹ ½
įĶ ëĭĪ
ì²ĺë Ł¼
Ġë Ĵ¤
ìŀ ĪëĥĲ
íĢ ´ë
¨ ¼
Ġê¹ Į
ŀĺ ìĦľ
íĤ ¨
ìį ¨
ĠìĽ Ĳë
ĠìĥĪëģ ¼ëĵ¤
ĥ Ĳë
ëĭ¤ ë
ìĬµ ëĭĪëĭ¤
Ł¬ë ¦¬
ì³ Ĳ
ĸ ìĹĲ
ìĬ ¬
ĠìŀĪ ëĬĶ
ì ĩ
íı ī
Ġê ¾
ì§ Īë
ĠìĻ Ķ
ì° ¨ë
ĠìĦ łë
ìłķ ëıĦ
ĠìĻ ¸
ìŀ ¼
ìĸ´ ìļĶ
° ±
ê¸ ¸ë
ìĽ ħ
Ġ íķĺê³ł
íķľë į°
Ġíķ ©
ĠìĿ´ ìģ
ìķ Įë
ê²Į ìŀĦ
ĠìĻ¤ ì¼Ģ
Ġì§ ¤
Ġìĸ ¼
ë° Ľ
Ġìĸ ĳ
ëĺ ¥
Ġì½ Ķë
ĠìĹ ħ
ê¸ Īë
íĭ Ģ
íķĺë ħ¸
´ë ¦¬
ì¡ Į
ëł ¥
· ¨
ìĹ ĩ
ìĺ µ
ëĭ¤ ëĬĶ
ĠìĹ¬ ìŀĲ
ìķĦ ëĭĺ
Ġì² ĺ
ê²ĥ ëıĦ
íĴ Ī
ë ģ
íĥ ģ
Ġì¶ ľ
ĠëĤ´ ê°Ģ
ĠìķĪë Ĥĺ
Ġë¶ Ħ
ìĵ °ë
íķĺë Ĥĺ
ìķĦ ëĭĪë
ĺ ê¸°
ê°Ģ ëĬ¥
Ġê² ĥ
ìŀĪ ëĬĶ
Ġê° Ī
ë ī´ë¹Ħ
ĠíĦ °
1 2
íĢ ´
Ġìķ ½
ĠìĪ ľ
ëŃ Ĳ
ë ĸ
ìĨ Ĳ
ê³ ¤
ê¸ Ģë
Ġëĭ ¬ë
ĠìĿ ĺ
Ġê ¿
ìĥĿ ê°ģ
ìļ°ë ¦¬
ĠíĬ ¸
í ľ
ãħ ĮãħĬ
Ġë ¬¼
Ġëª ©
ìħ Ī
íĬ ¹
ë° ±
ãħĩ ãħĩ
Ġíķ łë
³ µ
Ġ3 0
êº ¼
ãħ Ĥ
ê¸° ëĦ¤
íĶ ¼ë
ĠëŃĲ ìŀĦ
Ġì» ¤
ë £
Ġìł ĳ
íĹ ĺ
Ġ1 00
ĠìĪ ĺë
Ġì¢ĭ ìĿĢ
Ġãħĭãħĭãħĭãħĭ ãħĭãħĭãħĭ
§Ī ëĭ¤
ĠíĨ µ
ì£ ½
ë§ Įë
ĠëĤ ľ
Ġê´ľ ì°®
ìĻ Ģë
ìĹ¬ ê¸°
ëħ ¸ë
Ġëı Įë
ìĹĪ ëĭ¤
ì¡ ´
Ġì° ¸
ì ©
íı Ń
ìĿ¸ ì¦Ŀ
ì µľ
ãħ ħ
ê°Ģ ëĬĶ
Ġì¹ ´ë
Ĳĺë ĥĲ
¦° ìĿ´
ì§ ľë
Ġìĺ¬ë Ŀ¼
ìĬ ´
ìĽ Įë
Ġì¡ ´ë
ê°Ļ ìĿĮ
ìłģ ìľ¼ë¡ľ
íķłë ķĮ
íĸ ĩ
ê·¸ë ĥ¥
¨ ìĸ´
ĠìĹ ¬ë
íĤ ¬
íĭ °ë
ĠìĹĨ ìĿĮ
Ł ī
1 3
Ġíķĺë ©´
Ġë° ±
ĠëĪĦ êµ¬
²¤ íĬ¸
ë ĵ¯
ëĬĶê±° ìŀĦ
íĺ ¸ë
§ İ
ĳ Ĳë
íĨłë ¦¬
ë§Į ìĽĲ
ë £¨
ë° Ķë
ĠìĬ ¹
- -
Ġê± ¸ë
ãħĭãħĭãħĭãħĭ ãħĭãħĭãħĭ
ìĸ´ ìłľ
ãħħãħ Ĥ
ìļ ¸ë
íĮ ©
Ġíĭ °
ĠëĬĲë Ĥ
¦¬ë Ħ¤
ìĿ´ ìľł
ìĺ Ģë
ìľ ¨
ķĮë¬¸ ìĹĲ
ëĭ ´
ê± ´ëį°
ĵ Ŀ
ì£ ł
Ī Ħë
łĪ ìĿ´ëĵľ
ìĿĦë ķĮ
ĠìĿ´ë łĩê²Į
@ @
ìļ ´ë
íĮ Ķ
Ġê² ľ
ê° Ħë
¨ë °ľë
ĠëĶ °ë
ãĦ·ãĦ· ãĦ·ãĦ·
ìĿ´ë ¸Į
ë³¸ ìĿ¸
Ķ Ķë
Ġê´ ĳ
ëı Į
Ġíĭ Ģë
Ġë ¸Į
Ġë¹ ł
ê°Ģë ©´
Ġë ķĮ
ìĿ µ
ł¤ë ©´
Ġì° ¾
ĠíĮ Įë
ĠìĤ ¼
Ġì ¦
ĠìĹ¬ ê¸°
¥´ë ĬĶ
ĠëĤ ł
ëĤ´ ìĿ¼
ŀ ĺë
íħ Ĳ
ìĦ ¼
¥ ĺ
² ķ
ìĸ´ ìķ¼
Ġì´ Ī
Īë ¡ľ
Īë ħ¸
Ġê° ĳ
Ġë ĳĲ
ëĤĺ ëĬĶ
Īë įĺ
ìłĦë ĵľ
ë ¯¸ë
³ ¼
ì§Ģ ê³ł
5 0
ìĹ ĺ
ëį ķ
Ġê³Ħ ìĨį
ĠìļĶ ì¦ĺ
ª ¨ë
ìĹ ĺë
ìĦ łë
ìķĺ ëĭ¤
ĠìºĲë ¦Ń
ë ¬¼
ë¶ Ģë
íķ© ëĭĪëĭ¤
Ġê ¶ģ
łĪ ìĿ´
Ġì² ł
ë ĪĦ
· °
Ġíİ ¸
Ġíĺ ¸
§ ĪëĤĺ
Ġìł ľë
íķ Ħ
ĠìĬ ¤ë
Ġë´ Ĳ
ĮĢë ¡ľ
íĴ į
¦¬ë ©´
íħ Įë
íĥ ĳ
ì¼ Ģë
Ĳĺ ëĬĶ
ìłķ ëıĦë
ìĻ Ķë
° ¥
Ġ1 2
Ġëĳ ĺ
ìĹ ¼
ì± Ħ
Ġë¬¸ ìłľ
Ġãħ ģ
Ġê´ Ģ
Ġëħ¸ë ŀĺ
Ġë§ Ľ
ë Ŀ¼ë
ħ ¸ë
Ġëĭ¤ë ¥¸
© ´ë
¦¬ ê³ł
ìĹĨ ëĬĶ
ìĸ ¸ë
Ġìĭ łë
Ġíı Ń
ë ¨¸
íĨ ¡
ì ¯
² ł
Ġ ãħĭ
ê¹ Ĳ
, ,
ìĿ´ë Ŀ¼ê³ł
ìĨĮë ¦¬
íķĺ ê¸°
ĠìķĮë ł¤
ì§ ¸
ì£¼ ëĬĶ
ł µ
ī ´
3 0
ì° Į
ĠíĮ Ķ
Ġê°Ļ ìĿĢëį°
ģ ¼
íģ ´ë
ĠìĿ Ģ
ĠëĪ Ī
ìĿ¸ ê±°
ë° ĺ
Ġì¶Ķì²ľ ì¢Ģ
ì° ©
ì´ Īë
ê¹ ¨
Ġê¸ Ī
Ġì¢Ĩ ê°Ļ
ĠìĥĪëģ ¼
Ġê° ĵ
ĠíĻ Ķ
Ġë ¦¬ë
³´ë ©´
íĦ ´
ë¥ ł
ë ķĮ
ìĿ´ ê³ł
ìĭ Ń
ìľ ¤
¡ ±
ê°Ģ ìĦľ
ìĿ´ë ħ¸
t x
ì§ Ħë
ĠìĹĨ ëĬĶ
ĠëĦ £
íħ ľ
ìĹ ĪëĦ¤
ëª ¨ë
ëł Ļ
Ġë ĵ±
ĠìĤ ´ë
Ġì ¿
ìķ °
ĠìĻ Ħ
ê° Ķ
ĠìĻľ ìĿ´ë
Ġì² «
ĠìķĦ ìĿ´
ĠëŃĲ ê°Ģ
Ġëį° ë
ŀ Įëĵ¤
Ġë ¯¼
² Į
ê² ¼
ĠìĹ ´
¶ Ī
ì° ¸
ë Ĩ
Ġëª ħ
íı ¬ë
Ġê° ģ
ĠìĿ Į
ì£¼ ìĦ¸ìļĶ
ìŁ ģ
ìĬ¤ íĦ°
Ġ ?
ãĦ± ãĦ±
ì§ ¤ë
íķľ ê²Į
ëª ©
Ģë ¦¬
ì¼ ĵ
ë§ ¤
ë ¨¸ë
ë ¦¬ë
ĠëĲ ¨
íķ´ë Ŀ¼
íģ ´
ìĿ´ ìĥģ
ì¢ Į
Ġ -
Ġê² Ģ
Ġíķľ êµŃ
Ġì Į
Ġê°Ļ ìĿĢ
Įë Ħ¤
ëĬĶ ëĭ¤
00 0
tx t
Ġì³ Ĳë
í ĩ´
ĠíĴ Ģ
Ġìļ °ë¦¬
Ġê± ´
ĠíĻ Ķë
¡ ¯
Ġì¢ĭ ê²łëĭ¤
Ġì¤ Ħ
ĠëĦ Ī
Ġíģ ´ë
ãħ ı
Ġíķĺë Ĥĺë
ĠìĿ ¸ë
ëħ Ħë
Ġìł ¤
ìĻĢ ìĦľ
ĠíĻ į
ì§ ±
ìķ Ļ
Ġë² Į
ì² ĺ
Ġíģ ¬ë
Ġìŀħ ê°¤
ĠëłĪ ìłĦëĵľ
Ġìł ľë°ľ
Ġì¢ ħ
Ġìļ ©
ìĥ ¤
ìĶ ©
Ġëª¨ë ¥´
Ġìĭ ¤ë
Ġìŀ ł
Ġì» ¨
ĠëĬ Ĳ
ìĺ¤ë Ħ¤
ìľ ¡
ĠìĹĨ ëĥĲ
Ġìĸ¼ë §ĪëĤĺ
ãħ ģ
Ġíķ Ļ
Ġëª °ë
ê± į
į Ķë
ì¦ Īë
ì´ Ŀ
ëĬ Ĳ
Ġë³ ¼
ëį ĺëį°
Ġë¹ ¨ë¦¬
¯ ¿
ìĬ Ī
Ġì´ Īë
ìĹĲ ê²Į
ì¡ ´ëĤĺ
ìĹĪ ìĿĮ
ê°¤ ìĹĲ
´¤ ëĬĶëį°
¦ ´ë
Ġë įĺ
ì» ·
ê¼ ´
ìĭ ±
Ġëĭ ¬
ìĿ ĺë
Ġíĸ ī
ĠìķĦì§ģ ëıĦ
ĠëĤĺ ìĺ¨
íĬľë ¸Į
ìĿ Įë
Ŀ¼ ëĬĶ
ì² ´ë
Ġíĥ Ī
ĠìĤ¬ ì§Ħ
Ġë¹ Ħë
Ġì² ľ
Ġìĸ¼ë §Ī
Ġë ²Ī
Ġê°Ļ ìĿĮ
Ġë ŀ
Ġë ł
ĠíĶ Įë
Ġíķľë ²Ī
Ġìķ ħ
ìĤ¬ ê°Ģ
ê·¸ë ŀĺìĦľ
Ġë°Ķë ¡ľ
Ġë Įĵ
ìĭľ ì¦Į
ħ Ħëĵ¤
Ġãħ İ
íķĺëĬĶ ê²Į
Ġìĺģ ìĥģ
ê¿ Ģ
ìĪ Ļ
Ġê³ ¼
¨ë ĵ¤
ê· ¼ë
Ġì ¥
íĥ ķ
Ġë¨¸ë ¦¬
ìĿ´ë Ł°
ĠíĨ ł
ìĮ į
ìĿ¸ ì§Ģ
ê°Ļ ìĿ´
ĵľ ëĬĶ
ĥĲë ĵ¤
íĭ ±
Ġ íķĺëĬĶê±°
ë ¸Ķë
Ġêµ Ĳ
Ġê°¤ë Ł¬ë¦¬
Ġë Ħ¤
ìħ ĭ
Ġë² Ħë
íļ ¨
ĠíķĦ ìļĶ
ĠìŀĪ ëĬĶëį°
Ĩĵ ê³ł
ê° Īë
Ġë´ ¤
¦° ëĭ¤
ĠëıĮ ìķĦ
¶ķ ìĿ´ëĵ¤
ì§Ģ ê°Ģ
ì» ¨
ì§Ģ ë§ī
ìķ¼ íķ¨
Ġíķĺ ì§Ģ
Ġãħ Ĩ
Ġê¼ ´ë
ì¥ ¬
ì§ ĵ
ì¹ĺ ëĬĶ
ĺ Ĳ
íĪ ¬ë
1 8
ì¹ ł
íĿ ĳ
² Ķ
ì ª½
Ł Ń
Ġìĸ´ëĶĶ ìĦľ
Ġê¶ģ ê¸Ī
Ġë¹ ¡
ìĪĺ ê°Ģ
ĠìķĦëĭ Į
ı ¼
ê±° ëĥĲ
ìĹ¬ ìŀĲ
ĠìĽĲë ŀĺ
íķ Ń
ì» ¤ë
ĠíĨ łë
ê³ ¨
ì» µ
ê² ¬
íĮ ¬
ëĤ ´ë
ĠìķĦëĭĪë Ŀ¼
Ġë ¬
ëı ħ
¹ ìĬ¤
Ġ1 5
Ġë¹ ¨
ĠëĲ ľ
ìĺ¤ ëĬ
ĠíĪ¬ íĳľ
ì¹ Ń
Ġê·¸ë Ł°
ĠëĤ «
ë ¬´ë
ì¹ ľë
ì¡° ê±´
ìļ ķ
ì¡ °ë
ê°Ħ ëĭ¤
³´ë ĬĶ
ãħ Į
ĠìĿ¸ ì¦Ŀ
ì± ł
¹ ìĭľ
ìĬ ¬ë
Ġë ¸Ķë
íĻ ľ
ë³´ë ©´
Ġìĸ´ëĸ °
ìĤ ´ë
2 00
ĠëĤĺ ìĻĶ
Ġ 0
Ġê°Ļ ìĿ´
ìĬ¤ íĬ¸ë
íķĺë©´ ìĦľ
ĠìĨ į
¡ľë Ĥĺ
íĭ Ģë
ķĮë §Īëĭ¤
1 5
ĠìĦ ¸ë
Ġì± Ħ
ë§ ŀ
ĶĶ ìĸ´
Ġì²ĺ ìĿĮ
Ġ '
íĹ ¤
Ġë³´ë ĬĶ
ìķ¼ë Ĳ¨
ëĭ µ
ìķĦ ìķĦ
ìĿ´ ê²Į
Ġì¢ĭ ìĿĮ
íĴ Ģ
ëĭ Ŀ
ê¹ Įë
Ġì¡ ´
Ġëĭ¤ ìĿĮ
íĸ ĪëĦ¤
ìĤ Ń
Ġë Ŀ¼ë
ë¶ Ī
ĠìķĬ ëĥĲ
ë Ĳ
Īë ¦¬
ĠìĹ Ĳë
Ġìĸ¼ êµ´
ĠìĦ ¤ë
Īë ıĦ
Ġë ķ
ìķ Ĺ
Ġí į
ê· ¹
Ġëĭ Ī
ìŀĲë ĵ¤
ĠëĤ´ ìĿ¼
ĠìĤ °
Ġãħ ¡
Ĭ Ĳ
ĠìĿ¼ë ³¸
Ġíĥ ľ
ì¤ Įë
Ġê¸ ī
ìŀĪ ëĬĶëį°
łĪ ê¸°
£ ¹
ì ı
ì§Ģ ëĦ¤
ìĿ´ë ıĦ
ìĻ ¸ë
ìĹĨ ìĿĮ
ëĭ¤ ìĿĮ
ìļ Ķë
ìĭľ ìĹĲ
Ġìļ °ë
Ġí ĮĢ
íķł ê¹Į
Ġë§ ¤ë
ë¶ ģ
Ġìĸ´ëĸ ¤
ĠëĶ °
ëł ¹
ë ĳĲ
Ġì Ħ¤
ĠìĨ Ķì§ģíŀĪ
Ġí ľ
ê³ ³
ì° ľ
íĢ´ë ĵ¤
ìĺ¤ë ĥĲ
Ġìµľ ê³ł
Ġì° ½
íİ ĺë
ë¶ ķ
ë ¿¡
Į Ĳ
Ġì¶ ķ
¦¬ ê°Ģ
ĠìķĦ ìĿ´ë
Ġíķĺë £¨
íķĺ ëĭĪê¹Į
ëĭĪë ĵ¤
ê¾ ¸ë
ł ¹
> >
ê¼ ¬
Ġì¼ Ģ
Ġë¯¸ ì³
Ġê°Ģ ìŀ¥
ĠìĶ ¨ë°ľë
Ġìļ ´
ìĦ¤ ìī¬
íĮ Ł
1 4
ìĨį ë³´
ë İ
ëĬĶê±° ëĥĲ
ê¶ ģ
§ ī
íŀ Īë
ìŀ ł
Ĳľ ëĭ¤
ĠìĿ´ íķ´
Ġëĳ Ĳë
ìĿ´ ì¦Ī
Ġìĭľ ê°Ħ
ĠìĿ´ë ²¤íĬ¸
Ġìļ° ìĬ¹
Ġë ¸
Ġë³ Ħë¡ľ
Ġìŀ ĩ
Ġë ¿
íģ ¼
ìĿ´ ìķ±
Ī Ī
Ġë³ Ģ
ëª »
ìľ¼ ëĭĪê¹Į
Ġê¹ ¨
ĠìĿ ĳ
Ġì´ Ŀ
ë§Īë Ŀ¼
Ġãħł ãħł
ìľ Ħë
Ġë° ĺë
Ġê°ĳ ìŀĲê¸°
íħ Ĳë
ê´ ´
ì² Ļ
ìĨĮë °Ķ
ì¤Ģ ëĭ¤
ê¾ ¹
Ġí Ģ
íĶĦë ¦¬
Ġ :
íĽ Ī
Ĳ ëĭ¤
Ġì ·¨
ìĹĲ ëıĦ
Ġíģ ¬
ì£¼ë ©´
ĠíĴ Ģë
íĺ ľ
ìĤ¬ ìĭ¤
Ġê·¸ë §Į
ĠëĮĢ ì²´
ê°¤ ìĹĲìĦľ
Ġë¬´ ì¡°ê±´
ìŀħ ëĭĪëĭ¤
ĥ Ħ
ĠíĿ ĳ
¼ë³´ ìĦ±
Ġëĭ µ
íĮ ¡
ĠëĨ Ĵ
ĠëĬĲëĤ Į
Ĳĺë ©´
Ġíļ Į
ìĹ ł
ĠìĤ¬ ìĭ¤
ìłģ ìĿ¸
ìŀĲ ê°Ģ
ĠëĤĺ ìĺ¤ë©´
ë³´ ê³ł
ê¼ ¬ë
ìºĲë ¦Ń
Ġãħģ ãħĮãħĬ
íķĺê³ł ìĭ¶
Ġìĸ´ ìłľ
ìķĦëĭĪë ĥĲ
ĠíĸĪ ëĬĶëį°
ì¥ Ĳ
Ġìķ ŀ
Ġì» ¤ë
Īë² ½
Ġë ¿¡
Ġíĺ ¸ë
Ġëĸ ¨ìĸ´
ĠìķĦë ¬´ë
Ġìĵ° ëĬĶ
ìĩ ¼
ĠíĶ ¼ë
íĶĦë ¡ľ
Ġìĭ¶ ëĭ¤
Ġê¾ ¹
1 9
Ķ °ë
ìĿ¸ ìĿ´
ìĻ Ħ
ì§ĢìķĬ ëĥĲ
ëĭ ¥
ë¹ Ħë
íķĺ ìŀĲ
ĠìĿ´ ê²Į
ë° °ë
ì¸ µ
ĠìĿ´ìľł ê°Ģ
Ġìĭ« ìĸ´
¨ë ıĦ
ìĭ łëĵ¤
ìĸ ¼ë
ìĤ Ĳ
ê±° ìķ¼
Ġìĸ¸ ìłľë
ĠìĿ´ë ¦Ħ
ł¤ë Ĥĺ
Ġë¶ Ļ
Ġì² ´
ì§Ģ ë§Ī
¨ë Ŀ¼
ê¸¸ë ŀĺ
Ġíİ ĺ
ł Į
ê±° ê°ĻìĿĢëį°
êµ¬ ê°Ģ
Ġìłķ ë¦¬
ĠìĹ Ħ
ì§ Ŀ
ëĭ¤ ëĭĪ
Īë ĮĢ
Ġë° ľë
íķľ êµŃ
ĠìķĦ ëĬĶ
Ġê± ¸
Ġìŀĺ ìĥĿ
ìĬ¤ ëĬĶ
³ ´ëĭĪ
ë ¸Į
íĺ Ĳ
íĿ ¥
Ġê·¸ ê±°
ê²½ ê¸°
´ëĭ ¨
ıĻ ìķĪ
ĠìĿ¼ë Ł¬
Ġë³ ¼ë
Ġ5 0
Ġ p
Ġìķ ¼ë
ìĭ¤ë ¶Ħ
ı Įë
ìĬ¤ ê°Ģ
ìĸ´ë ĸ
ĠìĹĨ ìĸ´
Ġê¼ ¬ë
ëĬ Ĳë
ĠìĤ¬ë ŀĳ
Ġì§Ģë ŀĦ
ì§Ģ ë©´
ê·¸ë ŀĺëıĦ
ĠëŃĶ ê°Ģ
ìłķëıĦë ©´
ë ĳ
Ġë ¨¼
ìĺ¤ ëĬĶ
ê±°ê°Ļ ìĿĮ
ìĭľ ëĬĶ
ì² ľë
Ġìĺ ¨
¦¬ë Ĥĺ
ì³ Ĳë
ìº ł
Ġì¶ ©
ìĿĦë ĵ¯
Ġë³ ´ëĭĪê¹Į
ìĸ´ë Ĥĺ
Ġì² ĺë
ëħ Ģ
ãħľ ãħľ
į ±
Ġ1 3
ê°¤ ì£¼
Ġãħĭãħĭãħĭãħĭãħĭãħĭãħĭãħĭ ãħĭ
ë ´ī
ìĺ ·
ê· ł
ê° Ĳë
ê°Ģë ¦¬
ì¯ ¤
ĠìĿ ĺë
Ġê²½ ê¸°
ìĹĲ ëĬĶ
Ġìĸ´ë ĬĲ
ł ¸ë
Ġíĺ ¼
ł ī
ĠíĮ ¬
ł¤ ìĦľ
ĠìĽ Ķ
Ġíģ °
~~ ~~
ì¼ ľ
ĠëĪ Ħë
ì§Ģ ëıĦ
ë¶ Ħë
ìľ¼ ëĭĪ
Ń Ĳ
Ġê ½
ĠìŀĲ ê¾¸
.. ...
ë Į
ëį ĶëĿ¼
ê¹ ħ
°ë ĮĢ
³ Ħ
Ġìĭľ ì¦Į
Ġê·¼ íĻ©
¹ ¨
ê°Ļ ëĦ¤
¦¬ë ĥĲ
° ĸìĹĲ
¹ Ī
¼ ê³ł
!! !
³´ë Ħ¤
Ġê º
ìĸ´ ê°Ģ
ë ŀĳ
Ħ ĺ
Ħ ¤ë
ë¶ ķìĿ´
ê²½ ì°¬
Ġíŀ Ī
ëĶ ±
Ĳĺë Ħ¤
ì¢ĭ ìķĦ
Ġíķĺ ëĬĶëį°
ëĶ °
ëĦ Ī
Ġê· ¹
Ġê¼ Ń
i n
Ġë´ ī
ìŀ ĪëĦ¤
ê±° ë©´
ìĤ¬ ì§Ħ
ë³ ´ëĭĪ
Ġìļ ´ë
ĠìķĪë Ĳĺ
ì£ Ħ
Ġ s
ê³ Ħë
Ġìĥ Ī
ĠìĤ¬ë ŀĮëĵ¤
ĠìłĢ ê±°
Ġãħĭãħĭãħĭãħĭãħĭãħĭãħĭãħĭ ãħĭãħĭãħĭãħĭãħĭãħĭãħĭãħĭ
1 6
ê ½
Ġë £¨
ĠëĤĺë §Į
Ġê¸°ë ¶Ħ
íĹ Ī
ë ¡ľë
ĠíĮ Ķë
ĪĦë Ĥĺ
ëĦ ĪëĦ¤
ì§Ģ íķĺê²Į
Ġ1 8
Ħ Ĳ
íį ¼ë
ĠëĪĦ êµ¬ë
ìģ ĺ
ì¶ Ķë
Ġëĵ £
¬ë £¨
Ġì² Ń
ìŀ Ħë
ì» ´
ìĿ¼ë ³¸
Ġë ¯¿
ì¶© ëĵ¤
¹ ¡
ĠìĿ´ë ¯¸
ĠíĬ¸ë łĪìĿ´ëĵľ
íħĲë į°
Ġ1 7
ìħ Ķ
ìĦľë ıĦ
Ġ S
Ġë ī´ë¹Ħ
íľ ´
Ġë§Ī ì§Ģë§ī
Ġìłķ ìĥģ
ê²ł ìĿĮ
íļ Įë
Ġë £
Ġ1 1
ëĦ Īë
Ġìĸ ĺê¸°
ìŀ Ķ
Ġë§ Ĳë
ĠíĻ ĺ
ë¹ µ
ë§Ĳ ê³ł
ë ĵ
Ġíĺ ķ
Ġ =
Ġ ""
¦¬ë °Ķ
§Ī ê°¤
íĥ ľë
ìĭ¤ íŀĪ
Ġê¿ Ģ
Ĵ ·
íķĺ ê¸´
ĠíĶ ½
ĠìĿ¸ ê¸°
· Ķ
ĠëĤĺ ìĺ´
ë ½ĳ
ĠìĹ ĺë
Ġãħĭãħĭãħĭãħĭãħĭãħĭãħĭãħĭ ãħĭãħĭãħĭãħĭãħĭãħĭãħĭãħĭãħĭãħĭãħĭãħĭãħĭãħĭãħĭãħĭ
ìĥ Īë
Ġë¶ Īë
Ġìŀ¬ë ¯¸
Ġìŀĺë ª»
¤ë Ħ¤
ë³ Ģ
½ ķ
ìł ľë°ľ
ìĿ´ë ²Ħ
ĠìŀĪ ëĭ¤
ì¤ ¬
ãħłãħł ãħłãħł
!!!! !!!!
ĠëĮĵ ê¸Ģ
íĺ Ģ
ì± ħ
Ġíĳ ľ
ê¼ ´ë
ĸ ¡
ĠìĬ¤ íĨłë¦¬
Ġë§ŀ ìĿĮ
íĢ ĺ
Ġê·Ģ ìĹ¬
Ġê° Ĳë
ìĤ¬ ëĬĶ
Ġ1 6
¡ ¤ë
ìĿ´ë Ŀ¼ëıĦ
ê¸° ëĵ¤
ê±° ì§Ģ
ĺë Ħ¤
Ġìī ¬
Ġíķ´ ìķ¼
ìķ ¡
ĠíĬ¹ ì§ķ
Ġë ļ
ìŀ ĺë
ìĹĪ ìľ¼ë©´
íĺķ ëĵ¤
ìĪĺ ìŀĪ
ìł ¸ë
Ġ +
Ģë ł¨
ĠìĬ ¬
ĠëĤ¨ ìŀĲ
Ġ .
ĩ Į
ìļĶ ìĿ¼
ìĤ¬ë ŀĳ
Ġìĵ ¸ë
ë¶Ģ íĦ°
® ¤
ê°Ģ ìļĶ
ìĦ± ìĿ´
ĠíĽ Ħë
ê° Ĵ
ì² ©
ìģ ľ
ìĹĨ ìĿ´
ĠìĿ¸ ìĥĿ
ìķ Ķ
Ġì° ©
Ġëį Ķë
ë įĶ
ìĿ¸ë ĵ¯
Ġë² ł
ĵľ ì»µ
ë ķ
ìĺ ¥
´ ĲëıĦ
ĠëŃ ĺ
ìĿ´ëĭ Ī
Ġãħ ħ
Ġëı ħ
íĹ ¬
Ġë ¡ľë
Ĥ ¬
< <
Ľ ëĤł
¼ë ¦¬
Ġë§Į íĻĶ
Ŀ¼ ìĿ´
ë Ĳĺ
Ķ ľ
ĠëĤĺ ìĺ¬
ê°ĻìĿĢ ê±°
íĽ Ħë
ìĻĶ ëĭ¤
Ġ D
Ġê¸ ¸
Ġëħ Ĳê¸Ģ
ìĺ ¨ë
ìĽ Ķë
Ġí ĩ´
ĠìĹĨ ëĭ¤
ìĺģ ìĥģ
ìĦ ¤ë
ĠìĶ ¨
¬ ¸ë
ĠìĹ ´ë
ħãħħãħ ħãħħãħ
ë§ Ĳë
¨ë Ĥł
íĶ Ī
ìĭĿ ìĿ´
ìĪĺë ¡Ŀ
ë ¡¤
Ġìŀ Ħ
ìħ ľ
Ġíİ ĺë
ë ¡Ŀ
Ġì§Ħ ê°ģ
ìķĦë Ŀ¼
Ĩ Īëĵ¤
ìķĦ ìķ¼
ĠìĤ Ń
ĠíĮ ©
ãħħãħ ĮãħĬ
ìĿ¼ ì°¨
Ġê·¸ë ¦¼
Ġê·¸ë łĩê²Į
ê°Ģ ì§Ģ
ì° Ĳ
ìĭ «
Ġì¡´ë Ĥĺë
¦¬ë°Ķ ëĭ¤
ìķ °ë
Ģë ¹Ħ
Ġëª ¸
Ġìļ ¸
ì¹ĺ ê³ł
Ĳ ł
ëĶ ©
Ġ1 4
ì£¼ë ħĦ
ĺëĵ¤ ìķĦ
ľ ¨ë
ì² «
Ġë§ŀ ì§Ģ
Ġìĺ¬ë ł¤
ĠëĨ Ģë
ľ ¨
ëĬĶê±° ìķ¼
ìħ ī
Ġë¯¸ ì¹ľ
Ġê¼ ¬
Ġìĸ ĺ
łĪ ìĬ¤
Ġëĺ ĳ
ëĺ Ĳ
ħ Ĳ
Ħë §Ī
ìķĦ ì§ģ
ìĹĨ ëĦ¤
Ġë¹Ħ ìĬ
Ġë°Ķ ê¿
Ġëį°ë ł¤
Ġ L
ħ Ģë
Ġê· ¼ë
ĠëĤ ®
ìķĦë ıĦ
ìĦ¸ ê³Ħ
°© ìĨ¡
Ġíķ Ń
ĠìĹĨ ëĦ¤
ëį ±
Ġíħ Į
Ġãħ Ĥ
§Į íķľ
ĠíĮ ¨ë
ìķ ŀ
ëĬĶ ì§Ģ
ĠíĶ Ħë¡ľ
ĠíĹ Ī
Ĳë ĥĲ
§ Ľ
ĠìĻľ ì¼Ģ
Ġìķ Ķ
ĠìĤ¬ ê¸°
íĪ¬ íĳľ
Ġíį ¼
ê° Ķë
¦¬ ìĬ¤
ĠìŀĪ ìľ¼ë©´
Ġì¹ľ êµ¬
ĠëŃ Ķëį°
Ġê·¸ë ŀĺëıĦ
ì´Ī ìĹĲ
ì£¼ ê³ł
ĠìŀĲ ê¸°
ìĭ ¬ë
íĻĶë ĥĲ
ëĸ ¡
ĺ ìĬ¨
Ġë ¬¼ë
ĠíĹ ¬
Ġìį ¨ë
ĠìĹĦ ì²Ń
ìĦ¤ x
ĠëĲĺë ĥĲ
Ġëı ¼
Ġì¡ °ë
³ ´ëĭĪê¹Į
Ġê¹ Įë
ŀľë §ĮìĹĲ
ĠëŃĲ ìķ¼
ëı Ī
Ġë§Ĳ ê³ł
ìľł ì§Ħ
Ŀ¼ë ©´
Ġìŀ ĪëĤĺ
Ġìĭ Ŀ
íĺ Ī
ìļ ±
ì ·¨
Ġãħ¡ ãħ¡
ê± ´ë
ì¶ ĺ
íĿ ¬ë
ì¹ľ êµ¬
Ġë© Ķë
Ġì± Ķ
Ġë¹ łë
¦ ¿
Ġìĺ ·
ĠíĮ Ĳ
ìĻ ĵ
ëĬĶê±° ì§Ģ
Ġê³ł ëĭī
ìī ½
Ġë°Ķë Ģ
ëĭ ¨ë
Ĥĺ ìļĶ
íı ´
ì± Ķ
ë Ĳľ
Ġ T
Ġãħĭãħĭãħĭãħĭãħĭãħĭãħĭãħĭ ãħĭãħĭ
ê³ ¼ë
Ġë° ¥
íĮ ¨ë
ì°¨ íĶ¼
Ġì¿ ł
Ġì ĩ
Ġíķĺë Ħ¤
Ġì³ Ĳ
ãħı ãħı
1 7
Ġ a
Ĥ łë
ãħĭãħĭãħĭãħĭãħĭãħĭãħĭãħĭ ãħĭ
Ġê¸°ë ĮĢ
ìĦľë ²Ħ
Ġíĥ Ģë
ë°© ê¸Ī
Ġë Ŀ
ĠíĻ ©
Ġë°© ë²ķ
ĠíĽĦ ê¸°
ìĪ ĺëıĦ
ìĶ Ģ
ìŀ¬ë °
Ġíıī ê°Ģ
ìŀĲë Ĥĺ
ħ ķ
ìĿ´ ìĸ´
Ġì§ ľ
ìĨ Ķ
ìļ° ëĬĶ
´ ĲëĿ¼
Ħ ·
íķľ ëĭ¤ê³ł
íĸĪ ìĿĮ
ë ļ
Ġìĸ ¸ë
íĮ Ķë
Ġíŀ ĺëĵ¤
ë ¸
íİ Ļ
ĠìĬ¤ íĬ¸ë
ì£¼ë Ŀ¼
Ġì§ ±
ģ íģ¬
© Ķë
³ Ģ
Ġì ı
ë³ Ħ
Ġê°Ģ ë
Ġìĸ´ ì¼Ģë
ê¹ Ģë
ĠëĲ ł
íĬ¸ë ¡ľ
ĠëĨ Ī
ëħ Ĳê¸Ģ
ê²łë ħ¸
Ġìĺ¬ íķ´
Ġë¸Į ìĿ´ìķ±
ìĸ į
¨¹ ê³ł
ìļ° ìĬ¤
ì¿ łë
Ġíŀ ĺë
Ġë³ Ħ
íģ Ĳ
Ġãħĩ ãħĪ
ê°ĳ ìŀĲê¸°
Ġë° Ģ
Ġíķ´ë ıĦ
Ġìį ¨
§ ¤ë
ê±° ë¦¬
Ġê°ľ ì¢Ĩ
Ĵ ëĦ¤
ìĻ¸ë ¡ľ
Ġì¦ Ŀ
Ġì¢ĭìķĦ íķĺëĬĶ
Ġë ¡¤
ìķ ļ
ĠíĤ ¤ë
Ġëĸ¡ ë°¥
į ¤
ŀ Ļ
ìĹ ĳ
Ġê°Ģ ê²©
ìĿ´ íĺķ
Ġìĵ ¸
ìłľë ¡ľ
Ġìķł ëĭĪ
êµ Ĳë
ìĽ ł
ë² ł
Ġë ķĮë
ĠìĿ´ ê¸°
Ġíĭ Ģ
Ġëľ ¨
² ¨
ìķĦ ê°Ģ
Ġë² ķ
íı ¼
ìº ¬ë£¨
ê°¤ë Ł¬ë
ĠíĻķ ìłķ
Įë į°
íħĲ ì¸ł
ì§Ħ ëĭ¤
ĠìĹĨ ëĬĶëį°
ł¤ ëĬĶëį°
ìŀ ī
ìĻĶ ëĬĶëį°
ìĹŃ ìĭľ
ê±¸ë ¡ľ
Ġì¹ ĺë
Ġ A
ëĭ Į
íĬ ¼
ì° ¬ë
Ġì£ Ħ
ëĭ¤ ëĵ¤
íķ´ ì¤ĺ
ìĽĲë ŀĺ
ê·¸ë Ł¬
ĠëĪ Īë
Ħ Īë
ê°Ļ ëĭ¤
ê·¸ë £¹
ĠìĺĪ ìĥģ
ìĿ´ ê²ľ
ìĺ¤ëĬĺ ìĿĢ
Ġì¤ĳ ìĹĲ
Ġìļ´ë ıĻ
Ġíķĺë ĥĲ
ë³ĳ ìĭł
ìĿ´ë ĦĪ
Ġê° Īë
2 2
¡ Ń
ê² ¹
ëħ Ħëĵ¤
Ġ4 0
íİ ľ
íĸĪ ìľ¼ë©´
Ġì¢Ĩ ê°ĻìĿĢ
© °
íĦ ¸
Ġë¬´ ê¸°
¥´ ê³ł
ì¹´ë ĵľ
ħ ģ
ĠìĹ ¼
ìķ¼ë Ĳĺ
Ġìŀ ĪëĦ¤
íĮ ģ
Ġê°ľ ê¿Ģ
ëĵ¤ ìĿ´
ìĶ¨ ìłł
ë© Ķë
íķĺ ëĭĪ
Ĳë Ķ°
ĠìķĪë Ĳ¨
ĠìĦł ìĪĺ
Ġ t
ĠëĤ łë
Ġãħ ľ
ìŀ¥ ìĿ´
ĠìŀĪ ìĸ´
ĠìĤ¬ë Ŀ¼
ĠìĦ± ê³µ
Ġìĭ¤ íĻĶëĥĲ
ì§Ģë ŀĦ
ê¹ ¨ë
Ġê·Ģ ìĹ½
ìĭľ ìŀĳ
Ġì§Ģ ì§Ģ
ë² Ķ
ë ĨĪ
ì¸ łë
êµ ´ë
Ġìº Ĳ
ê±´ ê°Ģ
± ħ
Ħ £
ìĿ´ íĶĦ
ĠìĬ¤ íĤ¬
ìŀĲë §Ī
ì¦Ī ìĽĲ
Ġì¤ĳ ìļĶ
Ġëħ¸ë ¬´
ìħ Ģ
Ġìĸ´ ì©
Ġìĭł ê¸°
Ġì§Īë¬¸ ì¢Ģ
µ ľë
Ġ Ġ
ìķĦ ëĬĶ
ĠìĻ ķ
ĠëĤ ĺëıĦ
íĨ ¤
ìĺģ ë³µ
Ġê±° ìĿĺ
ëİ ĥ
° ĺë
į ķ
íķĺë Ł¬
ë°© ìĨ¡
Ġ P
ìķĦ ìĿ´ë
Ġì° ¨ë
ê·¸ë Ł¼
ìĽĮ ìĦľ
Ġì°¨ ìĿ´
ìŁ Ŀ
Ġë ¸Įë
íķ´ ì£¼
ĠìĹ °ë
Ġìĺ¤ ëĬ
Ġë¶ Ħë
¹ µ
ìĿ´ ê¸Ķ
ê¸° ìĤ¬
Ġë²Į ìį¨
Ġë¹ĦìĬ ·
Ġë´ Ĭ
Ľ °
Ġíĥ ĳ
Ġì½ ľë
ìĽĥ ê¸°ëĦ¤
ãħİ ãħİ
Ġë³µ ê·Ģ
ĠìĿ´ìģ ĺ
íĮ© íĬ¸
ĳ ¥
ìķĦë ³´
ìŀĲë ¦¬
ĠíĤ ¹
§ ¨
ëĭ¤ ë¦¬
ì¹ ¸
???? ????
ì²ł êµ¬
ìŀĪ ëĭ¤
ĠíĹ ¤
e a
ìķĺë Ħ¤
ĠìĦľë ²Ħ
² Īë
ìŀĲ ëĬĶ
ì¶Ķ ì²ľ
ìķłë ¯¸
2 5
ìĿ´ íģ¬
ìĬ¤ íģ¬
Ġì¤ Ģ
Ġëĸ ³
ìĸ¸ë ĥĲëĵ¤
Ġ m
Ġê° Ķ
Ġì§ ¤ë
ìĭľ ê°Ħë
Ġìľł íĬľë¸Į
ê³ł ëĭī
Ġê¸ ¸ë
¬ë ĵ¤
Ġì¢ĭ ëĭ¤
ĠìĪĺ ì¤Ģ
Ġìĭ Ń
íĺ Ħë
Ġìķłë ¯¸
ĠíĭĢë ĵľ
Ĳë Ħ¤
Ġì° Ĳ
ìĺģ ìĿ´
Ġê³µ ë¶Ģ
ëŃĲ ìķ¼
Ġì «
Ġì¡ ¸
ì¢ĭ ìĿĢ
ìķ ķ
Ġë¹Ħ êµĲ
ĥĲ ê³ł
Ġì ħ
ĠìĿ ½
ëª ¬
Ġê³łë ¯¼
ìľĦ ì¹ĺ
ê² ¼ë
íĥ Ń
ìĥģ ìĭĿ
ĠëĶ ľ
íģ¬ë ¡ľ
Ġíĸī ë³µ
ë Ŀ
Ġ1 9
Ġê´ĳ ê³ł
) )
ģ Ŀ
ĠìĹ Ķ
ì¡ Įë
Ġëĭ¤ë ĵ¤
ìŀĲë§Ī ìŀĲ
ĮĢ ì²´
ë Ł¬
ìĹ ĪëĥĲ
ìĹĲ ìĦł
Ġëĭ Īëĵ¤
ĠìĬ¤ íĥĢ
Ġíı °
ì ¨
ìĿ¸ ì¤Ħ
ìĽĲ ìĿ´
ëł Īë
ãħ į
ìĭ ¸ë
ìĽ ¹
ë° ľë
ĠëĬ ¥
Ġëĭ ´
ìĿ¼ë Ł¬
ê°¤ë Ł¬
Ġëĵľë ĶĶìĸ´
ķ Ĳ
Ġìľł ì§Ħ
ĠìłĦë ¶Ģ
Ġ ãĦ·
Ġìł ĪëĮĢ
ê¸° ìķĪ
íĥ ±
ê³Ħ ìłķ
Ġì» ´
ë² Į
Īë² ¨
_ _
ŀ Įë
Ġìĸ´ë ł¤
Ġì¢ĭ ìĿĢê±°
ĠíĶ Į
Ġíķľ ëĭ¤
íķłë ĵ¯
Ġì°¨ ëĭ¨
ãħ £
Ġë¹ ¨ë
ĠëĶ ¸
ê³łìĭ¶ ìĸ´
o n
ê²Į ìĿ´
íĺĦ ìĭĿ
Ġë ķĮë¬¸ìĹĲ
¼ë ŀĢ
¬ë Ħ¤
¦¬ ìķĦ
í ĵ
¨ë ²Ķ
ìŀĪ ìĸ´
ĠëĨ Īëĵ¤
ìķĺ ìĿĮ
ĠìķĦëĭĪë ©´
Ġë°Ľ ìķĦ
Ġìĥģ íĻ©
ĠëłĪ ìĿ´ëĵľ
ĠëĲĺ ëĬĶ
ł ĪëĤĺ
ìĹ °ë
ìĿ´ ê±´
ë§ ¤ë
ìĭľ ìķĦ
ĠìĨ Įë¦¬
Ġìĵ°ë łĪê¸°
Ġìķłë ¯¸ë
ìĺĢ ëĬĶëį°
ĠëĤĺìĺ¤ ëĬĶ
ìĦľ ìļ¸
ì° ¾
Ġë³´ ìĥģ
ê²ł ëĬĶëį°
íĨµ ëł¹
íķĺëĭ¤ ê°Ģ
ìĺ¬ íķ´
Ġìĥ Ģ
ê» ĺ
Ġíļ ¨
ìĺĢ ìĿĮ
Ġë§ ¨ëĤł
Ġë° °ë
ì½ ľë
ĠìĽ Ģ
ìļ°ë ©´
Ġë´¤ ëĬĶëį°
íļ į
ë¥ ĺ
Ġë§ ĺ
íķ´ë ³´
ì¼Ģ ìĿ´
ĠìĹ¬ ìŀĲë
ĵ ¬
Ġë Ĵ·
ëĭ Ń
ìĹ¬ ì¹ľ
Ġë³´ ìĹ¬
ĠëĮĢ ëĭ¨
Ġëª¨ ìĿĮ
ëŃ Ķ
Ġí Ī
Ġì§Ħ ìĭ¬
Ġê¸° ìĤ¬
¦ Ħë
ê·¸ë ¡ľ
Ġê¹ Ģë
Ġì½ ĺ
Ġë²Ħ ê·¸
íĥ Īë
ìĿ´ë ŀĢ
¦¬ ì§Ģ
ì¤ ĺë
^ ^
¯ ¼ë
Ķ ¸
ìĸ´ë ¡ľ
Ġê¸° ì¤Ģ
ìĺ¨ ëĭ¤
ĠìĦł íĥĿ
Ġíķ µ
Ġì§ ķ
ì¡ ĮëĦ¤
ìĶ ¨ë
Ġë§İ ìĿĢ
ĠãħĨ ãħħãħĮãħĬ
ìĿ´ë ²¤íĬ¸
Ġíĭ °ë
ĠãĦ·ãĦ· ãĦ·
Ġê²° íĺ¼
ê´ĳ ê³ł
ìĸ´ë Ŀ¼
ìĥĪëģ ¼ë
Ġìĸ¸ ê¸ī
ë ¸Įë
ĠìĿ µ
ĠìĿ¸ ìĬ¤íĥĢ
Ġê¸° ìĸµ
ìĹĺë §Ī
ìĸ ĺ
ìĵ° ëĬĶ
ŀ į
ìĿ´ ìĹĲ
Ġê°Ģ ìł¸
ĠãĦ± ãħĬ
ëĤĺ ìļĶ
ë² łë
ìľ¼ë ¡ľë
Ġê²° êµŃ
# #
ëĪĦ ê°Ģ
Ġíĺ¼ ìŀĲ
£ Įë
³ ¸ë
ìļ ´ëį°
ìĿ¼ ê¹Į
Ġ2 00
Ġê´ Ģëł¨
ĠëĿ¼ ìĿ¸
íĺ ¹ìĭľ
ĵľ ê°Ģ
Ġìĸ »
Ġë³ Ħë
íĮ Ĳë
ìĹĨ ëĥĲ
ê°¤ë Ł¬ë¦¬
Ġë¶Ī ìĮį
êº ¼ë
ê» ´
ìĹ Ħ
ĠìĿ´ ê±´
§Į íķ¨
³ĳ ìĭł
4 0
ı Ī
íķĺë £¨
ìĪĺ ëĬĶ
Ġê°Ļ ëĭ¤
ĠìĨĮë °Ķ
Ġê·¸ë Ł¼
Ġì¤ĳ êµŃ
Ġê³ł ìĨĮ
ĠìķĬ ìĿĮ
Ġê³Ħ ìłķ
ìĺĢë Ħ¤
í ĥĲ
íķ´ ìķ¼ì§Ģ
ìĹĪ ìĸ´
íķĻ êµĲ
Ġëĳĺ ëĭ¤
ĠìĿ´ë ²¤
Ġíĥ Īë
ĠíĮ¨ ì¹ĺ
Ġëĸ¡ ìĥģ
ŀ ľ
ìĿ´ë ĵľë
íĶ¼ ìħľ
² łë
ìł ¤
ĠëĤĺ ëĬĶ
ê°¤ ìĿĢ
ĠìĿ¸ ìłķ
Ġëĸ ´ë
íĪ °
ì İ
Ġë ī´
ĠìķĦëĭĪ ê³ł
ĠëĶ°ë Ŀ¼
íķ Ģ
íķľ ê±´
ëĤ ¬
Ġìĥ Īë¡ľ
Ġë¨¸ ìŀĦ
§Ĳ ê³ł
Ġê± ´ë
ë¡ľ ìķĦ
Ġëį ±
Ġ <
ìĭľ ê¸Ķ
ãħĭãħĭãħĭãħĭãħĭãħĭãħĭãħĭ ãħĭãħĭ
Ġìĸ µ
íħ į
Ġë¬¼ ìĸ´ë
ìĺ ¹
ìĺ¤ ìĬ¤
ê¾ ¼
» Ķ
Ġìĭľë °ľë
ĠìĦłë °ľ
ìĺ¤ëĬ ĺë
» Ĳ
ë Ŀ½
ìĤ¬ ê¸°
ëĭĪë Ħ¤
Ġì¶Ķ ê°Ģ
Ġë ©´
ľ ìĹĲ
ìĿĢ ìĻĶ
ê¸° ëıĦ
Ġëĭ ®
ëĵ¤ ìĿĢ
ĠëıĦ ìĻĢ
ĠìĻ ¸ë
ì£¼ ìĿĺ
ì§Ħ ì§Ģíķĺê²Į
ìķĺë ĥĲ
Ġê°Ħ ëĭ¤
° °ë
Ķë Ķ©
íı Ĳ
Ĳĺë Ĥĺ
ìĥĪëģ¼ëĵ¤ ìķĦ
ĠìºĲë¦Ń íĦ°
Ġêº ¼
P G
.. ?
ìĻĢ ìĿ´ìĬ¤
Ġêµ °
Ġì£¼ ìĭĿ
Ġì§ģ ìĹħ
° Ģ
ĠìĻ ľë
¦¬ë ıĦ
ĠìĻĢ ê¾¸
Ġ7 0
ìĿ¸ ìĿĢ
Ġìłķ ìĭłë
ìĹĨ ìĸ´
ĠìĤ¬ëŀĮ ìĿ´
Ġê²° ê³¼
ĠìĿĢ ê·¼
200 8
ĥ ī
Ġìĸ´ë łµ
Ġë©Ķ ìĿ´
-- --
2 3
ëĬĶ ì¤ĳ
ìĹ ´ë
ìĿ´ ê¸°
ìĸ ĺëĵ¤ìķĦ
ìŀĪ ìľ¼ë©´
ĠìķĮ ê³ł
ì°¬ ìĿ´
Ĥ ¸
Ġë º
ê² ¨ë
ìĸ ĺê¸°
´ëĭ ¹
ìĭ¬ íŀĪ
ìĿ´ë ¡ľ
ë§ İ
ê°Ļ ìķĦ
íĳ ¸
ĠìĦ± ëĬ¥
ê¿ Ī
Ġì¡´ë ²Ħ
ê±° ëĤĺ
Ġë łĪë
ìĽ ¨
ìĪ Ń
ì½ ©
íĳ ľë
ĠìķĦë ¬´
Ĳ Ĳ
ìł Ĳë
ì§Ģ ê²Į
ĠìĥĿê°ģ ë³´ëĭ¤
ëĶ Ķë
ĠëĶĶ ìĭľ
Ġì¥ ¬
1 00
Ġ V
Īë Ĥĺë
íķĺë įĺ
ìĭł ìĿ´
ìķĦë ¬´ë
Ġíľ ´
e r
Ġë ĩĮ
ë¶ķ ìĿ´ëĵ¤
ê½ ĥ
Ġì į°
ê·¸ë ¦¼
Ħë ¦¬
ìķĦ ê¹Į
Ġê³ ¨ë
Ġë§ŀ ëĥĲ
ì²´ ê°Ģ
Ġìķłëĵ¤ ìĿĢ
Ġì °ľ
Ġìķ ļ
ĵ¤ ìĸ´
¦¬ ì¦Ī
Ġê°Ĳë ıħ
ìĥ ·
ìĿ¸ ìĥĿ
Ġìľ ¤
¦° ê±°
Ġì²ł êµ¬
Ġì İ
ĠìĿ´ ìĥĪëģ¼
Ġëĭ ī
ì° °
ì£¼ë Ħ¤
ëĤĺë §Į
Ġìĺ µ
6 0
± ìłķ
ë Ĳ¨
ĵ¤ ìķĦ
íķĺëĬĶ ê±´
Ġìĸ´ë ķĮ
ê°Ģë Ŀ¼
Ġê°¤ ì£¼
ãħ¡ãħ¡ãħ¡ãħ¡ ãħ¡ãħ¡ãħ¡ãħ¡
ë ¸Ķ
ĠìĦ ¹ìĬ¤
Ŀ¼ë ³´
íķł ê±°
Ġë ®
ì§Īë ¬¸
ìĥĪëģ¼ëĵ¤ ìĿĢ
Ġìĥ ī
¥´ë Ħ¤
ìĿ´ ê¸´
ê³ł ë
ìĪ ĺëĵ¤
ìĿĦ ê±°
ë¹ ł
ìĹ ī
ìĦ± ìĿĢ
ì£¼ë ĥĲ
Ġë§Ī ìĿĮ
Ġíķ ĳ
íĹ Ĳ
ĠìĤŃ ìłľ
íķ Į
Ġì¡° íķ©
ê³¼ ê¸Ī
ê¸° ë¡ľ
Ŀ¼ë ¦¬
ĠìĽ Ķë
ìĹĨ ëĭ¤
ìķł ëĭĪ
ë£ ¡
ìĻĶë Ħ¤
Ġë³ ´ëĭĪ
Ġë¹ Įë
ìļ´ë ıĻ
Ġìłķ ë§Ĳ
ìķłëĵ¤ ìĿĢ
ë ¬¼ë
ìĹ Īëįĺ
ì¤ Ħë
ë§ ¥
Ġì¢ Į
Ġíķľë ªħ
Ġë© ĭ
Ġìī ½
ì§ľë ¦¬
Ġ M
ë§ ¨
Ġê³µ ì§Ģ
ìĦ¤ X
Ġë¿ Įë
ĠìĹ ¼ë³´ìĦ±
ĠìĬ¤ë °į
ë ĪĪ
ãħ ĵ
ìĿ´ íĦ°
ìĿ´ë §Īë
Ġìĭł ìºĲ
ì¡ ´ë
Ġë´ Ħ
Ġì± ħ
ãĦ ´ë
ìļĶ ìĥĪ
Ġë³´ë ĬĶëį°
Ġë¯¸ ì¹ľë
ìĺ¬ë Ŀ¼
Ġíħ Įë
³ ¼ë
ĠìĥĿ ìĿ¼
ìĺ¤ëĬĺ ìĿĺ
ê³łìĭ¶ ìĿĢëį°
ìĭł ìºĲ
ĠëĬ ĺ
ìĺ¤ëĬ ĺëıĦ
ì į°
ĳ ìĹĲ
ëĬ ĴëĦ¤
íĥľ ì§Ħ
ĠìĽĲ íĥĳ
ŀ Ĳ
íķ´ ìļĶ
ì¡ ¸
Ġíĺ Ĳ
ì¸ Ħ
ĠíĿ ¥
ë ´Ĳ
Ġë° ¤
Ġìĥ Īë²½
ìĬ¤ë °į
ëĮĢë ¡ľ
ëŀ µ
íıī ê°Ģ
Ġ f
¥´ë ©´
ĠíĴ į
ĠìķĦìĿ´ë ıĮ
´ë °°
Ġìļ Ķë
Ġì¢ĭ ìĿĢëį°
Ġãħħãħ ĮãħĬ
ìĿ¼ ëĭ¨
ìłĢ ê±°
Ġãħĭãħĭãħĭãħĭãħĭãħĭãħĭãħĭ ãħĭãħĭãħĭ
ìĿ´ëĭ Ŀ
ë¨¸ë ¦¬
į ¸
ìĬ¤ íħ
Ġ6 0
ìł¸ ìĦľ
ŀ Ń
ìĹĲ ìĦľëıĦ
ìĺģ ìĽħ
Ġë´ ĲëıĦ
Ġë³ĳ ìĭłëĵ¤
Ġë Į
ì§Ģ ë§ĪëĿ¼
ĠìĻ Ħë
Ġíĥ Ŀ
ë ĵľ
Ġë³ ´ëĭ¤
ãħĩ ãħĪ
ĵľë Ħ¤
Ġì¹´ë ĵľ
Ġ b
ê² Ģë
ĠìĽĥ ê¸°ëĦ¤
ë ´
ìķ ĪëĤĺ
ĠìŀĪ ì§Ģ
ĠìĹĨ ìľ¼ë©´
§ Įëĵ¤
Ĥĺë ©´
ĠìĹŃ ëĮĢ
ĠìķĦëĭ Įëį°
ë £¨ë
íĺ ĳ
ê³µ ì§Ģ
Ġë§Įë ĵł
§Į íģ¼
¨¸ë ¦¬
Ġìĺģ íĻĶ
ĠìĻĶ ëĭ¤
Ġê·¸ë łĩ
Ġìłķ ëıĦë
ĠìĿ´ëŁ° ê±°
ì§Ģ ëĥĲ
ì¹ĺ ê°Ģ
ĠìĿ¸ íĦ°ë
íĹ Į
Ġìĥģ ê´Ģ
ê²Ł ëĭ¤
Ġ l
ìĿ´ë ²¤
íĸ Īëįĺ
Ġìĸ´ëĸ ¡
2 1
ĵ £
Ķ ´
ìĿ į
ë° ĸìĹĲ
ĠìĦľ ìļ¸
ìĭľ ìłĪ
Ġê·¸ë ¦¬
Ġëĵ¤ ê³ł
Ĥĺ ëĬĶ
Ġãħ Īë
J PG
¿ Ĳ
ìĶ ¨ë°ľë
íĬ¸ ê°Ģ
ĠìĬ Ī
ĠìĨ Ķ
íĹ ¨
³´ë ĵľ
ìĤ¼ ìĦ±
ê°Ģ ì¶ķ
ì£¼ ëĭ¹
Ġê°Ģ ë©´
Ġê°ľ ì¶Ķ
íĸĪ ìĸ´
ë¹ ħ
Ġìŀĺë Ĥĺ
Ġë ¡¤ë
Ġê° ĸ
Ġìłķ ìĭł
ì» ¬
ëı ¼
Ġë² łë
ĥ Ī
ê°Ģ ëĦ¤
Ġëĭ¤ ìĭľë
ìĸ´ë ³´
Ġì¢ĭ ëĦ¤
Ŀ¼ë §Ī
Ġë°ĺ ìĿĳ
íķĺ ê¸Ķ
ë³ ¼
Ġê³ ¨
£ ¡
ìĿ¸ ê²Į
Ġë³´ íĨµ
ł¸ ëĭ¤
Ġì» ·
ëĤ¨ ìŀĲ
ĠíĻķ ë¥ł
ë© °
Ġì¢ ĥ
ĠìĹĨ ì§Ģ
ãħ ĳ
Ġìĭľ ì²Ń
ìĥĪëģ¼ ê°Ģ
ìĥĿê°ģ íķ´ë
© ĶëĿ¼
³ ´ëĭ¨
Ī ĪëĤĺ
łë ĥĲ
ìĤ °ë
ëį° ìĿ´íĬ¸
Ġìłķ ëıĦ
Ġë¶Ģ íĥģ
íķĺì§Ģ ìķĬ
Ġ d
ľ ¸
Ġì µľë
íķ Ħë
ì¹ ¨ë
ĠëģĿ ëĤĺ
íĵ ¨
Ł ´
Ġë§ ¥
ëĭĪ ê°Ģ
íĤ¤ ì§Ģ
Ġë°© ê¸Ī
ĠìķĮë °Ķ
ĠìĽĥ ê¸°
7 0
ê² ģ
ĠìĿ Įë
íĤ ¬ë
Ġëĸ łë
ĠìĻĦ ìłĦ
Ġíķ Ħë
Ġê°Ģ ì±ł
.... ....
Ġ v
ìĹ ¼ë³´ìĦ±
íŀ ĺ
¯¼ ìĿ´
Ġë ĵ¯
ĠëĤ ľë
ĠëĤĺ ìĻĢ
Ġìľ ¡
Ġë¨¹ ê³ł
Ġì± Ļ
Ġíķĺê³ł ìĭ¶
@@ @@
Ġë ¸Ķ
Ġë° Ģë
ħãħ ħ
ĠìĬ¤ íĤ¨
ĠìłĲ ê²Ģ
¡¯ ëį°
ĠìĿ´ ìķ¼
íķ´ ìķ¼ë
Ġë¬´ ìĦľ
ĠìĻľìĿ´ë ¦¬
ì Ń
ì ©Ķ
ì¤ Įëĵ¤
ì§Ħ ê±°
Ġ2 5
Ġìĸ´ ìºĲ
Ġë© ľë
ĠíĺĦ ìĭ¤
Ġì»¨ íħĲì¸ł
Ŀ¼ ìĦľ
ì¹ ¼
ĠìĹ ł
ĠëĤĺ ìĺ¤ë
ê¸´ íķ¨
íĮ¨ ì¹ĺ
ĠìĪľ ìľĦ
Ġê·¼ë ³¸
Ĩ į
ł ·
Ġì§ Ī
íŀ Į
Ġê¼ ´
Ġê »
ìĬ¤ íĨłë¦¬
ìŀ¥ ìĹĲìĦľ
ëª ½
Ġìłķ ë³´
Ġë§Ī ìĿ´ëĦĪ
ĠëĬ ¦
ìį ¨ë
Ġëľ ¨ë
ì¡Į ëĭ¤
ĠëĤĺ ìĺ¬ë
Ĥĺë Ŀ¼
ë ĳĲë
ł ¨ëĵ¤
ìŀĲ ê³ł
ĠíĮ Ĳë
ê²ł ìĸ´
ë ĥ¥
Ġ c
ħ Ħë
ł Ļ
ì¹ ©
ĠìĹ ĺ
ĠëĮĢ ê¸°
ìĬ¤ë ¡ľ
ìĬ¤ë Ł¬
ëł ¬
ìĹ ¿
ëĭĪ ê¹Ĳ
ìĿ¸ íĬ¸
Ġãħ į
ì¤ĳ ìĿ¸ëį°
Ġãħİ ãħİ
Ġë¨¼ ìłĢ
ĠìĿĺë ¯¸
Ġ n
ì½ ľ
Ł¬ ê°Ģ
ì¤Įë §Ī
o r
íĮ ¨ëĵľ
íķĺë Ĥĺë
ìłľ ê°Ģ
ĠìĦ ¼
ĠìĪ ¨
ĠìĪ Ļ
Ġëª» ìĥĿ
ìķł ì´ĪìĹĲ
íĴ Ģë
ìĿ´ëĿ¼ ëĬĶ
ìĬ ¨ë
Ġëĭ ¨ë
?? ???
Ġê¸ Ģë
ĠëĶ Ķë
§ ¥
Ĥ Į
ĠìķĪë ĲĺëĥĲ
Ł¬ë ĥĲ
ì¹ĺë ©´
ĠëĬĲëĤ Ģ
ê¼¬ë §Ī
¦ °ë
Ġì Ł
ì¼ ľë
Ġë¯¸ êµŃ
Ġìĭł ê³ł
Ġì¹ľ êµ¬ë
¹ łë
ŀ ¨
ĠìĤ Ĳ
ìłķ ë³´
Ġê°Ģ ìĬ´
ìłģ ìĿ´
ëĤĺë Ħ¤
ê· Ģë
Ġì² ¨
Ġëª ¸ë
ì¶ ľë
ëį Ķë
ĠíĭĢë Ķ±
ĵ Ģ
ŀ Ħë
ĠìĪ ł
Ġìĺ¤ë ŀĺ
ĠìĶ¹ ëįķ
ì½Ķë Ħ¤
ëĨ Īëĵ¤
ģ Ķ
íĶĦë Ŀ¼
´ë °±
Īë Ł°
íĸ ĪëĥĲ
Ġì¡ ¸ë
ê°¤ ìĿ´
Ġ2 4
íķĺëĬĶê±° ìŀĦ
ĺ ¥
ìĥ Īë²½
ĠìĽ ħ
ì½Ķ ìĿ¸
Ġìĥģ íĸ¥
Ĵ¤ ì§Ħ
ĠíĻķ ìĭ¤íŀĪ
ì¤ĺë Ŀ¼
Ĥĺ ìĺ´
Ġìĺ Īë
ìĿ¸ë ĵ¤
ĵľë ¦½
ìŀ ĪëĤĺ
Īë į°
ìĤ¬ë ŀĮëĵ¤
Ġëª¨ë ¥´ëĬĶ
Ġìĺ Ĩ
ĠìłĦ ìĹĲ
ī´ë ¹
ĠëĦĺ ìĸ´
Ġìłľë ĮĢë¡ľ
ì¤Įë §Īë
ë ł¤
ê² Ĩ
Ġìŀ ¦
ĠìĬ ¬ë
íĭ ´
³´ ê¸°
20 20
íĻ Ģ
Ġê·¸ë ŀĺ
ê·¸ ìĺ¤
ìł Īë
Ġë¶ ģ
Ġì¤ ĺ
ëĶ °ë
ĠëĨ Ģ
Ġëħ¸ ìŀ¼
Ġê´Ģ ìĭ¬
ĠìĹ´ ìĭ¬íŀĪ
Ġì»¨ ìħī
ìĿ¼ ìĿ´
ìĸ´ë ĶĶ
ĠìĹĨ ëĤĺ
Ġëª¨ë ĵł
ĠìķĦëĭ Ĳ
ê¸° ë§Į
ë§ Ľ
¦¬ë ¡ľ
íİ «
ŀ ¬
ê² °ë
Ġë§ ģíģ¬
ĠìĨ Ķë
Ġê³µ ê²©
Ġë´ ĲëĿ¼
ìŀ¬ ìĿ¸
ĠìĿ´ìģ ľ
Ġë© Ģ
ĠìķĮ ìķĺëĬĶëį°
ìķłë ¯¸ë
ëĮ ķ
Ġì ¸
íķĺ ìĦ¸ìļĶ
Ġê± ±ìłķ
ĵľë ¡ľ
ĠìķĪë ³´
ãĦ·ãĦ· ãĦ·
Ġì¢Ĩ ë§Ŀ
Ġê°ķ íĻĶ
ìĿĳ ìķł
Ġê¿ Ī
íķ µ
ìĬ¤ íı¬
ìĿ¸ ê³µ
ĠëĲ Ĳ
³´ë ĬĶëį°
ê³łìĭ¶ ëĦ¤
ë¹Ħ íĬ¸
ĠëĿ¼ ìĿ´ë¸Į
ëĭ¤ë ¥¸
ħ Ĳê¸Ģ
ãħ Ĩ
ìľ Ļ
íģ °
ĠëĤ´ë ł¤
ìĿ´ë Ŀ¼ë
Ġêµ °ëĮĢ
ĠíĶ Ħ
ìĨĮë ¦¬ë°Ķëĭ¤
íĥľ ê³¤
Ġê²Į ìĿ´
ìĿ´ë§Īë ¥´
ŀ Ģë
ĠìŀĪ ëĬĶê±°
ìĹĨ ëĬĶëį°
Ġíĥ Ħ
ĠìŀĲ ìĤ´
ìķĮë °Ķ
ê³ ¨ëĵľ
ĠëĤ ¨ë
ĠíĮ ¬ë
ĠìĹ¬ ì¹ľ
Ġíķ© ê²©
ì§Ģ ëĬĶê±°
ĠìķĪë ĲĺëĬĶ
ĠìŀĲ ì£¼
ëĤĺë ©´
Ġìŀ¬ë° ĭ
Ġìŀĳ ëħĦ
ìĿ´ ìķĦ
ê¹ Ķ
ìķ¼ êµ¬
ìĤ¬ ìĿ´
ìļ° ê³ł
Ġì¹ Ń
Ġê°Ļ ìķĦ
ìĿ´ë²Ī ìĹĲ
Ġì½Ķ ìĬ¤
ĠìĹĲ íĶ½
ìĺ¤ëĬĺ ìŀĲ
ì½Ķ ìĬ¤
ĠíķĺëĤĺë ıĦ
ĠíĪ ¬ë
ìľĦ ê¸°
ĠãĦ± ãĦ±
ĠìĹ¬ê¸° ìĦľ
ìĹ ¼ë
ãħĭãħĭãħĭãħĭãħĭãħĭãħĭãħĭ ãħĭãħĭãħĭãħĭ
ìŀ¥ ìĿĢ
Ġëĭ¤ íĸī
ìłĲ ê²Ģ
ìĥĪëģ¼ ìķ¼
Ġíĳ ¸
Ġëŀ Ń
ê³ł ëĶ©
ìĿ´ë ŀĺ
ĵľë Ŀ¼
ìŀĪ ì§Ģ
ëı Įë
Ġê¸°ë ĮĢë
Ġëľ ¬
ìĺ ĽëĤł
ì´ Į
Ġëĸ ´ëĭ¤
ìĸĳ ìĿ´
¥ ¸ë
ìĸ´ ì°¨íĶ¼
íĬ Ń
ĠìĽ Į
íĶ¼ ìĬ¤
Ġë§İ ëĦ¤
ëĶĶ ìĭľ
Ł °ë
ëĵ¤ ìķĦ
Ġë² Ķ
ë¹ ¨ë¦¬
ì§ĢìķĬ ìĿĮ
ê¸°ë ¥¼
Ġíħ ľ
ëĦĪë ¬´
ĠíĶ½ ìĹħ
¤ë ¹Ħ
íĮ Ŀ
Ġë§Ĳ ìĿ´
Ġë¬´ë ĮĢ
Ġì±Ķ ìĬ¤
ë Łī
ìĺ Īë
ìĬ¤ íħľ
ëĭĪ ëĬĶ
Ġë° ĸìĹĲ
ìĿĦ íħĲëį°
ìĶ ¬
Ġê°¤ë Ł¬ë
Ġìľłë ıĻ
ì§¤ë ħĢ
0 8
Ġ /
ìķ¼ ê²łëĭ¤
ìķłëĵ¤ ìķĦ
ĠìłĢë łĩê²Į
¶Ģë ¶Ħ
ë ĵĿ
íĬ¸ ëĬĶ
Ġì¢ĭ ëĥĲ
íĥĢ ìŀĦ
Ġë³´ ê³łìĭ¶ëĭ¤
ì³ ¤
Ġê¸°ë ³¸
ĠëĤ´ë ħĦ
ĠìĮ į
ľ ¬
ìĦ ¹ìĬ¤
Ģë Ŀ¼
íĢ ¸
Ġìķ ±
¤ë ²Ħ
ĠìĹ ¼ë³´
ìĿĺ ìĻ¸ë¡ľ
ìĹ¬ ìŀĲë
ĠìĽ ¹
ê´ ´ë
ìĦł ìĪĺ
ë¹ ¨
ĠìķĦë¬´ë ıĦ
¡ ¬
ê¹ Ŀ
ê¹Į ìļĶ
ê²° êµŃ
ëĭĪ ìķĦ
ëĤ łë
ìłķ ìĿ´
ĠìĨ ¡
ŀľë ĵľ
Ġìĸ´ëĬĲ ìłķëıĦ
§ Ĳë
ģ ¼ë
¨¹ ìĿĮ
Ġì¤ Ģë¹Ħ
Ġìľł íĬľë
ĠìĹ° ìĬµ
ì¹ĺë Ħ¤
ł¸ë Ħ¤
Ġ N
íħ Ķ
ì¤ĳ êµŃ
Ġê·¼ ì²©
ĠëıĦë ĮĢì²´
ĥĦ ìĥĪ
ëª ĩ
ĠëĮĢ ì¶©
ì¤Ģ ìĿ´
ĠëĦĪë Ħ¤
ĠíĶĦë ¦¬
ì¤ Ģë
ĠëĤĺ ê°Ģ
Ġìĸ´ë ĶĶë
Ġìĭľ ìĥģìĭĿ
ĠëĶ ľë
Ġë§İ ìĿĮ
ĠìĥĿê°ģ íķ´ë
ĠìķĦë ĥĲ
ëĶ ¸
Ġëį°ë ·Ķ
ĠãħĤ ãħħ
ê¸° ë©´
ì¹ °
ĠìĦ Ń
~~ ~
ĩ ¨
Ġí ŀĺ
Īë įĶëĭĪ
ìŀĳ ëħĦ
Ġëªĩ ê°ľ
Ġëį ķ
Ġì½Ķë ¡ľëĤĺ
Ġì¢Ĩê°Ļ ëĦ¤
ìł ĸ
ìĬ ¼
ìĥģ ìĿ´
Ġê¸ Īë
ì¡° ìĦł
Ġë³´ë Ĥ´
ì± Ħë
íķľë ĵ¯
ëŀ Ń
íĻķ ìĭ¤íŀĪ
Ġë¡ľ ìķĦ
Ġ jpg
¤ë ıĦ
ìĿĦ ìĪĺ
ìĺ¤ë ŀľë§ĮìĹĲ
Ġìĥģ ëĮĢ
íķ´ìķ¼ íķ¨
ì§Ģ ìĽĲ
ê³ł ë³´ëĭĪ
ãĦ ²
ì¢ Ģë
ê·¸ë ŀĺ
Ġê³µ ê°ľ
íĭ° ìĸ´
íĳ ¸ë
Ġíı¬ ê¸°
ëįĺ íĮĮ
Ġ B
Ġë Ľ°
Ġìķ ¨ë²Ķ
ì² ¨
ìĸ´ë ²Ħë
ķĮë ıĦ
ĠìĤ¼ ìĦ±
ì¨ ©
Ġì§Ħ ì§ľë
Ġë§İ ìķĦ
ìŀ¬ ìķĻ
íİĺ ìĿ´
Ġìķłëĵ¤ ìĿ´
Ł½ ëĭ¤
ê¸° ìĹĲ
ìĭł ê³¡
Ġì§Ģ ê¸Īë
Ġëª» íķĺ
ĠìĪĺ ìĺģë³µ
Ġìľł ëĭĪ
ĠìķĦëĭĪ ì§Ģ
ìĿ¸ ëĭ¤
ë³ ´ëĭĪê¹Į
íŀ Ľ
íĥĢ ëĬĶ
ĠìĤ¬ ëĬĶ
ĠìĦ¸ ê³Ħ
ë©Ķ ìĿ´
Ġê¾ ¸
ìĿĢ ê²Į
ìĺ¤ ìĺ¤
¨¹ ëĬĶ
ëħ Ĳ
Ġë¹ ħ
ìľ¼ë©´ ìĦľ
w w
ìĬ Īë
ĠíķĺëĬĶ ê²Į
Ġë§Įëĵ¤ ìĸ´
ĠìĨĲ ìłĪ
íķĺê³łìĭ¶ ëĭ¤
¥ ¼ë
ìŀ ¦
Ġê³ §
ãħĭãħĭãħĭãħĭãħĭãħĭãħĭãħĭ ãħĭãħĭãħĭ
¦¬ë ħ¸
Ġìłķ ì§Ģ
Ġë§Įë Ĥĺ
Ĭ Ķë
Ġìĭ ¹
ì¡ ĭ
ĠìŀĪ ìĿĦê¹Į
ìŀĪ ëĬĶê±°
Ġë¬´ ìĦŃ
ì£¼ë Ķ±
ìĵ ¸
ĠìĪĺë ¹Ħ
a c
Ĥĺ ê°Ģ
Ġìĸ´ë Ķ
Ġì¹ ¼
ìļ°ë ¦¬ë
ìĿ¸ê°Ģ ìļĶ
Ĥ´ë ĬĶ
ł¸ ëĬĶëį°
ìĵ°ë ©´
ê³ ¨ë
Ġìŀ Ķ
Ġê·¸ë ŀĺìĦľ
Ġë¹ µ
Ġìłķ ì¹ĺ
Ġì§Ģ ìĽĲ
Ġìŀ¬ë° Įë
ĠíķŃ ìĥģ
2 4
ķĮ ê¹Įì§Ģ
Ġëı Īë
ìłĲ ìĿ´
³¼ ê¹Į
ëĭ¤ëĭĪ ìĹĺ
ìĿ´ë ¦Ħ
ìĿ´ë ĬĶëį°
ê·¸ë Ł°
ĠìĬ¤ íı¬
Ġê´ ´ë
íĺĦ ìĿ´
ĠìĽĥ ê¸´
Ġìŀĳ ê°Ģ
Ġìĵ°ë ©´
ĠìĹħ ëį°ìĿ´íĬ¸
ĠíĢ ĺ
Ħ Į
ìĿ´ ìĿ´
íķ´ ì¤Į
ê°Ħ ì§Ī
êµ¬ë ¦¬
Ġãħĭãħĭãħĭãħĭãħĭãħĭãħĭãħĭ ãħĭãħĭãħĭãħĭ
ħĦ ìķĦ
ìĹĲ ìĿ´
ìĹĲ íĶ½
ĠìĤ¬ ìĿ´
íĺķ ëĭĺëĵ¤
ëĦ ĺ
ë¬´ ê¸°
ëĵľë ĶĶìĸ´
Ġê¼¬ë §Ī
ìĸ´ë ĬĶ
Ġê³µ ëŀµ
ë² Ħë
íĥĪ ìĽĮ
íķľ íħĮë
ìĭľ ëĭ¤
Ġë³´ ì§Ģ
Ġê°ľ ìĿ¸
ĠíĹ ¤ë
Ġìĭ¶ ìĿĢëį°
Ġìķ¼ êµ¬
ĠìĿ´ë²Ī ìĹĲ
ìķ°ë ĵ¤
Ġë§ĺ ìĹĲ
Ġ K
ê°Ģ íħĮ
Ŀ¼ ê°Ģ
ĠìķĦ ìĺĪ
ìŀ¥ ìĹĲ
ëĤĺ ìĦľ
ì¢ĭ ìĿĮ
Ġëĵ¤ìĸ´ ê°Ģ
ĠìĹħ ëİĥ
ìĻĢë Ŀ¼
Ġíĩ´ ê·¼
Ġãħľ ãħľ
] [
¼ ëĭ¤
¦¬ ëĬĶê±°
ìĥ ĺìĬ¨
Ġìĺ ĽëĤł
íķĺë įĶëĿ¼
Ġë¨¹ ëĬĶ
ĠëĨ ĵ
ĠìĿ¼ë °ĺ
Ġìµľë ĮĢ
Ġ F
ĩ ´ë
ê· ľë
íķĺë įĺëį°
Ĥĺë §Ī
íĶĦë łĪ
Ġê²Ģ ìĥī
ëĭ ĺë
ìĹ Īëħ¸
ĠìĹĨ ìĸ´ìĦľ
ëģ Ŀ
Ġì¦ Ĳ
ìĹ Ħë§Ī
Ġëª °
ìłĢ ëĬĶ
Ł¬ë ©´
Ġë¬¸ ê²½ì°¬
íķĺì§Ģ ë§Ī
ĠíĿ ¬
ìŀĩ ìĿĮ
¶ Ħëĵ¤
Ġ k
ìĿ´ë ĵł
ê·Ģ ìĹ¬
Ġë¹ł ëĬĶ
Į íĹ¨
ĸ ¼
¬´ ê¸°
ĠëĤĺ ìĺ¤ëĦ¤
êµ¬ë §Į
ìļ´ ê±°
Ġëģ Ĭ
Ġíĺ¸ ê°Ĳ
ê·¼ë ³¸
ĠìĦ¤ë ªħ
a n
² ½
¹ Ļ
Ġê·¸ë Ł¬
ìĽĲ ìĺģ
ìļ° ê°Ģ
·° ì§Ģ
Ġìĸ´ì© Į
ĠìĽĢ ì§¤
8 0
Ġê°Ģ ëĬĶ
íİ Ģ
Ġëı Įë¦¬
ìŀħ ê°¤
.... ..
© ìĿ´
Ġë £¨ë
íĹ ¬ë
ìı ĺ
ëĭ¤ ë©´
ìĬ¤ ì¹´
Ġê³ ¡
ì£¼ ìħĪ
Ġê² ¨
ĵľë ¦¼
ëĦ ¤ë
ĠìķĮ ìķĦë
ª ¬
íĬ Ģ
Ġíĺ ľ
ĠìłĦ ìĦ¤
ìĵ° ê³ł
ĠìłĢë ħģ
Ġê°Ī ìķĦ
Ġ e
Ġë Ł¬
ê°Ģ ìĿ´ì¦Ī
... ?
Ġëª» ë
ë¬¸ ê²½ì°¬
Ġì°¨ íĬ¸
Ġëĵ Ģ
Ġì±Ħ íĮħ
ìĻĦ ìŀ¥
Ġëļ «
Ġìĥ ĺìĬ¨
Ġ3 00
Ġìĵ ´
??? :
ìĥĪëģ¼ëĵ¤ ìĿ´
ĠãĦ·ãĦ· ãĦ·ãĦ·ãĦ·ãĦ·
Ġë¬ »
£ ¸
íĸ Īëħ¸
Ġë§ŀ ëĬĶ
íĺĦ ìŀ¬
Ġëª© ìĨĮë¦¬
ĠìĬ¹ ë¦¬
ĠíķĺëĤĺë §Į
ê¸° ê³ł
ĠìĤ¬ ìļ©
ê±¸ ê¹Į
Ġ8 0
ĠíĬ¸ë łĪ
Ġë¯¸ë ŀĺ
¦ ī
² Įë
Ĩ Ķ
êµ °ë
íı ´ë
ìĹ¬ ìĦľ
ê°ľ ìĽĶ
íĻĶ ê°Ģ
ĠìŀĲë Ł¬
ĠìłĢë Ł°
ëłĪ ìĿ´ëĵľ
Ġì³Ĳë §ŀ
Ġì§ľ ì¦Ŀ
ª °
ìķĦ ìĽĥ
êµ¬ ëĬĶ
ĠìĶ ¨ë
ì²ľ ìĽĲ
Ġìĭł ê²½
ë¯¸ êµŃ
Ġìĭ¤ íĮ¨
ĠìĿĳ ìĽĲ
° ¤
Ġìĭ ±
ìĿ¸ ê°Ħ
ĠëĤ Ļ
ĠëĤĺ ìĺ¤ëĥĲ
ĠíĮ ģ
Ġì² ´ë
Ġëħ¸ë ŀĺë
ê¹ħ ìĿ´
ĠëĿ¼ìĿ¸ ìĹħ
8 4
ìĬ¤ íĤ¬
ìĭľ íĤ¤
ĠìĿ´ë ĵĿ
ĠìĨ Ĳë
ê°ľ ìĿ¸
ëĭĺ ìĿ´
ì°¨ ìĿ´
Ġë°Ķê¿ Ķ
Ġ O
ãħ ī
íĬ¸ë ¦¬
ìĭ¤ ìĭľê°Ħ
Ġíķ´ ìĦľ
ìķĪë ħķ
ĠìĻĶ ëĬĶëį°
Ġë©ľë ¡ł
¦ ¼ë
ì§Ħ ìĭ¬
ĠìĽ Įë
Ġíı Ĳ
ìĺĢ ìľ¼ë©´
ëħ¸ë ŀĺ
ĠëĶ°ë ¡ľ
ł ì§Ģ
ìŀ Īëħ¸
ìľł íĬľë¸Į
ĵľë ŀĳ
Ġì¤ĳ ê³Ħ
ê²łë ĥĲ
Ġíıī ê·ł
íĸĩ ëĬĶëį°
¶ Ħë
ĠìĹ ¼ë
ìĿĺ ìłĲ
Ġë¹ ¼
Ġ5 00
Ġë¹Ħ íĭ±
ĠìľĦ íķľ
ìĪł ìĤ¬
ìĦłë °ľ
ê° ±
Ġê ¶
íķĺ íķĺ
ìĭľ ì¼ľ
Ġê°Ģ ì§Ģê³ł
ì¤ĳ ê³Ħ
ì¹´ íİĺ
íĹ ¤ë
ìľĦ íĦ°
ìĥĪëģ¼ ëĬĶ
ĠìĿ´ìķ¼ ê¸°
ê° Ŀ
ê°Ģ ëĭ¤
ìĭľ ìĺ¤
ëĤ ¨ë
Ġêµ ´ë
Ĥĺë Ħ¤
Ġíı ¬ë
³¸ ëĭ¤
ì± Ļ
ê²ĥ ê°Ļ
ìķĪë Ĳĺ
Ġê°ĢëĬ¥ íķ¨
ìĹ¬ê¸° ìĦľ
ëĨ į
íĶĦë¦¬ ì¹´
į ľ
ìķĦ ì¹¨
ê¸° ìłĦìĹĲ
¦¬ë ¥¼
ıĻ ìĥĿ
Ġêµ Ĳë
Ġìŀĺ íķĺëĬĶ
ë§Ī ê°¤
Ġëĸ ł
ĠìłĢ ê²©
Ġìĭ¤ë ł¥
ŁŃ ìĭľ
Ġì Ń
ìĹ ¼ë³´
ê°Ģ ìĬ´
ê² ľë
ìĹĲ ìļĶ
ìľ Ĺ
Ġì§ Ħë
íĮ ¬ë
íķł ìĪĺ
Ġëħ ¹
¦Ń ìĬ¤
Ġëĵľë ¦½
ìĦ¸ë ĮĢ
ĠëıĦë °°
ĠíĮĮë Ķ±
9 9
Ĥ Ģ
ì§ Ń
íķľ ê°Ģ
Ġìļ ¸ë
Ġìĸ´ ê·¸ë¡ľ
Ġìĺ¬ë ł¤ë
ì¹ľ êµ¬ë
Ġìķ¼ ì§¤
ĠìĹŃ ìĭľ
Ġëķ ¡
¯¸ ê°Ģ
ì§Ħ ê°ģ
Ġê°Ļ ìĿĢê±°
ĠëĪĦ êµ°
ìĸ¸ ìłľ
ì¢ħ ìĿ¼
Ġìļķ ë¨¹
ëĭ¤ ìĭľ
ìĿ´ë įĶ
Ġê³ ¨ëĵľ
Ġê¹ Ķ
ĠëĮĢ ê°Ģë¦¬
ê´ Ģë
Ġë°Ķ ê¾¸
ê±°ê°Ļ ëĭ¤
ĠíĦ ¸ë
Ġê°Ĳ ìĤ¬
ĠëĳĲ ê°ľ
³ ìĿ´
´ £
ĵ łë
ìĿ´ ìģ
ì§Ģ ì§Ģ
ìĤ Ĳë
íķĺë Ŀ¼ê³ł
ìŀĲ ê¾¸
ìĨĮë ħĢ
¥´ë ĥĲ
;; ;
ĳĲë §ģ
ëĬĲë ĤĮ
ãħ ĥ
Ġíķ «
ìĨ ©
ì£¼ ìĭĿ
ìļ° ìĬ¹
Ġíķľë Ĥ¨
ĠíĬ¸ë ¡ľ
Ġë°ľ íĳľ
ìĸ¼ êµ´
Ġìŀ Īë
Ġìł ĸ
ì° Įë
ì£¼ ìĿ¼
Ġë³´ ìĬ¤
ìĨĮ íĻĺ
ĠìĪĺ ìłķ
ê¹Ģ ì¹ĺ
ĠìĦ± ìłģ
ì½Ķë ĵľ
Ġêµ¬ íķ¨
ĠëŃĶ ì§Ģ
ãħľ ãħĳ
Ġì¥ Ĳ
Ġê¿Ģ ìŀ¼
íĪ¬íĳľ ìĿ¸ì¦Ŀ
Ġìłķìĭłë ³ĳ
¹ ¨ë
Ĥ «
ìĪĺ ìłĢ
Ġìĥģ ìľĦ
Ġìĺ¤ë ŀľë§ĮìĹĲ
ĠìĿ¼ ëĭ¨
ìķĪë Ĳ¨
ì «
Ġ g
ìĿ´ ê±¸
ìĺ Ĩ
ìĻ Ħë
įĺ ê±°
ëħ¸ íĬ¸
´¤ ëĭ¤
ĠìĨĮë ¦¬ë°Ķëĭ¤
ĠìĻ¤ ìºĲ
Ġìķ½ ê°Ħ
ĠìĬ¬ ìĬ¬
ĠìĹŃëĮĢ ê¸ī
5 00
¸ Ĳ
Ġê² ģ
Ġë¬´ ìĭľ
Ġíķ´ ì¤ĺ
ıĦë Ĳ¨
Ġë°ľ ìŀĳ
©´ë Ĳ¨
= =
ìķ ¤
ë³ ´ëĭ
íŀ Ļ
ì¹ĺ ê¸°
Ġì° ĲëĶ°
íķľë ²Ī
ľë ıĻ
ìĬ¤ íĥĢë
ĶĶ ìĺ¤
ĠìĤ¬ ì£¼
Ġëª» íķĺëĬĶ
ĠìĶ¹ ì°½
Ġì¶ķ íķĺ
Ġì´Ŀ ê³µ
ìķĦì§ģ ëıĦ
Ġì§Ģì§Ģ ìľ¨
ìĿ´íĶĦ ì¹ĺ
ìĿ´ë °į
ìĪ ²
íĦ °ë¦¬
ìĹĨ ì§Ģ
íĮĮ ìĿ´
Ġë§İ ìĿ´ë
ĠíĽ ¨
íĻĶë ©´
ĠìŀĲë ŀĳ
ë²Ī ì§¸
ĠìłķëıĦë ©´
a r
¿ ì¦Ī
Ł ¼ëĵ¤
ìĹ ĪëĤĺ
ê°Ģ ëĥĲ
ìĦ ¹
Ġìķ °
Ġíĺ ¹ìĭľ
Ġíķĺ ìŀĲ
Ġì¡° ìļ©
Ġãħħãħ ħ
ê±°ë ĵł
ĠëĪĦêµ¬ë ĥĲ
Ġ ãĦ´
ŀ «
Ķë Ħ¤
íı ¿
ĠìķĪ íķ¨
ì½ ±
Ġãħĭãħĭãħĭãħĭãħĭãħĭãħĭãħĭ ãħĭãħĭãħĭãħĭãħĭ
ìķłëĵ¤ ìĿ´
ì¿ł íı°
ħ¸ë ŀĺ
ìŁģ ìĿ´
½ Ģ
į ĺë
ìĿ´ë łĩê²Į
ê¸° ìĹħ
Ŀ¼ ì§Ģ
Ġìł Īë
ĠìķĦ ì¹¨
ìĺģ íĻĶ
íķľë Ĥ¨
Ġë¶Ģ íĻľ
ë³µ ê·Ģ
ìºĲë °¥
ì¶ķ íķĺ
Ġëĭ¹ ìĹ°
ħĦëĵ¤ ìķĦ
ĠìĦ¤ ìłķ
ìŀ¬ë° Į
3 3
¶ Īë
¹ Į
ë ®
ì ·
ł Ľ
íķ «
ìĿ´ë ¯¸
ĠìķĦ ìī½
ì¶ °
ĠìĿ´ë Ł¬
ìĥĪ ê¸°ëĵ¤
ĠíĻķ ìĿ¸
Ġìĺ¤ëĬ ĺë
¡ Ģ
Ġë ĵľ
Ġë¯¸ ìķĪ
Ġìĭł ìĿ¸
ìĪĺë ¡ľ
ë§Īë ıĦ
ĠìĤ´ ìķĦë
ãĦ±ãĦ± ãĦ±ãĦ±
² ħ
Ĺ ãħľãħĳ
ìķĦ ëĭĮ
ìĸ´ ìķ¼ì§Ģ
ê¹Į ì§Ħ
ĠìķĦ ê¹Į
ĠëĮĢ ìĥģ
Ġê³µ ìĭĿ
ĠìłĦ íĻĶ
Ġì½ľë Ŀ¼ë³´
ĠìķĦëĭĲ ê¹Į
² Ļ
ìĭ ¼
Ġë¹ ¼ë
Ġì² ľë
ë Įĵ
ĠìĹ Ħë§Ī
ĠìĬ¤ íĥ
Ġìĸ´ëĸ łëĥĲ
ë¶Ħ ìłĦ
ĠìĿ¸ë °©
ĠíĮ© íĬ¸
Ġìĩ ¼
+ +
ë ¥¼
ìŀ ¼ë
ìľ Ī
ìĥ ĺ
ìĸ´ ì»¨
ĠìĹĨ ëĬĶê±°
ì¤Ħ ìķĮ
ĠíĪ¬ ìĪĺ
ë ¬
ģ Ħë
Ĵ ¤ë
ì£¼ ìĹĲ
ì¡ ¸ë
ìľł ìłĢ
Ġìľł ìłĢ
ĠìĦ± ê²©
Ġì¹ĺ íĤ¨
Ġë¸ ħ
ĠìĹĺë §Ī
9 0
Ġë Ł°
ĠìĥĿê°ģ íķ¨
Ġê¼ ´ë¦¬
ĠìĦ± íĺķ
ĠëĬĲë ģ¼
ë ¦°
ë ±ħ
ëĬĶ ëĮĢ
ì§Ģ ëĤĺ
ë° ĳìĹĲ
ìłĦ ìĿĢ
Ġíı ´
Ġê¸° ëĭ¤ë
ë§Īë ¦¬
Ġìłľë ª©
íķĦ ìļĶ
Ķ °ë¦¬
ìķĦ ìĺ¤
ìľ¼ë Ł¬
ìĥģ ëıĦ
ĠìĤ¬ë ĥ¥
Ġíķĺ ëĭ¤
Ġë§İ ëĥĲ
ìĭľë ¡ľ
Ġíķ´ ì£¼
Ġìĭł ì²Ń
Ġì£¼ ìŀĳ
ìĭłë ¹Ħ
Ġê¸Ī ì§Ģ
¦´ë ķĮ
ª ¨ëĵľ
Ġ E
Ĥ ¨ë
Ĳë ħ¸
ĠëĮĢ íĨµëł¹
ĠëĶ ´
Ġìĸ¼ë §Īë
Ġ9 0
ĠëĪĦë Ĥĺ
£ ©
Ġì¡ ±
ĠìķĪ ì¢ĭ
ìĺ¤ë Ĥĺ
Ġìĭľ ìłĪ
ĠìĿ¸ ê°Ħ
íĬ¸ë Ŀ¼
ì£¼ë ıĦ
ĠëĤ´ ìļ©
11 8
ĠíķĻ êµĲ
ìŀ¥ ë¹Ħ
Ġì§Ħ ì§Ģíķĺê²Į
Ġì° ¬
Ġë¹ ¼ê³ł
ìķĪ ìĹĲ
Ġíķĺ ê¸°
íĽ Ħë¡ľ
íİĺ ì½Ķ
íķľê±° ìŀĦ
ìĪľ ìĿ´
ĠëĪĦêµ¬ ìŀĦ
íĩ´ ê·¼
Ġìħ ĭ
Ī Īë
ì§Ģ ëħ¸
ì§Ģ ë°©
ĠìĿ´ ê°Ħì§Ī
´ëĭ ¬ë
Ġë© ĺ
ìŀ¡ ê³ł
ĠìķĦë¬´ë ¦¬
ł Ģ
ìĿ¸ë ¬¼
ĠìĬ ¼
Ġì§Ħ íĸī
Ġê°ľ ìĶ¹
Ġìľł ìĿ¼
Ġë² Įë
Ġê±° ì§Ģ
Ġìµľ ê·¼
Ġì²ľ ìŀ¥
ĠëĲľ ëĭ¤
ĠìĹ ĳ
ìĺ¤ ëĬĶê±°
Ġëª» ë°Ľ
ë¹ Į
ëŃ ĲëĥĲ
Ġìŀ¬ë°Į ìĿĮ
łµ ëĦ¤
ì¶ĺ íĸ¥
ĠíĥĿ ë°°
Ġ C
Ġ ..
íĻ ĺë
Ġê°Ģ ìĦľ
ĠëĮĢ íķľ
ê¸´ íķľëį°
Ġìŀ¥ ëĤľ
ĠíĺĦ ìŀ¬
Ġíĳ ¸ë
Ġíķ© ë°©
íľ ĺ
ê°Ķ ëĬĶëį°
Ġìļ´ ìĺģ
Ġê¸¸ë ĵľ
ë ¬¸ë
Ġìķ ķ
ĠìĹ ĶëĶ©
ê¹ ¡
íĺ ¹
Ġê² ©
íĤ ´
ì¹ĺ íĤ¨
ì¸ ¡
íķĻ ìĥĿ
ĠíĮĮ íĭ°
ĠíĸĪ ëĭ¤
ĠìĬ¤íĬ¸ë ¦¬ë
ĠãħĩãħĪ ãĦ¹
ł ģ
ìĦ¸ íĬ¸
ìķĺ ìĸ´
ì¹´ë ħ¸
ĠìĺĪ ìģ
ìķħ ìĿĺ
ł¨ ìķĦ
Ġì»¤ ìĹ¬
ê¶ģ ê¸Ī
ê°¤ëŁ¬ë ĵ¤
ì£¼ ê°Ģ
Ġê·¸ë £¹
Ġìŀ¬ë° ĮëĦ¤
Ġìį ©
ìĸ´ëĸ »
§ µ
ë ¿
Īë ł¨
ĠìĿ´ ê¸¸
Ġëĭ ¥
ĠìĤ¬ ê³ł
ìĬ¤ë ıĦ
ĠìļĶ ìķ½
ê±°ë ŀĺ
łµ ëĭ¤
ê²¼ ëĭ¤
ëĤ´ë ħĦ
Ġì¡´ ìŀ¬
o u
¶ Ļ
ìķĦ ì§Ģ
ìĭľ ê°Ģ
ìļ° ìĦĿ
Ġì¹ ¨
ê²ł ìĬµëĭĪëĭ¤
ìĿ¼ë ĵ¯
Ġìĭ¤ ìĭľê°Ħ
ĠìŀĲë ıĻ
ìĵ°ë ĥĲ
ìĻĢë ıĦ
ê²¼ë Ħ¤
ìĦ ¬
Ġì§ Ń
Ġ2 2
Ġìĭł ê·ľ
Ġìłľ ìŀĳ
ĠëĲĺ ì§Ģ
ìĹ¬ë ıĦ
ìĹĩ ëĬĶëį°
ĠìķĦëĭĮ ê°Ģ
ì°¬ë ĺĲ
Ġì¡¸ ìĹħ
v e
Ġ ??
íķľ ì§Ģ
ë³ ¼ë
Ġê°¤ ìĹĲ
Ĳľ ê±°
ìĥĪ ê¸°
ĠìĿ´íķ´ ê°Ģ
ì ¾
ĩ ½
íķĺë ł¤ê³ł
ĠíĻ ĺë
ìłĢ ìĶ¨
ĠëĶ ¸ë
Ġìĺģ ìĽħ
Ġì± Ħë
ĠëĲĺë ©´
Ġë²Ī ìĹŃ
íŀĪë ł¤
s t
Įë ¦°
Ŀ¼ ìĿ´ë¸Į
ìĭľ íĭ°
ìŀ¥ íĺĦìĭĿ
ìłĦ ìĿ´
íĮĮ íĬ¸
ĠíĤ¤ ìļ°
ì³Ĳ ìĦľ
ĠìĻĦ ìŀ¥
Ġìļ°ë ¦¬ë
Ġì¼Ģ ìĿ´
Ġìĺ¤ëĬ ĺëıĦ
ê°Ģ ì§Ģê³ł
ìĨ Ķë
Ĥĺë ³´ëĦ¤
Ġìĸ´ ìĿ´
ìĭľë °ľë
ê²Ł ëĦ¤
ĠëĳĲë ²Ī
Ġì£Ħ ëĭ¤
ìĿ´íĶĦì¹ĺ íŀĪ
§ ĺ
Ġë ŀľë
ìķĦ ìĭľë°ľ
ë° ĺë
íķĺë Ŀ¼
Ġê°Ģ ì¶ķ
íĦ ¸ë
ìĭł íĻĶ
Ł¬ ìĬ¤
Ġë³´ ê¸°
Ġíķľ ëĭ¬
Ġíķĺ ëĭĪê¹Į
ìĬ¤ë §Į
ĠìĺĪ ìłķ
ĠíĥĢ ê²©
ĠíĪ¬íĳľ ìĿ¸ì¦Ŀ
½ Ģë
ê² ¸
ìĪ łë
íĮ Įë¦¬
íķ´ ì¤Ħ
Ġìĸ´ ìļ¸ë
íĮĮ íĭ°
Ġê±° ìŀĦ
ĠíĿ ¬ë
Ġê°ģ ìĦ±
ì¹´ ìĬ¤
íĬ¸ë ¶ģ
ìĹ° íķ©
íĤ¤ ìĽĢ
ĠìĹ° ìķł
Ġì¶© ê²©
ìĸ´ ìĬ¤
ê·¸ë ¦¬
ìĥĿ íĻľ
ìķĪ ì§Ģë§Į
íĸĪ ëĭ¤ê³ł
Ġê°Ļ ëĥĲ
Ġê¸° ìĽĲ
ìĿ¼ë ¦¬
ëĿ¼ ìĿ¸
ĠëıĦ ìłĦ
Ġìĵ° ê³ł
ĠìķĦëĭĪ ìķ¼
Ġê·Ģ ì°®
Ġì¶ľ ê·¼
Ġì»¤ ìĹ½
íĿ¥ ë¯¼
ĠV S
ìĤ¬ ê³ł
Ġãħ Į
ĠíĮ Ŀ
ĠìĤ¬ë ©´
ìŀĲë ŀĳ
Ġìĸ´ ì°¨íĶ¼
ĠìĥĿ ê¸´
ìĦł ìĥĿ
Ġë¶Ī íİľ
ìķĦìĿ´ë ıĮ
© ľ
ê°Ģ ì±ł
ìĪ ¨
Ġëª ¬
ì½ ¤
ëħ ¹
ìĹĨ ìľ¼ë©´
ĠãĦ·ãĦ· ãĦ·ãĦ·
Ġêµ¬ë §¤
Ġìłĳ ìĨį
Ġ ...
İ Ģ
ĳ ĺ
¤ë ĥĲ
Ġì§ ľë
ì° ĲëĶ°
íĺ ľë
Ġìĺ¤ íĶĪ
Ġëħ ¼ëŀĢ
Ġë© į
ĠìĹ° ìŀ¥
Ġìĸ´ëĶĶ ê°Ģ
Ġìĸ´ëĸ» ê²Įë
°Ľ ìķĦ
ê²¨ ìĦľ
Ġìĺ¬ ìĬ¤íĥĢ
Ġëĵ Ŀ
Ġì¹´ íĨ¡
Ġìĩ ¼ë
i t
¹ ¼ê³ł
ë ¯
Ġë° ı
Ġìĺ ´
ìĭł ì²Ń
²Ī ìĹĲ
Ġëª» íķ¨
Ġìĺ¤ëĬĺ ìĿĢ
ĠìłĲ íķĳ
ĠìĽĶë ĵľì»µ
¸ë Ł°
ìĬ¤ íĤ¨
ìĬ¤ë Ł½
Ġì¡° ìĸ¸
Ġìĺ¤ë ©´
ì¶Ķ ê°Ģ
ì§Ģë ¥¼
ĠìļĶ ìĥĪ
ìĪľ ìľĦ
íĮĮë Ķ±
ìĿ´ ìłķëıĦë©´
ìĻ ¤
Ġìĥ ¤
ë§Į ìķ½
ĠìĽ ¨
ĠìĬ¤ íİĻ
ìŀĲë ĦĪ
Ġìľł ìŀħ
ë¹ ¡
Ġëģ ¼
ĠìĿ´ìľł ëĬĶ
ĠìĿ¼ë Ł¬ë
Ġìĭ¶ ìĿĢ
Ġì²ĺ ìĿĮë
ĠíĶĮë łĪìĿ´
ìķĦë¬´ë ¦¬
© ĺ
ê¸° ì¤Ģ
ì£¼ ëĬĶê±°
ĠëĤĺ ì¤ĳìĹĲ
ìĤ¬ë ıĦ
íĶĦ íĬ¸
ë¶Ħ ìĹĲ
Ġìľłë ªħ
Ġê¸ī ìĭĿ
ĠìĿ´ë¯¸ ì§Ģ
ì¤¬ ìľ¼ë©´
¹ Įë
Ġ ãĦ¹
ìĿ´ ìĥĪëģ¼
ìķĦ ê³ł
ìľ ¾
Ġìĥ Īë
Ġê°ľ ìĽĥê¸°ëĦ¤
ĠìĤ¬ë ŀĮë
ĠëĪ Įë
ĠìĿ¼ ìĸ´ë
Ġëľ ¸
ĠìĹ¬ë ¦Ħ
ĸ¡ ë°¥
Ġë ¥ĺ
ëĬĶ ë²ķ
Ħë ĮĢ
ìŀĲ ìĿ¸
ìĿ¼ ìĹĲ
ĠìķĪ íķĺê³ł
Ġê¹ ¨ë
Ġì» ´ë°±
Ġíģ ´
ìĺĪ ìłĦìĹĲ
Ġìłģ ìļ©
Ġìłģ ëĭ¹
Ġë¬´ë £Į
ê¸¸ë ĵľ
Ġë¯¸ì³ ¤ëĦ¤
ìķŀ ìľ¼ë¡ľ
ì ª
Ħ ¨
ìĿ´ ìĹĪëĬĶëį°
Ġê³ ³
Ġãħ Ĭ
íĬ¸ ìĤ¬ê°Ģ
ĠìĦ ¹
Ġ2 3
ĠìķĪë Ĥ´
íķ´ë ´Ħ
ë³´ ê²Ģ
Ġìĭł ê³¡
ĠëŃĲë Ŀ¼
Ġíķ´ë Ŀ¼
ĠìĨĮ íĻĺ
Ġê°ĢëĬ¥ íķĺëĥĲ
ĠìĹŃ ê²¨
íĭĢë Ķ±
ë ķĮë
ì§Ģ ë§Ĳê³ł
Ĥĺ ìĦľ
íķĺë ł¤ë©´
ìĥģ ìŀĲ
Ġê² ¬
ìĿ¸ë ĵľ
Ġíı ¼
Ġê²½ íĹĺ
Ġê°ľë ¹¡
ĠìĤ´ ìķĦ
Ġì½Ķ ìĿ¸
íĥĿ ë°°
ĠëĦĪ íĶĦ
ìĿ´ëĭĪ ê¹Į
ì¤Įë§Īë ĵ¤
Ĳë Ķ°ë
ìĦľ íĬ¸
ì¢ ĥ
Ġê·¸ë ĮĢë¡ľ
ì¼ °
ìķĦë ¦¬
ìº ¡
ì§ģ ìĹħ
ìħ ¨
ìĹĨ ìĸ´ìĦľ
Ġíĺ ĳ
ìĵ ´
íĤ¤ë ¡ľ
ëĵ Ģ
l l
ìĹ łë
ìĿ´ë ¥¼
Ġìł Ī
Ġì° ¢
Ġíĺ Ī
íĺ¸ ê°Ģ
Ġëģ Į
Ġìº ¡
ìĤ¬ëŀĮ ìĿ´
Ġê°¤ ì§Ī
ìĺĢë ĥĲ
ê²¼ ëĬĶëį°
Ġ w
łë ĵ¯
ĠìķĪë ĵ¤
ìķł íĶĮ
Ġíĸ ĩ
ë¶Ģ ìĤ°
ì¿ ¤
Ġì£¼ë Ķ±
ĠìºĲë °¥
Ġìķłë §¤
¹ Ľ
íķ ¸
ìĿĢ ëĵ¯
ì¹ ¼ë
Ġëĭ ĪëĦ¤
ìĿ¸ë ıĦ
ìĺ¤ë ¦¬
Ġë² Ĺ
íļĮ ìĪĺ
Ġëª¨ë ĵľ
íĨłë ¯¸
ĠëĲĺ ëĬĶê±°
ê²Ł ì§Ģ
ł¨ëĵ¤ ìķĦ
ë ½ķ
ĠìĿ´ ìļ©
ë° ¤
ìĺ¤ ê³ł
°Ķ ìĿ¼
Ġìŀ¥ ë¹Ħ
ìĿ´ëĵ¤ ìķĦ
Ġë¦¬ ê·¸
ìĹ¬ë ¦Ħ
ĠãħĨ ãħĤ
Ġíıīê°Ģ ì¢Ģ
Ġíļ¨ ê³¼
ë ī´
ħ ¼
ëıĦ ìĤ¬
ĠëŃ ĺë
íķł ê²Į
ê¸´ íķĺëĦ¤
ëħ¸ ìŀ¼
Ĳĺë ħ¸
ł¤ë ıĦ
ìį ©
ĠìĤ¬ëŀĮ ìĿĢ
ìłĢë ħģ
Ĥľ ëĭ¤
ĠíĹ¤ ìĸ´
ac t
5 9
ìĥ µ
ì§Ħ ìĿ´
ìľł ëĭĪ
Ġëª» ë¨¹
¡ľë ıĦ
Ġì¤ĳ ê³ł
íĮ¨ ìĬ¤
Ġìĭ¶ ìĸ´
íĤ¤ë ħ¸
ìŀĺ ìĥĿ
,, ,
ìĿ´ìĸ´ íĬ¸
ë įĶëĭĪ
¸ë §Ŀ
ĠìķĦ ìī¬
ìŀ¥ ëĭĺ
ìĭł ìĿĢ
ìķĪ íķ¨
Ġì£¼ ìĿ¸ê³µ
ĠìĿ¼ ì°į
ëĿ¼ ìĿ´
Ġì ħĢ
êµ¬ ìĹŃ
Ġê·¸ë ¦½
ĠíĻ ĪëŁ°
ì¡° ìĤ¬
Ġë§ŀ ì¶Ķ
ê³łìĭ¶ ìĿĮ
Ġíģ ´ë¦¬
ĠëŃĲë ħ¸
ìķĮë ª»
Ġë¶Ħ ìľĦê¸°
ìĭ« ìĸ´
Ġì¿ł íı°
Ġë »
ëĭ¤ ìļ´
ìķĦ ëĭ
ĠìĻ Ģë
Ġê³ ¼ë
íħ Ģ
ì¹´ ìĺ¤
ĠëĬ ĺë
ìĵ ¸ë
Ġìµľ ìĨĮ
Ġìĸ¸ìłľ ê¹Įì§Ģ
ìĩ ł
ìĵ°ë łĪê¸°
Ġë¸ Ŀ
ĠëĬ¥ ëł¥
ì§Ģ ê¸Īë
ľë į°
íķ´ ì¤Ģëĭ¤
Ġê¸ ´
ĠìŀĪ ìĹĪëĬĶëį°
Ŀ¼ë Ŀ¼ë
íİ Į
Ġíķĺë ©´ìĦľ
ìĹ° ìĬµ
ĠëĨ į
Ġê°ĢëĬ¥ ìĦ±
ì¡Į ëĬĶëį°
ëģ ¼ë¦¬
ĠìĻľìĿ´ë łĩê²Į
ì±Ķ ìĬ¤
ë¸ Ŀ
ìĻ ĳ
ìĪĺ ìŀĪìĿĮ
ĠëĤĺ ìĿĮ
´ëĭ ¤ë
ê³łìĭ¶ ìĿĢ
ì¢ĭ ëĭ¤
¶Ģë Ł¬
ĠíķĦ ìĪĺ
a t
Ġ G
íķĺ ëĭ¤ê³ł
ëĭĪ íĦ°
íĥ ĵ
ì£¼ ìĭ¤ë¶Ħ
ãħĭãħĭãħĭãħĭãħĭãħĭãħĭãħĭ ãħĭãħĭãħĭãħĭãħĭ
íĨ ±
ĠìĹĨ ìĿ´
íİ ĳ
Ġê²° ìłķ
Ġãħģ ãħĬ
Ġì´Īë °ĺ
Ġë¯¸ì³ ¤
Ġìĭľì²Ń ìŀĲ
ĸ ì¹ĺ
ëĭ Ľ
ì§Ģ ìĹĲ
ìļĶ ì²Ń
ìĥģ ìĿĢ
ìķĦë Ĥĺ
ê°ľ ì¢Ĩ
ĠëĮĢ íļĮ
ìķ¼ë ĲĺëĥĲ
ĠìłĲ ìĭ¬
ĠëĶĶ ìĶ¨
Ġ100 0
ĠëĬĲ ê»´
ëĳ ¥
Ġì²´ë ł¥
ë ķĮë¬¸ìĹĲ
Ġì ª
¬ë ¦¬
Ġìĸ į
ë³ ´ëĭ¨
ìłķ ë¦¬
Ġê·¸ë Ĥĺë§Ī
ê°Ħ ìĹĲ
ĠìĶ Ģ
ìľłë ıĻ
ìŀĺ ìķĮ
ìķĦìĿ´ ì¦ĪìĽĲ
Ġì°¾ ìķĦ
ª ¸
ìŀ Īë
ê³ł ìĥĿ
ìĨ Ĳë
ł¤ ëĬĶ
¥´ ê²Į
íĬ¸ë łĪ
Ġë² ¤
ê¶ Įë
ë¬´ ìĽĲ
ĠëĲĺ ê²Į
ĠãħĪ ãĦ´ë
ë³´ë ĬĶ
ãħĪ ãĦ´
ê±°ê°Ļ ìķĦ
Ġë³¸ ìĿ¸
ëĵľë ¦½
ĠìĥĪëģ¼ëĵ¤ ìĿĢ
ìµľ ê·¼
Ġìķŀ ìľ¼ë¡ľ
Ġë³¼ë ķĮë§Īëĭ¤
Ġì§ķ ì§ķ
ìŃ Ī
ë Ł¬ë
ë ĪĦë
ìĿ´ë ª¨
ì¹ Ļ
ĠìĿ´ ì§ĢëŀĦ
ìĿ¸ ê±´
ĠìķĪ íĥĢ
ìĹĲìĦľ ëĬĶ
ê·¸ë ŀ¨
¨¸ ëĭĪ
ê°ķ ëĭ¤ëĭĪìĹĺ
íķľê±° ëĥĲ
ëĬĶê±´ ê°Ģ
ë²Ħ ìĬ¤
ĠíĨµ íķ©
Ġëįĺ íĮĮ
ĠíĥĪ ê°¤
ĠìĤ¬ëŀĳ íķ´
ĠëĮ ķ
ë Ł°
ìĪĺ ìº¬ë£¨
Ġì° ¬ë
ķĮ ëĬĶ
Ġìĺ¤ íĶĦ
įĺ ê°Ģ
ë¹ Ī
íķĺëĬĶê±° ëĥĲ
ĠëĤĺë Ī
ìĭľê°Ħ ìĹĲ
Ġê°ľë ³ĳìĭł
ĠìĹŃ ê²¹
ìķĦìĿ´ íı°
Ġì¶ľ ìĭľ
ê¸Ģë ²Ļ
Ġíķłë §Į
ë£ °
ĠíĮĮë °į
ë ¦½
Ĩ ¨
ĮĢ ëĬĶ
íĮ į
íŀ ĺë
ê´ ľ
ê°Ģë ´Ĳ
Ġê¸° ìķĪ
Ġì¡° ìĦł
Ġìŀħ ìŀ¥
ì½Ķë ¡ľëĤĺ
ĠíĻķ ìĭ¤
°Ľ ìĿĮ
ìľłë ¡ľ
ĠìĦľë ¡ľ
Ġëĵ± ìŀ¥
ìĸ´ëĸ» ê²Į
ê¸Ģë²Ļ ê¸Ģ
² ĪëıĦ
ê°Ģ ê³ł
ì§Ģ ë¡ľ
ë§ ģíģ¬
íĥ ¬
ëĤ ¼
ìĺ¤ ëĬĶëį°
Ġì¹ ł
ĠíĬ Ģ
íģ¬ë ¦¼
Ġíķł ìĿ¸
Ġë§Į ì¡±
ĠíĺĦ íĥĢ
ì»¤ë ²Ħ
Ġíİĺë ¯¸
į ¤ë
ê°Ģ ëĤĺ
ê¸ į
ĠìĹ ī
ìĸ´ ìĸ´
Ġì§ §
Ġìłķ ë³ĳ
ìĤ¬ë Ĥĺ
Ġë² ½
Ġê´ Ģë¦¬
Ġíķ´ ìķ¼ì§Ģ
Ġíķľë ²Īë
ì¿ ¨
íĽĦ ìĹĲ
ìĮ Ī
ì© Į
ĠìķĮëł¤ ì¤Ģëĭ¤
__ __
© ¸
Ġ U
Ġê°Ģ ìĿ´ëĵľ
êµŃ ìĿ´
íķ´ë ³¸
Ġì¢Ĩ ëĲ
ìĺ¨ ê±°
°Ľ ê³ł
Ġê¹Į ëĬĶ
Ġëł Īë²¨
5 5
N C
Ġ [
ŀ ©
ê°Ģ ëĬĶëį°
ê³ł ë°±
Ŀ¼ ìĬ¤
ĠìķĦ ëĭĪëĭ¤
ìĪĺ ìłķ
ìĹĪ ì§Ģ
íķ´ë ´Ĳ
ê¸ī ìĭĿ
Ġë°Ķë ¥´
°ĺ ì§Ģ
Ġìĭ¬ ê°ģ
Ġê°ĵ ê²ľ
íĬ¸ë¡ľ ìĿ´
ī´ë¹ Ħëĵ¤
c m
© į
± Ģ
ìĹĨ ê³ł
íı¬ ìĿ¸íĬ¸
ĠìĺĪ ìģĺ
¡± ë¹µ
ĠìĦ¤ë §Ī
ê°Ĳë ıħ
ìķ¼ëĲĺ ëĬĶëį°
ĠëĩĮ ìłĪ
3 6
l e
ķ ľìĹĲ
ìĿ´ë įĺëį°
ìĭľ ê³ł
Ġ2 1
ê³µ ë¶Ģ
Ĥĺë Ĥĺ
ëı ¡
Ġíķľ ìłķ
ë³´ ìĬ¤
ê°Ģë Ŀ½
ê²½ ë¶ģ
Ġìľł ê²©
íĨµ ëĭ¹
ĠíĿ Ĳë
Ġíŀ Ĳë
ĠëĤľ ìĿ´ëıĦ
ë°°ë ©Ķ
Ġíİĺ ìĿ´
ëĿ µ
c k
ķ ħ
ì² łë
ĠëĤĺ ìĿ´
ìķĦë ĥĲ
ìŀĲë ¡ľ
Ġë³´ë ©´ìĦľ
ìķł ê°Ģ
ìĬ¹ ë¦¬
ë¯¸ ì¹ľ
Ġìµľ ì¢ħ
ãħłãħł ãħł
Ġëĵľë Ŀ¼ë§Ī
Ġê±°ë ¶Ģ
ĠìķĦëĬĶ ìĤ¬ëŀĮ
Ġê¿Ģ íĮģ
Ġëĸ´ë ĥĲ
ĠìĻĦë £Į
ª °ë
ë ĥī
Ĩ Ģ
ĠìĿ´ ìłķëıĦë©´
ĠëĤ ļ
¦¬ë §Į
íĻĶ ëĬĶ
ìĬ¤ë ŀĳ
ëł ¨
ë§Ī ì§Ģë§ī
íĿ Ĳ
íı¬ íĬ¸
ëĶ ľ
Ġíķľë §Īë
ìĽĶ ìĹĲ
ë³´ë Ħ¤
ĠëıĮë ł¤
ê°Ķ ëĭ¤
Ġëł Ļ
ëıħ ëĮĢ
Ĥ Ļ
ìĥ ¤ë
ĠíĻ ľ
ê²ł ê¸Ķ
ĠìŀĲ ì²´ê°Ģ
ëł Īë²¨
ĠìĥĿê°ģ íķĺëĬĶ
Ġíıī ìĥĿ
ĠíĶĦë ¦¬ë
íļ¨ ëĭĪ
ì¶Ķì²ľ ì¢Ģ
íĥ Īë¦¬
íķ´ ìķ¼ëĲ¨
ìĪĺ ì¤Ģ
ìłľ ìĿ¼
ì£¼ ì§Ģ
ĠìķĪë ı¼
íİ ¸ë
ë¹ Ľ
íį ½
íģ¬ë ¦¬
Ġë¶Ħ íĥķ
ĠìĿĢ íĩ´
ìķĦìķĦ ìķĦìķĦ
ĠíļĮ ìĤ¬
Ġêº ¼ë
ĠëģĿëĤĺ ê³ł
r ea
¥ ĺë
ĳ Ķ
ľ »
ìĿ´ë ¸Įë
Ġëĭ ´ë°°
¦¬ë ŀĳ
ĠëĮĢ íķĻ
ê°Ĳ ìĿ´
Ġë¶Ģ ì¡±
!!!! !
ĠìŀĲë ¦¬
Ġëł ī
ê³ł ê¸°
ê³ł ìŀĪ
ìĹĲ ìĦľë
íķ´ ì£¼ìĦ¸ìļĶ
¯¸ ìħĺ
ìº Ħ
Ġíĥ ±
Ġíı ´ë
ĠíĸĪ ìľ¼ë©´
Ġëĭ¬ë Ŀ¼
in g
ë³´ëĭ Į
ìĪĺ ìĺģë³µ
ìĽĲ ìĿĢ
ìħ Ģë
ëĵ¤ ìĸ´
ìĭ¤ ìłĲ
ĠëĦĪë ¬´ë
Ġëĵ¤ ìĸ´ë
Ġìĺ¤ë ¥¸
Ġë© ¤ë²Ħ
ĠëıĦ ìĽĢ
ĠìĤ´ ê¹Į
Ġìļ° ìļ¸
Ġë¨¸ë ĥĲ
¦´ ê¹Į
ĠëĮĢë ¶Ģë¶Ħ
ëģ Ķ
ì¼ĵ ëª¬
ĠìĶ¨ ìłł
ìĥĿê°ģíķ´ë ³´ëĭĪ
ìĺ¤ ì§Ģ
Ġ1 50
ĠìĹĨ ëħ¸
ìĦ¸ ìĥģ
ì°¨ ëĭ¨
Ġë§ŀ ëĭ¤
Ġì¡° ê¸Ī
ê¼ Ń
ëĳ ĺ
ãħĵ ãħĵ
¹ Ĺ
Ŀ ł
ìłĦ ìĤ¬
Ġì¶ Ķë
ë³´ íĨµ
Ł¬ë ¶Ħ
ë¬´ ìĬ¨
ëĺ ĳ
ĠëģĿ ëĤ¬
ìĭ¸ ê°ľ
íĶĮë łĪìĿ´
ĠíħĮ ìĬ¤íĬ¸
ĠëĿ µ
ìĿĢìĻĶ ìĸ´ìļĶ
ë ĵł
Ġ i
Ĥ ľë
Ġìķ ¡
Ġìķ ī
ìĸ´ ìļ¸ë
Ġê² Ĩ
ìĦ± ê³µ
ĠìĻľ ìłĢë
Ġêµ °ë
Ġìĭľ ìĬ¤íħľ
ĠìĤ¬ë §Ŀ
ë³´ ì§Ģ
©Ķ ìĿ´
Ġë°Ľ ê³ł
²Ħë ¦°
Ġë§Īë Ŀ¼
ĠìķĦìĿ´ ì¦ĪìĽĲ
ãħģ ãħĬ
Ġìĸ¸ìłľë Ĥĺ
² Ħëĵ¤
ìĽ Ģë
íĮ Ģë
Ġê°Ģ ìŀħ
ķĮ ê°Ģ
Ġì§Ģ ìĹŃ
ì¢ĭ ëĦ¤
Ġë²Ħ ìĬ¤
ìķĺë ħ¸
Ġëª© ë¡Ŀ
ĠëĤĺìĻĶ ìľ¼ë©´
Ġê±¸ ê·¸ë£¹
ĦĪë ¬´
ë ĲĺëĬĶ
Ġ x
ł Įë
Ġìŀ Īëħ¸
ĠëĤ ¼
Ġìłķ íĻķ
ì¶© ìĿ´
ìĺĢ ëĭ¤
Ġë©Ķ ìĿ¸
ìĸ¸ë ĥĲ
íĹ¤ ìĸ´
>> >>
ìĭľëĬĶ ë¶Ħ
ìĿ´ ì°¬
ê¸ ´ë
ĠìķĦ ê¸°
Ġê¹ ¡
Ġë¹Ħ ì¶Ķ
Ġíķľë į°
ĠëŃĲë Ŀ¼ê³ł
ãħĩãħĩ ãħĩãħĩ
Ġì´Ī ê¸°
Ġê¼´ë ¦¬ëĬĶ
ĠìĿ¸íĦ°ë ·°
¦ İ
ĵ¤ ëıĦ
¤ë Ĥĺ
íĻ Ģë
Ġê°Ģ ìŀĲ
Ġì² ¨ë
Ġê¸° ë§Į
ë² Īë
íĤ¤ ëĬĶ
ìķĺ ìľ¼ë©´
Ġì§Ģë °©
Ġë¶Ģ ìĤ°
ĠìĹ° ê¸°
Ĵ¤ ìĹĲ
ĠìĿ´ìĥģ íķľ
Ġê²ĥ ëıĦ
ëļ «
ĠìĥĢ ëĬĶëį°
2 7
C K
¡ łë
¹ Ķ
Ġì ª½
Ġìŀ ĥ
Ġì¢ Ģë
ìłķ ìĿĢ
ë¶ Īë
ĠìĿ¸ ìĦ±
ìĭľë Ħ¤
Ġë°Ľ ìĿĢ
ìĺĪ ìĿ¸
ìĩ ¼ë
¶ķìĿ´ëĵ¤ ìķĦ
Ġë¸Ķë ŀĻ
Ġ o
Ġë ¨
ìķ µ
¦¬ ê¸°
Ġë§ µ
ĶĶ ìĭłë¹Ħ
íĥĢ ê°Ģ
ìĤ¬ë ĥ¥
ê´ Ģëł¨
ãħ¡ íĥĢ
ìĬ¤ë ¥¼
Ġëª¨ë ĳĲ
ĠìĺĪ ìģľ
ł¥ ìĿ´
ìĿ´ë²Ī ì£¼
ĠíĮ¨ íĦ´
ĠìłĲ ìĪĺ
Īë² Į
ê·¸ëŁ¬ ê³łë³´ëĭĪ
ĠíĿ¬ë §Ŀ
ê° ¸
ê² ¬ëĵ¤
ê³ł ê°Ģ
¡ľ ëĬĶ
¦¬ë ĵľ
ëĦ¤ ìĿ´ë§Īë¥´
ĠìĤ¬ ê³¼
ĠëŃĲ íķĺëĥĲ
ê·¼ ì²©
ĠíĹ Īë
ĠíĦ ¸
íĻį ë³´
Ġì¹´ ìļ´
ĠìĿĮ ìĭĿ
ë¸Ķë ŀĻ
ê¹Įë ´Ĳ
ë £Į
ì§Ģ ëĬĶëį°
¦¬ ëĬĶëį°
ĮĢ ê°Ģ
ìĺ¤ íĶĦ
Ġë¹ Ľ
ĠëĮĢ ìĭł
Ġì¢Ĩ ëª©
Ġìĭł ìŀĳ
Ġë¨¹ ìĿĦ
ĠìķĮ ìķĦ
ëģ ¼
ĠëıĮë ł¤ë
ëĿ¼ë ¹Ħë
Ġë¬ ¸ë
Ġíķĺë£¨ ì¢ħìĿ¼
ëŃĶ ê°Ģ
ë ĪĦëĤĺ
Ġ on
ëĭ ´ë°°
ìłľ íķľ
¯¸ ëĬĶ
ĠìĦ Ŀ
ìĦ± ë¹Ħ
Ġì¢ĭ ê²łìĿĮ
Ġë³´ ìĿĢ
íĶ¼ ìķĦ
ë² ½
ëĶ °ë¦¬
ëĦ £
Ġíİ ĺëıĦ
Ġìŀ¥ íĺĦìĭĿ
Ġìķ¼ ìĬ¤
ĠìłĦë ¬´
Ġì£¼ë ¬¸
Ġë§¤ ìĿ¼
ëĬĲ ê¸Ī
Ġìµľê³ł ìĿĺ
ĠìĻ¸ë ª¨
° ĭ
Ġ h
ł ¨ë
Ġë ½ķ
ê² »
ë§ ģ
ìĭľ ê¹Įì§Ģ
ìĻ ľë
íĻ Ī
Ġê³ ¨ëĿ¼
íĸ Ħ
ëĦ¤ ìŀĦ
ĠìķĪ íķĺëĬĶ
ê¸´ íķ´
ìĭ¬ ìĭ¬
ê°Ĳ ìĬ¤íĬ¸
ìī ĳ
ìłĢë ıĦ
ìŀĩ ëĥĲ
ĠëĤĺìĺ¨ ëĭ¤
Ġì°¨ë Ŀ¼ë¦¬
2008 13
4 8
ë Ĳĺë©´
Ġ X
ìł ¤ë
ìĥ Ģ
ìłĦ ê¸°
Ġì° Į
ĠëĪ ĪëĤĺ
ìĬ¤ë Ĥĺ
Ġãħĭãħĭãħĭãħĭãħĭãħĭãħĭãħĭ ãħĭãħĭãħĭãħĭãħĭãħĭ
ħĦ ìĿ´
ì§ĳ ìĹĲ
íķĺì§Ģ ë§ĪëĿ¼
ìĺĪ ìłķ
ĠìĨĮ ìĦ¤
ì§ĢìķĬ ëĤĺ
ìĻ¸ ì§Ī
Ġê¾ ¸ë
ë¸Į ìĿ´ìķ±
ĠìĽĶ ê¸ī
Ġíĳľ ìłķ
? !
Ġì ©
íŀ Ĳ
ĠìŀĪ ìĿĦ
¨¹ ìĿĦ
íĸĪ ì§Ģ
ĠìĹ¬ ìŀĲëĵ¤
Ġìĥģ ìĥģ
ìķ¼ë ĮĲ
Ġìĺģ ìŀħ
ì¹´ë ĬĶ
ìĭłë ¶Ħ
ìĸ¸ ëĭĪ
ĠìĨĮ ê°ľ
Ġë¶Ī íİ¸
ìĽĥ ê¸°
ëĺ¥ ì°¬ìĿ´
Ġì¶ķ êµ¬
łī íĦ°
ë ¨¼
Į Ħ
Ġìŀ ¼ë
ì¹ łë
Ġê° ±
ìĸ´ ì¼Ģ
³´ ìŀĲ
ê·¸ë §Į
ìŀĳ ê°Ģ
Ġìĸ´ëĸ ¨
íĶĦë ¡ľë
Ġì£¼ ëĬĶ
Ġë© Ī
Ġì§Ģë ŀĦë
Ġë°Ķë ¦¬
Ġë¶Ī ìķĪ
Ġëį ¥
Ġë¶Ģë Ł¬
ê±°ê°Ļ ëĥĲ
ĠíĮ¨ íĤ¤ì§Ģ
ĠìĿ´ìģ ĺë
Ġì°¾ ìķĦë
ìĸ´ìķ¼ íķ¨
ĠíĻį ë³´
¨ëĿ¼ ìĿ¸
ìĺ¨ë ĥĲëĵ¤
Ġëı¼ ì§Ģ
ìĿį ëĭĪëĭ¤
íĵ¨ íĦ°
ìĹ Ķë
ê¸ ´ëĭ¤
Ġëĭ Ń
¹Ħ ìĬ¤
ì§Ħ ìŀĲ
ĠëĤĺ ìĻĢìĦľ
ĵľë ĥĲ
ìĤ¬ë ©´
ê³µ ê°ľ
Ġê¹ Ķë
ĠìĿ¼ ìĸ´ëĤĺ
ĦĪ ì§Ģ
ĠìłĲ ìłĲ
Ġìĸ´ì¼Ģ íķ¨
ë°Ķë ¦¬
Ġê½ ¤
Ġìĵ¸ë §Į
Ġ W
Ġë ¡¯ëį°
ĠìĿ´ ê²ľ
Ġê°Ģ ëģĶ
ĠëĦ ¤ë
Ĥĺë ´Ĳ
ķĮë ¶ĢíĦ°
ìĬµ ëĭĪê¹Į
Ġëħ¸ íĬ¸
ìľłë ¦¬
ĠìĻĢ ìĦľ
ëĵ± ê¸ī
Ġë¬¸ìłľ ê°Ģ
Ġë¸Ķë £¨
ìħĶ ì¸ł
· °ë
Ġ H
Ġ ~
ìĹ ĶëĶ©
Ġí ĵ
ìĨ ¬
ì¤ĳ ë¶ķìĿ´
Ġë¬´ ìĬ¨ë
ë² ¤
íĺ¸ ê°Ĳ
ĠëĤĺë ŀĳ
ê¿ Ģë
? .
ê° ĸ
¦¬ ìĺ¤
êµŃ ëĤ´
Ġíķľ ê±°
Ġìĺ¬ë ¦¬ëĬĶ
ê¹Ģ íĥľì§Ħ
Ġìĺģ ìĹħ
ī´ë ¹Ħë
Ġìĭľë ¡ľ
Ġê¹Ģ ì¹ĺ
ĠìĹĲ ìĿ´
ĠëĲĺë Ħ¤
§İ ëĦ¤
ãħıãħı ãħıãħı
Ġë® ĮíĹ¨
İ ħ
ĸ ³
Ŀ¼ ëĬĶëį°
Ġì¢ĭ ì§Ģ
ĠìĪ łë
ìļ° ê¸°
ëħ Ģë
ìķĦë §Ī
ê²½ ê´´
íĭ° ì¼ĵ
ëĭ¹ íķ¨
ìĻĶ ìĸ´ìļĶ
ĠëĤ¨ ìĿĢ
Ġíķľë ²ĪëıĦ
Ġëª¨ ì§ĳ
Ġê°ľë ħĲ
Ġê°ķ ê°Ħ
ĠíĶĦë łĪ
Ġê°Ĳ ìĬ¤íĬ¸
ĠìĦłë ¬¼
ĠìĻ¸ êµŃ
ãħħ ãħĩ
ì¯ Ķ
ëı¼ ì§Ģ
ìĹĲ ìĹĲ
ìĿ´ë ¦¬
ìĦ± ê¸°
ëĮĢ êµ¬
êµ¬ë §Ī
ìĹ° ìĿ´
Ġê±° ê¸°
íĤ¤ë ©´
ìĻ¸ íĺķ
ĠêµŃ ëĤ´
Ġì¿ ¨
ĠìĿµ ìĬ¤
ĠìĽ¹ íĪ°
4 5
ì§Ħ ìĺģ
ĠìĤ¬ íļĮ
ĠìĤ¬ ìĿ´íĬ¸
ì¡° íķ©
Ġìĥģ íĥľ
ìĿ¼ë °ĺ
Ġë°Ľ ëĬĶ
ì°¬ íĺ¸
ìĺ¬ ìĬ¤íĥĢ
Ġê¹Į ì§Ģ
ĠíĮĶ ìķĦ
ĠëĬĲ ê¸Ī
įĶë §Į
Ġëª¸ë §¤
Ġê°¤ëŁ¬ë ¦¬ëĬĶ
ĸ ¨ìĸ´
ìķĦ ìĿ´ëĵ¤
ë§ Įëĵ¤
ìĿ¸ë °©
ĠìŀĪ ìĹĪ
¨¹ ìĿĢ
ĠëĦ ĺë
Ŀ¼ë Ŀ¼
Ġì¶ ¤
Ġì¢Ĩ ë°¥
íĺķ ìĿ´
íĺĦ ìĭ¤
Ġê¸°ë ¡Ŀ
Ġë°Ķë ŀĮ
Ġíķł ê¹Į
ìĿ´ëĬĶ ê±°
ìĹĺë ¡¯
ĠëĤ« ëĥĲ
Ġìĭ«ìĸ´ íķĺëĬĶ
ìł¸ë ıĦ
ĠëĿ Ħ
ëĿ ł
ìĪŃ ìĿ´
ë©ĶìĿ´ íĶĮ
ê¸° ìŀ¥
ìĤ ¼ë
ê¹ ĥ
Ġë° ĳ
ìĻ ģ
íĮ ľ
íĺ Ķ
ìĤ¬ ìłľ
ìĥģ íĻ©
ìłķ ë¯¼
íĭ ¸
ãĦ¹ ãĦ¹
ĠìĬ¤ íĨłë
Ġíĥ ľë
ĠëłĪ ìłĦë
ìŀ¬ë ªħ
Ġë³µ êµ¬
ĠêµŃ ë£°
Ġp c
ê°Ķë Ħ¤
- >
v p
ëĤ «
¹Ħ ëĬĶ
ìłĦ ê±°
ĠíĮ Įë¦¬
ĠìĬ µ
ĠëĦ ¥
Ġìĺ¤ ì§Ģê²Į
Ġìĺ¤ íŀĪëł¤
êµ¬ë ıĦ
ìĦł íĥĿ
ëį ĺë
Ġãħħãħ ħãħħãħħãħħãħ
ĠëĤ¨ ìŀĲë
íķĺì§Ģ ë§Į
Ġëį ľ
Ġê¹Ģ íĥľì§Ħ
ê¸¸ íĥľ
ìĶ¹ ëįķ
Ġë§Įëĵ¤ ìĸ´ë
¹ł ëĬĶ
ĠìķĮëł¤ ì¤ĺ
ìĭŃ ìĭľìĺ¤
Ġë¯¼ ì£¼ëĭ¹
ìı ł
ìŀ¬ë° ĭ
¦ ´ë¦¬
Ġë§ ¨
ĠìĿ´ ê±¸
ìłķ ìĪĺ
ìĭł ê³ł
ıĻ ìĤ°
ê±´ ì°½
ê³µ ì£¼
íĹ Īë
Ġìŀĺ íķĺëĦ¤
ìĽĮ ì¦Ī
Ġëª¨ë ¥´ë
ĠëĤĺë Ŀ¼
ĠìķĬ ëĤĺ
Ġì§Ģê¸Ī ê¹Įì§Ģ
Ġíķ´ë ³¸
íĻį êµ¬
ì¿ł íĮ¡
Ġìĭ¸ ìļ°
ĥĲë ©´
ĠìŀĪëĤĺ ìļĶ
Ġ r
Ġ <<
íķ ¨ë
´ë ĵľ
¸ë Ĥĺ
ĠìĿ´ ìĸ´
ë° į
íĤ ¨ë
Ġì¹ ¼ë
ĠíĻ Ģë
Ġíĥ Ń
íĮĮ ëĬĶ
íĬ¸ë ıĦ
ëĭ¹ íķľ
ĠëĪĦ ìłģ
ëħĦ ìłĦ
Ġê·¸ ê²Į
Ġë¶Ģë ª¨
ìĺĢ ì§Ģ
ìŀ¬ë ¯¸
ê±¸ë ¦¼
©´ë Ĳĺ
ĠíĥĪ ì¶ľ
ĠìĿ´ë¦Ħ ìĿ´
Ġìĺ¨ ëĭ¤
Ġãħħ ãĦ±
Ġìı ĺ
3 9
ë ¥´
Ĥ ¬ë
Ĳ ĲëĦ¤
ìł łë
ìłķ ì§Ģ
ëĦ¤ ìļĶ
Ġìĸ´ë ķ
ĠìĿ¸ ìĭ¸
Ġë³´ë Ĥ´ë
íĺ¸ ì¤ĳ
Ġëħ Ħ
ìĿ¼ë ¶ĢíĦ°
íķľë ĮĢ
ê» Ħ
ĠìĹ¬ìŀĲ ê°Ģ
ëħ¸ë ¬´
Ġì·¨ íĸ¥
ìĸ´ëĸ °
ë²Į ìį¨
ĠíķĦë ıħ
¼ ëĬĶëį°
ìĿ´ ìĥĪëģ¼ëĵ¤
Ĥĺ ê°Ī
Ġë° Ŀ
Ġãħ Ĺãħľãħĳ
ì£¼ íĻį
´ëĭ ´
§Ī íĬ¸
¬¸ ìłľ
ĠìŀĪ ìĸ´ìĦľ
ĠëŃĲ íķĺëĬĶ
Ġìŀħ ë¬¸
ĠìĹŃ ìłĦ
Ġë½ĳ ê¸°
ãĦ·ãĦ·ãĦ·ãĦ· ãĦ·ãĦ·ãĦ·ãĦ·
Ġë°ĶëĢ Į
¯ ¹
° Ģë
ë Ĵ·
Ĩ Ĵ
Ń ĲëĥĲ
ê°Ģ ê²©
ìĬ¤ íģ¬ë
ë§ ĺ
ì¤ĳ ìŀĦ
²Ħ ê±°
íŀĪ ëĬĶ
ìĺģ íĥģ
ë¹ łë
Ġë¬¸ ìŀ¬ìĿ¸
ĠìĦł ìĥĿ
Ġë°° ê²½
Ġê°¤ë Ł¼
íĺģ ì¤Ģ
ĠìĥĪëģ¼ëĵ¤ ìĿ´
ìķĦëĭĪë Ŀ¼
ĠëĤł ìĶ¨
ì´Īë Ķ©
ë´ Ĭ
Ġ R
ìĸ Ģ
ìľ¼ë ł¤ê³ł
ìłķ ìĭłë
ìĭĿ ìľ¼ë¡ľ
ĠëĮĢ íķ´
ìĹ° ì°¨
íĶĦ ëĭ¤
íļĮ ìĤ¬
Ġëªĩ ëªħ
ìĽĲë ıĦ
ãħ¡ãħ¡ãħ¡ãħ¡ ãħ¡ãħ¡
ĠëĲĺë Ĥĺ
ĠìĤ´ë ł¤
ì²´ë ĬĶ
Ġë£ ©
Ġê°ľê¿Ģ ìŀ¼
Ĥ ³
ìĿ ½
ìĬ¤ íĭ°
Ġìĺ ¨ë
ìĭľ ê¸°
ĠìĿ´ë ¦¬
íŀĪ íĬ¸
ìĺ¤ë ħ¸
íķł ìĤ¬ëŀĮ
íĤ¤ ìĬ¤
Ġëĸ ¨
ĠìķĦë łĪëĤĺ
ł¤ë Ŀ¼
ĠëĤĺë ¦Ħ
ĠëłĪ ìĿ´
¥¸ ëĭ¤
ĠìĦ¸ ìĥģ
Ġëľ »
ìķĺë Ĥĺ
Ġì¹´ íİĺ
Ġìĭ¸ ìĽĢ
ĠëĴ¤ ìĹĲ
ĠíĬ¸ ìľĦíĦ°
Ġëĳĺ ìĿ´
ìļĶë Ħ¤
ìĥĪë ĤĢ
Ġê¶ Į
ìĻĦë £Į
ë ¦°ìĿ´
ê³ §
ëħ ķ
íİ łë
ĠìĪĺ íķĻ
Ġë§Ī ìĬ¤íģ¬
Ġë°Ľ ìĿĮ
Ġìŀ¬ë°Į ëĬĶ
ĠìĿĺ ìĥģ
ìłķëıĦë ¡ľ
Ġëĭ¬ ìķĦ
ĠìĹĲë °Ķ
ĠìŀĺìĥĿ ê¸´
M D
ë ŀĢ
ìĦ ¯
ĠìĹ ®
ì¤ Ģë¹Ħ
ĠìĿ´ ê²ĥ
ĠìĿ´ ìłł
ìķ¼ ê°¤
ë° Ģ
íģ Ĳë
§Ī íĨł
íı °ë
ĠìĤ¬ ê±´
Ġë¹ Ī
ê¸Ģ ìĹĲ
Ġë§İ ìĿĢëį°
ê°ķ íĻĶ
Ġê³ł ìłķ
íķľë ıĻ
ĠìĽĥ ê¹Ģ
íĺ¼ ìŀĲ
ìĺĢë ħ¸
íģ´ë Ł½
ë¨¸ë ĳĲë§ģ
Ġì»¤ë ®¤
Ġìĸ´ì¼Ģë Ĳ¨
± ĥ
¹ ¼ë
ê°Ģ ëĬĶê±°
ê°Ļ ëħ¸
Ġë¹ Ļ
ìĤ¬ë ĵ¤
ìħ ĺë
Ġìľł íĬŃ
íĨµ íķ©
Ġê¼ ½
ĠëĲĺ ëĬĶëį°
Ġìĸ´ëĶĶ ê°Ĳ
ë¬¸ ìłľ
ì¶ķ êµ¬
Ġì§ĳ ìĹĲ
Ġìĸ¼ êµ´ë
Ġìĸĳ ìĭ¬
Ġíķłë ķĮ
ëħĦë ıĦ
ĠíĻį ìĸ´
Ġíľ ´ë
Ġë³Ħë¡ľ ìŀĦ
Ġê´´ë ¡Ń
° ķìĿ´
Ĥ ¬ëĦ¤
Ħ ¹
Ġë ĥī
¹Ħ ê°Ģ
íı Ĳë
ĠìĤ¬ ìĦľ
Ġê¹ Ĭ
ìłĲ ìĭ¬
ìĹ° ìķĦ
Ġìĺ¬ë ¦°
íļĮ ì°¨
Ġìº ł
Ġë¶Ģ ìĥģ
Ġìµľ ê°ķ
Ġìĸ´ëĶĶ ê¹Įì§Ģ
²Ħë ¦¬
Ġë¨¸ ê°Ģ
Ġì£¼ë §Ĳ
Ġìĵ°ë ĥĲ
Ġê±°ë ŀĺ
Ġë¶Īë Ł¬
íķĺ ì²ł
ìķ¼ ì§¤
Ġë³ ¸ë
ìĪĺ ìŀĪëĥĲ
ì¶ ¤
Ġê·¸ë ł¤
Ġê·¸ë ¦°
ëª ¸
Ġë¹ »
íŀĪ ìĸ´ë¡ľ
Ġì§Ģ ê°Ģ
íħĮ ìĿ¼
ìłĲ íķĳ
ĠìĹ¬ ìºĲ
°© ìĹĲìĦľ
Ġë¨¹ ìľ¼ë©´
łĩ ê²Įë
ë³µ ìłĪ
ê¸°ë ŀĳ
íĻķ ë¥ł
ĠìĻ¸ ì§Ī
ĠìĿĺ ìĻ¸ë¡ľ
Ġìļ© ë³ĳ
ì´Ŀ ê³µ
ĠëĤ« ì§Ģ
Ġë°ĶëĢ Ĳ
Ġëº ı
ĠíĢĺ ìĬ¤íĬ¸
´ ĩ
ë ´Ħ
Ķ ĺ
ìĿ´ ìĹĪ
ê°Ģ ëıĦ
¡ľ ìļ°
êµ °ëĮĢ
ë§ ¹
ìĿ¸ íĦ°ë
ìłķ íĽĦ
íĸ Īë
ĠëĤĺ íķľíħĮ
ê°Ļ ê¸Ķ
ìĦ± íĺķ
Ġ2 8
ĠìĹĨ ê³ł
Ġë¶ ķ
Ġìĭľ ìĽĲ
Ġë³´ë ĥĲ
Ġë§ŀ ëĬĶëį°
Ġëĭ¤ë ¦¬
ĠëĤ¨ ìĪľ
ìį ¬
ëĤ¨ ìķĦ
§Ŀ íĺ¸
Ġíķł ê±°
´ī ì¤Ģ
´¤ ìŀĲ
ì§Ģë§Į ìĿ´íĺķ
ëŀ ľë
ìĬ¬ ìĬ¬
ìķĮë ł¤
Ġìļ°ë¦¬ ê°Ģ
ì¹ł íĶĮ
ìı ĺë
íĹ¬ ìĬ¤
ĠìĹ°ë Ŀ½
íķľíħĮë ıĦ
Ġ !
ëĭ ®
ìĿ´ ìłł
ê°Ģ ìŀĲ
ìĸ´ ì¤ĺ
Ġìĺ ®
Ŀ¼ë Ĥĺ
ìķĪ íķ´
ìĤ¬ë Ŀ¼
ĠíĻ Ī
ì¹´ ê°Ģ
íĬ¸ë łĪìĿ´ëĵľ
Ġìľł íĸī
Ġë°© ìĸ´
Ġãħĭãħĭãħĭãħĭãħĭãħĭãħĭãħĭ ãħĭãħĭãħĭãħĭãħĭãħĭãħĭ
Ġë§ŀ ìķĦ
ì¤Ħ ìĤ¬ëŀĮ
ìī ¬ë
´Ĳ ìķ¼
ìį ¹
Ġìĭľë ¦¬ì¦Ī
ëĶĶ ìĶ¨
ìķĺë įĺ
Ġì§ģ ìłĳ
ëĭ¬ë Ŀ¼ê³ł
Ġê¿ Ģë
íĺĪ ê·Ģ
Ġì¥¬ ì§Ģ
rea l
e n
Ġ ,
ŀ ı
ì² ¨ë
ĠìķĦ íĭ°
Ġê°Ģ ì¡±
êµ¬ íķ¨
ĠìķĪ íķ´
Ġ2 7
ê´ Ģë¦¬
ĠìĿ¸ ìĤ¬
Ġë³´ë Ŀ¼
ìĿ¼ë ¡ľ
ìłľë ¶ĢíĦ°
ĠíĸĪ ìĿĮ
íĻķ ìłķ
Ġì¹´ë ©ĶëĿ¼
ĠíĻĶ ìŀ¥
ìĿ´ëħ¸ ìĬ¤
íĶĦë¦¬ ì½ĶëĦ¤
Ġê½ ĥ
Ġì¡¸ë Ŀ¼
ĠíĽ¨ ìĶ¬
2 8
ë ¦¼
ë ¡¯ëį°
Ġ I
íķĺ ê²łëĦ¤
Ġìŀ Ķë
ĠìĿ´ ìłķëıĦ
ìłķ ìĭł
ìķĦë ¬´
êµŃ ë°¥
ì» ´ë
ìľĦ íĤ¤
ĠìĪĺ ìº¬ë£¨
ìĨį ëıĦ
ì± Ĺ
Ġìĸ´ëĶĶ ìĦľë
ìļĶì¦ĺ ìĿĢ
ĠíĮĮ ëĬĶ
ëĭī ìĬ¤
ĠëĮĢë °ķ
ë£ ©
ĠìĬ¹ ê²©
Ġìļ´ ì§Ģ
ìĸ´ëĸ ¤
Ġ18 0
Ġê·ĢìĹ¬ ìļ´
3 5
¬ ´ëĤĺ
ìķ Ķë
Ġê° Ħë
ìĪ ľë
Ġëĭ ĺëĵ¤
ìĭľ íĮĲ
ĠëĤĺ ìĻĶë
³´ ì§Ģ
ìĹ¬ ìŀĲëĵ¤
Ġêµ ³ìĿ´
ëĮĢ ì²´
ĠìĥĿê°ģ ëĤĺëĦ¤
ì¿ ¼
ĠìķĬ ìķĺëĥĲ
ĠìĺĪ ìłĦìĹĲ
Ġë²Ħ íĶĦ
ıĮ ìĿ´
Ġêµ¬ë Ŀ¼
ĠìľĦ íķ´
íĶĮë łĪ
Ġëĭ¬ë ¦°ëĭ¤
ëª¨ë ĵł
Ġëª°ë ŀĲ
ĠëĤĺìĻĶ ëĬĶëį°
ê°ľìĿ¸ ìłģìľ¼ë¡ľ
íķĺ ìĿ´
ìĭł ê·ľ
²Ħ ìłĦ
ĠìķĪë ĲĺëĦ¤
Ġíĥ Īë¦¬
¯¼ ì²ł
Ġê¸° ìĪł
ë¦¬ ê³ł
¬´ë ¦¬
Ġëĺ Ĳë
Ġë¬¸ ìłľë
ë¯¼ ì£¼ëĭ¹
Ġë°° ëĭ¬
ĠìĦ¸ íĮħ
ë¨¹ ê³ł
Ġê·ĢìĹ¬ ìĽĮ
Ġãħį ãħĮãħĬ
ìĹ Į
ĮĢ ìŀ¥
ìĿ¼ ìĿĢ
ìķĦë ¨¹
Ġê¸° ëĭ¤ë¦¬
ĠìŀĲ ìĭł
íĶĦë łĪìĬ¤
ëħĦ ìĥĿ
Ġëģ Ħ
ê±¸ ìĿ´
Ġê³Ħ íļį
íķľëĭ¤ ëĬĶ
ĠëĤĺìĺ¤ ëĬĶê±°
ì°¨ë Ŀ¼ë¦¬
Ġìĭ¤ë §Ŀ
ĠíĹ¬ ìĬ¤
ì¡´ë Ĥĺë
3 00
ê² Ĳ
Ġìķ Ļ
ìĿ´ë §Į
Ġì§ ĵ
ĠìĿ´ íĽĦë¡ľ
ìľ¼ë Ŀ¼ê³ł
ìķĦë ĵ¤
ìħ Ķë
ì¹´ íİ«
Ġì¡° ìĭ¬
Ġì£¼ ê³ł
ĠìĿ¼ë ²ł
Ġìĸ´ëĶĶ ê°Ķë
ê°ľë ¡ľ
Ġì¢ĭìķĦ íķ¨
ëłĪ ìĿ´
Ĥ¬ ëĭ¤
Ġë©į ì²Ń
ãħ Īë
¡ľ ìĬ¤
íķ´ ì§Ĳ
ĠëĤ ©
ìłķ ìĥģ
Ĥĺë ıĦ
ĠìĪĺ ëĬ¥
ëł Į
ìĭľë ©´
íķľë ¯¼
Ġë¨¹ ìĿĮ
ìĪĺë ¹Ħ
ìĦĿ ìĿ´
Ġìŀħ ê³ł
???? ??
Ġê²° ìĬ¹
Ġëĵ¤ìĸ´ ìĻĢë
íĪ ½
ĠëĮĢë ¦¬
Ġì½Ķë ĵľ
Ġì´Ī ìĽĶ
Ġëª¨ë¥´ ê²ł
Ġê·¸ëŁ° ê±°
Ġë©ĶìĿ´ íĶĮ
ĠìŁ ¤
¥ Ļ
Ł ¿
íķĺ ê²łì§Ģ
ĠìĹ łë
ìĭľ ìŀ¥
ì¼ Ħ
íĥĢ ê³ł
³´ ìĥģ
²Ħ ìĬ¤
ĠíĻ ľëıĻ
Ġíĥ ģ
Ġì½ ±
Ġì§Ģë Ĥĺ
Ġíŀ Īë
ì½Ķë ¦¬
íĮĢ ìĿ´
Ġëķ ħ
ìĽĶë ĵľ
Ġê°ĸ ê³ł
ĠìľłíĬľë ²Ħ
ìķ ¨ë²Ķ
ìĽ łë
ì¤ ĺëıĦ
ĵľë ¦¬
Ġìĺ¤ íĥľê³¤
ìķĪ íĥĢ
ĠìĥĿ ê¹Ģ
Ġê³µ ìľł
Ġë°© ì¶ľ
Ġë¹Ħ ìľ¨
ìļ°ë ŀĮ
ì°½ ëħĦ
Ġê³Ħ ìķ½
ê·Ģ ìĹ½
ìĺĢ ìĸ´
ìĿµ ìĬ¤
Ġëª°ë Ŀ¼ëıĦ
Ġìİ Ħ
¹ ¼
łë ¡ľ
Ġìł Ĳë
ê¹ Ĭ
ãĦ ¸
ĠëĤĺ ìģĺ
Ġê°Ģ ìķ¼
ĠìĤ¬ ê·Ģ
ìĹ° ìķł
ì½Ķ íĬ¸
ê·¸ ê±°
Ġì¤ĳ ë³µ
ë°© ë²ķ
Ġë¨¹ ìĸ´ë
ëħĦ ì°¨
ĠìłĢ ìĥĪëģ¼
íĪ¬ ìĪĺ
ĠìĹ° ìĨį
ìĺĪ ìķ½
íĮĮë ©Ķ
Ġì¼ ľ
ĠìĪľ ê°Ħ
§İ ìĿ´
Ġê¼´ë ¦¼
Ġê·¸ëŁ° ê°Ģ
ĠìĤ° ëĭ¤
ìĸį ìĸį
ìĽ¹ íĪ°
Ġìķłë¯¸ë Ĵ¤ì§Ħ
ë²łë ¥´ë
Įë¦° ì§Ģ
Ġì ī´ë
íķĺ ìĭł
Ġê° ľë°ľ
ìĥĿ ìĿ¼
Ġë³´ ê³łìĭ¶
Ġíķĺë £¨ë
Ĥĺë ŀĳ
íķ´ë ĬĶ
ìłĲ ìĿĢ
ì½Ķ ê°Ģ
³´ë ĥĲ
íĺ¸ ê¸°
Ġê´ Ģë
íĿ Ļ
ê³Ħ ìķ½
ë¹Ħ íĭ±
Ġê°ĢëĬ¥ íķľ
ĠíĽĦ íļĮ
ĠìķĪëĤĺ ìĺ´
ĠìĹ¬ë ¡ł
ìļ´ë ĵľ
Ġìĸ¸ìłľë ¶ĢíĦ°
ëĮ ķìĿ´
ĠëĪĪë ¬¼
Ġìĸµ ìļ¸
Ġì¹Ń ì°¬
Ġê²ģ ëĤĺ
Ġ ^^
ìĿ´ ìĺ¤
ì§Ģ ìĹŃ
ìĥ Įë
¨ë Ħ¤
ìĿĺ ìĤ¬
íŀ Īë¡ľ
ĵľë °±
ĠìķĪë ĲĺëĤĺ
ìŀĲë ıĦ
°Ķ íĥĢ
ìĨĮ ìĦ¤
íĶ¼ ê°Ģ
ìĹ° ìĨį
ìĻĶ ìĸ´
ĠìĿ¼ ìłķ
ĠíĴ Ī
Ġ9 9
łĪë ĵľ
íķĳ íģ¬
Ġìŀł ê¹Ĳ
ĠëĬĲ ê·¸
Ġê³¼ ê±°
ìĬ¬ë Ŀ¼
¸ëŁ° ìĬ¤
ìĻ¤ ì¼Ģ
ĺ Ĳë
Ġì Įĵ
ìķĦ ê¸°
¤ë ħ¸
ì£¼ íĸī
ë§Į íĻĶ
Ġì§Ģ ëĬ¥
Ġì¤ Į
Ġë°Ľ ìĿĦ
Ġë³µ ê°ģ
Ġëĸ¡ ëĿ½
Ġì¼ Ģë
ìºĲë¦Ń íĦ°
ê¹Ģë ¯¼
ë ĪĪë
Ĥ ¨ëĵ¤
ëĬ ĲëĿ¼
ì§Ģ ìħĺ
Ŀ¼ íķĮ
íŀ ĺëĵ¤
Ġíķĺë ĵľ
ĠìĬ¤ ì¹´
ê²½ ìĽĲë
ëĬ¥ ëł¥
ëĭ¨ ê³Ħ
ì½Ķ ëĬĶ
¯¸ë ¡ľ
ë¦¬ ê·¸
íĿ ī
ìĿ¼ë ıĦ
Ġìĺģ ìĸ´
ĠëıĦ ì°©
ëªħ ìĿ´
Ġë³ĳ ìĭłë
ìĿ´ëĿ¼ ìĦľ
íĽĦ ê¸°
Ġë°° íĦ°ë¦¬
ıĮ ìķĦ
Ġ20 20
ĨĪ ìĿ´
ĠãĦ± ãĦ´
Ġê°Ħ ëĭ¨
Ġì¶ľ ìĭł
Ġë¶Ħ ìĦĿ
ĠíĶĮ ìĺµ
Ġë©´ ìłĳ
Ġëŀľë į¤
ĸ ł
Ġí ĩ´ë
Ġê³ ±
ì§Ħ ì§ľë
ìłĦ ìĦ¤
íģ ´ë¦¬
ìĽĲ ìĺģìĿ´
ĠìĿ´ë »Ĳ
Ġì¢Ĩ ëıĦ
ê°Ģë ģĶ
ìĹħ ëİĥ
ìĿ¼ë ķĮ
ìļ´ ê²Į
Ġì¡° íļĮìĪĺ
ìĪĺë ¥¼
ê°¤ë ¡ľ
Ġìķł íĶĮ
ë© ´ë
ìĭ¸ ìĽĢ
Ġê´ľ íŀĪ
ĠëĴ· ê´ĳê³ł
ĠëŃĺë ¡ľ
k g
í Ĳ
ìĬ¤ íĨł
ìłķ íķľ
íķĺëĬĶ ìķłëĵ¤
ëıĦ ìłģ
ĠìĻľ ìºĲ
ìĹĨ ëĤĺ
ĠëŃĲ ì§Ģ
ì£¼ë ħ¸
Ġì¶Ķ ê°Ģë
.... ...
íĥľ ìĸĳ
Ġë© ¸ë§Ŀ
ë§Īë ¦¬ëĤĺ
ìľ¼ ìľ¼
ëĭĺëĵ¤ ìķĦ
ĠëıĻ ìĥĿ
Ġëĵľë ŀį
ìķĦëĭĪë ©´
ĠêµĲ íĻĺ
Ġíģ¬ ê²Į
Ġì²´ ê°Ĳ
ĠìĤ¬ëŀĮëĵ¤ ìĿ´
ľ¨ë ©´
Ġíŀĺë ĵł
ëĬ ¦
ìĹ Īë
ê°Ģ ê°Ģ
¼ë §
ì§Ģ ê¸°
ëĭ¤ ìĿ´ëħ¸ìĬ¤
ìĿ´ë Ĥĺë
ê±° ëĿ¼
ĮĢ íĺ¸
Ġëĭ Īë
ìĪĺ ìŀĪëĬĶ
ìłľ ìĿ´
ìŀ¥ ë©´
ĠëŃ Ķë
ê¸Ī ì§Ģ
íŀ Ĳë
²Ħ ì§Ģ
Ġìłķ ìĭĿ
ëĮĢ ìłĦ
Ġê°Ļ ê¸Ķ
íĶ¼ ëĬĶ
íį Ħ
ê²ĥ ê°ĻìĿĮ
Ġë¨¹ ìĿĢ
Ġíŀ Ļ
ĠìłĢë Ł¬
ħãħħãħ ħ
ĠíĶĦë ¡ľë
ĠìĥĪëģ¼ ê°Ģ
Ġë°ĺë ĮĢ
ĠëŃĺ ê¹Į
ëĭĺë įľ
ìĤĲë ¶Ģ
Ķ ľë
ì§ ¹
ìĿ´ ìĹĪìĿĮ
Ģë į°
Ġìĥ Įë
ê°Ļ ëĥĲ
ĠìķĪ íķĺëĥĲ
ë§Į ìĽĲë
ĠìķĪë Ĳľëĭ¤
ìĤ¬ë ¡ľ
Ġìĸ´ ì©Ķ
Ġì¢Ĩ ë
ìĭľë ĮĢ
Ġê±° íĴĪ
ìķ¼ë ı¼
ëħĦ ìĹĲ
ëĦ ·
Ġëª¨ ìĬµ
íĸī ë³µ
Ġê¸°ë ħĲ
ĠëıĦ ìĤ¬
ĠëıĦ ìłģ
ìĺ¬ë ł¤
Ġì£¼ë ©´
Ġíļ Įë
ìķĦìĿ´ ìľł
ë¯¸ë ŀĺ
ĠìĿĮ ìķħ
Ġì¶© ë¶Ħ
íķľë¯¼ êµŃ
ĳ ł
Ġë ķĮë¬¸
ìĿ´ ìŀĸìķĦ
ìĿ´ë Ł¬
íĺ ¼ë
ĠìķĦ íĶĦë¦¬ì¹´
íĬ¸ ìĻĢìĿ´ìĬ¤
¦¬ë ©´ìĦľ
ĶĶ ìħĺ
íħĮ ìĬ¤íĬ¸
°© ìĹĲ
ĠìĿ¼ ì£¼ìĿ¼
íį¼ ì¦Ī
°ķ ìĬ¤
ë§Ŀ íĺ¸
ĠëıĮ íĮĮ
Ġë¬´ë £Įë
íĮĶ ìĿ´
Ġë´Ĳ ìķ¼
Ġíķĺë£¨ ìĹĲ
ĠìĿ¸íĦ°ë Ħ·
ìķĪëħķ íķĺìĦ¸ìļĶ
ĠíĬ¸ë¡ľ ìĿ´
Ġë ·°ì§Ģ
ê°Ģ ê¸°
¸ë ĵľ
ëĭ¤ ëĬĶëį°
Ġë° ´
ìłķ íĻĺ
Ġìľ ¾
Ĥĺë ¯¸
¯¼ íĺģ
íķł ê±°ë©´
ìĨĮë Ĥĺ
Ġìĺ¬ë ¦¬ë©´
íķĻ ìĽĲ
íĨłë ģ¼
ĠëĤĺë Ŀ½
Ġíķ´ë ªħ
ĠëĶ°ë ¨¹
ĠìķĦìĿ´ íı°
ìĿ´ìĥģ íĻĶ
Ġãħİ ãħĮãħĬ
Ġë³Ħë ¡ľë
ĠíĺĲ ìĺ¤
ĠíĮ¬ë į¤
Ġë¸ħ ìĭł
Ġíģ´ë¦¬ ìĸ´
2 6
¦ ĩ
íķ ı
ì§ Ħëĵ¤
Ġìł ł
Ġìĭ ¸ë
ĮĢ ìłĦ
ìĿ¸ ìĬ¤íĥĢ
ì£¼ ê³µ
ëĤĺ ê³ł
Ġëĭ¤ ëĭĪ
ê·¸ë ¦¬ê³ł
ĠìķĪë §ŀ
Ġìĭľ íĹĺ
Ġê°Ļ ì§Ģ
ê¸Ģ ìĿ´
¡ľë §Į
ìļ°ë ĵľ
Ġìŀ¥ ë©´
Ġë§Īë ¦¬ëĤĺ
Ġë§¤ ì¹Ń
Ġíĭ° ì¼ĵ
ë¯¸ë ĶĶìĭłë¹Ħ
ìľ¤ ì§Ģ
ì²ĺ ìĿĮ
Ġë§¤ë ł¥
íİĺë ¯¸
Ġì§± ê¹¨
Ġì¦Ŀ ê±°
ĠìĥĪë²½ ìĹĲ
ĠìĹī ëį
ª ĩ
İ ģ
ëĭ ´ë
íħ ĶëĿ¼
ì¹ĺ ëĬĶê±°
ĠìŀĪ ëĭ¤ê³ł
Ġì¹ ¨ë
ìĹĨ ëĬĶê±°
ê²½ ë¯¼
ìĭľë Ĥĺ
Ġì¡° ìŀĳ
ë¬¸ íĪ¬
Ġë§Įë ĵľëĬĶ
Ġìķł ëĭĪë
ë§Ŀ ìĺ¤ìĬ¤
íİ¸ ìĿĺìłĲ
íĪ ´
íĬľë ²Ħ
Ġë¸Į ê¸Ī
Ġëª¨ë¥´ ê²łìĿĮ
ì»¨ íħĲì¸ł
ì¥¬ ìĸ¼
ìİ Ħë¦¬
Ġìī½ ê²Į
ë Ŀ¼ê³ł
Ġë ĥĦìĥĪ
ĺë §Ī
į° ìĿ´
ê³ł ìĪĺ
ĠëĤĺ ìģľ
ĠìĪ ĺëıĦ
ìľł ìŀħ
ĠëĦ ·
íİ Ń
Ġì¹ ©
ĠìĬ¤ ì¼Ģ
ĮĢë ¨¹
³´ë Ĥ´
ìĭľë ¸Į
ë°© ì¶ķíķĺ
ìĸĳ ìĭ¬
ĠíĹ ¬ë
ĠìĿ¼ë ¶ĢëŁ¬
ĠìĺĪ ìłĦ
ì¹ĺë ¡ľ
ĠíĶ¼ ê³¤
ìłĢë Ł°
Ġë¶Ģë ¶Ħ
ĠíĶĦë Ŀ¼
Ġë°ľ ê²¬
Ġìĭ¬ ìĭ¬
Ġë§Ľ ìŀĪ
Ġëĵ± ë¡Ŀ
Ġì´Īë Ķ©
ĠëĨĴ ìĿĢ
Ġìĸ´ì© Įë
Ġëĸ³ ëĭ¤
ĠìľłëĭĪ íı¼
Ġìŀ¬ë°Įë ĥĲ
ĠìĬ¹ê²© ìĿĦ
íĮĮë©Ķ ì¹´ëħ¸
ìĿ´ íĭĢ
íķĺ ìĬ¤
ĠìķĦ ê¹Ŀ
Ġê°Ģ ìĦ±ë¹Ħ
ëĥĲ ê³ł
ìĹ¬ íĸī
Ġë³´ ìĿ´ëĬĶ
Ġ3 5
ĠìĪĺ ìĥģ
ì¦Ī ê°¤
íĿ Ķ
ĠìłĦ ìŁģ
ëĤľ ëĭ¤
Ġì¶Ķ ì²ľë
ìĿĢê±° ìŀĦ
ëŃĲ ìŀĦ
ìĿ´ìľł ê°Ģ
ĠìĻľìĿ´ë Ł¼
ë°°ë ¯¼
Ġëĵ£ ê³ł
íı´ ê°ĢìĿ´ì¦Ī
Ġëĸ³ ëĥĲ
ĠìĬ¤íĬ¸ë¦¬ë ¨¸
o p
ë ¡¤ë
¶Ģ íĥģ
Ġ2 6
ê°Ħ ê±°
ì²ľ ìŀ¥
ĠìĥĿê°ģ íķĺë©´
Ġìŀ¬ë £Į
ĠëŃĲë ŃĲ
ĠíĬ¸ ìĻĢ
ë§Įë ªħ
Ġëįĺ ìłĦ
Ġíķĺì§Ģ ë§Ī
ì±Ħë ĦĲ
7 00
ê² Ķ
ê¸° ë¶Ħ
ì¤ «
ì¦ ī
Ġì¢ĭ ê²łìĸ´
ì¤ĳ ìĿ¸
Ġêµ ¿ì¦Ī
Ġê¸° ê°Ħ
Ġëħ ¼
Ġìĭł íĻĶ
Ġì½ ľ
Ġëĭ¤ë ¥¸ë
Ġë¬¸ ìŀĲ
ĠíĿ ĺë
ĠíĤ¤ ìĽĮ
ĠíĤ¤ ìĽĮë
ĠíĶ¼ íķ´
íĻį ìĸ´
ìĦ¼ ìĦ¸
Ġì¢Ĩê°Ļ ìĿ´
ëħĦë ĮĢ
ĠëĳĲë ªħ
Ġê¾¹ ì°ľ
ì¡Įë ĥĲ
ĠíĮĲë §¤
Ġì¹ľêµ¬ë ĵ¤
² ¨ë
ìĸ´ ìĿ´
ĠìĿ´ ìłģ
ë³ ¸ë
Ġê°Ģ ëĿ¼
Ġìĺ¤ ëĬĶ
ëĮĢ ì¶©
ìĹĨ ëħ¸
°Ķ íģ¬
ĠìĹ¬ ìĦ±
ìĭľë ¶ĢíĦ°
Ġìĥģ ìĬ¹
ê²ĥ ëĵ¤
ĠìłĢ ìŀ¥
Ġê²½ ìŁģ
êµĲ ìľ¡
ê°ľë §Į
Ġìĭ¤ íĻĶ
Ġë§Īë ²ķ
Ġìĸ¸ìłľ ì¯¤
ìŀ¬ë £Į
ĠìĦľ íı¿
ĠìľĦ íĹĺ
ì°¨ë ıĦ
Ġì¡´ ìŀĺ
Ġë³Ģ ê²½
Ķ°ë Ŀ¼
Ġê·¹ íĺĲ
ìĽł ëĬĶëį°
ĠìķĦë¬´ ê²ĥëıĦ
3 2
4 00
¬ ĺ
Ĥ ¼
Ġë Ŀ½
ìĸ »
ĠìĿ´ íĽĦ
Ġê± °ë¦¬
Ġê·¸ë §Įë
ĠìĿ´ë Ķ´
²Ħ ê·¸
²Ħ íĴĢ
ìķĦë ŀĺ
Ġê°ľ ìĨĮë¦¬
Ġìĭľ ì¼ľ
ê°Ģë įĶ
ëł ¤ë
ìĭľë ¦¬ì¦Ī
ĠìłĦ íĪ¬
ĠëĬ Ļ
Ġ4 00
ê²ĥ ê°ĻìĿĢëį°
Ġìĺ¬ë ¦¬
íķĺëĬĶê±° ìķ¼
ëĿ¼ ìĬ¤
ê°¤ë ŁŃìĭľ
Ġë¶Ģë Ł½
ê±°ê°Ļ ìķł
ìĺĢë Ĥĺ
Ĥłë ĳĲ
ĠìĬ¤íĥ ¯
ëĿ¼ë¹Ħë įĺ
Ġìĭľë¡ľ ì½Ķ
U MD
g a
ª ¨ë¦¬
ŀ µ
ì§Ģ ì»¬
Ġìķ Ķë
Ġìŀ Ĭ
ê¹ Ķë
ìĽ °
ëĭĪ íĭ°
ìŀ¥ ìķł
ìĤ¬ë łĮ
íĹ ¨ë
¥´ ì§Ģ
¥´ íı¬
Ġê¸° ëĬ¥
ì°¨ ëĬĶ
ãĦ± ãħĭ
ĠìłĦ ì²´
Ġê³ł ìĸĳìĿ´
Ġë§Ĳ íķĺëĬĶ
ëĤĺë ŀĳ
Ġë¶Ģë Ł½ëĭ¤
ê°Ī ê¹Į
ĠëĶĶ ìŀĲìĿ¸
Ġìļķ íķĺëĬĶ
Ġìŀ¬ ëĬ¥
ĠëĮĢë Ĩĵê³ł
ĠíĬ¸ ìľĦì¹ĺ
Ġíİ¸ ì§ĳ
ĠìĮ ī
Ġë¹¨ ìķĦ
ìķĹ ëĬĶëį°
ĠíĤ¤ë ³´ëĵľ
ãħ£ ãħ£
í ĩ´ë
Ġ )
ģ ¼ë¦¬
Ķ §
Ġê· ľ
ìĺ¤ íĥľê³¤
ìłĦ ìŁģ
ìķĪ íķĺê³ł
Ġì§Ģ ìĺ¥
ëĮĢ ëĬĶ
ìŀĲë ©´
ĠìĥĿ ê¸°
ìĦł ìĿ´
ĠìłĦ ìŀ¥
ìŀħ ê³ł
ĠìłĢ ê²Į
ĠìķĬ ìĿĦê¹Į
ê´Ģ ê³Ħ
Ġë°Ķ ê¾¸ë
Ġìį ¸ë
Ġì§Īë¬¸ ìłĲ
ì°į ê³ł
ĠìĹĲ ìĸ´ì»¨
Ġë¯¸ë ¦¬
ë¸Ķë £¨
ëİ ħ
Ĥ¬ ëĬĶëį°
ĠìĿ´ìģĺ ëĭ¤
ìľ¼ë¡ľë ıĦ
ĠìĬĪ íį¼
ŀ¬ ëĬĶëį°
Ġì§Ħì§ľë ¡ľ
ì¾ Į
8 8
ì µľë
ìĭ ¹
ìĿ´ë ıĻ
ìĿ´ë ĪĦ
¦¬ ì¹´
ìĤ ¿
ìĬ¤ íĦ°ë
ëĭĪ ìłĢ
ĠëĤĺ ìĻĶëĦ¤
ëĦ¤ ìĿ´ë²Ħ
Ġê°Ģ íħĮ
ì¤ĳ ìĿ´
ëª ¨ëĵľ
ĠìĥĿ ê²¼
Ġë§İ ìķĦìĦľ
ê³Ħ ìĨį
Ġë§ŀ ì¶°
íĮ¨ íĤ¤ì§Ģ
ë¬¸ ìŀ¬ìĿ¸
ì§Ģë ŀĳ
Ġê°ľë ħĲê¸Ģ
ĠìĨĮ ìĭĿ
ĠìĥĪëģ ¼ë
Ġìķł ê¸°
íĶ½ ìĹħ
Ġìŀ¬ë°Į ëĭ¤
Ġëĵ± íĮĲ
ŃĲ ìŀĦ
ĠìĹĺë ¦¬
ĥĪ ëĭ¤
ĠìŃ ī
O P
f act
p c
į ¥
į ¸ë
Ġë ĵł
ãħ Ĺ
ëĬ ħ
ìĿ´ ìĭľ
Ġí Ĳ
ëĭ¤ ìĭľë
ê³ł ë¯¼
ì¹ ´ëĤĺ
Ġì§ Ŀ
ìĿ¸ ê¸°
ìĿ¸ ì²Ļ
§Ī ê°Ģ
ĠìŀĪ ê¸´
Ġìłķ ê°Ģ
Ġëª» ìŀ¡
ìĨĮ ìļ¸
ì¡° ê°ģ
íĮĮ ìĦľ
Ġì½ ©
ìķ¼ë ¶ķìĿ´
ì¹ľ êµ¬ê°Ģ
ê²ľ ìĿĢ
ì§Ģê¸Ī ê¹Įì§Ģ
ì¹´ë ¦¬
Ġëªĩ ë²Ī
Ġë¶Ģ ìºĲ
ĠíĿ °
Ġë¶Ī ê°ĢëĬ¥
ea t
ë£¨ë Ĥĺ
í ī
ìĿ´ ì§¤
íķĺ ê²Įë
Ġìŀ Īëįĺ
ĠìĤ Ĳë
íķĺë ł¤
ĠëĤ ³
ìłĦ ìŀĲ
Ġìľ Ħë
ĠìĹĨ ëĭ¤ê³ł
ĠìķĪë Ĳ
įĺ ìłĦ
Ġë¬´ ìłģ
Ġëħ Ħëĵ¤
Ġíķ´ ìĦ¤
ëĶ ľë
ëĦ ¥
ëĤĺë ³´ëĦ¤
ê°¤ë ıĦ
ë°ķ ë³´ê²Ģ
Ġë°ĺ ì§Ģ
¥´ëĬĶ ê±°
Ġì²ł êµ¬ë
ì±Ħ ìĽĲ
ê¼´ë ¦¬ëĬĶ
ëķ ħ
ëĸ¡ ë°¥
Ġìĸ´ëł¤ ìĽĢ
ìĺ¤ëĬĺë ¶ĢíĦ°
íķĺì§ĢìķĬ ëĥĲ
ë ·Ķ
ìĹĲ ë§Į
Ġìŀ ¼
Ġìĭ ¬ë
ìľ¼ë ł¤ë©´
ìĤ¬ ê±´
ĠìķĪë ¨¹
ìķĦë łĪëĤĺ
Ġ3 6
ĠëŃĲ ê³ł
Ġìĸ´ ìºĲë
¦° ëį°
ìļ© ë³ĳ
Ġìľł ì§Ģ
ì¢Ĩ ê°ĻìĿĢ
Ġìĺģ íĸ¥
Ġëª¨ ìŀĲ
ìĤ¬ëŀĮ ìĿĢ
ìķ½ ëıħëĮĢ
Ġë°° ìĨ¡
Ġë§Įë ĵľ
íĥĢë ¡ľ
ĠíĦ ±
Ġê³łë §Ī
ìĮ ¤
íĸĩ ëĭ¤
Ġíĭ° ìĸ´
ëķ ¡
Ġìĺµ ìħĺ
z z
ìŀ Ķë
Ġìķ µ
ìķĦ ìĶ¨ë°ľ
ìĥ Īë¡ľ
Ķë ĵ¤
Ġì§ Ĳ
ìĭł ê¸°
Ġë¶ Ħëĵ¤
ìĺ¤ë ¹ł
ìĤ¬ë ŀĮë
êµ¬ë Ŀ¼
êµ¬ë ¡ľ
¥´ ê¸°
Ġìĺ¬ë ¦¼
Ġë°Ľ ìľ¼ë©´
ëıĦë ĮĢì²´
Ġë°° ìļ°
°Ľ ëĬĶ
Ġë¯¸ë ĵľ
ì¡Į ìĸ´
ë°Ķë ¡ľ
ë¨¸ ìķ¼
Ġëŀ ©
ì»¨ ìħī
ı¼ ì§Ģ
®¤ ì§ģ
NC ëĭ¤ìĿ´ëħ¸ìĬ¤
ìĹ ¥
Ġí ĥĲ
¡ľ ê·¸
Ġë§ ¡
ë³ ¶
íķ´ ìĻ¸
íĬ¸ ìľĦì¹ĺ
ì§Ħ ì§Ģ
ł¤ ìķ¼
ìĽĲ ìĹĲ
Ġì§Ħ íĻĶ
Ġë¹ Į
ìº £
ìº Ķ
ĠìĹ¬ íĸī
Ġíķĺ ëĭ¤ê°Ģ
ĠìĪĺ ìĿµ
Ġê¸° ìķĦ
ìĭľë °©
ê¹Įì§Ģ ëĬĶ
Ġëĸ ´
ìĨĮë ĵĿ
íķ© ê²©
ĠëĤ¨ ì¹ľ
ëĿ¼ ëĬĶ
ëĿ¼ ìĿ´íĶĦì¹ĺíŀĪ
ĠìķĬ ëĬĶ
ĠìĨĮ ìĨį
Ġêµ¬ ê²½
ê²° ê³¼
ĠìĹŃ ìĤ¬
Ġì£½ ìĸ´
Ġìŀ¡ ìķĦ
íĨ¡ ë°©
ĠíĶĮë łĪ
íĪ¬ë ł¥
ĠìĨį ëıĦ
Ġë¡¤ë ĵľì»µ
° ĶëĿ¼
ë »
ìĿ´ ìĹĪëĦ¤
łë ıĦ
Ġìł Ĭ
ìĿ¼ ìĸ´ë
íĬ¸ ìĻĢ
¦¬ë ĵ¤
ê°Ļ ìķĦìĦľ
Ł¬ ì§Ģ
ëª °ë
ëĮĢ íķĻ
Ġíĺ Ħë
Ġíķľ ëĭ¤ê³ł
ì£¼ë §Ĳ
ĠãĦ¹ãħĩ ãħĭãħĭ
Ġíķ´ ìĻ¸
Ġíķ´ ìķ¼íķ¨
Ġë¹Ħ ìĭ¸
ìļ°ë ĥĲ
ìĪĺë ¦¬
Ġëª¨ë °ĶìĿ¼
Ġê²½ ì°°
ëĤł ìĶ¨
ĠìĨĲ íĺģ
íľ ´ë
ĠìĻĦ ìĦ±
íļ¨ ê³¼
ìĦ¤ë §Ī
Ġìĸ¸ë ĥĲëĵ¤
Ġì½ĺ ìĦľíĬ¸
Ġë©ĶìĿ´ ìłĢ
ë¸Ķ íķĳ
ĠìŀĲëŁ¬ ê°Ĳ
a l
³ Ħë
ë ¯¼ë
ê³ °
ì§Ģ ìłĲ
ìķĦ íģ¬
ìĿĮ ìĭĿ
íķľ ìłģ
íķľ ìłĲ
ì½ ĺë
ì¤ĳ ìĹĲìĦľ
ê·¸ë ©ľ
Ġíķĺë ħ¸
Ġì¡´ëĤĺ ê²Į
ì¼Ģ ìĿ´ìĬ¤
ì¤Ģ ìĿ¼
Ġë³´ë Ł¬
ë¹ »
ìĿ¼ë Ĥł
Ġë´ Ĳë
ìŀ¬ ìĿ¼
ìĦ¤ ì²«
Ġì§Ģë ĵ¤
ĠëģĿ ëĤĺë©´
Ġê³łë ¯¼ë
ìĭ¸ ê°ľë
Ġìŀĳ ìĹħ
Ġì§ģ ê´Ģ
Ġì§ģ ìºł
ĠíĬ¸ ìľĹ
ĠìĹ°ë ´ī
Ġë³´ëĭ¤ ê°Ģ
ĠëĬ¦ ê²Į
ı Įë¦¬
ìŀ Ń
Ŀ¼ ìĿ¸
ëĤ ¬ëĦ¤
íķĺëĬĶ ë²ķ
ìĹ¬ ê¸´
ë¶ Ļ
Ġê¹ ľ
ìĹĪ ëĭ¤ê³ł
ĠëĮĢ ê²°
íĭ° ì½ĺ
Ġìĭł ìºĲë
Ġê¼ ´ëį°
íį¼ ëĬĶ
ìĿ´ëĿ¼ ëĬĶëį°
Ġê³Ħ ìĤ°
ìĿ´ì§Ģ ë§Į
ëŃ Ĳë
ëŃ Ķëį°
Ġì°¨ ìĿ´ê°Ģ
Ġë§Ŀ ê°Ģ
ë© ľ
ĠìłĦë ¬¸
§ŀ ìĿĮ
ĠíĻĶë ł¥
ìĤŃ ìłľ
ĠëĭĪ ê°Ģ
Ġì·¨ ìĨĮ
Ġíĺ¸ë ª¨
Ġëĭ¤ìĭľë ³´ê¸°
Ġì¡°ìĸ¸ ì¢Ģ
Ġê±°ë¶Ģ íķ©ëĭĪëĭ¤
ìĹĲ ìĸ´
ìĿ´ë ¸Ķ
ê¸° ìĽĲ
ëĤ ľë
íĤ µ
íİ ľë
Ġìłķ ê³µ
ê°ľ ê°Ģ
ê°Ģë ħ¸
Ġë§ŀ ëĬĶê±°
ê²ĥ ë§Į
ĠìķĦëĭĪë Ħ¤
Ġíŀ Īë¡ľ
ë³ĳ ìĭłëĵ¤
Īë² ķ
íĮĢ ìĿĢ
Ġì°į ë¨¹
ĠëĶĶ ìĬ¤
ëŀ ĸì¹ĺ
Ġíķ© ìĦ±
łĪìĿ´ íģ¬
Ġìłķìĥģ ìŀĦ
ìĿ´ìĹĲ ìļĶ
Ġê» ´
ĵľë¦½ ëĭĪëĭ¤
ê·¸ëŁ° ëį°
Ġë°Ķë¥´ ìĥ¤
ë ŀĺ
ëĬĶ ëĶĶ
ìĿĢ ê±´
ëĤ Ļ
ìĭł ìĿĺ
ĵľë ıĦ
ê³µ ê²©
ì£¼ë Ĥĺ
ì£¼ë ¬¸
Ġìŀĺ íķ´
íİĺ íĨł
íķľê±° ì§Ģ
ĠíĿ Ļ
Ġë§Į ìķ½
ĠìĻ¸ íĺķ
ëĸ ³
ìĨĲ íĺģ
ëĿ¼ë ©´
Ġë¯¼ ìĭ¬
ìĬĪ íį¼
Ġë® ¤ë¹Ħ
ìĬ¤ë°į ìĿ¸ì¦Ŀ
2 9
o m
s s
ë ¡ł
ìĿ´ íķ´
¬ë ĥĲ
íķĺ ìŀĸìķĦ
íĶ Ķ
ĠìĤ ½
ìĤ¬ ìĿ´íĬ¸
ìĥģ ìľĦ
ì£¼ ì°¨
íķĺëĬĶ ì§Ģ
ĠìŀĪ ìĸ´ìķ¼
ĠìĤ¬ ìķ¼
ĠìķĪë ĵ¤ìĸ´
Ġíķĺë įĺ
Ġíĺ ¼ë
Ġì¢Ĩ ë³ĳìĭł
ê°Ģë ¡ľ
¡ľë ĵľ
ì¢Ĩ ë§Ŀ
ê¹Įì§Ģ ë§Į
ë¹ Įë
Ġ4 5
ĠìĺĪ ìķ½
ì¹ĺë ĥĲ
ĪĦ êµ¬
ĠìĤ´ ì§Ŀ
Ġíķł ê²Į
Ġëĭµ ëĭµ
ãħľãħľ ãħľãħľ
ãħłãħłãħłãħł ãħłãħłãħłãħł
Ġë¶Ħë ªħ
ĪëĤĺë ³´ëĦ¤
ì¹¨ë ¶ĢíĦ°
Ġëĭ¹ìĹ° íŀĪ
Ġíı´ ê°ĢìĿ´ì¦Ī
¼ë§ ł
· Ķë
ê³ ±
ìĸ ĺë
ìĬ¤ íĤ¤
ĠìĿ´ ìĥĪëģ¼ëĵ¤
ì¹ĺ ì»¤
ĠìŀĪ ìĹĪëĦ¤
Ġì¢ĭ ìķĺ
ëª ¨ë¦¬
ĠìĤ¬ ëĬĶê²Į
íİ Ħ
ëĭĪë ĵ¤ìĿĢ
¡ľë Ĥĺë
ì¤Ģ ìĪĺ
ìĭłë łĪ
Ġì§Īë ¬¸ë
Ġíħ Ĳ
Ġíĭ° ìłĢ
ì¯ ¤ë
Ġì»¤ë ²Ħ
~~~~ ~~~~
ĠëĤ´ëħĦ ìĹĲ
Ġíķľë²Īë §Į
I A
Ĳë ¦¬
ì² ¼
Ġãħ ī
Ġìĸ´ë ¦°
Ġ2 9
ìķĦë ¥´
ê°ľ ëĬĶ
ìĺ¤ë ²Ħ
Ġì¢Ĩ ê°ĻìĿĮ
íĹ ĺë
ë² Įë
ìĭľë ĵľ
ë°© íĥĦ
ìĨĮë ĵľ
ĠëĬ ĴëĦ¤
íķĺëĥĲ ê³ł
ĠíĽ Īëł¨
ë¯¸ ì§Ģ
Ġëħ¸ë ł¥
ĠëıĦ ìķĪ
ĠíĤ¤ ìĽĢ
ĠìĦł ìĪĺëĵ¤
íĻĶë ¡ľ
Ġë³¸ ìĥģ
ë²Ī ìĹŃ
ãħİ ãħĩ
Ġêµ¬ë ıħ
ª½ ìĸ´ìĬ¤
Ġì¢ĭìĿĢ ìłĲ
ĠìķĮëł¤ ì¤Į
ĠëĦ¤ ìĿ´ë²Ħ
ëĲ Ĳ
Ġë¿ Ĳ
ĠìĤŃ ìłľë
Ġë°Ģ ìĸ´
ì¡Įë ħ¸
êº¼ë ©´
Ġë³ĳìĭłëĵ¤ ìķĦ
ìķħìĿĺ ê½ĥ
§ Ļ
ìĹ Ħë
ìĿ´ ìģĺ
ìł Ŀ
ìĸ Ħ
ìļ ĺ
ê¸° ëĬ¥
ìĬ¤ ì¼Ģ
ĠìķĦ ì£¼
ìŀ¥ íĮĲ
´ëĭ ī
ĠìĿ´ë ª¨
ìķĦë ¹ł
êµŃ ë°©
ĠìĬ¤ íħ
Ġìĸ´ ê¹¨
ì¹´ ìĿ´
ë² ¨
ìĹ° ìĬ¹
ìĬ¤ë §Ī
ìĭľë ıĦ
ìļ© ìĿ´
Ĳĺ ê³ł
Ġì¡° ê±´
ëĶ ¸ë
Ġìĺ¤ë ²Ħ
ìĪĺë §Į
Ġëĭ¤ë ¦Ħ
Ġê±°ë ¥´ê³ł
ë°Ķë ŀĮ
ĠëĦ¤ ìĿ´ë§Īë¥´
Ġê¶ģê¸Ī íķľê±°
Ġì·¨ ê¸ī
Ġë¹ĦìĬ· íķľ
Ġë¸Ķ íķĳ
ĠìĨĶë ¡ľ
íİĢ ì¹ĺ
ĠíĻĺë ¶Ī
* *
¬ ¼ëĵ¤
ë ľ¨
Ġ J
Ġë Ĵ¤ë
ê² ¬ë
íķĺ ê²łëĭ¤
ìĭł ìĿ¸
ìĥĿ ìĿ´
ìĥĿ ê¹Ģ
ìŀĳ ìĿĢ
ìłĢ ìĬ¤
ìĨĮ ìĹĲ
ë§Ī ìĿ´
Ġíĸ Īëįĺ
ĠìĺĪ ëĬ¥
Ġìĭľë °Ķ
Ġê³łë °±
Ġëĭ¨ ìĸ´
ĠëĤĺìĺ¤ ëĬĶëį°
ëŀ ©
ìķĦìĿ´ íĮ¨ëĵľ
Ġì½Ķë ĶĶ
ëģ ¼ë
ĠìĪľ ìĪĺ
ë¨¸ ìŀĦ
ĠìĥĪëģ¼ ëĬĶ
ìĽ¨ ìĿ´
Ġíķĳ ê¹Į
t s
© ĭ
Ġ y
ĥ ħ
´ë ²Ħ
ìķĦ ìŀ¬
ìĬ¤ íĮĮ
ĠìŀĪ ìŀĸìķĦ
³´ ìŀĦ
Ġì¡´ëĤĺ ìĽĥê¸°ëĦ¤
ìĹ° ìŀ¥
ìļ´ ì§Ģ
ĠìĦ± ìŀ¥
Ġãħĩ ãĦ·
ìķħ ìĦ¸
ĠìĻĢ ê¾¸ë
Ġãħł ãħłãħł
íĦ°ë ¡ľ
Ġëª© íĳľ
ĠíĢ ¸
ë§Ĳë Ŀ¼ê³ł
Ġì¿ł íĮ¡
ĠìĨĶ íĶĮ
² ¤ë
ë Ĵ¤
Ġë ¯
ìĹ £
íĥ Ħë
ìŀĲ ìĿĺ
ìĤ¬ ìĦľ
íģ ĺ
ìļ° ìļ°
Ġìĭľ ê°Ħë
Ġê¹ Ŀ
Ġì¡´ëĤĺ ìĽĥ
ìĨį ìĦ±
ìķĦëĭĪ ê³ł
ë©´ ìĦľ
ìºĲ ëĬĶ
ìłĦë ¶ĢíĦ°
Ġëª¨ ëĭĪíĦ°
ìĿĦë §Į
ĠíĽ Ī
ŀĢ ëĭ¤
Ġê°¤ ìĹĲìĦľ
Ġê°¤ ê¸¸
ĠíĿ ī
ê²° íĺ¼
ĠëģĿ ëĤľ
Ġê³łë §Ļ
Ġìŀĳ ìĿĢ
ê±°ë Ŀ¼ê³ł
Ġì¹ĺ ê³ł
Ġë¸Į ìķ±
íģ´ë Ŀ¼
ĠíĴĢ ìĸ´
Ġìķħ ìĦ¸
íĭĢë ĵľ
ĠëĿ¼ë ©´
ĠíĻĺ ìĥģ
ìŀĺë ª»
ĠìŀĦ ìĭł
Ġíŀĺëĵ¤ ëĭ¤
ĠìĻĦë ²½
ĠìĺĨ ìĹĲ
ī´ë¹ Īëį°
ìĺĽëĤł ìĹĲ
Ġ #
Ĥ ®
ê°Ģ ìĬ¤
Ġìŀ Ħë
ê¸° ê°Ħ
ìĬ¤ ìĹĲ
ëĤĺ ìĺ´
ëĤĺ ìĺ¤ë©´
ĠíĮ ľ
ĠìĬ ´
ĠìĹĨ ëĬĶê²Į
ê°Ħ ì§Ģ
ĠëŃĲ íķ¨
íķ´ë ıĦë
ìłĢ ìĥĪëģ¼
ĠìŀĲ ê³ł
Ĳĺ ëĬĶê±°
ĠìĥĿê°ģ ìĿ´
Ġíĭ ±
Ġë© °
ë¹Ħ íĬ¸ë
íĨłë ª©
ë¯¼ íĺ¸
ìĭłë °ľ
ë°° ëĭ¬
Ġë§Īë ıĦ
Ġíı¬ ìĪĺ
Ġíı¬ ìĿ¸íĬ¸
ìĪľ ê°Ħ
íĥĢë ł¹
´¤ ìĿĮ
Ġë³¸ ëĭ¤
;; ;;
ĠëĤĺìĺ¤ ê³ł
ìĭ¤ë ł¥
íĢ´ë ĵ¤ìĿ´
Ġì°¸ ìĹ¬
ĶĶë į¤ë
Ġê´Ģ ê³Ħ
Ġê°ģ ìĿ¸
ĠìĿĮ ìĽĲ
ì¦Īë £¨
ê·¼ë ĮĢ
Ġê¶ģê¸Ī íķľê²Į
Ġì¼Ģ ìĿ´ìĬ¤
Ġê°Ķ ëĭ¤
ë§¤ë ıĦ
---- ----
Ġëľ¨ë ©´
ĠãħĬ ãħĬ
p s
t i
Ħ ¥
Ħ ìĬ¤
ł ĺ
ëĭ¤ ìĿ´
¦¬ ê·¸
ìľ Ħë¡ľ
ìĬ¤ íħĮ
ìĬ¤ íĨ¤
ë° Ģë
ìĤ¬ ìŀ¥
ìĥģ íĥľ
¹Ħ ìķĦ
íħ ľë
íĤ ¥
¨¹ ìľ¼ë©´
ĠìķĪë Ĥ¨
ê°ľ ìĶ©
Ġê°ľ ì©
Ġì¤ Ģë
ëĮĢ ê°Ģ
ëĮĢ ê°Ģë¦¬
ì¹´ íħĮ
ê°Ģë ĵł
ê¸Ģ ìĿĢ
Ġê¸° ìĥģ
Ġê¸° íļĮ
Ġë¯¸ ìħĺ
ì¹ľ ëĭ¤
ìĪĺë °ĸìĹĲ
Ġíķľë ıĻ
Ġëªĩ ëħĦ
Ġìŀ¥ ìķł
ëĤ¨ ìĪľ
ĠãħĪ ãĦ¹
ê°ľë ħĲ
!!!! !!
ĠëĿ¼ ìĿ´
Ġë¦¬ ìĦ¸ê³Ħ
Ġëĭ¹ ìŀ¥
íĭ°ë ¹Ħ
ì±Ħ íĮħ
ĠíķĺëĬĶê±° ìŀĦ
ĠíĿĳ ìļ°
ĠëĬĺ ìĸ´ë
ìĥĪë²½ ìĹĲ
ģĦë Ł¬
ĠëĬĲëģ¼ ëĬĶ
Ġìĸį ìĸį
Ġ $
ŀ ĲëĦ¤
ëĭ ¼
ìĿ´ êµ¬ëĤĺ
ê³ ¤ë
ê°Ģ ìķ¼
ê· Ħ
ìĥģ ëĭ´
ê°¤ ìĿĦ
ĠìķĪ íķĺë©´
ĠìŀĪ ìĹĪìĿĮ
ê±´ ì§Ģ
ìŀĪ ìĸ´ìĦľ
Ġê°Ļ ëĦ¤
ĠìĹ¬ ìºł
ì¡° ìķĦ
íĺķ ëĭĺ
Ġíķ´ ì£¼ìĦ¸ìļĶ
Ġë¯¸ ì¹ĺ
Ġë¹Ħ ìĭ¼
ê¼ ½
ê¼ Ī
ì¤ĺ ìķ¼
ëıĻ íĿ¬
ìłĢë ²Ī
Ġìĵ° ëĬĶëį°
ĠíĥĢ ê³ł
Ġë½ĳ ìķĦ
Ġìŀ¬ë°Į ê²Į
íĶĮë ¡ľ
ĠíĬ¸ ìĻĢìĿ´ìĬ¤
Ġíģ´ë ¦°
ìĭ± ê¸Ģë²Ļê¸Ģ
ĠëĤĺìĺ¨ ê±°
ìĹ¬ìŀĲ ê°Ģ
Ġë¬ ¶
ë¹Ħë ¹Ħ
Ġê·ĢìĹ¬ ìĽĢ
Ġì¹ĺë ©´
ê·ĢìĹ¬ ìļ´
Ġê°ĲìĤ¬ íķ©ëĭĪëĭ¤
0 5
Ġ u
ģ Ī
Ġì ·
ìĿĢ ê·¼
Ġìĺ ¨ëĿ¼ìĿ¸
ìĿ¸ ìĤ¬
íķĺë įĶëĭĪ
ìľ¼ë ¡ł
ħ¸ íĬ¸
ìłľ ëĬĶ
íĸ ĪëįĶëĭĪ
ëĦ¤ ì¢Ĩ
ĠìķĪ ìŀ¡
ìĹ¬ ìĭł
ëĮĢ ìŀ¥
ì» ¬ë
ĠìĤ¬ë ıĦ
ë³´ ìĿĢ
Ġíĸ ĪëĦ¤
ĠìķĦë ¹ł
ìĻĶ ìĿĮ
Ġëģ Įë
ì¤Ħ ê²Į
ìĤ´ ê¹Į
Ġëª¨ ìľ¼
Ġìº ¬ë£¨
Ġìķł ì´ĪìĹĲ
ĠëģĿ ê¹Įì§Ģ
ĠìĽĥ ê²¨
Ġë¦¬ ìĦ¸
Ġê¸Ģ ìĤŃ
Ġë³´ê³ł ê°Ģ
Ġìŀ¬ë°Į ìĸ´
Ġíķ¨ ê»ĺ
ê·ľ ìĸ´
Ġì¶ľ ìĹ°
Ġëĭ¬ë ł¤
ãħĮ ãħĮ
ĠíĶ¼ë ¶Ģ
Ġê½ ģ
ĠëĶĶìĭľ ì½ĺ
ĠìĬ¤ë°į ìĿ¸ì¦Ŀ
Ġë©ĺ íĥĪ
íĨµíķ© ëĭ¹
¿ Įë
Ġ &
ê¸° ìķĦ
íķĺë ĪĦ
ìŀĲ ì§Ģ
ì£¼ ìŀĳ
íĥĢ ì§Ģ
ìĤ¬ë ĥĲ
Ġíķľ ê¸Ģ
Ġìľł ëĭĽ
¨¸ ìŀĦ
ê³Ħ ìĿĺ
Ġíķ´ ì²´
Ġì¡° ìķĦ
Ġë¨¹ ìĹĪëĬĶëį°
ĠíĹ Ľ
ëıĻ ëĦ¤
ì´Ī ìĽĶ
ì¶ľ ê·¼
Ġìŀĳ íĴĪ
Ġìŀ¡ ê³ł
ĠêµŃ ë°¥
Ġê´ľì°® ìĿĢ
ì²´ë ¡ľ
Ġë²Ī íĺ¸
Ġë§¤ë ¬¼
Ħ¤ë ĵ¤
!!!!!!!! !!!!!!!!
ħĢë ĵ¤
Ġíķĺê³łìĭ¶ ëĭ¤
ìĨĮíĻĺ ìĤ¬
1 000
R O
T S
ı ĭ
Ġë ½Ģë
ì§Ģ ê°ģ
ëĭ¤ ëĭĪë
ìľ ½
Ķë ĥĲ
ìĬ¤ íĭ±
Ġìĭ ¼
Ġëĭ ´ëĭ¹
Ġê· Ģë
íķ´ ì§Ģ
Ġì° ĲëĶ°ë
ĠìĪ ı
ìĻĢ ì¤ĳìĹĲ
Ġë³´ ìŀĦ
ìĺ¤ë §Ī
íķ´ë ´¤ëĬĶëį°
ëĵ¤ ëıĦ
ĠìĥĿ íĻľ
Ġê³µ ìĿµ
Ġë³´ë Ħ¤
ĠìķĦë §Ī
íĴ Īë
Ġìĺ¤ë ¥ĺ
ì³ ĲëıĦ
ĠìķĦëĭĪë ħ¸
ì¿ ¼ë
ìĿ´ìķ¼ ê¸°
ë¯¼ ê·ľ
ìºĲë ¥´
¨ë¦¬ ìĽ¹
ĠíĮ¨ ì¹ĺë
ĠíĺĦ ì§Ī
ĠìłĦë Ŀ¼ëıĦ
ê¸°ë ¡Ŀ
ĠêµŃ ê°Ģ
ëĭ¬ë Ŀ¼
Ġì¼ ľë
íķĺëĤĺ ìļĶ
ëĸ ¨ìĸ´
§İ ìĿĢ
ĠëĪĪ ì¹ĺ
ì°© ë§¨
Ġì¢Ĩê°Ļ ëĭ¤
Ġëĭ¬ ìĦ±
Ġë¹Ħë ¹Ħ
Ġìĭ¹ ëĭ¤
¬ ìĺģ
Ħ ¬
íķĺ ìħĪ
ìľ ¨ë
Ķë ıĦ
ë§ ¨ëĤł
ĠìĿ´ íķ´ë
Ġëª ¹
ìĤ¬ ìĭľ
Ġê² ľë
êµ¬ ìļĶ
³´ ìħĪ
Ŀ¼ë ²¨
Ġë¹ ¤
ìĺ¤ë °Ķ
ëĭ¨ ê¸°
ìĹ° ê°¤
Ĳĺ ìĦľ
ĠìłĦ ìĤ¬
íĳ ¼
Ġê³ł ì¶Ķ
ìłĦë ¶ķìĿ´
ì¹´ë ĶĶ
ì§ĳ ìĹĲìĦľ
íİĺ ìĿ´ì§Ģ
íĮ¨ íĦ´
ìĸ¸ ìłľë
ãħĪ ãĦ·
ĠëıĻ ëĦ¤
ħãħħãħ ħãħħ
Ġíħ ľë
Ġì§ĳ ì°©
Ġê±°ë ĥĲ
Ġì»¤ íĶ¼
Ġëª¨ë¥´ ê²łëĭ¤
Ġìĭ¤ë ¬¼
ĠëĮĵ ê¸Ģë
ë§ŀ ì§Ģ
Ġìĸ´ëĸ¡ íķ¨
I F
¢ °
ëĬĶ ëĭ¤ê³ł
ìĿ´ ìģľ
êµ ¿
ĮĢ íļĮ
ì¤ į
ìĺ¤ íĶ¼ìħľ
ĠìķĪ ê²½
ê·¸ë §Ī
ĠëĮĢ ìĤ¬
íĸĪ ìĹĪëĬĶëį°
Ġìĸ´ ìºĦ
Ġë¬´ ìĹĩ
íķł ì§Ģ
ì£¼ë ¡ľ
Ġê³µ ë¬´ìĽĲ
ìĭľë ħĢ
ê¸ī ìĿĢ
Ġìĥģ ìŀĲ
³¸ ìĤ¬ëŀĮ
ìłĦë ıĦ
ê°ľë Ĥĺ
Ġêµ¬ ëĭ¨
Ġë§Ŀ íķľ
Ġë§Īë ¬´ë¦¬
ì¥ ¬ë
Ġê³łë Ķ©
ìĻ¸ êµŃ
Ġì£¼ë ³Ģ
ì°¨ë ¡ľ
Ġì« Ħ
ĠìĹĶ ìĶ¨
Ġë³Ħë ªħ
´£ ëĬĶëį°
Ġì¹´ìļ´ íĦ°
s e
êµ ¿ì¦Ī
Ġìĸ ĺë
ìĭľ ìĬ¤
Ġê°Ģ ë§Į
ĠíĮ ħ
ĠìŀĪ ìĸ´ëıĦ
ĠìŀĪ ìĹĪìľ¼ë©´
ìłĢ ê¸°
ìļ© ìľ¼ë¡ľ
ì´ ī
ë¹ Ļ
ë¹ ¨ë
íĶĦ ê°Ģ
Ġì£¼ ëĬĶê±°
Ġìĺģ íĺ¼
ìłĦë Ŀ¼ëıĦ
Ġìĭ¤ ìłģ
ì½Ķë ¡ľ
ìĺ¬ë ¦¼
Ġìĵ° ëĬĶê±°
¶Ģë ¡ľ
Ġë¡ľ ê·¸
ĠíĨłë ª©
ëĭ¤ìĿĮ ì£¼
ĠìķĦìĿ´ë ĶĶ
ĠìķĪëĲĺ ëĬĶëį°
Ġëħ¸ë¬´ íĺĦ
ĠìĥĪë¡ľ ìļ´
ìĺ¹ ìĿ´
Ġëĭī ëĦ¤ìŀĦ
ĠëĤľë ¦¬ë
ĠëĬĲëĤĢ ìłĲ
a y
ì ĳ
Ġë ¦°
ìĿ´ë Ŀ¼ë©´
Ġë§ ¹
ê¹Į ëĬĶ
ìĺ¤ íĶĪ
ìĤ¬ ì£¼
Ġ1 20
ì£¼ ìĸ¼
íĦ ±
Ġëĭ¤ ìļ´
ĠìĿ´ë ¦Ħë
ìĻĢ ê¾¸
ìĥĿ ê¸´
Ġì¹ °
íĬ¸ë ¥¼
Ġìŀĺ íķ¨
ì½Ķ ìĸ´
ë¹ Ĺ
ìĿ¼ë Ł¬ë
ìĿ¼ë ¦¬ì§Ģ
Ġëģ ¼ë
ĠëĤ¨ ìŀĲê°Ģ
Ġë°ķ ìłľ
íĻĶë ¥¼
Ġìĭ¶ ìĿĮ
Ġìķłëĵ¤ ìķĦ
Ġëľ °
Ġìľłë ¦¬
ĠìĿĺ ìĤ¬
íľ ¼
Ġíİ¸ ìĿĺìłĲ
ëħĦë §ĮìĹĲ
ìĿ´ëŁ° ê±°
ìĹ¬ìŀĲ ëĬĶ
Ġíĥľ ìĸ´ë
íĢ´ëĵ¤ ìķĦ
Ġ13 5
íĿ¬ë ¡±
ìŀĪëĤĺ ìļĶ
¥´íı¬ ìŀĲ
Ł ¼ë
ìķ ¤ë
ìĿ´ ì¶ĺíĸ¥
Ġìķ °ë
ê±° ëĭ¤
ìĬ¤ íĥ
ìķ¼ ìĿ´
íĬ ¬
ĠìķĦ ëĭ¤
ìĪĺ íķĻ
ìŀ¥ ëıĦ
Ġê°Ģ ì¹ĺ
ëĤĺ ìĿ´
ĠìĬ Īë
Ġëĭ¤ ìĿ´ìķĦ
Ġê± Ķ
íĥĢ ìŀĲ
ìļ° ìļ¸
Ġë³´ ìłķ
íĸĪ ê¸Ķ
íĺķ ìĿĢ
ì¦Ī ëĬĶ
íĶĦë Ħ¤
ķĮë §¤
ì§Ī ìĿ´
ì°½ ëħĦëĵ¤
ìĦŃ ìĿĢ
°Ľ ìĿĢ
íĤ¤ë ³´ëĵľ
ëĵ± ìĿ´
Ġê´ľì°® ìĿĢëį°
ĠìĬ¹ ë¥ł
Ġê±¸ë ¦°
ëĨ Ģ
ĠìĤ¬ìĭ¤ ìĥģ
Ġë¨¼ ê°Ģ
¹Ī ì¹ĺ
ĠìĤ¬ëŀĮëĵ¤ ìĿĢ
ìł¸ë Ŀ¼
ìĺ¨ë ĥĲ
Ġë°¥ ë¨¹
Ġê·ĢìĹ½ ëĭ¤
°ĺë ĸ¼
Ġê¹Ģë ¯¼
Ġê¾¸ ì¤Ģ
ĠìľłìĿ¼ íķľ
3 4
l c
l i
´ Ĭ
ë ´ĲëĿ¼
í ĩ
Ĥ ©
ëĭ «
ì§Ģ ìĪĺ
ìĦľ ìĭ¤
ìĦľ ì»¤
Ġë° ĳìĹĲ
ĮĢ ìĹĲ
íķľ ìĤ¬ëŀĮ
íĥ Ķ
ì° ¢
ìĺ¤ ìļ°
ìĪĺ ê¾¼
Ġê¸ ģ
ì¶ °ë
êµ¬ ëĭ¨
Ġìĸ´ë Ķ°
ŀĺ ê³¤
ĠìķĪë ħķ
Ġë³´ ìĨĮ
ìĦ¸ íĮħ
êµ¬ë ĵ¤
ì¡° ìŀĳ
³´ë ©´ìĦľ
Ġë¯¸ ëĭĪ
ĳĲ ê³ł
ĠëĤĺë ¨¸
ë¯¼ ì£¼
ë³´ë ĬĶëį°
¸Ķë ¦¿
Ġêµ¬ ìĨį
Ġë°° ê³ł
Ġëħ¸ íĬ¸ë¶ģ
ĠíĥĢ ìĿ´ë°į
ê» ı
Ġë³ĳìĭł ê°ĻìĿĢ
ë²Ħ ê·¸
ì¡Į ìľ¼ë©´
ìµľ ê³ł
íģ´ë ¡ľ
Ġíķĺì§Ģ ë§ĪëĿ¼
ĠìŀĺìĥĿ ê²¼
Ġë¯¿ ê³ł
ĠëıĦìĻĢ ì¤ĺ
Ġë¹Įë ĵľ
ĠíĶĦëłĪ ìŀĦ
ìĥ Īëĵ¤
łë ĵł
ĠìĹ Į
Ġì§ ¹
ìķ¼ ìĬ¤
íĮ ¬ëĵ¤
ìĤ¬ ìľĦ
ãħĭãħĭãħĭãħĭãħĭãħĭãħĭãħĭ ãħĭãħĭãħĭãħĭãħĭãħĭ
ì¦ Ļ
ì¦ Įë
ĠìķĪ ì¢ĭìĿĢ
Ġê·¸ë ¦¬ê³ł
ĠìĿ´ë Ķ°
ìķĦë ŀĳ
Ġìĺ¤ ì§ĢëĦ¤
ĠëĮĢ íĳľ
ìĦł ê¶Į
Ġë¯¸ íĨµëĭ¹
íķľíħĮ ëĬĶ
¥´ë ħ¸
Ġíĸ ĪëįĶëĭĪ
ãĦ´ ãĦ´
ê¹Ģ íĥľ
ìĹŃ ëĮĢ
ì¢ĭ ê²łëĭ¤
ìĸĳ ì¤ĢìĿ¼
ĠíĹ Į
Ġìŀ¥ ìłĲ
ê°¤ë Ł¼ëĵ¤
ìĵ° ëĬĶëį°
Ġëĺ¥ ê¼¬
ĠëıĪ ìĿ´
ĠìĻľìĿ´ë ŀĺ
¦´ë Ŀ¼
Ġë²Ħë ¦¬ê³ł
Ġë¬ ĺ
ë¬´ë £Į
ĠíĮ¬ íĭ°
Ġãħĭãħĭãħĭãħĭãħĭãħĭãħĭãħĭãħĭãħĭãħĭãħĭãħĭãħĭãħĭãħĭ ãħĭãħĭãħĭ
Ġê¸°ë¶Ħ ìĿ´
Ġëļ Ŀ
ĠëįĶë ¸Ķ
ìĽł ëĭ¤
Ġê·ĢìĹ½ ëĦ¤
¦Ħë ıĭ
Ġìĸ´ëķ ł
o ll
¥ ´ëĭ¤
Ġë »Ķ
ê° ł
ê°Ģ ìŀ¥
ìĸ ĺëĦ¤
ìĬ¤ íİĻ
ìŀĦ ìĺģìĽħ
ëĤ Ń
íķ´ ì§Ħ
ìĤ¬ ìĹĲ
ıĻ ìĿĺ
Ġ2 000
ì¤ĳ ëĶ©
Ġê°ľ ìĶ¨ë°ľ
Ġì¤ ¬
ĠëĮĢ ê¹¨ë
ì¹´ íĨ¡
êµ¬ë §¤
Ġíķľ íħĮ
°Ķ ìĿ´
Ġíķĺ ìľĦ
ì½Ķ íĨł
Ġë§İ ìĿĢê±°
¬´ë Ŀ¼
íĿ ¡
Ġë§Ī ìĿ´
ëĶ ´
ìłľë ıĦ
ĠëĤĺë ¬´
ì¢ĭ ìĿĢëį°
ĠìĺĪ ê³ł
Ġì¢ĭìķĦ ìļĶ
ëĺ Ĳë
ìŀĸ ìĿĮ
íĥĢë Ŀ¼
ìĮ Īë
ĠìĹ¬ë Ł¬
ìĦ¼ íĦ°
ĠíĻĶë ©´
Ġíķľë²Ī ìĹĲ
Ġê³¼ ê¸Ī
Ġ< -
Ġë²łë ¥´ë
9 7
¥ ľ
Ľ °ë
Ġë ¡±
ì§Ģ ëĭĪ
ì§Ģ ë§Ĳ
Ġìķ Īëģ
ĠìĿ´ ìĦ±
ìĭľ ìĬ¤íħľ
ìĿ¸ ìĭ¸
ĠëĤ Ń
ìļĶ íķľ
ì¦ ĪëĤĺ
ìĿ¸ë §Ī
ıĻ ìĿ´
ëĭĪë ĵ¤ìĿ´
ê²½ ìĽĲ
Ġìŀĺ ìĸ´ìļ¸ë
Ġë§Ī ìĬ¤íĦ°
ëį ¤ë
ìķĺ ëĭ¤ê³ł
íĽ Īëł¨
Ġë¨¹ ê³łìĭ¶ëĭ¤
Ġíĸ ¥
íķĺëĦ¤ ìļĶ
ìĻĶ ìľ¼ë©´
íĮ¨ ëĬĶ
Ġê²½ ê´´
Ġíķ´ë ´¤ëĬĶëį°
ìĿ´ëĵ¤ ìĿĢ
ë³´ë Ŀ¼
ĠëĿ¼ ìĬ¤
Ĥľ ê±°
ĠìĽĲë ³¸
íĬ¹ ì§ķ
,, ,,
íŀĪë ©´
Ġë¸ ¨
ĠëĬĲëĤĮ ìĿ´
Ġë£ °ë
ìĥĪë ´Ħ
ľ¨ë Ħ¤
ĠìĬ¤íĥĢ ìĿ¼
ìķĦëĭ Įëį°
Ġì· ¨ë
t r
į° ìĬ¤
ìľ ¤ë
ê¸° ìĸ´
Ġìĸ ĺëĦ¤
ê²Į ìĿ´ìķ¼
ì° Ĳë
ëĤ ®
ì¼ Ī
ì¤ĳ ê³ł
ĠìĨ ©
ĠìĤ¬ ìłĦ
êµŃ ìĪĺ
ìĹĨ ì°Ĳ
íķ´ë Ĩĵê³ł
ĠìŀĲ ê¸°ê°Ģ
íĤ¤ ê°Ģ
ĠìłĦ ê¸°
ìķ¼ë ĲĺëĤĺ
ê¹Ģ íĺ¸ì¤ĳ
ì¶© ê²©
ê²ľ ìĿ´
ì¿ Ħ
Ġì´ ī
ãħħãħ į
Ġìľłë ıħ
Ġë§¤ ìĪĺ
Ġì¦ ī
ì´Īë °ĺ
Ġì¿ łë
Ġíģ´ë ¡ľ
Ġëª¨ë¥´ ê²łëĬĶëį°
Ġëĭ¬ ëĭ¬
Ġìĸ¼ë§Ī ìŀĦ
ì¥¬ ì§Ģ
ìĸ¼ë §Ī
ì²ľë §Į
ĠëķĮë ł¤
ĠìĽĥê¸´ ê²Į
Ġê²¨ ìļ°
ëĵľë¦½ ëĭĪëĭ¤
ĠëĤĺëĪ Ķ
ìĿ¸íĦ°ë Ħ·
T X
§ ĪëĥĲ
Ġ Y
Ġë ĥĦ
ìĿ´ë įĶëĿ¼
ìľ µ
ê¸° ìĪł
ìĭľ íĹĺ
ĠìĤ ¼ë
ĠìķĦ ìĽĥ
Ġ1 18
ì¦ Ĳ
íĸ ĪëĤĺ
ìĦ± ëĬ¥
ĠìķĪ ìĹĲ
ĠìĹĨ ìĸ´ëıĦ
³´ ìĹ¬
Ġêµ ¿
Ġê°ľ ìĽĥ
ìĭĿ ìĿĢ
ë¦¬ ìĦ¸ê³Ħ
Ġë² ¨
ë§Ī ëĭ¤
ê¸ī ìľ¼ë¡ľ
ê°ķ ê°Ħ
ĠìłĦ íĺĢ
Ġë§ŀ ëĦ¤
ìĬ¹ ìļ°
ĠìĥĿê°ģ íĸĪëĬĶëį°
Ġíİ Į
íĨł íĥĪìĽĮ
Ġê²Į ìŀĦë
íķłë §Į
ëĤĺë ¬´
ë³´ë ¯¼ìĿ´
ëĭ¬ ìĹĲ
ĠìĦ¸ íĬ¸
Ġë§¤ ì¶ľ
ĠëıĦë §Ŀ
ëĺ¥ ì°¬
ìĹĩ ëĭ¤
ìĨĲ íĿ¥ë¯¼
Ġê´ľì°® ìĿĮ
Ġìĸ¼ë§Ī ìłķëıĦ
ë§ŀ ìĿĮ
Ġëĵ£ ëĬĶ
ì¤¬ ëĬĶëį°
ìļĶìĿ¼ ìĹĲ
Ġì°© ê°ģ
Ġê¸°ì¤Ģ ìĿ´
Ġì±Ļ ê²¨
Ġìī´ë ĵľ
¹ »
Ġ >
Ģ ¨
ì¹ ĺëıĦ
Ġìĺ ¥
ĠìĿ´ ì§¤
íķĺë ł¤ëĬĶëį°
ë³ Ħë
Ġê² ¨ë
ĠíĮ Ĳëĭ¤
ë§Į íģ¼
ê·¸ë ¡ľë
íİ ĺëıĦ
Ġê°ľ ê¼´ë
ê³µ ìĿµ
ĠìĶ »
ë³´ ìĥģ
ë³´ ìĦ±
ìľĦ ê°Ģ
íķł ê±°ìŀĦ
¯¸ë ĵ¤
ê°ķ ìĭłì²Ń
Ġì£¼ ìĽĮ
íĨµ íĶ¼
ëħĦ ìĿ´
ìłĦë ¬´
Ġë¬¸ ìĿĺ
Ġë¶Ģ ìłķ
Ġë¶Ģ íĦ°
´Ĳ ìĦľ
Ġê²½ ìĽĲë
ĠìķĮë ¦¼
Ġìį ¨ëıĦ
ĦĪ ìĬ¤
Ġì°į ìĿĢ
íĿ¬ ì°¬
ĠìĿ´ìĥģ íķ´
ëĵľë Ŀ¼
ê²Ł ëħ¸
ìĹ¬ë Ł¬ë¶Ħ
ëĭ¬ë Ł¬
ë°Ľ ê³ł
ë°± íĺ¸
ìļ¸ë ĮĢ
ê°Ħë §ĮìĹĲ
Ġëĳĺ ì¤ĳ
ħ¸ë ¸Ķ
ëĨ Ģë
Ġì»¤ë ¦¬
ë¸Į ìĿ´
ł¸ë ħ¸
ëķ ľìĹĲ
Ġëĺĳ ê°ĻìĿĢ
Ġìĸ¸ë ĥĲ
íĥ± ìĿ´
Ġìķłë¯¸ë Ĵ¤
Ġì±Ħë ĦĲ
² ³
³ Ħë¡ľ
ìĿ´ë ¹Ħ
ìĿ´ë ³´ëĭ¤
íķĺ ìķĦ
ìĬ¤ íĶ¼
ìĸ´ ìļ°
ì£ Ħë
Ġì¡ Į
êµ¬ ìķ¼
ĠìķĪ ìłķ
ĠìĪ «
ê·¸ë ŀĳ
Ġë³´ êµ¬
Ġ3 2
Ġëª» íķ´
ìĬ¤ë ¯¸
ìķĺ ì§Ģ
íķĺëĬĶê±° ì§Ģ
Ġãħħãħ ħãħħ
ëĤĺë Ŀ¼
ĠìĹ° ìĺĪìĿ¸
Ġìļ° ê²°
Ġê²° ìłľ
Ġíı¬ ì¹´
°Ľ ëĬĶëĭ¤
Ġê¹Ģ íĥľ
ìŀĩ ëĬĶ
Ġë©Ķ ê°Ī
Īë² ħ
Ł½ ê²Į
ł¸ ìĸ´
Ġìĭ« ëĭ¤
°Ķë Ģ
ë£ °ë
ĠìĪĺë ¹Ħë
Ġë´Ĳ ì¤ĺ
Ġê²Ģ ìĿĢ
Ġì´Īë ıĻ
Ġìķ¼ë ıĻ
ê½ ģ
Ġíŀĺëĵ¤ ìĸ´
ìķĦë³´ ìŀĲ
Ġíļ¨ ìľ¨
ìĬ¤ëŁ¬ ìļ´
ĠìĪĻ ìłľ
ĠëĪĮë Ł¬
m m
Į ķ
ìĿ´ ê²ĮìŀĦ
Ĥĺ ìĿ´
ìĹĲ ìĸ´ì»¨
ìĿĮ ìĿ´
ĠìĿ´ ìľłë
ìĭľ ìĽĲ
ĠìĻ ģ
íĻ ĪëŁ°
ìĪĺ ëĬ¥
ìłķ ì¹ĺ
ì£¼ ê¸°
ìŀ¥ íķ´
ĠëĤĺ ìĿĢ
ĠëĤĺ ìķĦ
ĠìķĪ íķ´ëıĦ
ìĭł ìĺģ
Ġëĭ¤ ëĭĪëĬĶ
Ġì¢ĭ ëĭ¤ê³ł
Ġìĭľ ìĦ¸
ĮĢë ¡ľë
ĠìĹ¬ ê³łìĥĿ
Ġìľł ìłĢë
Ġìľł ì¶ľ
Ġíķ´ ê²°
Ġë¹Ħ íĬ¸
Ġëĭ¤ë ħĢ
ì¤Ħ ê¹Į
ħĦ ìĿĢ
Ġë°Ľ ìķĦë
íķĺì§Ģ ë§Ĳê³ł
ìĿ´ëĿ¼ ëĭĪ
ë°° ê³ł
ëıĻ ìĽĲ
Ġëħ¸ ê°Ģëĭ¤
Ġëĭ¹ ì²¨
Ġê·¼ ìľ¡
ìĹĩ ìĿĮ
ĠíĦ° ì§Ħ
íĶ¼ë ¦¿
§İ ìĿĮ
ĠìĬ¹ ë¶Ģ
ĠëĤł ìķĦ
ìĹĺë ¦¬
íı¬ë łĪìĬ¤
Ġëł Į
ĠìĦ¤ ì¹ĺ
Ġê¹¨ ëĭ¬
ĠëĤĺìĺ¬ ê¹Į
Ĳł ê¹Į
ĠìŀĪë įĺëį°
Ġìłģëĭ¹ íŀĪ
Ġì´Īê¸° íĻĶ
íı¬ëłĪìĬ¤ íħĶëĿ¼
¬ µ
Ġì ©Ķ
Ġë ĵľëĬĶ
ìĦ ¼ë
Ĥĺ ìĺ¤ë©´
ĠìķĦ íĮĮíĬ¸
ĠëĤĺ ìĻĵ
ĠìķĪ ì¢ĭìķĦ
ĠìŀĪ ê¸Ķ
Ġìĺ¤ ì§Ģ
Ġìĺ¤ íĨł
íĻĶ ìŀ¥
ìĺģ ìĸ´
ë³´ ìĿĢìĻĶ
ìłĲ ìĪĺ
Ġë¬´ íķľ
Ġê³µ ê°Ĳ
ìĭľë °Ķ
ëĭ¹ íķĺëĬĶ
Ġì¡° ìłķ
ĠìĥĿê°ģ ëĤ¨
ê¼ ´ëį°
ë¯¸ ëĭĪ
ì½Ķë ĶĶ
²Ħë ¦¼
ĠìļĶ ì²Ń
ëª¨ ëĭĿ
Ġê²ĮìŀĦ ìĿ´
ìĩ Ħ
ĠìĿ´ìģ ĺëĦ¤
12 1
Ġìŀł ìĪĺ
ĠëĿ ł
ìķ¼ëĲĺ ëĬĶê±°
Ġê²½íĹĺ ì¹ĺ
Ĥ³ ëĮĢ
B T
ë ·°
Ī Įë
ĸ ´ë
ê³ł ìĸĳìĿ´
¤ë ³´
ìĬ¤ ëĭ¥
ìŀĲ ìĤ´
ìĤ¬ íį¼
§Į íķĺë©´
ê°¤ íĥŃ
ìłĦ ê¹Įì§Ģ
Ġëĭ¤ ìļ´ë
ł¤ ìļĶ
ĠìŀĪ ëĬĶê²Į
Ġì¢ĭ ê¸Ķ
ìľ¼ë¡ľ ëĬĶ
ìļ° íĦ°
ĵľë ¥¼
ì§ģ ìºł
ëĮĢ íļĮ
ê²½ ìĿ´
ìľĦ ìĭł
íķł ê²ĥ
ķĮë §Į
ĠìķĬ ìķĦ
Ġê²½ ìļ°
ìĿ´ëĵ¤ ìĿ´
Ġë°Ķ ê¿Ģ
ìĽĲë ĵ¤
ĠìłĢë ²Ī
ìŁ Ī
Ġê°Ĳ ìĦ±
íĮĮë °į
Ġëĺ¥ ì°¬ìĿ´
ê°ĵ ê¸°
ŀľë §Į
ì£½ ìĸ´
ë¶Ģë ª¨
Ġë¹Ħë °Ģ
ê¹Įë §Ĳ
Ġãħĭãħĭãħĭãħĭãħĭãħĭãħĭãħĭãħĭãħĭãħĭãħĭãħĭãħĭãħĭãħĭ ãħĭ
ëĵ Ģë
ĠT OP
íķĺëĭĪ ê¹Ĳ
ĠëĨĪëĵ¤ ìĿĢ
ìİ Ħ
Ġêº¼ ìł¸
Ġë£¨ë Ĥĺ
ĠO N
ìĹĺë¡¯ ìĹ°íķ©
µ ¸ë
ı ëĶ°
´ë ıĦ
ìĿ´ íĮħ
Ġìĸ ĺëĵ¤ìķĦ
íķľ íħĲ
ĠìĤ ¶
ìŀĲ ìŀĦ
ìĥģ ê´Ģ
ìłķ ë¶Ģ
ìłĦ ìĹĶ
ìĸ´ë ł¤
ë¶ Ħëĵ¤
Ġëª» íķĺê³ł
Ġì² Ļ
Ġì² łë
ê³µ ìĿ´
ĠìĿ¸ íĺķ
¥´ ê°Ģ
íķł êº¼
ĠìŀĲ ì§Ģ
Ġëħ Ĳ
íĮĲ ìĹĲ
¦¬ëĬĶ ê±´
ë¬´ ê³¼ê¸Ī
Ġ9 5
ĠíĪ¬ ìŀĲ
ĠìĽĲ íķĺëĬĶ
Ġì°į ìĸ´ë
ĠêµŃ ë¯¼
Ġìī ¬ë
ĠëĴ¤ ì§Ħ
ĠìĿ´ìģ ¨
ì© ¡
ìķ° ìĿ´
Ġíģ´ë Ł½
ëħĦë ıĻìķĪ
ì§± ê¹¨
ĠëĤĺìĻĶ ëĭ¤
ĠëĭĪ ì¥¬
Ġìŀĩ ìĿĮ
ľ¨ë ĥĲ
ĠëĭĪëĵ¤ ìĿ´
Ġë§ĪìĿĮ ìĹĲ
Ġë©Ģ íĭ°
Ġë¨ ¼ëį°
UMD i
ga in
Ġíĭ± íĨ¡
3 1
4 9
ë ¦´
ìĿ´ ìļĶ
ìĿ´ ì½Ķ
ìĬ¤ íĨłë
Ġë° ĶëĿ¼
Ġëĭ «
ìĭľ ìĥģìĭĿ
ìĿ¸ ì¹ĺ
Ġê· ł
íķ´ ì£¼ëĬĶ
ìĺ¤ íĽĦ
Ġê°Ģ ê³ł
ĠìķĪ ê°Ģ
ìĿ¸ë ĵ¤ìĿĢ
ìĹ¬ ê¸°ê°Ģ
íĦ° ì§Ĳ
ìĺ¤ë ¥¸
ì» ´ë°±
ëĭĺ ìĿĢ
ĮĢë ĥĲ
ĵ¯ ìĿ´
Ġë§Ī ê°Ĳ
Ġìĺ¤ë ŀĺë
ĠìķĮ ìķĦìĦľ
ĠìĹ° ì¶ľ
íģ¬ë ³´
¸Ķë ¦¬
Ĥ´ ê³ł
ê²Ģ ìĤ¬
ê±°ê°Ļ ê¸Ķ
Ġëį° ìĿ´íĦ°
Ġìĭ¸ ê²Į
§Įë ĵł
Ġì°¸ ê³ł
ĠëĪĦêµ¬ ìķ¼
ìĭ± íĦ´
18 0
ìķĹ ëĭ¤
ì²ľë ªħ
ìĨĶ ê¹Į
íĺĦë ĮĢ
Ġì»´ íĵ¨íĦ°
ĠìĿĮë °©
Ġìĸ´ëĶĶë ¡ľ
ĵľëŀĳ ìĿ´
ĠìķĦíĭ° ìĬ¤íĬ¸
I N
ë ĩĮ
ģ Ħ
ĳ ĳ
ì§ ¸ë
ê¸ ĭ
Ĥĺ ìĺ¤
Ŀ¼ ìļ´
ë§ µ
Ġë° ¸ëŁ°ìĬ¤
ìĭľ íĤ¨
ì£¼ íĻĺ
¹Ħ êµ°
ëıĦ ìĭľ
¶Ģ ê¸°
Ġê°Ģ ìĿĦ
íŀ ĪëĦ¤
ìĸ´ë ĵ¤
ë§Į ê°Ħ
Ġì¢ĭ ìĿĦê¹Į
Ġë³´ ìŀĲ
ëĮĢ ê¸°
ìĹĪ ê¸Ķ
ê²½ íĹĺ
íģ¬ ìĬ¤
ê¸ī ìĿ´
Ġê³ł ì³Ĳ
Ġì£¼ ìłĦ
Ġìłľ ê°Ģ
Ġíİ Ń
ì¹´ë ©ĶëĿ¼
ìĿĦë ķĲ
ë¯¸ ìķĪ
§Īë ıĦ
Ġê°¤ íĶĮ
Ġíķ´ë ³´
Ġë§Ŀ ìĥģ
ĠëıĻ ìķĪ
íĤ¹ ë¡¤
Ġë§¤ íģ¬ë¡ľ
Ġë¦¬ë ©Ķ
Ġê·¸ëŁ° ëį°
Ġì²ĺìĿĮ ìľ¼ë¡ľ
Ġëĭµ ë³Ģ
Ġê½ Ĥ
ĠíĮĶë ©´
íļĮë ¡ľ
ëĵ £
ĠíĽĦë °ĺ
Ġë¹łë ¥¸
Ġê°Ķ ëĬĶëį°
íķĦë ıħ
ìĭłê³¡ íĻįë³´
ĠíİĺìĿ´ ì»¤
0 7
S D
o t
Ġ in
į ©
Ł ´ë
Ġë ī´ë¹Ħëĵ¤
ëĬ ĺë
ì§Ģ ì½Ķ
íķĺ ìĦ±
íķĺ ìĹ¬
ìłķ íĺ¸
ìĿ¼ ê¸°
ìŀ¥ ëĤľ
ê°¤ ì§ĳ
ıĻ ëĦ¤
Ġëª» íķľ
Ġëª» íķĺëĦ¤
ìŀĲë Ŀ¼
ĠìĥĿ ì¡´
ì¢Ģ ìļĶ
êµ¬ë ¥¼
ì°¨ ê°Ģ
ì¦Ī ìķĦ
ìķł ê¸°
ìŀħ ìŀ¥
Ġìĺ¤ë ¹ł
Ġëª¨ë ¦Ħ
Ġë¬¸ íĪ¬
ĠìķĮ ìķĺëĭ¤
ëĿ¼ ìĿ´ë¸Į
ëĤĺë ´Ĳ
ëıĦë ¡ľ
Ġë³ĳ ìĽĲ
Ġê°¤ë Ł¬
ìĵ° ëĬĶê±°
ĠìĹĲ ìĸ´
ĠìĹ¬ë ıĻìĥĿ
ì§¤ë ĵľì»µ
ĠíĨł íĥĪìĽĮ
íĮ¡ ìĿ´
íĺĢ ìĦľ
ìĽ¨ ìĿ´ë¸Į
Ġì¸ ¡
0 6
¹ ¨ë¦¬
ľë ĵ¯
ìĿ´ë Ł´
¦¬ ëĭ¤
Ġíķ ¨ë
ìĿ¸ íĺķ
ê¹Į ê³ł
ìĥģ ëĮĢ
ìłľ ìŀĳ
ìĦ± ìļ°
íĨ ¨
§Ī ëĬĶ
ëĤĺ ì¤ĳìĹĲ
êµŃ ë¯¼
Ġìĭľ íĤ¤
Ġì¶ ľë°ľ
ëı Īë
ĠìĥĿ ê²¼ëĦ¤
íĬ¸ë ŀĳ
ìĭ¤ íĮ¨
ìĨĮë ¦¬ë
ĠìķĦë ĵ¤
ãħħãħ ħ
ìĽĲë §Īê°¤
Ġì¶Ķì²ľ ìłĲ
Ġëį° ë¦¬ê³ł
ë© Ģ
ĠíĦ °ë
ãħİ ãħĮãħĬ
ĠëĦĺ ê²Į
ìłķëıĦ ëĬĶ
ìĽĮë ĩ½
ëĤ´ìĿ¼ ìĿĢ
ĠíĥĪ ì£¼
ê°Īë ķĮ
ĠëĤ« ëĭ¤
Ġìĸ¸ìłľë Ĥĺìĺ´
Ġë³¼ë §Į
ĠìĥĢ ëĭ¤
ì½ľë Ŀ¼ë³´
Ġíĭ°ë ¹Ħ
Ġëī´ ì§¤
ãħĨ ãħĤ
íķ« ìĤ°
´ëĭ¬ë Ŀ¼ê³ł
ĠíĶĦë¦¬ë ·°
ëħ¸ë¬´ íĺĦ
° ëĭ¤
Ħë ²Ħê±°
ê±° ëĬĶ
ìķĦ ëĭ¤
ìķĦ íĬ¸
Ġìł łì§Ģ
ê¹ ľ
ëĭĪ ì¥¬
ì° ĲëĶ°ë
íĺ Ģë
ãħĭãħĭãħĭãħĭãħĭãħĭãħĭãħĭ ãħĭãħĭãħĭãħĭãħĭãħĭãħĭ
ìĿĦ ê±¸
Ġê°Ģ ì§Ģ
ëĤĺ ìĺ¤
Ġë³´ ìĦĿ
Ġì¹ ľë
Ġíķĺë Ŀ¼ê³ł
ìĤ¬ë ¥¼
ìŀĲë ¥¼
ìľĦ ëĬĶ
ìľĦ ìĹĲ
ì± łë
ìĪĺë ŀĳ
íį¼ ê°Ģ
Ġëª¨ ìķĦë
ĠëıĦ ìĭľ
Ġìĭ¶ ëĦ¤
ĠëģĿ ëĤ´
ãħĭãħĭãħĭãħĭãħĭãħĭãħĭãħĭãħĭãħĭãħĭãħĭãħĭãħĭãħĭãħĭ ãħĭãħĭãħĭãħĭãħĭãħĭãħĭ
ìĦ¸ë ¸Ĳ
ìĿ´ìĬ¤ íģ¬ë¦¼
Ġì¹ľ êµ¬ê°Ģ
Ġì§ĳ ìĹĲìĦľ
ĠìĽĲë Ķľ
ĠìĥĪëģ¼ëĵ¤ ìķĦ
ì¡Į ìĿĮ
ìĺµ ìħĺ
Ġë¬¸ìłľ ìŀĦ
ĠìĮ Ķ
Ġëª°ë Ŀ¼
ê¾¹ ì°ľ
ì¿łë Ŀ¼
íĥĪë ŀĢ
ìĤ¬ìĿ´ íį¼ì¦Ī
ĠëłĪìłĦë ĵľëĦ¤
íĹ¨ë į¸
p l
u n
ìĿ´ë Ķ°
íķĺ ìĭ¤ë¶Ħ
ĠìĿ´ ìĬ¹
ĠìĻ ĵ
íķ´ ì£¼ë©´
Ġê³ Ħë
ìłķ ë§Ĳ
ìłķ ë³ĳ
íģ ł
Ġëĭ¤ ìĿ´ìĸ´íĬ¸
ìĸ´ë ¦¬
ê°ģ ìĦ±
ĠìĬ¤ íħĮ
ìłĲ ìĹĲìĦľ
ë² ķìĿ´
Ġìĥģ ëĮĢë¡ľ
ìĽĮ ì¹ĺ
Ġíģ ¼
ëħĦ ìĿĢ
ĠìķĦë ŀĺ
ìĻĶ ìİĦë¦¬
íĥľ ê·¸
Ġë© ¤ë
ĠìķĦëĭĪë Ŀ¼ê³ł
íĮĲ ìĿ´
Ġìŀħ ëĭĪëĭ¤
íİĺ ìĿ¸
Ġë°Ķ ëĭ¤
ĠíĤ¤ ìļ¸
ĠíĶ¼ íĨµ
ãħĪ ãħĩ
Ġìľłë §Ŀ
ĠìłĦë ł¥
ĠíķĺëĤĺ ëĬĶ
ëŀ ľ
ê²Ł ìĿĮ
§Įë ´ĲëıĦ
ê±°ë ŀĳ
ĠìĦłë ıĻ
ë°Ľ ëĬĶ
ìĦ¼ ì§ķ
íħĮë Ŀ¼
ìĭŃ ìĩ¼
Ġíģ¬ë ¦¬
Ġì¢ħ ëª©
ĠêµĲ ìľ¡
ĠíķĦìļĶ íķľ
ë¬´ë ĮĢ
## ##
ĠíĥĪë Ŀ½
Ġë¯¸ì¹ľë ĨĪ
ì¡¸ ìĹħ
Ġê·¸ëŀĺ íĶ½
ì· ¨ë
Ġìº¡ ì³Ĳ
ìĨ¬ ìĤ¬
RO CK
R oll
d f
ģ Į
Ĥĺ ìĻĢ
ìĿ´ë ĵĿ
ìĥ Į
ìĬ¤ íĮħ
ìĭľ ì¼ľë
ĠìĻ ¼
ĠìĻ Ķë
íķ´ ìłľ
ì£¼ ìŀĲ
ŀĳ ìĿ´
ĠëĤĺ ìĻĢëıĦ
ê°Ļ ì§Ģ
Ġê°Ģ ëĥĲ
ìĦ± ìłģ
ìĿ¸ë ĶĶ
ĠìĹĨ ìķł
ĠëĦ ĵ
Ġìłķ ê·ľ
Ġìĭľ ê³Ħ
ĠìĬ¤ íģ¬ë
£¨ ëĬĶ
ĠìĹ¬ ìłĦ
ê¸Ģ ìĦŃ
íķł ìĪĺë¡Ŀ
íĬ¸ë Ħĺ
¡ľë ¡ľ
íģ¬ ëĬĶ
ìķĺ ê¸Ķ
ê²ĥ ê°Ļëĭ¤
Ġì£¼ ìłľ
íĪ¬ íĳľë
Ġìĸ´ëĶĶ ìĹĲ
ĠíĤ¤ ìļ°ëĬĶ
Ġìĭ¶ ìľ¼ë©´
ìłĢë ²ĪìĹĲ
ì¶ľ ìĭł
ê¶Į ìĿĢ
Ġê°Ĳ ìłķ
íĿ¬ ìŀ¬
Ġë§Įëĵ¤ ë©´
Ġì§ĳ ì¤ĳ
ł¸ ìĿĮ
íķ´ìķ¼ ê²łëĭ¤
ìį¨ ìĦľ
ì© į
íĭ°ë ¸Į
ë¬¼ ê³ł
Ġë²Ī íĬ¸
Ġë§¤ë ıĦ
Ġê·¸ë§Į íķ´
ëĳ ¡
Ġë°ĶëĢ ľ
ĠìĹ¼ ìĥī
ĠìĹ¼ íĢ´
Ġìĸ´ëł¤ ìļ´
Ġëĸ´ë ĬĶëį°
ëĥ¥ ìĿ´
ĠíĪ¬ë ł¥
ĢëĿ¼ íķľ
ĠëĪĦêµ° ëį°
ĠëĤļ ìĭľ
ing Roll
ìĸĳì¤ĢìĿ¼ ê°¤
ROCK ingRoll
0 9
2 11
¸ Įë¦¬
Ħ ¼
ľ ¯
ìĿĢ íķĺ
íķľ ìłķ
ĠìĤ ¿
ìľ¼ë ł¤ëĤĺ
íĬ¸ ìľĦíĦ°
ì£¼ ëĬĶëį°
ìłĦ íĪ¬
ìĽĲ ìĪľ
ìĸ´ë ª½ìĸ´ìĬ¤
³´ ìĿĢìĻĶ
ĵľë Ĥĺ
ìķĪ ê²½
êµŃ ê°Ģ
ìĺģ ìłĦ
ì£¼ë ħĦë
ì°¨ íĬ¸
ìļ© ìłľ
ì¢Ĩ ìĬ¨
Ġë¨¹ ìĸ´
ìĪĺë ©´
ê·¼ íĺľ
ĠìķĬ ìĿĢ
Ġê°¤ ìĿ´
ëĤ¨ ìĿĢ
ìºĲë ¡ľ
Ġë§Īë łµëĭ¤
Ġíı¬ íķ¨
ë© ¸
ĠíĺĦ ìĹŃ
Ġíıī íĥĢ
ìŁ ¤
ìłł ì§Ģ
íĻį ìĿ´
ë£ ¸
ĠìĿ¸ë ³Ħ
ìĪĻ ìĿ´
ĠìĨį ìĦ±
ê¾¸ë Ŀ¼
ĠìĶ¨ë°ľë ł¨
Ġì°© íķľ
Ġë¶Ħë Łī
Ġëī´ ìĬ¤
ë® ĮíĹ¨
6 6
G IF
¬ ëĭ¤
ê°Ģ ì¡±
ì§Ģ íĺĦ
ìķĦ íĮĮ
ëĭĪ ì§Ģ
íķľ íĻĶ
ìĭľ íĤ¤ë
ìĿĺ ìĥģ
Ġê± ·
ł¤ ëĭĪ
ìĽĲ ìłķ
ĠìĿ´ë Ł¼
Ġìłķ ìļ°ëŀĮ
Ġìłķ ì£¼íĸī
ìº ¬
íĻĶ ì§Ī
Ġíĺ ¹
ìĺģ ìĤ¼
ì¹´ ì¹´ìĺ¤
íĹ ī
ĠìŀĲ ìĦ¸
ìĬ¤ë §Īê°¤
ì¢Ĩ ëª©
ĠìĿ´ê±° ì§Ģ
Ġì¤ĳ ìĿ¸ëį°
íĶĦë ¦¬ë
Ġìłľ ìĻ¸
ìĪĺë ł¨
ĠëĤ¨ ìķĺëĭ¤
ìį ¸
Ġìĸ´ëĶĶ ìŀĦ
ĠìĺĪ ì¸¡
ìĿ´ëĿ¼ ëĬĶê²Į
ìĸ¸ ëĭĪëĵ¤
ĠíĻķ ì§ĦìŀĲ
ãħĪ ãĦ±
Ġë²Ħ íĭ°
Ġë¶Ģë ıĻìĤ°
ë© į
Ġëĭ¨ ì²´
ìķłë ¹Ħ
ëĵľë ¦¼
íĶĮë Ł¬ìĬ¤
ë²Ħ íį¼
Ġê°Ħ ì§Ģ
ĠìĦľë ¸Į
ì§Īë ĵ¯
ëī´ë¹Ħ ìĿ¸ëį°
ãħĤ ãĦ¹
@@ @
ìĦłë ¬¼
ĠíĮĶ ê³ł
ì§Ħë ıĦ
Ġê¼¬ë Ŀ¼ì§Ģ
ê°¤ì£¼ ëĭĺ
Ħ¤ë ıĦ
Ġëļ ľë
ê³¼ë ª©
ì³¤ ëĭ¤
Ġì§Ģê¸Īë ıĦ
ĠíĬ¸ëłĪ ìĿ´ëĵľë
ĠìĹ¼ë ³´ë
ìķĦëĭĮ ê°Ģ
ë¹ĦíĬ¸ë įĺ
ë Ł½
ë ī´ë¹Ħëĵ¤
Ġì ¯
ìķ Įë¦¬
ê¸° ê³Ħ
¡ľ ìĽĮ
Ġìł ¤ë
ìķ¼ íķ´
ìĤ¬ ì§Ģ
ì§Ħ ìļ±
ĠìķĪ ìłĦ
Ġì° Įë
Ġì¢ĭ ëįĶëĿ¼
ê°ģ ê°ľ
êµŃ ìĸ´
Ġìĸ´ ì°Į
ì¡° ìĥĪ
ĠíĬ ķ
íĿ ł
ìŀ¬ ìĽĲ
ë©´ ìłĳ
ĠìķĦë °ĶíĥĢ
½ĳ ê¸°
Ġê¸°ë ¶Ģ
ĠëłĪ ìķĮ
ìķĪë ı¼
ì¹ĺë §Ī
ĠìĦł ì°©
Ġë°° ëĭ¹
ì»¤ ìĹ¬
Ġë¨¸ ìķ¼
Ġëĵľë Ł¬ë
Ġë§Į ìĽĲ
Ġê°¤ë ŁŃìĭľ
Ġì£½ ìĹ¬ë
ë²Ħ ëĭĿ
ĠëĴ¤ ì§Ģ
ĠíĦ° ì§Ĳ
ĠìĿĺ ìĭ¬
ãħĤ ãħħ
ì§ľë ¡ľ
ëĪĦ êµ¬
Ġë¦¬ë ·°
ĠìķĦìĿ´ íĶ¼
ĠíĥĪ íĩ´
Ġë¶Īë §Į
ĠëĨĢë Ł¬
Ġìĸĺ ëĬĶ
Ġëĭ® ìĿĢ
ĠëĤľë ¦¬
Ġëª»ìĥĿ ê¸´
ìķłë¯¸ë Ĵ¤ì§Ħ
Ġì§ľì¦Ŀ ëĤĺ
ĠìĹīëį ©ìĿ´
s a
© Ģ
ª ¹
¹ łëĵ¤
¬ë £¨ë
Ĥĺ ê²Į
Ħ¤ ìļĶ
¡ľ ê±´
Ġë§ ĲëıĦ
ë° ´
ë° Ķëį°
§Į íĻĶ
ìĭł ìĪĺ
ĠíĮ ¡
Ġê·¸ë Ł¬ë
ĠìĿ´ë ¶Ħ
ĠìŀĪ ê³ł
ë§Į ìĹĲ
ëª °
ìĻĢ ìĿ´
ìĥĿ ì¶ķ
ìŀĪ ìĹĪëĬĶëį°
Ġì¤ Įë
ĠìĬ¤ íĮĢ
ĠìĤ¬ë ĥĲ
Ġíķľ íĻĶ
Ġíķľ ëĭ¬ë
Ġì¢Ĩ ëĤĺ
íĬ¸ë ¡¯
íĤ¤ ìļ°
Ġìľł íĪ¬ë
Ġëħ ¼ë
°© ë²ķ
Ĳĺ ëĬĶëį°
íķľë ²Īë
ìĵ ´ëĭ¤
¥´ë ĬĶëį°
ê·¼ ìŀ¥
Ġëªĩ ìĭľê°Ħ
ĠëŃĲë ¶ĢíĦ°
íİĺ ìĬ¤
Ġê°ľë ´ī
???? ???
ĠãĦ·ãĦ· ãĦ·ãĦ·ãĦ·
ìłĢë ŀĳ
Ġë²Ħ ìłĦ
ĠëıĻ ìĭľìĹĲ
ĠëĿ¼ ìĿ´íĶĦì¹ĺíŀĪ
Ġì°į ê³ł
ëª¨ ìŀĲ
ìĹ´ ìĿ´
ĠìĨĲ íĿ¥ë¯¼
ĠìĻĶ ìĬµëĭĪëĭ¤
íıŃ ìĽĲ
ìĽĮë ĩ¨
13 5
Ġê±¸ë Ł¬
ìĺĢë įĺ
ĠìķĦëĭĮ ì§Ģ
Ġë°ľë §¤
ĠìĹ´ë ĵ±
ìĭ« ëĭ¤
ëĭ¨ë ıħ
Ġëľ¨ ëĬĶ
Ġìİ Ī
ê°Ģì¶ķ ëĵ¤
Ġê¸°ëĮĢë Ĳľëĭ¤
== ==
ì»´ë ĶĶ
ë ľ¬
ìķĦ íĶĦë¦¬ì¹´
¦¬ ëĬĶê²Į
ê¸° ëħĲ
ë§ ł
ê²Į ìļĶ
ĠìĿ´ ì§Ģ
íĬ ľ
ë° ĳ
ìŀĲ ì£¼
ĠìĻ łì§Ģ
ĠìķĦ ì¤Įë§Ī
ìĦ± ìĿĦ
Ġì¢ĭ ìķĦë³´
ĠìķĪë Ĳľ
Ġëª» ì°¸
ê³µ íĺģì¤Ģ
ìŀĲë ĵ¤ìĿĢ
Ġìĸ´ ìĽĮì¦Ī
ê°Ģë ¥¼
Ġê³µ ë¶Ģë
ëĭ¨ ìĿ´
ì½Ķ ì½Ķ
ëħ¸ íĬ¸ë¶ģ
ìķĦëĭĪ ìĭľë°ľ
Ġíģ Ĳ
ĠëĤ¨ ìķĦ
íķľê±° ìķ¼
ì¤ĺ ìĦľ
ìĺĪ ìĥģ
Ġìĭ¤ ìłľë¡ľ
ê²Ģ ìĿĢ
Ġë²Ħ íį¼
Ġë§Īë ł¤
ĠíĬ¸ë ¦¬
Ġë¨¸ë ĳĲë§ģ
Ġì°į ìĸ´
Ġìŀ¬ë°Į ëĬĶëį°
Ġë¯¸ë §Į
§ŀ ì¶Ķ
ĠìĻĶ ìĸ´ìļĶ
ĠëıĮë ¦¬ëĬĶ
Ġì°¾ ìķĺëĭ¤
ìĭŃ ëĭĪê¹Į
ĠìķĦìĿ´ íħľ
ì³Ĳë ¨¹
Ġì²ĺë Ł¼
Ġíĺķ ëĭĺëĵ¤
ĠìĽĢ ì§ģ
ìķĦë¬´ë ıĦ
ë º
ë ŀĮ
Ĭ ¥
Ġì ĳ
Ġìŀ ĦëĮĢ
ìĦľ ê´Ģ
ìĬ¤ íĦ´
ĠìĹ Ħë
íĶ Īëį°
¬´ ìĦľ
ĠëĤĺ ìĦľ
ĠíĮ Ģë
ìĸ´ë ¦°
íĭ Ī
ê·¸ë łĩê²Į
Ŀ¼ë ŀĳ
íŀĪ íŀĪ
Ġ3 9
Ġì¶ ľë
Ĥĺë ¹Ħ
Ġíĺ ģ
°Ķ ìĹĲ
ĠìĹ¬ ìĭł
ĠìĪĺ ê¸ī
Ġê³µ íĨµ
Ġê±° ìķ¼
Ġíİ ¸ë
Ġë© ľ
ìĤ´ ìĿ´
ĠëŃĲë ¡ľ
ì¹ĺë ¥¼
ì¥ Ĳë
ìĹ´ ìĩł
ìļ°ë¦¬ ì§ĳ
Ġì»¤ íĶĮ
ë£ ¬
Ġê±¸ë ¦¼
Ġìĭłë °ľ
ĠëĦ£ ìĸ´
íı¬ë ıĦ
ĠìĮ Ī
ìĺ· ìŀ¥
ê·¸ëŁ¬ ê³ł
ĳ¥ ìĿ´
ì¡´ë ²Ħ
Ġë¬´ìĦľ ìļ´
ĠëŀŃ íĤ¹
íİĺìĿ´ ì»¤
ĠìŃ Ī
ĠíĺĪ ê·Ģ
Ġãħī ãħī
° §
ë ĥĲë
ı ¼ë
Ĳ łëĵ¯
ļ Ŀ
Ġì ¾
ê¸ ·
ê¸ ´ëį°
ìĦľ ìĸĳ
ëĭĪ ìĬ¤
ìĪ ı
ìķ¼ íķľëĭ¤
ĠìķĦ ìŀ¬
ĠìĦ ¬
¶Ģ ê°Ģ
ĠìĻľ ìŀĲê¾¸
ê³µ ìĭĿ
ìĹĨ ëĭ¤ê³ł
ìłģ ìĿĺ
ìłģ íĻĶ
ìłĢ ê²©
ĮĢë ıĦ
©Ķ ê°Ģ
Ġíķĺ ìĬ¤
ĠìĥĿê°ģ ëĤĺ
Ġë§Ĳ íĪ¬
ë¶Ħ ê°Ħ
Ġë© ¸
ĠìķĮ ìķĦë³´ìŀĲ
Ĥ¨ ìŀĲ
Ġìĭ¤ ìĪĺ
ĠìĤ´ ê¸°
Ġë§Īë łµëĦ¤
ë© ľë
ĠìĨĮë ¦Ħëıĭ
ìĮ Ķ
Ġëĭ¨ ìŀ¥
Ġë§Įëĵ¤ ê³ł
°Ķë ŀĮ
ĠìĹħ ìłģ
ìĹĩ ëĦ¤
íĸĩ ëĦ¤
Ġíĭ° ìķĦê³ł
Ġëŀ ľ
Ġë¬ µ
ĠëĿ¼ë ĶĶìĺ¤
ìĭľê°Ħë ıĻìķĪ
ĠíĹ¤ë ĵľ
íĶĦëłĪ ìŀĦ
Ġìĸ´ì©Į ê³ł
ĠìķĪëĵ¤ ìĸ´ê°Ģ
ĺë§Ī íĨµ
ê¹Įë§Ĳ ê¹Į
) (
Ķ ¸ë
ëĭ ´ëĭ¹
ìĿ´ ìĬ¹
ê¸° ë³¸
ìĿ¸ ìĽĲ
ëĤ ļ
ĠìķĦ ìĭľëĬĶë¶Ħ
íķ´ ì¤Ģ
ìĪĺ ì¹¸
íĬ¸ ìĹĲ
ì£¼ ìĿ¸ê³µ
ìĿĺ ì§Ģ
Ġê·¸ë ķĮ
ìķĦë ħ¸
ê°ľ ì¶Ķ
Ġì§Ģ ì½Ķ
Ġê¹ ľë
ĠìĬ¤ ìľĦ
Ĥĺë ¦¬ìĺ¤
ë³´ ê²¸
ĮĢë Ħ¤
ì£¼ë ŀĳ
íĺ¸ ëĬĶ
Ł¬ë ıĦ
ìļ© íĻĺ
ĠìłĦ ìļ©
Ġë¹Ħ íķĺ
Ġê³ł ê¸°
Ġê³ł ìĥĿ
íı¬ ìĬ¤
ìķ¼ë ĲĺëĬĶ
Ġë§Ĳ ìķĦ
ì³ £
Ġë© Ģë
ìłľë ª©
ì¹´ë į°
ĠíĹ Īë¦¬
³´ëĭ¤ ëĬĶ
Ġì± Įë¦°ì§Ģ
ìĺ¬ ê¹Į
Ġìķ¼ ê°¤
ìķħ ëª½
Ġíı¬ ì§Ģìħĺ
ìĵ° ê¸°
Ġë¦¬ ìĬ¤íĬ¸
ë°Ķ ì§Ģ
íĿ¬ ëĬĶ
ìĵ°ë Ħ¤
Ġëħ¸ëŀĺ ëĬĶ
ëĿ¼ë Ŀ¼ëĿ¼ë
ĠìĤ´ë §Į
Ġë¹¡ ìĦ¸
ĠìķĦëĭĮ ê±°
ëĲ ł
ë¿¡ íŀĽ
Ġìķŀ ìĹĲìĦľ
ëĦĪë Ħ¨
ìĽĶë Łī
ëĲľ ê±°
ëļ ±
ĠìĬ¤íĬ¸ë łĪ
Ġê°Ģë ¥´
ĠìĻķ ëĶ°
ìĥĪëģ¼ë ıĦ
Ġëĭ¨ë ıħ
ĠìĤ´ìķĦë Ĥ¨
ĠìĿ¸ë°© ê°¤
ĠíļĮë ³µ
3 8
O N
o s
ë ¥´ë
ľ ©
ŀ ¬ë
ŀ Ĳëĭ¤
ëĬĶ ê²ĥëıĦ
ìŀ ĥ
íķĺ ìŀĲë§ĪìŀĲ
ĮĢ ê²°
ìĭľ ì²Ń
ìĿ¸ ê±°ìŀĦ
Ġëª ½
ìĤ¬ íķŃ
ì£¼ ìĿ¸
Ġê² ¹
Ġê² °ë
ĠìŀĪ ìĬµëĭĪëĭ¤
íĭ ¸ë
ĠìĨ ¬
ĠìķĪë ľ¨
ìŀĪ ê³ł
ê°ľ ìĶ¨ë°ľ
ìĤ¬ë ¬´
ìŀĲë ĵ¤ìĿ´
ĠìĿ¸ ìĭ¸ë
ĮĢë ©´
íĶ¼ ìĸ¸
íĮĮ ê°Ģ
Ġê³µ ë°©
íĿ °
ê³Ħ íĺĦ
Ġë§Ī ê°¤
Ġëĸ ¼
Ġì¤ĳ ìĹĲìĦľ
Ġê³ł ìĿ¸ë¬¼
íı¬ ìĪĺ
Ġë¨¹ ìĹĪëĭ¤
ĠìķĦë ¬´ëĤĺ
íķĻ êµĲë
ªħ ìĿ´
ì¹´ë ĥĲ
§Īë ¦¬
ĠìĹ° ê²°
ĠíķĺëĬĶ ê±´
ħĢ ê°Ģ
ª» íķ¨
Ġìķł ê°Ģ
Ġëį° ìĿ´íĬ¸
Ġêµ¬ë ¶Ħ
ĠìľĦ ì¹ĺ
ĠìķĪëĤĺ ìĺ¤ëĥĲ
ĠíĦ° ì§Ī
Ġíĭ° ìħĶì¸ł
ĠëĪĪ íĮħ
Ġë¦¬ë ²ĦíĴĢ
Ġìŀł ìĿ´
Ġëĭ¤ìĿĮ ì£¼
ìļĶë ¦¬
Ġë¯¸ì³ £
íĺľ ìĦ±
ëĭ¤ëĭĪ ëĬĶ
ê·ł ìĹ´
ĠìĿ¸ê¸° ë§İ
ĠëĪĪë ¬¼ë
ĠíĥĪë ª¨
Ġëĭ¨ë ĶĶ
ĠëĶľë Ł¬
ĠìĺĽëĤł ìĹĲ
ĠëĵĢ ìĺ¤
Ġìĩ¼ë £¸
íĩ ĺ
a s
ëĭ¤ íģ¬
ìĦľ ê°Ģ
ìķ¼ íķĺëĥĲ
ĠìķĦ ëĬĶëį°
ìĪĺ ìŀĩ
ĠìĦ ŀ
ê°¤ ìĿĺ
ĠìķĪ ìĺ¬ëĿ¼
ìĿ¸ë ĮĢ
Ġìľ Ļ
ĠìĹĨ ìĿĦ
ĠëĦ Į
Ġì¹ ¸
ê°ľ ìĽĶë
Ġ3 000
Ġëª» ë³´
ê²ł ëĭ¤ê³ł
ìŀĲë §Į
Ġìĸ´ íĶĮ
ìłĢ ê²Į
ë³´ ìĨĮ
íķł ìĿ¸
ĠìŀĲ ìĹ°
Ġìĵ ´ëĭ¤
Ġë´ £
ĠìłĦ ëĭ´
ĠìłĦ ìĦ±ê¸°
íı¬ ìĹł
Ġì¶Ķ ìĸµ
ë¶Ģ ìºĲ
ì³ ¤ëĦ¤
Ġãħħãħ į
ìĤ´ ìķĦ
ìĤ´ ê¸°
ĠëĤĺë ¥¼
ĠíĽ Ķ
Ġê°ľë ħ¸
Ġê°ķ ëĤ¨
ëĭ¬ ê³ł
Ġ8 00
ìĹĶ ìĶ¨
Ġê¸Ģ ìĿ´
´¤ ìĸ´
Ġë¬´ë ¦İ
íĢ´ë ĵ¤ìĿĢ
íĹĺ ìĥĿ
ëħ¸ë ŀĺë
Ġë´Ĳ ìķ¼ì§Ģ
Ġê°ĵ ê¸°
Ġ- >
ĠíķĻ ìĽĲ
íĽĪ ìĿ´
ìĸ´ëĤĺ ìĦľ
Ġë´ī íĢ´
Ġ17 0
ĨĪëĵ¤ ìķĦ
Ġa i
Ġì« Į
Ġíľ´ ê°Ģ
Ġê·¸ëłĩ ê³ł
ĠìłĪë °ĺ
ìĬ¤íĨł ìĸ´
ëĿ¼ëĿ¼ëĿ¼ë Ŀ¼ëĿ¼
1 50
¥ µ
ë ±Ģ
Ġ gif
ķ ¡
ĸ Ħ
ëĬĶ ëĵ¯
ĠìĿ į
ìĿ´ë įĺ
ìĿĢ ì§Ģ
ê¸° ëĥĲ
ĠìĿ´ ê²ĥëıĦ
ìĤ¬ íļĮ
ìĪĺ ìłĢë
ì£¼ ìĦ¸
Ġê°Ģ ëĬĶê²Į
êµ¬ ê°Ħ
ĠìĿ´ë Ł¬ë©´
ìĶ ¨ëĵ¤
ĠìĤ¬ ëĬĶê±°
ëħ ¼
Ġë³´ ìĿĢìĻĶìĸ´ìļĶ
ìĺ¤ë ¦Ħ
ìķĪ ìĿ´
ìĦ¸ ìĿ´
Ġì¤ «
Ĥĺë ĥĲ
ì¡° ìļ©
Ġë§İ ëĭ¤
ìķĦëĭĪ ê·¼ëį°
Ġëĵ¤ ìľ¼ë©´
Ġìłľ íķľ
Ġìĺ¬ë ¦´
Ġìĺ¬ë ¦¬ê³ł
Ġë§Ĳ ê¹Į
Ġë§Ĳ ìĿĦ
Ġê²Į ìĿ´ìķ¼
ĠíĨ ¡
ë¯¸ ì¹ľë
íķłë ŀĺ
ë°° ìĪĺ
Ġì¢ĭìķĦ ìĦľ
ê¶Į ìĿ´
Ġëĳ ĺë
ì²ĺë ¦¬
ĠíĬ¹ ìĿ´
ĠíĺĦ íĻ©
Ġê·Ģ ìĭł
Ł½ ëĦ¤
Ġë¬´ë Ĥľ
Ġë½ĳ ìĿĦ
Ġë³ĳìĭł ìŀĦ
ĠëĤĺìĺ¤ ì§Ģ
Ġì§ĳ íļĮ
ĠìĿ´ë²Ī ì£¼
Ġì¹´ë įĺ
Ġë°± ìĹħ
ĠëĪĪ ìĿ´
ê°Ķ ëĭ¤ê°Ģ
ĠìĿĮ íķ´
ĠêµĲ ì²´
ì§ĵ ë§Ĳ
ìļĶë ¯¸
ìĪĺìŀĪ ìĿĦê¹Į
ëķ ĥ
ë§Ĳë ³µ
Ġì¤ĳìļĶ íķľ
Ġì¤Ģ ëĭ¤
ë¬¼ë ĥĲ
ëĮĵ ê¸Ģ
ë¿ Į
ê°ķëĭ¤ëĭĪìĹĺ ê°¤
Ġì°¬ë ĺĲ
ĠëĦ¥ ìĬ¨
ëĿ¼ë¹Ħëįĺ ìĬ¤ë§Īê°¤
gain ìĭłê³¡íĻįë³´
i g
k e
¯ Ħ
ë ĪĪëĤĺ
ë ī´ë¹Ħë
ģ ãħĩãħĪ
ł ´
ëĭ Ĳ
ì¹ ¸ë
ìķ¼ íķĺëĬĶëį°
íķĺë £¨ë
ìĤ¬ ëĭĺ
ìĿ¼ ìĦŃ
íķĺëĬĶ ì¤ĳ
ì§Ħ íĺģ
Ġê² Ģë
ì½ ¥
ìĸ´ë ĬĲ
ĠìĪ ľë
ê·¸ë Ĥĺ
Ġìłķ ë¶Ģ
ìķĦë ²Ħë
ìº łë
Ġìĺ¤ íĽĦ
Ġ3 3
ĠëŃĲ ìŀĪìĿĮ
ìĹĪ ìĬµëĭĪëĭ¤
íĮĮ ìĬ¤íĥĢ
ĠìĪĺ ê°Ģ
ĠìŀĲ ê²©
Ġë°© íĥĦ
ìĿ¼ë ²ł
Ġëĸ ¨ë
Ġì¤ĳ ëıħ
íĶĦ ëĬĶ
Ġê³ł ìĪĺ
íĺĦ ì¤Ģ
ĠìĥĿê°ģ íķĺëĥĲ
Ġíİ łë
ĠíĿ Ķ
ìĽĶ ê¸ī
ìĸ¸ ê¸ī
ê²° ìłķ
ê±°ê°Ļ ëĦ¤
ë¥ łë¡ľ
ĠëĤ´ë ĬĶ
ĠíķĺëĤĺ ìĶ©
ĠìĨĮë °©
Ġìłģ ìĿĳ
Ġìĺ¬ëĿ¼ ìĺ¨
ë£¨ ìĭľ
Ġëĭ¤ë¥¸ ê±°
ê°Ķ ìĸ´
Ġëŀ ¨
Ġíģ¬ ê¸°
ëĶ° íļ¨ëĭĪ
Ġëī´ë¹Ħ ìĿ¸ëį°
ĠíĥĢë ł¹
ĠëĲł ê¹Į
22 3
ëĶĶë łīíĦ°
¤ëıĦ ìĺģ
Ġëĭ¨ëĶĶ ìĻĶìİĦë¦¬
¦ ħ
ë ¡±
Ĩ Ģë
Ġë Ł¬ë
ìĿ´ ê¹Ģ
ê³ł ìĨĮ
ê¸° ëĬĶê±°
ĠìĹ Ķë
íķĺë ĵľ
ì¢ Įë
ìĤ¬ íĤ¤
ìĿ¼ ìĭľ
ĠìĦ ¹ìĭľ
ìłĦ íĻĶ
Ġê°Ģ ê¹Į
ĠíĮ ¬ëĵ¤
íŀ ĪëĤĺ
ìĸ´ë ķĮ
ìĹ¬ ìºĲ
Ġìłķ ì§Ģë
Ġë¶ Īë²ķ
Ġíķĺë Ŀ½
êµŃ ì§Ģ
Ġìĭľ ì¼ľë
ìĨĮ ìĹĲìĦľ
ĠìŀĲ ìłĦê±°
íģ¬ ê°Ģ
ì¦Ī ê°Ģ
ë¦¬ ìĦ¸
ê°ĻìĿĢ ê±´
Ġíķ´ ìķ¼ëĲ¨
Ġì¤ĳ ë§Ŀíĺ¸
Ġê³ł íıīê°Ģ
íı¬ ì¼ĵëª¬
ìļ°ë ıĦ
íĺĦ ì§ģ
Ġíĸ Ħ
ëħĦ ê°Ħ
ìĦ¤ ìłķ
ìºĲ ìĭľ
ìĿ´ëĦ¤ ìļĶ
ª¨ ìĿĮ
Ġãħĩ ãħħãħĩ
ëĿ¼ íķĮ
ì¹´ë įĺ
ìķĪë ĲĺëĬĶ
ĠìĹ° ìŀ¬
ìį ¬ë
ë§Īë ²ķ
ìĽĶ ìĿ´
Ġìĸ¼ë §ĪëĥĲ
ìĽĲë §Į
ıĦë ¦¬
ìľłë ¯¸
ìŀĩ ëĬĶëį°
íĿ¬ ìĻķ
ĠãĦ± ãĦ±ãĦ±
ê¸Īë ¯¼ì²ł
ĠëĦ¤ ì¢Ĩ
ĠíĮĢ ìĿ´
Ġãħĭãħĭãħĭãħĭãħĭãħĭãħĭãħĭãħĭãħĭãħĭãħĭãħĭãħĭãħĭãħĭ ãħĭãħĭ
ìĦ¤ë ªħ
ì²« ë°©ì¶ķíķĺ
Ġë¹ĦìĬ Īë
ë¸ Įë¦¬
Ġë³Ħ ê±°
ê±°ë¦¬ ëĬĶ
Ġë´Ĭ ëıĮ
ĠëĬ¥ ì§Ģ
ĠíĶĦë¦¬ ì½ĶëĦ¤
Ġê²¨ ìļ¸
íĤ¤ìĽĢ íŀĪìĸ´ë¡ľ
ĠìĹŃê²¨ ìļ´
ìĿ´ì°¬ ìĽĲë§Īê°¤
Ġíĩ´ë ¬¼
4 6
M E
k t
o d
¼ Ī
ı Ķ
Ġì ĮĢë¨¹
ëĭ Ĳë
ìĿ´ë ²Į
ìķĦ ãħĭãħĭ
ìķĦ ì¹ĺ
ìķĦ ìĶ¨
ìŀĲ ìĪĺ
ìĺ¤ ê°Ģ
Ġ1 10
¦¬ë ´ĲëıĦ
§Ī ì¼ĵ
ĠìĹĨ ìľ¼ëĭĪê¹Į
ìľł íĤ¤
³´ ê°Ģ
Ġë³´ ê³łìĭ¶ìĸ´
¥¼ ê¹Į
êµ¬ë ŀĳ
ê²½ ëħĢ
Ġê³µ ì£¼
¡ľë §Ī
Ġíķ´ ì£¼ëĿ¼
ìĨĮë ħĦ
ì§Ī ìĿĢ
íĴ ĭ
Ĳĺë ĤĺìļĶ
Ġê·¸ ìĥĪëģ¼
ìĦĿ ìĿĢ
ĠëĤĺë ĮĢ
íĪ¬ ìĬ¤
ëŃ ĺ
ëĭ¬ ìķĦ
ë°ķ ì§Ħìĺģ
°ķ ê³ł
Ġë§Įë Ĥľ
Ġëĵ¤ìĸ´ ìĻĢ
ĠíĪ¬ êµ¬
ĠìĽĲ ìłķ
ìķĮ ê³ł
ì§ĢìķĬ ìķĺëĥĲ
ì²ł êµ¬ê°Ģ
ìĦ¸ë Ŀ¼íķĮ
Ġêµ¬ë ¦°
ĠëĶ± íŀĪ
ê¸Īë §Ī
ĠíĻĶ ê°Ģ
Ġê³¼ íķĻ
Ġë´¤ ëĭ¤
ëĤ´ë ĬĶ
ìĬ¤íĬ¸ë ¡ľ
ëĲ Ĳëĭ¤
ĠìĹĲë °
ĠìĿ¼ëŁ¬ ìĬ¤íĬ¸
ì³Ĳë §ŀ
Ġë´ī ì¤Ģ
Ġìī¬ ìļ´
ì°Ĳ íĬ¹
ì·¨ ê¸ī
ĠìĿ´ê¸° ë©´
Ġì¹ĺë ªħ
Ġì§Ħìĭ¬ ìľ¼ë¡ľ
ãħ¡ãħ¡ãħ¡ãħ¡ãħ¡ãħ¡ãħ¡ãħ¡ ãħ¡ãħ¡
ĵ£ ëħ¸
Ġãħį ãħį
íĶĦëĿ¼ ìĿ¸
ì½ĶìĬ¤ íĶ¼
ĠìľłíĬľë ¸Įë
ww ww
ìķĦì¹¨ ìĹĲ
ĠíĬĢ ìĸ´ëĤĺ
Ġê¹Ķë ģĶ
Ġëª¨ë¥´ê²ł ê³ł
ìĽ° ì»´
0 1
Ĭ Ĳë
ìĬ ´ë
ĵ¤ ê³ł
ê¸° ê¸°
Ġê° ł
ìĭľ ê³Ħ
ìĪĺ íİĺì½Ķ
ĠëĤĺ ìģ
Ġëĭ¤ ëĭĪë
ĠìĿ´ë ¯¼
íĥĢ ì¿ł
ìļ° ìĦ±
íĦ° ì§Ħ
Ġíķĺë įĺëį°
ĠìĬ¤ ìĥ·
íĸĪ ìŀĸìķĦ
Ġê°Ļ ìķĦìĦľ
Ġíķĺ ìĿ´ë
Ġíķĺ ëĬĺ
ĠìĪĺ ê³ł
ìĭ¤ ìĹĲìĦľ
ìĿ¼ë §Į
ìķ¼ë Ĳľëĭ¤
íķĻ ê³¼
ì¢ĭ ëĥĲ
íİĺ ê·¸ìĺ¤
Ġê²½ ìĽĲ
ìĭľê°Ħ ìĿ´
ì»¤ ìĹ½
Ġë§Ŀ íķ¨
ĠíĮĮ ìĽĮ
°° ìļ°
Ġëĵ¤ìĸ´ ê°Ģë©´
ìĥī ìĿ´
ĠìĽĥ ìĿĮë
ĠìºĲë ¦¬
íĥĪ ì¶ľ
ìĶ¹ ìĬ´
ĠìĻĶ ì°¬ëĺĲ
ê°ĢëĬ¥ íķ¨
ãħĤ ãĦ·
Ġì¢ĭìĿĢ ëĵ¯
íĭ°ë Ĥĺ
Ġíĭ° ëĭĪìķĦ
íĴį ê¸°
Ġê¸Ī ìļĶìĿ¼
ĠëĦ£ ìľ¼ë©´
Ġíģ´ë Ŀ¼
Ġìĸ¼ë§Ī ìĹĲ
Ġëķ Ģ
ĠìĶ¨ë°ľë ł¨ëĵ¤ìķĦ
Ġìķŀ ìĹĲ
ê³Ħë ŀĢ
Ġìłķìĥģ ìĿ´ëĥĲ
ĠíĮ¨ë ĵľë¦½
ìľ¼ë¡ľë §Į
Ġë³´ëĭĪ ê¹Ĳ
ìĥĿê°ģíķ´ë ³´ëĭĪê¹Į
ĠëĲĲ ëĬĶëį°
ĠìĭłìĿ¸ ìĥģ
Ġë¯¸ì³¤ ëĭ¤
Ĩ¨ ëĬĶëį°
ĠìłķíĻķ íŀĪ
ĠìłĬ ìĿĢ
o w
¸ íĮ¨
ë Ŀ¼ëıĦ
ļ ľë
Ġë ·°
Ġë ·Ķ
ìł ¬
ìĭ ´
ì§Ģ ìĺ¥
ëĭ¤ ìĿ´ìĸ´íĬ¸
ĠìĿ´ ê±¸ë¡ľ
ìĿ¸ ì²ľ
ìĿ¸ ìĿ´ìľł
ë° Ģë¦¬
íķĺë ©´ë
ĠëĤĺ ìĿĺ
§Ī ìĬ¤íĦ°
ĠìĹĨ ê¸Ķ
ìĹ¬ ê³łëĶ©
ìļ° ìĺģ
Ġë³´ ìĿ¸ëĭ¤
Ġê°ľ ìŀĺ
ìħ ¨ë
ê²ł ì§Ģë§Į
ĠëĮĢ êµ¬
ĠëĮĢ íĺķ
ìĨĮ ëĬĶ
íķł ê±´ëį°
íĬ¸ë ¡¤
ë² ¨ë
ìĭľë ĤĺìļĶ
ìĭ¬ íķľ
ê°ĻìĿĢ ê²Į
ìķĦëĭĪ ìĶ¨ë°ľ
ìļ°ë Ħ¤
Ġë§Ĳ ìĿ´ë
ê¹Ģ ìĹĲ
ì¹´ë Ŀ½
íĮĲ ìĿĢ
ê´Ģ ìĻķ
Ġê°ľë ¯¸
Ġê°ķ ìĿĺ
ìĽĢ ì§¤
Ġ8 8
ĠíĶ¼ ì§Ģì»¬
ãħĪ ãĦ¹
ĠíĺĦ ê¸Ī
Ġëĵ Ģë
ĠìĹ¬ìŀĲ ëĬĶ
êº¼ ìŀĦ
ë°Ķë ¥´
Ġíĺ¸ êµ¬
¶Ī íĺ¸
Ġì³Ĳë ¨¹
Ġíį ½
íķĺê³łìĭ¶ ìĸ´
Ġì²ĺë ħĢ
ì¯¤ ìĹĲ
ĠíŀĪ ìĸ´ë¡ľ
ì¢ĭìķĦ íķĺëĬĶ
ĠëĤłë Ŀ¼
Ġê¹Ģë ´īì¤Ģ
Ķ¸ ìĿ´
ĲĲ ëĬĶëį°
Ġê·¸ëłĩ ì§Ģ
Ġëĭ¤íĸī ìĿ´ëĭ¤
Ġê¸Īë °©
Ġë§ŀëĬĶ ëĵ¯
ĠëĪĦêµ° ì§Ģ
Ġë¹¼ë ©´
ĠìĬ¤íĨłë ¦¬ë
7 7
¤ ëĬĶëį°
Ġ q
Ĳ Į
ìĿ´ ìĦ±
ìĿ´ë ²Ħë
ìĿ´ë ıĮ
ê±° ê¸Ķ
ê¸° ì§Ģ
Ŀ¼ ëĭĪ
ìĺ¤ ìŀĲ
ìĪĺ ê´ĳ
ì£¼ íĥĿ
ì§Ħ ìķĬ
ìłĦ ìĹĲìĦľ
Ġì° Ĳë
íĥĢ ìĿ´
³´ ìĿ´
íİ ł
ìķĦë °ĺëĸ¼
Ġìĺ¤ íĨłë
Ġê°ľ ìĥĪëģ¼
Ġëª» íķĺëĥĲ
ìłģ ìĿĢ
ê°Ģë ¦¬ë
íĹ Ŀ
Ġíķĺ ìĿ´
íĬ¸ë §Į
ĠìĪĺ íİĺì½Ķ
ì¤Ģ ìĹ´
íĭ° ìłĢ
¯¸ë Ĥĺ
ãĦ± ãħĩ
Ġíķ´ ê²°ë
Ġë°© ìĹŃ
Ġì» ¨ë
ê²ĥ ìĿ´
Ġìĺ¬ë ¦¬ë
ëħĦ ìķĦ
ĠíĤ ¬ë
Ġìĺ¤ë Ĥĺ
íķ© ë°©
ĠëĤ¨ ìĿĮ
ê·¼ íĻ©
ĠëĤĺë ³´ëĭ¤
ìķĪë ĲĺëĥĲ
ìĭłë ıĦ
Ġë§Įë łĻ
íĸ¥ ìĿ´
íİ¸ ìŀĦ
ì½ĺ ìĦľíĬ¸
ë°Ķ ëĭ¤
ĠìĿ´ìĥģ íĻĶ
Ġìĭľìŀĳ íķľ
ĠìĿ´ë²Ī ìĹĶ
íĢ´ ì¦Ī
ìĻĶë ĮĢíĺ¸
ìĹ¼ íĢ´
Ġì¢ħ ê²°
ìķĦìķĦ ìķĦ
íķĺê³łìĭ¶ ìĿĢëį°
Ġíĺķ ëĵ¤
Ġìĺ¬íķ´ ìĿĺ
ĠìĽĶë ĵľ
ìĬ¤íħ Ģ
@@@@ @@@@
Ġë¬´ìĦľ ìĽĮ
e d
¸ Ŀ
ë ¿Ĳ
ĩ Įë
ìĿ´ íķľíħĮ
ê³ ½
ê³ł ë¡ľ
Ħë Ħ¤
ìĿ´ë °ľ
ìľ Į
ê¸° ëĮĢ
ĠìĿ´ ê¸°ëĬĶ
Ġê°Ģ ëĬĶëį°
ì§ľ ì¦Ŀ
ë§Į ê°¤
³´ ìĬ¤
²Ī íĺ¸
Ġìłķ ì²´
ìĺ¤ë ¥´
ìĦ¸ ê°Ģ
ëĮĢ ê¹¨ë
ĠìĬ¤ íĤµ
Ġíķĺ íĬ¸
íĭ° ê°Ģ
ĠëĤ´ ìķ¼
ìĿ¼ë §ĮìĹĲ
ìķĦëĭĪ ìķ¼
íĨµ ìĿ´
ĠìķĦë ¥´
Ġíİ «
ĠìķĮ ìķĺìĿĮ
ìį ¨ëıĦ
ìĿĢê±° ëĥĲ
ì§Ģë ¥´
ë³µ ì»¤
Ġë§Įë Ĥĺë©´
Ġ7 00
Ġë©Ķ íĥĢ
Ġëľ ¯
ê» į
ĠìĹĲ íĶ¼
§ŀ ì§Ģ
Ġëĵ łëĵł
Ġê²ĮìŀĦ ìĿĢ
Ĥ´ë ©´
ł¸ ìľ¼ë©´
ĠíĨµ íĶ¼
Ġìĭłë łĪ
ë°ĺ ì§Ģ
ĠìĻľìĿ´ë Ł¬ëĥĲ
ĠìĿ¸ë į°
ê·¼ë ¡ľ
ë§ŀ ëĥĲ
Ġë³´ëĬĶ ê±°
Ġìĸ¼êµ´ ìĿ´
ŃĲ ìķ¼
ĠìķĪëĲĺ ëĬĶê±°
Ġãħĭãħĭãħĭãħĭãħĭãħĭãħĭãħĭãħĭãħĭãħĭãħĭãħĭãħĭãħĭãħĭ ãħĭãħĭãħĭãħĭãħĭãħĭ
Ġì¡´ëĤĺë §İ
Ġt s
ĠëĤĺìĺ¬ë ķĮ
Ġë²Ķ ì£Ħ
Ġë¬´ìĦŃ ëĭ¤
Ġìĭ± ê¸Ģë²Ļê¸Ģ
ĠìķĦìī½ ëĦ¤
ĠìħĢ ì¹´
____ ____
Ġíķľë§Īë ĶĶ
Ġíĵ ¨
? (
i p
½ ìĦŃ
ë ´ĲëıĦ
ħ ķìĿ´
Ŀ µ
Ġë ŀĢ
ê° ľë°ľ
ìĿĢ ìĥģ
ìĦľ ëĬĶ
ìĤ ¶
ê¹ į
ê¹ İ
ì£¼ ëĬĶê²Į
ìĿĦ ê±°ê°ĻìĿĢëį°
ìĿĺ ìĭĿ
ì§Ħ íĻĶ
ĠëĤĺ ê°Ģë©´
ìĿ¸ë ¬¼ëĵ¤
Ġëĭ¤ ìĿ´
ì¹ĺ ëĬĶëį°
²Ħ íĶĦ
ìº ī
ìĺ¤ë Ŀ¼
Ġíķĺë ł¤ê³ł
Ġê¹ ¼ëĭ¤
ĠìĬ¤ ì°Į
Ġì¶ ĺ
ìłģ ìŀĦ
ĠëĮĢ ìĦł
°Ķ íİĺ
ìĨĮ ìĭĿ
ì¡° êµŃ
Ġíķĺ íĸ¥
Ġê³µ íĬ¸
Ġê¸° ìĸ´
ë² Ĺ
Ġê´ ´
ì¢Ĩ ëĳĲ
ë¹ ¼
ëį ©
ìĨĮë ¯¸
ìķ¼ë ĮĢ
ê¼ ´ë¦¬
ì¶© ìĿ¸ëį°
Ġìĺģ ìĽĲ
ì¶Ķ ëĬĶ
Ġê²Į ìĭľíĮĲ
Ġìĭľë°ľ ìķĦ
ë¹Ħ ìĬĪë
Ġë°Ľ ìķĺëĬĶëį°
ê°ľë ¹Ħ
ì¹ĺë ħ¸
ì»¤ íĶ¼
íĮĮë Ŀ¼
ĠíķĦ ê¸°
ë°ľ íĳľ
¬¼ë ¡ľ
ª© ë¡Ŀ
ìĽħ ìĿ´
ĠìĹ¬ë Ł¬ë
ĠìĹ¬ë Ł¬ë¶Ħ
ëıĮ ìķĦ
ĠëĤł ìĿ´
ìĻĶë ħ¸
Ġëª¨ë¥´ ê³ł
ì²´ë ¥¼
Ġíķľë²Ī ìĶ©
ê¿Ģ ìŀ¼
ìĬ¤íĬ¸ë ¦¬ë
Ġë¸ Įë¦¬
łī ìĬ¤
ìĤ¬ëŀĳ íķ´
íĽĦë °ĺ
ĠL I
ëļ ľë
ĠìĬ¤íĬ¸ë łĪìĬ¤
Ġíŀĺë ĵľëĦ¤
Ġìħ Ķ
Ġê¸°ìĤ¬ ìĤ¬ì§Ħ
Ġê±´ë ĵľë
Ġìĸ´ëĸ¡ íķĺëĥĲ
ĠìŀĳëħĦ ìĹĲ
ĵłë į°
ĠìľłìĿ¼ íķĺê²Į
ë¿ Įë
Ġë§ŀì¶Ķ ê¸°
Ġìª ¼
ëª¨ë¦¬ ì¦Ī
a m
h e
· ëıĻ
ë Ĳľëĭ¤
ë ¦´ë¦¬
Ġë ķĮë§Īëĭ¤
Ġë ½Ģ
ãħ Ķ
ãħ Ĺãħľãħĳ
ìĿ´ ìŀ¬ëªħ
íķĺ ìĿ´ë
ìķĦ ì¹´
Ĳë Ĥĺ
ĠìĿ´ ìŀ¬ëªħ
ìĺ¤ ëĭĪ
ìļĶ ì¦
ìĥģ ìłĲ
ìłľ ì£¼ëıĦ
ĠëĤĺ íĥĢë
Ġê°Ģ ìĪĺ
ìĦ± ìľ¼ë¡ľ
ëĤĺ ìĿĺ
ĠìĿ´ë Ł¬ëĥĲ
Ġì§Ħ ì§Ģ
íĥĢ ê¸°
Ġì§Ģ íķĺì²ł
êµŃ ìĹĲ
ê³µ ëŀµ
íĸĪ ìĿĦëķĮ
ĠìĹ¬ ê°¤ëŁ¬
íĶ¼ ê²¨
ì¡° ê°Ģ
íĺ¸ íĻĺ
ëł ī
ìĭ¬ ìĿ´
Ġ5 000
ìĨį ëį±
ìĨĮë °©
Ġë¹Ħ íķ´
Ġë§ŀ ëĤĺ
íķľë ¥ĺ
ê³¼ íķĻ
ì¹ľ ê±°
ĠíĤ ¬
ª¨ ìĬ¤
Ġë¬¸ ìĥģ
ĠìķĮ ì§Ģ
íĨłë ¥´
ĠìĿ¼ë ³¸ë
ê´Ģ ìĿ´
ĠëĲĺ ê³ł
Ġë°Ķ ìĿ´
Ġìĭ¤ ìłľ
ê¿ Ķ
ì»¤ ìĬ¤
Ġë²Ħ íĶĦë
ìĺ¬ë ķĮ
°Ľ ìľ¼ë©´
Īë² Įë
íĮĢ ìĹĲ
ĠìºĲë ¥´
ê» Ģëį°
Ġãħł ãħłãħłãħłãħł
ê°ĵ ê²ľ
Ġìĭ« ìĿĮ
ĠëĴ¤ ì§ĳ
íĢ´ë ĬĶ
Ġë¹ł ì§Ħ
Ġì²ł ìĹ¼
Ġìłľë ¡ľ
Ġíģ´ë ŀĺ
Ġíģ´ë ¦Ń
Ġëª°ë ł¤
ĠíĶĮë ŀĺ
ħĦëĵ¤ ìĿ´
Ġíį ¼ë
ìĸ¼ë §ĪëĤĺ
Ġíģ° ìĿ¼ë
Ġìĵ¸ë §Įíķ¨
Ġë²ł ìĬ¤íĬ¸
Ġëª¸ ìĿ´
ĠíĶĦë¡ľ íķĦ
Ġë¹łë ¥´ê²Į
ê²¹ ìĤ´
Ġìĸ´ëł¤ ìĽĮ
ìķłë¯¸ë ĵ¤
ëĤ´ëħĦ ìĹĲ
Ġìĥ¤ ìĽĮ
ê´ľ ì°®
íİłë ¦ŃìĬ¤
¸ëĵľ íı°
! (
/ /
T E
¹ Ħëĵ¤
Ġ Q
ê° ĲëıĦ
ì§ ķìĿ´
ìĭ ¯
ì§Ģ ëĬ¥
Ĥĺ ìĺ¤ëĦ¤
¤ë įĶëĭĪ
ìĬ¤ íĭ´
íĮ ¸
íĮ ½
ĠìķĦ ìĿ´ìľł
íĻ ľëıĻ
Ġìĥ ¤ë
ìĪĺ ì§Ģ
ìŀ¥ ìľ¼ë¡ľ
Ġê°Ģ ì§Ħ
íħ Ķë
ìĿ¸ë ĵ¤ìĿ´
ĠìĻľ ìķĪ
ĶĶ ê°Ģ
ì§ľ íĶ¼
ìĸ´ë ¨¹
ĠìĿ´ë łĩê²Įë
ì¤ĳ ìļĶ
Ŀ¼ë ©°
ĠìĽ °
Ġëª» ëĤĺ
ìĹĨ ëĬĶê²Į
°Ķ ì§Ģ
ìłĢ ê°Ģ
Ġê¸° ì¡´
Ġìŀĺ íķľëĭ¤
Ġë³´ë ĬĶë
¬´ë ĬĶ
ìŀ¬ íķĻ
ìķł ëĬĶ
³¸ ìłģ
íķľë ĨĪ
Ġì¡° ê°ģ
ê³¼ ê±°
ê²ĥ ê°ĻìķĦ
Ġìłľ ìĿ¼ë
ĠìĥĿê°ģ ëĤľ
Ġìĺ¤ë ĥĲ
ëĦ ´
Ġëªĩ íį¼
ĠíĹ ·
Ġì§Ģê¸Ī ìĿĢ
ëĤ¨ ìŀĲëĬĶ
³´ëĭ¤ ê°Ģ
20 19
ĠíĤ¤ ìĬ¤
§Ŀ êµ¬
Ġì¢ĭìķĦ íķ´
ĠíĶ¼ ê·ľìĸ´
Ġëį ¤ë
ìĬ¤íĥĢ ìĿ¼
Ġëĭ¹ ì²¨ë
ì°į ìĿĮ
ĠëĦĺ ìĸ´ê°Ģ
ĠìĿ´ìĥģ íķ¨
Ġìĭ« ìĿĢ
ĠìĦłë °ľë
ĠíĦ° ì§Ģ
ëĸ łë
ĠìķĦìĿ´ íĮ¨ëĵľ
ĠëĦĪ íĶĦë
¦´ë ĵ¯
Ġëĭ¬ ê³ł
ĠëĲľ ê±°
ĠìĶ¨ë°ľë ħĦ
Ġë°ĺë °ķ
Ġìĵ¸ë į°
ĠìĤ¬ëĿ¼ ì§Ĳ
ãħİãħİ ãħİãħİ
ĠìĹ¬ìŀĲë ŀĳ
ĠëłĪë ĵľ
ĠíĪ¬íĳľìĿ¸ì¦Ŀ ìĻĶ
ëĴ· ê´ĳê³ł
Ġë©° ì¹ł
² Ĺ
Ĥ Ń
ĳ ĺë
ļ ľ
Ń Ķëį°
ìŀ Īëįĺ
ìĿ´ë »Ĳ
ĮĢ ê¸°
ìķ¼ ìķ¼
ìķ¼ íķĺëĬĶ
Ġëĭ Į
ìĥģ ìĬ¹
ìŀ¥ ìĿĦ
ì§Ħ ìĿĢ
íĤ ·
Ġê·¸ë ł¤ë
ĠìĤ¬ ìłľ
ĵľë §Į
ê°ģ ìĿ¸
ĠìĬ¤ ìŀĳ
ĠëĮĢ íĻĶ
ìŀĲë ıĻ
ìłĢ íŀĪ
ìĨĮ ê°Ģ
ê°Ģë ´Ħ
ê°Ģë ©´ìĦľ
íĮĮ ìĽĮ
Ġê³µ ìĹ°
ê¸´ íķĺëĭ¤
Ġ5 5
íı¬ íĦ°
ìļ´ ìĺģ
Ġì» µ
ì²´ ê²°
íĢ ¸ë
ì°½ ëª¨
ì°½ ëħĢ
ãħĬ ãħĬ
Ġê·¸ ê±´
Ġíİ ľ
Ġê²Į ìĬ¤íĬ¸
ëıĦë ¦¬
ìį »
ĠãħĪ ê°ĻëĦ¤
ê°ľë ħĲê¸Ģ
ĠíĤ¤ ìļ°ë
Ġì§Īë łĢ
ĠìĦł ìĪĺë
ê¿ į
Ġìķł ìłķ
Ġìĵ° ëĬĶê²Į
ĠìķĦëĭĪ ìĹĪëĥĲ
ìľłë Ł½
Ġìľłë Ł½
ĠêµŃ ìĸ´
Ĥ´ë ł¤
íĻķ ìĭ¤
ëĺ¥ íĢ´ëĵ¤
Ġíķłë §Įíķ¨
Ġê´ľì°® ìķĦ
Ġê´ĳ ë³µìłĪ
ĠíĻĶ ì§Ī
Ġê±´ ê°ķ
íĭ± íĨ¡
Ġê¶ģê¸Ī íķľ
Ġê·¸ëŁ° ì§Ģ
Ġìĭľê°Ħ ìĹĲ
ĠìĿĳ ìĽĲë
íĢĺ ìĬ¤íĬ¸
ĠíĮ¨ë ĦĲ
Ġìĸ¸ë įĶ
êµ´ë ¹Ħ
Ġëĸ´ë Ħ¤
ĪëĤĺë ´Ĳ
Ġë¶Ģíĥģ ëĵľë¦½ëĭĪëĭ¤
ĠëĶĶë łīíĦ°
ëĶ°ë Ŀ¼
Ġëľ¬ ê¸Ī
Ġìĸ´ëĶĶë ĥĲ
Ġìłķì¹ĺ ì§Ī
Ġìĺ¤ëĬĺë ¶ĢíĦ°
ë¸ĶëŀĻ íķĳíģ¬
Ġê±°ê¸° ìĦľ
0 4
i d
£ ¬
ģ Ĺ
Ĳ Ĳëĭ¤
ł ľ
Ġë ĥħ
ì§Ģ íļ¨
ìĹĲ ìĬ¤
Ġë§ ĲëĿ¼
¨ë Ķľ
ìĬ¤ ê°¤
ìĬ¤ ìľĻ
ìĸ´ ì©
ĠìĿ´ ê¹Ģ
ì° ¡
ĠìķĦ ìłĢìĶ¨
ĠëĤ ¸
ìłķ ê¸Ģ
ìĿ¼ ì§¸
ì£¼ ìĪłìĤ¬
Ġê¸ ·
Ġê¸ į
ĠìĿ´ë ķĮ
ë§Į ìŀ¥
Ġìľ ¼
Ġì¢ĭ ê²łëĦ¤
ìĶ »
íŀĪ ê³ł
Ġíķĺë įĶëĿ¼
Ġê°ľ ì¡°
ĠëĮĢ ëĭµ
ĠìŀĲ ì§¤
ìĭľë ĥĲ
ê·¸ ëĭĪê¹Į
ê°ķ ë¶Ģ
ëį ¸
íı¬ ì¹´
Ġì» ´ë
íķľë ªħ
Ġì£¼ ìĿ¸
ĠëĪĦ êµ´
Ġëª¨ ìħĺ
§Īë ŀĳ
ëªħ ìĿĢ
ĠìĦł ìĸ¸
ĠíĶ¼ ìĭľë°©
ĠíĮ¨ ìĬ¤
Ġë¨¸ë ¦¬ë
Ġëĭ¨ ìłĲ
Ġì¹ľ ì¶Ķ
Ĩĵ ìĿĢ
ĠëĮĢë ¬¸
ëĺ¥ íĢ´
ĠìĹħ ê¸Ģ
ĠìķĪëĤĺ ìĺ¤
ĠíĬ¸ ìĤ¬ê°Ģ
íĸĩ ìĿĮ
Ġì°¾ ìĿĮ
ĠìļĶì¦ĺ ìĿĢ
Ġê²Ģ ìĤ¬
Ġëª¨ë¥´ ê²łëĦ¤
Ġìķħ ì§Ī
ŁŃ ìĬ¤
ĠìĶ¨ë°ľë ħĦìķĦ
ĠìĿ´íķ´ ìķĪ
ê¾¹ ìķ°
ĠìŀĺìĥĿ ê¹Ģ
ĠìĿĺë ĮĢ
ìŀĶ ìķĦ
ë§Ĳë ¡ľ
Ġíİĺë ¯¸ë
Ġìĺ¬ëł¤ ì¤ĺ
íĿ¬ë §Ŀ
ĠP C
ëłĪë ĵľ
Ġf a
ĠëĤĺìĺ¬ë ĵ¯
Ġë©Ģ ì©¡
Ġê¸°ëĭ¤ë ł¤
Ġíı´ë Ŀ¼
Ġë¸Ķë£¨ ì¹´íİ«
ĠìĦłìĥĿ ëĭĺ
Ġìĸ´ëĶĶê°Ķë ĥĲ
7 5
r e
Ħ ëĭ¤
Ġì ħĢë
Ġë ±ħ
ì§ §
ê³ Ħë¡ľ
ì§Ģ íķĺì²ł
ìĿ´ë ³´
ĠìĹ ¿
ìĸ´ ì©Į
ìĻ ¼
ìĺ¤ íĨł
íĻ ľë
ìĤ¬ ê³¼
ìĪĺ ìĺģ
ìłľ ìĦ±
ìŀ¥ ìĽĲìĺģ
Ġê°Ģ ê¸°
ıĻ ìĿĢ
Ġìľ Ĺ
ìľł íĬŃ
ìļ° ì£¼
ìļ° íĮĮë©Ķì¹´ëħ¸
Ġëª» íķĺë©´
ê³µ ìŀ¥
Ġíĺ ĦëĮĢ
Ġìĸ´ ê·¸ë¡ľë
ê²½ ì°°
Ġê¸° ê³Ħ
ì°¨ ì§Ģ
ë¦¬ ìķĦ
¬¼ ìĿ´
ë§Ī ê·¸ë©ľ
íĿ Ĳë
Ġë°© íķĻ
ìŀħ ë¬¸
ê¹Ģ ì¤ĢìĪĺ
ëĦ ¤ëĦ¤
Ł¼ íĶĦ
ì¤Ħ ìĿĢ
ìĤ° ëĭ¤
ìĤ´ ì§Ŀ
Ġëª¨ ìŀĦ
íķłë ķĮë§Īëĭ¤
íķłë ķĲ
Ġì´ ¬ìĺģ
ìĺĪ ì§Ģ
ë¯¼ íĬ¸
ĠíĶ¼ ìħľ
Ġìĭľë ĦĪì§Ģ
Ġë¦¬ ìħĭ
Ġìľłë ¡ľ
Ġêµ¬ë ¦¬
Ġê¹Į ìĿ´ëĬĶ
-- -
Ġì¦ Ļ
ĠíıŃ ìĽĲ
ĠëĦ£ ê³ł
Ġë¯¼ ì£¼
ìĿĺë ¯¸
ĠëıĮìķĦ ê°Ģ
Ġë¹¨ ê°Ħ
ìĬ¤íĬ¸ë łĪ
ĠìĶ¨ë°ľë ł¨ìķĦ
Ġìŀĩ ëĥĲ
ĠíĿĳ ìĿ¸
ĠëĪĦêµ¬ë ŀĳ
ĠíĮ¨ë °°
ĠíĶĦë¡ľ ê·¸ëŀ¨
ëĤ¬ ëĬĶëį°
Ġìĸ´ëłµ ëĭ¤
Ġëľ¨ë Ħ¤
Ġê°ĢìĬ´ ìĿ´
Ġëħ¸ëŀĺë °©
ì¹ľêµ¬ë ĵ¤
Ġìµľê·¼ ìĹĲ
ìĿ´ì°¬ ìĽĲ
ìłķìĭłë Ĥĺê°Ī
íĥĪëŀĢ íĥĢ
i c
² Ķë
ë ¨
ë ½Ģë
Ġ ;;
ŀ ´
ìķ ī
ìŀ İ
ëĭ¤ ìĿ´ìķĦ
ìĹĲ ëĭ¤
ìķĦ ì¹¨ë¶ĢíĦ°
ìĸ´ ê·¸ë¡ľ
ëĭĪ íı¼
Ġë° ĸ
ìŀĲ ìłĦê±°
ìĤ¬ ìłĦ
ìĤ¬ ì¹ľ
ì£¼ ìĭ¤
ìĿĺ ìŀĲ
¦¬ë ²Ħë
Ġê°Ģ ëĬĶê±°
¬¸ íķĻ
ĶĶ ëĬĶ
Ġì¢ĭ ê²łê¸Ķ
ìĦ¸ ìĬ¤
êµ¬ë ł¤
Ġê°Ļ ëħ¸
ĠìĪĺ ì¹ĺ
Ġê³µ íı¬
ìĭľë ŀĳ
ì´ Įë
ë§Ī ìĿ¼
Ġíķ´ ìĦĿ
Ĳĺ ì§Ģ
ìĬ¹ íĻĺ
Ġì£¼ ìĨĮ
Ġì£¼ ìĦ¸ìļĶ
ĠìķĦë Ĥĺ
ì°½ êµŃ
Ġìĸ¸ íĶĮ
Ġìĺ¤ë Ħ¤
Ġëģ ¼ê³ł
ĠìĿ¼ ìĿ´
ĠìĦ± ìļ°
Ġëªĩ ìĭľìĹĲ
íķľê±° ê°ĻìĿĮ
Ġ6 00
Ġë°Ķ ì§Ģ
Ġì°¨ ê¸°
ê¾¸ ëĭĪ
ĠëıĻ ë¬¼
Ġìķ¼ íķľ
ĠìĦ¸ íĥģ
Ġìŀĳ ìŀĳ
Ġì°į ìĹĪëĭ¤
Ġíħ į
ê´ĳ ë³µìłĪ
ĨĪ ìĿĢ
Ġìĭ¬ íķ¨
ê¸Īë §Į
íĶ¼ë Ĥĺ
ĠëĬĲëĤ Įë
ĠëĪĪ ìĹĲ
Ġíĸī ìĤ¬
Ġëŀ ĸì¹ĺ
ĠíķĺëĬĶê±° ëĥĲ
Ġë¯¸ì³ ¤ëħ¸
ê´´ ìĪĺ
Ġë£¨ ìĭľ
ìĿ´ê²ľ ìĿĢ
ì½ľë Ŀ¼
ĠìĦłíĥĿ ê¶Į
ĠìļĶë ¦¬
íķ´ìķ¼ë ĲĺëĥĲ
íĶĦëĿ¼ ìĿ´ì¦Ī
ĺ¥ ì°¬
Ġì½ĶìĬ¤ íĬ¬
Ġê·¸ëŁ¬ ëĬĶëį°
íĺľë ¦¬
Ġê·¸ë¦½ ëĭ¤
0 2
0 3
1 20
6 00
X IA
² ¼
Ġë ŀĳ
Ġë Ŀ¼ê³ł
ìĿ´ ì¤Ģ
ìĿ´ ìĸ¸
¼ë Ħ¤
ìĬ ¼ë
ìĿĢ íĴĪ
ê¸° ëĬĶëį°
ì¹ ¸ëĤĺ
ìĬ¤ íĥĿ
ì° Ķ
ìŀĲ ìķ¼
êµ¬ ìĦĿ
ĠìĿ´ë Ł°ë
Ġíķĺë Ł¬
Ġëı ¡
ê³µ íı¬
Ġê¹ Ĳ
ĠìĬ¤ íĬ¸
ì¹´ ìļ´
Ġì¢Ĩ ëıĮ
¥´ íģ¬
ìĭľë §Ī
ëĭ¹ ìĿ´
ìķł ëĭĪë
ìļ°ë ĵ¤
Ġë¨¹ ë°©
ëĦ ¹
ì¶Ķ ìĸµ
ìłĦë ¬¸
ì¿ ¨ë
Ġìµľ ì´Ī
ĠëĲĺ ìĸ´
Ġíķ´ë ³´ê³ł
ĠìĨĮ ê°Ĳ
ë°° ìļ°
Ġë°ķ ìłķ
Ġì°¨ ëĭ¨ë
ĠíĶ¼ ìŀĲ
Ġìĸ¸ìłľ ìŀĦ
ĠëģĿ ëĤ¨
Ġë³¸ ìłģ
Ġë¬´ë ¦¬
Ġìĭ¬ íķ´
ëĵľë Ŀ¼ë§Ī
ĠìĨĲ ê°ĢëĿ½
íĶĮë ŀĺ
íĺģ ìĿ´
ì°¨ë ³Ħ
Ġíķ© ëĭĪëĭ¤
Ġëĳĺ ì¤ĳìĹĲ
ìĹĨëĬĶ ëĤł
ê¹¨ ìĽĮ
Ġê¸Ī ìĪĺìłĢ
Ġë¦¬ë įĶ
ëłĻ ìĿ¸ëį°
ê°Ķ ìľ¼ë©´
ĠìĹ´ íıŃ
ê³³ ìĿ´
Ġì°½ ëħĢ
Ġìĭľê°Ħ ìĿ´
ĠíĶ¼ë ĵľë°±
Ġë£ ¬
ìķ°ë ĵ¤ìĿĢ
ĠĠ ĠĠ
ëŁ¬ ìħĢ
ĠìĺĪë »Ĳ
ëł¤ ê¸Ī
ĠìĨĶë ŀŃ
ĠìĬ¹ë¦¬ íķĺê³ł
ĠãĦ´ ãĦ´
ì¤ĦìķĮ ìķĺëĬĶëį°
ĠìĤ¬ëŀĮë ıĦ
ĠëłĻ ìĹħ
Ġê³łë§Ī ìĽĮ
Ġê¹ľ ì§Ŀ
ìĺ¤ë§Ī ìĿ´ê±¸
TX T
ê¹Ģì¤ĢìĪĺ ê°¤
N O
ë ¡
Ġ ???
Ġ or
Ł ìĪĺ
ëĭ ·
ĠìĿ Ģë
ìĹĲ ë°Ķ
ìĬ ·
íķĺ ëĬĺ
íķĺ ìĭŃìĭľìĺ¤
ê¸° ë¶Ģ
ì¹ ¼ë¦¬
ìĬ¤ íĮĢ
ìĭľ ì§Ģ
ìĥģ íĸ¥
ìĪĺ ìĿ¸
ìĭł ê°ĢìļĶ
Ġ2 50
Ġë¹ Ĺ
ìĤ¬ë §Įë
Ġì¤ Ħë
ĠëŃĲ íķ´
Ġíĥ ĵ
ìĺģ íĺ¼
Ġíķľ íĮĲ
ë³´ ìĦĿ
íĶ¼ ê³¤
ë§Ī ìĬ¤íģ¬
íĿ ĺë
ê°ķ ëĤ¨
Ġë°© íĸ¥
Ġë¹Ħ íĺ¸ê°Ĳ
Ġì£¼ ìĪł
íĢ Ħ
ĠìķĦë ¦¬
ì¸ Ħë
Ġìĺ¤ë ŀľë§Į
Ġì§Ģë ¦¬ëĦ¤
ëĤĺë ħ¸
§Īë ĥ¥
ê±¸ ê·¸ë£¹
Ġê²½ ë¶ģ
êµĲ íĻĺ
Ġ6 5
ë¯¼ ìĿ´
ìĬ¤íĬ¸ ìķĦíģ¬
êµ° ìļĶ
ìĽĲë Ķľ
ıĦë ª»
Ġë§Įë Ĥĺë
Ġìĵ° ê¸°
ĠíĮ¨ ìħĺ
ĠíĽĦ íļĮë
Ġë½ĳ ìĿĢ
ë°Ķ ìĿ´
ĠìĦľ íı¬íĬ¸
íĥĦ ìłĪ
Ġìŀ¬ ê³Ħìķ½
ê±°ë ´Ĳ
ĠëĲĺë ĤĺìļĶ
ĠìĦľë ²Ī
Ġì¹ĺ ëĬĶ
íĭĢ íĢ´ëĵ¤
Ġê²ĥ ëĵ¤
ëŃĲ ì§Ģ
Ġìĺ¬ëĿ¼ ìĺ´
ãħħãħĤ ãħħãħĤ
ĠìĿĢ ì¹´
ĠíķĺëĤĺë ¡ľ
Ġíĸī ëıĻ
Ġëķ Ĳ
Ġì·¨ ìĹħ
ĠëĪĦêµ¬ë ĪĦêµ¬
ì¶Ķë ©´
ì»´ íĵ¨íĦ°
ìķ¡ ìħĺ
ħãħħãħħãħħãħ ħãħħãħħãħħãħ
Ġëĺĳ ëĺĳ
ĠëĤ® ìĿĢ
Ġì« Ħë
ĠëĮĢëĭ¨ íķľ
Ġì±ħ ìŀĦ
íķĺì§ĢìķĬ ìĿĮ
Ġìŀ¦ ëıĮ
ê´´ë ¬¼
ĠëĽ° ìĸ´ë
ìĿ´ë¦Ħ ìĿ´
ĠìŀĪë įĶëĿ¼
Ġì´Īë°ĺ ìĹĲ
Ġìľłê²© ìĪĺ
Ĥ¬ë ħ¸
ì¿¼ë ĵľ
Ġë¦¬ë©Ķ ìĿ´íģ¬
6 5
i s
p p
¹ Ħë¡ľ
¿ Į
ì ĮĢ
Ĩ ¨ëĦ¤
Ĳ łë
Ń Ķ
Ġë ĬĶ
Ġë ĥ¥
Ġë Ł½
Ġë ī´ë¹Ħë
ê°Ģ ìĦ¸
ê°Ģ ìł¸
ê² ¨ëıĦ
ìĹĲ íľ´
ìĿ´ë ħĦ
ìĿ´ë ŀĺìĦľ
ìķĦ íĭ°
ìķĦ íĤ¤ëħ¸
ê¸° íĥĢ
ê¸° ìĸµ
ë§ ĲëĿ¼
ĠìĿ´ ìłľë
ìĻ Ī
ëĤ ©
Ġìĥ ĺ
ìĽĲ íĥĳ
ìĽĲ íĶ¼ìĬ¤
Ġìľ ¤ë
³´ ê³łìĭ¶ëĭ¤
ìĤ¬ë §Ŀ
ëĮĢ ìĥģ
Ġìĭľ ì¼°
ĠìĬ¤ íİĺ
íķ´ë ²Ħë
ìŀĲë Ħ¤
Ġìĸ´ ì¹´ëĥĲ
ì£¼ë ĵ¤
ëĭ¨ ì²´
ĠìŀĲ ì¡´
ìĬ¤ë ³´ëĭ¤
íĭ° ìķĦê³ł
ê°Ĳ ìĦ±
Ġìĥģ ëĭ´
íĢ ĺë
Ġìĺ¤ë °Ķ
íĥľ ê°Ģ
ĠìĿ¼ ìĥģ
ĠìĿ¼ ì£¼
Ġê·¸ ìłĢ
Ġëª¨ ìĿĺ
ì¹´ë ıĦ
ì§ĳ íļĮ
ëĤĺë ´ī
Ġìŀħ ìŀ¥ìĹĲìĦľ
íİĺ ìĺ¨
ëıĦë ŀĢ
ĠíĿ Ĳ
ìķĬ ìĿ´
Ġë°ķ ë³´ê²Ģ
Ġìĭľë ĮĢ
Ġìĭľë ²Į
Ġëį ®
ĠìķĦëĭĪ ìĹĪìĿĮ
Ġì£½ ìĿĮ
gi sa
ĠëĤ´ë ĨĶ
Ġë¬´ë ½ĳ
ë²Ħ ì¦Ī
ëł¥ ìĿ´
ĠìķĪëĤĺ ìĺ¤ëĦ¤
ìĥĿê°ģ ë³´ëĭ¤
Ġë¬¼ ê±´
íĶ¼ë ¡ľ
ĠíıŃ ë°ľ
ì°Į ê°ľ
ì´Īë ¡Ŀ
Ġë³Ģ ìĭł
Ġìķ¼ë ¶ķìĿ´
ł¸ë ĥĲ
ìķŀ ìĹĲìĦľ
ìĭ¬ë °Ķ
ģĿ ëĤĺê³ł
íķĺëĤĺë §Į
ìĿ´ëĿ¼ë ©°
Ġëĵ¤ìĸ´ìĻĢë ´Ĳ
Ġê°Ģë§Į íŀĪ
4 4
N T
¬ »
¯ ¹ìĬ¤
´ Ĳë
¹ Ķë
ľ °
ãħ ļ
ìĿ´ ìĦľ
ìĿ´ ê²Įë
ì§Ģ ëĵ¤
ê± ±ìłķ
íķĺ íĬ¸
ìķĦ ìķ¼ì§Ģ
êµ ½
Ġìĸ ĺëĵ¤
ìĿĮ ìķħ
Ġëĭ ´ë
ìĭľ íĽĦ
ìĿ¸ ê°Ģë´Ĳ
ìŀĲ ì´Ŀ
¬´ ìĦŃ
ĠëĤĺ ìĿ´ë
Ġê°Ģ ìķ¼ì§Ģ
Ġê°Ģ ì¦ĪìķĦ
êµ¬ ìĹĲ
ĠìŀĪ ìĸ´ìļĶ
ĠìŀĪ ìĹĪëįĺ
¨¹ ëĥĲ
ĠìĹĨ ìĿĦê¹Į
ìľł íĬľë²Ħ
Ŀ¼ë ¡ľ
ëħ ¤
ìĥĿ ëĵ¤
ìĥĿ ëªħ
Ġëı Īë²Į
Ġì§Ģ ëĭĪ
Ġëª» íķ´ìĦľ
ĠìĥĿ ë°©
ìĨĮ ìĦľ
Ġë¬´ ê³¼ê¸Ī
íĶ¼ íĨµ
ëĭ¨ ìĸ´
¡ľë ²Į
Ġë³´ë Ĥ¸
íĤ¤ íĥĢ
ëł ¸
ë¦¬ ìłľë¡ľ
Ġë¯¸ ì²´ê²°
Ġê³ł ìŀ¥
ĠìĥĿê°ģ íķ´
ĠìĥĿê°ģ íķ´ëıĦ
ĠìłĢ ê¸°
ĠìłĢ ê±¸
ì¶© ìĿĢ
Ġëģ Ķ
Ġìĺģ íĻĶë
ê·¼ ìľ¡
Ġëª¨ë į¸
ë¶Ħ ìĿĺ
Ġìĺ¤ëĬĺ ìĿĺ
Ġëª¨ ìŀĲë
ìĿĦë ŀĺ
íĪ¬ ê¸°ìŀ¥
Ġìŀħ ìĿĢ
íĮ¨ ê³ł
ĠëıĦ ìĽĢë
Ġìŀ¥ ë°ľ
ĠìĤ¬ëŀĮ ìĿĦ
ĠíĿ ¡
Ġë°Ķ ê¾¼
ıĦë Ŀ¼
ĠëĿ¼ ìĿ´íĬ¸
ìķħ ì§Ī
ĠìłĢë ²ĪìĹĲ
Ġíıī ë²Ķ
Ġìłģ íıĲ
Ġë½ĳ ìķĦìķ¼
Ġë°ľ ìĸ¸
ê°ĳ ëĭĪëĭ¤
ĠëıĦë Ħ¤
Ġíķłë ĵ¯
ìĽĮë Ŀ¼
Ġì¦ Ī
íħĲ ì¸łë
Ġë¬¸ìłľ ìłĲ
ãħģ ãħİ
ĠíĨłë ²Į
ëİ Ģ
Ġê½ ī
ĠìķĪëĲĺ ì§Ģ
Ġíĩ´ ê°¤
ëĸ¡ ê³ł
ĠíĮĲ ëĭ¨
ìŀ¬ë° ĮëĦ¤
ìĺ¬íķ´ ìĿĺ
ĠíħĮë Ł¬
³¼ë §Į
ĵ£ ê³ł
Ġìľ¡ ìĦ±
ĠìĿĺë¯¸ ê°Ģ
ĠìĦ¼ íĦ°
Ġëįķ ë¶ĦìĹĲ
ìļ°ë¦¬ë ĤĺëĿ¼
ĠU SD
ìĹĲìĦľë §Į
ĠX BT
Ġìĸ´ëĸ¨ ê¹Į
NCëĭ¤ìĿ´ëħ¸ìĬ¤ ê°¤ëŁ¬ë¦¬
ĠëĤĺë¨¸ ì§Ģ
P C
b o
ë ĲĺëĥĲ
ë ¡Ģ
Ġ ^
Ĩ ¨ë
ļ «
ëĬĶ ìķłëĵ¤
ìĿ´ ì¦Īë
ĺë ©´
ê°Ģ ì¹ĺ
ìĿ´ë ¨¸
ìĦľ ê±´ì°½
Ġìĭ ¬ë¦¬
ìĪ ĳ
ĠìĿ´ íĭĢ
ĠìķĦ ê°Ģ
ì¢ ģ
ìĪĺ ìĿĺ
ìĪĺ ìĪł
ìŀ¥ ëł¤ê¸Ī
łĪ ìĿ¸
ĠíĮ Ł
¨¹ ìĸ´
ìľł ìĭĿ
³´ ìĿĢ
ĠìĤ¬ ì§Ħë
ìļ° ì§Ħ
ĠìķĪë ½ĳ
Ġë³´ ìĿ´ìĬ¤
Ġê°ľ íİ¸
ìķĪ íķĺë©´
Ġì¤ į
Ġìĭľ ìŀ¥
ê°Ģë ĶĶ
Ġê³µ ê°ľë
ĠìŀĲ ìķ¼ì§Ģ
ìĦł ìĿĢ
ê³łìĭ¶ ëħ¸
Ġíģ Ĳë
Ġìłľ ì£¼ëıĦ
Ġë§Ĳ íķĺëĬĶê±°
ê¹Ģ ì¢ħ
ê¹Ģ ìĹ°ìķĦ
ª¨ ê°Ģ
ë¯¸ íĨµëĭ¹
ìĭľê°Ħ ì§¸
ìĭłë ¯¼íĺģ
ë¬¸ ìŀ¬
ìĿ´ëĿ¼ ëĭĪê¹Į
êµ° ìĿ´
ê²° ìĬ¹
Ġë²Ħ ê·¸ë
ìĺĢ êµ¬ëĤĺ
Ġë§Į ê°¤
Ġê³łë ĵ±
Ġì£½ ìĿ´
¡ł íĨł
ĠëıĮ ìķĦë
ìĦ¸ë Ħ¤
Ġì½Ķ ìĸ´
Ġìŀ¬ íıīê°Ģ
Ġíĳ ľë
Ġìķ½ ìĨį
Ġì¢ĭìĿĢ ê²Į
Ġê´ľì°® ìĿĢê±°
ì¡´ ìŀĺ
13 9
Ġë°± ìĪĺ
íĮĶ ê³ł
ģ¼ ê³ł
ĠëłĪìłĦëĵľ ëĭ¤
Ġë²Ħë ł¤
¶ķìĿ´ëĵ¤ ìĿĢ
íĺľ ìĽĲ
Ġì²ĺë ¦¬
Ġê·¹ ìŀ¥íĮĲ
Ġë§Īì§Ģë§ī ìĹĲ
Ġíĺķ ëĭĺ
Ġê°Ĳë ıĻ
íķ´ë³´ ìŀĲ
ìĿ´ëŀĢ ê²Į
ìĹī íģ¼
Ġë°¤ ìĹĲ
Ġì½ĶìĬ¤ íĶĦëłĪ
ê¸į ìłķ
Ġëª¨ë¥´ë ĬĶëį°
Ġì»¤ë®¤ ëĭĪíĭ°
ĠíĹ¬ìĬ¤ ìŀ¥
ì½Ķë¦¬ íĥĢ
ĠìłĲë ł¹
ê²Ķ ìĬ¤ë§Į
ĠìĬ¤íħ Ł
ĶĶëį¤ë ĶĶ
Īë²ħ ì§Ģ
8 00
c h
~ !
ĵ ¦
ŀ ¨ë
ì§Ģ ëĬĶê²Į
íķĺ ì£ł
¨ë Ķ©
íķľ ìĦŃ
ì¤ ¬ë
íķĺë §Ī
ìŀĲ ìĹ°
íķĺëĬĶ ìĤ¬ëŀĮ
ĠìĦ ¬ë
°ľ ìĿ´ê³ł
ì§Ħ íĸī
´ëĭ Ŀ
ĠìķĪ ìĤ¬
ĠìķĪ ê°Ĳ
ìĸ´ë ¥¼
ìĹ¬ ìĦ±
ìĹ¬ ê¸°ëĬĶ
ê·¸ë Ŀ¼
ìŀĪ ê²Į
Ġìłķ íķ´
Ġë³´ ìħĪ
ìķĦë ²Ħì§Ģ
ì§ģ íŀĪ
Ġíĥ ¬
¦° ê²Į
Ġíı °ë
íĮĮ ìĿ´íĦ°
Ġìŀĺ íķĺê³ł
ĠìŀĲ ìľł
íĭ° ëĭĪìķĦ
Ł¬ë Ŀ¼
Ġìľł ì§Ħë
ìĿ¼ë ıĻìķĪ
ĠìłĢ ëĬĶ
ìĪĺë Ŀ¼
ìĹŃ ìĤ¬
ĠëĤ¨ ìºĲ
íĮ¨ ì¹ĺë
ŀĢ íĬ¸
ê°¤ë Ł¼
ĠìĹ° êµ¬
ĠìĹ° íķ©
¸Ķë ¦¬ì¦Ī
íķľëĭ¤ ëĬĶëį°
ãħħãħ Į
ìłĢë Ĥĺ
Ġëį ©
Ġê²° ìŀ¥
íĤ¤ë ĵ¤
ĠíĺĦ ìŀ¥
ĠíĥĢ ìŀĲ
Ġìŀĳ ìłĦ
ìĹ´ ìĭ¬íŀĪ
Ġìŀ¡ ìĿĦ
Ġë³µ ì§Ģ
§Įë Ĥĺ
ìķĦìĿ´ ì½ĺ
ĠëŃĲëĥĲ ê³ł
ë°Ľ ìĿĢ
ëĸ ¨
¥´ëĬĶ ê²Į
ëª¨ë ¥´
¶Ī ìĮį
ì°¸ ì¹ĺ
ë¨¸ë ĥĲ
Ġë¿¡ íŀĽ
íľ´ ê°Ģ
ĠíĶ½ ëļ«
ĠëįĶë Ł¬
ìĻĵ ëĬĶëį°
Ġìĭłê¸° íķĺëĦ¤
Ġì« ĵ
ĠëĮĢëĭ¨ íķĺëĭ¤
2008 12
Ġìĸ´ëłµ ëĦ¤
Ġë¡¤ë °±
ĠìĹł ì¹´
ĠìĦŃ ì¢ħ
ĠìŀĶ ëĭ¤
²Įë łĪ
íĮ¬ë į¤
ìĿ´ìģ ĺëĦ¤
Ġì°¬ ìĦ±
ìĽłë įĺ
@ .
ë ĥ
Ĩ ĶëĿ¼
ê° ¯
Īë ¸Į
íķĺ ê¸¸ëŀĺ
Ġë§ ģ
ìķ¼ ìĥĿ
ìĭľ ìķ¼
íĺ Ĳë
ëĤ ¬ë
¬´ ê²Į
ìĿ¼ ê¹Įì§Ģ
íķĺëĬĶ ê²ĥëıĦ
ì§Ħ êµ¬
ĠëĤĺ ê°ĢìĦľ
¦¬ë įĺëį°
íĨ °
Ġì§Ħ ìŀħ
Ġì¢ĭ ìĿĦ
Ł¬ ëĬĶ
ĠìĤ¬ ê³¼ë
ĠìķĪë °Ľ
Ġê¹ °
ë³´ ê¸°
ìłĲ ê²Ģë
ìĨĮ ê°ľ
Ġê¸° ìĹħ
ì°¨ ìłĦ
Ġìŀĺ íķĺëĬĶê±°
íĤ¤ ê³ł
ãĦ± ãĦ´
Ġë¹Ħ ìĭ¸ë
íĶĦë ŀĳ
ìļ°ë ¡ľ
ì°½ ìĭľìłĪ
Ġìĸ¸ ëĭĪ
Ġë§Ĳ ìĿ´ìķ¼
ìĸĳ ìĿ¸
ìĺĪ ìģľ
ê·Ģ ì°®
Ġê°ķ ìłľ
ĠíĤ¤ ê°Ģ
Ġìĭ¶ ìĸ´ìĦľ
ıĦë ¥´
Ġëĵľë ŀĺ
ë© ĺ
ìĽĥ ê¸´
Ġì°į ìľ¼ë©´
ê» ĺë
Ġë§Įëĵ¤ ìĸ´ìĦľ
Ġãħł ãħłãħłãħł
ì¹¨ ì°©ë§¨
ĠìĪĺë ¡Ŀ
Ġê´ľì°® ëĦ¤
ìµľ ê°ķ
ìĭŃ ëĭ¤
ëª¨ë ª¨
Ġíģ¬ë ³´
Ġãħİ ãħĩ
ĠíĻĺ ìĺģ
ĸ¡ ìĥģ
Ġê¸¸ íĥľ
Ġ14 0
Ġëĺĳ ê°ĻìĿ´
Ġë©Ķë ¦¬
Ġë¸Įë Ŀ¼
ìį¨ë ¶ĢíĦ°
ĠëĮĢê¸° ìĹħ
ëĨĪëĵ¤ ìĿĢ
Ġì±ĦíĮħ ì°½
ĠìķĦì¹¨ ìĹĲ
ì¾ ħ
Ġì¢Ģë §Į
Ġê°± ìĭł
ìłķìĭłë ³ĳ
ì¯¤ë Ĳĺë©´
4 7
´ ħ
ë ¯¿
Ġ j
ĸ ´ëĭ¤
ìķ ľ
ìĿ´ ì£ł
ìĿ´ íĻįêµ¬
ìŀ £
ľë ¦¬
ĵ¤ ìĿĺ
ìĽ Ł
Ġë° Ģë¦¬
Ġì¢ ģ
ĠìĤ °ë
ìŀĲ ëĭ¤
ìĤ¬ ìĿ¼
¦¬ë Ł°
ĠìķĪ ì§Ģë§Į
ĠìķĪ ê±¸ë
ĠìķĪ ìĵ°ë
ĠìĿ´ë ıĻ
Ġì¢ĭ ìķĺëĬĶëį°
Ġì¢ĭ ê²Łëĭ¤
Ŀ¼ë ĵľ
Ġìłķ ê¸Ģ
Ġëª» ìĵ°
êµŃ ìĿĢ
ĠëŃĲ ìŀĪëĥĲ
ìĹĪ ìĸ´ëıĦ
ìŀĲë ħ¸
êµ¬ë ¡±ë¹µ
ĠìĿ¸ ìĽĲ
Ġì¢Ĩ ëħ¸ìŀ¼
íķł ê±°ìķ¼
ĠìĪĺ ì§ĳ
Ġê³µ ëªħ
íĤ¤ ëĭĪ
ëł ¨ëĵ¤
ìĭľë °ĺ
ê³Ħ íļį
ê·¸ ëĭĪ
ëĭ¹ íķĺë©´
Ġê³ł íĨµ
ìļ°ë ¦¬ëĬĶ
Ġì¶Ķ ìĿ´
Ġìĺ¤ë ¸Į
Ġëģ Ħë
íĨł ìĬ¤
Ġì§Ģë ĵ¤ìĿ´
ëĿ¼ ìĿ´íĬ¸
íĳľ ìłķ
Ġê¸°ë ¶Ħë
ë¬´ ê³µ
ìĿ´ëĥĲ ê³ł
¸Ķë Ŀ½
ì§Ģë Ŀ¼ê³ł
Ġë°ķ ì°¬íĺ¸
!!!! !!!
ıĦë ¡Ŀ
ìºĲë ¦¬
ĠìķĦëĭĪ ê¸Ķ
Ġëħ¸ ìĺĪ
Ġëħ¸ ëĭµ
ĠíĬ¹ ìĦ±
ĠíĬ¹ ë³Ħ
Ġìĸ´ëĸ»ê²Į íķ¨
ĠìĽĲ ìĺģìĿ´
ì¥ °
Ġë¦¬ ìĸ¼
Ġê¸Ģ ìĿĦ
ìŀ¬ë ĦĮ
Īë² ¨ë
Ġë¨¸ë ·Ķ
¶Ģë ĮĢ
Ġëĭ¹ íķľ
ê¸°ë ĳ¥
ĠìĿ´ìĥģ íķľê±°
Ġìĭľìŀĳ íķ¨
Ġìĭľìŀĳ íĸĪëĬĶëį°
Ġìŀ¬ ìķĻ
ëŃĲ ê°Ģ
Ġíķłë §Ĳ
§İ ìķĦ
Ġë¸Į ìĿ´
ë¦¬ë ©Ķ
Ġëª°ë Ŀ¼ìĦľ
ĠëĬĲëĤĮ ìŀĦ
¹Ī ìĿ´
ëĦĪ íĿ¬ë
Ġãħĭãħĭãħĭãħĭãħĭãħĭãħĭãħĭãħĭãħĭãħĭãħĭãħĭãħĭãħĭãħĭ ãħĭãħĭãħĭãħĭ
Ġëıħ ìĿ¼
Ŀ¼ìĿ´ ìĸ¸
Ġë©Ķë ª¨
ê¹Ģë ´īì¤Ģ
Ġìĸ´ëłµ ëĥĲ
ìĹ¬ìŀĲë ĵ¤ìĿĢ
Ġê°ľìĿ¸ ìłģìľ¼ë¡ľ
ĠìłĦìĦ¤ ìĿ´ëĭ¤
Ġìĭ± ê¸Ģ
ĠêµĲë ³µ
ìĭľë¡ľ ì½Ķ
ëĳ¥ ìĿ´
ìŀĪë įĺëį°
ê²½ìĽĲë °ĺì§Ģ
Ġì§ĦíĻĶ ìĦĿ
Ġê³łë§Ļ ëĭ¤
ĠìĿ´ìľłë ¥¼
@. @
O M
£ ½
¹ ħ
ħ ìĭł
į ´
Ġë ¦´ë
ãħ Ĳ
¼ë ıĦ
ì§Ģ ìĸ´
Ĥĺ ìĺ¨
ìĸ Į
¦¬ ê²Į
ëį° ìĿ´íĦ°
ê²Į ìĿ´ëĵ¤ìķĦ
ĠìĿ´ ê¸´
íķĺë ©°
ĠìķĦ íĶĦ
ìĪĺ ìĽĲ
ìłķ ëł¹
ĠëĤĺ ê°Ī
ì¡ ·
¦¬ë Ŀ¼ê³ł
ê°Ļ ìķł
ìłĦ ìŀ¥
Ġê°Ģ ìĤ¬
Ġê°Ģ ë°©
ê·¸ë ŀĺë
ëª ¬ë
ĠìĤ¬ ìŀ¥
íĦ° ëĬĶ
Ġë³´ ìĿ´ëĬĶëį°
Ġìĺ¤ íĶ¼ìħľ
Ġì§Ģ ê³ł
ìĦ¸ ìĭ¤
Ġì¤ ĺë
ê³µ ë¬´ìĽĲ
Ġìĭľ ê¸ī
ĠìĬ¤ íĮĮ
ëĭĪë ŀĳ
ĠëĮĢ ìłĦ
íĸĪ ëĭ¤ê°Ģ
êµ¬ë ©į
ĠìĿ¸ ìĭĿ
ìłĢ ìŀ¥
ĠìĹ¬ ì´Ī
Ġìŀĺ íķĺë©´
ìĬ¤ë Ł½ëĭ¤
Ł¬ë ħ¸
Ġìĥģ ìŀ¥
Ġìĥģ íĴĪ
ê¾ ¼ë§ł
ìļ°ë ¦¬ëıĦ
íĺĦ ìĿĢ
Ġë¨¹ ëĬĶê±°
Ġë§Ĳ ìĿĢ
Ġëģ Ī
ĠìĦ± íĿ¬ë¡±
ìī Ĳ
ë¬´ íľ¼
ê°ľë ıĦ
ê°ľë ¥¼
ëĺ ł
Ġë²Ħ íĬ¼
ĠíĮĮ íĬ¸
ĠíĸĪ ìĸ´
Ġíı¬ ìĬ¤íĦ°
Ġíı¬ ì¼ĵëª¬
Ġìį ¼
ł¨ ìĿ´
Ġëĵ¤ìĸ´ ê°ĢëĬĶ
ĠìĽĲ ìĺģ
ë¥ ĺë
Ġë³´ê³ł ê°ĢëĿ¼
ĠëĤ´ë Ĩĵ
ê¸°ë ķĮ
ëª¨ ëĭĪíĦ°
íĪ Ń
ĠìĹĲ ìĿ´ìĬ¤
íĿ¬ ê°Ģ
ĠíķĦ íĦ°
ĠëıĦë ŀĢ
ĠìĦłë Ħĺ
ë°Ľ ìĿĮ
ê°ĢëĬ¥ ìĦ±
Ġê°Ī ìĪĺë¡Ŀ
êº¼ ìķ¼
ë§Įë Ķ°ë¦¬
ĠëıĮë ¦¬ë©´
ìĽĮë ıĦ
íħĮë Ł¬
Ġë³¼ ìĪĺë¡Ŀ
Ġãħİ ãĦ·ãĦ·
Ġë¨¸ë¦¬ ê°Ģ
ĠëĦ¤ ìŀĦë
ĠíĨłë ģ¼
Ġë¿ Įë¦¬
ĠíĽĦë ł¤
ĠíĮ¨ë Ł¬ë
ê°Ķë ħ¸
ĠëĨĪ ìĿ´
íķĺë£¨ ì¢ħìĿ¼
ĠìĦŃ ìĻ¸
íķĺíķĺ íķĺíķĺ
ìĿ´ë¯¸ ì§Ģ
Ġìľłëªħ íķľ
ìª ¼
ĠìķĦìī¬ ìļ´
ìĥĢ ëĬĶëį°
ê°ĸ ê³ł
Ġíĥľë ¸Ķë¦¿
ë²łë¥´ë ĦĪ
Ġìĸ´ì©Ķ ìĪĺ
Ġë¡ľê·¸ ìĿ¸
1 10
B O
¥ ´ëĤĺ
§ ĺëĵ¤
ë ¦´ë
Ĥ °
Ġì ĮĢ
Ġë ī´ë
Ġë ¦´ë¦¬
íķ Ģë
ìĿ´ ìłķëıĦ
ìĿ´ ìĺĢëĬĶëį°
ê°Ģ ìĪĺ
ìļ ´ëĭ¤
ìĦľ íı¿
Ġê° Ŀ
ìĭľ íĤ´
ĠìķĦ ì¹´
ìŀ¥ ê°ĳ
ĠëĤĺ ê°Ģë
ĠëĤĺ ìĺ¨ë
ê°¤ ìŀĦ
ê°¤ ê¸¸
Ġê°Ģ ì§ľ
êµ¬ ëĭĪ
ìĦ± ë°°
´ëĭ ¬
ĠìķĪ íĸĪëĬĶëį°
ì½ ĶëĿ¼
Ġì° Ķë
ì¤ĳ ìĿ´ëĭ¤
ĵľë ĵ¤
ìĺ¤ë ¸Į
ìķĪ íķĺëĬĶ
ĠíĻ Īë
ìĹĪ êµ¬ëĤĺ
£¨ ê°Ģ
ĠìĿ¸ ê°ķ
ë³´ ìĿĢìĻĶìĸ´ìļĶ
ìłĲ ìĭ¬ë
íķł íħĲëį°
ĠíĬ ľ
ìĹ° íĮ¨
ì¤Ģ íĥľ
íĺ¸ ìĤ¬
ì²ľ íŀĪ
Ġíķ´ ì¤Ħ
ëĭ¹ íŀĪ
ìŀ¬ ëĬ¥
¥´ë §Īëĭ¤
íĺĦ ìĭĿìĿ´
Ġë¨¹ ìĸ´ëıĦ
Ġìĺ¬ë ŀĲ
ĠìķĦë ¦Ħ
Ġìĺ¤ë ¦¬
Ġëĭ¤ë ¥´
ìĹŃ ê²¹
íĨł ì¸ł
ì§Ģê¸Ī ìĿĢ
íĨłë ²Į
ë¯¸ ìħĺ
íķłë §Įíķľ
íķĺëĭ¤ ëĬĶ
ì§Ģë ŀĦë
Ġêµ¬ ê¸Ģ
Ġìĭ¶ ìĹĪëĬĶëį°
ĠìķĮë ł¤ë
Ġë¶Ģë ¥´
ĠìĦ¸ ê¸Ī
ìľłë Ĥĺ
ìŀĩ ëĦ¤
ìĭ¸ ìļ°
ĠìłĦë ¶ķìĿ´
ì²ł ê¶Į
Ġì£¼ë ĥĲ
Ġë½ĳ ìľ¼ë©´
ĠìĿ´ìĥģ íĺķ
Ġìŀ¬ë°Į ëĬĶê±°
ëłĪ ìłĦëĵľ
§ŀ ê³ł
ìłĳ ìĨį
ĠìĨĲ íķ´
ìĹ¬ë ıĻìĥĿ
ìĬ¬ ìĿ´
ĠìĻ¸ ìķ¼
ĠëıĮë ¦´
ãħħ ãĦ±
ìĦ¼ ìĬ¤
ª¨ë ¥´
íģ´ë ¦Ń
ìĿ¸ê±° ëĥĲ
ìľ¤ ìĿ´
ìķ° ì°½
ĠìĮ ©
ì¦Īë Ŀ¼ìĿ´ë¸Į
ë¸Ķë ³¸
ĠíķĦìļĶ íķ¨
ê°Īë ¹Ħ
ê·¹ íĺĲ
Ġìĭ«ìĸ´ íķ¨
ıĮë ¦¼
ĠìĥĪ ê¸°ëĵ¤
ĠíĻĺ ê¸ī
Ġìŀ¬ë¯¸ ê°Ģ
Ġê·¼ë ¬´
Ġê°ľì¢Ĩ ê°ĻëĦ¤
Ġì¡¸ ì»¤
íĮĲë §¤
ĠìĿĢê·¼ íŀĪ
ë§İ ìĿ´
Ġìľ¤ ì§Ģ
Ġë§ĪìĿĮ ìĿ´
Ġê·¸ëłĩ ëĭ¤
Ġì½ĶìĬ¤ íĶ¼
ëħ¹ ëĳĲë
ìµľê·¼ ìĹĲ
Ġëª°ëŀĲ ëĬĶëį°
ê·ĢìĹ½ ëĦ¤
K T
ë ĲĺëĦ¤
Ġ ....
ħ Ķ
ĸ ¨
ĺ ĳ
Ġë ¦´
ëĬĶ ëĤł
ìĿ´ ìĹ¬
ìĿ´ ìĹĪìľ¼ë©´
ëĭ¤ ëĭĺ
ìĺ ĪëĤĺ
ê±° ê°Ģ
ìķĦ ìĭ¸
ìĸ´ íľ´
Ġë° Ł
ĠìĿ´ ìľłë¡ľ
ìĤ¬ ìĬ¤
ìĤ¬ ìļ©
ìļĶ ìķ½
ìłķ ìĿĺ
ì§Ħ íķĳ
íħ ħ
íı ´ë¦¬
ìĸ´ë ŀĳ
ĠìĿ´ë ŀĺ
ĠìĿ´ë ĮĢë¡ľ
ĠìŀĪ ìľ¼
ĠìĹĨ ìľ¼ëĭĪ
ĠìĤ¬ ìĹħ
Ġì¹ ¸ë
ìĺ¤ë ŀĺ
Ġì§Ģ ìĽĮ
ĠëĲ łë
ĠìĬ¤ ê°¤
Ĥĺë ħ¸
ĠìĥĿ ë¦¬
ĠìĥĿ ê¸°ë©´
ëĭĺ ìĿĺ
ìĨĮ ìĨį
íĹ Ľ
íĮĮ ìĪĺê¾¼
ĠìĪĺ ìĺģ
Ġê³µ ì§ľë¡ľ
ì°¨ ê¸°
íĭ° ìħĶì¸ł
Ł¬ë ĵ¤
ê°Ĳ ìŀĲ
ĠìĿ´ê±° ìŀĦ
ëį ķìĿ´
Ġì¤ĳ ê°Ħ
ĠëįĶ ìĿ´ìĥģ
ìŀ¬ ê¸°
Ġë¹Ħ ê²Į
Ġë§ŀ ê³ł
ìĵ °ë¦¬
íĺĦ ìĭľ
ìĻĶ íĤ¹ë¡¤
ĠìłĢ ëĬ¥
ë¶Ħ ê¸°
ëĤĺë ĥĲ
§Īë ¡ľ
Ġìµľ ìķł
ë§Īë łĪ
Ġíķ´ë ´Ħ
ĠíĶ¼ ê²¨
ìĿ´ë²Ī ìĹĶ
Ġ7 5
ìĿ¸ê°Ģ ë³´ëĦ¤
ìŀĩ ìĸ´
¸Įë ¡ľ
íı° ìľ¼ë¡ľ
Ġì½Ķ íĬ¸
Ġë½ĳ ìķĺëĬĶëį°
ĠíĶĦë ©Ķ
ĠíķĦ íķ©
Ġëĺ¥ íĢ´
ë©Ķ ê°Ī
ĠëĴ¤ ìł¸
ë§ĮìĽĲ ìĹĲ
ìĦ¼ íĬ¸
ĠëĦ£ ìĸ´ë
ëª¨ë °ĶìĿ¼
ìĥ¤ ìĽĮ
įĶë Ŀ¼ëıĦ
Ġì´Īë ¡Ŀ
Ġê¶ģê¸Ī íķ´ìĦľ
ëĳĲ ìĤ°
ĠìĶ¨ë°ľë ħĦëĵ¤ìķĦ
Ġë¿ Į
ë¹Ħë ıĻìĿĺ
ì¤¬ ìĿĮ
Ġìĺ· ìŀ¥
ìĻĵ ëĭ¤
ĠT V
ëļ Ŀ
Ġìı ł
ĠìºĲ ìĭľ
Ġë¶Ħë ħ¸
ĠëĭĪëĵ¤ ìĿĢ
ĠíĪ ½
## #
Ġê³¨ë °ĺ
Ġl ck
ĠëĤĺìĺ¤ë ħ¸
ìĦłìĥĿ ëĭĺëĵ¤
Ġê²¬ ìłģ
Ġìĺ¤íĶĦ ëĭĿ
Ġì¢ĨëĲ Ĳëĭ¤
Ġìŀ¥ìķł ìĿ¸
ìĥĿì¶ķ ë³´ìĿĢìĻĶìĸ´ìļĶ
ëĿ¼ëĿ¼ëĿ¼ëĿ¼ëĿ¼ ìĥĿì¶ķë³´ìĿĢìĻĶìĸ´ìļĶ
4 3
O O
o l
ë Ī
Ġ 00
Ĥ ¼ë
Ĩ Ĳ
ĳ ¬
Ġë ĮĲ
ì§Ģ ê°Ħ
ê³ł êµ¬ë§Ī
ìĿĢ íĸī
ìĦľ ìĬ¤
ìĤ ½
ĠìĹ ½
ê¹ ¸
ê²Į ìŀĦë
Ġë° į
ìĭľ ê³µ
ìĭľ ì¼°
ìŀĲ ì²´ê°Ģ
ĠìķĦ íĮĮ
ìĥģ ìĪĺ
ìŀ¥ ìĿ¸
Ġê°Ģ ìĺ¨
ĠìķĪ íķĺëĬĶëį°
Ġëĭ¤ ê°Ģ
Ġëĭ¤ íģ¬
Ġëĭ¤ ìĿĮë
¨¹ ê¸°
¨¹ ê³łìĭ¶ëĭ¤
ĠìĹĨ ìŀĸìķĦ
ĠìĹĨ ìĹĪìľ¼ë©´
ì¤ĳ ìĿ¼
ê·¸ë łĩ
ĠìĤ¬ ê²½
Ŀ¼ë ħ¸
Ġë¹ ¨ëĿ¼
Ġë³´ ìĿ´ëĦ¤
ìķĪ íķĺëĥĲ
ĠìĬ¤ íģ¬
ĠìĿ¸ ì²ľ
Ġì¢Ĩ ëĲľ
ë³´ ìŀĲ
ê°Ģë ´ĲëıĦ
ëĭ¨ ìŀ¥
¡ľë ¦¬
ì¤Ģ ìĭĿ
ì¤Ģ ëĭ¤ê³ł
Ġìľł íĪ½
Ġíķ´ ì£¼ë©´
Ġìĥģ ìłĲ
ëĭ¹ íķĺê³ł
ĠìłĦ ìĹŃ
Ġê±° ì§ĵë§Ĳ
ê²ĥ ë³´ëĭ¤
ìķ¼ë ıĻ
ê¹Ģ ìļ°ìĦĿ
Ġãħħãħ ħãħħãħħ
íĨł ê°Ģ
ĠëĤĺë °ľìĿ´ê³ł
ì¢ĭ ìĿĢê±°
ìĶ¨ ìķ¼
Ġìŀ¥ ê¸°
Ġìµľ íĽĦ
ëĤ¨ ìŀĲê°Ģ
ìľ¼ ìĿĳ
ĠíĤ¤ ìļ¸ë
Ġíķł ìĤ¬ëŀĮ
Ġêµ¬ ìĦ±
ì»¤ íĶĮ
Ġë§Ŀ ìĺ¤ìĬ¤
íĥĢë ©´
Ġê°¤ë Ł¼ëĵ¤
ĠìĽĥ ê³ł
Ġìľłë £Į
Ġë¬´ë ĦĪ
ëĮĢë §Į
ĠëĤĺìĺ¤ ê²łì§Ģ
Ġê·¼ ìŀ¥
íĺ¼ ìĤ°
§ģ íģ¬
Ġìĭ¸ ìļ°ëĬĶ
ĠìĿĺ ê²¬
ĠìĬ¹ ê¸ī
ĠëĳĲ ê³ł
Ġì²ł ê¶Į
ëª¨ë ĳĲ
ĠíĻĶë Ĥľ
ëĬĲ ê·¸
ħĦëĵ¤ ìĿĢ
ĠíķĦìļĶ ê°Ģ
Ġ0 6
ĠìĿĳ ëĶĶ
ĠíĢ µ
Ġíģ¬ íĬ¸
Ġë´ī ì¤ĢìĿ´
Ġë£ ¸
ĠìĿ¸ê¸° ìĥģ
ë½ĳ ê¸°
ĠíĽĦë ³´
Ġê¼¬ ì¶Ķ
Ġë°Ķê¿ ¨
Ġë°Ķê¿ Ķë
ĠìĿ´ê¸° ê³ł
???????? ????????
ìĬ¤ëŁ¬ ìĽĮ
ëįĶë ¸Ķ
Ġë¶ģ ì»¤ë²Ħ
ãħĨ ãħħãħĮãħĬ
Ġëįķ ì§Ī
ìĿ´ìĿ´ ìĿ´ìĿ´
ì¹ľêµ¬ë ŀĳ
Ġì¶ķíķĺ íķ´
ľ» ìŀĦ
Ġì£¼ë§Ĳ ìĹĲ
Ġê°Ħë §ĮìĹĲ
ĠìĹ¬ìłĦ íŀĪ
ĠìĹ´ëĵ± ê°Ĳ
gainìĭłê³¡íĻįë³´ ìĻĶíĤ¹ë¡¤
ĠíĹ· ê°Īë
I D
i f
x x
§ ¹
ë ®¤
ë ·°ì§Ģ
İ Į
Ġë ŀĺ
ìĿ´ ìļ©
ìĿ´ ìłķíĽĦ
ì§Ģ íĺģ
ëĭ¤ ëħĢ
į° ë¦¬
ê³ł ëĤĺ
¤ë įĺ
ê¸° ìĺģ
Ŀ¼ ëĭĪê¹Į
ìĤ ´ëĭ¤
ì¹ ´ëĭī
ìĸ´ ì¼Ģë
íķ´ íĤ¹
ìľ¼ë ł¤
ìĪĺ ìĥĿ
ìĿ¼ ìŀĦ
ĠëĤĺ ìĻĢëĿ¼
¦¬ë įĺ
¶Ģ ëĬĶ
ê¸Ī ìĿĢ
Ġê·¸ë ıĻìķĪ
Ġì§Ħ ìĭ¤
Ġìľ ¼ë
ĠìĤ¬ ìĿ´ì¦Ī
íŀĪ íĨłë¯¸
Ġìĺ¤ ìĹ´
Ġìĺ¤ íĶĦëĿ¼ìĿ¸
Ġê°ľ ìĽĥê¸°
ìĿ¸ëį° ëıĦ
Ġì§Ģ êµ¬
Ġê¹ ĥ
ĠìĤ¬ë ¬´
ìłĲ íĶĦ
ì¼Ģ ìĿ¸
ĮĢë ¥¼
íĬ¸ë Ĥ¨
ëĭ¨ ìĿĢ
ĠìŀĲ ì²´
ì¤Ģ ê±°
ê°Ĳ ìĤ¬
ê³Ħ ê°Ģ
ê°ķ ìĿ´
Ġ4 2
Ġ4 8
ĠìłĢ ê±´
Ġìĺ¤ë §Ī
íĶĮ ìĬ¤
Ġì§Ģë ıĦ
Ġì§Ģë °°
ĠìķĮ ê²łëĭ¤
ì¹´ë ¡ľ
Ġëªĩ ìĤ´
Ġë°Ľ ìķĺëĭ¤
ë¯¸ ì£¼
§Īë ł¤
ëıĦë ª»
´Ĳ ìķ¼ì§Ģ
ĠìĤ¬ëŀĮ ìĿ¸ëį°
ë¬´ íİĺíĨł
ĠãħĪ ê°ĻìĿĢ
êµĲ íĸī
Ġë°ķ ìĤ´ë
ĠìĤ´ ìĿ¸
ëıĻ ìķĪ
Ġì°¨ ìĿ´ë
ĠìķĦëĭĪ ê²łì§Ģ
ë§Ŀ ê°Ģ
ì²ĺë ħĢ
Ġëĵ¤ìĸ´ ìĺ¤
¸Įë Ŀ¼
Ġìĸ´ì¼Ģ íķĺëĥĲ
ì¡± ìĿ´
Ġíļ ¡
Ġíķ¨ ìĦ±
Ġì§ģ ìĽĲ
ĠëıĪ ìĿĦ
Ġê¹Į ê³ł
ê²ĮìŀĦ ìĿĢ
ĠìķĪëĤĺ ìĺ¨
ĠìĿĺ ìŀĲ
ìļ°ë¦¬ ê°Ģ
ģ¼ ëĬĶ
ĠìĹ´ ìĩł
Ġíģ¬ë ¦¬ìĬ¤
Ġê³¼ ìĹ°
ìª½ ìľ¼ë¡ľ
Ġíľ ĺ
>> >
ĠãħģãħĮãħĬ ëĥĲ
Ġê¾¹ ìķ°
ìĤĲ ëĬĶ
ê³Ħë ıĦ
ë¡ľë ĵľ
Ġëıħ ë¦½
ìĿ´ìĸ´ íı°
ĠëĤłë ¨¹
Ġìĭłê¸° íķ¨
íķĺë£¨ ìĹĲ
ë¶ķìĿ´ëĵ¤ ìķĦ
ħĦë ıĦ
ĠìĽħ ìŀ¥íķ´
§Ĳë ¡ľ
ĠìĥĿê°ģíķ´ë ³´ëĭĪ
ìĺ¤ìĺ¤ ìĺ¤ìĺ¤
ĠìĬ¤íı¬ ì¸ł
Ġëª»ë ´Ħ
ìĺĨ ìĹĲ
Ġì¡°ìļ© íŀĪ
ĠìķĦìī½ ëĭ¤
ë¸Ŀ ëĶ±
ĨĢ ìĿ´
Ġë°ĶëĢĲ ê±°
ìĸĳìĭ¬ ê³łë°±
íī ¤
ë³¶ ìĿ´
Ġíķĳê¹Į ì¢Ģ
Ġê¾¸ì¤Ģ íŀĪ
Ġë¹ĦìĬĪë °Ķíģ¬
ìĤ¬ë§Įë £¨
4 2
Y A
° ĺëıĦ
ë ī´ë¹Īëį°
ī ìĿĢ
Ġë ®¤
ãħ Ľ
ìĿ´ ê²ĥëıĦ
ì§Ģ íĺĦìĿ´
ìĿ´ë ¯¼
ĵ¤ ë§Į
Ŀ¼ ëĬĶê²Į
ìĬ¤ ìķķ
ìĽ ¬
Ġìĺ Ģ
ìĥģ ëĮĢë¡ľ
ìłķ ê³µ
ëĬĶê±° ë³´ë©´
ìľł ìłĢë
ìľł íĬľë
ì¤ĳ ìĥĿ
ëª ¸ë
ìŀĪ ìĿĦ
Ġìłķ ìĿĺ
ê³µ ìķ±
ĠìĬ¤ íĤ¬ë
ê²ł ìĬµëĭĪê¹Į
íķ´ë ıĦëĲ¨
íĮĮ ìĿ´ìĸ´
ĠãĦ¹ãħĩ ìŀĦ
Ġë§İ ëħ¸
ë¹ ¼ê³ł
Ġë´ ¤ëĥĲ
Ġê³ł ìĨĮë
Ġì£¼ ìĿĺ
Ġëĵ¤ ìĿĢ
íļĮ ìĹĲ
ĠëĤ¨ ìķĺëĬĶëį°
Ġëª¨ ìıł
ìļ¸ íĬ¸ëĿ¼
ìĺĪ ìģ
Ġê°ķ íķľ
Ĥ´ ê°Ģ
êµ° ìķĦ
ĠìĤ´ ìĤ¬ëŀĮ
ĠìķĮë °Ķë
íĥĢë ıĦ
ĠíĮ¨ ëĬĶ
ãħĭãħĭãħĭãħĭãħĭãħĭãħĭãħĭãħĭãħĭãħĭãħĭãħĭãħĭãħĭãħĭ ãħĭãħĭãħĭãħĭãħĭãħĭãħĭãħĭãħĭãħĭãħĭãħĭ
ĠìĽĥ ìĿĮ
ìŀ¡ ìĿ´
ĠíķĺëĤĺ ê°ĻìĿ´
ì°į ìľ¼ë©´
Ġë°ľ ìłĦ
ĠìĻ¤ ì¼Ģë
Ġêµ¬ë ©į
íĺ¼ ëĭ¤
Ġë¯¸ë ¦¬ë
Ĩĵ ìĿĢê±°
ĠìĨĲ íķ´ë
ĠëĳĲ ìĤ°
ë¶Ģë °ĺ
Ġíİ¸ ìĦ±
ìĻĶë ĥĲ
ĠìĹĨëĬĶ ëĵ¯
ëĨ Ĵ
Ġíģ¬ë ¦¼
ìĥ¤ ìĥ¤
Ġëª°ë ¹µ
ì¹ł ìĿ´
ĠíĴĢë °ľ
ìĤĲ ìķ°
Ġp ve
Ġê¼¬ë Ŀ¼ë
Ġs s
Ġìī¬ ìĽĢ
ħĢë ŀĳ
Ġìı Ł
Ġì½ľë ¡ľ
íĺĦë ¬´
ê²¼ë ħ¸
Ġê±´ë ¬¼
ë¹ł ëĬĶ
Ġê¸Īë ¯¼ì²ł
Ġíĺľ ìŀĲ
ìĭľíĤ¤ ê³ł
ĠìĿ´ëĵĿ ìŀĦ
ìĬ¤ëŁ½ ê²Į
ĠìĹŃê²¹ ëĦ¤
ìĬ¹ë¦¬ ìĿĺ
Ġìª½ íĮĶë
ëłĮ íĥĪ
ìĿµìĬ¤ íĶĦëłĪìĬ¤
Ġìľłë§Ŀ ì£¼
P L
a p
Ġ txt
Ī Ķ
Ĳ «
Ġë ¯¼ë
ê° Ħëĵ¤
ìĿ´ ìĿµ
ê°Ģ ìŀħ
į° ëł¤
ê³ł ëıĦ
ìĸ ĺëĵ¤
ê±° ìļ´
ìķĦ íĮĮíĬ¸
Įë ĵ¯
Ġìŀ łë
ìĥ ĪëĤĺ
ê· ¤
Ġì§ ¬
ëĭĪ ì¹´
ìĪ į
ĠìĿ´ íĻįêµ¬
ìĿ¸ ìĦ±
ĠìĻ ĢëĿ¼
ìłķ ëĥĲ
ì£¼ ìĪł
ê°Ļ ìľ¼ë©´
êµ¬ ìŀ¥
ĠìķĪ íķľ
ĠìķĪ íĦ°
Ġê·¸ë Ł¬ë©´
ì¹ĺ ìĿ´
ĠìĿ´ë »
Ġì§Ħ ìŀĲ
ĠìĹĨ ëĤĺìļĶ
ëª ¹
Ġìłķ ë¦¬ë
ìĦ¸ íĺģ
ëĮĢ íķľë¯¼êµŃ
ĠëĲ ĲëĦ¤
ìŀĲë ³¸
ĠìĿ¸ ìĹ°
ë³´ ì¶Ķ
ê²½ ìĿĢ
íķł ê±°ê°ĻìĿĢëį°
ì£¼ë ³Ģ
ëĤ´ ìĿ¼ë¶ĢíĦ°
íĺ¸ ìĦł
¯¸ë ıĦ
ê·¸ ìłĢ
ìŀ¬ ìĹħ
ìĬ¹ ìĿ´
ìļ°ë Ŀ¼
ê³łìĭ¶ ìľ¼ë©´
ìŀħ ëĭĪê¹Į
íķĻ ì¹ĺì»¤
ĠëĤ¨ ìĪľìĿ´
ì¶Ķ íĸī
ĠìķĬ ìķĺ
Ġë°Ľ ëĬĶëĭ¤
§Īë Ŀ¼
ìĦľë ¡ľ
ê´Ģ ìłģìľ¼ë¡ľ
¥¸ ê±°
Ġë³ĳ ìĤ´
íģ¬ë ¦°ìĿ´
íģ¬ë ¦¬ìĬ¤
ĠìĺĪ êµ¬
§¤ ìĪĺ
ì½Ķë ŀĳ
ĠíķĺëĬĶ ë²ķ
Ġìļ° ìľł
Ġìļ° ìĦł
íĻĶë ıĦ
Ġìĭľë Ĥĺë¦¬ìĺ¤
Ġëį ľë
Ġë§Įë £¨
Ġë¶Ģë ŀĦ
ì²ĺë ¨¹
Ġëĵ¤ìĸ´ ê°Ħ
ĠíĥĢ ìĿ´íĭĢ
ê²Įë ıĦ
ê²Įë Ĳ¨
Ġì°į ëįķ
ì°į ìĿĢ
ìĹ´ ìĸ´
ĠìĦľ ìĹ´
íĮĮë ıĦ
11 5
11 7
Ġë§¤ ëĭĪìłĢ
íķ´ìķ¼ íķĺëĥĲ
ê²ĮìŀĦ ìĿ´
ìĥĿê°ģ íķ¨
ì£½ ìĿ´
§İ ëĥĲ
ìĦłë ¹Ī
ĠìºĲë¦Ń íĦ°ë
ë¶Ģë ĵ¤
ë¶Ģë ¶Ħ
Ġë´Ĳ ì£¼ëĿ¼
Ġëħ¸ëŀĺ ê°Ģ
ì§Ħë ĵ¯
ì°¸ ê¸°
ì§¤ë ¡ľ
Ġë²Į ìĸ´
Ġìĭ¤ë ²Ħ
Ġìķħ ë§Ī
ĠíĨł íĨł
Ġ15 00
Ġëĭµ ìĿ´
ĠëĨĴ ìķĦ
ĠëĨĴ ìĿĮ
ë¶Ħë §ĮìĹĲ
Ġãħĭãħĭãħĭãħĭãħĭãħĭãħĭãħĭãħĭãħĭãħĭãħĭãħĭãħĭãħĭãħĭãħĭãħĭãħĭãħĭãħĭãħĭãħĭãħĭ ãħĭãħĭãħĭãħĭãħĭãħĭ
Ġíķ´ìķ¼ ê²łëĭ¤
<< <
Ġë¹łë Ķ°
Ġíŀĺë ĵ¬
ëŁ¬ ìĭľìķĦ
ãħ£ ë°ľ
ł· ëĭ¤
Ġìĸ´ëĶ ¨ë
Ġì»¤ìĹ¬ ìĽĮ
ìĨĶë ¡ľ
ìľłëĭĪ íı¼
ëĿ¼ìĿ´ ìĺ¨
íĲ ŀ
ìĹĲìĸ´ íĮŁ
ë¹Ħë¹Ħ íģĲ
ê°ł ìłģìľ¼ë¡ľ
§ŀì¶Ķ ê¸°
Ġê°ľëħ¸ ìŀ¼
¦¬ë²Ħë ĵľ
M A
Y P
e t
v er
ë ĮĲ
ĸ łë
ĸ ¨ë
ì§Ģ ëĭĪê¹Į
ê³ł ìĤ¬
ìķĦ ì£¼
¦¬ ìŀĲ
ê¸° ê´Ģ
ëį° ëĵľ
ê²Į ìĭľíĮĲ
ĠìĿ´ ê²¼
ìĿ¸ ìĿĺ
ì° °ë
Ġê³ °
ìļĶ ìłķ
ìĥģ ëĤ¨ìŀĲ
ìłķ ê·ľ
Ġì¡ ·
íħ ĲëıĦ
ìĦ± ìŀ¥
¬¸ ê³ł
ê¸Ī ìĿ´
ì½ ķ
¨¹ ìĹĪëĭ¤
ì¼ Īë¦¬
ìĹ¬ ëĭĪ
ìŀĪ ëĬĶê²Į
ìŀĪ ìĿĦê¹Į
ĠìĬ¤ ìľĦì¹ĺ
ĠëŃĲ ê¸Ķ
ĠëĮĢ ìŀ¥
Ġë¬´ ê´Ģ
ê°Ģë ĵľ
íĶ¼ ìŀĲ
ê¸Ģ ìŀĲ
íķł ìĪĺìŀĪ
Ġê¸° ëĭ¤
ìĦł ì°©
ìĭľë Ŀ½
íĭ° ëĬĶ
ë§Ī ìĿĮ
ê¸ī ìŀĦ
Ġì¤ĳ ëĶ©
ì± Ī
Ġì¡° ìĿ´
Ġíĸ ĪëĥĲ
Ġë© ¤
íĸī ìĭľ
ëĤĺë ³´ëĭ¤
ìĸµ ê²½
§Ŀ ê²ľ
ıĦë °°
ìºĲë ĵ¤
ĠëıĻ ëĤ¨ìķĦ
Ġë¶Ģë °ĺ
ìľłë ıĦ
íĤ¤ë ¯¸
§Ĳ ìĿ´ìķ¼
Ġë³ĳìĭł ìķĦ
ëįĺ ìłĦ
Ĩĵ ìľ¼ë©´
Ġì¹´ ìĿ´
Ġë§¤ ìļ°
ìĭ¤ë ²Ħ
ĠìķĪëĤĺ ìĺ¤ëĬĶ
ĠìĪľ ìĦľ
ìĨĲ ìłĪ
Ġëª© ìĨĮë
Ġê²ľ ìĿ´
Ġì°¾ ëĬĶ
Ġì²ł êµ¬ê°Ģ
ĠíĻĶ ìĿ´íĮħ
Ġëªħ ìŀĳ
Ġëŀ ĸ
Ġê¶ģê¸Ī íķ´
ìĤ´ë ł¤
Ġëķ ľìĹĲ
íķĺìŀĲ ê³ł
Ġì¶© ìłĦ
ĠìĿĺë ¬¸
Ġãħĭãħĭãħĭãħĭãħĭãħĭãħĭãħĭãħĭãħĭãħĭãħĭãħĭãħĭãħĭãħĭ ãħĭãħĭãħĭãħĭãħĭ
ì¶©ëĵ¤ ìĿĢ
Ġëļ ±
ìķŀ ìĹĲ
Ġíį¼ ìĦŃ
Ġë¬¼ë ĥĲ
ê°¤ëŁ¬ë ĵ¤ìķĦ
ĠìĿ´ìģĺ ê²Į
ãħį ãħĩãħĪ
ĠëĬ¥ êµŃ
ë§¤ë §¤
ĠìĿµ ìĪĻ
Ġ200 8
Ġë©´ ìĥģ
ĠìĿĮë £Į
ĠìĬ¬ë Ŀ¼
ì³¤ ëĬĶëį°
ëħĲ ê¸Ģë
Ġìĸ´ëĶ ¨
ìĹĦë§Ī ê°Ģ
ĠëĤĻ ìĦľ
ë§Įìķ½ ìĹĲ
Ġë²¤ ì¹ĺ
ĠìĿ´ìĸ´ íı°
íĹ¬ìĬ¤ ìŀ¥
Ġë¸¨ ìķ±
Ġê·ł ìĹ´
9 5
p n
ë ī´ë
Ħ Ĳë
ì§Ģ ìĦ±
ê±° íĴĪ
ìĥ Ľ
łë į°
ëį° ìĿ´
Ġì¢ ĩ
ĠìķĦ íĶĪ
ħ¸ ìĬ¤
ìłķ ëıĻìĽĲ
ìłľ íĴĪ
Ġê°Ģ ëıĦ
ĠìķĪ ìĵ°
ĠìĹĨ ìķłë
Ġì¢ĭ ê¸´
Ġì¢ĭ ëħ¸
Ġì¢ĭ ëįĺëį°
ê·¸ë ¦°
Ŀ¼ë Ħ¤
ìķĦë ¨¸
ìĺ¤ë İħ
Ġìĺ¤ ìłĦ
ĠìĬ¤ íĭ°
ĠëŃĲ íķĺëħ¸
ĠìĤ¬ë £Į
íĸĪ ìĬµëĭĪëĭ¤
Ġìĸ´ ì°Įë
ìŀĳ ìĹĲ
êµ¬ë ¯¸
Ġíķľ ê²Į
Ġì¢Ĩ ì°½
ìłĲ ì°¨
Ġê°Ļ ìķł
¥´ ì¸ł
ì¡° ëĭŃ
Ġìŀĺ ìŀĲ
ĠëĶ ¥
ìĹ° ê¸°
ì¤Ģ ì§Ģ
ì¢Ĩ ê°ĻëĦ¤
Ġì¤ĳ ë¶ķìĿ´
Ġì¤ĳ ê°ĦìĹĲ
ìŀ¬ ê°Ģ
ìļ´ ìłĦ
íķľë Ĥ¨ëĵ¤
ì§Ī ê¹Į
ìĬ¹ ìĹ½
ìĻĶ ìĬµëĭĪëĭ¤
ìĨ¡ íķ©ëĭĪëĭ¤
ì°½ ê¸°
ĠëĤ¨ ìĦ±
ê¶ ¤
Ġë¬¸ ìŀ¬ìķĻ
ëĿ¼ ìļ´ëĵľ
Ġë°Ľ ìķĺ
Ġë°Ľ ìķĦìĦľ
Ġì§Ģê¸Ī ìĿ´
Ġë°Ķë ³´
Ġìµľ ìķħìĿĺ
ĠíĿ Ķëĵ¤
ĠëĲĺ ëĬĶê±°ìŀĦ
ĠíĴ ĭ
Ġìĭľë ¹Ħ
Ġë§Įë Ĥ¨
ĠëıĻ ìĿ¼
Ġë¶Ģë ĵ¤
ĠëĿ¼ íķĮ
Ġíı¬ íħĲ
ë³ĳ ìĽĲ
Ġê¸Ģ ìĦŃ
ì§ĢìķĬ ìĿĦê¹Į
ë²Ī íĺ¸
£¨ë £¨ë
ĠëĶĶ ìŀĲ
ĠìĿ´ìĥģ íķĺê²Į
Ġìĭ¬ ìŀ¥
ëŀ ¨
íĶĮë Ł¬
ĠìĿ´ëŁ° ê±´
Ġìŀ¬ íĥķ
Ġìĭ¸ ìļ°ë©´
Ġìķłë ¹Ħ
Ġë¶Ħ ìľĦ
ĠíĦ° ì§Ģë©´
íĢ´ ê°Ģ
Ġíķłë §Įíķľ
Ġë°± íį¼
ĶĶë ĶĶ
Ġë§Ľ ìĿ´
Ġë§Ľ ì§ĳ
ë°ĺ ê³ł
Ġëª°ë ŀĺ
ì¦Īë ıĦ
ìĿĺë ĮĢ
Ġê·¸ë§Į íķĺê³ł
Ġë³¼ë ķĮ
ł¸ë įĺ
~~~~ ~
ĠíŀĪ íĬ¸
in e
ì£Ħ ìķħ
íį¼ë ¡ľ
Ġãħĭãħĭãħĭãħĭãħĭãħĭãħĭãħĭãħĭãħĭãħĭãħĭãħĭãħĭãħĭãħĭãħĭãħĭãħĭãħĭãħĭãħĭãħĭãħĭ ãħĭ
ĠìŀĪëĭ¤ ë©´
ĠìĬ¬ íį¼
Ġìĵ¸ë ª¨
ëļ ľ
Ġìį¨ ìķ¼
Ġì¦Ŀ ëªħ
ë©Ķë ¦°ìĿ´
Ġë¹¨ë ¦¬ë
ĠìĹ¬ìŀĲë ĵ¤ìĿ´
Ġì¥¬ ìĸ¼
Ġìĸ´ëĬĲìłķëıĦ ìŀĦ
Ġìĸ´ëĶ §
ë¬ ĺ
ëĿ¼ìĿ¸ ìĹħ
ìĦłìĥĿ ëĭĺ
Ġê²¬ ìłľ
ìŀĺìĥĿ ê¸´
ëŀľë į¤
Ġê³± ì°½
Ġë°Ķê¾¸ë ©´
ĠëħĲ ê¸Ģë
Ġìĺ¤ëĤĺ íĻĢ
ë¹ĦìĬĪë °Ķíģ¬
ĠíĪ¬íĳľìĿ¸ì¦ĿìĻĶ XIA
V E
b s
¹ ķ
Ġë İĢ
ìĿ´ ìłľë
ìĦ Ģë
¬ë Ŀ¼
ê± ´ëĭ´
ìĬ ¥
ìĿ´ë ¶Ħ
ìĿ´ë Ķ´
íķĺ ìĭľ
ëĭĪ ìĸ´
ĮĢ ìĭł
ĠìĿ´ ì¤ĳ
ìĭľ ìĥĿ
ì² ¸
ìŀĲ ì§¤
ìĤ¬ ì§Ħë
ìĿ¼ ì§Ģ
Ġê¸ Ģë¦¬
ĠìķĪ ê³ł
Ġê·¸ë ŀ¬
íĥĢ ê²©
ĠëĦ Ĳë
ĠìĤ¬ ê·
Ġìłķ ìķ¡
Ġë³´ ìĿ´ëĥĲ
Ġêµ ´
ìº ¬ë£¨ë
íŀĪ ê¸°
ìĺ¤ë ¥´ëĬĶ
Ġíķĺë ł¤ë©´
Ġê°ľ ìĤ¬ê¸°
Ġ3 7
Ġëª» ê°Ģ
êµŃ íŀĻ
ĠìĤ¬ë ¥´íı¬ìŀĲ
íħĮ ìĬ¬ëĿ¼
Ġìĸ´ ìĿ´ê°Ģ
ìĺģ ì§ĢìłĲ
£¨ ìĬ¤
ê°Ģë ¦¬ê°Ģ
ĠìĹ¬ ê³łëĶ©
Ġíķĺ ëĭĪ
Ġê³µ ì¤ĳ
Ġê¸° íĥĢ
ìĹ° íŀĪ
³´ë ¡ľ
¯¸ë ŀĳ
Ġ5 8
°© ìĿ´
Ġìĥģ ëĮĢë
Ġë°© íĮ¨
Ġë°© ë¬¸
Ġë§Ī ìļ°ìĬ¤
Ġë¹Ħ ì£¼ìĸ¼
íĶĦ íĶ¼
Ġê³ł ê¸ī
Ġë¨¹ ìĸ´ìķ¼
Ġìĺ¤ë ¥´ëĬĶ
ê¶ Ī
ìĤ´ ìĹĲ
Ġëª¨ íĹĺ
ì¿ µ
ì¿ °ë
Ġëªĩ ìĭľ
Ġëªĩ ìŀĦ
Ġê²½ ìłľ
ëĤ¨ ì¹ľ
ê°ľë ©´
ì§Ģë ĪĦ
Ġ8 5
Ġë¶Ī íĥĢ
Ġìĭľë ıĦ
²Ħë ł¤
²Ħë ¦¬ê³ł
ıĦë ĲĺëĥĲ
ĠìķĮë ŀĮ
Ġëį° ë¯¸ì§Ģ
ĠíĬ¸ë £¨
¶Ģë ¶Ģ
Ġëĭ¨ ìĪľ
ê±¸ë ¦°
Ġë¯¸ë ª¨
Ġë§Įëĵ¤ ê¸°
ĠëıĦë °°ë
íĺ¸ë ŀĳ
ëıĮ ìĿ´
ë¶Ģë ıĻìĤ°
Ġë¬¸ìłľ ëĬĶ
Ġê´Ģ ìĭ¬ë
ìĿ¸ê±° ì§Ģ
ĠìĮ Īë
ĠíķĻ ìĥĿ
ê·¼ë ¬´
¶ķìĿ´ëĵ¤ ìĿ´
ìª½ ìĿ´
ŁŃ íĤ¤
íķŃ ìĥģ
íķłê¹Į ìļĶ
Ġíĺ¸ë ĤłëĳĲ
Ġíİĺ ê·¸ìĺ¤
ĠìĽĶ ê´ĳ
Ġì²Ń ìĨĮ
Ġë§Ĳë ³µ
íĥľë ¡ľ
ĠëħĲê¸Ģ ìĹĲ
ĠìºĲ ìĬ¤íĦ°
íģ¬ë¡ľ ìķĦ
Ġìķłë¯¸ë ĵ¤
ìĹ¬ì¹ľ ê°¤
Ġë¶ĪìĮį íķ´
ìĪŃ ìķĦ
ìłĲë ĮĢ
Ġì¢Į íĮĮ
ĠìļĶë Ħ¤
ìĤ¬ëŀĮëĵ¤ ìĿĢ
ìŀĳëħĦ ìĹĲ
Ġk t
Ġë²Įë łĪ
Ġìĸ´ëĸ»ê²Įë Ĳ¨
Ġìĩ¼ë ¯¸
ì´ĪëĶ© ëķĮ
Ġë°©ìĸ´ êµ¬
ĠíĻĶìŀ¥ ìĭ¤
ROCKingRoll A
3 7
f c
Ġ ãĦ²
ìĹĲ ëĭ¤ê°Ģ
ìĿ´ë ªħ
¦¬ ì¹ĺ
ê¸° ìĿ¸
Ŀ¼ íĥĢ
ĠìĿ´ ê²Įë
ĠìĿ´ íĮĢ
ìĿ¸ íģĲ
ìĤ¬ ìķ¼
ìĤ¬ ìŀĲ
ìĿ¼ ê±°
¹Ħ íĭ°
ìĿĺ ìĽĲ
ê°¤ ì§Ī
¦¬ë ¸Ķ
¶Ģ íĦ°ë
¶Ģ íĦ´
ëĤĺ ê°Ģ
ĠìķĪ íķĺëĦ¤
ìĸ´ë Ĩĵê³ł
Ł¬ ìĦľ
íĥĢ ìŀħ
ìĥĿ ì¡´
²Ī ì§¸
Ġë³´ ìĿ´
ìº İ
Ġì§Ģ ê°ĳ
ìĤ¬ë £Į
êµŃ ìŀ¥
Ġìĭľ ìłĲ
ĠìĬ¤ ìľĻ
Ĥĺë ´Ħ
ĠëŃĲ ëĭĪ
ëĵ¤ ìĿĺ
ĠëĮĢ íķľë¯¼êµŃ
íħĮ ëĭĪ
ìĺģ íķĺ
ĠìĿ¸ ê¸°ê°Ģ
ĠìĹ¬ ìŀ¥
ìľĦ íķ´
Ġê¸° ê´´
Ġë§Ī íķ¸
Ġì½ ¤ë³´
ìĨĮë °Ķë
Ġë§ŀ ì¶°ë
Ġ4 7
Ġì¡° ìĤ¬
ìķ¼ë §Ī
íĢ µ
ĠìĿ¼ ìĦŃ
ìĹŃ ìłĦ
ìłĦë §Į
ĠíĨ ¤
ëıĦë °°
ìī Ĳë
ĠëłĪ ìłĦ
Ġê°¤ íĥŃ
Ġ6 1
Ġë°Ķ ëĭ¥
ë°° ê²½
ë³µ êµ¬
Ġíķł ê±°ë©´
Ġìŀĺë §ŀ
Ġì¢ĭìķĦ íķĺëĬĶëį°
ìĺ¬ë ĵ¯
ìŀĸ ìĸ´
ĠíĥĢ ìĿ´
ĠíĥĢ ìŀĦ
ĠìŀĲë £Į
Ġì£½ ìĿĢ
Ġë©Ķ ì¢Ĩ
ìŀ¬ë ĵ¤
Ġë½ĳ ê³ł
ĠìĹĲ ìĦľ
ë°Ķ ëĭ¥
ê±¸ë łĪ
ëĵľë łĪìĿ´íģ¬
íĶĮë ¦ŃìĬ¤
Ġìĭ¸ ìĿ¸
ë²Ħ ìłĦ
ì§Īë ¡ľ
Ġíķ© ë¦¬
Ġìłĳ ëĬĶëĭ¤
ëĭ´ ì£¼
ĠëķĮ ëĬĶ
ħ¸ë ¬´
ê°Ķ ìĿĮ
ĠíķľêµŃ ìĿ¸
ì²´ë ł¥
íĿĳ íĿĳ
ìª½ ìĿĢ
ì»¤ë ®¤
ĠìķĦìĿ´ë ıĮë
Ġë³Ģ íĻĶ
ìĹł ì¹´
ëĬĲë °Ķ
ë´ī ì¤Ģ
íĥľë ¯¼
Ġ16 0
Ġìĵ¸ë §Įíķľ
ĠëĤ® ë°©
³Ģ ê²½
ê·¸ëŁ¬ ëĭĪê¹Į
Ġì§¤ë ħĢ
ĠìķĦë¬´ ê±°ëĤĺ
Ġë¹Įë ł¤
Ġëĸłë ĤĺìĦľ
ĠëĤĺìĻĢ ìķ¼
Ġì¸ Ħ
Ġë¬´ìĦŃ ëĦ¤
Ġìĸ´ìļ¸ë ¦¬ëĬĶ
Ġëª¬ ìĬ¤íĦ°
ĠíķĦìĪĺ ìŀĦ
Ġì¡°ìĦł ì¡±
ĠíĿĲë ¦Ħ
ê¿Ģë ²Į
ëĿł ëĭĪ
ĠìĤ¬ìłĦ ìĺĪìķ½
ìŀĲì£¼ êµŃë°©
ëĤļ ìĭľ
ĠìĽĥìĿĮë ²¨
ROCKingRollA gainìĭłê³¡íĻįë³´ìĻĶíĤ¹ë¡¤
6 2
A Y
r o
t e
ľ ëĭ¤
Ń Ĳëħ¸
Ġë ±ĥ
ìĿ´ ìĿĢìĥģ
íķĺ ìľĦ
Ġê° ¸
ìĬ¤ íİĺ
ìĬ¤ ìľĦì¹ĺ
ê¹ Įëĵ¤
ë§ ĪëĤĺ
íķľ ìĬ¹ìļ°
ë° ´ëĵľ
ĠìķĦ ê°Ģë¦¬
íķ´ ìĦ¤
ìĥģ ìĿĦ
ĠëĤĺ ìĿĢê±°
Ġê°Ģ ë³¸
ì¹ĺ ì§Ģ
ì¹ĺ ê²Į
ë§Į ìĿ´
ê·¸ë ł¤
ê·¸ë ¦½
ĠìķĪë ¯¿
ĠìķĪë ĮĲ
ê°ľ ìŀ¥
ê°ľ ìĶ¹
Ġìĺ¤ ì¤Į
Ġê°ľ ìĦł
Ġê°ľ ìĥĪëģ¼ëĵ¤ìķĦ
ìĦ¸ ëĬĶ
ìĹĨ ê¸Ķ
ĠëĲ łëĵ¯
ì» ¨ë
ĠëŃĲ ìĶĢ
Ġíķľ ìĭľê°Ħ
©Ķ ìĺ¤ëĦ¤
ĠìĪĺ íĺ¸
ìĹ° ìłĦ
íģ¬ íĬ¸
ìĭľë ¥¼
ìĭľë ĦĪì§Ģ
Ġ5 9
Ġìĸ´ëĸ ¤ë
ì± Įë¦°ì§Ģ
Ġê³ł ìĸĳ
íĶĦë §ģ
Ġìĺ¬ë ¦°ëĭ¤
ëħĦ ìłĦìĹĲ
ĠìĥĿê°ģ ìĿĦ
ìĨ¡ ê°Ģ
íķĻ ê¸°
Ġíķľë ĮĢ
íĶĮ ìĿĢ
Ġë¬¸ íĮĮ
ì¹´ë Ŀ¼
íķłë ł¤ê³ł
ìĶ¨ ê°Ģ
ìį ¸ë
Ġìµľ ìķħ
Ġíķ´ë ³´ë
ë°° ê¸°
ĠìĤ´ ê³ł
ë§Ĳ ìĿ´
ì´Ī ê¸°
ĠíĶ¼ ê°¤ì§ĳ
ĠãħħãħĤ ãħĭãħĭ
Ġë§Ŀ íĸĪëĦ¤
Ġë²Ħ ì¦Ī
Ġë¶Ģë ¥´ëĬĶ
Ġë¨¸ ìĦł
ì§ķ ìĸ´
ĠëĶĶ ì½Ķ
ìĦ¸ë ¡ľ
Ġëĭ¨ íĨ¡
ĠìĦľ ê±´ì°½
ì¡± êµ¬
Ġëĵ ĢëĿ¼íķľ
Ġìĵ°ë łĪ
Ġê¹Į ì§Ī
ìķĦëĭĪë Ħ¤
Ġê´ľì°® ëĥĲ
ë§ĮìĽĲ ì§ľë¦¬
ª¨ë ľ¨
ĠìĬ¤ë §ĪíĬ¸
ìľ¤ ìĦĿ
Ġê°ģ ê°ľ
ëĬĲ ê¿Ī
Ġíĸī ìłķ
Ġê³¼ ìŀĲ
ê°Īë ĵ¯
³´ëĬĶ ê±°
ëĲ ĲëĦ¤
ê·¹ ê¸°
ëĳĲ ê³ł
Ġìļ´ ìłĦ
Ġì»¤ë ¯¸ìħĺ
Ġëĸ¨ìĸ´ ì§Ĳ
ĠíĶ¼ë °©
ê³Ħë ¥¼
ì¶©ëĵ¤ ìĿ´
Ġë£ ¨ë¦¬ìĽ¹
ìļ± ìĿ´
Ġì±Ķ íĶ¼ìĸ¸
ĠíĻ© ê¸Ī
íİĻ íĬ¸
ìķĦëĬĶ ìĤ¬ëŀĮ
Ġì¢ĭìĿĢê±° ìŀĦ
Ġë°°ë ©Ķ
ĠëıĦìĻĢ ì£¼ìĦ¸ìļĶ
Ġì¢Į íĳľ
ĠíħĮë §Ī
§Įíģ¼ ìĿĢ
ë¹ħ íŀĪíĬ¸
Ġê°ĸ ëĭ¤
ĠìłķëıĦ ëĬĶ
íŀĮ ê±°
ĠíĭĢëĶ± ëĵ¤
ª° ìĿ´
ìĿ´ìģ ¨
ãĦ±ãĦ±ãĦ±ãĦ± ãĦ±ãĦ±ãĦ±ãĦ±
ê¶ģê¸Ī íķľê²Į
ãħĩãħĩãħĩãħĩ ãħĩãħĩãħĩãħĩ
Ġìŀ¼ë ¯¼
Ġë°°ê²½ íĻĶë©´
Ġì¶©ë¶Ħ íŀĪ
ìĭłë°ľ ìĸ¸
b b
h z
© ëĭĪëĭ¤
ë ľ¸
Ĥ Ħ
Ń Ĳë
ëĬ Ĵ
ľë ¯¸
Ġìķ İ
Ĥĺ ìĺ¤ëĬĶ
ìĿĢ ìļ°
Ġì§ ł
Ġìĺ Ľ
íķľ ëĭ¬
Ġëĭ ¨ë°ľ
ìĭľ íĤ¤ë©´
ìĿ¸ ìłĲ
ìĿ¸ ê±°ê°ĻìĿĮ
íķĺë ł¤ëĤĺ
ĠìĻ ĶëĦ¤
¬´ ìĭľ
ìłķ ê°Ģ
ìĿ¼ ì°į
ì£¼ ê±°
Ġê°Ģ ìłķ
ĠìķĪ íķľëĭ¤
ĶĶ ìĬ¤
ìĹ¬ ìķ¼
ĠìķĪë ³´ë
íŀĪ ëĬĶê±°
ìĺ¤ë Ŀ¼ê³ł
Ġ3 1
ĠìĬ¤ íĶ¼
ê²ł ì£ł
ëĵ¤ ê³ł
ìĺģ ìĹħ
ĠìĥĿ ìĿ¼ë
Ġíķľ ìĭĿ
Ġíķľ ê°ķ
Ġì¢Ĩ ëĲĺ
ê°Ģë £¨
©Ķ ìĿ¼
ê²½ ìĥģëıĦ
Ġê¸° íļį
Ġìŀĺ íķĺëĥĲ
ĠìŀĲ ì²´ëĬĶ
Ġë³´ë ¹Ķ
Ġë² ¨ë
Ġìĭł ì§Ģ
ëį ´ë²Ħ
Ġë´ ĩ
Ġ4 9
ì± ķ
íı¬ íķ¨
ìķ¼ë Ĳł
ìĦ¤ ì´Ŀ
ĠìĦ± ê³¼
ìĹŃ ê²¨
ë¶Ħ íĥķ
Ġì§Ģë Ĥľ
ì¹´ë ŀĳ
ì¢ĭ ëħ¸
ĠìķĬ ëħ¸
íĮĲ ëĭ¤
ĠëıĦ ìłĢíŀĪ
ìķĪë Ĥ¨
ì°¬ ìĽĲ
Ġíķ´ë ³¼ê¹Į
ĠìĺĪ ìĸ¸
ê°ľë ´ī
ì¹ĺë ŀĳ
ĠìĤ´ ìĿ¸ë§Ī
Ġìŀĺë ½ĳ
ĠíĴ Īë
ĠíĶ¼ ìĬ¤
ĠìļĶ êµ¬
Ġë§Įë ĵ¬
ĠëĿ¼ ëĬĶ
Ġìį ¼ëĬĶëį°
Ġì£½ ìĿ´ê³ł
ĠëĬĲë °Ķ
ìĦ¸ë ł¥
ĲëĿ¼ ìĿ´
ëĭ¬ë ¦¬
ë²Ħ íĬ¼
ìĭ¤ë ĵľ
Ġê°Ī ê¹Į
Ġì°¸ ê°Ģ
Ġë°± ìĭł
§İ ìĿ´ë
ĠíĮĮë ŀĢ
ĠìĻĦ ê²°
ìŁģ ìĿ´ëĵ¤
ë§¤ ìĿ¼
Ġì¤Ħ ìĸ´ë
ĠêµĲ íĨµ
íĹ¤ íĹ¤
ë¶Ī ê°Ģ
ĪëıĦ ìļ°
Ġë§¤ë ²Ī
Ġë¯¸ì³ ¤ë
ëĳ ł
Ġì²ĺë ¨¹
ëĮ Ħ
ë¡ľë ¹Īì¹ĺ
íļĮë ³µ
íķĺê¸´ íķ¨
ì¤¬ ëĭ¤
Ġë²ł ìĿ´
ê°Ķë ĥĲ
Ġìį¨ ìĦľ
ìĽł ìĿĮ
ìĿ¸ì¤Ħ ìķĮ
ĠëĨĪëĵ¤ ìĿ´
°°ë ĵ¤
ìĤ¬ëŀĮëĵ¤ ìĿ´
ìĹ¬ìŀĲë ŀĳ
íı´ë ĵľ
ìĭľíĤ¤ ëĬĶ
Ġê¶ Įë
ĠíĮĿ ëĭĪëĭ¤
Ġë» ĺ
ĠìĨĮê°ľ íĮħ
ĠëĦĺë ª¨
ëĦ¥ ìĬ¨
·Ķë ¹¡
ĠëĮĢê¹¨ë ¬¸
Ġì»¤ë¦¬ ìĸ´
? ""
C T
e w
f eat
¬ ëĬĶëį°
ë ¡¯
Ġ !!
ģ Ĭ
Ĳ ı
ĳ ìĿ´
ê¸ ©
ìł ĪëĮĢ
ìĦ ¬ë
ìĺ Į
ìķĦ ìļĶ
¦¬ ìĹĲ
Ŀ¼ ëĬĶê±°
Ġë§ ł
Ġë³ ´ëĭ¤ë
ìĤ¬ ê¸°ëĦ¤
ìĥģ íĺĦ
ìĿ¼ ê°Ħ
ëıĦ ìłĦ
ìłĦ ìĥĿ
êµ¬ ê¸Ģ
ĠìķĪ íĸĪìľ¼ë©´
ĠìķĪ ìĵ°ëĬĶ
ìĭł ìłķíĻĺ
ìĿ¸ë §Į
ìĿ¸ë ¶Ħ
Ġìļ ±
ĠíĮ į
ìĸ´ë ³¸
ìĸ´ë ´Ħ
ĠìĿ´ë Ł´
Ġìľ Ī
ĠìĹĨ ìĹĪìĿĮ
Ł¬ ê°Ħëĭ¤
ìĶ ¸
ê±´ ê°ĢìļĶ
ìŀĪ ëĭ¤ê³ł
Ġì¹ ¸ëĤĺ
Ġê°ľ íĦ¸ë
Ġì§Ģ ìĨį
ì§ģ ê´Ģ
ìħ ľë
Ġì§Ħì§ľ ìŀĦ
Ĥĺë ĵ¤
ìŀĲë ĥĲ
ìĺģ ìĿĢ
ëı ¼ë
ê²½ ìļ°
Ġê³µ ìĨį
ĠìŀĲ ìľĦ
ëĤ´ ìĹŃ
ë² ħ
ìĦł ê±°
íĭ° ì¦Ī
ë¦¬ ëĬĶ
Ġ5 6
ëĭ¹ ìŀ¥
ìĿ¼ë ³¸ë
ìŀ¬ ëĬĶ
ìĽĮ ìļĶ
Ġë¨¹ ëĬĶëį°
ë¡ľ ìĸĦ
ì°½ ìĿ´
ìłľë ŀĳ
Ġë¬¸ íĻĶ
Ġë¬¸ íķĻ
íį¼ ìĦŃ
íĨłë §ī
íĨłë §ĪíĨł
íķľê±° ê°ĻìĿĢëį°
Ĥ¨ ìĿĢ
íģ¬ë ¡ľë
Ġíķ´ë ´Ĳ
Ġ6 4
Ġìĭ¤ íĹĺ
Ĥ´ ìļ©
íĻ© íĿ¬ì°¬
Ġë°ķ ìłķìĪĺ
Ġë°ķ ì£¼íĻį
Ġíķł ìĪĺ
íĻĶë ¬¸
ĠíĻķ ìŀ¥
ë°ķ ì£¼íĻį
ĠìļĶ ì¦
Ġë§Įë §Į
ìķħ ë¬¼ê³ł
ĠìĹŃ íķł
ãħĭãħĭãħĭãħĭãħĭãħĭãħĭãħĭãħĭãħĭãħĭãħĭãħĭãħĭãħĭãħĭ ãħĭãħĭãħĭ
ĠìłĲ íĶĦ
ìĶ¨ë°ľ ìĶ¨ë°ľ
ĠìŀĲë §ī
Ġì£½ ìĿĦ
ìŀĺ íķ´
ĠìĨĮë °Ķë
Ġì£¼ë ¨¹
Ġëĭ¨ íĨ¡ë°©
íĥĪ ê°¤
Ġìĭ¬ íķĺëĦ¤
Ġë§¤ ìŀ¥
Ġì»¤ ìĬ¤íħĢ
ë§Įë ¶ķìĿ´
ë¯¸ë Ĥĺ
ãħģ ãħģ
ĠãħĨ ãħİãħĮãħĬ
ĠëĤĺìĻĶ ìĿĮ
íĹ¤ ì¹´íħĮ
Ġëĭ¤ìĿĮ ìĹĲ
ĠëĶ° ì§Ģë©´
14 0
Ġë¶Ļ ìĸ´
Ġë¶Ļ ìľ¼ë©´
Ġp vp
Ġì§ĢëŀĦ íķĺëĬĶ
ĠíĮĶë ¡ľìļ°
Ġë§Ĳë Ŀ¼ê³ł
ìķ°ë ĵ¤ìĿ´
§¤ë Łī
Ġì¤ĳìļĶ íķ¨
ê²¼ë ĥĲ
ìĬ¤íħ Ł
ĥĪ ëĬĶëį°
Ġì¹ľêµ¬ë ŀĳ
Ġê·¸ëŀĺ íĶĦ
Ġë¯¸ìķĪ íķ´
ĠëĳĲë²Ī ì§¸
ĠìĽ¨ ìĿ´ë²Ħ
ĠëĴ¤ë ¡ľ
Ġê²¨ë ĵľëŀĳìĿ´
Ġê³µíĨµ ìłĲ
E A
F A
h t
ëĭ ¨ë°ľ
ìĿ´ ì²ĺ
ê°Ģ ìķ¼ì§Ģ
íķĺ êµ¬ëĤĺ
íķĺ ê²łìĬµëĭĪëĭ¤
Ġìŀ ī
ê¸° ìĥĿ
Ġì§ Ħë¡ľ
ê¹ Ĳë
íķľ ê²ĥ
ìķ¼ ê°Ģ
ìĭľ íĻĺ
ë° ĺê¸°
ë³ Ħë¡ľ
ĠìķĦ ì¸ł
ĠìķĦ ëĭ¤ë
ìĺ¤ ëĭĪê¹Į
ì£¼ ê°¤
ì¶ ĺë
ìłĦ ìļ©
ìĦ± ìķł
ì½ §
Ġê·¸ë ¶Ħ
ëĬĶê±° ìķĦëĭĺ
ĠìĿ´ë ¥Ļ
ìĹ¬ ê³łìĥĿ
²Ħ ëĬĶ
ĠìĤ¬ ëĬĶëį°
Ŀ¼ë ¯¸
ĠìķĪë ³´ê³ł
ĠìķĪë Ĳł
ĠìĽ ¬ë
ìĺ¤ë Ģ¨
Ġê°ľ ì§ĢëŀĦ
Ġìĭľ ìľĦ
Ġìĭľ íĤ¨
ìħ °
Ġíĥ Ĳë
ëı Įëĵ¤
ëı Įë¦¬
ì¹´ ì¹´
ĠìĹ¬ ê¸´
Ġíķĺ ì°¨
ĠìĪĺ ìĤ¬ëłĮ
Ġê¸° ìĤ¬ë
Ġë§İ ìľ¼ë©´
ìĦł ìĪĺëĵ¤
íĭ° ìĬ¤
Ġê±° ìĬ¬ë
ìĬ¹ ë¶Ģ
Ġì£¼ ì§Ģ
Ġì£¼ ê³µ
ë¶Ģ ì²ľ
ĠìĿ¼ ê°Ħ
Ġëĭ¤ë ¥´ê²Į
Ġê·¸ ê±¸
ìģ ł
ë¶Ħ ìĦĿ
ìĿĦë ķĮë§Īëĭ¤
íĪ¬ ìŀĲ
ĠìĹ° ìĺĪ
ĠíĿ ł
ĠãħĪ ê°Ļ
íķľëĭ¤ ë©´
Ġë°ķ ê³ł
Ġë°ķ ë¯¼
ê²Ģ ìĥī
ë°ķ ìłķ
ë°ķ ìĽĲìĪľ
ìĿ´ë²Ī ëĭ¬
Ġìķ¼ ìĭĿ
Ġìĵ° ì§Ģ
ĠìĦ¸ ìĿ¼
ĠíĸĪ ìĹĪëĬĶëį°
°Ľ ëĦ¤
Ġëĵ¤ìĸ´ ê°ĢìĦľ
Ġê¹Ģ ìŀ¬
ë© ¤ë²Ħ
ĠìŀĲë Ĥ³ëĮĢ
Ġë³¸ ìĦŃ
Ġì°į ìĿĮ
íĶ½ ëļ«
ìĮ ĵ
Ġì£¼ë Ħ¤
³ĳ ìĭłë
ìķĺë įĶëĭĪ
íĸĪëĭ¤ ëĬĶ
ìĻķ êµ´
Ġìĭľìŀĳ íķĺëĬĶ
Ġëĸ¡ ìĿ¸ì§Ģ
Ġì§ģ ìłĦ
ĠìĿ´ë²Ī ìĭľì¦Į
ĠìĿ´ìģ ľëį°
Ġê´ľì°® ì§Ģ
ĳĲë ©´
Ġë§Ľ ìŀĪìĿĮ
ìĸ¸ë įĶ
ĠíıŃ ìĤ¬
ĠìĮ ĺ
Ġì²ľ ì²ľíŀĪ
ìĬ¬ë ¡¯
ĠíĶ¼ë İģ
ê²½ê¸° ëıĦ
ë´ī íĢ´ëĵ¤
Ħĺ ìĸ´
ĠíĻĺ ìŀ¥
Ġãħĭãħĭãħĭãħĭãħĭãħĭãħĭãħĭãħĭãħĭãħĭãħĭãħĭãħĭãħĭãħĭãħĭãħĭãħĭãħĭãħĭãħĭãħĭãħĭ ãħĭãħĭãħĭ
Ġíĳľ ìłĪ
ĠìĬ¬ íĶĪ
ìĹĳ ìĬ¤
Ġíĥĳ ìĬ¹
Ġëĭ´ ì£¼
ĠìĻ¸ë ª¨ë
Ġìłķìĭłë Ĥĺê°Ī
Ħë¦¬ íķĢ
Ġìĥģê´Ģ ìĹĨìĿĮ
ìŃ ī
Ġë¶ģ íķľ
ĠìĿ´ìģľ ê±°
ĠìĦ¸ê³Ħ ê´Ģ
ì¡ĭ ëĦ¤
íķľíħĮë §Į
¦¼ë ıĦ
ìŀ¼ë ¯¼
Ġì°¬ ìĸĳ
Ġìļ°ë¦¬ë ĤĺëĿ¼
Ġë¸Ŀ ëĶ±
ëŁ¬ë ¸Ķë¦¬ì¦Ī
ĠìĮī ê°ĢëĬ¥
Ġìį¸ë Ħ¤
µ¸ë ¹Ħ
ê°ĢëĶĶ ìĸ¸
e m
h at
y p
Ħ Įë
Į Ķ
ŀ Ĺ
ìŀ łë
ĺë ħ¸
ê°Ģ ìĹĲ
ìĿ´ë įĶë
Įë ©´
ìļ ľ
ê¸° ìŀĦ
ê¸° ìŀĲ
Ġì§ ¸
Ġìĺ ¹
íķľ ê±´ëį°
íĥ ¬ë
ĠìĿ´ ìłĦ
Ġëĭ ĺ
ìŀĲ ì²´
ĠìķĦ ìĭ¸
ìľ¼ë ©´ë
ħ¸ ê°Ģ
ìĪĺ ê¸ī
Ġê± ´ëį°
ł¤ ëĭ¤ê°Ģ
¨¹ ì§Ģ
Ġìľ Ħë¡ľ
ĠìĹĨ ìĹĪëĬĶëį°
ì¼ ¯
ìļ° íĿ¥
ìĻĢ ìļ°
ìŀĪ ê¸Ķ
ìŀĪ ìĸ´ìļĶ
Ġìĺ¤ íĶ¼
Ġìĺ¤ íģĺ
Ġê°ľ ìĥĪëģ¼ìķ¼
Ġëª» ë³¸
Ġê¹ »
ìłģ ìļ©
íķ´ë ³´ë
ĠëĮĢ íķ´ìĦľ
ãħ¡ ë°ľ
Ġíķľ ê°Ģ
¥´ íĬ¸
íĮĮ íģ¬
íķł ì¤Ħ
ê¸´ ê¸ī
ì²ľ ìŀ¬
ë§Ī ìļ°ìĬ¤
ê³Ħ ëĬĶ
Ġìĥģ ë°Ľ
Ġì¡° íļĮ
ë¡ľ ì¼ĵ
ìĿ´ëĭ ¤ë
ì°½ ëĵ¤
ĠìłĢ íıīê°Ģ
Ġìĺ¤ë ²Ħë
ĠëĤ¨ ìŀĲëĵ¤
Ġê²Į ìĿ´ëĵ¤ìķĦ
ĠìķĮ ìķĺëĦ¤
íĪ¬ êµ¬
§Īë łµëĦ¤
ê±¸ ê³ł
ê´Ģ ìĭ¬
ë§Īë ĮĢ
ìķ½ ê°Ħ
ì¹ĺë §Į
ĠìĶ¨ë°ľ ìķĦ
ìĿ´ëĿ¼ ìĿ´íĬ¸
ë³´ë Ŀ¼ë
Ġíŀ Ĳ
ëıĻ ìĥĿ
°ľë Ŀ¼
ìĻľ ì¼Ģ
Ġêµ¬ ëĭ¤
Ġë°° íı¬
ìľłë §Īê°¤
Ġê¹Ģ ì¢ħ
ãħĭãħĭãħĭãħĭãħĭãħĭãħĭãħĭãħĭãħĭãħĭãħĭãħĭãħĭãħĭãħĭ ãħĭãħĭãħĭãħĭãħĭãħĭãħĭãħĭãħĭãħĭ
Ġê¸Ģ ìĹĲ
ìĿĳ ì§Ģ
ê²¨ ìļ¸
ĠìłĦë ŀµ
Ġëĭ¹ íķĺëĬĶ
ê¸°ë Ŀ¼ê³ł
ëª¨ ìĬµ
ĠìķĦëĭ Ļ
¹Ħë ıĦ
ĨĪ ìĿĺ
ëįĺ ê±°
íĶĮë Ŀ¼
Ĥ´ë Ŀ¼
ë©Ķ ìĭľ
ĠëĶ± ëĮĢ
ê¸¸ë ĵ¯
Ġìķ½ ëıħëĮĢ
íĸĩ ìĸ´
Ġë§Ľ ìŀĪëĬĶ
Ġì¢Ĩê°Ļ ìķĦ
ĠíĻĶë Ĥĺ
Ġë¨¸ë¦¬ ìĥī
Ġê¶ģê¸Ī íķĺëĦ¤
íĮ¬ íĭ°
ĠìĦ¸ë ĮĢ
ĠìĦ¸ë Ŀ¼íķĮ
ĠìĿ¼ë³¸ ìĸ´
Ġì¼Ģ íĭĢ
Ġëĸ¨ìĸ´ ì§Ħ
Ġìĸ´ëĬĲ ìłķëıĦë
ë¶Ħë ªħ
Ġãħĭãħĭãħĭãħĭãħĭãħĭãħĭãħĭãħĭãħĭãħĭãħĭãħĭãħĭãħĭãħĭ ãħĭãħĭãħĭãħĭãħĭãħĭãħĭ
ĠëĤ¨ìŀĲ ëĬĶ
ë²Ķ ì£Ħ
ĠìĹ°ë ıĻ
ì¡Įë Ĥĺ
Ġë¹Įë Ł°
Ġd lc
ĠìĽĥê¸° ëħ¸
íĤ¬ë łĪ
ĠëŀŃ íģ¬
ĠìĥĿê°ģíķ´ë ³´ë©´
ëĭ¤ë©´ ìĦľ
Ġë» ¥
ì©Į ëĬĶ
ìķĦë§Ī ì¡´
ĠìķĻ ë§Ŀ
íĿĻ ìĪĺìłĢ
ìĥĮë °ķ
Ġë©¤ë ²Ħëĵ¤
6 4
L C
c t
Ĩ §
Ĳ ĲëĥĲ
ł Ĳ
Ġë ·°ë
ìĹ ĪëįĶëĭĪ
ìĿ´ ì¯¤
íķĺ ìĭľê¸Ķ
íķĺ ìħ¨
ìľ ķ
ê¸° ëĭ¤ë
Ġë§ ĪëĤĺ
Ġë§ ĺë§ĪíĨµ
ìĬ¤ ìľĦ
ìĬ¤ ì¹´ëĶĶ
ĠìĹ ³
ìĸ´ íĶĮ
ê¹ ľë
ĠìĿ´ ê²¨
ìķ¼ ëĬĶ
ìĭľ íĶ¼
ìĿ¸ ê±¸
íĶ Īë
ĠìķĦ ìĿ´ìĬ¤íģ¬ë¦¼
íķ´ ì§ĢëĬĶ
ìĿ¼ ìłķ
ìĿ¼ ì£¼
ì£¼ ìĭľê¸Ķ
ìĿĦ ì§Ģ
ì§Ħ ìļ°
ê°¤ íĶĮ
ìĦ± ëıĦ
ĠìķĪ íĮĶë
ìĿ¸ë ²¤
ìľł ê°Ģ
³´ ìĿ´ëĬĶ
Ŀ¼ë ©´ìĦľ
ê°ģ ìĿ´
Ġìłķ ëĭµ
Ġë³´ ìĭľê¸Ķ
Ġ3 4
Ġì² ¼
ì§ģ ìĽĲ
ê³µ ëªħ
ĠìĶ Į
ìŀĲë Ŀ¼ê³ł
Ġìĸ´ ìĥī
ĠìĿ¸ êµ¬
Ġì¢Ĩ ëĳĲ
Ġê°Ļ ìĿ´ë
ê²½ ìŁģ
ì¡° ê³ĦíĺĦ
íķł ê±¸
ĠìĪĺ ê°ķìĭłì²Ń
ĠìŀĲ ê·¹
ì²ľ ìĤ¬
¬¼ ìĿĢ
Ġë§Ī ìĿ¼ë¦¬ì§Ģ
Ġê³ł êµ¬ë§Ī
Ġê±° ìłĪ
Ġì£¼ ê°Ħ
Ġë¨¹ ê¸°
Ġíĸ Ħë²Ħê±°
Ġëĵ¤ ìĹĪëĬĶëį°
Ġìĸ¸ ìłł
Ġë§Ĳ ìĿ¸ëį°
ëĦ Ĳ
íķĻ ëħĦ
Ġëĭ¤ë ¥´ëĦ¤
ĠëĤ¨ ìķĺëĦ¤
Ġìĭľë°ľ ãħĭãħĭ
ĠìķĬ ìķĺëĤĺ
ĠíĹ Īë²Į
ĠëłĪ ìĿ´ëĵľë
Ġìŀ¥ ìĽĲìĺģ
ë§Īë ĦĮ
íģ¬ë Ħ¤
ĠëĲĺ ê²łëĦ¤
Ġìĸ´ëĶĶ ëĭ¤
ĠìĶ¹ ìĬ´
ë¬¸ ìŀ¬ìķĻ
Ġê°ķ ëĭ¤ëĭĪìĹĺ
Ġìĭľë ĮĢê°Ģ
ĠìķĮë ©´
ìĺ¬ë ¦¬ëĬĶ
Ġë¨¸ ê°Ī
Ġë§Īë ¦¬
ê±°ê°Ļ ì§Ģ
ĠíĸĪ ì§Ģ
ì§ĢìķĬ ëħ¸
¡ł ìĿĢ
Ġì°į ëĬĶ
Ġìŀ¡ ëĬĶ
ĠíĶĦë ŀĳ
Ġê°Ĳ ìŀĲ
ĠìĦľ ìĸĳ
íĮĮë łī
ëŀ Ħ
Ġëĺ¥ ì°¬
ê²Ł ìĸ´
íĺģ ëªħ
Ġê¹Į ëĬĶê±°
ì§Īë §Į
Ġì½Ķë ¡ľëĤĺë
ìĹĩ ìĸ´
ìķĦëĭĪë ħ¸
ìĬ´ ê³ł
ëĭ´ íļĮ
ĠëķĮ ê°Ģ
ĠíıŃ ì¥Ĳ
ìľ¤ ìłķ
Ġëĵ± ê¸ī
Ġì³Ĳë °ľë
ìĥ¤ ìĿ´
ĠíķĻ ì¹ĺì»¤
Ġãħİ ãħİãħİ
Ġì¥ Ĳë
Ġë¸Ķë £¨ë
ìĤ´ë ©´ìĦľ
ìĬ¤íĬ¸ë Ŀ¼
Ġì¡´ ê²½
Ġíį Ħ
Ġìļ°ìĬ¹ íķĺë©´
Ġëĸ¨ìĸ´ ì§ĢëĬĶ
ì§Ģë§Ī ìħĪ
ëĲĺ ê³ł
ĨĪëĵ¤ ìĿĢ
Ġë¬¼ë Łī
ĠíĮĲ ìłķ
Ġì¦Ŀ ê°Ģ
Ġì°¨ë ³Ħ
Ġëĭ´ ìĽĲ
ĠìĿ´ë²¤ íĬ¸ë
Ġê±´ë ĵ¤
íĹĮ íĦ°
ìĥĿê°ģíķ´ë ³´ë©´
Ġì§Ī íĪ¬
ĠìŁ ģ
ìĸ´ëĶĶ ìĦľ
Ġê´´ë ¬¼
Ġë£¨ë ¨¸
íĺ¹ íķľ
ĠìĿ¼ëŁ¬ë łĪ
Ġì°Į ì°Į
Ġë¶Ģëª¨ ëĭĺ
íĲ ģ
ĠìĥĮë °ķ
ëł¤ë ©´
ĠìĤĲë ¶Ģ
ĠíŀĪë¡ľ ìĿ¸
Ġê°ľì© ĮëĦ¤
ìĬ¤íĬ¸ë¦¬ë ¨¸
Ġê¼¬ëĿ¼ë °ķ
h d
w a
¥ ´ëĭĪê¹Į
§ ¡
³ ¶
³ ´ëĭ
ħ Ĳë
ı Ħë¡ľ
Ġë ±Ģ
ì§ ł
ìĿ´ íĽĦ
ê°Ģ ìĿ´
ì§Ģ ëĤľ
ê³ł ìĸĳ
Ħë ıĦ
ĠìĿ Ħ
ìĹĲ ëĮĢ
ìĹĲ ëĶĶ
ìĿ´ë ¸Ĳ
Ġë§ ĺë
Ġë³ Ģë
ìĭľ ì¦Ī
ì° ¸ë
íķĺë Ĥ´
íķ´ ìłģ
ìĺ¤ íģĺ
ìĿ¼ ìĸ´ëĤĺ
ì£¼ ê°Ħ
íķĺëĬĶ ìĿ´ìľł
ì¦ Īë¡ľ
ĠëĤĺ ê°Ħ
ĠëĤĺ ìĿ´ê°Ģ
Ġê² ¸
ìłĦ ìĨĮë¯¸
êµ¬ ëĭ¤
´ëĭ ´ë
ìĭł ìĦŃ
ĠìĻľ íķ¨
Ġê·¸ë ¦¬ëĬĶ
ë§Į ê°ľ
ì¤ĳ ìĦŃ
Ŀ¼ë ¥¼
ĠìķĪë Ĳĺëħ¸
Ġ3 8
Ġì¤ ĺëıĦ
ê³µ ê¸°ìĹħ
Ġìĭľ íĮĶ
Ĥĺë ¦°
íĸĪ ìĿĦê¹Į
íĸĪ ìĸ´ìļĶ
êµ¬ë ĥĲ
Ġì¢Ĩ ë°ķ
Ġíķĺ ê¼¬
ìĹ° ìĭľ
ìĭľë ħ¸
Ġë² Ķë
ë§Ī ìĿ¼ë¦¬ì§Ģ
ãĦ± ãħĭãħĭ
Ġíķ´ ì¤¬ìľ¼ë©´
Ġìĥģ ëł¬
ëħ¸ ê°Ģëĭ¤
ëį ¥
Ġë§ŀ ìľ¼ë©´
íı¬ ê°Ģ
íĶĦë ©Ķ
Ġì» ¬ë
íķľë ħĢ
Ġì£¼ ê°Ģ
ìŀħ ìĿĢ
ë¡ľ ìĬ¤íĬ¸ìķĦíģ¬
ãĦ´ ãħĩ
ãĦ´ ãħĩãħĪ
ê¹Ģ ìŀ¬
ê¹Ģ ìļĶíķľ
ĠìĦ± ìĿ¸
Ġãħħãħ ħãħħãħħãħħ
íĨł ëĬĶ
Ġë¬¸ ìŀ¬
ì§¤ ìĿĢ
íİĺ ìĿ´íĬ¸
Ġê³Ħ ì¢Į
ìĥĪ íĤ¤
Ġê°ľë ª»
íĻĶë ŀĳ
Ġãħĩãħĩ ãħĩ
Ķ± ìĿ´
ë© Ģë
Ġë¦¬ ìķ¡ìħĺ
Ġë©Ķ ìĭľ
ìŀĺ ìŀĲ
ì¶ķ ìłľ
Ġì°į ìĹĪëĬĶëį°
ì°į ìĸ´
ĠíĽĦ ìŀ¥
Ġë³ĳìĭł ìĿ´
Ġëĺ¥ ëĥĲ
11 1
ê±°ë ¦¼
Ġë§ī ì°¨
ëĭ¤ë įĶëĭĪ
Ġê¾ ¼ë§ł
ĠìķĪëĤĺ ìĺ¤ëĤĺ
ëĸ ł
ĠíĨµ ìĿ¼
ĠìĤ¼ ì§Ħ
ĠëĤł ì¡°
ĠìĬ¤ë §Ī
ãħģ ãĦ±
ĠíķĻ êµĲë
ì¦Īë ³¼
ëĬĲ ê¸Īë§Ī
ì»· ìĿ´
íĪ¬ë ¦¬
íĪ¬ë ªħ
ĠëĤ« ëĦ¤
ĠëĶ° ìŀĩ
Ġì»¤ë §Ī
ë¶Ħë ıĻìķĪ
ìĿ¼ë³¸ ìĿĢ
Ġëª¸ ìĹĲ
Ġë¯¸ì¹ľ ìĥĪëģ¼
Ġëį°ëł¤ ìĻĢ
êµĲë ³´
ëħĦëĵ¤ ìķĦ
ëĨĪ ìĿ´
Ġê°Ģìł¸ ìĺ´
²łë ¦¬
Ġìłķìĭł ì°¨ë
íķĦë ĵľ
Ġì§Ī ì§Ī
ĠìĪ¨ ì°¸
ìĬ¤íı¬ ì¸ł
ìĹ¬ìŀĲë ĵ¤ìĿ´
ĠëĨĵ ê³ł
Ġìĸ´ì©Į ëĭ¤
Ġìĸ´ì©Į êµ¬
íĹ¬ë ¦°ìĿ´
íı´ë Ŀ¼
ê²ĥê°Ļ ìķł
ë¸Ŀ íį¼
ãħĵãħĵ ãħĵãħĵ
Ġê·Ģìĭł ê°ĻìĿ´
ìĤ´ì§Ŀ ìĦ¤ë
¯ ¼ëĵ¤
¿ Ķ
Īë §Į
ëĭ¤ íĸī
ê±° ìķĦëĭĺ
ıĦ ê°Ģ
¤ë ĵ¤
Ġíķ Ģ
ìĬ¤ íĶ¼ë¦¿
ìĪ «
Ġëĭ ¦
ìĭľ ì¦Įë
ì² ¼ë
ìĥģ ìĿĺ
ìłķ ìķ¡
íķĺëĬĶ ëĵ¯
ìłĦ ê³µ
íĦ ´ë
ĠìķĪ ìĶĢ
Ġìļ ĺ
Ġê·¸ë Ł¬ëĥĲ
ì¹ĺ ì¹ĺ
ìĸ´ë ´Ĳ
ĠìĿ´ë ħĦ
¨¹ ìĹĪëĬĶëį°
Ł¬ ê°Ĳ
ìļ° ìľł
Ŀ¼ë ıĦë
ĵľë ŀį
ĠìķĪë Ĥ´ë
Ġë³´ ìĪĺ
Ġë³´ ì¶Ķ
Ġì£ ł
ìĺ¤ë ¥¼
Ġê°ľ íĮĲ
Ġëª» íķĺëĬĶëį°
ê³µ ë§¤ëıĦ
Ġê¹ ¬
Ġê¹ İ
ĠëŃĲ íķĺê³ł
ìĹĪ ìĿĦê¹Į
ì¹´ ìĻĢ
Ġë¬´ ìĤ¬
Ġë¬´ íİĺíĨł
ĠìĹ¬ íĺĲ
íĶ¼ íķ´
Ġê³µ ìŀ¥
Ġê³µ ê³µ
ëĭ¨ ëĭ¤
ĠìŀĲ ìĤ¬
¡ľë Ŀ¼
ĠëĦĪë §Į
ê°ķ ëıĻ
Ġë§Ī ëĭĪ
ëĭ¹ íķĺê²Į
ëį ¸ë
ĠëįĶ ìĽĮ
ìļ´ ìĿ´
íĶĦë ¦°
Ġì¡° ë§Įê°Ħ
ê³¼ ëĬĶ
ê²ĥ ìĿĢ
ìļ°ë ¦°
íĨµ ìĪĺ
ì°½ ìĹĲ
ĠëĤĺë Ħ¤
ìĤ¬ëŀĮ ìŀĪëĥĲ
ìį ¼
ĠëĲĺ ëĭĪê¹Į
ĠìĶ¹ ê°ĢëĬ¥
ë³´ë ĵľ
Ĳľ ê±°ìŀĦ
ìĺ¬ ìĭľì¦Į
Ġë§Īë ĮĢ
ë°¥ ë¨¹
íĥĢë ĥĲ
Ġê¹Ģ ìļ°ìĦĿ
ãħĭãħĭãħĭãħĭãħĭãħĭãħĭãħĭãħĭãħĭãħĭãħĭãħĭãħĭãħĭãħĭ ãħĭ
ĠíĺĦ ì§ģ
ĠíĥĢ ëĬĶ
ê¸¸ ìĿ´
ĠíķĺëĤĺ ê°Ģ
ê³¡ ìĿ´
Ġìŀ¡ ìķĦë
ł¤ê³ł íķĺëĬĶëį°
Ġêµ¬ë ¦¼
ĠìĻĢ ìĿ´
ë©Ķ ê°Ģ
ê·ľ ëĬĶ
ìĸ¼ êµ´ë
Ġë¡ľ ê°ĵ
íıī ê·ł
ĠìĹ¬ìŀĲ íķľíħĮ
ĠíĦ° íĬ¸ë
êº¼ ìł¸
ìµľ ì¢ħ
ìĽĮë ĵľ
ë°Ķë ĤĺëĤĺ
ìļ´ë ĵ¯
ìĹĺë ¹Ħ
Ġë´Ĳ ìĦľ
ĠìĹ´ ìĸ´
ĠíķľêµŃ ìĹĲìĦľ
Ġìļ°ë¦¬ íĮĢ
ĠìĿ¸ë ²¤
Ġíģ¬ë ¡ľ
ëıħ ìĿ¼
Ġì²ĺìĿĮ ìĹĲ
ĪëıĦ íĻĺ
ìķĹ ìĿĮ
Ġíĥľ ê·¸
Ġíľ ĺë
ì°ľ ìĿĢ
Ġë°ĺë ³µ
ê¼¬ë ¦¬
Ġíİĺ ìĬ¤
Ġìłķë¦¬ íķ´ì¤Ģëĭ¤
Ħĺ ê²Į
ìĪĺìŀĪ ìĸ´
Ġíİĺë ¶ģ
Ġê·¸ë¦¼ ì²´
Ġìĸĺ ê°Ģ
Ġê¹Įë ©´
ëħĲê¸Ģ ìĹĲ
Ġì°Ĳ ìĿ´ìķ¼
ĠíĶĮ ìĬ¤
Ġì§ģìĹħ ìĿ´
ìĺģìĽħ ìĿ´
Ġb y
ìĹ¼ë³´ìĦ± ìĿ´
Ġë°Ģë ´ī
Ġë¬´ìĦľ ìĽĢ
ĠëĤĺìĺ¤ë Ĥĺ
Ġê¾¸ ëĭĪ
ê·ĢìĹ¬ ìĽĮ
ìĽĲìĺģ ìķĦ
ĠìĶ¨ë °Ķ
Ġì²ľë §Į
Ġìĸ¼ë§Īë Ĥĺë
ĠíŀĲë §ģ
ĠíĶĦë¦¬ë ¯¸
Ġìĸ¸ìłľëĤĺ ìĺ¤ëĥĲ
Ġë¨ ¼ë
Ġë¶ĢëŁ¬ ìĽĮ
ìķĦë§Ī ê¸°
ĠëĤĺìģĺ ì§Ģ
íįĦ íįĦ
Ġê³łë¯¼ë ĲĺëĦ¤
6 1
C OM
n s
s k
ë ĥĦ
Ħ ĺëĦ¤
ħ ¹
Į Ī
ĺ ìĶ¸
ļ ê±°
ŀ ĺëĵ¤
Ġë Ľ
íķ ´ëĭ¬ë
ìĿ´ ìħĺ
ìĿ´ ì¯¤ëĲĺë©´
ëĭ¤ ëĬĶê±°
ìĺ ¨ëĿ¼ìĿ¸
íķĺ ê¸¸
ìĿĢ ë¹Ħ
ìķĦ ìĬ¤
ìķĦ ìķħ
ìķĦ ìłĢìĶ¨
ê¸° ëĤĺ
ìĦľ ê²½
Ġíķ ¸ëĵľíı°
Ġê° Ķë
ìĬ¤ ìĽĮ
ìĸ´ ì§Ħ
íķľ ì²Ļ
ĠìĿ´ ì¶ĺíĸ¥
ìĻ ķìĿ´
ìŀĦ ãħĭãħĭ
íķĺë ĵł
ĠìķĦ ìĬ¤ë
ĠìķĦ ìĭľìķĦ
ìĺ¤ íĨłë
Ġãħ Ħ
¬´ ìĽĲ
Ġ1 30
ìĥģ ëł¬
ìłľ ìĭľ
ĠìĦ Ģë
§Į ìĿ´
ĠëŃ ī
¶Ģ ìĭ¬
ìłĦ íĻĺ
Ġìĸ´ë Ķľ
Ġê·¸ë ŀĳ
Ġì§Ħ ì¶ľ
Ġì§Ħ ìłķíķľ
Ġì° Ķ
ì¤ĳ ëıħ
ĠìĤ¬ ìĦĿ
ĠìĤ¬ ìĿĢíĴĪ
ĠìķĪë ¬´
Ġìłķ íĻĶ
Ġëı ¼ë
ëĮĢ íĨµëł¹
ìħ §
ĠìĬ¤ íĨł
Ġíĺ Ĳë
ĠëĮĢ ì¤ĳ
Ġì¢Ĩ êµ¬ë
Ġì¢Ĩ ìĤ¬ê¸°
ì¼Ģ íĭĢ
ĮĢë Ĥĺ
ĠìĹ¬ ìĻķ
ì¡° ìĿ´
Ġíķĺ íķĦ
íĮĮ íĮĲ
Ġê³µ íĺģì¤Ģ
Ġë§İ ì§Ģ
ëł ĲëĿ¼
ëĭ¹ íķ´ìĦľ
Ġìĭł ìĦŃ
ìļ°ë ŀĳ
ìķ¼ë §Ĳë¡ľ
Ġì£¼ ì°¨
ê³łìĭ¶ ê¸Ķ
ëħĦ ì§¸
ìĿ´ëĭ ¬
ê¹Ģ ìĦ±
ëĦ ¨
Ġíķľë °©
ìłľë ¥¼
ĠëĨ Ģë¦¬
ìĤ° ìĿ´
ìĤ´ ìĿ¸ëį°
Ġëª¨ ìķĦìĦľ
Ġë°Ľ ëĬĶê±°
íĪ¬ ìĸ´
íİĺ ëĬĶ
ĠëıĦ ìŀħ
íķĺì§Ģ ë§Ĳ
ì²Ń ìĨĮ
Ġë°Ķë Ŀ¼ë
Ĥ¨ ì¹ľ
êµĲ íĨµ
ê°ľë ¹Ħëĵ¤
ìĭłë łĪìĿ´ëĵľ
Ġë°Ķ ê¼
ìĿĢê±° ì§Ģ
ĠìĨĮ ìļ¸
Ĥ´ ìĦľ
Ġë°ķ ìķĦë
ì»¤ ëĬĶ
Ġë§Įë Ĥł
Ġë¶Ģë ¥´ë
ĠíĮĮ ìĬ¤íĥĢ
ĠëĿ¼ ìĿ´ë¸Įë
Ġê²° ê³¼ë
ìķħ ë§Ī
Ġ9 8
ë§Ŀ ìĥģ
íĤ¤ë ¦¬
ìĥī ê¸°ëĵ¤
ìŀ¡ ëĬĶ
ìŀ¡ ê¸°
¶ģ ìĿ´
ìĦ¸ë Ĥĺ
Ġì³ Ĳëĭ¤
Ġë½ĳ ìĿĮ
Ġë½ĳ ìķĦë
ëĮĢë ıĦ
Ġë³µ ìĬµ
ĠíķĦ ìĬ¹
Ġìĭ¬ íķľ
ëŀ ĺë
Ġìĭľìŀĳ íķĺë©´
Ġíķ¨ ê»ĺë
ĠëıĦë °ķ
Ġë§ī ìĥģ
íĻķ ìĿ¸
¨¼ ìłĢ
ĠìĻĶ ìĸ´
ĠìĦłë ħĢ
ìķĮë °Ķë
ĠíĦ° ì¡ĮëĦ¤
ê¸Ģë ¦¬
íĺ¸ë ıĦ
ìļ¸ë ķĮ
ãĦ·ãĦ·ãĦ·ãĦ· ãĦ·
íĴį ìĽĶëŁī
Ġìĭłë ¯¼íĺģ
íķĺê¸° ë¡ľ
ĠìĤ´ë ©´ìĦľ
Ġì²« ë°©ì¶ķíķĺ
Ġì¢ħ ë£Į
Ġìļ© ìĦľ
Ġìĭ¤ë ĵľ
ĠíĨł ìļĶìĿ¼
ĠíĨł íĬ¸ëĦĺ
Ġë¹¡ ì¹ĺëĦ¤
ì¡°ë ĪĪ
ĠìĦ¸ë ł¥
Ġë³´ëĬĶ ê²Į
Ġë§¤ë ¯¸
Ġìĸ´ëĸ¤ ê±°
ĠìĿĳ ìķł
ĠíĢ Ħ
Ġì·¨ ìĨĮë
Ġì²´ íģ¬
ë´ī íĢ´
~~~~ ~~
ìħĶ ìĦľ
Ġëıħ ìĦľìĭ¤
ĠëĨĢë ŀį
Ġíį¼ ìĬ¤íĬ¸
ëħĦëĵ¤ ìĿĢ
Ġt op
ë¸Įë Ŀ¼
Ġëĭ® ìĿĮ
Ġíľ´ ìĭĿ
ìĬ¤ì¹´ ìļ°íĦ°
ĠìŀĲëŁ¬ ê°Ħëĭ¤
it h
ĠëģĮ ê³ł
ĠíŀĲë Ł¬
¡łë į°
ãĦ¹ãĦ¹ ãĦ¹ãĦ¹
íģĲë ¸Į
ĠíĶĦë¡ľë ĵĢ
Ġë¬´ìłģ ê¶Į
Ġy ou
Ġì·¨ë ¯¸
Ġì¯ Ķ
Ġì¾ Į
ì¹´ëį° ë¯¸
íĤ¤ìĽĢíŀĪìĸ´ë¡ľ ì¦Īê°¤
ĠìĹĲë° ĺëį°
A R
B C
a i
n d
ª ¸ë
µ ¸
ì ĮĢë¨¹
ģ ¼ëĵ¤
Ĳ ì§Ģ
ì§ ¬
ê°Ģ ë°©
ìł Ĭ
¸ë ¹µ
ì§Ģ ë¬´
ì§Ģ ê°ĳ
ìĿ´ë Ķ©
ìļ ¯
ê¸° ìķ¼
Ġê° ¸ë
ê¹ »
ìĭľ ê¸Ģ
ìĿ¸ ìĭ¸ë
ìŀĲ ëĭĺ
íķ´ ì¡°
ìĺ¤ ì§ĢëĦ¤
ìĺ¤ íŀĪëł¤
ìĥģ ìļ°
ìłľ êµŃ
íķĺëĬĶ ìĥĪëģ¼ëĵ¤
ì§Ħ ê¶ģ
íģ °ë
ãĦ· ãĦ±
ìĽĲ ì¤Ģ
ìĸ´ë ¦´ëķĮ
ĠìĿ´ë ²¤ë
ĠìŀĪ ëĬĶê±°ìŀĦ
Ġì¢ĭ ê²Į
Ġì¢ĭ ê²łëĬĶëį°
ĠìĨ Ķì§ģ
ĵľë ħ¸
ê±´ ê°ķ
ĠìķĪë °ĽìķĦ
Ġêµ ³
ìĺ¤ë ıĦ
ìĺ¤ë £¨
Ġëª» ë½ĳ
ëĭĪë ¯¸
ìĹĪ ìĿĦ
íķ´ë ³¸ëĭ¤
íĸĪ ìĿĦ
ìŀĳ ìĿ´
ìŀĳ ìĹħ
Ġíķľ ìĦŃ
Ġì¢Ĩ ê°ĻìĿĢëį°
ìĨĮ ëĭĪ
ì¡° ì°¨
Ġê³µ ìĤ°
Ġê¸° ì¶ľ
ìĭ¤ ìĹĲ
Ġìŀĺ íķĺëħ¸
ĠìŀĲ ìĭĿ
ë² Ķë
ìĹ° êµ¬
ìĬ¤ë ²ħ
Ġë³´ë Ĥ´ëĬĶ
íĤ¤ ìļ¸
íĺ¸ ìĺģ
ìĭľë ²Į
ì²ľ ìĸµ
ê°Ĳ ìĿĢ
ĥ¥ ìĿ´
ìĨį ìĹĲ
ê°ķ ìĹ´
Ġì½ §
ĠìłĦ ìĽĲ
Ġë¹Ħ ìłķìĥģ
ì± Ķë
Ġíģ °ë
ĠìĥĿê°ģ ëĤĺëĬĶ
Ġì¶Ķ ì²¨
Ġìŀ¬ë ĦĮ
Ġìĺ¤ë Ŀ½
ª¨ ì§ĳ
ĠëĨ Ķë
ĵł ì§Ģ
Ġëª¨ ê¸Ī
Ġëªĩ ê°ľë
ìĿĦë ł¤ê³ł
§Īë ¬´
ìķĪë ĲĺëĦ¤
Ġìµľ ìłģíĻĶ
Ġê°¤ ìĿĢ
íģ¬ë ıĦ
ĠëĲĺ ëĬĶê±°ì§Ģ
ìĭľê°Ħ ìłĦ
Ġíķ´ë °©
Ġíķ´ë Ĩĵê³ł
Ġê³Ħ ìĪĺ
Ĳľ ëĭ¤ê³ł
Ġìĭ¤ ê²Ģ
Ġíŀ ĪëĤĺ
êµ° ìĿĢ
Ġìļ° ì£¼
ìĻľ ìĿ´ë
Ġìŀĺë §Įëĵ¤
Ġë¶Ģë ģĦëŁ¬
Ġìķ¼ ìĥĿ
Ġëĵľë Ŀ¼
Ġìį ¼ë
ìŀĩ ëĭ¤
ĠìĽĲ íĶ¼ìĬ¤
Ġì£½ ìľ¼ë©´
Ġë©Ķ ìĿ¼
ìŀĺ íķĺëĦ¤
ĠíĬ¸ë Ŀ¼ìĿ´
ê¸°ë Ŀ¼ëıĦ
ĠëıĮ ê³ł
£¨ë Ĥĺ
Ġì½Ķ ìĺµ
Ġìĺ¬ ìĭľì¦Į
ëĵľë ŀĺ
ł¸ ìĿĦëķĮ
Ġê±°ë ŀĺë
Ġìī Ĳë
Ġì¹ĺ íĬ¸
ìĹ½ ì¶©
¨¼ íĬ¸
ëģ Ħ
Ġëĭ¬ë Ŀ¼ê³ł
íľ ĺë
Ġìĺ¬ëĿ¼ ìĺ¤
íķłëķĮ ëĬĶ
ë³¸ìĿ¸ ìĿ´
Ġë³¼ ìĪĺ
Ġë¹Ħë ¹Ħë
íļ¨ ìľ¨
Ġê¼´ë ¦¬ëĦ¤
ìĤ´ë ķĮ
ĠìĹĲë ĶĶìħĺ
Ġì°½ ëł¬
ĠíĢ Ħë¦¬
³´ëĭĪ ê¹Ĳ
ê°Ĳë ´ī
ĠíĮ¬ ìķĦíĬ¸
16 0
Ġíĳľ íĺĦ
Ġëĺĳ ê°Ļ
Ġìı ĺë
Ġê°Īë Ŀ¼
Ġê´Ģëł¨ íķ´ìĦľ
Ġìĭľë°ľë ł¨ìķĦ
Ġíľ´ ì§Ģ
ĠìĿ´ìĥĪëģ¼ ëĬĶ
Ġë¯¸ì¹ľë ħĦ
Ġë§¥ ì£¼
ĠìĻĦìłĦ íŀĪ
ìĿ´ëĿ¼ë įĺëį°
ĠëŁ¬ ìĭľìķĦ
ê°± ìĿ´
íĮ¬ë ¯¸
ĠãĦ¹ ãħĪãĦ·
ĠìĻľìłĢë ŀĺ
Ġìŀ¼ë ¯¼ìĿ´
ĠìĿ¼ìĸ´ëĤĺ ìĦľ
Ġíľ´ë °©
ë» ĺ
ìĬ¤íĥ ¯
ĠìķĪëģ Ŀ
ĠLI ME
ìĬ¹ë¦¬ìĿĺ ìĹĺë¡¯
) @
e l
m c
r x
° ´
ĳ ¡
ł Ģë
ãħ ľë
ëĬ Ļ
ì§ ĸ
ìŀ Ķëį°
ìł ¯
ì§Ģ ê¸´
ê³ł ëĬĶ
ìĿ´ë ²Īë
íķĺ ìĭľëĬĶ
¦¬ ì½ĺ
ê¸° íķľ
ê¸° ìĥģ
ĠìĹ ´ë¦¬
Ġìĺ Īë¦¬
ĠìĿ´ ìĤ¬
ëĤ ¼ë
ë³ Ģë
ĠìķĦ ì¤Įë§Īëĵ¤
íķ´ ìĦ±
ìĺ¤ íķĺ
ì¢ ĩ
ìĥģ ìĹĲ
ìłľ ìĹĲ
ìłľ ëĭĪ
íĬ¸ ëĭĪ
Ġê¸ ±
Ġê°Ģ ëĶĶ
ìĦ± ê²©
¬¸ ìŀĲ
Ġëĭ¤ ìĦ¯
íĥĢ ìĿ´ê±°
... @.@
ê°Ħ ëĭ¤ê³ł
ĠìĤ¬ ê·Ģë
Ŀ¼ë įĺëį°
ĠìķĪë ĵľ
ĠìķĪë Ĳĺë
Ġìłķ ìĦĿ
Ġìłķ ì±ħ
ìķĦë ¡ľ
Ġêµ ¶
ìĺ¤ë ĶĶ
Ġê°ľ ì¢ĭëĦ¤
Ġëª» ëĵ¤
Ġëª» íķľëĭ¤
ìĦ¸ ê³Ħë
íħĮ ìĺ¤
ìłĢ ê±´
ĠìĹ¬ íĥľ
Ġíķĺ ì§Ģë§Į
ìĭ¤ ìĿ´
Ġìŀĺ íķĺëĬĶëį°
íļ ¨ë
¡ľë Ĥ¨ë
íģ¬ ê¸°
ìĦł ìĸ¸
Ġìľł ìĤ¬
Ġëĺ ł
°© ìŀĲ
Ġìĥģ ëĤ¨ìŀĲ
ë°© ìĹŃ
ĠìłĦ ì§ģ
ìļ°ë Ĥĺ
¥´ë ¥´
ĠëĦĪë¬´ íķľê±°
ĠìĥĿê°ģ íķĺê³ł
ë¡ľ ê·¸
ëĶ ¥
¨¸ë ĥĲ
ê²ľ ìŀĦ
ë¹Ħ ì¡´
ë¹Ħ ìľ¨
ì§ĳ ìĿ´
íķłë ł¤ë©´
ìķĪë ĵ¤
Ġê²½ ì¹ĺ
ìĺĪ ìłĦ
ê²łë įĶëĿ¼
ë³´ë ©´ìĦľ
Ġìĭ¤ ì²´
ĠíĤ¤ ìļ°ê³ł
ãħħãħ ħãħħ
Ġêµ¬ ìĽĲ
ìłĢë ¯¸
ìłĢë łĩê²Į
Ġë²Ħ íĭ°ë
Ġë¨¸ ê¼´
Ġê²° ë§Ĳ
ĠíĸĪ ëĭ¤ê³ł
Ġìį ¬ë
ĠëŃĶ ìĿ¼
ĠíĥĢ ìľ¨
Ġë¦¬ ìĸ¼ë
Ġì£½ ëĬĶ
ê²Įë Ĥĺ
ì§ĢìķĬ ìķĦ
Ġëĭ¹ íĻ©
ì§ķ ì§ķ
ìĻ¸ ê³¼
ìĮ ī
ìĦ¸ë ¦¬ì¹´
Ġìłģ ìĿĢ
ê» Ħë
Ġë½ĳ ëĬĶ
ĠìĦľ ìķ½
ĠìĦľ ìļ¸ëĮĢ
ëŀ ĸ
Ġëĵ ¬
ł¸ ëĭ¤ê³ł
ĠëĴ¤ ì§Ī
ĠìĦłë °°
ìķĮë ¡ľ
12 3
ê¸Ģë §Į
ê¸Ģë ŀ¨
ĠìĿĺ ìĻ¸
ĠíĬ¸ ìľĦ
Ġëª© ìļĶìĿ¼
íĶ¼ë ĵľ
ë¯¸ë ĵľ
ĠìķĦìĿ´ ì½ĺ
Ġìķħ íĶĮ
Ġê°¤ëŁ¬ë¦¬ ìŀħëĭĪëĭ¤
Ġë¹¨ ê³ł
ê¹Įë ©´
ĠìĿ¼ë³¸ ìĹĲìĦľ
ìŀł ê¹Ĳ
Ġë°ĺë ĵ±
ê¾¹ ìĤĲ
ĠãħģãħĮãħĬ ìŀĦ
ë¶Ħë Ĥ¨
ìŀĶ ëĭ¤
Ġìļ¸ íĬ¸ëĿ¼
ì²« ë°©
©Ķë ¦¬
ê¹Ģë °¥
¡Ń ê²Į
Ġì¢Ĩê°ĻìĿĢ ê²Į
Ġì½ľë Ŀ¼ë
Ġë°°ë ¯¼
³¸ë į°
Ġ< ->
ê³łë ¥¼
ìĹĪëįĺ ê±°
ĠìĿĮë °ĺ
íķ´ìķ¼ë ĮĲ
Ġëª»ìĥĿ ê²¼
ĠìĽĮ ìĭ±íĦ´
Ġì§Ģê¸Īë ¶ĢíĦ°
Ġëª»íķĺ ê²łëĭ¤
Ġëª»íķĺ ê²łëĦ¤
ĠëıĮë¦¬ ê³ł
ĠìĶ¨ë ²Į
ê°ĢìĬ´ ìĤ´
ĠìĿ´ëŁ¬ ê³ł
ĠìĺĪìģ ĺëĦ¤
ĠëĤĺëĪ ł
ìĦ¸ìĥģ ìĹĲ
ìĭ¬ìĭ¬ íķ´ìĦľ
ìł¤ë Ŀ¼
Ġë§¨ ìĭľíĭ°
ĠíĲ Ī
ìĬ¤ë°įìĿ¸ì¦Ŀ ìĻĶëĮĢíĺ¸
ë²Įë łĪ
ìłĿ íĬ¸
Ġìĳ ¤
) ?
2 000
7 8
S T
m an
¥ ´ëĭĪ
© ľë
´ ¤ëĥĲ
ìĿ ĺëıĦ
ëĬĶ ìĿ´ìľł
ìŀ Ĭ
ê°Ģ ë³´
ê¸ ±
¬ë ½ķ
Ġìķ ¤
ê³ł ì¶Ķ
ìĿ´ë ĬĶë
ê±° ê°ĻìĿĢ
íķĺ ê±°ëĤĺ
ìķĦ ìĦŃ
ìļ ķìĿ´
êµ ³
êµ ³ìĿ´
Ġìĸ ıëĶ°
íķľ íĥľ
íĺ ¼ëŀĢ
¬´ ìľł
ì£¼ ìłĦ
íķ¨ ãħĭãħĭ
ĠìĬ ¨
¨¹ ëĬĶê±°
ìľł ìľ¨
³´ ìĨĮ
ĠìĤ¬ ìĿ´ìĹĲ
ìļ° íĮĮ
ìŀĪ ìĸ´ëıĦ
Ġìłķ ëĥĲ
ìķĦë °ĶíĥĢ
ìĺ¤ë ¡ľ
ìĹĨ ìľ¼ëĭĪê¹Į
ĠìĬ¤ ìĬ¤ë¡ľ
Ĥĺë ¹Ĺ
Ġìĸ´ ì§¸
Ġìĸ´ ì§Ģê°Ħ
ìĺģ ì§Ģ
¦° ëĭ¤ê³ł
ĠìĥĿ ê²¼ëĭ¤
°Ķ ëĭ¥
©Ķ íĥĢ
ê¸Ģ ê³łë³´ëĭĪ
ì£¼ë ¦°ìĿ´
ìĹ° ìĿĢ
Ġë³´ë ¬¼
ì¢Ĩ ìĨĮ
Ġíķ´ íĤ¹
Ġë§Ī ìĿ¸ë
íĽ Ķ
Ġë¨¹ ëĥĲ
ë¡ľ íĹ¨ëį¸
Ġë§Ĳ íķľ
ĠìĿ¼ ê¸°
ĠìĦ± ìļķ
Ġíİ Ģ
ë¶Ħ ì»·
Ġë© Ģë¦¬
Ġì§Ģë ©´
ëĤĺë Ĥĺ
§Īë łµëĭ¤
Ġê²½ ìĥģëıĦ
ĠìĺĪ ìŀ¥
ìĿ´ë©´ ìĦľ
ì§Ģë Ł¬
Ġê°ľë ı¼ì§Ģ
Ġê°ķ ìłľë¡ľ
ĠíĤ¤ ìļ°ë©´
Ġêµ¬ íķ©ëĭĪëĭ¤
Ġì¢ĭìķĦ íķĺë©´
Ġë°° ìĭł
Ġë°° íĭĢ
²Ħë ¦¬ëĦ¤
Ġëį ¸
ê¾¸ ìĹŃ
ĠëıĻ ê°ĳ
ìĺ¬ë ¦¬ê³ł
ĠìĦ¸ ìĿ´ë¸Į
ìł¸ ìķ¼
°Ľ ìķĦìĦľ
ìŀ¡ ìĿĮ
ë³ĳ íĺ¸
ìŀĺ íķĺëĬĶ
ìĽĥ ê²¨
ĠëĤ´ë ¶Ģ
ì¤Į ìĿ´
Ġìłģ ìĿ´
ëĬĶê±´ ì§Ģ
ĠíĶĦë ¦°
ĠìľĦ ìĹĲ
Ġê·¼ ì²ĺ
ĠêµŃ ëĮĢ
ĠêµŃ ë½ķ
¶ķ ìķĦ
ĠìĦľë ²Ħë
ĠìŀĪëĬĶ ìĤ¬ëŀĮ
ê°ĢëĬ¥ íķĺëĥĲ
ê¸Ģë ıĦ
Ġë¬¼ ìķ½
ĠëĤľ ëĭ¤
íıŃ íĥĦ
íĺ¸ë ¡ľ
ìļ¸ë §ģ
ë¯¸ë ¦¬
ª¨ë į¸
ĠìķĮëł¤ ì£¼ëĿ¼
Ġëªħ ëĭ¨
íı¬ë ĵľ
ĠíĻį ìĸ´ë
ëĬĲ ëĭĪ
Ġì²ľ ìŀ¬
ê·¼ë §Īì¼ĵ
íĮ¬ ìĿ´
ì¡°ë ¡ľ
ëª» ìĥĿê¸´
ìľĦë ıĦ
Ġê¾¹ ìĤĲ
ĠìĿ¼ëŁ¬ ëĬĶ
Ġíģ° ê±°
Ġãħĭãħĭãħĭãħĭãħĭãħĭãħĭãħĭãħĭãħĭãħĭãħĭãħĭãħĭãħĭãħĭãħĭãħĭãħĭãħĭãħĭãħĭãħĭãħĭ ãħĭãħĭãħĭãħĭãħĭãħĭãħĭãħĭãħĭãħĭãħĭ
ëķ Ĳ
ĨĪëĵ¤ ìĿ´
Ġìį¨ë ³¸
ìľłì§Ħ ìĿ´
ì·¨ íĸ¥
Ġê°Ģë ĵł
ë©Ķë ¦¬
ĠìĦ±ê³µ íķľ
Ġìĭłê¸° íķ´
íķĺëŁ¬ ê°Ĳ
Ġëĸ³ ëĬĶëį°
ë°ľë ¦¬
íĮĲë §Į
ìĹĦ ì²Ń
Ġìĥī ê¹Ķ
ĠëĬĺ ìĸ´ëĤĺ
Ġìĸ´ëĸ¡ íķ´
Ġëľ¨ë ĥĲ
ê³łëĶ© ëķĮ
ĠìĥĿê°ģíķ´ë ³´ëĭĪê¹Į
ìĹĲìĿ´ íħį
ĠìĿ¼ë°ĺ ìĿ¸
ĠãĦ·ãĦ·ãĦ·ãĦ·ãĦ·ãĦ· ãĦ·ãĦ·ãĦ·ãĦ·ãĦ·ãĦ·ãĦ·ãĦ·
ì« Ħë
ĠìĹĦë§Ī ê°Ģ
Ġê¸Īì§Ģ ìĸ´
Ġì²ĺìĿĮë ¶ĢíĦ°
ĠìĺĪìģĺ ëĭ¤
Ġì¡°ìĭ¬ íķ´ëĿ¼
Ġì´ĪëĶ© ëķĮ
ì£¼ë¬¸ íķĺìĭł
ĠìĤ½ ëĭĪëĭ¤
ĠìĬ¤ìľĦ ì¹Ń
íĻķìĭ¤ íķľê±´
ĠìķĮëł¤ë ĵľë¦¼
? )
B S
D UMDi
s p
ë Ĩĵ
Ġ ]
Ĳ Ĳë
ãħ ķ
ê° Īëĵ¤
ëĬ ł
ê°Ģ ëĬĶê²Į
ìł ¼
ê³ł ìĬ¤íĬ¸
ìĿ´ë ķĮ
ê±° ëĦĪ
íķĺ ê²łëħ¸
Ġìŀ łëĵ¤
ìĦľ ìļ¸ëĮĢ
ìĬ¤ ì½Ķ
íķľ ìĿ´
ĠìĿ´ ìłķíĽĦ
ìĭľ íĬ¸
íķĺë ©´ëĲ¨
ĠìķĦ ìĿ´ëĵ¤
ìĤ¬ ê´Ģ
ëıĦ ìķĪ
ìŀ¥ íķľ
ìŀ¥ ë¬¸
°ľ íĳľ
Ġê² ª
íĨ ¤ë
ìĭł ìºĲë
ĠíĮ ¨ëĵľ
Ġëĭ¤ ìĸĳ
ìĸ´ë łµ
ë§Į íķľ
ĠìķĪë ľ¸
Ġë³´ ì¡°
Ġì§Ģ ì¼ľë
Ġëª» ìĿ´
Ġëª» íķł
Ġëª» íķĺëĬĶê±°
ê³µ ë°©
Ġìĭľ ìĻ¸
ĠìĬ¤ ìĽĮ
íķ´ë ´ĲëĿ¼
íĸĪ ìĸ´ëıĦ
íħĮ íģ¬
ì¹´ íĬ¸
Ġíķľ ìĭ¬
ĠìĿ¸ ê°Ģ
ìĨĮ íķľ
Ġë¬´ ìłľíķľ
íĶ¼ íĮĮ
ê¸Ģ ìĿĦ
Ġíķĺ ê²Į
Ġíķĺ ê²łì§Ģ
íĬ¸ë £¨
Ł° íĬ¸
ĠìŀĲ ì´Ŀ
ĠëĶ ´ë
ìĹ° ìĺĪìĿ¸
ìĭľë Ł¬
¯¸ë ¥¼
ê°Ĳ ìłķ
ê·¸ ìłľ
Ġë¯¸ ì³Ĳ
Ġë°© ìĸ´ë
Ġë§Ī ìĿ¸ëĵľ
Ġë§ŀ ì·
Ġ4 3
íı¬ ìĪĳ
Ġì¡° êµŃ
Ġë¨¹ ìľ¼ëŁ¬
ì°½ ìĿĢ
ìĪĺë ĥĲ
.... ?
ĠìĦ± ë°°
ĠìĦ± ì¶Ķíĸī
ê·¼ ìĿ´
Ġíķľë ħĢ
ìłĦë į°
ìłĦë ł¥
ëĿ¼ íı¬ìĹł
ĠìķĬ ëĦ¤
íĮĲ íĥĢì§Ģ
ìļ¸ ìĻĢ
ĠëŃĲë ½ĳ
ìĶ¨ ëĬĶ
Ġë¶Ģ ëĭ´
ĠëıĦ ê°Ĳ
ìĦľë °ĭ
Ġë°Ķë ¡ľë
ëĤ¨ ìºĲ
íģ¬ë £¨
ê°ľë ¯¸
ì¹ĺë ıĪ
ìĿ´ëĿ¼ ëĬĶê±°
Ġìĭ¤ ìĪĺë¡ľ
°ĺ ìĿĳ
ì¢ħ ìĿ´
Ġìĸ¼ë ¥¸
íĻĶë Ĥĺ
ê²° ìłľ
ìĿ´ëĬĶ ê²Į
ìĿ´ë²Ī ìĭľì¦Į
Ġë§Ŀ íķľê±°
Ġë§Ŀ íĸĪëĭ¤
Ġë²Ħ ê±°
ĠëıĻ íĿ¬
Ġìĸ¸ìłľ íķ¨
Ġíı¬ ìĬ¤íĬ¸
Ġìį »
Ġê¹Ģ ìĦ±
ãħĭãħĭãħĭãħĭãħĭãħĭãħĭãħĭãħĭãħĭãħĭãħĭãħĭãħĭãħĭãħĭ ãħĭãħĭ
ìŀ¡ ìķĦ
Ġë³¸ ìºĲ
ì°į ì°į
ë¨¹ ìĿĮ
Ġê°Ĳ ìĥģ
Ġë°ľ íĳľë
ëĮĢë ¬¸
Ġìĺ¬ íķ´ëĬĶ
ê°ĳ ì£¼
§ģ ìĿ´
ĠëĮĢë §Į
ĠëĴ¤ ì§Ĳ
íĭĢ ìĻĢ
ì¡Į ëĭ¤ê³ł
ĠìķĪëĤĺ ìĻĢ
ê¸Ģë ¡ľ
³µ ìĿ´
ë£ ¨ë¦¬ìĽ¹
ĠìĪĺë ©´
Ġê²ľ ìĿĢ
Ġê°ĳ ìĺ·
łĪìĿ´ ìħĺ
ĠìĬ¤ë ²ħ
ì¢Į ê°Ģ
ãħģ ãħĩ
Ġì´Īë ĮĢ
ĠíķĺëĬĶê±° ìķ¼
Ġë²Ħë ¸Ķ
Ġê¼´ë ¦¬ë©´
ì§ĵ ìĿĦ
íĿĳ ë°ľ
Ġ0 8
ĠìĤ° ì±ħ
ìŀł ìĿ´
Ġìŀĩ ëĬĶ
ëª» íķ¨
Ġíģ¬ ëĭ¤
Ġëĸ¨ìĸ´ ì§Ģë©´
ãħľãħľ ãħľ
Ġë§Īì§Ģë§ī ìľ¼ë¡ľ
Ġãħĭãħĭãħĭãħĭãħĭãħĭãħĭãħĭãħĭãħĭãħĭãħĭãħĭãħĭãħĭãħĭãħĭãħĭãħĭãħĭãħĭãħĭãħĭãħĭ ãħĭãħĭãħĭãħĭãħĭãħĭãħĭãħĭãħĭãħĭãħĭãħĭ
Ġíĳľ ì§Ģ
Ġë²ł ìĿ´ìĬ¤
Ġê°ľì¢Ĩ ê°ĻìĿĢ
ĠëĪĪë ¹Ľ
ĦĪë ¬´ë
Ġë¹ĦêµĲ íķĺë©´
ëª¬ ìĬ¤íĦ°
íĥĪë ª¨
ìĸĺ ëĬĶ
Ġë¶ĪìĮį íķľ
ê³łë ŀĺ
Ġíķĳ íģ¬
ìĬ¤íħ Ŀ
§Įëĵ¤ ìĸ´
Ġëĸłë Ĥĺ
ĠìĬ¬ë ¡ľê±´
Ġì¢Ĩë§Ŀ ê²ľ
Ġëª° ìķĦ
ĠëŁ¬ ìħĢ
Ġë°Ķê¾¸ ê³ł
ĠìĬ¤íĬ¸ë¦¬ë ¨¸ë
Ġì»¤ìĹ¬ ìļ´
ĠìĽ¨ ìĿ´ë¸Į
íĬ¸ëłĪ ìłĢ
©ĶìĿ´ ìħĺ
ĸ³ ëĭ¤
ì¿¼ íĬ¸
ë²łë¥´ë ĵľ
Ġì§Ĳ ìĬ¹
ì£¼ë§Ĳ ìĹĲ
ĠíĿĻ ìĪĺìłĢ
íı¬ëłĪìĬ¤íħĶëĿ¼ ê°¤
ìĽĮëĩ½ ìĿ´
ĠëģĶ ì°į
ĠíĮ¨ëŁ¬ë ĶĶ
ëħ¹ëĳĲë ¡ľ
¡ľëĤ¨ë ¶Ī
. ,
< -
a v
l ck
© §
° ĳ
° Ģë¦¬
º ı
¼ Īë
ħ ¼ëŀĢ
ìĿ´ ìĤ¬
ìĿ´ íĮĢ
Ġí ī
ê°Ģ ê³łìĭ¶ëĭ¤
ì§Ģ êµ¬
ì§Ģ ëĿ¼
ìķĦ íĶĦ
ìķĦ ìĭľìķĦ
ìķĦ ì¤Įë§Ī
ìļ ľë
¦¬ ìĬ¤íĥĢ
ìľ ¤ëıĦìĺģ
ê²Į ìĿ´ëĵ¤
íĥ Ĳë
ìķ¼ ìĥ¤
ìĭľ íĥĢ
íĮ ĲëıĦ
ë° ĸ
ëĤ ¨ëĵ¤
ìĤ¬ ê²½
ìĪĺ ìĹħ
ìłķ êµŃ
ìłĦ íķľ
Ġê°Ģ ëĦ¤
ëĤĺ íķľíħĮ
Ġê·¸ë Ŀ¼
ł¤ íĸĪëĬĶëį°
Ġì° °
ì¤ĳ ê°¤
ìĹ¬ ìĻķ
Ŀ¼ë Ķĺ
Ġë³´ ìĿ´ë©´
ê°ľ ìŀĦ
ìĺ¤ë ¥´ëĦ¤
Ġëª» íķĺê²Į
ì§ģ ìĿĢ
ëĮĢ ìĭł
ĠìĬ¤ ì¹´ëĶĶ
Ĥĺë Ĥĺë
íķ´ë ³¼ê¹Į
ĠëĮĢ íĥĢ
ĠëĮĢ ê¹¨
Ġíĥ Ķ
ìŀĲë £Į
ì¹´ ê¸°
£¨ íĨł
Ġíķľ ìŀ¥
Ġê°Ļ ëįĺëį°
ìĨĮ ê°Ĳ
Ġíķĺ ìĸĢ
ĠìĪĺ ìŀħ
ĠìĪĺ ìĪł
ì¤Ģ íĳľ
íĤ¤ ìĽĮ
íĤ¤ ìļ°ëĬĶ
Ġìľł ìĤ°
¬´ë ĮĢ
ê¸ī ìĿ¸ëį°
Ġíķ´ ì¤ĺëĿ¼
ĠëĤ´ ìĿ¼ë¶ĢíĦ°
ĠìĿ´ê±° ìķ¼
ìŀ¬ ìĿĳ
Ĳĺ ìĸ´
ĠìłĦ ê³µ
Ġë¹Ħ ì¶Ķë
Ġê³ł ìķĦ
ĪëĦ¤ íĤ¹
Ġì£¼ ìŀ¥
ª¨ ëĭĿ
ĠëĤ¨ ëĬĶ
Ġìŀ¥ ìĤ¬
ĠëĲĺ ê²łì§Ģ
ê²łë ĪĦ
Ġ6 3
ìĭłë ³ĳ
Ġ10 5
ë¬¸ íĮĮ
êµ° ëį°
ì½Ķë £¨
ì¢ħ ëª©
ëıĻ íĻĶ
ĠíĻķ ë¥łë¡ľ
ĠíĮĮ íĭ°ë
ĠìķĦëĭĪ ìŀĸìķĦ
Ġëĳ ¥
Ġëĵ¤ìĸ´ ìĻĢëĿ¼
Ġë§Į íģ¼
ĠíĬ¹ ìłĦ
ìĥī ìľ¼ë¡ľ
ĠìłĲ ìĭ¬ë
ĠìłĢë Ķ´
ê²Įë Ĳľ
´¤ ìľ¼ë©´
ĠìĨĮë ¦Ħ
ĠëĦĺ ìĸ´ìĦľ
Ġë°©ìĨ¡ ìĹĲìĦľ
ĠìķĦì§ģ ê¹Įì§Ģ
ëĮĢë ¦¬
Ġë³ĳìĭł ìĥĪëģ¼
ãħ¡ãħ¡ãħ¡ãħ¡ ãħ¡
Ġìŀ¬ íĮĲ
łĪë §Ī
ê°ĵ ëį°
ê°ĵ ìĦ±ìĿĢ
Ġë§ī íĥĢ
Ġê±°ë ¦¬ëĬĶ
ì§Īë ķĮ
ìĹĩ ëĥĲ
ìĽĮë ħķ
íĭ°ë Ħĺ
íĺ¸ë ª¨
Ġê°ĳ ëĭĪëĭ¤
ìĦłë ¯¸
íĨ¡ ìĬ¤
ì°Į ì°Į
ĠìĿĢ íķĺ
ĠíĻĶë ł¤
Ġê¼´ë ł¤
ì¹Ń íĺ¸
ĠìĦ¤ë łĪ
ìı ľë¦¬
ì°ľ ìĿ´
Ġì°½ êµŃ
ìĸ¼ë ¦¬ë²Ħëĵľ
ëĦĪ íĿ¬
Ġìļ´ë ªħ
ì£Ħ ìĿ´
Ġs k
ì»´ ê°¤
ìķĶ êµ´
ëįĶ ì¿ł
Ġë¡ľë Ķ©
Ġì¡°ë ¡±
§¤ë ıĦ
Ġì£Ħ ìķħ
Ħ£ ê³ł
Ġíĭ°ë Ĥĺ
êº¼ë ĥĲ
Ġìĸµ ì§Ģë¡ľ
Ġìĥī ìļķ
ĠíĻķë¥ł ìĿ´
Ġê¾¸ ìĹŃ
Ġë§ĮëĤĺ ê³ł
Ġë§ĮëĤĺ ìĦľ
íŀĻ íķ©
Ġìķ° ì°½
ìĥĪê¸°ëĵ¤ ìķĦ
Ġë¯¸ìķĪ íķľëį°
ĠìĬ¤íĥ łë
Ġë¸ħ ìĭłëĵ¤
Ġì¤ĳê³ł ë¡ľ
ìķĦëĭ Ĳ
ĠìķĪíĥĢ ê¹Ŀ
ë³´ìĬ¤ íĦ´
íį½ íį½
ìħĢë ¡¯
ĠìĪłë §Ī
Ġìĺ¨ë ĥĲ
ĠíŀĪë ĵł
ëĿ¼ìĬ¤ ì¹¼
ë©ľ ìĪĻ
ĠëĤŃ ëĤŃ
ĠìĪ« ìŀĲ
ì¹ĺë§Ī ìĿ¸ëĵľ
´ħ ëĭĪëĭ¤
íĥľë¯¼ ê°¤
ëŁ¬ë¸Ķë¦¬ì¦Ī ê°¤
Ġíķ¨ê»ĺë Ŀ¼ëĬĶ
? ..
f f
o o
w an
ë ´¤ëĬĶëį°
ĥ ĩ
Ĵ Ģ
ŀ Ĳë
ł Īëĵ¤
ëĬ ¬
ìĿ´ ìłĦ
ê³ °ë
ìł ĵ
ì§Ģ ìĿ¸
Ĥĺ ìŀĩ
ìĸ ıëĶ°
ìķĦ ê¹Ŀ
ìĭľ ê³¨
ì° ľë
íķĺë ıĦ
ë³ į
ĠëĤ ¼ë
ìĤ¬ ìļĶ
¬´ ìĤ¬
ìłľ ì£¼
êµ¬ ìłľ
ìĦ± ì§Ģ
ìĦ± ìļķ
§Ī ê·Ģ
Ġìĸ´ë ¦´ëķĮ
íŀ ĪëĥĲ
Ġê± ´ëĭ´
ì¹ĺ ëĬĶê²Į
ì¹ĺ íĻį
ìĸ´ë ´¤ëĬĶëį°
ĠìŀĪ ê²łì§Ģ
ë§Į ìĿĢ
ìľł ì§Ģ
íĥĢ ìĿ´ë°į
ì¤ĳ ë¶ķìĿ´ëĵ¤
ê·¸ë ĦĲ
ê·¸ë Ĥĺë§Ī
ĠìĤ¬ ê°Ģ
ĠìĤ¬ ìĿ´ëĵľ
ìŀĪ ìŀĸìķĦ
Ġë³´ ìĿ´ì§Ģ
Ġë³´ ì»¬
Ġì§Ģ ê°ģ
Ġëª» ìĿ´ê¸°
ìĤ¬ë ĮĢ
ìĤ¬ë ¥´íı¬ìŀĲ
ëĮĢ ìĤ¬
ìħ į
ëĭĪë ıĦ
íķ´ë ¨¹
ëĵ¤ íķľíħĮ
ìŀĲë ¹Ħ
°Ķ ê¾¸
Ġì¢Ĩ ëĲ¨
ì¼Ģ ìĿ´ê°Ģ
ì¡° ìłķ
Ġíķĺ ê¸´
Ġíķĺ ìĭ¤ë¶Ħ
ì£¼ë ¯¼
ì£¼ë ¨¸ëĭĪ
Ġìŀĺ íķľê±°
¡ľë ŀĢíĬ¸
ìĭ¶ ëĭ¤
Ġëħ ¼ë¦¬
Ġë°© ë²ķìĿ´
Ġë§Ī íģ¬
ìŀ¬ ìĤ°
Ġ4 1
Ġ4 6
íı¬ ëĬĶ
íĶĦë łĪë
¥´ë ıĦ
ĠëĦĪë¬´ íķĺëĦ¤
ĠëĪĦ ê°ĢëįĶ
Ġìĺ¤ë ¦Ħ
ê¹Ģ ìĹ°
Ġëģ ĵ
ĠìĿ¼ íĢĺ
ªħ íĺ¸
Ġíķľë Ĥ¨ëĵ¤
ìłĦë ¶ģ
íĸī ìłķ
ĠìķĬ ëĬĶëĭ¤
ĠìķĬ ìķĺìĿĮ
Ġë°Ľ ìĿĢê±°
Ġìŀħ ëįķ
ĠíĹ ¥
Ġê¸°ë ıĦ
Ġë°Ķë ĤĺëĤĺ
ĠìĹ° ìĥĿ
Ġìµľ ìĭł
ĠìĺĪ ìĪł
ìĸµ ìĹĲ
Ġê°ľë Ĥĺ
Ġìļ° íĮĮ
íĻĶë Ĳľ
???? ?????
¡Ŀ ìĭľ
ë³¸ ìĥģ
Ġìķłëĵ¤ ëıĦ
Ġíı¬ ìŀ¥
Ġìį ¸
ìĬ¤íĥĢ íĬ¸
ĠëģĿ ìŀĦ
ìĤ¼ ìĿ´
ãħĭãħĭãħĭãħĭãħĭãħĭãħĭãħĭãħĭãħĭãħĭãħĭãħĭãħĭãħĭãħĭ ãħĭãħĭãħĭãħĭãħĭãħĭãħĭãħĭãħĭ
ĠìĽĲ ìŀĳ
ĠìĽĲ íĪ´
ìĿĳ ìĽĲë
Ġíıī ìĨĮìĹĲ
íİ¸ ì§ĳ
Ġì³ ¤
ê» Ģ
ê» ´ë
¹Ħë ŀĳ
íĻį ìĿ´íĺķ
ĠëĤĺìĺ¤ ê¸°
ĠìľĦ íķ´ìĦľ
łĪë °ľ
ê±°ë ¥´ê³ł
°Ķë ¡ľ
Ġì§¤ ìĿĢ
Ġì¶ľ ìĦĿ
Ġìķ½ êµŃ
ë°± ìļ©íĻĺ
ìĹ¬ê¸° ìĹĲ
ë§ĮìĽĲ ìĿ´ë©´
ìĿĦëķĮ ê°Ģ
ĠíĭĢë ĵľë
Ġìĭłë ¹Ħ
ë¨¸ ê¼´
íģ´ë ŀĺ
Ġëª°ë ŀĲëĭ¤
Ġë³¼ ê±°
ĠëĤĺìĺ¨ ëĭ¤ê³ł
ìª½ ìĹĲ
Ġê¶ģê¸Ī íķĺëĭ¤
ĠëĲľ ëĭ¤ê³ł
³´ëĬĶ ê³³
Ġì±Ħ ìļ©
ĠëĶ° íļ¨ëĭĪ
ëª» ìĥĿ
ĠíĴĢë ıĮ
Ġë°ľë ıĻ
ĠìĿ¼ëŁ¬ ê°Ģ
ëĬĲë Ĥ
ì¼ľ ìĦľ
ìľ¼ëĭĪ ê¹Ĳ
ìĿ¼ë³¸ ìĹĲìĦľ
Ġë¯¿ ëĬĶ
Ġë¯¿ ëĬĶëĭ¤
íļĮë ¥¼
Ġãħĭãħĭãħĭãħĭãħĭãħĭãħĭãħĭãħĭãħĭãħĭãħĭãħĭãħĭãħĭãħĭãħĭãħĭãħĭãħĭãħĭãħĭãħĭãħĭ ãħĭãħĭãħĭãħĭãħĭãħĭãħĭãħĭãħĭãħĭãħĭãħĭãħĭ
Ġìŀ¬ë¯¸ ìĹĨ
Ġìŀĺëª» ëĲľ
Ġì¡´ëĤĺë §İëĦ¤
Ġìĺ¬ëł¤ ì¹ĺê¸°
ìħī ìħĺ
Ġì¡°ë ¦½
ĠT S
©Ķë ī´
ĠìĦłìĪĺ ëĬĶ
ì¸łë ¦¬
ì½ľë ¡ľ
Ġíķµ ìĭ¬
ìĿ´ê¸´ íķľëį°
ŀĲ ëĬĶëį°
ìĤ¼ìĦ± ëĿ¼ìĿ´ìĺ¨
ë¹ħ íħį
ĠìĺĪë ¹Ħêµ°
ĠíĪ¬ë ªħ
Ġíŀĺ ìĿ´
ĠìĦ¤ëªħ ì¢Ģ
ì§Ģì§Ģ ìľ¨
¶Īë Ł¬
Ġë¯¸ìķĪ íķĺëĭ¤
íĻĺë ¶Ī
Ġìĸ´ìĿ´ ìĹĨ
ìĵ¸ë ķĮ
ëĥī íĺ¹íķľ
ĠìĪłë ¨¹
ĠìŁ¤ ëĬĶ
Ġë¬´ë£Įë ¡ľ
ĠìĨĮìĨį ìĤ¬
Ġë¹Ħíķĺ ìĿ¸ëĵľ
Ġê°Ģë¥´ ì³Ĳ
Ġì»´ë ĶĶ
ìĤ´ì§ĿìĦ¤ë łľ
5 1
m i
¢ °ë
ë ½Ģ
ì ®
ì Ĥĺ
ı Įëĵ¤
ł Īë²¨
Ġë ±
Ġë ®¤ì§ģ
ê°Ģ ê²Į
ëĭ¤ ëĿ¼
ê³ł ìłķ
ìĹĲ ë¦¬
ìĿ´ë ¡ł
íķĺ ëĬĲëĿ¼
ìļ §
ëį° ë·Ķ
ìĸ´ ìºĲ
ìĭľ ìķĦëĭĺ
ĠìķĦ ì¹¨ë¶ĢíĦ°
ìĤ¬ ìĹħ
Ġìĥ Ģë
ìłķ ì±ħ
ìĿ¼ ìĿĺ
ìĿ¼ ì§Ħ
ê°¤ ìĬ¤ë°į
ëĤĺ ìĬ¤ëĭ¥
ĠìķĪ íķł
ĠìķĪ ì£½
ëĬĶê±° ê°ĻìĿĮ
ĠìŀĪ ìľ¼ëĭĪê¹Į
ĠìĪ ²
ìĻĢ ìļĶ
ĵľë Ł¬
ĠìķĪë §Įë
ĠìķĪë Ĳĺë©´
íİ Ģë
įĶ ê°Ģ
Ġë¹ ļ
Ġëª» ë³´ë
ìĦ¸ ê¸°
ê³µ íĬ¸
ĠëĲ Ĳëĭ¤
ĠìĬ¤ íĶ¼ë¦¿
íķ´ë ³´ê³ł
ìŀĲë §¤
ìŀĲë ª½
ĠìĥĿ ê¸°ëĬĶ
ì¢Ģ íķ´
ìłĢ ê±¸
Ġë¬´ ê²Į
íĬ¸ë Ĥĺ
Ġê³µ ë§¤ëıĦ
Ġê¸° ê°Ģ
Ġê¸° ìĹ¬
Ġìŀĺ íķľ
Ġìŀĺ íĸĪëĭ¤
ëĤ´ ìłĦ
ì½Ķ ì¹ĺ
ìĬ¤ë ©´
ìĭľë ¦¬
ìĭľë §Į
Ġìľł ìłĦ
Ġìľł ì¹ĺ
ë§Ī ì°¨ëıĦ
Ġíķ´ ê¸Ī
ĠëĤ´ êº¼
Ġìĭł ìŀħ
íĽ ¼
ìķĦëĭĪ ì§Ģ
íķĺëĦ¤ ãħĭãħĭ
ĠìłĢ ìŀĳ
Ġìĺ¤ë ¥´
ìĪĺë Ĥĺ
Ġìĺģ êµŃ
ĠìĿ¼ íĸī
Ġëĭ¤ë ¥¼
Ġëª¨ë į¸ë
ìłĦë ¶Ģ
íĶĮ ìĺµ
Ġì§Ģë £¨
ĠìķĮ ìķĺ
ìĤ´ ìĿ¸
ì¹´ë Ħ¤
ìĿĦë §Įíķľ
ĠëŃĲë ĥĲë©´
Ġëħ¸ë §Ĳ
ê°¤ë §Į
ìķĪë Ĳľëĭ¤
Ġê²½ ê³ł
íģ¬ë ŀĳ
êµĲ ì²´
Ġê³Ħ ìĬ¹
ìĸµ ìĿ´ë©´
ì§Ģë ĵ£ëħ¸
ëıĻ ë¬¼
ĠìĦł ìĪĺê°Ģ
ãħħãħ ģãħĩãħĪ
Ġêµ¬ ìłľ
Ġì¢ĭìķĦ íķĺëĬĶê±°
ëĭ¬ ìĨĮ
ë°ķ ìĬ¤
ĠëıĻ ìĪĺì¹¸
Ġë¶Ģë ¶Ģ
ìĺĢ ê¸Ķ
Ġìķ¼ ê°Ħ
Ġìķ¼ êµ¬ë
Ġë¨¸ ì§Ģ
ìĹĶ íĦ°
ë§Ŀ ê²ľ
íĥĢë Ĥĺ
Ġëĵ¤ìĸ´ ê°Ĳ
Ġëĵ¤ìĸ´ ìĺ¨
ê°Ī ìķĦ
Ġê¹Ģ ì¹ĺë
ëĭī ëĦ¤ìŀĦ
Ġìŀĳ ìĦ±
ì°į ëįķ
ìĮ ©
Ġë°©ìĨ¡ ìĿĢ
ĠëĬĲë ł¤
ê» Į
ĠìķĦëĭ Įëĵ¯
ãħ¡ãħ¡ãħ¡ãħ¡ ãħ¡íĥĢ
Ġë¯¸ë ŀĺë
§ŀ ëĥĲ
Ġì§ĳ ëĭ¨
ê°ĵ ì§ģíŀĪ
§Įë ıĦ
ë²Ħ ê±°
ĠëĶ± ë´ĲëıĦ
ĠëĴ¤ ì§Ģê²Į
ĠíĦ° ì§Ģê³ł
Ġìķ½ íķľ
ìĨĲ ê°ĢëĿ½
Ġëĭ¬ë ¦°
Ġë¬¼ íĥĢê¸°
ìĽĮë ħķìĿ´
ë£¨ íĬ¸
Ġê±¸ë ¦¬ë©´
ìĹ¼ íĢ´ëĵ¤
ì´Īë ĮĢ
ĠìĤ´ë ©´
Ġë¯¼ íĬ¸
ëħĦë §Į
ê¿Ģ íĮģ
ìĪĻ ìłľ
íĿĳ ìļ°
ëıħ ìĦľìĭ¤
ë§ŀ ìķĦ
íĴĢ ìĿ´
ìķĹ ëĦ¤
Ġíĥľ ìĸ´ëĤĺ
Ġë³Ħë¡ľ ìķ¼
Ġëĸ¨ìĸ´ ì§Ģ
Ġì²´ íĹĺ
Ġë°ľë ¡±
Ġê±¸ ìĸ´
Ġë³¼ë Ħ·
Ġë£¨ íĬ¸
íĹĪ ìĪĺ
Ġãħĭãħĭãħĭãħĭãħĭãħĭãħĭãħĭãħĭãħĭãħĭãħĭãħĭãħĭãħĭãħĭãħĭãħĭãħĭãħĭãħĭãħĭãħĭãħĭ ãħĭãħĭ
ë³Ģ ê¸°
Ġê¸¸ ê²Į
ĠL G
ĠíĹĪ ìĪĺ
íķ´ì£¼ ìĭ¤ë¶Ħ
ìĭľê°Ħë §ĮìĹĲ
Ġê³łë¯¼ ì¤ĳ
Ġì»´ ìľ¼ë¡ľ
ëĮķ ëĿ¼
ëĮķ ëĮķìĿ´
ĠëĵĢ ìĸ¼
ª° ìŀħ
Ł¼ëĵ¤ ìķĦ
łĢ ëĬĶëį°
Ġëĭ¥ ì¹ĺê³ł
Ġíķľëĭ¬ ìĹĲ
ĠëĬĺë ł¤
ì§Ģê¸Īë ¶ĢíĦ°
íŀĺë ĵľëĦ¤
Ġìļ°ìļ¸ ì¦Ŀ
íĶĮëłĪìĿ´ ìĸ´
Ġë°Ŀ íĺĢ
Ġì¹¨ë ĮĢ
ìĥĪë¡ľ ìļ´
ì²ľë§Į ìĽĲ
ĠëĥĦ ìĥĪë
Ġê°ľê¼´ë ¦¬ëĦ¤
ëľ¬ ê¸Ī
6 9
A T
e s
k m
n c
n n
² ¼ë
ë Ĳĺë
ë ¡±ë¹µ
Ŀ Ħ
ìĿ´ ê±¸ë¡ľ
ìĿ´ íĽĦë¡ľ
ê°Ģ ë§Į
ê² ¨ëĿ¼
ì§Ģ íĽĪ
ê± ±
ê³ł ìĿ¸ë¬¼
ìĺ ®
ìĥ Ħ
Ġë§ ¨ë
ëĭĪ ì¦ĺ
Ġë° ¸íĮ¨
ìĪ ¨ë
Ġìĺ ³
íķľ ê¸Ģ
ìķ¼ íķĺëĤĺ
Ġë³ ´ëĭ
ìŀĲ ìĽĲ
ìĺ¤ ìķĦ
ìĺ¤ íĶ¼
ìĤ¬ ì½ľ
Ġê³ ¤
ìĪĺ ìĥģ
ìĿ¼ íħĲëį°
ìĿ¼ ìĪĺëıĦ
ìĿĦ ê²Į
ĠëĤĺ ê°ĢëĬĶ
¦¬ë °ĺ
¦¬ë ĦĪ
ĠìķĪ ìĸ´ìļ¸ë
ê¸Ī ìļĶìĿ¼
ĠìŀĪ ìĿĦëĵ¯
Ġì¢ĭ ìľ¼ë©´
ìľł ì§Ħë
ìľł ëĭĽ
ì¤ĳ ê°Ħ
ĠìĤ¬ ìļĶ
ìĻĢ ìĿ´ë²Ī
íİ ¨
Ġìłķ ê¶Į
ìķĦë ¦¬ìķĦ
ĠìĽ ¨ëĶ©
Ġë¶ Ĳ
Ġê°ľ ìĶ¨ë°ľë
ìĿ¸ëį° ìļĶ
Ġì§Ģ íĺĦ
ìĦ¸ ìļ´
ê³µ ìĤ¬
ê³µ ëĮĢ
ĠëŃĲ ê°Ģë
ê²ł ìĸ´ìļĶ
ĠìĤ¬ë ³µ
ĠìĤ¬ë ł¤ëĬĶëį°
íĸĪ ì§Ģë§Į
ĠìĿ¸ ìĥģ
ĠìĿ¸ ì¢ħ
ìłĢ ìĶ¨ë
Ġë¬´ ê·¼ë³¸
íĬ¸ë ĦĪ
Ġê³µ ì§ľ
ìĭ¤ íĻĶëĥĲ
ĠìŀĲ íķ´
íļ ½
Ġë³´ë ĵľ
ìĹħ ìłģ
Ġëħ Ģ
Ġìĸ´ëĸ ł
ê°ķ ìĿĺ
Ġë§Ī ìĭľ
Ġë§Ī ìĿĮë
Ġìĭł ìĥģ
ë°© ìĸ´
ë°© íĮ¨
ìĨĮë §Ī
Ġ4 4
íĶĦë łĮ
Ġì£¼ ìĪłìĤ¬
ê³łìĭ¶ ìĸ´ìĦľ
Ġë¨¹ ìĿĦê¹Į
Ġìłľ íĴĪ
ĠìĥĿê°ģ ìĹĲ
Ġìĺ¤ë ¥¼
Ġíķľë Ĥ¨ë
Ġë¬¸ ê³¼
Ġê²Į ìĿ´ëĵ¤
ìĤ´ êµ¬
íķłë °°
Ġìŀħ ìĹĲ
§Īë ²ķ
Ġëħ¸ë ıĻ
ìĦľë ¸Į
ĠìĤ¬ëŀĮ ìŀĪëĥĲ
ìĺĪ ìŀ¥
Ġ6 2
Ġ6 9
ê°ľë ³ĳìĭł
ĠìĨĮ ìĽĲ
Ġë°ķ ìľ¼ë©´
ãħħãħ ħãħħãħħãħħãħ
ìĺ¬ íķ´ëĬĶ
ëĭĺëĵ¤ ìĿĢ
ıĦë ¥¼
Ġëį ĺë
ĠìĿ´ìłľ ëĬĶ
ĠëıĻ ìĭľ
Ġëħ¸ ì¶ľ
Ġìį ¨ëĿ¼
ĠëģĿ ëĤłë
íĥĢë ¥¼
ìĤ¼ ì§Ħ
ê°Ī ìĤ¬ëŀĮ
ë© ¤
ĠìłĲ ê²Ģë
Ġë¦¬ ì¦Ī
Ġê¸Ģ ìĵ´
ĠíĬ¸ë ¡¯
Ġë³¸ ìĿ¸ìĿ´
Īë² ł
ê¸¸ íĥľë
¦½ ëĭĪëĭ¤
ì°į ë¨¹
ìĦ¸ë ĥĲ
ìĹ´ ì°¨
Ġë½ĳ ìķĺëĭ¤
ìĿ´ìłľ ëĬĶ
³ĳ ìĭłëĵ¤
³ĳ ìļ±
ë°Ķ ìį¬
Ġë°ľ ìķħ
Ġë³µ êµ¬ë
Ġìĭ¬ íķĺê²Į
Ġìĵ°ë Ħ¤
Ġìĵ°ë įĺ
Ġìŀ¬ ìĪĺ
ëĭ¬ë §ĮìĹĲ
íķ´ìķ¼ íķĺëĬĶëį°
Ġìĭ« ìĸ´ìĦľ
Ġë¬´ìĬ¨ ìĿ¼
ĠìĪĺë ¦¬
Ġì°¸ êµĲìľ¡
Ġë°± íķ©
íĺ¸ë ĤłëĳĲ
ĠìºĲë¦Ń ìĿ´
ĠíıŃ ëıĻ
ĠìķĮëł¤ ì£¼ìĦ¸ìļĶ
Ġì¢Ĩê°Ļ ìķĦìĦľ
ĠíĻĶ ìĿ´íĬ¸
ĠëĦĪ íĿ¬ë
ĠëĬĲ ê¹Ģì¹ĺ
ı¼ ìĦľ
200 4
200 7
ìĻ¸ë ª¨
Ġìĸ´ëĸ¤ ê°ĢìļĶ
ĠíĢ ´
Ġì²´ ê°Ĳë
íķľêµŃ ìĹĲìĦľ
ì³Ĳë ¨¹ê³ł
ĠìĽĶ íģ´
ëĦĪ êµ¬ë¦¬
Ġìļ´ë ¹¨
ëįĶ íĥľë¯¼ê°¤
Ġë©Ķë ª¨ë¦¬
ë¸ ľ
Ġê°Ģë ĵĿ
Ġíŀĺë ĵľëĥĲ
Ġë°Ģ ê³ł
Ġëľ¨ ëĬĶê±°
Ġë²ķ ìĤ¬
Ġìĭłê¸° íķľê²Į
ìķĦìĿ´ë ıĮë
ĠìĿ´ìģĺ ì§Ģ
ìķĦë³´ ìŀĦ
ì²łêµ¬ ëĬĶ
ì²łêµ¬ ìķ¼
Ġíĸīë³µ íķ´
Ġíĸīë³µ íļĮë¡ľ
ìĺ¤ëĬĺë Ķ°ëĿ¼
íĳ¸ ìĹīíģ¼
Ġì¹Ń íĺ¸
Ġëľ¬ ëĭ¤
ìĸ´ë²Ħë ¦°
Ġíĺľ íĥĿ
Ġë¯¸ëŀĺ ê°Ģ
Ġìĭłê²½ ìĵ°
Ġg o
Ġíĳ¸ë ³´
ë¬¸ë ĮĢ
Ġë¸Ŀ íį¼
Ġê¸´ ìŀ¥
ê¶Įë ıĦ
ĠëĮķ ëĮķìĿ´
ê´ľ íŀĪ
ĠíĻľ ìļ©
Ĥľë Ĥĺ
Ġëį¥ ëĦ¤
ĠíĻĢë ¡ľ
ãħ¡ãħ¡ãħ¡ãħ¡ãħ¡ãħ¡ íĥĢ
ĠìŀĶë ľ©
Ġë°´ íĶ½
ĠìĹīëį ©
ëĿ¼ë¹Ħëįĺ ìĬ¤
íī ģ
Ġêµ¬ëıħ ìŀĲ
ìĿ´ìģĺ ëĭ¤
ĠíİĮ íĶĦ
ĠìĦłì°© ìĪľ
íĩĺ ì§Ģ
ì²«ë°©ì¶ķíķĺ ìĻĶ
ìĺ¤ë§ĪìĿ´ê±¸ ê°¤
ĠìłĢëĬ¥ ìķĦ
ë¯¸ì£¼ íĶ½
ŀĹ ê²Į
] ?(
g m
m b
o g
t u
² ķìĿ´
ë ķĮëıĦ
ë ±ĥ
Ĥ ´ëĤĺ
Ħ Ľ
Ĳ Ĳëħ¸
ł ëĬĶëį°
Ġì ģ
Ġë ½
ìĿ´ íķĺ
ìĿ´ ê²łì§Ģ
ê°Ģ ìĿ´ëĵľ
ì§Ģ ë¯¼
ê³ł ìĹĲ
ìĸ ´ëĭ¤
ìĿ´ë §Ī
ìĿ´ë ĦĲ
ê±° ìĿĺ
íķĺ ëĭ¨
ìķĦ íĥĪëŀĢíĥĢ
Ġìŀ Ń
¦¬ ëĭĪê¹Į
ê¸° vs
Ġíķ ¸ë
Ġìł ¬
ĠìĿ´ ì¤Ģ
ìķ¼ ê°Ħ
ìĭľ ìĽĢ
ìĭľ ì¡°ìĥĪ
íķ´ ìĦľë
ìĥģ ìŀĦ
ìĪĺ ê°ķìĭłì²Ń
ëıĦ ê°Ģ
ì§Ħ ìĦ±
¶Ģ íĬ¸
ìĦ± ìĹĲ
ìĦ± íĸ¥
íķ¨ ìĿ´
ìĭł íķľë¥ĺ
ìĸ´ë ¦¬ë
ìĸ´ë łµëĦ¤
ĠìĿ´ë ªħ
ĠìŀĪ êµ¬ëĤĺ
¨¹ ìĿĦê¹Į
ĠìĹĨ ìłľ
ìľł ëĬĶ
ìľł íĪ¬ë
íĥĢ ìĹĲ
ìĹ¬ ìºł
ĠìķĪë ĮĢ
ê³µ ìĿĢ
ìĭĿ ë¹Ħ
Ĥĺë ¦¬
Ĥĺë ¡ľ
Ĥĺë ¬´
íĸĪ êµ¬ëĤĺ
ìŀĲë ¥´
Ġìĸ´ ìĦľ
Ġíķľ ê³Ħ
°Ķ ê°Ģ
ë³´ ìĪĺ
ĠìĹ¬ ê¸°ê°Ģ
íĹ ¥
ê¸Ģ ìĤŃ
Ġê³µ ë¬´
ìĬ¤ë Ħ¤
ìĬ¤ë °©
³´ë Ł¬
Ġëħ ķ
ìĿ´ëŀĳ ìĿĢ
°© ìĿĢ
ìĽĮ íģ¬
Ġë¹Ħ íĸī
Ġë¹Ħ êµĲë
Ġì¡° ëĭŃ
Ġì¡° ê¸Īë§Į
ê²ĥ ì²ĺëŁ¼
íĺĦ ìļ°
ìºĲ ê°Ģ
Ġìĺ¤ë İħ
ëĦ ¼
ëĦ Į
íķĻ ìĭĿ
Ġìĺģ ìĸĳ
ĠëĤ¨ ì£¼
ĠëĤ¨ íİ¸
íĨł íĨł
ì¹´ë §Ī
Ġë°Ľ ëĥĲ
ëĤĺë ¥¼
ĠíĹ Īë²ħì§Ģ
ìĦľë ²Ħë
Ĥ¨ ìĿ´
ëĤ¨ ìĿ´
íģ¬ë Ŀ¼ìĿ´
ìĿĢê±° ìķ¼
ìĥĪ ìļĶ
ì½Ķë ¡ľëĤĺë
ĠíķĺëĬĶ ì§Ģ
Ġìļ° íĿ¥
ë°ķ ê·¼íĺľ
Ġë§Ŀ íķł
Ġë²Ħ íħ
Ġë²Ħ ëĭĿ
Ġë§Į íĻĶë
ĠíĪ¬ ê¸°ìŀ¥
Ġê³łë ¡ľ
ìŀĺ íķ¨
ì²ł ìĪĺ
ĠíĽĦ ìĽĲ
ë³´ëĭ¤ ëĬĶ
ë°Ķ ìĿ´ìĬ¤
Ġë°ľ ìĥĿ
Ġë³ĳìĭł ìĿ¸
ĠìĨĲ ëĭĺ
íĥĦ ìĿ´
Ġë¡ľ íħĮ
°Ķë ¦¬
Ġíĳ ¼ëĭ¤
ĠìŀĪëĬĶ ì§Ģ
íıī ìĥĿ
ì§Īë Ł¬
ãħĤ ãħĩ
ë§Įë ıĦ
íıŃ íĸī
ãħħ ãħĭ
Ġìĺ¬ëĿ¼ ê°Ģ
ĳĲë ¦¬
ë£¨ ìĪĺ
ĠëĤł ê°ľ
ŀĺë ¯¸
Ġë´Ĳ ì£¼ìĦ¸ìļĶ
íħĮë §Ī
íħĮë Ħ·
íķĺê¸° ìłĦìĹĲ
ĠëĪĪ ì¹ĺë
Ġ? )?
Ġë²Į ìį¨ë¶ĢíĦ°
Ġìļ© ìĦłê¶Į
Ġíķĺì§Ģ ë§Ĳê³ł
ë¬´ë ½ĳ
íĭĢë ¦°
ê¾¹ ìĿĢ
ĠìķĦë¬´ë ¦¬ë´ĲëıĦ
ĠìŀĺìĥĿ ê²¼ëĭ¤
Ġì²ĺë §ŀ
łī ìħĺ
ì§ĢëıĦ ìķĬ
íľ´ ìĿ¼
ëĦĪë ¬´ë
Ġë§ĮíĻĶ ê°Ģ
ĠìķĶ ìĤ´
Ġê¹Įë ¨¹
Ġë©Ķë ī´
ê³¼ë ¡ľ
Ġa t
ì°¾ ìķĦ
Ġëª¨ìĿĮ ì§ĳ
ĲĲ ìĿĮ
ë´ Ĳë
ìķĪëĤĺ ìĺ´
ĠìłķëıĦë ¡ľ
íķĦë ¦Ħ
ĠìĤĲ ìķ°
ĠìĮį ìļķ
Ġìŀĳê°Ģ ê°Ģ
ĠíĮģ ì¢Ģ
ĠíıĲ ì§Ģ
ìŀ¬ë°Į ëĬĶ
Ġê¼´ë¦¬ ëĬĶëį°
ĠëĶ´ ê±°
ĠëĵĿ ìłĲ
ëĪĦë ¹Ħ
Ġíķľë§Īë ¦¬
ìħĢë ¡ľëĤĺ
ìĦ¸ìĥģ ìĹĲìĦľ
ĠëģĿëĤ¬ ëĭ¤
ìıĺë ĮĢìŀ¥
ĠíĥĪë¦¬ ìĬ¤ë§Į
ĠíĶĦëĿ¼ ìĿ´ì¦Ī
Ġíħľë łĻ
ĠëĤĺë¬´ ìľĦíĤ¤
Ġëŀľ ìĦł
ê·¸ëĤĺ ìłĢëĤĺ
ë¡Ģ ìĭĿ
ìĬ¹ë¦¬ìĿĺìĹĺë¡¯ ìĬ¤ë°įìĿ¸ì¦ĿìĻĶëĮĢíĺ¸
]?( ?
Ġ?)? [
T NO
V S
´ ¤ëĦ¤
Ń ĩ
Ġë ī´ë¹Īëį°
Ġë Ľ°ë
¼ë §Į
ìĿ´ë Ł°ë
ìĿ´ë ²¤ë
ìĿĢ ìĿ´
ëį° ë¸Į
ìĸ´ ì§Ĳ
ìĸ´ ê¹¨
Ġìĸ ĩ
ĠìĿ´ ìķħë¬¼ê³ł
ìķ¼ ìĭĿ
íĶ Įë¦¬
íķĺë ł¤ëĬĶ
ìŀĲ íķ´
ìŀĲ ìĿ¸ëį°
ìĺ¤ ê°ĢëĤĺ
ìĤ¬ ìļ¸
ì£¼ ëĭĪê¹Į
ì£¼ ìĿĺë
¦¬ë įĶëĿ¼
łĪ ìłĦëĵľ
ìĭł ì§Ģ
ì¹ĺ ëĭ¤
ìĸ´ë ¬¸
ĠìĿ´ë ²Īë
Ġ2 11
íĥĢ ìĪĺ
ê·¸ë ķĮ
ĠìĤ¬ ì§Ģ
ìĻĢ ìĭľë°ľ
ĵľë Ŀ¼ë§Ī
ìŀĪ ìĹĪìĿĮ
Ġêµ ´ë¦¬
Ġì¹ łë
íŀĪ ì§±
Ġê°ľ ìŀ¥
Ġì§Ģ ê¸ī
Ġì§Ģ íĺĦìĿ´
ìĦ¸ ì§Ģ
Ġìĭľ ê¸°
Ġê¹ ¸
Ĥĺë ³´ëĭ¤
íķ´ë ¨¸
íĸĪ ìĿĦëĵ¯
£¨ ì½Ķ
°Ķ ëĬĶ
Ġì¢Ĩ ê°ĻìĿĢê±°
¥´ ìĨĮëĤĺ
ì¡° ê³µ
ìľĦ íķľ
Ġíķĺ ì²´
íĮĮ ê³ł
ĠìĪĺ ìļĶ
Ġê³µ íĻĪ
ì°¨ ìĿ´ê°Ģ
ëĤ´ ìļ©
³´ë ĬĶë
Ġë§İ ëįĶëĿ¼
¯¸ë §Į
ì²ľ ì§Ģ
ãĦ± ãĦ¹
ê³Ħ ìĤ°
Ġíķ´ ì£¼ëĬĶ
Ġë°© ì¢ħ
ìĿ¼ë Ĥ¨
ëį ©ìĿ´
ìĨĮë ıĦ
íı¬ íĨł
íĺĦ ì§Ħ
ìĻĶ ì§Ģ
Ġë§Ĳ íķ´
ê¹Ģ ì±ĦìĽĲ
ì¶© ìłĦ
ì¶© ìĥĪëģ¼ëĵ¤
Ġê·¸ ëĭ¥
ĠëĤ¨ ìķĺ
ê²ľ ìŀĺ
Ġìĺ¤ëĬĺ ìŀĲ
ĠìķĬ ìĬµëĭĪëĭ¤
Ġìŀħ ê¸Ī
ĠìĿ¼ë °ĺë
ĠëĲĺ ëĬĶê±°ëĥĲ
Ġê°ķ ìķĦì§Ģ
ĠíĴ Ģë¦¬
Ġêµ¬ íķ´ìļĶ
íĻĺ ìĥģ
ĠìĿ´ìłľ ìķ¼
ª» íķ´
Ġê°ĢëĬ¥ íķłê¹Į
Ġë¶Ģë ¥´ë©´
Ġëĵľë ¦¼
ĠíĮ¨ ìŀĳ
ìŀĩ ìľ¼ë©´
ìĥī ìļķ
ì¥ ¬ë¦¬
ë³ĳ ìĭłë
Ġê¸Ģ ìĿĢ
ĠìłĢë ¦¬
ìķĮ ìķĦë
ê²Įë įĶ
ê²¨ ì§Ħ
ìĽĥ ìĿĮ
ì²ł ìĿ´
ê³¡ ìĿĢ
ìĦ¸ë ģ¼
ĠëĤĺìĺ¤ ê²łëĦ¤
Ġìŀ¬ë°Į ìĹĪëĬĶëį°
ê±¸ë ¦¬
Ġë§Įëĵ¤ ìĹĪëĭ¤
Ġì¹´ ì¹´ìĺ¤
Ġìĭ¸ ìĿ´ì½Ķ
ê±°ë ¦¬ë
°Ķë ĶĶ
íĭĢ íĢ´
ìļ°ë¦¬ íĮĢ
Ġìłĳ ìĿĢ
ë§ĮìĽĲ ìľ¼ë¡ľ
ĠíĮĮë ĥĲ
Ġíİ¸ íķĺê²Į
ħ¸ë ŀĺë
ì´Īë ıĮ
ĠëĦĪ êµ¬ë¦¬
Ġíģ´ë Ŀ¼ìĬ¤
ì²ĺ ê°Ģ
Ġì¥ °ë
200 50
íĴĢ ìĸ´
ĠìĹĲë ĶĶ
Ġìĸ¼êµ´ ìĹĲ
Ġìļ°ë ¦°
Ġë§¤ë §¤
Ġê¹¨ ê³ł
Ġp df
ıĮë ł¤
ëĦĪëĦ¤ ëĬĶ
Ġëĵ£ ëĬĶëį°
ĠíĻĺ ê²½
íĹ¬ ì§Ģ
Ġê¼¬ ìłĳ
Ġì¡°ë ĪĪ
ĠíĮĲ íĥĢì§Ģ
Ġë°Ģ ìĸ´ë
ĠìĿ´ê¸° ìķ¼
Ġm m
ĠãĦ±ãħĬ ìĿĮ
ëĤ¬ ëĭ¤
íĳľë ¡ľ
Ġëª¸ë ¬´ê²Į
ëįĶë §Į
ìĿ´ëĿ¼ë ©´ìĦľ
ĠìĨĲë ª©
ì« Ħ
ë® Į
Ġì°¢ íĮŁ
Ġê³¼ë Ŀ½
Ġíĥ± ì»¤
Ġìĺ¤ë¥¸ ìª½
ĠëıĦìĽĢ ì¢Ģ
Ġì© Į
ĠìĻ¸êµŃ ìĿ¸
ìķĦìĿ´ëĵ¤ ê°¤
ìĿ¸ë°© ê°¤
íķľëıĻ íĽĪ
Ġìĸ´ëĶĶìĦľë ´Ħ
Ġëĭ¤ë¥¸ë į°
ìĭ¸ê°ľë ĵ¤
li ve
Ġë¹Įëĵľ ìĹħ
ë¹ĦíĬ¸ëįĺ íĮĮ
íķľë²Īë §Į
ë§ł ìĭłìĺģ
Ġê¹ľë ¹¡
ĠíķĦíĦ° ë§ģ
ëĬĲëĤ Įë
8 9
F act
L E
P S
c d
p u
¶ Ĳ
Ġ z
Ĳ ľë
Ġë Ŀ¼ëıĦ
ìĿ´ ì¹ĺ
ëĭ¤ ìĿĮë
ìĿ´ë Ł¬ë©´
ê±° ëĦ¤
íķĺ ìĿĺ
ìķĦ ì§Ħì§ľ
ìĦľ ì¤Ģ
êµ ¼
ìĬ¤ ìĹĲìĦľ
ĮĢ ìĦľ
íķľ ê²°
ìĭľ íĤ¬
ìĻ łì§Ģ
ìĤ¬ ëĭ¨
ìĤ¬ íİĳ
Ġãħ £
ĵľ ìĭľ
ìĥģ íĻĶ
ìĥģ íĴĪ
ìĪĺ ê¸°
ìĿĦ ê°Ģ
ìŀ¥ êµ°
ìĿĺ ê½ĥ
ĠëĤĺ ìĻĢë
Ġê°Ģ ê²Į
êµ¬ ìĤ¬
ìĦ± ê°¤
ëĤĺ ê²ĶìĬ¤ë§Į
ĠìķĪ íķĺëĬĶê²Į
Ġê·¸ë Ł´
ìĸ´ë Ĩĵ
ĠìĹĨ ëĭ¤ëĬĶ
ì¤ĳ ë³µ
³´ ìĿ´ëĥĲ
ìĻĢ ìķ¼
Ġêµ ½
ìº łëĵ¤
ìĺ¤ë ŀĳ
ìĺ¤ë ¥ĺ
Ġíķĺë įĶëĭĪ
Ġì§Ģ ìļ°
ìĤ¬ë §Į
ìĦ¸ ìĽĢ
Ġì¤ ı
Ġìĭľ ì¦Įë
ìĭĿ ê·¹
íĸĪ ëĬĶì§Ģ
ìŀĲë Ĥ³ëĮĢ
ĠìĥĿ ëªħ
ìłĢ ìĶ¨ëĵ¤
íĹ Īë¦¬
ì¡° ë§Įê°Ħ
ì£¼ë §Į
ì£¼ë ¥¼
Ġê³µ ë°±
Ġê¸° ê´Ģ
ĠìŀĲ ì£¼ë
ìĬ¤ë Ŀ¼
ìĹħ ëį°ìĿ´íĬ¸
ë¦¬ ìĸ¼
ë§Ī ìĬ¤íĦ°
Ġíķ´ ìłľ
ĠìłĦ íĪ¬ëł¥
ì± Ħë¡ľ
íı¬ ê¸°
íı¬ ìĬ¤íĦ°
ì²´ íģ¬
íĺĦ ìŀ¥
Ġë¨¹ ìĸ´ìķ¼ì§Ģ
Ġíĸ Īë
Ġëĵ¤ ìĿĦ
Ġìłľ ìĻĳ
ëĤľ ê±°
ĠìĥĿê°ģ ìĿĢ
ĠìĥĿê°ģ ìĿ¸ëį°
ĠìĥĿê°ģ íķĺëĭĪ
ìĿ´ëĦ¤ ãħĭãħĭ
Ġì§Ģë ªħ
ì¹´ë ¡±
ĠëĤĺë ³´ê³ł
ì¢ĭ ê²Į
ìĶ¨ íĮĶ
íĮ¨ ìħĺ
ĠëıĦ ìĦľê´Ģ
ìķĪë ĮĲ
ë§Īë ĥ¥
ë¬´ íķľ
¸Ķë ¡ľ
Ġíŀ Ľ
Ġë°ķ ìķĦ
Ġë°ķ ìĬ¤
ì¢ħ ë£Į
Ġíķł ìĪĺìŀĪ
Ġêµ¬ ì¡°
ì»¤ ê°Ģ
Ġ8 4
ĠíĮĮ ìĿ¼
ĠíĮĮ ìĹħ
Ġë§Īë łµ
Ġìĸ¸ìłľ íķĺëĥĲ
ê±°ê°Ļ ëħ¸
Ġìį ħ
ìľłë ªħ
Ġëĵ¤ìĸ´ ê°Ī
ê°Ī ìĿ´
ĠíĬ¹ ìłķ
Ġì£½ ìĸ´ëıĦ
ĠëĤ´ë Ĥ´
ĠìĨĮë ¦¬ë
ĠìĨĮë ħĢ
ëª¨ íĹĺ
ë¨¹ ëĬĶ
ĠíĶĦë łĮ
ìķ± ëĵ±
ãħ¡ãħ¡ãħ¡ãħ¡ íĥĢ
ëĵľë ŀį
Ġìļķ íķĺë©´
Ġìļķ ìĭ¬
Įĵ ê¸Ģ
Ġë¡ľ íĹ¨ëį¸
Ġíĳ ¹
ĠìŀĪëĬĶ ëĵ¯
ĠìĻ¸ ìłĦ
Ġìĸ¼ íıī
Ġìĸĳ ìķĦì¹ĺ
ê¸Īë ıĦ
Ġì¶ľ ìłĦ
ĠìķĪëĤĺ ìĺ¤ë©´
Ġë¶Ħ íķ´
Ġë¬¼ ê³ł
íĬ¹ ë¬¸
ëħ¸ë ¶Ģê¸°
Ġì°¸ ê¸°
ê°ĢëĬĶ ì¤ĳ
íĺ¸ë ¶Īíĺ¸
Ġê±¸ë ¦¬ëĥĲ
ĠëĤł ì§ľ
Ġíİ¸ íķ¨
ĠíĮĶ ìķĦë
íģ´ë ¦°
ìĿ¸ê±° ìķ¼
íģ´ ìĿ´
Ġê²Ģ ê±°
ĠìĿ¸ë ¬¼
Ġìŀł ìĭľ
ëĬĲ ê·¸ë
Ġì´Īë °ĺë
ĠêµĲ ìłķ
ëĭµ ê²Į
íİĺë ¯¸ë
ìĤ¬ìĭ¤ ìĥģ
Ġìķŀ ë¨¸ë¦¬
ìĸ´ëĸ ¡
ë¶Ħë Ĵ¤
Ġs o
Ġãħĭãħĭãħĭãħĭãħĭãħĭãħĭãħĭãħĭãħĭãħĭãħĭãħĭãħĭãħĭãħĭãħĭãħĭãħĭãħĭãħĭãħĭãħĭãħĭ ãħĭãħĭãħĭãħĭãħĭãħĭãħĭãħĭ
Ġë¶Īë Ł¬ë
Ġë¡ľë ĺĲ
ĠíħĮ ìĬ¬ëĿ¼
ì·¨ ìĨĮ
Ġê³łëĭī ëĵ¤
ìķļ íĢ´ëĵ¤
Ġëľ¨ ëĬĶëį°
Ħ£ ìĿĮ
ìķĦìĿ´ë ĶĶ
ĠìĿ½ ìĸ´
ĠìĹĶ íĦ°
ãħį ãħį
ë§¤ë ¯¸
ĠìĨĮë¦¬ ê°Ģ
ì°¾ ê¸°
ì°¾ ìĿĮ
ìİ Ī
Ġìĭľë°ľë ł¨
ĠìĻ¸ë ħ¸
Ġë¿Įë ¦°ëĭ¤
ĠëĮ ĦìĬ¤
Ġë¬´ìĦľ ìĽĮìĦľ
Ġê¸Ģë ¡ľë²Į
°¤ ìĹĲ
Ġìĺ¬ëł¤ë ıĦ
Ġìłķìĭłë³ĳ ìŀĲ
ê±°ëĵł ìļĶ
ìĺ¤ëĤĺ íĻĢ
Ġì»¤ìĹ¬ ìĽĢ
ĠíĮĿ ì½ĺ
ìĬ¤ëŁ½ ëĦ¤
ĠìĨĮíĻĺ ìĤ¬
íĭĢëĶ± ëĵ¤
Ġê°ľë¹¡ ì¹ĺëĦ¤
Ġì§ķì§ķ ëĮĢ
łĮë ĵľ
ĠìĿµìĬ¤ íĶĦëłĪìĬ¤
ĠëĤĺìĻĶë ĥĲ
ĠëĤ© ëĵĿ
íŀĺëĵ¤ ëĭ¤
Ġì¢Ĩë ĲĺëĦ¤
į¥ ëĦ¤
Ġë´Ĳë ´Ĳ
ë³ĳìĭłëĵ¤ ìķĦ
ê³¤ë ³¼
ëĨĢ ìĿ´
ê¹Ģíĥľ ê·ł
ì§Ģë§Ĳ ìŀĲ
ĠìĬ¹ë¶Ģ ì¡´
ë°Ķë¥´ ìĥ¤
ĠìĦľë²Ī íĬ¸
ĠëĦ¤ìŀĦë ĵľ
Ġ06 25
ĠíĴĪë ²Ī
% %
3 000
¥ ¨
® ¬ë
² Ħë¡ľ
ĳ ĲëĿ¼
ĵ Ģë
Ġë Ĺ
ì§Ģ ë°ķ
ëĭ¤ ëĭ¤
į° ê¸°
ìĺ ¾
ìĺ Īë¦¬
ìĹĲ íĶ¼
ìĿ´ë Ĥ´
íķĺ ìķ¼
ìķĦ ëĭĪëĭ¤
ìĸ´ ìłľë
ĠìĿ´ ê¸´ëĭ¤
ìķ¼ ê·¼ëį°
ìĿ¸ ìĿĦ
ìĨ ¦
ìĨ ¬ë
ìŀĲ ìĭĿ
ĠìķĦ ìĬ¤
¬´ ìĬ¨
ìĪĺ ìĤ¬ëłĮ
ìĪĺ íĹĺìĥĿ
ìłķ ìĦĿ
ìłľ ìĻĳ
¯¸ íĦ°
ìŀ¥ ê¸°
ì§Ħ ê²Į
íģ ĺë
ëĤĺ ì½Ķ
ìĽĲ ìĹĲìĦľ
ì¹ĺ ì¦Ī
ì¹ĺ ì¦Īë£¨
ëĬĶê±° ê¸Ķ
ìĸ´ë ¥ĺ
ĠìŀĪ ìĹĪëĥĲ
Ġì° ľë
Ġì¢ĭ ê³ł
ì¼ °ë
³´ ìĿ´ëĦ¤
ìĹ¬ ìļ°
ê°ģ ìĿ´ëĭ¤
Ġìłķ ìŀĳ
Ġìłķ ë¯¼ê·ľ
Ġêµ ī
ìº Ķë
Ġê°ľ ê¿Ģë
Ġì§Ģ ê²¹
Ġëª» ë§Įë
ìĤ¬ë ¦¬
Ġì² ¼ë
ìĦ¸ ìĹ¬
ëĮĢ ëĭ¨
ëĮĢ ê¹¨
Ġìĭľ ìĥģ
Ġìĭľ íĤ¤ë
ĠìĬ¤ ì¿¼ëĵľ
Ĥĺë Ŀ¼ëĬĶ
ĠìĤ¬ë Ĥĺ
ĠìĥĿ ìĤ°
°Ķ ê¿Ķ
Ġë¬´ ì§Ģ
íķł ìĪĺëıĦ
Ġê³µ ìĭľ
Ġê³µ ëĮĢ
Ġê¸° ìĸ´ëĤĺ
ĠìŀĲ ìłľ
ê¸´ íķĺì§Ģ
ĠãĦ¹ãħĩ ë¡ľ
ìĬ¤ë Ł°
íģ¬ ê³ł
³´ë £Į
¯¸ë ¯¸
ìĹħ ì²´
ë¦¬ íĶĦ
Ġê´ ĺìĶ¸
ì¢Ĩ ë°¥
Ġë°© ë°©
Ġë§Ī ëĭ¤
ë¹ ¼ë
Ġìĭł ìĿĺ
ëħ¸ ìĺĪ
ëį ¤
Ġì½ ĺë
ĠìłĦ ê°ľ
Ġë¹Ħ ìłľìĿ´
ĠìĥĿê°ģ íķĺëĬĶëį°
ĠìłĢ ì£¼
ê¹Ģ ì¹ĺë
ìĪĺë Ħ¤
.... .....
ìĺ¨ ìĿ´
ê²ľ ìĹĲ
ì¶Ķ ê³ł
ë¶Ħ ìĿ´
íĶĮ ìĿ´
§Īë ĵ¤
ëıĦë ¥´
ìĦľë ¹ĦìĬ¤
Ġìŀ¥ ì°©
ë§Īë ¸Ķ
ĠìĶ¹ ëħ¸ìŀ¼
ê°ľë ¹¡
ì¹ĺë Ĥĺ
Ġê°ľë ¹»
Ĥ´ ìĹŃ
ëıĻ ëĤ¨ìķĦ
Ġêµ¬ íķľëĭ¤
²Ħë ł¸ëĦ¤
ìłĢë ¦¬
ĠëıĻ ìĿĺ
Ġë¶Ģë ¥¸
Ġëĵľë ¦¬ë¸Ķ
Ġìĵ° ëĭĪê¹Į
Ġëħ¸ ëĬĶ
ĠëģĿ ë
ë§Ŀ ê°¤
íĥĢë ¥´
§Ĳ ìĿ´
ĠíĬ¹ íŀĪ
ĠíĬ¹ ì§ķìĿ´
ĠíĥĢ íĮĢ
ĠëĤ´ë ¡ľëĤ¨ë¶Ī
ê¸°ë ĮĢë
ĠíĽĦ ìĹĲ
Ġë¬´ë ĮĢë
Ġìŀ¡ ìķĺëĭ¤
Ġì½Ķ ì¹ĺ
ĠãħĪãĦ´ ìĽĥê¸°ëĦ¤
¹Ħë ¹Ħ
ĠìľĦ ëĭĿ
Ġë§Įëĵ¤ ìĹĪëĬĶëį°
Ġë°ĺ ìĦ±
íĶĮë ¦Ń
Ġê²ĮìŀĦ ìĿĦ
Ġìĭ¸ ê°Ģì§Ģ
Ġì§ģ êµ¬
ĠëĮĢë ¹Ħ
Ġìĸĳ íķĻ
ìĹĩ ìľ¼ë©´
ëģ Ħë
ëŃĲ ê³ł
íĶ¼ë °©
ĠìĹ¬ë ıĮ
ëĭ´ ìĽĲ
Ġë¹ł ì§Ĳ
ë¯¸ë ħ¸
Ġìłľë ³´
Ġë¬¸ìłľ ìķ¼
ĠìķĮëł¤ ì£¼ìħĪ
ìľ¤ ìĺģìĤ¼
Ġì²« ëĤł
ì°¸ ìĤ¬
ãĦ±ãĦ± ãĦ±
Ġíģ´ë ¦½
ĠëĬĲ ê¿Ī
ìľ¡ êµ°
ì¦Īë §Į
ëĬĲ ìķħëª½
Ġë¹¨ ê°Ħë
ë¬´ë £Įë
³´ëĬĶ ê²Į
ãħĮ ãħĭ
ë¶Ī íİľ
ĠìĤ° ê±°
Ġìļ°ë ¦¬ëıĦ
ë¿¡ ëª¨ë¦¬ì¦Ī
Ġì¶ķ íķĺë
ë¸Į ìķ±
ĠëĪĦë ¥´ë©´
Ĥ¬ ìĸ´
ĠL CK
ĠíĹĪ ìļ©
ĠãħĩãħĪ ìĿ´ì§Ģ
ê±°ë¦¬ ëĬĶê±°
22 1
ëĨĪ ìĿĢ
Ġì¤ĳìļĶ íķľê²Į
ĠìĬ¤íĥĢ íĬ¸
ĠëĮĢëĭ¨ íķĺëĦ¤
ĠëĿ¼ìĿ¸ ìłĦ
Ĥ¸ ëĭ¤
íķĺëįĺ ê°Ģ
ĵ£ ëĬĶ
ĠìĨĶ ê¹Į
ê²ģ ëĭ¤
íŀĮ ëĭ¤
ĠëĬĲëĤĢ ê²Į
ĠíĥĦ íķµ
ĠíĮ¬ë ¯¸
ì¢Ģë §Ī
Ġìĸ´ëĶ ¨ìĸ´
ĠìłĢëħģ ìĹĲ
Ġê°ĪìķĦ íĥĢ
ĠãĦ·ãĦ·ãĦ·ãĦ·ãĦ·ãĦ· ãĦ·ãĦ·
ĠíıĲ ê¸ī
ìĹ¼ë³´ ê°Ģ
ìŀ¼ë ¯¼ìĿ´
Ġìĸ´ëĸ»ê²Įë ĵł
ĠìĤ¬ëŀĮë §Į
Ġê¸´ ê¸ī
ìŀĪë įĶëĿ¼
ìĤ¬ëĤĺ ìĿ´
Ġìĸ¸ìłľëĤĺ ìĻĢ
Ġê¹¡ íĨµ
ìĩ¼ë ¯¸
ĠìĿ´ìģĺë ĥĲ
ìĦłíĥĿ ê¶Į
¹¼ë ©´
ĠìłĦì²´ ìłģìľ¼ë¡ľ
Ġëĵł ëĭ¤
ìĿ´ìĭľ ê°ģ
ëĭ¤ìĭľë ³´ê¸°
ĠíħĲ ìħĺ
íĪ¬íĳľë ¶Ģíĥģ
ì»¤ìĹ¬ ìļ´
ĠìĨ¬ ìĤ¬
ĠìĥĿê°ģëĤľ ê±´ëį°
ìĿ´ìĸ¸ ì¸ł
Ġë¹Ħê²Į íį¼
Ġê¸Ģë¦¬ ìłł
a d
b e
r y
§ ĺë
¶ ĵ
ë ĵľëĬĶ
Ķ ķ
Ġë ¥ĺë
ëĬ ĳ
ìķ ¤ë¹Ħ
ìĹ İ
ìĿ´ ìłľë¶ĢíĦ°
ìŀ ½
ĺë ĥĲ
ê°Ģ êµ¬
ê² ħ
ëĭ¤ ë³´ë©´
Ġìķ ¨ë
ê³ł ë¦¬
ìĸ ı
ìĺ ´ë
ìĹĲ ë°Ģë¦¬
ì¹ «
Ġê° Ĵ
Ġìł ¸
ìĸ´ ìĺ´
ë§ Ļ
Ġë° ´ë
Ġë° ¸ëŁ°
íĺ ĵ
íĻ ī
ìĤ¬ ìĿ´ë²Ħ
ìłķ íķĺê²Į
ìĿ¼ ìŀĲë¦¬
¹Ħ íĤ¤
ĠëĤĺ ìĬ¤ëĭ¥
ê°¤ íķĺëĬĶ
´ëĭ ĺ
ĠìķĪ íķ´ìĦľ
ĠìķĪ ëĭ¬ë
ĶĶ ìķĦ
ìĸ´ë ¹Į
ĠìŀĪ ìĹĪëĭ¤
íĭ ´ë
ìľł íĶĮ
íĥĢ ìĽĮ
ì¤ĳ ë°ĺ
ĠëĦ ¤ëĦ¤
ê·¸ë ¦¬ìĬ¤
ĠìĤ¬ íĥľ
ìļ° ëĭĪ
ìļ° ìĻĢ
ĵľë łĪ
Ġë¶ Īë¦¬
Ġíķĺë ł¤
Ġê°ľ ìĵ°ëłĪê¸°
Ġì§Ģ ì¼ľ
ìĤ¬ë §ī
ìĦ¸ ìĽł
ê³µ ìĹ°
íĻĶ ìĹĲ
įĺ ê²Į
Ġì¢Ĩ ìĨĮ
ìłĲ ìĹĲ
Ġê°Ļ ìľ¼ë©´
ìĨĮ ìĭľ
Ġíķĺ ê¸Ķ
ìĭ¤ ìĪĺ
ìļ© íĥĿ
Ġë² ħ
ì¢Ĩ ìĿ´
ìĨį ìĿ´
°© íĮ¨
Ġìĥģ ìĭĿ
Ġë§Ī ìĦ¸ìļĶ
Ġë§Ī ìĿ´íģ¬
ĠìĿ´ê±° ë³´ê³ł
ìĿ¼ë ĵľ
Ġì¤ĳ ìķĻ
Ġì¤ĳ ê³Ħë
ĠëįĶ ìĽĮìĦľ
ë°© ìĹĲ
íĽ ł
Ġë§ŀ ê¸Ķ
ĠëĬ ĳ
íĺĦ ìĹŃ
Ġë¨¹ ìĹĪ
Ġë¨¹ ëĬĶëĭ¤
Ġë¨¹ ìĿĦê±°
Ġëĵ¤ ìĿĮ
Ġìłľ êµŃ
ĠíĤ ¨
Ġìĺ¤ë ¥ĺë
ìĪĺë ¹Ī
ĳĲ ëĬĶ
Ġëª¨ë ª¨
ìĿĦë ķĮëıĦ
ĠëŃĲë ĵł
íķłë §¤
ê±¸ ìĬ¤
ĠëıĦ íĬ¸
ëıĦë °ķ
ŀĢ ìĿ´
ìķĪë ĮĢ
Ġê²½ ëħĢ
ìĺĪ ìģĺ
ë¬´ ìĦľ
ĠëĲĺ ìŀĸìķĦ
ĠìĶ¹ ìĥĪëģ¼
Ġê°ľë ĺ¥
Ġê°ķ íĻĶë
ë°° íĭĢ
ĠìĤ´ ìª
ëŃ ī
ì¶ľ ìĭľ
Ġë§Įë ¶ķìĿ´
ìĺ¬ë ¦¬
Ġìķ¼ ìĪĺ
°Ľ ëĬĶê±°
ł¨ ëĭĺ
íĤ¤ë ŀĳ
ìķĮ ìķĦ
ìĿĳ ìĽĲ
êº Ħ
ĠëĶĶ ì§Ģ
ĠëĶĶ íĨ¡ìĬ¤
Ġìŀ¡ ì§Ģ
Ġëĭ¨ ì²´ë¡ľ
¹Ħë §Į
ĠëĤĺìĺ¤ ëĭĪê¹Į
ìķłë ŀĳ
ìķłë ¥¼
ëŀ Ģë
ëłĪ ìķĮ
§ŀ ëĭ¤
ĠêµŃ ìŀ¥
§Įë ĵľëĬĶ
ìĹ¬ë ¦Ħë
Ĥ´ë Ĥ´
ë²Ħ ìĦľì»¤
ë²Ħ ì¦ĪëĿ¼ìĿ´ë¸Į
Ġì¹ĺ íĤ¨ë
ĠìĿ´ë²Ī ëĭ¬
ĠëıĪ ì£¼ê³ł
ĠëĴ¤ ìĹĲìĦľ
ìĺµ ìĿ´
ê°ĢëĬ¥ íķľ
Ġëĭ¬ë ¦¬
ãħĩãħĩ ãħĩ
ãħĤ ãħĤ
ĠíĨµ ê³¼
ĠëıĮë ¦¼
Ġì¡´ë Ĥ´
ĠìĹ¬ë ²ķ
íĺ¸ë §Īê°¤
§İ ìĿĢëį°
Ġê±¸ë łĪ
ìļ´ë ĮĢ
³¼ ê²Į
Ġê´Ģ ì¤ĳ
©´ë ĲĺëĥĲ
ì´Īë ³´
ĠìĤ´ë §Įíķ¨
ĠìĮ ¤
Ġëł Īë²¨ë
Ġë´¤ ìĿĮ
Ġë´¤ ìĿĦëķĮ
ë¬´ë ¦İ
ì¹ľë ħĦ
Ġìļ°ë ¦¬ëĬĶ
Ġì·¨ ì§ģ
ĠíļĮ ìĪĺ
ĠíļĮ ìĭĿ
ĠìĿ´ë¦Ħ ìĿĢ
ĠíŀĪ íĨłë¯¸
Ġê·¹ ë³µ
ëĵ ¬
Ġìŀ¬ë¯¸ ëĬĶ
ê¼´ë ¦¬ë©´
ëĲĺ ëĬĶê±°
ĠëĤĺìĺ¬ ê±°
ìĺ¨ë Ĥĺ
Ġë¯¸ì¹ľ ê±°
ãħıãħı ãħı
17 5
Ġë°©ë²ķ ìĿĢ
Ġì§± ê¹¨ë
Ġìĸ´ì¼Ģë ĲĺëĥĲ
Ġê°Ģê²© ìĿ´
Ġë¸Įë ŀľëĵľ
ìĹ°ë ´ī
ë¥ĺ ì¤ĢìĹ´
ê»´ ìĦľ
ĠíĥĪë ¹ł
ëĬĶì¤ĳ ìĿ¸ëį°
Ġê°Ĳëıħ ìĿ´
Ġìĸ´ëķĮ ìĦľ
Ġê°¤ì£¼ ëĭĺ
ì¤Ħë ŀĺ
ĠãħĪë §Ŀ
ì¤Įëĵ¤ ìĿ´
ĠëĮĢê¸° ìĹ´
Ġn tr
íķĺëĤĺë ´Ĳ
íķĺëĤĺë ³´ëĦ¤
ĠëĨĢ ìķĦ
ģ¼ë ©´
ĠF A
ĠíĬ¸ëłĪ ìłĢ
íĹ¤ë ĵľ
Ġìĸ´ìĿ´ ìĹĨëĦ¤
ĠìĥĿê¸´ ê±°
¹Įë Ķ©
Ġì¢Ģë įĶ
ì¹łë ķĮ
ĠìĿ´ìģĺë ©´
íĺĶ ëĬĶëį°
Ġãħħãħħãħħãħħãħħãħ ħãħħãħħãħħãħ
íĺĪê·Ģ íĺ¼
ĠëĬĲëģ¼ëĬĶ ê±´ëį°
ì»´ëĶĶ ìĶ¨
ê·¼ë¡ľ ìŀ¥ëł¤ê¸Ī
íķĺìĿ´ë °ĺ
Ġê¸į ìłķ
ĠìĬ¤íİĺ ìħľ
ìĿ´ì¯¤ ìĹĲìĦľ
6 8
u l
u s
ª ¬ë
® ¬
² ŀ
ë ľ¨ë©´
Ħ ëĬĶëį°
ìĿ´ ìĹĪëĭ¤
ìĿ´ ìĥĪëģ¼ëĵ¤ìĿĢ
ì§Ģ ìŀ¡
ëĭ¤ ë§Į
ê³ł ìŀĪëĬĶëį°
ìĹĲ ëŁ¬
ìĿ´ë ĮĢ
ìĿ´ë łĩê²Įë
ê¸° ìĹĶ
Ġíķ ´ëĭ¹
Ġê° ĶëĦ¤
ìĸ´ íĥĿ
Ġë° ¤ë
Ġìĺ ¨ëıĦ
ĮĢ ìĿĺ
íķľ ìĿĺ
ìĿ¸ ê²ĥ
ë° ¤ë
ìŀĲ ìĭł
ĠìķĦ ìĺ¤
íķ´ ì£¼ëĿ¼
ìĤ¬ íĨł
ħ¸ ìļ´
Ġìĥ ·
ìĥģ ìľ¼ë¡ľ
ìĿ¼ ì£¼ìĿ¼
ìĿ¼ ì§Ħëĵ¤
ìŀ¥ ë¯¸
ìłĦ ìĦ±ê¸°
Ġê°Ģ ì¹ĺê°Ģ
êµ¬ ê±¸
êµ¬ ì¡°ìĦł
íģ ¡
¬¸ ì¡°ìĤ¬
ĠìķĪ ì£¼ëĥĲ
ìĭł ìĤ¬
íŀ Ŀ
íŀ Īëĵ¤
Ġì° ¡
ìľł ê²©
ìľł íĿ¬ìĻķ
ê·¸ë łĪ
ĠìĤ¬ ì½ľ
ìļ° ëĭĪê¹Į
ìķĦë į¸
Ġë¶ ĵ
Ġìĺ¤ ê³ł
Ġê°ľ ìµľ
Ġê°ľ ìĿ´ëĵĿ
ìłģ ìĿ´ëĦ¤
ãĦ¹ãħĩ ãħĭãħĭ
ĠëĮĢ ìĦ¸
ìĺģ êµŃ
ìŀĳ ìłĦ
ìŀĳ íĴĪ
ĠìĥĿ ê²¼ëĬĶëį°
ĠìĿ¸ ê¶Į
°Ķ ëĭ¤
Ġì¢Ĩ ìĬ¨
ê°Ģë ŀĳ
ì¡° ëĬĶ
ì¡° íļĮìĪĺ
Ġê¸° ìĸ´ë
ëĭ¨ ìłĲ
ì°¨ ìĹĲ
ĠìŀĲ ìĽĲ
íļ ŁìĪĺ
¡ľë Ħ¤
ì¤Ģ ìĺģ
³´ë ħ¸
³´ë Ĥ´ë
Ġë³´ë ł¤ê³ł
íĤ¤ ì¦Ī
ìĭ¬ íķ¨
Ġíķ´ íĶ¼
Ġíķ´ ì¤Į
ê·¸ ìĻĢì¤ĳìĹĲ
Ġë§Ī ê·¸ë©ľ
ìķł ìķł
ĠìłĦ ê¹Įì§Ģ
ĠìłĦ ìĦ¸ê³Ħ
Ġë§ŀ ì§±
Ġê³ł ìļ°
Ġê³ł ì¡¸
íı¬ ìĬ¤íĬ¸
ķĮë ŀĳ
ìļ°ë ¯¸
Ġì£¼ ìļĶ
ĠìĥĿê°ģ ëĤĺìĦľ
ãĦ´ ì§¤ëħĢ
Ġìĺģ ì§ĢìłĲ
ĠìĿ¼ ìľ¼
Ġê·¸ ì§Ģ
ìĤ° ì§Ģ
ĠìķĬ ê³ł
ĠìķĬ ìĿĢëį°
Ġê¸°ë ¦Ħ
ì¤ĺ ìļĶ
ì¤ĺ ìķ¼ì§Ģ
Ġìŀ¥ ìłĦ
Ġì§Ģê¸Ī ìĿ´ëĿ¼ëıĦ
ìį ¼ëĬĶëį°
ìĺĪ ìļĶ
ìĺĪ ìłĦìĹĶ
ê²łë įĺëį°
ì½Ķë ıĦ
Ġë°° íĮħ
ĠíĻķ ì§Ħ
Ġë¶Ī ê°Ģ
Ġë¶Ī ì¾Į
Ġìĭľë ¦¬
Ġìĭľë ıĻ
ìĺ¬ë ¦°
ĠíĮĮ ìĪĺê¾¼
Ġë¨¸ ê°Ģë¦¬
ĠëĿ¼ ìĿ´ë²Į
Ġëĵ¤ìĸ´ ìĻĶëĬĶëį°
ãħĭãħĭãħĭãħĭãħĭãħĭãħĭãħĭãħĭãħĭãħĭãħĭãħĭãħĭãħĭãħĭ ãħĭãħĭãħĭãħĭãħĭ
ìŀ¡ ìľ¼ë©´
Ġë¦¬ ìłł
ĠìŀĲë Ŀ¼
¡ł ì¦Ī
Ġëĭ¹ ìĭľ
Ġëĭ¹ íķĺê³ł
Ġë¬´ë Ĭ¥
Ġìŀ¡ íĺĢ
ĠìĻĢ ìĿ´ë²Ī
íĮĮë ŀĳ
Ġë§Įëĵ¤ ìĸ´ìķ¼
Ġëĸ¡ ê³ł
Ġíķ¨ ìłķ
Ġë¡ľ ì¼ĵ
ĠìĻ¸ íĢ´
ëĺ¥ ì¹°
ì¡Į ì§Ģ
ĠìĹ¬ìŀĲ ì¹ľêµ¬
ìĵ°ë łĪ
Ġíķłë °°
Ġíķłë ķĮë§Īëĭ¤
íĶ¼ë ¶Ģ
íķłëķĮ ê°Ģ
ìĦłë °°
ë¶Ģë ŀĦ
ëĪĦ êµ°
íķĦ ê¸°
ìĨĮë¦¬ ìŀĦ
ĠëĪĪ ê¹Ķ
ëķĮ ëĬĶ
ë¦¬ë ²ĦíĴĢ
Ġì³Ĳë °ķ
Ġê±´ ê°Ģ
Ġì»¨ íĬ¸ë¡¤
ìĿĮë °©
ì»¤ë ¯¸ìħĺ
Ġìĸ¼êµ´ ìĿĢ
ĠíĮĢ ìĿĢ
Ġìĸ´ëĸ¤ ê²Į
ê¼¬ë Ŀ¼ì§Ģ
ì§Ģë§Ī ìĦ¸ìļĶ
Ġê²½ê¸° ëł¥
ĠìĽĶ ìļĶìĿ¼
ê½ Ĥ
ĠíĮĶë ¦¼
Ġìłķìĥģ ìĿ¸
!!!!!!!! !
ë¶ĢíĦ° ê°Ģ
ĠìĿ¸ìĥĿ ìĿ´
Ġë¡ľë ´ĩ
ëĲĺ ìĦľ
ĠìĤ¬ê¸° ê¾¼
ĠìĭĿ ëĭ¨
Ġì§± ê°ľ
Ġê°ľì¢Ĩ ë°¥
ĠA I
ĠìĤ¬ëĿ¼ ì§Ħ
ìĭľê°Ħë §Į
íģ¬ë¡ľ ìĬ¤
)) ))
Ġìľłì§Ħ ìĿ´
Ġê¸°ì¤Ģ ìľ¼ë¡ľ
»Ķ íĸĪëĦ¤
Ġêº¼ ìł¸ëĿ¼
Ġb j
Ġíķĺê³łìĭ¶ ìĿĢëį°
§¥ ìĬ¤
Ġê³µê²© ëł¥
ŀĢë ĵľ
ĠìĹ¼ë³´ ê°Ģ
ĠìľłëĭĪ íģ¬
ĠK ID
ê·ľë ¯¼
ĠíĿ¬ ìŀ¬
ĠìķĮìķĦë ĥĦ
ĠêµĲë ³´
ĠìĥģìľĦ ê¶Į
Ĵ¤ë ¡ľ
Ġë©ĺ íĬ¸
íĥĿë°° ìĹĨëĬĶëĤł
ĠíĨµíķ© ê³µì§Ģ
Ġì§§ ìĿĢ
Ġíķľë§Īë ĶĶë
ìķµ ìĽħ
ê°¸ ê¸°ëĳ¥
ë²¤ ì¹ĺ
ìĹĲìĹĲ ìĹĲ
ĠìĬ¤ì¼Ģ ì¤Ħ
ãħĹ ãħĹ
ĠìĬ¤íħ Ŀ
ìĹŃëĮĢ ê¸ī
ĠíĹĮ íĺĪ
Ġìĸ´ëķł ìĿĮ
ë£°ë Ł¬
ĠìľłìłĢë ĵ¤
ĠìĹĲìĸ´ íĮŁ
ĠìĺģìĽĲ íŀĪ
ìĿ´ì¤Ģ ê¸°
ĠìĽħìŀ¥íķ´ ì§Ħëĭ¤
ëłĮíĥĪ ìĹ¬ì¹ľ
ĠìĬ¤íĭ° ì»¤
ĠKID S
! ?
5 8
M I
a k
© ¤ë²Ħ
° ¤ë
ë Ľ°
Ħ ĺê¸°
Į ķìĿ´
íķ ¸ë
ìķ ¨ë¦¬
ìĹ ³
ìĿ´ ìĺĢëĦ¤
ìĦ ¹ìĭľ
ĠìĿ ĺëıĦ
ĠìĿ ´ëĭĿ
ìĬ ¾
ìĿ´ë ¦Ħë
ê¸° ëĭ¤
ìĸ´ ì¹ĺ
ĮĢ íķľ
ĮĢ ê°Ģë¦¬
íķľ ìķłëĵ¤
ì¤ Ń
ĠìĿ´ ê¸Ģ
íĬ ķ
ìĿ¸ ìłķ
ìĿ¸ ìĿ´ëŀĳ
ë° ¸
íķĺë ©´ëĲĺ
ìłķ íĻĶ
íĸ Ĳ
ìŀ¥ ë§Ī
ĠëĤĺ ì£¼ê±°
ãħĩ ãĦ·
ìłĦ íĺķ
íħ Įë¦¬
ìĦ± íĥľ
ëĤĺ ìŀĩ
ĠìķĪ íķĺëĬĶê±°
ĠìķĪ ìĵ°ê³ł
ĠíĮ °
ë§Į ìĿ´ë©´
ì¤ĳ ëĮĢ
ìĹ¬ ëĭ¨
ê·¸ë ¦¬ëĬĶ
ĠìĤ¬ ìłķ
ĠìĤ¬ ìĸĳ
ê°ģ ìĿ¸ëį°
ĠìķĪë ³¸
Ġìłķ ì²´ê°Ģ
Ġë³´ ìľł
Ġìĺ¤ ëĬĶëį°
Ġìĺ¤ íĥĢ
Ġìĺ¤ ëĭĪê¹Į
Ġê°ľ ìŀ¡
ìĤ¬ë ¨¹
ì§ģ ìłĦ
ĠíĻ Ģ
ê³µ ìľł
ëĮĢ íĺķ
ìĹĨ ìľ¼ëĭĪ
ĠìĤ¬ë ł¤ê³ł
íķ´ë ³´ë©´
ì¹´ ìĹĺ
ĠìĥĿ ìĦ±
ĠìĿ¸ ì§Ģ
ê°Ģë Ŀ¼ê³ł
ê²½ ìłľ
íĶ¼ ì¹ĺ
ìľĦ ê¶Į
íĮĮ ìĽĲ
íĮĮ ìķħ
íķł ì¹´ìĬ¤
íĬ¸ë §¨
ĠìĪĺ ìĤ¬
Ġê¸° ìĥĿ
ĠìŀĲ ê´´
ì½Ķ ì¦ī
íģ¬ ìĹħ
ìĦł ìĹĲìĦľ
ìĭľë Ŀ¼
íĭ° ìĸ´ë
ìļ© ìĤ¬
Ġë² Ļ
ë§Ī íģ¬
ë§Ī ìĺģìłĦ
Ġìĥģ íķľê°Ģ
Ġë§Ī íĤ¹
Ġë§Ī ì§Ģëħ¸
ĠëĤ´ ìĭł
ĠëįĶ ì¿ł
ĠìłĦ ìŀĲ
ĠìłĦ íĺķ
Ġë¹Ħ ìłľ
íĶĦ ìĤ¬
Ġê³ł íĸ¥
íķľë ıĦ
Ġì¡° ìłĪ
ì²´ ê°Ĳ
ķĮë ³´ëĭ¤
ê³¼ ìĿĺ
¥´ë §Ī
Ġìĺ¬ë ¦¬ëĬĶê±°
ĠìķĦë Ŀ¼
ë¡ľ íķĺ
ë¡ľ ìĭľ
ë¶Ģ ìľł
Ġë§Ĳ íķĺë©´
íĥľ íĺķ
ìĺ¨ ëĭ¤ê³ł
Ġìĺģ ìĿĺ
Ġìĺģ ë½ĳ
Ġì§Ģë Ĥĺë©´
Ġìĭľë°ľ ãħĭãħĭãħĭ
ë¹Ħ ìĬ·
ĠëĤĺë Ĥĺ
ìĿĦë ł¤ë©´
ë¯¸ ìļ°
ëĤĺë ĳĲ
§Īë ¥¼
ĠëıĦ ëĬĶ
ĠëıĦ íĺĦ
Ġìŀ¥ ë§Ī
ë¬´ ì¡°ê±´
ĠíĿ °ë
Ġìĸ´ëĶĶ ê°Ķìĸ´
ìĿ´ëĿ¼ ìĿ´ë¸Į
ìĿĢê±° ê°ĻìĿĢëį°
¸Ķë łĽ
íķľëĭ¤ ëĬĶê±°
ìĸµ ìļ¸
íĽĦ íĽĦ
ĠìĨĮ íĺķ
Ġì§Īë Ł¬
Ġíķł ì¹´ìĬ¤
ĠìĦł ìłķ
ì´Ī ì½Ķ
Ġìĭľë ĵľ
Ġëħ¸ ìĪĺê´ĳ
Ġëį° ë°Ķëį°
ë§Ŀ ìĻĳ
ë© ĭ
¡ł ìĿ´
Ġìľłë Ĥľ
ĠìłĦë °ĺ
Ġìŀĳ íĻĶ
Ġíħ Ĳë
ì°į íŀĪ
ĠëĦĺ ëĬĶ
Ġëĭ¨ ìĿ¼
Ġë³µ ìĪĺ
¦´ ê±°
ìķłë §¤
ê°ĳ ìĺ·
ĠìĨĲ ìĿ´
Ġì§ĳ ìķĪ
ë²Ħ íģ¬
íķ´ìķ¼ íķł
Ġì¼ °
ìĩ łë
Ġíķ© ë¥ĺ
ìĨĲ ìľ¼ë¡ľ
íĸĩ ëĥĲ
ĪĦë ĤľëĤĺ
ìĦ¼ íħĢ
Ġì´Ī ì½Ķ
ë¬¼ ìĿ´
ìĿ¸ê±° ê°ĻìĿĢëį°
ì´Īë ĵ±
¶Ī ê°Ģ
Ġëªħ ìŀ¥
Ġê°ģ ê°ģ
ë§¤ ìŀ¥
ĠíķľêµŃ ìĸ´
Ġê±´ ê³¤
ĠíĻĶë ĤĺëĦ¤
ĠëĦĪ ëĬĶ
ĠëĬĲ ê·¸ë
ë¸Ķë łĪìĿ´ëĵľ
Ġë²Ħë ¦°
ĠëıĮìķĦ ê°ĢëĬĶ
ìĬ¬ë Ł¬
ìĬ¬ë ¦¼
ĠëĤĺìĻĶ ìĸ´
ĠìĨį ìĿ´
ë§ŀ ëĭ¤
ëĭ¤ìĿĮ ìĹĲ
ë¶ģ ìĿ´
ĠìĦ¤ x
Ġìµľê³ł ëĭ¤
ìĸ¼ë §Īë
łĮ íħĮ
ĠìĹĨìĸ´ ì§Ĳ
ĠíĮĶë ¡ľ
Ġëĵ£ ê¸°
ìŀĦë ĮĢ
Ġë¯¿ ìĸ´
íķĺê¸´ íķĺëĦ¤
ìł¸ë Ĥĺ
ĠìĬ¬ íĶĦëĭ¤
ĠìĶ¨ ê²Į
Ġëĺĳ ê°ĻìĿĮ
ĠìĭĿ ëĭ¹
ĠìķłëĭĪ íĻĶ
Ġê·ĢìĹ½ ì§Ģ
ê¸°ìķĪ ìĿĢ
on e
ĠìĥģíĻ© ìĿ´
ĠãħĨãħħãħĮãħĬ ëĦ¤
Ġíĺ¼ìŀĲ ìĦľ
Ġëĭī ë³Ģ
Ġìĺµ ë³Ģ
ìĿ´ê¸´ íķ¨
ĠìĹ¼ë³´ìĦ± ìĿ´
ĠìĻĶëĭ¤ ëħ¤
Ġê·¸ë¦¬ ìĽĮ
ĠëĬĲëĤĢ ê±´ëį°
ìĺĽëĤł ìĹĶ
ìĿĦìĪĺ ìŀĪìĿĮ
ì§ĢìĽĲ ê¸Ī
ìĻĦë ²½
ë¬ µ
Ġì¡± êµ¬
ĠìĬ¤íĬ¸ë¦¬ë °į
ĠëĪĮë Ł¬ë
ìº¡ ì³Ĳ
ĠíĻľ ìķ½
ëĳĺ ìĿ´
Ġì§Ģë°© ì§ģ
ìĺģíĥģ ë§Īê°¤
íķľëıĻ íĿ¬
Ġìĸ´ëĶĶê°Ķë ħ¸
ĠìķĦê¹Ŀ ëĭ¤
Ġë¶ĢëŁ½ ëĦ¤
ĠëĮĵê¸Ģë ¡ľ
ĠìĹ¬ëŁ¬ ê°ľ
Ġë²łë¥´ë ĦĪ
íĽĪëł¨ ìĨĮ
ì»´ëĶĶ ìĭľ
ĠëĤĺìģ ľë
8 7
E S
F C
t w
¡ ¬ëĵ¤
¸ ľ
ë Ł°ë
ë ĥĦìĥĪ
Ġ ;
ģ Įë
ĥ ¨
Ĩ Īë
ĩ ¨ë
ĸ ´
íķ Įëĵ¤
ê° ¬
ê° ļ
ê° ¸ë
ìĹ ĪëĤĺë³´ëĦ¤
ìĿ´ ìĬĪ
ìŀ Ħëĵ¤
ëĭ¤ ëħ
ëĭ¤ ìļ´ë
ê³ł ë§Į
ê³ł ì¹¨
ìĿ´ë ¦¼
ìĿ´ë ¦´
íķĺ êµ¬
íķĺ ìĭłë¶Ħ
ìĦľ ìĥĪë´Ħ
Ġíķ ¥
ĠìĹ İ
ëį° ëł¤
íķľ ìĥĪëģ¼
ì¤ ¬ëĦ¤
ìĿ¸ íĮŁ
íĺ Īë
íĶ ħ
íķĺë ¡ľ
íķĺë Ŀ¼ëĬĶ
ìŀĲ ìĻĢ
íķ´ íĶ¼
ìĤ¬ ìĥģ
ìĤ¬ íĥľ
ĵľ ëĬĶê±°
ìĪĺ íĸī
ìĿ¼ ìĿ´ê³ł
íĬ¸ ìľĹ
ì£¼ ìĨĮ
ì£¼ íĺĦ
íķĺëĬĶ ê²ĥ
íĸ Ħë²Ħê±°
ëıĦ ëĬĶ
ëıĦ ìĻĢ
ìĿĦ ê±°ìŀĦ
ì§Ħ êµŃ
Ġê² ī
ì¶ ķìĿ´
ìĦ± ë²Ķ
ëĤĺ ìĻĢ
ĠìķĪ ê¹Į
ĠìķĪ ìĻĢ
ìĭł íķľ
ł¤ ëĭ¤
ìĸ´ë §Ī
ĠìĿ´ë ĮĢ
ĠìŀĪ ëĭĪ
ĠìĹĨ ëįĺëį°
ĠìĹĨ ìĿĦëĵ¯
Ġì¢ĭ ìĿĦëĵ¯
ìľł ìĿ¼
ìľł ìĿĺ
ì¤ĳ ìĿ´ëĦ¤
ì¤ĳ ìĹĶ
ìľ¼ë¡ľ ìĦľ
ê·¸ë Ł¬ëĥĲ
ìĻĢ ìĿ´íĶĦ
ĵľë ¬´ë
ĵľë ²¨ë
ê°ģ ìĿ´ëĥĲ
ĠìķĪë ´Ħ
ìŀĪ ìĹĪëĦ¤
Ġë¹ ½ìĦŃ
Ġë³´ ê´Ģ
Ġë³´ ìĦ¸ìļĶ
ê°ľ ê¿Ģ
Ġìĺ¤ íĶĦë
Ġìĺ¤ ëĭīìĬ¤
Ġëı ĪëıĦ
Ġì§Ģ ìłģ
Ġëª» ê¹¨
ì§ģ êµ¬
ê³µ ë¶Ģë
ëĮĢ ì°½
Ġìĭľ ìłĦ
íĻĶ ìłľ
ĠìĤ¬ë ¨¹
ìĹĪ ìŀĸìķĦ
ĠëĮĢ ì¶ľ
Ġíĥ ķ
ĠìĿ¸ ê²ľ
ìłĢ ê²ĥ
ìłĢ íĿ¬
ìĨĮ ìĹ°
ê²½ ê¸°ëĬĶ
ê²½ ì°¬ë
ì¡° ì§Ģ
íļ ¡
Ġìľł íĿ¬ìĻķ
ì´ Īë¡ľ
ê°ķ ìĿĢ
Ġë¯¸ ìłģ
ëĭ¹ ìĿĢ
ëį ´
Ĳĺ ëĬĶê±°ìŀĦ
ìĽĮ ìĭ±
ë°© ìĹĲìĦľ
ĠìłĦ êµŃ
Ġê³ł ìĨį
ê³¼ ìĹ°
ê²ĥ ëĦ¤
ìĬ¹ ìĹ°
ìķ¼ë ĲĺëĦ¤
Ġë¨¹ ìĹ¬
íĨµ ìĿĢ
ĠìķĦë ¦¬ìķĦ
ë¡ľ ìķĦëĬĶ
ł¤ë ¨¹
ĵ± ìŀ¥
ì§¤ ìĿ´
Ġëªĩ ìĿ´ëĥĲ
ĠìķĬ ëĭ¤
ìĿĦë ª»
ëĤĺë Ŀ½
ĠëłĪ ìĸ´
ĠëłĪ ì¹´
Ġìŀ¥ ìłĲìĿ´
Ġê²½ ê¸°ëĬĶ
ìĺĪ ê³ł
ìĺĪ ëĬ¥
ìĺĪ ìĸ¸
íģ¬ë ŀĺ
Ġ6 6
ìľ¼ ìħĪ
Ġê°ķ ëł¥
ĠíĤ¤ ìŀĳ
Ġë°ķ ì§Ħìĺģ
Ġìŀĺë įĺ
ê²° ìŀ¥
²Ħë ł¸ëĭ¤
ìĺ¬ë ¦¬ë©´
Ġëĵľë Ł½ê²Į
Ġë§Īë łĪ
ĠìķĦëĭĪ ìĹĪìľ¼ë©´
ê±°ê°Ļ ìķĦìĦľ
ìĪľ ìĪĺ
ë§Ŀ ìĿ´ëĭĪ
ìĤ¼ ê°ģ
10 5
ĠíĦ ´
Ġë³´ê³ł ìĻĶëĬĶëį°
ëª¨ ìĿĺ
Ġìŀ¡ ìľ¼ë©´
ê» ĳ
Ġê°Ĳ ìĬ¤íĬ¸ë
Ġ20 19
íĥĪ ì£¼
¹Ħë Ĥĺ
¹Ħë ħ¸
ëĮĢë ©´
Ġë³ĳìĭł ê°ĻìĿĮ
Ġë³µ ìŀ¡
íĮĮë ĥĲ
ìķłë ıĦ
Ġìĭ¬ íĮĲ
ë°ľ ì§Ħ
ìłĳ ëĮĢ
Ġì¹´ íĬ¸
Ġìŀ¬ ê¸°
Ġìĭ¸ ìļ°ê³ł
íĦ°ë ıĦ
ëĭ¬ë ¦°
íķ´ìķ¼ íķľëĭ¤
Ġê±°ë ¥´ëĬĶ
Ġíķ© ë²ķ
ë°Ľ ìĿ´
ëĸ ´ë
ëĸ ´ëĭ¤
ê¸Ģë Ł¬
Ġìłĳ ê³ł
íĨłë¦¬ ìķĦ
Ġê´ĳ íĥĪ
ìĹĺ ì§Ģ
ìĹĺ ìĭľ
Ġ12 00
ì¯ Ķë
ìĨĮë¦¬ ê°Ģ
íģ´ë ¦½
ĠëĪĪ ìį¹
ì´Īë °¥
¶Ī íİ¸
Ġëªħ íķ¨
Ġëªħ ìĸ¸
ĠíĻĶë ³´
Ġì¤Ħ ìĹ¬
Ġíģ¬ë £¨
Ġìļ© ëŁī
Ġì»¨ íħĲì¸łë
ìĮį ë²ł
ì»¤ë ¦¬
ìĬ¬ë ¡ľê±´
Ġì¡´ ìĺĪ
ê·¹ ìŀ¥
ìļĶë ²Ī
Ġìµľê³ł ìķ¼
íİĺë ¦¬
Ġë¯¸ì³ Ĳë
Ġë¯¸ì³ ¤ëĤĺ
Ġìļ´ ìļ´
ĠíĴĢë §¤ìĪĺ
Ġë¶Ļ ìĹ¬
ëĳ ĺë
ë´ī ì¤ĢìĿ´
Ġìĸĺ ê¸°ê°Ģ
ĠãħĤ ãĦ·
ìķļ ìĿĢ
ĠA T
Ġì§Īë¬¸ì¢Ģ ìļĶ
íķ´ì£¼ ìħĪ
Ġìĭľë°ľë ł¨ëĵ¤ìķĦ
23 5
ìĿ´ë¡ľ ê·¸
ë¶ķìĿ´ëĵ¤ ìĿĢ
Ġìĺµ ì¹ĺ
ãħ¡ãħ¡ãħ¡ãħ¡ãħ¡ãħ¡ãħ¡ãħ¡ íĥĢ
Ġë³ĳìĭłëĵ¤ ìĿĢ
ĠìĽĥê¸° ëĭ¤
ìĹ¿ ìĿĮ
ĠíĶĦ ìĤ¬
ìļ°ë¦¬ë ıĻëĦ¤
ê·ľë ª¨
ãħī ãħī
ì§Ħìĭ¬ ìľ¼ë¡ľ
ĠìĽĮë ĩ¨
ë¬ »
Ġê¼´ë¦¬ ì§Ģ
ĠìĤ¬ëĥ¥ íĦ°
Ġìį© ìĸ´
Ġì¹¨ ì°©ë§¨
Ġì¼ĢìĿ´ íĮĿ
ĠìĿ¼ëŁ¬ë ¡ľ
ĠìķĦìī¬ ìĽĢ
ĠëĬĲê»´ ì§Ĳ
ĠëĿµ ê³¡
Ġìķī ìķĦ
Ġê³¨ëĿ¼ ì¤ĺ
ĮĦ ëĭ¤
Ġì°¾ìķĦë ´¤ëĬĶëį°
Ġãħħãħħãħħãħħãħħãħ ħ
ãħ¡ãħ¡ãħ¡ãħ¡ãħ¡ãħ¡ ãħ¡íĥĢ
ëĭ® ìĿĢ
ìķĦë¬´ íĬ¼
ë£© ìĤ¼
Ġìĸ´ì©Įë ĥĲ
ãħ£ãħ£ ãħ£ãħ£
ĠíĲ ŀ
NCëĭ¤ìĿ´ëħ¸ìĬ¤ ê°¤
Ġì¡´ëĤĺìĽĥ ê²¨
Ġê°ģìĿ¸ ìĦĿ
ĠãħĬãħĬ ì¢Ģ
ìĿ¸ìĤ¬ ìĿ´ëĵľ
ĠìĻ¼ ìª½
ëį¸ íķĢ
ìĤ¬ìłĦ ìĺĪìķ½
ê¹¨ìĽĮ íĪ¬íĳľë¶Ģíĥģ
pp le
Ġê³łëĵ± íķĻêµĲ
Ġëĭ¤ìĿĮë Ĥł
íĤ¬ëłĪ ìļ°ìĬ¤
ìķĦëĭĲ ê¹Į
ìĦ¸ìĽł íĥģ
ê°¸ê¸°ëĳ¥ ìĦ¸ìĽłíĥģ
( )
) #
. ""
2 20
8 5
O T
b j
d d
e e
f p
i m
¤ ëĭ¤
ë ½
ì µ¸
Ġ @
ı Īë
Ń ī
Ġë ŀĮ
Ġë ¡±ë¹µ
ëĭ ĺëıĦ
ìĿ´ ìĺĢìĿĮ
ìĸ Ķ
ìĺ ¨ëıĦ
ìĹĲ ìĿ´ìĬ¤
ìĬ Ŀ
ìĿ´ë ŀĺëıĦ
ìķĦ íĭĢë
ìķĦ ìĿ´ìĬ¤íģ¬ë¦¼
Įë ĥĲ
ıĦ ìķĪ
ë§ ·ëıĻ
ì° »
íĺ ĶëĦ¤
ĠìĤ ´ë¦¬
ëĤ ¸
ìŀĲ ìļ±
ĠìķĦ ì¹¼ë¦¬
íķ´ ê°Ģ
íķ´ ì²´
ìľ¼ë ©°
ìĿ¼ íĸī
íķĺëĬĶ êµ¬ëĤĺ
íĸ ĪëĮĢ
ĠëĤĺ ì£½ìĸ´
ìĦ± ìĿ¸
ëĤĺ ê²Į
ëĤĺ ìĹ°
ëĤĺ ìĺ¤ëĦ¤
ëĤĺ ìĺ¤ëĬĶ
ĠìķĪ ëĭ¹
Ġëĭ¤ ê°ĻìĿ´
Ġê·¸ë ¦¬ìĬ¤
ìĸ´ë ¨¸
Ġì¢ĭ ìķĺìĿĮ
Ġì¢ĭ ìķĺëįĺ
³´ ìĿ´ëĬĶëį°
ê·¸ë Ł¬ë©´
ĠìĤ¬ ìĥĿ
ĠìķĪë ´¤ëĬĶëį°
Ġë³´ ê¸ī
Ġë³´ ê²¸
Ġì£ Ħë
Ġê°ľ ìĥĪëģ¼ëĵ¤
ìķĪ íĢ´
Ġëı ĭ
Ġì§Ģ íĳľ
Ġì§Ģ ê²¨
ìĤ¬ë ¥´
Ĥĺë ¥¼
ĠëŃĲ ê°ĢëįĶ
Ġíĺ ¼ëŀĢ
ì¹´ ê±¸
ê´ Ħ
ĠìĿ¸ ìĬ¤íĥĢë
ë³´ ìłķ
ìĨĮ ê³¼ê¸Ī
Ġë¬´ ì£Ħ
Ġë¬´ ìĭ¤ìłĲ
íĶ¼ ìĹĺ
íĶ¼ ìĭľë°©
ì¡° ìłĪ
ìľĦ ìŀĦ
íķł ê±°ëĥĲ
ì£¼ë ł¤ê³ł
Ġê¸° ìłģ
Ġìŀĺ íĮĶë
ëĤ´ ìĿ¼ë
ĠíĬ ¼
ì¢Ĩ ë
ê·¸ ëĬĶ
Ġìĥģ ìĿĺ
Ġìĭł ìļ©
Ĳĺ ëĭĪê¹Į
ê²© ìĿ´
ê²© ê¸°
ĠìłĦ ìĦ±
Ġê³ł ìĿ¸ë¬¼ëĵ¤
íĶĦë ¦´
ĠìķĦë ²Ħì§Ģ
íķĺëĬĶê±° ë³´ë©´
Ġìĺ¤ë ¦¬ì§Ģ
íķĻ ìĻķ
Ġìĺģ íĨµ
íļĮ ëĬĶ
íļĮ ê°Ģ
ìĦĿ ìļ°
ë¶Ħ ê¹Įì§Ģ
íĶĮ íĭ°
ĠìķĮ ê²łëĦ¤
íĨłë ¯¸ë
ĠëĤĺë ©´
ì§ĳ ìĿĢ
ì§ĳ ì¤ĳ
Ġëħ¸ë ŀĢ
Ġëħ¸ë ŀĺëıĦ
ĠìĹ° ê°Ħ
ë¬´ íĺĦ
ëĤ¨ ìŀĲëĵ¤
ìĽĶ ê´ĳ
Ġë°Ķ ìį¬
Ġìĭ¤ ìłĦ
ĠìĨĮ ìļ©
Ġê°ķ íķ´
Ġë°ķ ê·¼íĺľ
ì½Ķë łĪ
§Ŀ íķ¨
ëıĻ ìĿ´
Ġì¢ĭìķĦ íķĺëĥĲ
ìĽĲë ³¸
ĠíĶ¼ ìĭ¸ê°ľ
Ġë¶Ī ê½ĥ
íĻĺ ê²½
Ġë²Ħ ìĦľì»¤
Ġë¶Ģë ¹Ħ
ìĺ¬ë ¦¬ë
ĠíĮĮ ìĿ´
ìĹĶ ìł¤
Ġë§Īë §Ī
Ġëħ¸ ì§±
Ġíı¬ ìĬ¤
°Ľ ëĥĲ
íĥĢë Ħ¤
íĥĢë §Ī
ìĤ¼ ìłĦ
Ġëĵ¤ìĸ´ ìĺ´
ĠíĮ¨ ê³ł
ĠíĪ¬ íĳľë
ãħĭãħĭãħĭãħĭãħĭãħĭãħĭãħĭãħĭãħĭãħĭãħĭãħĭãħĭãħĭãħĭ ãħĭãħĭãħĭãħĭ
ĠìłĲ ìľłìľ¨
ĠíĥĢ ìŀħ
Ġë¦¬ ê³ł
ìĿĦê¹Į ìļĶ
ĠëĤ´ë ©´
Ġíıī ìłĲ
Ġíħ Ķ
ĠíĽĦ ìĨį
Ġì£¼ë ıĦ
íİ¸ ìĿĢ
Ġëĭ¨ ëĭ¨
ëĮĢë Ħ¤
Ġë³ĳìĭł ê²ľ
íĻį ìĸ´ë
ĠìĦľ ìļ¸ë
ë°ľ ìĿĮ
łĪë ¦¬
ëĭ¬ë ł¤
ë²Ħ íĶĦ
ë©Ķ ì¢Ĩ
Ġìĭ« ìĿĢëį°
12 5
íıŃ ë¡ľ
Łī ì§Ħ
ª¨ë ıĦ
ë¬¼ ìĿĢ
łĪìĿ´ íĦ°
íħĮë ¥´
ĠíıŃ íĥĦ
²ł ìĿ´
ĠìĿĢ íĸī
ĠìĤ´ë ł¤ë
Ġëªħ íĴĪ
íı¬ë Ĥĺ
ë§¤ ëĭĪìłĢ
ì²ĺ ìĿĮë
Ġíģ¬ë ©´
Ġì¢ħ ë¥ĺ
ãħģ ãħĮãħĬ
ì¦Īë ŀĳ
ê°Īë Ŀ¼
íĿĳ ìĿ¸
Ġê¶ģê¸Ī íķ¨
íĮ¬ ìĿ¸ëį°
ì¹ľë ħĦëĵ¤
ĠìĿ¸ì¦Ŀ íķľëĭ¤
ĠëĿ¼ë °©
ìŀł ìĪĺ
Ġìĭľê°Ħ ëĭ¹
Ġë°ĺë °ĺ
íĺľ ìŀĲ
ĥĦ ìĥĪë
ë¹Ħë °Ģ
ìĸ´ëĸ łëĥĲ
Ġê·¹ ìŀ¥
ĠS K
ĠìĬ¤íĨłë¦¬ ê°Ģ
ĠìŀĦ ìĭľ
ëĶ© ìĿ´
ľ¨ ê³ł
Ġë§Ĳê³ł ëĬĶ
ĠíĥĢë Ŀ¼
ë¸ ħ
Ġì°¨ìĿ´ ìłĲ
Ġíı° ìľ¼ë¡ľ
íĥ± íģ¬
Ġë³´ìĹ¬ ì£¼ëĬĶ
Ġë¶ĪìĮį íķĺëĭ¤
Ġëº Ģ
ì½© ìĿ´
ĪëĤĺë ´Ħ
Ġìľ¤ ìĦĿ
Ġìľ¤ ìĺģìĤ¼
Ġìĸ´ëķĮ ìļĶ
Ġë§Įëĵł ê±°
íĸĪëįĺ ê±°
¿Ĳ ìŀĦ
Ġìĸ´ìºĲ íķ¨
ĠíĮĲë §¤ëŁī
ĠìķĪë³´ ìŀĦ
Ġëľ¬ ê±°
ë¹¨ ê³ł
ĠN C
Ġíŀĺ ìĿĦ
ëŀŃ íĤ¹
ìĿĦìĪĺ ìŀĪëĥĲ
Ġëª»íķĺ ê²łìĿĮ
Ġìŀ¬ë°Įë ħ¸
ì±Ļ ê²¨
ĠìĬ¤íĥ ł
ģĦë Ł½
Ġìħĭ íĮħ
ĠìŀĲëıĻ ìľ¼ë¡ľ
ĠíĤ¤ìļ° ê¸°
ĠãħĮ ãħįãħĩãħĪ
Ġíĺĳ ëıĻ
ìį© ìĸ´
ìĸ´ìĸ´ ìĸ´ìĸ´
ìĥĢ ëĭ¤
Ġíĵ ¨ëĶľ
Ġìĺ¨ë ĥĲëĵ¤
ĠìĿ¼ë²ł ì¶©
ĠìĹ¬ë¡ł ì¡°ìĤ¬
ĸł ìĦľ
íŀĲë Ł¬
Ġë§ĽìŀĪ ê²Į
Ġë§Įìķ½ ìĹĲ
ĠìĻĦë²½ íķľ
Ġì£¼ë³Ģ ìĹĲ
Ġëģ¼ë ©´
Ġê³Ħë ŀĢ
Ġë¹¡ìĦ¸ ê²Į
Ġíİłë ¦ŃìĬ¤
Ġê¹ĶëģĶ íķĺê²Į
ê°ĲìĤ¬ íķ©ëĭĪëĭ¤
ë³į ê²Į
) +
T R
g v
§ ¨ë
´ Ħë
µ ¨
¸ ħìĭł
Ġë ĥĪ
íķ ´ëĭ¬ëĿ¼ê³ł
ìķ ¨ë
ìķ ¼ëĵ¤
ìĿ´ ìĭľê°ĦìĹĲ
ìŀ Į
ê°Ģ ì§ľ
ê¸ Īëĵ¤
ëĭ¤ ìłĢìĬ¤
ìĿĢ íĩ´
ê¸° ìĿĺ
ì¹ ´ëĭĪ
ìĬ¤ ì¿¨
ëį° ìĬ¤
ë§ ¨ë
ëĭĪ íĤ¤
íķľ ê±¸
íķľ ê²ĥëıĦ
íķľ ê±´ê°Ģ
ĠìĿ´ íĺ¼
ĠìĿ´ ìĬĪ
ĠìĿ´ íĥľìĸĳ
ìķ¼ íķľ
ìķ¼ ê²łëĦ¤
ìĭľ ìĦ¸
ìĭľ ê²½
ìĿ¸ íĬ¸ë
ìŀĦ ìĿ´
ìŀĲ ìĤ¬
ìŀĲ ìľĦ
ìŀĲ íķľíħĮ
ĠìķĦ ì¹¨ë
ĠìķĦ íĤ¤ëħ¸
ìĤ¬ ëĬĶê±°
ìĪĺ ê°¤
ìĪĺ ìĤ¬ìĭľ
ìłķ ìĹ°
ìłķ ìĪĻ
¯¸ ìĬ¤
¦¬ë ³´ëĭ¤
Ġê°Ģ ë§Ŀ
§Ī ìĬ¤
Ġê·¸ë ħĢ
ì¹ĺ íĤ¨ë
Ġì§Ħ ìĦ±
Ġì§Ħ ìĺģ
Ġì° ¸ë
Ġìľ µ
ĠìĹĨ ê²łì§Ģ
ĠìĤ¬ ìķ¼ì§Ģ
Ġë³´ ìĬ¤ë
ìĺ¤ë ²ł
Ġìĺ¤ íĥĢì¿ł
ìķĪ ì¹ĺê³ł
Ġì§Ģ ëĬĶ
Ġëª» ë´Ĳ
ì§ģ ìŀ¥
ìĦ¸ ìĿ´ë
ê³µ ìĭľ
ê³µ íĮŁ
Ġìĭľ íĤ¤ë©´
įĺ íĮĮ
ìĭĿ ëĭ¹
Ĥĺë §Į
ĠëŃĲ ìĺĢì§Ģ
ìłģ ìŀĲ
íĸĪ ìľ¼ëĭĪ
Ġíķľ ì°¸
Ġë¬´ ìĭĿ
Ġë¬´ íľ¼
ê¸Ģ ì¦Ī
íķł ê±°ê°ĻìĿĮ
ĠìĪĺ ìĿ¸
ĠìĪĺ ìĹ¼
ĠìĪĺ ì¤Ģë
Ġê³µ ìķ±
Ġê¸° ìłĪ
Ġìŀĺ ìķĮ
ĠìŀĲ ëĬĶ
ĠìŀĲ ê¶ģ
ê¸´ íĸĪëĬĶëį°
ìĹ° ìĥĿ
ìĹ° ìŀ¬
ìĹ° ê²°
ì½Ķ íĶĦ
ì½Ķ ìĦ¼ë
Ġë³´ë ĦĪìĬ¤
Ġë§İ ìĿ´ëĤĺ
íĤ¤ íĬ¸
íĺ¸ íħĶ
ëł ĪëĤĺ
Ł¬ë ¡ľ
ìļ© ìĦłê¶Į
ì²ľ ê°ľ
ì¢Ĩ ê³¼ê¸Ī
ê°ķ ëĶ±
Ġë§Ī ìĬ¤
Ġë§Ī ìķ½
Ġë¹Ħ ìĮĪ
íĶĦë ĵĢ
íĶĦë Ħ¬
íį ¼ëĵ¤
ê³¼ ì²ľ
ìĬ¹ íĥĿ
Ġëĵ¤ ìĸ´ëıĦ
Ġìĺ¬ë ¦¬ì§Ģ
Ġìĺ¬ë ŀĲëĦ¤
Ġë§Ĳ ìŀĲ
ĠìłĢ ìłķëıĦë©´
íķ© ëĭĪê¹Į
Ġìĺģ íĥģ
ĠìĿ¼ ì¼Ģ
Ġëĭ¤ë ¥´ëĭ¤
ĠìĦ± ìķ½
ãħĬ ãħĭ
Ġê·¸ ê²ĥëıĦ
ìłĦë ²Ķ
ë¹Ħ êµĲ
ĵ± ë¡Ŀ
Ġëª¨ ê¸°
ëĿ¼ ìĦľ
Ġëªĩ ìĿ¼
Ġëħ¸ë ¦¬
Ġìŀ¥ ê°ĳ
ĠìĤ¬ëŀĮ ìŀĦ
Ġìµľ ìłĢ
ìĺĪ êµ¬
Ġíķ´ë ´ĲëĿ¼
êµĲ ìĤ¬
ë¯¼ ì§Ģ
ë¬¸ ê³¼
ë¬¸ ì½Ķë¦¬íĥĢ
Ġë°Ķ ìĿ´íģ¬
ë³´ë ¯¼
Ġìĭ¤ ìŀ¥
Ġìĭ¤ íĸī
ĠíķĺëĬĶ ì§ĵ
ĠìĦł ê±°
ëĭ¬ ëĭ¬
Ġë°° ìķĦ
ê²Ģ ìłľ
ë°ķ ì°¬íĺ¸
ë°ķ ìłķë¯¼
ĠëıĻ ìĺģìĥģ
Ġê°ĢëĬ¥ íķ´
Ġì¶Ķì²ľ íķ´ì¤ĺ
Ġëĵľë ŀĺê³¤
ĠìķĦëĭĪ ì§Ģë§Į
ĠìķĦëĭĪ ìĺĢìĿĮ
Ġëį° ìĬ¤
Ġ9 15
íĥĢë ŀĳ
Ġëĵ¤ìĸ´ ìĺ¤ë©´
ìŀĩ ì§Ģ
ìŀĩ ëħ¸
ë²ķ ìĤ¬
ĠìłĲ ìĪĺë
Ġë³¸ ì²´
Ġëĭ¹ íķ¨
Ġëĭ¹ ë¶Ħê°Ħ
ìĮ Ķë
ì§Ģë§Į ìķĦ
ĠìºĲë ¥´ë
Ġêµ¬ë ł¤
ĨĪ ìķĦ
ìķłë Ĥĺ
ê±¸ë łĪë
ê±¸ë ł¤ìĦľ
§ŀ ëĦ¤
íĬľë ĶĶìĺ¤
Ġë§¤ ëĭĪ
ê²Ł ëĬĶëį°
ê°ĵ íĮĮ
¶ķ ìĿ´ëĬĶ
ë©Ķ ìĿ¸
Ġìĭ« ìľ¼ë©´
Ġìĸ¼ ìĿĮ
Ġì¶ľ ìĭľë
Ġê°Ī ìķĦë
ĠíĦ° ì§ĢëĬĶ
ĠíĦ° ìł¸ìĦľ
Ġëª© ê²©
ĠíĨµ íĻĶ
ë§Įë ĵł
ë§Įë ´ĲëıĦ
Ġê´ľì°® ê²łìĬµëĭĪê¹Į
Ġìĺ¬ëĿ¼ ìĺ¤ëĬĶ
íĺ¸ë ¥¼
Ġê´ĳ ì£¼
Ġì°¾ ê¸°
íķĦ íĦ°
íħĮë ŀĳ
ëĿ¼ë ĶĶìĺ¤
ĠëĦ£ ìĿĢ
ĠìĿ¸ë ıĦ
Ġìĭ¤ë ¶ģ
ĠëĬĲ ê¼Ī
ĠíķĻ ì°½ìĭľìłĪ
Ġì²ľ ìĤ¬
Ġë¨¸ë¦¬ ì¹´ëĿ½
ë¸Ķë ¦¬
ĠëıĮìķĦ ìĺ¨
Ġê¶ģê¸Ī íķľëį°
íķŃ ë¡ľ
ĠíĨłë §ĪíĨł
ìĺ¤ëĬ Ĳë
ĠëĤĺìĻĶ ìĿĦëķĮ
Ġì±Ħ ìĽĮ
Ġë³Ģ ê¸°
íĺĲ ìĺ¤
ıĮë Ŀ¼
ĠëŃĶê°Ģ ìļĶ
Ħ¤ë ŀĳ
ĠìķĪëĲĺ ëĬĶê²Į
Ġëĵ£ ë³´
Ġì²Ń ìĽĲ
Ġë¯¿ ìĿĮ
Ġ17 5
ìħĶ íĭĢ
ĠíĻĺ ìĥĿ
Ġìī¬ ëĬĶ
Ġë¡ľë ¦¬
ĠD UMDi
ĠìĶ¨ íĮĶ
ĠíĮ© ì§Ī
ìĭ« ìĿĮ
Ġë°Ķê¿ Ī
ĠíĤ¤ë ³´ë
ĠëķĮë ł¤ë
ĠíĻķìłķ ìŀĦ
ëħĦëĵ¤ ìĿ´
ĠìĹ¼ íĢ´ëĵ¤
Ġt v
íķĺëŁ¬ ê°Ħëĭ¤
Ġìķłë¯¸ ê°Ģ
ëª¬ ê°Ģ
Ġíĸīë³µ íķľ
ìĸĺ ê°Ģ
Ġêµ° ì§Ģ
ĠìĦ±ëĬ¥ ìĿĢ
ĲĲ ìĸ´
Ġê³µì§Ģ ìĤ¬íķŃ
Ġìĥģê´Ģ ìĹĨ
Ġìĭľì²Ń ë¥ł
ĠìĽĥê¸° ì§Ģ
Ġìłķë³´ ê¸Ģ
ìĬ¤ëŁ¬ ìĽĢ
¦°ë ĵ¯
ĠëĤ¨ë ħĢ
ĠëĤ¨ë ıĮ
Ġì±ĶìĬ¤ ìļ°ìĬ¹
ĠB J
íŀĽ ê°¤
ì£¼ëĶ± ìĿ´
ĠìĤ¬ìĿ´ íį¼ì¦Ī
ĠíĹ¤ë ©Ķ
ĠíĿ¬ ê·Ģ
íĹ¬ë ¦¬ë
Ġëª»ë ¯¿
ê°Ŀ ê´Ģ
íķłìĪĺ ìŀĪëĬĶ
Ġëħ¹ ìĿĮ
Ġìĺ¬ëł¤ë Ŀ¼
Ġìķ° ìĥĿ
ĠìłĪë §Ŀ
Ġì§ľë ¦¬
ìĻ¤ ìºĲ
Ġì°¢ ìĸ´
ëłĪë²¨ ìĹħ
Ġë©Ī ì¶°
Ġì¼Ģë ¦Ń
Ġë³Ħë¡ľë Ħ¤
Ġìĸ´ì©Įë Ŀ¼ê³ł
Ġíķĳê¹Į ìłĲ
ĠìĻģ ìĭ±
Ġì¹ľë ª©
ìºī ìĬ¤
ĠìĿĳìĽĲë ´ī
ĠíĪ½ ìĿ¸ì¦Ŀ
ĠëĦĲë ĦĲ
³´ëĭ ¤ëıĦ
Ġê°ĢëĶĶ ìĸ¸
' m
+ (
. ?
I P
T V
i r
v live
³ ´ëĤĺ
³ ´ëĭ¤ë
Ĳ ´
ìĹ °ëĮĢ
ìĿ´ ìĺ¨
ìĿ´ ìĹĪëįĺ
ìĿ´ ìĻĢì¤ĳìĹĲ
ê°Ģ ëĭĪê¹Į
ëĭ¤ ëĭĲë
ìĿ´ë Ł¬ìĬ¤
ìķĦ ì¿ł
ìķĦ ìĬ¬
ìľ Īë
ê¸° ì¡´
ìĦľ ìļĶ
ìĦľ ìķ½
ìĤ ¡
êµ ĲëıĦ
Ġê° ¯
ìĸ´ ìĽĮì¦Ī
ìĽ ¡
íķľ ìŀĲ
íķľ ìŀĶ
íĥ ķìĿ´
íķĺë įĺë
íķ´ ìķ¼ëĲĺ
ìĺ¤ ëĬĶê²Į
ìĤ¬ ëĬĶëį°
ìĤ¬ ìĿ´ìĹĲ
Ġãħ ĪëıĦ
ìĥģ ìĦ±
ìĪĺ ìļ©
ìłķ ìĽĲ
íķĺëĬĶ ëĨĪëĵ¤
¹Ħ ìĭ¸
¯¸ ìķ¼
ìĿĦ ìĪĺëıĦ
ì§Ħ ì¶ľ
ĠëĤĺ ìĿ´íĬ¸
Ġê°Ģ ê³łìĭ¶ëĭ¤
Ġê°Ģ ì±łë
íģ ¥
łĪ ìĿ´ë¸Į
ëĤĺ ëĭĪ
ĠìķĪ ìĭ¬
ìĿ¸ë ³Ħ
ĠìĻľ ìķĪë
Ġìĸ´ë ²¤
Ġìĸ´ë ¹Į
ìĸ´ë ĶĶë
ĠìŀĪ ëĬĶê±°ëĥĲ
Ġ2 23
ĠìĹĨ ìĸ´ë³´
íĥĢ ìłĲ
ì¤ĳ ë¶ķ
ĠëĦ Ĳ
ìĶ Į
ìļ° ëĬĶê±°
ìļ° ìĽħ
ĠìķĪë ľ¨ëĥĲ
ìŀĪ ìĿĦëķĮ
Ġìłķ ìĭłìĿ´
Ġë³´ ê³łìĭ¶ëĦ¤
ìķĦë §Į
ê°ľ ì¡°
Ġíķĺë °ĺ
Ġê°ľ ê·¸
Ġê°ľ íĮ¨
Ġê°ľ ìŀĺë
Ġì§Ģ ìĿ¸
Ġëª» ë²Ħ
Ġëª» ì°¾
ìĦ¸ ìĿ¼
ìĦ¸ íĥģ
ìĦ¸ ìļ°ìĬ¤
ê³µ ê³µ
ê³µ íĻ©
Ĥĺë ¯¸ë
íķ´ë ĵľë¦¼
ì¹´ ìĹĲ
ì¼Ģ ìĿ´ëĵľ
ĠìĹ¬ ì£¼
ĠìĹ¬ íĶĦë¦¬
íĹ Įë
Ġíķĺ ê²łëĭ¤
íĬ¸ë ĵ¤
ĠìĪĺ ê°¤
ĠìĪĺ íĹĺìĥĿ
Ġìŀĺ ì§Ģ
ê¸´ ê±°
¸Į ê°Ģ
ìĹ° ìĺĪ
ì½Ķ ìĿ´
³´ë Ŀ¼
Ġë§İ ê³ł
ìĭľë ¬¼
ìĹħ ìĿ´
¬¼ ê³ł
ĠëĦĪë ¥¼
íĿ Ķëĵ¤
ì¢Ĩ ë³¸
ê¸ī ìĹ¬
Ġë°© ìĹĲ
ëĭ¹ ìĹ°íŀĪ
ĠëĤ´ ê³ł
ìĿ¼ë §ģ
ĠìłĦ íĨµ
ãħ¡ãħ¡ ãħ¡
Ġê³ł ì§ĳ
Ġì£¼ ê¸°
Ġìłľ ìĭľ
Ġìĺ¬ë ł¸
Ġìĺ¬ë ¦°ê±°
ĠìķĦë Ĥ´
íķ© ìĭľëĭ¤
ì³ ĲëĿ¼
Ġëĭ¤ë ¨¹
ª¨ ìĸĳ
ª¨ ìľ¼
ìģ ¨
ìłľë ħ¸
Ġãħĩ ãħĤ
íĨł ìļĶìĿ¼
íĨłë ŀĳ
ĠëĤĺë ī
ì¢ĭ ê²Łëĭ¤
Ġëħ¸ë ª¨
ŀĢ ê±°
Ġìŀ¥ ìŀĳ
ëªħ ë§Į
ë§Īë ł¤
ìĭľê°Ħ ìĿĢ
êµĲ ìłķ
ĠìĶ¨ë°ľ ìĥĪëģ¼
íĽĦ ìŀ¥
ìĻľ ìķĪ
ãħħãħ İ
Ġë°° ì¹ĺ
ë°ķ ê³ł
Ġë§Ŀ ìĻĳ
ıĦë ıĦ
Ġë²Ħ ëĬĶ
ìºĲë ¥´ë
Ġë§Įë ĤĺëĬĶ
ĠëıĻ ê¸ī
Ġë§Īë ĪĦë
ĠëģĿ ëĤ¬ëĦ¤
ìĤ¼ ê²¹ìĤ´
ĠíĺĦ ìĥģ
Ġì§Īë¬¸ ìŀĪìĿĮ
Ġì£½ ìĹ¬
ëĭī ìĸ¸
Ġëľ °ë
ĠìłĦë ¶ģ
Ġì½Ķ êµ¬
Ġë°ľ ê¸°
Ġë³ĳìĭł ì§ĵ
Ġë³ĳìĭł ê°ĻëĦ¤
Ġìĺ¬ ìĬ¤íĥĢë
ëłĪ ìĿ´ëĵľë
Ġìĭľìŀĳ íķ´ìĦľ
Ĩĵ ìĿĮ
ì¿ł íĤ¤
ĠìĨĲ ìĹĲ
ĠìĿ´ëŁ° ëį°
íķ´ìķ¼ íķĺëĤĺ
Ġê±°ë ©´
ìķĦìĿ´ íħľ
Ġíĳ ¼
ĠëĪĦê°Ģ ìĿ´ê¹Ģ
íĢ´ë ²ĮëłĪ
ĠìĦłë ĦĺëĦ¤
ê¸¸ë łĪ
ê²ĮìŀĦ ì¦Ī
ëģ Į
Ġëª© ìļķ
Ġì»¤ ìĦľ
ìµľ ìļ©ìłľ
íĭ°ë ¡ľ
13 0
ë°Ķë Ĥ¸
Ġê±¸ë łĪë
Ġê±¸ë ł¤ìĦľ
ìĸ´ìķ¼ ê²łëĭ¤
Ġíĺ¸ íħĶ
Ġëĭ¤ë¥¸ ê±´
ĠíıŃ ë¡ľ
ĠëĦ£ ëĬĶ
ëĨ ĭ
ë¦¬ë ¦¬
ìĿ´ìĥģ íĻĶëĬĶ
Ġê²Ģ ì°°
íĩ´ êµ¬
Ġì¢ħ íĬ¹
įĶë ¸Ķ
Ġë³¼ ê¹Į
Ġì´Īë ĵ±
ìĭ± ê¸Ģ
ìĿĮë °Ķíİĺ
ĠíĶĮë ŀ«
Ġìķħ ëª½
ìħĭ íĮħ
Ġë´¤ ìĸ´
Ġê¼´ë ³´ê¸°
ìª½ ìĹĲìĦľ
Ġê¶ģê¸Ī íķľìłĲ
Ġë¹¡ ì³ĲìĦľ
ĠëĤ« ì§ĢìķĬëĥĲ
Ġë¸Ķë łĪìĿ´ëĵľ
Ġë¸Ķë ¡ľê·¸
ĠëĿ¼ë ¦¬ê°Ģ
ĠíĮĢ ìĹĲ
ê³³ ìĹĲ
ê¾¸ë ¡ľ
Ġë³Ģ íĻĺ
Ġê¹¨ ëĬĶ
íķĺê³łìĭ¶ ìĿĢ
Ġìĸ¸ìłľë ĥĲ
Ġê¼¬ë ¦¬
Ġê¼¬ë Ŀ¼
ê½ ī
Ġì²Ń ë°¥
ìĿ¼ë³¸ ìĸ´
Ġëī´ë¹Ħ ê°Ģ
ê¼´ë ¦¼
Ġìī¬ ìĽĮ
ê°Ĵ ìĿ´
Ġë¡ľë ĵľ
Ġë¡ľë ¹Īì¹ĺ
Ĥ¬ ìĿĮ
Ĥ¬ ìľ¼ë©´
íĽĦë ³´
ĠëĤ® ìķĦ
§Ľ ìĿ´
¡Ń ëĭ¤
įķ ìĹĲ
Ġê°Ķ ìľ¼ë©´
ĠìĿ½ ê³ł
ĠëĶľ ìĿ´
Ġì§ķ íģ¬ìĬ¤
ŀľ ìĬ¤
Ġìİ Ħë
Ġíķľëªħ ëıĦ
Ġë¯¸ì¹ľë ĨĪëĵ¤
íıīê°Ģ ì¢Ģ
ìĿ´ë²¤ íĬ¸ë
ĵĢ ìĺ¤
Ġê´Ģìĭ¬ ìĿ´
ëĤłë ¶ĢíĦ°
ĠìľłíĬľë ²Ħëĵ¤
Ġë³´ëĤ´ ê³ł
ê·¸ëŀĺ íĶ½
ìĵ¸ ê¹Į
ìĹĲìĿ´ ì¹ĺ
ĠãĦ·ãĦ·ãĦ·ãĦ·ãĦ·ãĦ· ãĦ·
ìķĪëĲĺ ëĬĶëį°
Ġëĸł ìĦľ
++ ++
ì¤ĦìķĮ ê³ł
Ġê·Ģì°® ëĭ¤
©ĺ íĬ¸
Ġw ar
©ĶìĿ´ ì§ķ
Ġë³´ìĿĢ ìĿĦ
ê¸¸íĥľ ê²¬ëĵ¤
Ġëĭ¬ìķĦ ì¤ĺ
Ġê´´ë¡Ń íŀĪ
Ġê¸°ëĭ¤ë¦¬ ëĬĶ
ãĦ¸ ãĦ¸
Ġíķĺë£¨ë §ĮìĹĲ
ì§Ħì§ľë ¡ľ
íĩ´ë ¬¼
ë¸Ķë£¨ ì¹´íİ«
ĠìłĦë¬¸ ê°Ģ
ĠìĿ´ëª¨ íĭ°ì½ĺ
ìĿĢê·¼ íŀĪ
ĠìķĦë¹ł ê°Ģ
Ġìķ°ë Ĵ¤
Ġìĸ´ëķł ìĿĦê¹Į
ëį¤ë ĶĶëį¤ëĶĶ
ëĤĺë¬´ ìľĦíĤ¤
ĠìĬ¤íħĮ ìĿ´ì§Ģ
íķĻêµĲë ķĮ
Ġíģ´ëŀĺ ìĭĿ
ĠìĽ° ì¼Ģ
Ġì¤ĺë Ŀ¼
íĪŃ íĬĢ
ĠìĬ¤íĶ¼ ì»¤
ĠìļĶì¦ ĺëıĦ
Ġìį¸ëĦ¤ ìĿ¼
( +
) &
N S
V P
e x
m s
¤ Ħ
¥ ł
° ´ëĵľ
İ ĥ
ł ĪëĦ¤
Ġë ¡Ŀ
Ġë ¦½
Ġë ¼Ī
ìĿ´ íĥľìĸĳ
Ġìķ Įë¦¬
ê³ł ìĨį
Ĥĺ ìĺ¬
íķĺ ê°Ģ
íķĺ ìĭ¤
ìļ ¤
ê¸° ì°¨
ê¸° ìļ´
Ŀ¼ ìĹĲ
Ġë§ ·ëıĻ
ì¹ ĺëĵ¤
Ġìł ĵ
ëį° ë°Ķëį°
ĠìĿ´ ê³¼
ĠìĿ´ íĽĦìĹĲ
ĠìĿ´ ìłķëıĦë¡ľ
ĠìĿ´ ì°¬ìĽĲ
ìķ¼ ìĭ¬íķľ
íĬ Ģë
ìĿ¸ ìŀĦ
ì° Ŀ
ì² µ
Ġê· ĵ
ĠìķĦ íĮ¨
íķ´ ì¤ĺëĿ¼
ĠëĤ ¬
ìĺ¤ íĥĪ
ìĤ¬ ìĤŃ
ìĪĺ ê³ł
ìĪĺ ìĹĲ
ìĪĺ ìĤ¬
ìĪĺ ì¹ĺ
ìĪĺ ìĨį
ìłķ ìļ°ëŀĮ
ìĿ¼ íĢĺ
¹Ħ ìĭ¸ë
§Į íķĺì§Ģ
Ġê¸ Ķ
ì§Ħ ìłķíķľ
ê°Ļ ëįĺëį°
ãħĩ ãħĤ
Ġê°Ģ ìĭ¤ë¶Ħ
Ġê°Ģ ìļ´ëį°
¬¸ ìĿ´
ĠìķĪ ìĺ¤ë
ĠìķĪ ìĺ¤ëĥĲ
ĠìķĪ ì¢ĭìĿĮ
ìĭł ê²½
ìĿ¸ë ¹Ħ
ìĿ¸ë ³´
ĠìŀĪ ê²Į
ë§Į ìľ¼ë¡ľ
ë§Į ìĿ¸ëį°
Ġìľ ĦëĮĢ
Ġì¢ĭ ê²łëħ¸
ĠìĤ¬ ê³łìĭ¶ëĭ¤
ìĻĢ ìķ¼ì§Ģ
ê±´ ìĿ´
ê°ģ ìŀĦ
ĠìķĪë ¶Ģë
ìķĦë ¹Ħ
ìķĦë ¥¼
ìĺ¤ë Ŀ½
ìķĪ íķľ
ìĤ¬ë Ħ¤
ĠìĬ¤ ìľķ
ĠëŃĲ íķłê¹Į
Ġìĸ´ íķĦ
ì¹´ ì§Ģ
Ġíķľ ëĭ¤ëĬĶ
Ġíķľ ìŀĶ
ê°Ģë ŃĲìŀĦ
ê²½ ìĺģ
ê²½ ìĹ½
¥´ ìĬ¤
ì¡° ìķĦëĿ¼
íķł ê¹Įë´Ĳ
ĠìĪĺ ìĹħ
ì£¼ë ¶ĢíĦ°
Ġê³µ ê¸ī
Ġê¸° ìŀĲ
Ġìŀĺ íķĺê¸´
¡ľë ŀĳ
ìĦł ìĿĦ
¯¸ë ĶĶ
ìĹħ ìĿĢ
Ġìľł ì¾Į
ë¦¬ ì¦ĺ
ë¦¬ ìĬ¤íĬ¸
Ġë² Īë
ìĭ¬ íĮĲ
Ġ5 7
ê°Ĳ ìĿĦ
ì¢Ĩ ê°Ļ
ê°ķ ì²ł
ê°ķ ìĽĲëıĦ
Ġë¯¸ ê°ľ
Ġë¯¸ ìĽĮ
Ġìĥģ ì£¼
Ġìĥģ ë°ĺê¸°
Ġë°© ì¶ľë
Ġë§Ī ìĺģìłĦ
Ĳĺ ëĬĶê²Į
ë°© íķĻ
Ġê±° ìļ¸
íĺĦ ê¸Ī
Ġë¨¹ ìĹĪëĦ¤
ëĤľ íĪ¬
ëĤľ ìĿ´ëıĦ
ĠìķĦë °Ķ
ë¶Ģ ìłķ
Ġë§Ĳ ìķĦë¨¹
ì¶© ë¬´ê³µ
íĥľ ìĽĲ
Ġìĺģ êµ¬
Ġëĭ¤ë ħĶ
ĠìĦ± íĸ¥
Ġãħħãħ ģãħĩãħĪ
íļĮ ìŀ¥
ĠëĤ¨ ìĿĢê±°
Ġíĭ Ī
ìĦĿ íĻĺ
ĵł ê°Ģ
ë¹Ħ ì¶Ķ
ĠìķĮ ê²łëĬĶëį°
ìĤ´ ìĿĢ
Ġëª¨ ìĸĳ
Ġëªĩ ìłĲ
Ġëªĩ ê¹Įì§Ģ
ìĿĦë §Įíķ¨
íĮĲ ìłķ
ìĤ¬ëŀĮ ìŀĪìĿĮ
ĠëıĦ ìĭľëĿ½
ĠìĹ° ê²°ë
Ġìµľ ìļ©ìłľ
ëĤ¨ ìŀĲë
20 18
ĠëĲĺ ëĬĶê²Į
ì¹ĺë £Į
ìĭłë į°
Ġê³Ħ ìĭłê°ĢìļĶ
Ĥ´ ê¸°
êµ° ìĹĲ
ĠìĤ´ ì°Ĳ
ë§Ĳ ìĿĢ
Ġêµ¬ ìŀħ
ê¿ ¨
ĠìļĶ ìłķ
ıĦë ĮĲ
ìºĲë ıĦ
ìºĲë ħ¼
ĠíĮĮ íĮĲ
Ġìķł ëĬĶ
Ġìĵ° ëĭ¤ê°Ģ
Ġë§Īë ¬´ë
Ġë§Īë §Ŀ
°Ľ ìĿĦ
Ġìį ¬
ĠëģĿ ëĤł
íĤ¤ë ıĦ
íĤ¤ë ¬´ëĿ¼
ê°Ī ìĪĺë¡Ŀ
ìĵ° ëĬĶê²Į
Ġìĸ´ëĸ»ê²Į íķĺëĥĲ
ë© ¤ë
ĠìĽĲ ìĿ¸
ìĭ¸ ìĿ¸
ĠíĬ¸ë Ŀ¼
¡ł íĬ¸
ë²Ī ìĿĢ
Ġìŀĳ ê³¡
íĶ½ ìĭľë¸Į
Ġì£¼ë ¯¼
ëĶĶ ìĬ¤
íİ¸ ìĿ´
ë¨¹ ê¸Ī
Ġê°Ĳ ìĿ´
ëĮĢë Ĩĵê³ł
Ġêµ¬ë ¡±ë¹µ
Ġìŀ¬ë°Į ì§Ģ
ìŀĲê¸° ìłĦìĹĲ
ëĵľë ł¤ìļĶ
Ġë¯¸ë ĶĶìĭłë¹Ħ
Ġíļ į
Ġë°ĺ ê³ł
ĠìĿ´ëŁ° ê²Į
ĠìĿ´ëŁ° ê²ĥëıĦ
Ġìŀ¬ ìĹħ
Ġê²ĮìŀĦ ìĹĲ
§Įë ³´ë©´
íķ´ìķ¼ íķ´
íķ´ìķ¼ íķĺëĬĶ
ë©Ķ ì¹´ëĭī
Ġì¹ĺ ì¦Ī
íıī ê°Ģë
ì§Īë ıĦ
íĥģ ìĺµ
ĠìĿĺ ìĭĿ
ĠìĪĺë °ķ
ë§Įë ĳĲ
ìĻĢë ĮĢ
Ġì¹´ë ĵľê°Ģ
Ġë°± ìļ©íĻĺ
íĨłë¦¬ ìĸ¼
ë£¨ íĥĢ
Ġê´ĳ ìĹŃ
Ġë¹ł ëĬĶê±°
ĠìĹ¬ê¸° ìĹĲ
ĠìĹ¬ê¸° ê¹Įì§Ģ
ª¨ë ¡ľ
Ġê¶ģ ìĺĪ
ìĹ¼ ìĥī
Ġê´Ģ íķľ
ìĸ¸ë ĥĲë
ì§Ħë įĺ
ĠìĤ´ë ¹ł
ìĿĺë ĤĺëĿ¼
ĠìĤ¬ì§Ħ ì°į
Ġìĸ¼ë§Ī ì¯¤
Ġì¥ °
ìĹ¬ìŀĲ ì¹ľêµ¬
ĠëĿ¼ë ĶĶ
ìķĹ ìĸ´
Ġíĥľ ìĸĳ
ĠìĿ´ë²¤íĬ¸ ëĬĶ
Ġìŀĩ ëĬĶëį°
ìľĦë ¥¼
Ġê±¸ ê¹Į
ĠëĪĦë Ĥĺê°Ģ
ĠìĥĪ ìĤ¼
ĠëĪĦêµ¬ë ³´ëĭ¤
ĠS S
Ġë£ °
íĥľë ¸Ķë¦¿
ĸ¡ ëĿ½
ĠãħĤ ãĦ¹
ĠìķĶ ì»·
ĠìĹĦì²Ń ëĤľ
Ġa s
ĠëķĮë ıĦ
ĠíĭĢ ìĻĢ
Ġì¹ĺë £Į
íĦ¸ ìĿ´
Ġê°ľê¿Ģ ìĿ´ëĦ¤
Ġê°ľê¿Ģ íĮģ
Ġìĭłê¸° íķľ
Ġm b
ģĿ ëĤĺë©´
Ġë¶ĪìĮį íķ¨
ĠìĻĢê¾¸ ê°Ģ
ìķĦë¬´ë ¦¬ë´ĲëıĦ
ìĬ¤íħ Ģë
ê°Ģì¶ķ ìĥĪëģ¼ëĵ¤
ì¹¨ë ĮĢ
Ġv er
ĠëĤĺìĺ¤ë ł¤ëĤĺ
Ġê» Į
ĠëĤĺìĺ¬ë ķĮê¹Įì§Ģ
ĠìĹĺ ì§Ģ
ĠìķĪë³´ ìĹ¬
Ġê¸°ëĮĢë Ĳ¨
¥¸ë į°
Ġì§Ħì§ľë ĥĲ
ìŀ¦ ëıĮ
ì¡ĭ ëĭ¤
Ġì¦Ĳ ê¸°ëĬĶ
Ġì³Ĳë§ŀ ê³ł
ìĺĨ ì§ĳ
ar t
ë³µê·Ģ ìľłìłĢ
ì¡¸ë ł¤
ĠìĺĪìģ ¨
Ġê¹¨ë ģĹ
ëķĮë §¤
ìĨĲë ª©
ĠíĨµíķ© ëĭ¹
Ġê°ľê¿Ģìŀ¼ ìĿ´ëĦ¤
ĠìĿ´ê²ĥ ìłĢê²ĥ
ìĿ´ëŁ¬ ëĭ¤
Ġì¶Ķì²ľë °ĽìĿĮ
ĠìĹŃìĤ¬ ìĥģ
Ġì§Īë¬¸ë °ĽëĬĶëĭ¤
Ġì¡°ê±´ ìĿ´
Ġë½Ģë ½Ģ
íĥĶ ëĬĶëį°
ĠëĿ¼ìĬ¤ ì¹¼
ì°Ĳë ĵ¤
Ġíģ´ë¡ľ ìłĢ
Ġê²½ìĽĲë °ĺì§Ģ
íĻĶìŀ¥ ìĭ¤
ë¶Ģëª¨ ëĭĺ
ı¼ë ĥĲ
ì§ĦíĻĶ ìĦĿ
ìĦłì°© ìĪľ
ĠíĢĦë¦¬ íĭ°
íĿĳë°ľ ì§¤ëĵľì»µ
Ġê¾¸ìĹŃ ê¾¸ìĹŃ
' s
4 1
5 6
9 8
h wa
m a
p vp
u v
Ġ Z
Ĳ ¬
ìĿ´ ìĸ´ëıĦ
ìĿ´ ìŀĲëĤĺ
ìĿ´ ê°Ħì§Ī
ê³ ¨ëĿ¼
ì§Ģ ëĭ¤
ìĹĲ ë°ĺ
ìĿ´ë °©
ìĿ´ë ¹Ħë
íķĺ ì§Ħ
íķĺ ìĭ¬
íķĺ ê¼¬
ìķĦ ì¤Įë§Īëĵ¤
ê¸° ëħ¸
ê¸° ìłģìĿĺ
Ŀ¼ ìļ°ëĵľ
ìĸ´ ì§ľíĶ¼
ìĽ ¨ìĸ´
ìŀĦ ê¸°ìĺģ
Ġëª ¬ë
ìĺ¤ íĥĢ
ìĤ¬ ìĿ´ëĵľ
ìĪĺ íĺ¸
ìĿ¼ ìĪĺë¡Ŀ
ìłľ ìŀĦ
ìłľ íĬ¸
íķĺëĬĶ ëĨĪ
¹Ħ íĬ¸
ëıĦ ìĦľê´Ģ
ìĿĦ ìĪĺë¡Ŀ
ê°¤ ì£¼ëĬĶ
¦¬ë ĵľë
Ġê² Įë
ìłĦ ìĹŃ
ëĦ¤ ìĿ´ì²ĺ
ìĦ± íĺĦì¤Ģ
íĨ ¨ë
ëĤĺ ì²ĺëŁ¼
ĠìķĪ ì§Ģ
ĠìķĪ ì£¼
ĠìķĪ íķĺëĤĺ
ì½ ¤ë
Ġìĸ´ë ¥ĺ
ĠìĬ Ľ
ë§Į íķ´ëıĦ
ĠìĹĨ ëĬĶê±´
ĠìĹĨ ëįĺ
ĠìĹĨ ìĸ´ìļĶ
ì¤ĳ ê²½
ìĹ¬ íĥľ
ê·¸ë ¦ĩ
ìļ° ì§Ģ
ìļ° ë§Ī
ĵľë łĪëĵľ
Ġìłķ ë³µ
Ġìłķ ëª¨
ìķĦë °ķ
íŀĪ ìĺ¤ìĬ¤
Ġíķĺë ıĦ
Ġê°ľ ìĨĮë
Ġê°ľ ì³Ĳë
Ġê°ľ ì¶Ķë
Ġê°ľ ì©Ķ
Ġëª» ë´
ĠìĬ¤ ìĭľëħĢ
£¨ íĬ¸
Ġíķľ ê°ľ
ĠìĿ¸ íĦ´
°Ķ ê¾¸ë
ĠìĹ¬ ëĬĶ
ĠìĹ¬ ì¤ĳìĥĿ
ì¡° ê¸°
ëĭ¨ ê±°
ì½Ķ êµ¬
³´ë ıĦ
Ł¬ë Ĥĺ
ìļ© ìĿĢ
Ġìľł íĺķ
Ġìľł ì¶ľë
ë§Ī ìķ°
Ġíķ´ ìłģ
Ġíķ´ ì¤Ģëĭ¤
Ġë°© ëį±
ĠëĤ´ ìĿ¼ë
ëį ®
Ġì¤ĳ ìĭ¬
Ġë¹Ħ ì¤ĳ
Ġë¹Ħ ìĽĥ
Ġê³ł ì¦Ŀ
Ġì» ¸
Ġì¡° ìĿĮ
ê²ĥ ëĭ¤
Ġë¨¹ ìĿĢê±°
ĠëĪĦ êµ¬ëĤĺ
Ġìłľ ìłķìĭł
ìŀħ ìŀ¥ìĹĲìĦľ
ìĥĪëģ¼ ìŀĦ
ì°½ ìĹĲìĦľ
ìºĲ ìĬ¤íĦ°
Ġìĺ¤ë Ŀ¼
ìĪĺë °ķ
íķ© ìĦ±
Ġê·¸ ìĺ¤
Ġìĭľë°ľ ãħĭãħĭãħĭãħĭ
ìĤ´ ìĿ¸ë§Ī
íİĺ ìĿ´ìĬ¤
ìķĪë ĲĺëĤĺ
Ġìµľ íķ©
ëĤ¨ ìĪľìĿ´
íģ¬ë ¥¼
ĠìĶ¹ ìĤ¬ê¸°
ìľ¼ ìķħ
ì¹ĺë Ŀ¼ê³ł
ĠìĶ¨ë°ľ ãħĭãħĭ
íķĺëĭ¤ íķĺëĭ¤
ë¬¸ ìŀĲ
ë¬¸ íķĻ
ì½Ķë ¯¸
ìķłëĵ¤ ëıĦ
Ġêµ¬ ê±¸
Ġë°° ê°Ģ
Ġë°° ìļ°ë
Ġë§Ŀ ê²ľ
Ġë§Ŀ íķ´ìĦľ
Ġë²Ħ íį¼ë
Ġë§Įë ĳĲ
Ġë¶Ģë ĮĢ
ë³¸ ëĭ¤
Ġëĵľë Ŀ¼ë
Ġëĵľë £¨
Ġíı¬ íĨł
Ġëĵ¤ìĸ´ ê°ĶëĬĶëį°
ĠíĮ¨ ëĬĶê±°
ĠíĮ¨ ìĭľë¸Į
Ġê³łë ĮĢ
Ġë©Ķ ê°Ģ
íı° ìĿĢ
¶Ģë ħĢ
Ġë³´ê³ł ìŀĪëĬĶëį°
Ġê·Ģ ìĨį
Ġíıī ìĨĮ
ëª¨ ìķ¼
Ġë°©ìĨ¡ ìĿ´
ĠíĽĦ ê³Ħ
ì½ĺ ìĿ´
ì½ĺ ìĿĢ
Ġë½ĳ ìĿĦê¹Į
ĠíĶĦë ĵĢ
Ġë³µ ìŀ¥
ĠìĻĢ ì¤ĳìĹĲ
ĠìľĦ ê¸°
Ġë°ĺ ê³łëĭī
Ġìĵ°ë Ł¬
Ġê´ľ ì¶ĺ
ê¸°ê°Ģ ëĬ¥
Ġê¾ ¼
Ġìĸĳ íĺĦ
ĠìĹħ ë¡ľëĵľ
ìĹĩ ëħ¸
Ġíķłë ¨¸ëĭĪ
Ġì»¤ íĶ¼ë
ĠìĪĺë ł¨
ë§Įë ³´ë©´
ĠëıĮë ¦¬ë
Ġìĺ¬ëĿ¼ ê°Ĳ
Ġìĺ¬ëĿ¼ ìĻĶ
íĸĩ ëħ¸
Ġë°± ìĿ¸
Ġê´ĳ ëĮĢ
ì¼Ģë ¯¸
ì±Ħ ìĹ°
Ġë§Ľ ìŀĪëĥĲ
Ġìĭłë łĪìĿ´ëĵľ
ĠíıŃ ëĿ½
ë°ĺ ìĿ¸
Ġê¸Ī ì¹´
Ġì¿ ¨ë
ê²¼ ìĿĮ
íı¬ë ¡ľ
ëª© ë¡Ŀ
ë§¤ ì§ģ
ë¦¬ë ª¨ëľ¨
ëĬĲ ê»´
ĠíķĺëĬĶê±° ì§Ģ
ë¸Ķë £¨ë
Ġë²Ħë Ł¬ì§Ģ
Ġë¹¡ ì¹¨
ĠíĨłë ¡ł
ëĤ´ë ł¤
Ġë¹¨ ìķĦë
íĹ¤ ìĿ´
Ġëĭ¤ìĿĮ ì£¼ìĹĲ
Ġëķ ĥ
ìľĦë Ħ¤
ìĨĮë°Ķ ëĬĶ
ĠíĴĢë ²ĦìłĦ
ĠëĨĴ ëĦ¤
Ġíĺ¸ë ¶Īíĺ¸
ĠìĤ¬ëŀĳ ìĿĺ
ĠíŀĪ íķĺ
ĪĦëĤĺ ê°Ģ
ì¶Ķë °©ìŀĲ
ì¶©ëĵ¤ ìķĦ
Ġãħĭãħĭãħĭãħĭãħĭãħĭãħĭãħĭãħĭãħĭãħĭãħĭãħĭãħĭãħĭãħĭãħĭãħĭãħĭãħĭãħĭãħĭãħĭãħĭ ãħĭãħĭãħĭãħĭ
ĠëĮĵê¸Ģ ìĹĲ
Ġëļ ľ
ìĪĺìŀĪ ëĭ¤
Ġìĵ¸ë ķĮ
ĠëįĶë ¹Ļ
ëįĶ ìĽĮìĦľ
ľ¨ ëĬĶ
Ġëĺĳ ê°ĻëĦ¤
Ġê·¼ë ³¸ë
Ġìį¨ë ³´
íĿ¬ë ıĻ
ĠíĥĢë ©´
Ġíıīê°Ģ ìłĲ
Ġì£Ħ ìĨ¡íķ©ëĭĪëĭ¤
ĠĠ Ġ
ĠìĻķ ê´Ģ
Ġë¹ĦìĬ· íķ¨
Ġê°Ķ ëĭ¤ê°Ģ
ĠìĹĶ ì§Ħ
íĵ ¨ëĶľ
Ġê¸°ìĸµ ìĿ´
Ġìĸµ ì§Ģ
Ġë¬¼ìĸ´ë ³´ë©´
»Ķ íķ¨
Ġìłķìĭłë Ĥĺ
ë§İ ìĿĢ
ĲĲ ìľ¼ë©´
Ġì°ľ ìķ°
ãħ¡ãħ¡ãħ¡ãħ¡ãħ¡ãħ¡ãħ¡ãħ¡ ãħ¡íĥĢ
ì§Īë¬¸ ì¢Ģ
ë§¥ ì£¼
Ġf ine
ìĬ¤íħ Ķ
ĠìĨĶ íĤ¬
Ġë°ĺìĿĳ ìĿ´
ë³¼ ê¹Į
Ġíķĺê³łìĭ¶ ìĿĢ
íķ´ìķ¼ë ı¼
ł· ëĬĶëį°
Ġê» Ħë
ëĳĲë ¶Ģ
ìĹ¿ ëĬĶëį°
ê¼¬ë§Ī ê°Ģ
Ġë¶ģ ë¯¸
Ġëª¨ëĵł ê²Į
ãħĨ ãħĨ
ĠìĽĮ ìĭ±
Ġê¸Īë °ľ
Ġì¹¼ ìĤŃ
Ġê¼¬ë§Ī ê°Ģ
ëģĿ ëĤĺê³ł
ĠíĿ¬ ìĥĿ
ĠãĦ·ãĦ·ãĦ·ãĦ·ãĦ·ãĦ· ãĦ·ãĦ·ãĦ·ãĦ·
Ġêµ´ë Ł¬
Ġíı¬ë ¥´
ê²ĥê°Ļ ê¸Ķ
ê²ľë ıĦ
ĠíĬ¸ë¡ľ íĶ¼
íĪ¬íĳľìĿ¸ì¦Ŀ ìĻĶ
ĠìĹŃëĮĢê¸ī ìľ¼ë¡ľ
Ġìķ° íĿĳ
ĠíĮ©íĬ¸ ìŀĦ
Ġìķķ ëıĦìłģ
ë³¼ë ķĮ
Ġê°Ģì¶ķ ëĵ¤
Ġë¥ĺ ì¤ĢìĹ´
ĠãħĬ ãħĭ
ëķĮë ¶ĢíĦ°
Ġíĺĳ ë°ķ
ìľłëĭĪ ìĺ¨
Ġìª Ħ
ë§Īì§Ģë§ī ìľ¼ë¡ľ
íģ¬ë¦¬ íĬ¸
Ġì´Īê¸° íĻĶë
Ġì¹´ìļ´ íĬ¸
ìīĳ ëĵ¤
ë¨¼ ê°Ģ
Ġëį¥ ëĭ¤
ìłķë¯¼ ê·ľ
Ġr pg
ìķĦë¬´ ê²ĥëıĦ
ìķĶë §Į
Ġê·ľ ìłķ
Ġê·ľ ì¹Ļ
ìµľë ĮĢ
ìµľê³ł ìĿĺ
ìĥĪëĵ¤ ìķĦ
Ġë²łë¥´ë ĵľ
ê¹Ģíĺ¸ì¤ĳ ë§Īê°¤
ëĩĮ ìłĪ
ĠíĺĪê·Ģ íĺ¼
Ġë²ĦíĶĦë ł¥
ĠìĦłìĪĺë §ŀì¶Ķê¸°
ì¹´ìļ´ íĦ°
ĠíģĲë ¸Į
Ġê°ľëĤĺ ìĨĮëĤĺ
íĹ¬ë¦¬ë ĩ¨
) ^
9 2
I C
b a
p df
t p
¯ Ģ
ĩ ¬
ı Ħëĵ¤
Ĳ ĺëıĦ
ĵ Ī
ļ ±
ł ¬
Ġì ¨
ìĿ´ ìĶ¨ë°ľ
ê°Ģ ìĿĦ
ê³ł ëĮĢ
ê³ł ëĵ±
Ĥĺ ìĻĶ
Ħ¤ ê°Ģ
Ŀ¼ ìĿ´íĬ¸
łë ķħ
ìĦľ ìķ¼
.. ??
Ġìł ¸ë
ê²Į íĭ°
ìķ¼ êµ¬ë
ìĿ¸ ìŀ¥
ìĿ¸ ìļ°
ìĿ¸ ìĹ°
ìĺ¤ ê¸°
ìĤ¬ ìĿĺ
ìĤ¬ ì¹´
Ġãħ ı
ìĪĺ ìĹ¼
ìĪĺ ì¦ĪëĤĺ
ìłķ ëĭµ
ì£¼ ìĦĿ
ëıĦ íĺĦ
ì§Ħ ì¤ĳ
ì§Ħ ìĹ¬ìĭł
ì¶ ľë°ľ
łĪ íĭ°
ĠìķĪ ëĭ¤
ĠìķĪ ê°Ģë
Ġìĸ´ë ĬĲë
ìĽĲ ìľ¼ë¡ľ
ıĻ íĺ¸
ĠìŀĪ ëĬĶê±°ì§Ģ
Ġì° Ŀ
Ġìľ ¤ëıĦìĺģ
íĥĢ ì¼Ģ
íĥĢ ìĦĿ
ìĹ¬ ì´Ī
ĠìĤ¬ ìĿ¸
ĠìĤ¬ ìĥģ
ĠìĤ¬ íį¼
ìļ° ì¦Ī
Ŀ¼ë ©Ķ
ëħ ¼ëŀĢ
ìŀĪ ëĬĶê±°ìŀĦ
ìķĦë §¥
Ġíķĺë §Ī
Ġíķĺë ł¤ëĤĺ
Ġíķĺë ł¤ëĬĶëį°
ìķĪ ê°Ĳ
ìħ ķ
ìħ ¨ëĦ¤
ìĹĪ ëĭ¤ê°Ģ
ìĹĪ ìĿĦëķĮ
íķ´ë ªħ
Ġìĸ´ ìłľë
ĠëĪ ķ
êµ¬ë ıħ
°Ķ ìĬ¤
°Ķ ëĭĪ
Ġì¢Ĩ ê¸°
Ġì¢Ĩ ë³¸
Ġì¢Ĩ ì¥Ĳ
Ġë¬´ ìĦł
ì¡° ìĦ¼
ìľĦ ì¦ĪìĽĲ
ëĬ¥ ì§Ģ
Ġìŀĺ íķ´ìĦľ
ìĹ° ì¶ľ
ìĬ¤ë ª¨
ìĬ¤ë §ĪíĬ¸
Ġë§İ ìķĺ
íĤ¤ ì¹ĺ
ìĭľë ©Ķìĺ¤ëĦ¤
Ł¬ë °©
ìļ© ìĭ¤
ì²ľ êµŃ
ì´ ¬ìĺģ
ĠëĦĪë ıĦ
ãĦ± ãħĪ
ì¢Ĩ ì¥Ĳ
ê°ķ ë¦¼
Ġìĥģ ì²ĺ
ëĭ¹ ë¶Ħê°Ħ
ĠëĤ´ ìĹŃ
ĠìĿ´ê±° ëĤĺ
Ġìĭł ìĪĺ
Ġëĸ łëĵ¤
Ġì¤ĳ ê²¬
ìŀ¬ ìĦĿ
Ġë¹Ħ íĬ¸ë
Ġ4 000
ê³¼ ìłľ
ìķ¼ë §Į
Ġì£¼ ìļ´
¥´ë ĵľ
íĺĦ íĥĢ
Ġëĵ¤ ë¶Ģëĵ¤
Ġìŀ¬ë ¯¸ë
ìĪĺë ¶ķìĿ´
ìĺ¨ ê²Į
ĠìĿ¼ íķĺëĬĶ
ĠìĿ¼ ìĿĦ
ĠìĿ¼ ì¹¨
ª¨ ìķĦ
Ġëª¨ë ¥´ëĦ¤
Ġë© ´ë
ĠëĨ ĭ
Ġë¬¸ ìĭł
Ġëªĩ ëĭ¬
ĠíĽ Īë
§Īë §Ī
ìĦľë §Į
¥¸ ëĭ¤ê³ł
Ġê°¤ ìĿĦ
ĠëĲĺ ê¸°
ê°ľë ŀĳ
ìĭłë ¶Ħëĵ¤
Ġê°ľë §ī
Ġê°ľë §İëĦ¤
ê·Ģ ìĨį
ĠìĨĮ ìłĦ
ĠíĤ¤ ìļ´
êµ° ìĿ¸
ëıĻ ìĪ²
ëıĻ ìĪĺì¹¸
Ġìŀĺë §Įë
íĻĶë ł¥
ê²Ģ ìĭł
ĠíĶ¼ íķ´ë
íĻĺ ìĺģ
ĠãħħãħĤ ãħĭãħĭãħĭ
ìĿ´ë²Ī íĻĶ
Ġë§Ŀ ê°¤
Ġ7 2
Ġìĵ° ëĬĶê±°ìŀĦ
Ġë§Īë ¦¬ë
Ġëħ¸ ê¼´
ìł¸ ìĬ¤
ĠëģĿ ëĤ´ë
íĥĢë Ŀ½
Ġëĵ¤ìĸ´ ê°Ģë
Ġë§Į ìĹĲ
Ġê¹Ģ íĺľìĦ±
ìĥī ê¸°
Ġìŀĳ ëħĦë
ĠíķĺëĤĺ íķĺëĤĺ
Ġíħ Ķë
ê´ĳ ì£¼
ì²ł ìĿį
ì¤Į ìĿĢ
ìĦ¸ë ıĦ
ìĦ¸ë Ŀ¼
Ġìłģ ê²Į
Ġë¬´ë ¦ī
Ġìŀ¡ ê¸°
ë³´ëĭ¤ ê°Ģ
ëĤł ìĿ´
¹Ħë ¥¼
Ġì¹ľ íķľ
Ġì¹ľ íķ´
Ġë³µ ì»¤
ĠìĿ´ìĥģ íķľëį°
ëłĪ ìĭĿ
ìĶ¹ ì°½
§ŀ ëĬĶ
Ġë§¤ ì¹ĺ
Ġì§ģ ìŀ¥
ëĭ¬ë ©´
ĠìĦľë ¹ĦìĬ¤
ìķĦìĿ´ ê³ł
°Ķë ŀĢ
ĠìĻĶ ìľ¼ë©´
ĠìĻĶ ìİĦë¦¬
ëģ ¼ê³ł
ëī´ë¹Ħ ê°Ģ
ĠíĦ° ì¡Į
ĠíĦ° ì¡Įëĭ¤
12 9
ë°± ìĪĺ
Ġìłĳ ìĪĺ
Ġìłĳ ëĮĢ
Ġìłĳ ìĹĪëĬĶëį°
íıŃ ìĬ¤
Ġì¡´ë ª»
ĠìĹ¬ë ¦Ħë
ë£¨ íİĺìĺ¨
ĠíĮĮë ŀĹê²Į
ĠìĤ¼ ê²¹ìĤ´
ĠìķĮëł¤ ì£¼
Ġëªħ ê³¡
ëª© íĳľ
ëª© ìĨĮë¦¬
Ġê±´ ì¶ķ
ì§± ê¹¨ë
Ġì¢ħ ì¡±
ìĬĪ íĻĶ
ìĿĺë ĪĪ
ë¸Ķë §¤
ĠêµĲ ìĪĺ
ìħĭ ìĿ´
ì¡°ë ħ¸ë¸Ķ
Ġë³´ëĬĶ ì¤ĳ
ĠìĹĲë °ĺ
ëĭ¤ìĿĮ ì£¼ìĹĲ
ë¶ģ íķľ
ê³³ ìĹĲìĦľ
ĠíĴĢë ¡ľ
Ġê·¸ë§Į ì¢Ģ
ë¸Į ê¸Ī
ł¸ë Ĥĺ
ĠíĮ¬ ìĭ¸
ëĶ° íļ¨
Ġs p
ĠíĮĶë ¡ľìĽĮ
ĠíĬ¸ëłĪìĿ´ëĵľ ëĬĶ
ìķĶ ì»·
ìĽĶë ¶ĢíĦ°
Ġê¼¬ ìļ°ë©´
ĠíħĮ ìĿ¼
ĠíħĮ íģ¬
ĠìķĶ ê²ĥëıĦ
Ġìĸ´ì¼Ģë ĮĲ
ì¿łë ¥´
ìĹĳ ë°¥
ĠíĭĢ ìĸ´
ĠA pple
ĦĪë ¹Ħ
Ġë´Ĭ ìĹ°ê°¤
???????? ??
Ġm c
ìĭľê°Ħë ıĦ
ĠìľłíĬľë¸Į ìĹĲ
ëĿ ¤
Ġìĸ» ìĿĮ
Ġëī´ ìļķ
Ġìĭľë°ľë ħĦìķĦ
ìĹī ëį©ìĿ´
ì¤Ħë §Į
Ġë¯¸ì¹ľë ĵ¯ìĿ´
ĠìĽĲíĥĳ ìĿĢ
Ġë°¤ ìĥĪ
ĠìĬĪ íĮħ
ĠìĿĮë °Ķíİĺ
........ ........
ĠìĹł ì°½
Ġê¼´ ì°Į
ĠìĺĪë §¤
Ġì¸ ł
ĠíĥĦ ìķķ
ĠìŀĲì£¼ êµŃë°©
ìĺĪë ¹Ħêµ°
ĠìľłëĭĪ ìĺ¨
Ĥ´ëĬĶ ê±°
ê·¸ëŁ° ê°Ģ
ĠìłĢëŁ° ê±°
íĹ¤ë įĶ
ê²ĥê°Ļ ëĥĲ
ĠìĺĪìģ ľëį°
ĠíĤ¤ìļ° ëĬĶëį°
Ġê·Ģì°® ìķĦìĦľ
Ġì»¤ìĹ½ ëĦ¤
ĠãĦ¹ ãĦ¹
Ġìĭľì²ŃìŀĲ ìĪĺ
Ġì§§ ê²Į
ëĿµ êµ°
ëĿµ ê³¡
łĮë įĶ
Ġë©Ī ì¶Ķ
Ġì¿¨ ê°Ĳ
íĹĪë ¸Į
Ġìĭ¸ìļ° ëĬĶê±°
ãħ¡ãħ¡ãħ¡ãħ¡ãħ¡ãħ¡ ãħ¡
ĠëĤĺìĻĶë ħ¸
ĠëĥĦìĥĪ ê°Ģ
ĠíĶ¼íķ´ ìŀĲ
zz zz
ëĸ³ ëĭ¤
Ġì¢ĭìķĺ ìĿĦíħĲëį°
ĠíķľëıĻ íĿ¬
Ġë°°ê³ł íĮĮ
ë¸ĮìĿ´ ê°¤
ìĬ¤íĨłë ¦¬ë
ĠíİŃ ê·Ħ
Ġì¸¡ ìłķ
ĠìľłíĪ¬ë ¸Į
ìį¬ë įĶ
ìĦ¤ëªħ íļĮ
ìļĶì¦ ĺëıĦ
Ġë°ĸ ìĹĲìĦľ
ê°ķëıĻ íĺ¸ë§Īê°¤
G M
G V
O A
O R
u p
£ °
© ¤ë
¿ Įë¦¬
ë ĵľì»µ
ë ĩ¨
ë ¦´ëĿ¼
Ġ ~~
Ħ ´
Ī Ļ
Ĭ ê·¸ìłľ
į ľë
ĳ ¬ëĿ¼
ķ ìĭľ
ìĿ´ ê¸Ģ
ìĿ´ ê¸¸
ê°Ģ ëĭ¤ê°Ģ
¬ë ıĦ
Ĥĺ ìĺ¤ëĥĲ
ìĹĲ ëĿ¼
ê±° ê¸°
íķĺ ìŀĲë©´
ìķĦ ê·¼ëį°
ìķĦ íĤ¤
¡ľ ìĿ´
ìĦľ íĬ¹
Ġíķ ı
ìĬ¤ ì°Į
ìĬ¤ íĤµ
ê¹ ½
ê¹ Ł
ëĭĪ ëĭ¹
Ġë° ¸
ĮĢ ì¤ĳ
íķľ ìĭĿ
ĠìĿ´ íķĺ
ĠìĿ´ ìĦ¸ê³Ħ
Ġë³ ´ëĭ¨
ìĭľ ìĹĲìĦľ
ìĭľ íį¼
ìĭľ ì£ł
íķĺë ¸Į
ĠìķĦ ì§Ģ
ĠìķĦ ì§Ģë¥´
ìĤ¬ ê·Ģ
Ġãħ ĥ
ìĿ¼ ìŀĲ
íĬ¸ ìľĦ
ì£¼ ì£¼
¯¸ ëĭ¤
ìĿĦ ìĪĺê°Ģ
ì§Ħ ëĭ¤ê³ł
ì§Ħ ìŀħ
¶Ģ ì§Ģ
íħ Ģë
íķ¨ ìĹĲ
§Ī ìĻķ
ĠìķĪ ì¤Į
ĠìķĪ ìį¨
ĠìķĪ ìĺ¤ëĦ¤
ĠìĻľ íķĺëĥĲ
Ġìĸ´ë ĳł
ł¤ íķĺëĬĶëį°
ì¹ĺ ëĭĪê¹Į
ĠìŀĪ ëĬĶê±´
ĠìŀĪ ìĹĪëĤĺ
ĠìĹĨ êµ¬ëĤĺ
Ġì¢ĭ ì§ĢìķĬëĥĲ
íĭ ĭ
íĥĢ ìĭľ
ìĹ¬ ìŀ¥
ê·¸ë ıĻìķĪ
ĠìĤ¬ ì§ģ
ìļ° ì¤Ģ
ìŀĪ ìĬµëĭĪëĭ¤
Ġì£ ¶
ìº ĩ
ìĺ¤ë ŀĺë
Ġìĺ¤ ì§Ħëĭ¤
Ġìĺ¤ ìŀ¬ìĿ¼
Ġê°ľ ìĭľë°ľ
ìķĪ íķ´ëıĦ
Ġì§Ģ ìŀ¡
Ġëª» íķĺì§Ģ
ìĤ¬ë ª¨
Ġìĭľ ê°ģ
ìĹĨ ìĸ´ëıĦ
ĠëĲ ĲëĥĲ
ŀĮ ì¥Ĳ
Ġíķľ ê±°ìŀĦ
ë³´ ìĹ¬
ìĨĮ ìĬ¤
ìĨĮ íĶĦíĬ¸
ĮĢë ħ¸
Ġë¬´ íķľë
ĠìĹ¬ ìĬ¤
ì¡° ê¸Ī
ì¡° ìĬ¹ìĹ°
Ġíķĺ ëĭĪê¹Ĳ
Ġíķĺ ìĿ´ëĿ¼ìĿ´íĬ¸
íĮĮ ìĹł
íķł ìĿ¼
íĬ¸ë Ŀ¼ë
ĠìĪĺ ì§Ģ
ĠìĪĺ ìĨį
ëĭ¨ íĨ¡
ĠìŀĲ ìĭłìĿ´
ë² ŀ
Ġë§İ ìĿ´ëĵ¤
Ġë§İ ëįĺëį°
ìĭ¬ ìŀ¥
ê·¸ ìĥĪëģ¼
ê°ķ íķľ
ê°ķ ëĳĲ
Ġë¯¸ ìĨĮëħĢ
Ġë§Ī ìĿĦ
ĠìĿ´ê±° ëŃĲëĥĲ
íĽ Īë
íĳ ¹
ì± Į
Ġê³ł ìłĦ
Ġê³ł íĻĶì§Ī
íķľë Ĥ¨ë
ì§Ī íķĺëĬĶ
Ġë¨¹ ìĸ´ìĦľ
Ġëĵ¤ ìĸ´ìĦľ
Ġìĺ¬ë ł¤ìĦľ
ĠìĥĿê°ģ íķłìĪĺë¡Ŀ
ìĿ´ëĭ ī
ĠìłĢ íķŃ
ëĦ ī
Ġëª¨ë ¥´ëĥĲ
Ġëª¨ë ¥¸ëĭ¤
ëĿ¼ ëĬĶëį°
ëĿ¼ ìĿ´íĶĦ
íĸī ìĤ¬
ë¯¸ íĬ¸
íķłë Ŀ¼
íķłë §Įíķ¨
ìĸĳ íĮ¡
íĮ¨ ëĬĶê±°
Ġë¶Ģ ê³Ħ
Ġìŀ¥ ë¥´
íķĺì§Ģ ë§ĲëĿ¼ê³ł
ì²Ń ìĽĲ
ìķ½ ìĨį
ĠíĿ Ķë
íģ¬ë Ŀ¼
êµĲ ê°Ģ
Ġ6 8
Ġë°Ķ íħĢ
Ġê°ľë °ľë
ë°° ê°Ģ
ì½Ķë ħ¸
ì¢ħ ë¥ĺ
Ġíķł ì¤Ħ
Ġìŀĺë §Į
ëŃ Ĳëħ¸
ëĭ¬ ìĦ±
Ġì°¨ ì§Ģ
ìłĢë ¸Į
Ġë²Ħ íĬľë²Ħ
ĠíĮĮ ê´´ë
Ġìĵ° ìķĮ
Ġë§Īë ĥ¥
ĠìķĦëĭĪ ìĺĢëĥĲ
Ġëħ¸ ê·¼ë³¸
Ġëħ¸ ìŀ¼ë
Ġ9 6
íĥĢë ¦¬
ì²ĺë Ł¼ë
Ġëĵ¤ìĸ´ ìĻĢìĦľ
ĠíĪ¬ ìĸ´
ĠíĥĢ êµ¬
Ġê¸Ģ ì¼Ģ
ĠìłĢë ıĦ
ìĭ¸ ëĬĶ
ĠíĬ¸ë £¨ë
Ġë³¸ ê°Ģ
ìŀ¬ë ł¨
ıĮ ìķĦê°Ģ
ĠíķĺëĤĺ ìļĶ
Ġì°į ìĿĢê±°
ì°į ìĹĪëĭ¤
ì²ł êµ¬ë
Ġìŀ¡ ìĿĢ
Ġëĭ¨ ìłĲìĿ´
Ġë³ĳìĭł ìĥĪëģ¼ëĵ¤
ĠìĻĢ íĮĮ
¶ķìĿ´ ê°Ģ
Ĥł ìĿ´
ìĻķ ìĿĺ
ëĵľë ŀĺê³¤
Ġìļķ ìĿĦ
Ġë°ĺ ìĿ¼
íĶĮë ıĦ
¬¼ë ıĦ
Ĥľ ìĿ´ëıĦ
Ġì¼ Ħ
ĠìĿ´ë²Ī ìĹĲëıĦ
Ġì§¤ ìĿ´
Ġì§¤ ì¢Ģ
ĠìķĪëĤĺ ìĺ¨ëĭ¤
ìŀĪëĬĶ ìĤ¬ëŀĮ
ëī´ë¹Ħ ëĬĶ
Ġìķ½ ìłĲ
ëŃĲ ìĹ¬
ëĸ ¼
ìĨĲ ëĭĺ
ìļ°ë¦¬ íķĻêµĲ
ĠíĨµ ìłľ
ë§Įë ¶ķìĿ´ëĵ¤
ĠëıĮë ©´
Ġì°¸ ì¹ĺ
Ġìĺ¬ëĿ¼ ìĻĶëĦ¤
Ġì¡´ë §Ľ
íķłëķĮ ê¹Įì§Ģ
íĮĶ ìķĦ
ĠëĳĲ ëĭ¬
ëĪĦ êµ¬ë
Ġë´Ĳ ì£¼ìħĪ
Ġê´Ģ ìłĦ
ëĿ¼ë ©´ë
ì°© ìĻľ
¡± ìĿ´
Ġì¿ ¼
ë§¤ ì¹Ń
ĠíĴĢ ìħĭ
ĠìĿ¸ë §¥
ëħĦë Ĵ¤
Ġíģ¬ë ¡ľìĬ¤
Ġì¢ħ íķ©
Ġëª¨ë¥´ ê²łìĸ´
Ġìŀł ìĭ¤
ì¦Īë ¥¼
Ġë¹¡ ë¹¡
ìķĹ ëĥĲ
ëĭĪëĵ¤ ëıĦ
ìĿ´ì¦Ī ìĽĲ
Ġê·¸ë§Į íķ´ëĿ¼
ĠíļĮ ìŀ¥
ĠìĤ¬ìĭ¤ ìŀĦ
íĶĦë¡ľ íķĦ
ìĻĦ ìĦ±
íķľêµŃ ìĿĢ
Ġì²ĺë ħĢë
į± ìĬ¤
ê°Ĳë ıĻ
ì¯¤ ìĿĢ
ĠíŀĪ ìĺ¤ìĬ¤
íĥľë ıĦ
Ġ16 00
<< <<
Ġê¸¸ ìĸ´
Ġê¸¸ ê±°ë¦¬
ìĽĶë ĵľì»µ
ĠíĮ© íĬ¸ë
ìĭ« ìĿĢ
ìķ°ë ĵ¤ìķĦ
Ġìĸĺ ê¸°ëĬĶ
Ġë¬¼ë ¦¬
Ġì±Ķ ìĬ¤ë
ĠíĻ© íĿ¬ì°¬
Ġê°Ģë ł¤
ì°¬ë ¹Ī
Ġì¢Ĩê°ĻìĿĢ ìłĲ
íĮ©íĬ¸ ëĬĶ
ìŀĲë¦¬ ìĹĲ
ìĹ°ë ıĻ
Ġê¹Ģë ıĻ
ì¤ĺë ´Ĳ
ŀį ëĭĪëĭ¤
Ġë¬¼ìĸ´ë ³´ëĬĶ
ìĹ´ë ¦¼
Ġë® ¤ë
ê³łë ¯¼ë
ë¬¼ë ¦¬
Ġíķľëªħ ë§Į
Ġë©ĭ ì§Ħ
³¼ë ķĮ
Ġf eat
ĠíĴį ìĽĶëŁī
ê²Ģë ¨¸ë
ĠìŀĺëĤĺ ê°ĢëĬĶ
ìĸ´ë³´ ìŀĲ
Ġì±Ļ ê²¨ë
Ġë§ĪìĿ´ëĦĪ ìĬ¤
Ġëħ¸ìŀ¼ ìĿ´ëĦ¤
ìĹ¼ë ³ĳ
Ġíı¬ê¸° íķĺê³ł
ìŀ¦ ìĬ¤íĭ´
Ġì§ľì¦Ŀ ëĤĺëĦ¤
ê°ĢìĬ´ ìĿ´
ĠìĥģìľĦ íĺ¸íĻĺ
ĠëĶ¸ë Ķ¸ìĿ´
ĠíĥĢê²© ê°Ĳ
Ġëª¬ ê°Ģ
Ġìĺ¬ìĬ¤íĥĢ ìłĦ
¹Įë Ł°
ĠëģĮ ìĸ´
íİĮ íĶĦ
Ġìª ¼ë
ëĳĺ ëĭ¤
ìĦ±ê³µ íķľ
>>>> >
ĠíĹĪë Ŀ½
Ġë¶ĢëŁ¬ ìĽĢ
íĺĶ ëĭ¤
Ġì¹¼ë ¡ľ
ì¶ķêµ¬ ì¤ĳê³Ħ
Ġíľ´ë ĮĢ
Ġë³¸ë °©
ëĭ® ìĿĮ
ê¹Ģë¯¼ ì£¼
ëĬ¦ ê²Į
ĠíĿ° ìĥī
ãħİãħĩ ãħİãħĩ
ìĳ ¤
ì¤ĳëĶ© ëķĮ
Ġë¸¨ ì°½
Ġë£°ë Ł¬
ìĸ´ëł¤ ìĽĢ
Ġë°ĶëĿ¼ ëĬĶ
ĠìĿ´ìĬ¹ íĺĦ
êµŃê°Ģ ì§ģ
ë²ĦëĭĿ ìĦŃ
ëª¨ìŀĲ íĤ¤
ĠíĬ¸ë¦¬ íĶĮ
ë©ľë ¡ł
ëĭ¤íģ¬ íı¬ìĪĳ
Ġì§ĪëłĢ ëĭ¤
Ġë¯¸ë¦¬ë ³´ê¸°
pn g
ë³´ëĿ¼ë ¨¸ë¦¬
ê¹ľë ¹¡
´ëĭ´ë ıĻ
ê¸Ģë¦¬ ìłł
vlive ê°¤
2 50
A N
A P
E N
L G
S K
b le
m p
x m
° Ń
» ¥
ì ¥´
Ġ !!!
į ®
ĸ Ħë
Ġë ¼Īë
ëĭ ¦
ìĿ´ ìłģ
ìł Īë¡ľ
Ġìķ ¤ë
ìĹĲ ê³ł
ìĹĲ ê²Ĳ
ê±° ìļ¸
ĵ¤ ìĿĦ
íķĺ ìļ°ìĬ¤
ìķĦ ì¹´ë
Ġíķ ´ëĭ¬ëĿ¼ê³ł
ìĪ ®
íķľ ìĿ´ìľł
ĠìĿ´ ìĥĪëģ¼ëĵ¤ìĿĢ
ìĭľ íĮĶ
íĺ Ķë
ìŀĦ ìĭł
?? :
ĠìĻ Ī
ĠìĻ ł
ê¹Į ìĬ¤
ĠìķĦ íĺķ
ĠìķĦ íĶĦë
ĠìķĦ ìĬ¬
ìľ¼ë Ŀ¼
ìĺ¤ ëĬĶê±´
ìĤ¬ ëĬĶê²Į
Ġê³ ³ìĿ´
ìłľ ìĻ¸
ëıĦ ìĽĢ
ìĿĦ êº¼
ĠëĤĺ ê°Ĳ
ĠëĤĺ ìĿĢëĵ¯
ìłĦ êµŃ
Ġê°Ģ ë¶Ī
íĤ ¨ëĵľ
êµ¬ ê²½
êµ¬ ì¡°
ìĦ± ìķĦ
ìĦ± íĺ¸
íķ¨ ìĦ±
ëĤĺ ìĿ´íĬ¸
ê¸Ī ìĪĺìłĢ
ì½ ¤ë³´
Ġìĸ´ë ¨¸
ìĽĲ ìĿ´ëŀĳ
ìĸ´ë §Į
ĠìĿ´ë ©´
ĠìĿ´ë Ŀ¼ê³ł
ĠìŀĪ ìĿĦëķĮ
Ġì° »
Ġì¢ĭ ê²ł
Ġì¢ĭ ëĭ¤ëĬĶ
íĥĢ êµ¬
ìĹ¬ ê°¤ëŁ¬
ê°Ħ ìĿ´
ê±´ ìļ°
Ġë³´ íĬ¸
ìķĦë ¦°
ìķĦë Ŀ¼ëĬĶ
ê°ľ ìĹĲ
ê°ľ ìķ¼
Ġê°ľ ê°ĻìĿĢ
Ġëª» ë°Ķ
ìĦ¸ ìĹ°
Ġìĭľ ê·¸ëĭĪ
ĠëĲ ĺëıĦ
ìĭĿ ìĬ¤
ĠìĬ¤ íı°
ĠëŃĲ íķĺì§Ģ
ĠëŃĲ ìį¨
ĠëŃĲ ìĭľê¸°
ìłģ ìĸ´ëĿ¼
íķ´ë ´¤ìŀĲ
íĸĪ ê³ł
ìŀĳ ìļ©
¦° ìĿĢ
ì¹´ íĥĢ
êµ¬ë ¨¼
Ġíķľ ìŀĲ
Ġíķľ ê°Ģì§Ģ
ê°Ģë ĪĦ
ĠìĹ¬ ìĤ¬ì¹ľ
ì¡° ìĦ¼ì§ķ
íĮĮ ìĬ¤
íĬ¸ë Ł¼íĶĦ
ì£¼ë ĥĲê³ł
ì°¨ ëĭ¨ë
ìĭ¤ ìłģ
ì½Ķ ìĬ¤íĬ¸
íģ¬ íĤ¹
íģ¬ íĢĺ
Ġë³´ë ¯¼ìĿ´
íĺ¸ êµ¬
íĭ° ì§Ģ
Ł¬ë ĵľ
ê³Ħ ìĪĺ
ê°ķ ìĹĲìĦľ
ê°ķ ìķĦì§Ģ
ê°ķ ìłķíĺ¸
Ġë¯¸ ìļ°
Ġë§Ī ìħĪ
ëħ¸ ìĪĺê´ĳ
Ġì¤ĳ ëĭ¨
ìķł ìłķ
ĠìłĦ ìłģ
Ġë¹Ħ ìĥģ
Ġë¹Ħ íķĺë©´
Ġë¹Ħ íĤ¤ëĭĪ
Ġë§ŀ ê¸´
íı¬ íħĲ
íı¬ ì§Ģìħĺ
ê¾ ¼ë
Ġì¡° ì§Ģê³ł
íĺĦ ìĥģ
Ġë¨¹ ìľ¼ëĭĪê¹Į
Ġìłľ ìŀ¬
ìŀħ ëł¥
ìĻĶ ê¸Ķ
Ġìŀ¬ë £Įë
Ġìĺ¤ë ¥´ëĦ¤
ê¹Ģ ìĪĺ
ëĦ ĺë
ì³ ¤ë
Ġëĭ¤ë ¥´ëĥĲ
ì¦Ŀ ê¶Į
ê·¼ ê°ľë¹Ħëĵ¤
Ġíİ ĳ
¶Ħ ìĿ´
Ġì§Ģë °ķ
Ġê²Į ìĭľê¸Ģ
Ġëª¨ ìĨĶ
Ġëªĩ ëłĻ
íĸī ëĭĺëĵ¤
Ġë°Ľ ìķĦëĿ¼
ë¯¸ ì¹ĺ
íĪ¬ ê°Ģ
Ġë¶Ģ ìŀĲ
ìĦľë °Ķ
ĠëłĪ ìĭľíĶ¼
Ġìŀ¥ ë¹Ħë
Ġê°¤ ì£¼ë
ìķ½ ë±ħ
§¤ ê°Ģ
ê°ľë ĺ¥ì°¬
ìĥĪ íĤ¤ëĵ¤
ĠìĨĮ ì£¼
ĠìĨĮ ì¤ĳ
Ġìļ° ìłķ
Ġë°° ìĽĮ
ì»¤ ì¦Ī
ê²Ģ ìĿ´
ĠíĶ¼ íĮĮ
Ġë¶Ī íĥĢëĬĶ
Ġë§Įë ĵľëĦ¤
ĠëıĻ ìĸĳ
ìĹĶ ê²½ì°¬
ĠìĦ¸ ìĥģìĿ´
¨ë¦¬ ê³ł
Ġ9 00
íĤ¤ë Ĥĺ
ĠíĮ¨ ìķħì§Ī
§Ĳ ìĿĢ
Ġë¦¬ ì¹ĺ
ìĿĳ ëĶĶ
ĠíĬ¸ë ¡¤
Ġë³¸ ìłģìĿ´
ë¥ łë
Ġìľłë ł¹
£¨ë ¯¸
Ġìłģ ê·¹
Ġê°Ĳ ìĹ¼
Ġëĭ¨ ê´Ģ
Ġë³ĳìĭł ê°Ļ
Ġêµ¬ë ıĦ
ĠìĻĢ ìļ°
íĸĪëĭ¤ ëĬĶëį°
Ġìŀ¬ë°Į ê¸´
Ġìŀ¬ë°Į ê²łëĭ¤
Ġê·¼ ìłĳ
Ġë¯¸ë Ĥĺ
ëįĺ ê°Ģ
Ġëĺ¥ ì¹°
ĠãĦ± ãĦ±ãĦ±ãĦ±ãĦ±
íĦ°ë ¥¼
ëĭ¬ë ¦°ëĭ¤
ëĭ¤ë ŀĳ
ì°¨ë ¹Ħ
ë°Ľ ìľ¼ë©´
ëĭ¤ëĬĶ ê±¸
íĥģ ëĺĲ
íķĺëĤĺ ëĬĶ
Ġëĭ¬ë ł¤ë
ì£½ ìĿĮ
Ġê±¸ë ¦¬ëĦ¤
ĠìĹ¬ê¸° ëĭ¤
ìĻĶë įĺ
Ġê´Ģ ê°Ŀ
ëĿ¼ë ª¨ìĬ¤
ë¨¸ ì§Ģ
ī´ ìĬ¤
íģ´ë łĪ
Ġì¶Ķì²ľì¢Ģ ìļĶ
ì´Īë ıĻ
Ġëĵ± ëĵ±
ì°¸ ìĹ¬
Ġëªħ ìĺĪ
ĠìĿĮ ìĥī
ë¨¸ë ¦¬ë
ìĿ´ìĥģ íķľ
Ġê±´ ìĿĺ
ĠëĦĪ íĿ¬
Ġë²Į ê¸Ī
ìĥ¤ ìĿ´ëĭĿ
Ġì´Īë ³´
Ġëįĺ ìł¸
Ġëįĺ ì§ĢëĬĶ
Ġê³¼ ìłķ
ë¸Ķë ŀĺ
íĮ¬ ìĥģ
ìĬ¬ë §ģ
ĠìĦ¸ë ²Ī
Ġëĭ¤ìĿĮ ìĿĢ
Ġê¸ī íķĺê²Į
Ġê¸ī ë°ľì§Ħ
ë¶ģ ë¯¸
Ġì°½ ì§ĵ
Ġì°½ ëħĢë
ê¼¬ ìļ°ë©´
Ġì¼Ģ ìĿ´ê°Ģ
Ġë°ĺë ĵľìĭľ
ê¾¹ ìķ°ëĵ¤
ĠëĨĴ ê²Į
Ġíĺ¸ë ¹ł
ĠìŀĺìĥĿ ê¸°
Ġìķ¼ë °©
Ħ¤ë ĵ¤ìĿĢ
ĠìĿ´ë¯¸ ì§Ģê°Ģ
ìħĶ ìķ¼
íķĺê¸´ íķ´
Ġê·ĢìĹ¬ ìļ´ëį°
ëķ Ģ
Ġìļ¸ ê³ł
ĠëĨĢë Ŀ¼ìļ´
ĠíĹĪ ìĸ¸
Ġëĸ¡ë°¥ ìĿ´
Ġìĵ¸ ê¹Į
ĠìĿ´ê¸° ëĥĲ
ĠìĿ´ìģĺ ê³ł
ìĿ¼ëŁ¬ ê°Ģ
Ġìĵ°ëłĪê¸° ìŀĦ
íķ´ë³´ ìŀĦ
Ġê°Ģìł¸ ê°Ģ
Ġë¶ĪìĮį íķĺëĦ¤
ìĹĦ ì§Ģ
ĠíĥĪë įķ
Ġëį± ë¦¬
ĠìºĲë¦ŃíĦ° ê°Ģ
Ġëº Ħ
ì½© êµŃìĪĺ
ĠëĮ Ħ
ìŃ Īë
ĠíĺĦìĭ¤ ìĹĲìĦľ
ĠìĺĪë »
Ġì¤ĺ ìķ¼
Ġì¸ µ
ĠìĥģëĮĢ ê°Ģ
íĳ¸ë ³´
¥¼ë ķĮ
Ġíĩ´ê·¼ ê¸¸
Ġê°ĪìķĦ íĥĦ
Ġíķ« ìĤ°
Ġë³´ìĬ¤ íĦ´
ì« Į
ŀ« ë§ĮìĹĲ
ë® ¤ë¹Ħ
++ +
Ġíķĺëĭ¤ íķĺëĭ¤
ĠíķĻêµĲ ìĹĲìĦľ
ĠíĻĺë ¶Īë
Ġì±Ħë ³´
ë¯ ķ
Ġê¸īìĭĿ ëĵ¤
ĠìĹŃê²¨ ìĽĢ
Ġê³¼ë ª°ìŀħ
Ġi p
ëĿ¼ë¹Ħë ¦¬ìĬ¤íĥĢ
ĠìĿ¸ìĭ¸ ì´Į
ĠìĦłìĥĿ ëĭĺëĵ¤
íķľëıĻ ìĪĻ
ĠëģĦ ê³ł
ĠëĤ© ì¹ĺ
ĠìĬ¤ì¹´ ìļ°íĦ°
ĠíŀĻ íķ©
Ĥĺë¯¸ ê°¤
ĠìķłëĭĪë ©ĶìĿ´ìħĺ
Ġìĭ¤íĻĶ ìŀĦ
ëĶľë Ł¬
ĠJ YP
ìľ¨ë ¥¸
ìĳ ¨
ì´Īë°ĺ ìĹĲ
Ġê¹Ģíĥľ ê·ł
ĠëĿł ëĭĪ
ĪĮë Ł¬
ê°ľìĽĶë §ĮìĹĲ
ìĽĶìĿ´ ìĦ¸
¹Ķë ©´
ëł¨ëĵ¤ ìķĦ
Ġê¸°ë¶Ħë Ĥĺ
ìĹŃê²¹ ëĦ¤
Ġìĸ´ëĶ¨ ìĿĮ
ìĨ¡ê°Ģ ìĿ¸
ìĬ¤ìľĦ ì¹Ń
6 3
8 15
9 4
E D
v c
© ¤
© Ī
ë ĩ½
ë ·°ë
į ķìĿ´
İ Ĭ
ĸ ¼ë
ŀ Ħëĵ¤
ł ëĭ¤
ł Ĳë
Ġì ©Ķë
Ġë ĥ
Ġë ĩĮë
ìĿ´ ê°¤
ìł ĲëıĦ
ì§Ģ ìĹĲìĦľ
ëĭ¤ ëįĺëį°
ëĭ¤ ë³´ëĭĪ
ê³ł ëįķ
ìĿ´ë ¨¼
ĵ¤ ìĸ´ê°Ģ
¦¬ ìĸ¸
ê¸° ëĭ¤ë¦¬
ìĥ ¹
Ġê° ¬
ê²Į ìĿ´ë°į
Ġë° Ī
ëĬĶëį° ëıĦ
ĠìĿ´ ìĭľê°ĦìĹĲ
íĬ ¼ë
ìĿ¸ íĮĮ
ìĿ¸ ëĭ¤ê³ł
ìĿ¸ ìħīìħĺ
ë° ĶëĿ¼
íķ´ ì¤¬ìľ¼ë©´
ìĺ¤ ìĬ¹íĻĺ
ìĤ¬ íķĺëĬĶ
ìļĶ ìĽĲ
ìļĶ ìĿ¼ëĤł
ìłķ ëıĪ
ì£¼ ìłľìĹĲ
ìĿĦ ê²ĥ
ì§Ħ ìļ©
ì§Ħ ê²©
ĠëĤĺ ìķ¼
¦¬ë §Ī
¦¬ë ıĮë¦¼
Ġê°Ģ ë³įê²Į
ëĤĺ ê°ĻìĿĢ
ĠìķĪ íķĺì§Ģ
ĠìķĪ íĢ´
ĠìĻľ ê·¸ëŁ°
Ġìĸ´ë ¥¸
Ġëĭ¤ ëĭĺ
Ġê·¸ë Ķ´
Ġê·¸ë ŀ¬ë
ĠìĿ´ë Ł´ë
ĠìĹĨ ëįĶëĿ¼
ìľł ê¸°
²Ħ ê¸°
²Ħ ëĭĿ
ĠìĤ¬ ìĿ´ë²Ħ
ìļ° íĤ¤
ìĻĢ ìĻĢ
ìĻĢ ìĶ¨ë°ľ
ĠìķĪë ¹ł
ĠìķĪë ¶Ļ
Ġìłķ ìĹ°
Ġë³´ ì¶©
Ġë³´ ìĦ±ìĿ´
ìķĦë Ħ¤
ê°ľ ìĿ¸ëį°
Ġìĺ¤ ëĬĶê±°
Ġìĺ¤ íį¼
Ġê°ľ ì©ĮëĬĶ
Ġëª» íķ´ëıĦ
Ġëª» ë§ī
ì§ģ ìĿ´
ê³µ íķĻ
Ġìĭľ íĭ°
íĻĶ ìĿ´íĬ¸
Ġê¹ į
ĠëŃĲ ìĵ°ëĥĲ
Ġíĺ ķìĿ´
ìłģ ëıĦ
ìłģ ìĿ´ê³ł
íķ´ë ´¤
íķ´ë ³¼
ĠëĮĢ ì§Ħ
ĠëĮĢ ì²´ë
íħĮ ëĭĪê¹Į
ìŀĲë ¦¬ë
Ġìĸ´ ì§ľíĶ¼
ìĺģ íĻĶë
¦° ì§Ģ
¦° ìĿ¸ëį°
Ġíķľ ì¤Ħ
Ġíķľ ìŀĲë¦¬
ĠìĿ¸ ê²ĮìŀĦ
ìłĢ ìĬ¤ë
ìĺ¤ëĬĺ ìĿ´
ê°Ģë ¹Ħ
ê°Ģë ıĻ
íĶ¼ íĬ¸
ìľĦ ìĹĲìĦľ
Ġíķĺ íķľê°Ģ
íĬ¸ë Ŀ¼ìĿ´
ĠìĪĺ ìĭŃ
Ġìŀĺ ìķĪ
Ġìŀĺ íĸĪëĦ¤
ĠìŀĲ íĩ´
ëĤ´ ê³ł
ëĤ´ ìĥĿê°ģ
ìĹ° ìĿĺ
ìĬ¤ë ¡ľë§Ī
íĺķ ìłľ
Ġë³´ë Ĥ¼
Ł¬ë Ħ¤
Ł¬ë ¸Į
Ġìľł íĭ¸
ì²ľ ìĹĲ
ë¦¬ ìĽ¹
ì¢Ĩ ëıĮ
Ġë§Ī ì£¼
ìĿ¼ë £¨
ìĽĮ ì»¤
ìĽĮ ìĭ±íĦ´
ĠìłĦ íĻĶë
ĠìłĦ ìĪł
Ġë§ŀ ìĿĢ
Ġë§ŀ ì¶Ķë
Ġë§ŀ ëĤĺìļĶ
íķľë §Ĳ
ì²´ íĹĺ
ì§Ī ìĿĦ
ìĬ¹ ë¯¼
Ġì£¼ ìĺģ
ê³łìĭ¶ ìĿĢê±°
ìĿ´ê±° ëĤĺ
Ġëĵ¤ ë
ĠëĪĦ ê°Ģë´ĲëıĦ
ĠìĥĿê°ģ ëıĦ
ĠíĤ ¥
ìĨ¡ ë¯¼íĺ¸
Ġì¶Ķ ê²©
Ġìŀ¬ë ł¨
Ġìŀ¬ë ¯¸ë¡ľ
Ġë§Ĳ ê³¤
ĠìłĢ ìĥĪëģ¼ëĬĶ
Ġìĺ¤ë ĶĶ
Ġìĺ¤ë ĶĶìħĺ
ê¹Ģ ì§Ģ
Ġìĺģ ìĸ´ë¡ľ
ĠìĿ¼ ìļĶìĿ¼
ª¨ ìĬµ
ª¨ ìħĺ
Ġíķľë ĳĲ
ìłľë ħ¸ë¸Ķ
íĨł ìĿ¼
Ġì§Ģë ¦¬
Ġì§Ģë ¬´
Ġì§Ģë ¯¼
Ġëªĩ ìŀ¥
Ġë°Ľ ëĦ¤
Ġë°Ľ ìķĦìķ¼
ëĤĺë ĪĶ
íİĺ ì½ĶëĿ¼
ĠíĹ Ĳë
ĠëłĪ ê²Įë
Ġìŀ¥ ìĭĿ
Ġìŀ¥ ë¡ĢìĭĿ
ê°¤ë ĸ¡
ëªħ ìĿĺ
ë§Īë łµëĦ¤
ë§Īë łµëĭ¤
Ĥ¨ ìĿĮ
ìĽĶ ê¹Įì§Ģ
ë¬¸ íĻĶ
ĠìĨĮ ìĬ¤
Ġë°ķ ìĪĺ
§Ŀ êµ¬ëĵ¤
ĠìĤ´ ìĿ¸ë
Ġìļ° ëĬĶ
ĠìĦł íĺ¸
Ġë°° ëĭ¬ë
Ġì°¨ ìĿ´ëĤĺ
Ġ8 15
Ġë¶Ī íİľë
Ġìĭľë Ł¬
ë°ķ ìłķìĪĺ
ıĦë ŀĳ
ì¶ľ êµ¬
ì¶ľ ìĹ°
Ġë§Įë ĵľë
Ġê°ĢëĬ¥ ìĦ±ìĿ´
Ġ7 7
ìĺ¬ë §ĮìĹĲ
Ġëĵľë Ŀ¼ìĿ´ë¸Į
Ġëį° ìĿ´
Ġëĵ¤ìĸ´ ìĻĶëĭ¤
ĠíĬ¹ ê°Ģ
Ġì£½ ê³ł
Ġì£½ ìĹĪëĭ¤
ê²Įë ¡ľ
Ġë³¸ ìĤ¬ëŀĮ
ĠíķĺëĤĺ ìĹĲ
ì°į ìĹĪëĬĶëį°
ìĦ¸ë ¦¬
Ġìłģ ìŀĲ
Ġìłģ ìłķ
Ġë¬´ë ¹Ļ
Ġë°ľ ìĿĮ
Ġìĺ¬ íķ´ë
ĠìľĦ ìŀ¥
ëłĪ ê³ł
ëłĪ ìĿ¼ë¦¬
ìŀĲê¸° ê°Ģ
Ġëĵ ģ
Ġãħł ãħłãħłãħłãħłãħłãħłãħłãħł
Ġëĸ¡ ë³¶ìĿ´
Ġìŀ¬ ìĤ°
ìĹ¬ë Ŀ¼
ìĹ¬ë Ł¬ë
ìĹ¬ë ıĮ
Ĥ´ë ¡ľ
ĠëĲĺë ł¤ëĤĺ
Ġê±°ë ¦¬ë
ĠëĴ¤ ì§Īë
ĠëĴ¤ ì¡ĮëĦ¤
ìĬ¬ ê¸°
ì°¨ë Ħ¤
ì°¨ë ŀĳ
ìķĮë łī
Ġìĸĳ ë°ĺ
ìĨĲ íķ´
Ġëĭ¬ë ¦¬ëĬĶ
Ġëª© ìĪ¨
Ġìłĳ ìĿĮ
ĠìĪĺë ªħ
ë°Ķë ¦¬ë
Ġê±¸ë ¦¬
Ġê±¸ë ł¤
ìļ¸ë ĵ¯
Ġíĭ° ëĭĪ
Ġê´ĳ íĻĶë¬¸
ëıĮ íķĢ
ĠëĳĲ ê°ľë
ª¨ë ¥¼
íĴį ìĦ±ìĿ´
ì±Ħ ìĽĲìĿ´
íģ´ë ¦¬ëĵľ
Ġì¢Ĩê°Ļ ëħ¸
Ġë¦¬ë §ĪìĬ¤íĦ°
ĠëĦ£ ìĿĦ
ĠëĦ£ ìĸ´ëıĦ
ì°¸ ê³ł
Ġê²Ģ ìĹ´
ëĬĲ ê¹Ģì¹ĺ
ê°Īë ŀĺ
Ġê¼´ë °ķ
íĮ¬ ìĭ¸
ĠìĦ¸ë ªħ
Ġëĭ¤ìĿĮ ìľ¼ë¡ľ
Ġìĸ´ëĸ¤ ì§Ģ
Ġìļ´ ìĿ´
ê¾¹ ìĿ´
ĠíĢ ¸ë
ĠíļĮ ìĽĲ
Ķ°ë ¨¹
ëĬĲë ĥĲ
Ġì²ĺë ¶Ħ
ê°Ĳë Ĥĺë¹Ĺ
Ġê²½ê¸° ëıĦ
ê¹ħ ìĿ´ëĵ¤
ì¢ĭìķĦ ìļĶ
ĠìķĪëĲĺ ìĦľ
Ġì²Ń ìŀĲ
ëĵ ĢëĿ¼íķľ
ãħłãħłãħłãħł ãħł
ĠìĹ´ë ¦¼
ĠìķĶ êµ´
Ġíŀĺë Ĥ´
ëĭĮ íħĲëıĦ
ĠìºĲ ìĬ¤íĮħ
Ġì»´ íĦ°
Ġë¹¨ë ©´ìĦľ
ŀľ ìłĪ
ĠìĦ±ëĬ¥ ìĿ´
ëĶĶë ¹Ħ
Ġë¿Įë ĵ¯
Ġê·¸ë¦¬ ìļ´
ĠãħĪë °¥
ìĤ°ë ıĦ
ł· ëĦ¤
Ġn c
ĠìĺĪë ¯¼
ĵľë¡ľ ìĿ´ëĵľ
ĠëĲĲ ìľ¼ë©´
íĢ¸ ì¹ľ
Ġë¹µ ë¹µ
ĠìĽĥê¸´ ìłĲ
Ġíĩ´ê·¼ íķĺê³ł
ĠìķĮìķĦë ³´ëĬĶ
ĨĶ ìĦľ
Ġëħ¸ëŀĺë ¶Ģë
íĬ¸ë¦¬ ìĺ¨
Ġìļķë¨¹ ëĬĶ
Ġìķķ ëıĦ
Ġì»¤ìĹ½ ëĭ¤
ë¯ ¼ëĵ¤
ìº¡ íĭ´
ë°¤ ìĹĲ
Ġíķłë§Į íķĺëĥĲ
Ĩ¨ ëĭ¤
Ġìŀħìŀ¥ ìĹĲìĦł
ìĽĥê¸° ëħ¸
ĠìĿ´ìģĺë ħ¸
ë¹łë Ķ°
Ġìºł íİĺìĿ¸
ìŀ¥ìķł ìĿ¸
Ġì§Ŀ ìĤ¬ëŀĳ
ì¡°ê°ģ ê°Ģ
Ġìķµ ê°Ħ
ìĤ¬ëŀĮë ıĦ
ë» ¥
ĠíĽĪëł¨ ìĨĮ
Ġìĵ´ëĭ¤ ê³ł
ë§Ĳë³µ ì¿łíı°
ĠìĽĲìłķ ëĮĢ
Ġë§ĲìĿ´ë ĲĺëĥĲ
ĠìĦłë°ľë ¡ľ
ĠìħĢë ¡¯
ì¶Ķìĸµ ìĿĺ
ì£¼ë³Ģ ìĹĲ
Ġìĸ´ëĶ¨ë ĥĲ
Ġë¶ĦìľĦ ê¸°ê°Ģ
ĠìĬ¤ë§ĪíĬ¸ íı°
Ġë³´ëĭ Į
ë¯¸ì£¼íĶ½ ì¸Ħ
ĵľë¬´ë ¹Ħ
ĵľë²¨ë ²³
5 7
8 6
B B
B J
F P
L O
c c
o y
o ve
y ou
¨ ¼ëį°
° ĢëĿ¼
² ¡
¹ Īë
ë ķĮë¬¸
ë ľ¨ë
Ġ |
Ġë Ĵ
ìĹ ĪëĮĢ
ìĿ´ ìŀĲ
ìĿ´ ìĺĢìľ¼ë©´
ê°Ģ ìĤ¬
ê³ł ìĿ¸ë¬¼ëĵ¤
ìĸ ĺëıĦ
ìĹĲ ë¹Ħ
ìĿ´ë ĮĢë¡ľ
ê±° ìĽĮ
íķĺ ìĸĢ
ìķĦ ìĬ¤ë
ìķĦ íĶĦëĭ¤
Įë ħ¸
ê¸° ìļĶ
ìĥ ¬
ìĦľ ìļ¸ë
ìĬ¤ ìŀĳ
ìĸ´ íĥķ
Ġì§ ĸ
ê¹ ¬
Ġìĸ Į
ìĽ ¨ë
ê²Į ìĿ´ë
ĮĢ íĨµëł¹
íķľ ê°ķ
ĠìĿ´ ìĭľ
ĠìĿ´ ê²ĮìŀĦ
ìĭľ íĺģ
ìĿ¸ ìľ¼ë¡ľ
ìĿ¸ ê°ķ
ìĿ¸ ì§ĢëĬĶ
ì£ ¶
Ġì¢ Įë
ëĤ °
ëĤ ¬ëĥĲ
ìŀĲ ìķ¼ì§Ģ
ĠìķĦ íĶĦëĭ¤
ĠëĤ ¨ëĵ¤
ìĤ¬ ìĿ¸
ìĪĺ ìŀĲ
ìłķ íķ´
íķĺëĬĶ ìķł
¯¸ ìķł
¯¸ íĸ¥
ê°¤ ê°ĢìĦľ
ê°¤ íİĮ
¦¬ë Ŀ¼
ãħĩ ãĦ¹
ìłĦ ìľ¼ë¡ľ
ìłĦ ëĭ´
Ġê°Ģ ìĬ´ë
ìĦ± íĻĶ
ëĤĺ ëĭĪê¹Į
ĠìķĪ ìĺ¨ëĭ¤
Ġê·¸ë Ĥł
Ġê·¸ë ŀ¬ëĬĶëį°
ìĽĲ ì§ľë¦¬
ìĽĲ ìĪŃìĿ´
ìĸ´ë ¹Ħ
ìĸ´ë ĳł
ĠìĿ´ë §Ī
ĠìŀĪ ìľ¼ëĭĪ
ĠìŀĪ ìĿĦê±°
Ġì° °ë
Ġìľ Į
Ġì¢ĭ ìķĺëĭ¤
ìľł ì¶ľ
²Ħ ì§Ģê°Ģ
ĠìĤ¬ ì¹Ń
ëħ ķìĿ´
ĵľë ¦¬ëĵľ
ê±´ ì¶ķ
ĠìķĪë ĸ¨ìĸ´
ĠìķĪë ľ¨ëĦ¤
Ġìłķ ìĪĺ
Ġìłķ ìĤ°
Ġë³´ ìŀĲë§ĪìŀĲ
ìķĦë ¯¸
íŀĪ íķĺ
ìĺ¤ë ¸ĶëĿ½
Ġê°ľ êµ¬ë
Ġëª» íķĺëĬĶê²Į
Ġëª» ë³´ëĬĶ
íķĺê³ł ìŀĪëĦ¤
ê³µ êµ¬
ëĮĢ ê²°
ëĮĢ ê¸°ìĹħ
Ġìĭľ ì²´
ìĹĨ ìĿĦ
¦° ê±´
Ġíķľ ê±´
ĠìĿ¸ ê°Ħëĵ¤
ìłĲ ê¸°
ìĨĮ íĿ¬
íĶ¼ ì§Ģ
Ġíķĺ ìĦ¸ìļĶ
íĮĮ ìĿ¼
íĮĮ íİ¸
íĬ¸ë ŁŃ
ì£¼ë ©´ìĦľ
ëĭ¨ êµ°
ĠìŀĲ ìľłë
³´ë °©
ëł ¨ë
ì²ľ ìĿ´
ë¦¬ ìĸ¼ë
ê°Ĳ ìľ¼ë¡ľ
ì¢Ĩ ë¦¬
ê°ķ ìĽĲ
ëĭ¹ ê·¼ë§Īì¼ĵ
Ġìĭł íĺķ
Ġì¤ĳ ê°¤
íķľë ħĦ
íķľë ĨĪëĵ¤
ķĮë ©Ķ
ê²ĥ ëĵ¤ìĿ´
ìĬ¹ ê¸ī
ìļ°ë ıĻ
Ġë¨¹ ì§Ģ
Ġë¨¹ ëĬĶê²Į
Ġë¨¹ íĬĢ
Ġìłľ ìĿ´
Ġìłľ ëĭĪ
ĠìĥĿê°ģ ëĤľëĭ¤
ìĨ¡ ìĿ´
ëĶ §
Ġì¶Ķ ì§Ħ
Ġê¼ °ëĮĢ
Ġìĺ¤ë ĦĪ
ê¹Ģ ê¸°
ì¶© ìŀĦ
íĥľ ê³ł
Ġíķľë ĳĲë
ë¶Ħ ì§¸
ìłľë Ħ¤
ĠëĨ Ķ
¶Ħ ìľĦê¸°
ìĤ° ê±°
ë¯¸ ìķ¼
Ġìŀħ ëł¥
íİĺ ê°Ģ
Ġìº ¬
Ġë¶Ģ íĴĪ
ĠëıĦ ì¿Ħ
Ġë°Ķë ŀĮë
ìĺĪ ì¸¡
Ġíķ´ë ³¼ë
Ġíķ´ë ³´ìŀĲ
ĠìĶ¹ ìĥĪëģ¼ëĵ¤
Ġê°ľë §Ŀ
ë°° ìĨ¡
ĠíĤ¤ ê³ł
ĠíķĺëĬĶ ìķłëĵ¤
Ġíķł ìĿ¼
ìłĪ íķľ
Ġìŀĺë ¨¹
Ġêµ¬ ì°½ëª¨
ìĦŃ ìĬ¤
Ġë¶Ī íĸī
Ġëį ´ë²Ħ
ĠëıĻ ìłĲ
Ġ7 8
ìĺ¬ë ł¤ë
ĠëĿ¼ ìĿ´íĶĦ
ê±°ê°Ļ ì§ĢìķĬëĥĲ
Ġëĳ Ķ
Ġíı¬ íĬ¸
´ī ìĵ°
Ġ9 7
ĠíĬ¹ ìĪĺ
ĠíĬ¹ ìľłìĿĺ
10 700
ãħĭãħĭãħĭãħĭãħĭãħĭãħĭãħĭãħĭãħĭãħĭãħĭãħĭãħĭãħĭãħĭ ãħĭãħĭãħĭãħĭãħĭãħĭãħĭãħĭ
ìŀ¡ ìĿĢ
ëĭ¤ê°Ģ ëıĦ
Ġë©Ķ ìĿ¸ë
ì¶ķ êµ¬ë
Ġë¨¸ë ħ¸
Ġë¨¸ë Ŀ¼ê³ł
Ġì°į ìĿĦ
ĠëıĮ ê³Ħ
ì°į ëĬĶ
íĶ½ ìĿ´
ì²ł ìĹ¼
ëĶĶ ì§Ģ
Ġì³ ĲëıĦ
ĠìĹĲ ìŀĦ
Ġëĭ¨ íĥĢ
ìī¬ ëĬĶ
íĥĿ ìĭł
ĠëĤĺìĺ¤ ëĬĶê²Į
íĮĮë Ĥĺ
Ġì§ĳ ê°Ĵ
íĥĦ ìĿĢ
Ġìĭ¸ ìļ°ë
ê°ĵ ëĬĶëį°
Ĥ´ë Ħ¤
ê±°ë ł¤
ê±°ë ¦¬ëĦ¤
ë©Ķ íĥĢ
ë§ī ìĥģ
Ġë¡ľ ìĸĦ
ìĬ¬ ì©į
ìŀĪëĬĶ ì§Ģ
ìĨĲ ìĿ´
Ġê¿ ¨
³µ ê·Ģ
Ġê±¸ë ¡ľ
Ġê±¸ë ¦´
ĠíĭĢë ĵľëĬĶ
Ġë¸Į ìĿ´ë¡ľê·¸
ë¯¸ë Ĥĺë¯¸
Ġì²ł ìĹ¼ë
ìĻĶë ıĻíĺ¸
ìĹĨëĬĶ ìĿ´ìľł
ĠìĥĪëģ¼ ìķ¼
Ġê°ĵ ê²ľë
Ġëį°ë ĵľ
ì¢Į ëĬĶ
Ġì³Ĳë Ĥ´
ì§± êµ¬
Ġíģ¬ë Ħ¤
Ġíģ¬ë ĥĲ
Ġì¢ħ ìĿ´
Ġìļ© ëıĪ
ìľ¡ ìĦ±
ìĿĺë ¡ľ
Ġë¹Ħë ²Ī
Ġë²Ħë ¦ĩ
ĠëıĮìķĦ ê°Ĳ
Ġë¹¡ ì¹ľ
Ġë¹¡ ëĮĢê°Ģë¦¬
ĠìĦ¸ë Ĥĺ
ëĭµ ëĭµ
Ġì¡´ ìŀ¼
ĠëĿ¼ë ¶Ģ
ĠëĿ¼ë ©´ë
ëĲ łë
ĠìĹĲë Ł¬
Ġëķ Ģë
ìļĶë ıĦ
ĠìĶ¨ë°ľë ħĦëĵ¤
ĠëĳĲë ł¤
Ġë¸ ľ
Ġëĸ¨ìĸ´ ì§Ī
ë¹Ħë ĶĶëĶĶ
íĿ¥ ê°¤
Ġë¨¼ ì§Ģ
ë¶Ħë ħ¸
ëĶ± ìĿ´
ĠìķĪëĲĺ ê³ł
ë¡ľë ¦¬
!!!!!!!! !!
Ġíķ´ìķ¼ íķĺëĥĲ
ĠëįĶë Ł½ê²Į
Ġíĩ´ êµ¬
Ġíİĺë ıĦë
ìĭ« ìĿĢëį°
Ġ14 4
Ġëį°ëł¤ ìĺ¤ë©´
ĠíĹĪ ê°Ģ
Ġìį¨ë ³¸ìĤ¬ëŀĮ
Ġì¡°ë ªħ
íĮ¨ë ĦĲ
ìĦľë²Ħ ëĬĶ
ĠëĿ ¤
Ġíŀĺëĵ¤ ì§Ģ
ê¹Ģë ıĻ
êµĲë ³µ
ê°¤ëŁ¬ë ĵ¤ìĿ´
íķ´ì£¼ ëĬĶê±°
Ġë¹ĦìĬ· íķľê±°
???????? ???
25 2
Ġê³łë¯¼ ìĥģëĭ´
ëĿ Ħ
ĠìĹ¬ìŀĲë ĵ¤ìĿĢ
ìĿ´ëŀĢ ê±°
ĠìĿ¸ìĬ¤íĥĢ ìĹĲ
ĠìĿ¸ìĬ¤íĥĢ ìĬ¤íĨłë¦¬
Ġê¸°ìĸµ ìĹĲ
Ġë³Ħë ¡łëį°
ıĪ ìľ¼ë¡ľ
ìłĲë §Į
Ġì¥¬ ì§Ģê°Ģ
Ġì°ľ ìĿ´
ë©° ì¹ł
Ġd rx
ìĹ¼ë³´ìĦ± ìĿĢ
ĠìĦ¼ ìĦ¸
Ġëª»ìĥĿ ê¹Ģ
Ġì¸ łë
ìĹ¼ë ³´ëĬĶ
ëĶĶìĭľ ì½ĺ
Ġê°¤ëŁ¬ë ¦¬ë¡ľ
ĠãħĤãħħ ëĵ¤ìķĦ
Ġíı¬ê¸° íķ¨
ë©ĶìĿ´ ìłĢ
ĠìŀĪìĿĦê¹Į ìļĶ
ë¬¸ê²½ì°¬ ìĿĢ
Ġì§ľì¦Ŀ ëĤ¨
ĠìĽĮë ĩ½
Ġë¹Ħíĭ± ì§Ī
Ġë°ľìŀĳ ë²ĦíĬ¼
ìķ¤ íĮĮìĿ´íĦ°
ĠëĤ´ìļ© ìĿ´
Ġìļ°ë¦¬ë ŀĳ
íķ´ì¤Ħ ê²Į
Ġì¶©ê²© ìłģìĿ¸
ìķĦë¦¬ ìĤ¬
Ġíĸĩ ëĬĶëį°
Ġì°¬ë ŀĢ
ĠìĹŃê²¹ ëĭ¤
ìķĦìķĦìķĦìķĦ ìķĦìķĦìķĦìķĦ
íĻĢë ¡ľ
?! ?!
ĠìĹĲìĿ´ íĭ°ì¦Ī
Ġê°ĲìĬ¤íĬ¸ ê°Ģ
ĠëĦĺë ²Ħ
ìĻģ ìĭ±
Ġíķ´ë³¸ ìĤ¬ëŀĮ
ìłłë į°
ĠìĦ¸ìĥģ ìĹĲ
ĠëĳĺìĿ´ ìĦľ
ĠëģĦ ëĬĶ
Ġì¼Ģë ¯¸
ĠëĭĪë ¯¸
ĠëĦ· íĶĮ
ìĸ» ìĿĮ
Ġë§Įëĵľ ëĬĶê±°
Ġë¯ Īë¸Į
ĠíķľëıĻ ìĪĻ
Ġëĺ¥ê¼¬ ìĩ¼
ìĮĪë Ĥ°
Ġê°ľìĽĥ ê¹Ģ
ĸ´ë ĬĶëį°
Ġì£¼ìłľ ìĹĲ
Ġì£½ìĹ¬ë ²Ħë¦¬
ì£¼ìĿ¸ê³µ ìĿ´
Ġìłķì§Ģë ¨¹
Ġíķ´ê²°ë ²ķ
ĠíĮ¨ëĦĲ íĭ°
ëĤĺë´ī ìĵ°
ì´Īë¡Ŀ ë³Ħ
ĠìĤ¬ê³¼ë ¬¸
Ġê°Ŀ ê´Ģìłģìľ¼ë¡ľ
ë¡ľì¼ĵ íİĢì¹ĺ
ĠìķĦëĭĻ ëĭĪëĭ¤
ĠëĦĪë§Į ìĺ¤ë©´
Ġì°ĲìĿ´ìķ¼ ê°¸ê¸°ëĳ¥ìĦ¸ìĽłíĥģ
ĠíķĦìĬ¹ ì¡°
...@.@ ...
Ġì°¡ ì°¡
M C
d lc
u r
ë ¡¬
Ġ >>
Ġë ¯¹
ìĿ ı
íķ ¸ëĵľ
ê³ ¸
ê² Įëĵ¤
ì§Ģ ë¦¬
ì§Ģ ëĬĶê±´
ëĭ¤ ëĭ¥
ĵ¤ ìĿ´ëŀĳ
íķĺ ìĺģ
ìľ ĪëıĦìļ°
ìĦľ íı¬íĬ¸
Ġê° ĩ
ê²Į ìĿ´ë¨¸
ĠìĿ´ ìŀ¬
ĠìĿ´ ê²¼ëĭ¤
ìķ¼ íķł
ìķ¼ ìĪ¨
ìĭľ ëĬĶëį°
ìĭľ ìłĲ
ìĭľ ìĦ¤
ë° ¸ëŁ°ìĬ¤
íķĺë ĮĢ
ìŀĲ ìĦĿ
íķ´ ì§ĢëĦ¤
íķ´ ì£¼ëĦ¤
ìĤ¬ ìĹĲìĦľ
ìĤ¬ ê´ľ
ìĤ¬ ì¿łëĿ¼
Ġãħ Ĺ
ìĥģ ëĮĢë
ìĪĺ ìķ¼
ĠëĤĺ ëĬĶëį°
ìĦ± ë¯¼
ëĤĺ ìĻĢìĦľ
ĠìķĪ ìĺ´
Ġëĭ¤ ìĭł
ĶĶ ì½Ķ
ìĸ´ë ıĦë
ĠìĿ´ë £¨
Ġì§Ħ ìŀĳìĹĲ
ĠìĹĨ ëĬĶê±°ìŀĦ
Ġì¢ĭ ê¸´íķľëį°
ìľł ëĬ¥
³´ ìĦ¸ìļĶ
³´ ìĿĢìĻĶìĸ´ìļĶ
ĠìĤ¬ íĩ´
ìļ° ìķĦ
Ŀ¼ë ¹Ħ
Ŀ¼ë §Į
ê°ģ ìĿĢ
ĠìķĪë Ĵ¤
ìŀĪ ìĹĪìľ¼ë©´
ë¶ Īë²ķ
Ġë³´ êµ¬ê°Ģ
ìĺ¤ë ł¤ëĤĺ
Ġìĺ¤ íķ´
Ġê°ľ ìĺ¤
Ġê°ľ ê¼´ë¦¬
ìķĪ ìĿĢ
ìķĪ ìĭľ
Ġì§Ģ íĥĢ
Ġëª» ìŀĲ
ê³µ ëĭ¨
ëĮĢ ìĹĲ
Ġìĭľ ê³¨
ìħ °ë
ĠëĲ Ĳëħ¸
ĠìĬ¤ íĭ¸
íħĮ ê°Ģ
ìŀĲë ¶ĢëĮĢ
ëı Ķ
ì¹´ ì¦Ī
Ġíķľ íĮ¨
ìłĲ ìĿĦ
Ġê°Ļ ê¸°ëıĦ
ê²½ ìĪĺ
ê²½ ëĤ¨
íĶ¼ ìħĶ
Ġíķĺ ìŀĸìķĦ
íĬ¸ë ¦¬ìĬ¤
Ġê³µ ìķ½
Ġê¸° íĴĪ
ĠìŀĲ ì¼ĵ
ë² ¼
íĺ¸ íĺ¸
ëł ¸ë
ëł ¤ëĤĺ
ìĦł ìĪĺë
Ġìľł ì¹´
Ġìľł ì§Ģë
¬¼ ìĸ´ë
ãĦ± ãħĤãĦ¹
ì¢Ĩ ìĿĢ
ê¸ī ìĿ´ëĦ¤
ìĨį ìĹĲìĦľ
ëĭ¹ íķĺëĦ¤
ëĭ¹ íĸĪëĦ¤
ëį ľ
Ġì¤ĳ ìĦŃ
Ĳĺ ê¸°
ìķł íĭĢ
Ġë§ŀ ëħ¸
Ġë§ŀ ìŀĸìķĦ
Ġë§ŀ ì¶ĺ
íĶĦ íĭ°ì½ĺ
ĠëĬ ħ
ì± łë¡ľ
íĶĦë ¶ķìĿ´
ì²´ íĥĳ
ê³¼ ìŀĲ
ê³¼ ê¸Īë
ìķ¼ë ¬´
Ġì£¼ ìĤ¬ìľĦ
ìĿ´ê±° ë³´ê³ł
ìĻĶ íģł
Ġìĸ¸ ëĭĪëĵ¤
ìĦ¤ ì¹ĺ
Ġìŀ¬ë °©
ë¶Ģ ê°¤ì£¼
ê¹Ģ ìľłìĭĿ
ĠìĿ¼ ì§Ħ
ĳĲ ê¸°
Ġëĭ¤ë ª¨
Ġëĭ¤ë ¥´ì§Ģ
ĠìĦ± ë³Ħ
ĠëĤ¨ ìĿĺ
Ġíķľë ĵ¯
ìłĦë ³´ëĭ¤
íĨł íĬ¸ëĦĺ
Ġì§Ģë Ħ¤
íį¼ ê±°
ì§Ģê¸Ī ìĿ´
Ġëª¨ ìĿĢ
Ġëª¨ ìĹ¬
ëĿ¼ ìĿ´ë
ì¹´ë ĵľë
Ġëªĩ íį¼ë
ĠëĤĺë §Įë
ĠìķĬ ê¸Ķ
íķłë Ŀ¼ê³ł
íķłë »Ķ
íķłë ķĮëıĦ
ëĤĺë ´Ħ
Ġìŀħ ëĮĢ
§Īë £¨
ìĦľë Ŀ¼ëıĦ
ĠìĿ¼ë ¶Ģ
ĠìĿ¼ë ½ķ
ĠìĤ¬ëŀĮ ìŀĪìĿĮ
Ġê²½ ì°¬ìĿ´
ë§Īë ¥´
ìķ½ êµŃ
íģ¬ë ¦´
ĠëĲĺ ê¸´
Ġíķ´ë ³¼
ĠãħĪ ãħħ
Ġ6 7
ë¬¸ ìĥģ
ë°° ëĭ¹
Ġë°ķ ìĽĲìĪľ
ãħħãħ ħãħħãħħ
ĠíĶ¼ ì½Ķ
Ġë§Ŀ íķĺë©´
ãħĪ ãĦ´ë
Ġëį §
Ġê°ĢëĬ¥ íķĺëĭ¤
ĠìķĦëĭĪ ìĹĪëĦ¤
íĥĢë ¯¼
íĤ¤ë §Ī
íĤ¤ë Ł°
Ġê¹Ģ ì§Ģ
Ġê¹Ģ ìĦłë¹Ī
§Ĳ ìŀĦ
ìŀĩ ëĤĺ
ì¶ķ íķĺë
ìĽĥ ê¹Ģ
ì§ĢìķĬ ìķĺëĤĺ
ë¥ µ
Ġíıī ëĭ¨
ĠëıĮ íķĢ
ĠìĨĮë §Ī
ëª¨ ëĭī
ĠëĦĺ ìľ¼ë©´
ĠëĶĶ ìĹł
ìĹ´ ìĸ´ë¬¸
ë¨¹ ë°©
Ġëĭ¨ íĮĲ
ëĮĢë °ķ
ĠëĤĺìĺ¤ ê¸´
íĮĮë łĪ
Ġìĭľìŀĳ íĸĪëĭ¤
Ġëĺ¥ ê²ľ
Ġë°ĺ ê°Ĵ
ê±°ë ¥¼
ĠëĲĺë ħ¸
ĠìĦľë ¯¼
Ġìĭ« ê¸Ķ
Ġë¡ľ ê³ł
ìķĦìĿ´ íĶ¼
¨¼ íĤ¹
ëĭ¤ë ¦Ħ
ëł¥ ìĿĢ
Ġëĭ¬ë ¦´
íĶ¼ë Ħ¤
íĶ¼ë ¥¼
ëħ¸ë ¦¬
íıŃ íĴį
Ġì¹´ë ĵľë
Ġìĺ¬ëĿ¼ ìĻĶëĭ¤
Ġë°± íĺ¸
§İ ëħ¸
Ġê±¸ë ¦¬ëĬĶ
ìľ¨ ìĿ´
íĮĶ ì°Į
ìĹĺ ìĨĮëĵľ
ìĦłë ıĦ
Ġíİ¸ ì§Ģ
íĴį ìĿ´
°¥ ìĿ´
ëĿ¼ë ¯¸
ëĿ¼ë ĶĶ
©´ë ĮĲ
ìĸ¸ë ħ¸ìļ´
ĠíıŃ ì£¼
²ł ê°Ģ
ëª¨ë į¸
ĠìĻľìĿ´ë Ł¬
Ġë¯¼ íıĲë
ì§¤ë ıĦ
ìĿ´ìĥģ íķĺê²Į
Ġë²Ī íĺ¸ë
ĠíĶĮë Ŀ¼
ĠíĶĮë ¡ľ
ĠíĶĮë Ł¬
Ġì¥ ¬ë¦¬
Ġíķĺì§Ģ ë§Ĳ
Ġê¼´ë ¦°ëĭ¤
ì»¤ë ıĦ
ĠíĨłë ¥´
Ġê·¸ëŁ° ê²Į
ê³³ ìĿĢ
Ġìķ¼ë ¬´
Ġì§ĢëŀĦ ìĿ´ëĦ¤
ëŀĳ ìĿ´
Ġê°Ĳë ´ī
Ġíķ´ìķ¼ íķĺëĤĺ
ĠëįĶë Ł½
ĠD LC
Ĳł ê¹ĮìļĶ
ĠëĨĢë ŀĢ
ĠíĶĦë¡ľ ìłĿíĬ¸
ëıĪ ìĿ´
ĠT r
Ġë°¥ ë¨¹ê³ł
Ġìĸ¸ë ¡ł
Ġìĸ¸ë įĶë
ë²ł íĬ¸ëĤ¨
ê°¤ëŁ¬ë ¦¬ëĬĶ
ê¹¨ë ©´
ìķĦìĿ´ë ¦°
Ġë¹ĦìĬ· íķĺê²Į
ìķłë¯¸ ê°Ģ
Ġìħ ī
)) )
ëłĪë ¹ĦìķĦ
Ġë¹¨ë ©´
Ġë§İìĿĢ ëĵ¯
ìĥĪëģ¼ë ŀĳ
Ġìĸ» ìĸ´
Ġëĸ¡ìĥģ íķ¨
ìł¤ ëĭ¤
íķĺëįĺ ê±°
ë§¥ ë¶ģ
Ġë¿Įë ¦¼
ìĬ¤íħ Įë¦¬
ë´ ĩ
ĠíķĦë ĵľ
Ġn pc
ĠìĪ¨ ê²¨ì§Ħ
Ġì²¨ ìĹĲ
Ġì¡¸ë ł¤
ĠëĲĲ ìĿĮ
Ġë²Ķ ìľĦ
ĠìĦŃ ìĬ¤
ê³¨ë ĵľë
ĠK T
ê·ĢìĹ¬ ìĽĢ
Ġëª»ë ´¤ëĬĶëį°
ĠëĵĢ ìĸ¼ë
ĠíĬ¸ëłĪ ìĿ¼ëŁ¬
ĠìĿĳìĽĲ ê°Ģ
ìŀ¬ë°Į ëĭ¤
ĠìķĦê¹Į ìĽĮ
Ġê¼´ë¦¬ ê²Į
Ġëª»ë°Ľ ìĿĮ
Ġëŀľë ½ĳ
Ġì»¤ìĹ½ ëħ¸
ĠìłĳìĨį ìĿ´
ĠìĦ¹ ìĬ¤ë
Ġíı¼ ìĿ´
ìĵ´ ê±°
ì§Ģê¸Īë ıĦ
íİĳ íģ¬
ĠU I
Ġì¡°ê¸Ī ìĶ©
Ġìķ¡ ìłķ
ĠìĻľìłĢë Ł¼
ĠìłķíĻķ íķľ
ìł¤ë ¦¬
Ġê¾¸ë łĪ
íĶĦë¡ľë ĵĢ
Ġë°ĽëĬĶ ê³³
Ġë£© ìĤ¼
íĸĪë ĪĦ
Ġìĺ® ê²¨
Ġê¿Ģë ²Į
Ġê´Ģë ł¨ë
ëĦ· íĶĮë¦ŃìĬ¤
Ġë³Ħë¡ľë ĥĲ
íİŃ ê·Ħ
Ġë§ŀì¶° ìĦľ
į¥ ëĭ¤
Ġìĸ´ìºĲë Ĳ¨
Ġë¹Į ì§Ģ
ìĿ´íķ´ íķĺë©´
Ġë½Ģë ¡Ŀ
ìļ°ìļ¸ ì¦Ŀ
ĠëļĿ ë°°ê¸°
ĠìĶ» ê³ł
ë¸ĮìĿ´ íı¬
Ġëĭ¤ìļ´ë ¡ľëĵľ
ĠìĥĿì¡´ ìŀĲ
Ġíķ¨ë ¶Ģë¡ľ
ëŀľ ìĦł
ì£¼ëħĦë ķĮ
ê¸· ì¤Įëĵ¤
ĠíĹ¤ëĵľ íı°
ìĭľì²Ń ìŀĲ
ig ht
Ġì»¨ë ĶĶìħĺ
ìļĶì¦ ĺë
ë¨ ¼ëį°
Ġëĭ´ë °°ë
¬´ìĦŃ ëĦ¤
ëª¬ë ¦°ìĿ´
ĠìĤ¬ê· Ī
ĠãĦ² ãħĤ
Ġë°©ìĸ´ë ł¥
ì® ¸
Ġê³łë¡ľ ìĭľ
Ġê¸°ìĸ´ë ĵ¤ìĸ´
ëĭ¨êµ° ìĹ°íķ©
9 00
B A
E R
G T
L B
O D
a g
i l
i ke
n o
r c
t er
¨ Ħ
ì ĮĢë
Ħ ¬ë
ı ëĭ¤
ľ °ë
Ġë ŁŃ
ëĭ ł
ìĿ´ ìĦ¸ê³Ħ
¼ë ħ¸
ìĦ ŀ
ìĬ Ľ
ìĿ´ë °±
ìĿ´ë ħ¸ëŀĺ
ìķĦ íı¬
ìķĦ ìķ¼ë
ìĥ ĺë
łë ¦¬
¡ľ ê°Ģ
Ķë »Ķ
Ġê° ļ
ìĬ¤ ìĿĺ
ìĬ¤ íĮĮìĿ´
ìĽ ©
ĠìĿ´ ì£¼
ĠìĿ´ íĭĢë
Ġëĭ ·
ìĭľ ìĺģ
ë° ķìĿ´
íķ´ ì£¼ê³ł
ìĺ¤ íģ´
ìĤ¬ íĥķ
¬´ íĺĦ
¬´ ìĥĪ
ìĪĺ ìŀĦ
ìĪĺ ìĪĺ
ìĪĺ ìŀĪëĤĺ
ìłķ ê¶Į
íĬ¸ ìĹĲìĦľ
ì£¼ ëĭĪ
§Į íķľê±°
°ľ ìĿ´
ĠëĤĺ ì§Ģ
ĠëĤĺ ì½Ķ
ĠëĤĺ ìĬ¹ìĹ½
ê°¤ ìĿ´ëĥĲ
ê°Ļ ì§ĢìķĬëĥĲ
ãħĩ ãħħãħĩ
Ġê°Ģ ìĺ¤
Ġê°Ģ ë¦¬
Ġê°Ģ ë©´ë
ìĦ± ëħĦ
íķ¨ ìĿĦ
ĠìķĪ ìķĦ
ĠìķĪ íĭ°
ĠìķĪ ê¹¨
ìĭł ëĭ¤
ìĸ´ë ²¤
¨¹ ìĸ´ìĦľ
ŀĺ ìļĶ
ìľł ìķ¼
ìľł íĪ½
ê·¸ë ıĦ
ê·¸ë łĪìĿ´ëĵľ
ĠìĤ¬ ìŀĲ
ĠìĤ¬ ì¿łëĿ¼
ìļ° ìĬ¤ê°Ģ
íĦ° íĮĮíģ¬
ĵľë ¦´
ìĥĿ ìĿ¼ë
ë¶ ī
Ġìłķ ëł¹
ìº ħ
ê°ľ ìĭľë°ľ
Ġìĺ¤ ì§ĢëĬĶ
Ġê°ľ ê°ĻìĿ´
Ġê°ľ ì¢ĭìķĦ
ìķĪ ìľłì§Ħ
Ġëª» ìĶĢ
íķĺê³ł ëıĦ
ëĮĢ íĳľ
Ġìĭľ ì´Ŀ
Ġìĭľ íĤ´
Ġìĭľ íĹĺë
íĻĶ ìĨį
íĻĶ ê¹Įì§Ģ
ĠìĬ¤ íĥŃ
ĠëŃĲ ìĹĲìļĶ
ìĹĪ ìĸ´ìļĶ
ìĹĪ ëĬĶì§Ģ
ĠëĮĢ ì²ĺ
ĠëĮĢ íķĻêµĲ
íĸĪ ê²łì§Ģ
ìŀĲë ¦¬ê°Ģ
ìŀĲë §ī
ìĺģ ìĦĿ
¦° ê±°ìŀĦ
ĠìĿ¸ ì§ĢëıĦ
°Ķ ìĹĶ
Ġì¢Ĩ ë¦¬
Ġì¢Ĩ ìĿ´ëıĮ
ë³´ ê³łìĭ¶ëĭ¤
Ġê³µ ê³Ħ
Ġê³µ ëĭ¨ê¸°
ì°¨ íĽĪ
ìĭ¤ ê³¨
ĠëĶ °ë¦¬
ìĹ° ìĸ´
ìĬ¤ë ħ¸
ìĬ¤ë §¤
ì¤Ģ ìĿĢ
³´ë Ĥ¸
Ġë§İ êµ¬ëĤĺ
íĤ¤ íĤ¤
ìĦł ìļ°
íĭ° ìķĦ
¯¸ë Ĥ¨
ì²ľ ìĽĲë
ë¦¬ ì¿ł
Ġ5 1
ë§Ī ê°Ģ
ãĦ± ãħĬ
ì¢Ĩ ë°©
ì¢Ĩ ëĲĲëĭ¤
ê·¸ ìĺ¤ëĬĶ
ê°ķ ì§Ģ
ëĭ¹ ì²¨
ĠëĤ´ ìłĦ
Ġìĭł ê·ľë
Ġìĭł ìłķíĻĺ
ìĿ¼ë §¤
Ġë´ ¤ëįĺ
ìŀ¬ íĺĦ
Ĳĺ ê²Į
Ġì½ ¥
ìķĺ ëĭ¤ëĬĶ
Ġë¹Ħ ì°¸
Ġë§ŀ ì¶ľ
íĶĦ ê°¤
ìķĦëĭĪ ê¸Ķ
ì± ¤
ìļ´ ê±´
íĶĦë ¥¼
ìķ¼ë ħĲ
¥´ë łģ
Ġë¨¹ ëĦ¤
Ġìłľ êµ¬
ìŀħ ëĬĶ
ĠìĥĿê°ģ íķĺëĭĪê¹Į
ĠìĿ¼ ìĿ¼
Ġëĭ¤ë Ĥĺ
Ġëĭ¤ë Ĵ¤
ìĹŃ ìĿĢ
íļĮ ìĭĿ
ë¹Ħ ìĬĪ
ë¹Ħ ìĪ²
íį¼ ìĦ¼íĬ¸
Ġëªĩ ë¶Ħ
ì¢ĭ ê³ł
ĠìķĬ ê²łì§Ģ
ëĤĺë ¹Ħ
Ġìŀħ ëĬĶ
Ġì´ Į
ì¤ĺ ìķ¼íķ¨
ĠëłĪ ê³ł
ê°¤ë §¤
ĠìĹ° ì°¨
ĠìĹ° ë§Ĳ
Ġìµľ ìĥģ
ëĤ¨ ê²ľìŀĺ
Ġìĸ´ëĶĶ ê°ĵ
ĠãħĪ ãħĪ
Ġìĭ¤ ì¡´
ì§Ģë Ł°
ìĥĪ ìĤ¼
Ġê°ľë ©ĭ
ĠìĨĮ ëĭĪ
ë°° ëĬĶ
ĠìĤ´ ìĿ´
ĠìĦł íĸī
Ġìĸ´ëĸ» ëĥĲ
ħĢ ìĦĿ
ĠíĶ¼ ìĹĲ
Ġê°ĢëĬ¥ íķĺì§Ģ
ĠíĮĮ ëĬĶê±°
ĠíĮĮ ìĥĿ
ĠíĮĮ ìķħ
ĠíĮĮ ê´´
ìĺĢ ëĭ¤ê³ł
Ġë¨¸ ìĥģ
Ġë¨¸ íķ¨
Ġëĵľë İĮ
Ġë§Īë ¥´
Ġìĸ¸ìłľ ìĺ¤ëĥĲ
ĠìĦ¸ ì°¨
íĥĢë ¦Ń
Ġëĵ¤ìĸ´ ê°Ħëĭ¤
ĠíĪ¬ íĥĳ
ĠíĪ¬ ì²Ļ
ìŀĩ ëĬĶê±°
ĠíĬ¸ë łĪë
Ġë³¸ ì§Ħ
Ġë¨¸ë Ŀ¼
íĮĢ ìĹĲìĦľ
¶Ģë ¦¬
¶Ģë ¦Ħ
ıħ ê¸°
Ġìľłë Ĥĺ
Ġëĭ¹ ìĭł
ì¸ł ëĬĶ
Ġíħ ħ
ìĮ ĺ
Ġì£¼ë ª©
Ġì½Ķ ìĭľ
ĠìĹĲ ìĬ¤
Ġëĭ¨ ê¸°
ìķĺë įĺê±°
¦´ ì¹´
ĠíķĦ ìĤ´ê¸°
ĠìĿ´ìĥģ íķĺëĦ¤
ê±¸ë ¦¬ëĥĲ
Ġë¯¸ë Ł¬
ìĶ¹ íĥĢ
Ġëĺ¥ íĢ´ëĵ¤
Ġíļ ŁìĪĺ
Ġì¹´ ì¹´
Ġë°ĺ ìĺģ
íĶĮë łīìĬ¤
§Įë Ĥ¨
Ĥ´ë ĨĶ
ë²Ħ ìĬ¤íĦ°
ĠëĮĢë ¨¸ë¦¬
¨¼ ìĬ¤
ĠìĽĲë ŀĺë
ìķĮë ŀĮ
ìĺµ ì¹ĺ
ĠìĹ¬ìŀĲ ìķł
ĠíĦ° ì¹ĺ
ìĨĲ ìĭ¤
ë£ ¸ë¹µ
íıŃ ì¥Ĳ
ìµľ ìķł
Łī ìĿ´
Ġë°± íĻĶ
ë£¨ ìĭľëĵľ
ë°Ķë ŀĢ
Ġíĭ° ìĸ´ë
ĶĶë ¹Ħ
Ġë¹ł ì§Ģë©´
ĠìĤ¼ ê°ģ
ë¯¸ë ĶĶ
ìĦłë °ľë
łĪìĿ´ ê·¸
Ġíİ¸ ìŀħ
Ġíĺ¸ ê°ĲëıĦ
ìĻĶë Ĥĺ
ħ¸ë ²¨
ĠíĮĶ ìķĦìķ¼
ì°© íķľ
Ġì¢Ĩê°Ļ ìľ¼ë©´
ĠìĤ´ë ¹¼
ê°Ķ ìĿĦëķĮ
Ġì²« ë²Īì§¸
ìĬ¤íĦ° íĬ¸ë¡¯
ì§¤ë ĵ¤
ĠíĴĢ ê³ł
ĠíĴĢ ì½¤
ĠëĦĪ ê°Ģ
Ġì¢ħ êµĲ
ĠìĹĨëĥĲ ê³ł
ìĬĪ ìĬ¤
ì»· ìĭł
ìĿĮë °¥
Ġê°¤ëŁ¬ë¦¬ ìĹĲ
Ġë²Ħë ¦¬ëĬĶ
ĠíķĦìļĶ íķ´
ĠìĹĲë ¦¬
ĠìĦ¤ë łĪë°ľ
Ġíĥľ ìĸ´ëĤĺìĦľ
ê¼¬ ì¶Ķ
ê¼¬ íĻĢ
ĠíĴĢë ¦¬ë©´
ĠëĨĴ ìĿĢê±°
Ġëĸ¨ìĸ´ ìł¸
ìĩ¼ ìĩ¼
Ġìķ¼ë °ľ
Ġì§ĢëŀĦ íķĺëĦ¤
Ġì²ĺë ²Į
į± ìĿĢ
¹¨ ê³ł
ĠìķĪëĲĺ ê²łëĭ¤
ë¡ľë ıĦ
ĠíĻĺ ìĤ°
ìĥĪë ¡¬
Ġìī¬ ê³ł
ë§Ĳë ŀĳ
Ĳł ì§Ģ
Ġ14 00
ĠëĨĢë Ŀ¼
Ġëį°ëł¤ ìĺ¬
ĠíĹĪ ê²½ë¯¼
ĠíĹ¬ ì§Ģ
ì¹ľêµ¬ íķľíħĮ
Ġë©Ķë ¥´
íĮĶë ©´
íķ´ì¤ĺ ìĦľ
ê·¸ëŁ¬ ê²Į
ë©Ķë ª¨ë¦¬
Ġì§Ģì§Ģ íķ©ëĭĪëĭ¤
Ġì»´ ê°¤
ĠëıĦìĻĢ ì£¼
ĠëĩĮ ê°Ģ
Ġìĥģê´Ģ ìĹĨëĬĶëį°
ĠìĦľìļ¸ ìĹĲ
íķĺì§ĢìķĬ ëĤĺ
ì¹¨ë ¶ķìĿ´
ĠëĮĢê¸° ì¤ĳ
ĠìŁ ¤ëĦ¤
ĠìĺĨ ìĹĲìĦľ
Ġì¤ĺ íĮ¨
ìĸ´ëĶĶ ìĦľë
Ġë§ģíģ¬ ì¢Ģ
ìľĻ ëı¡
ìĿ´ëĿ¼ë §¤
ĠíĥĦ ìĥĿ
ìķ¼êµ¬ íĺģëªħ
Ġê°ĻìķĦ ìļĶ
ľ¬ ê±°
Ġìķ± ëĵ±
ģ¼ë ĥĲ
ëŀŃ íģ¬
ìĭłê³¡ ë³´ìĿĢìĻĶ
Ġëª° ìŀħ
ĠëĵĢ ìĹ£
Ġìĵ´ ê±°
Ġëª©ìĨĮë¦¬ ê°Ģ
ĠìĶ¨ë ¶Ģë
Ġìĭłê²½ ìķĪ
ĠëĤĻ ê´Ģ
ìķĪëĲĺ ì§Ģ
Ġìĺ¬ëł¤ë ´Ĳ
ĠìĿ´ëŁ¬ ëĬĶê±°
Ġì§Ħíĸī ì¤ĳ
Ġìŀ¥ëĤľ ê°Ĳ
Ġìĭ¤ìĭľê°Ħ ìľ¼ë¡ľ
Ġê·Ģì°® ìķĦ
ĳĺ ìĿ´
Ġíļ¨ê³¼ ê°Ģ
ĠìĻĢë ıĦ
ìĿ´ëª¨ íĭ°ì½ĺ
Ġì¹ł íĶĮ
Ġo f
Ġë§Įëĵ¤ìĸ´ë ´Ħ
Ġëª¨ë¥´ë ħ¸
ĠìĦ¸ìĥģ ìĹĲìĦľ
Ġë¹Ļ ê³ł
íħĮìĿ¼ ì¦Ī
Ġë¶ķ ê´´
Ġê°ĢëĬ¥íķľ ê°ĢìļĶ
ĠíĴĪ ìłĪ
íģ´ë¦¬ ìĸ´
Ġëĵľëŀį ë¥ł
Ķľë Ł¬
ĠìĹĺë¦¬ íĬ¸
Ġê²½ì°° ìĦľ
ìķĦë¥´ ì¹´ëĤĺ
ìķĦë¹ł ê°Ģ
ìĭłìĿ¸ ìĥģ
Ġì¹° ìľĻëı¡
°ĶëĢ ľ
ĠìķĦíĭ°ìĬ¤íĬ¸ ìĥģ
ë©Ģ íĭ°
ĠíķĺìĬ¤ ìĬ¤íĨ¤
Ġë©¸ ì¹ĺ
Ġê²°ë ¡ł
íĤ¤ìĽĢíŀĪìĸ´ë¡ľ ì¦Ī
ìłķìĭłëĤĺê°Ī ê±°ê°Ļìķł
ëĭ¨ì²´ ì§¤ëĵľì»µ
ìĽĥê¸´ ê²Į
ëĦĪíĿ¬ë ĵ¤
ĠíĻĪë §Ī
ĠìķĦë¦Ħ ëĭ¤ìļ´
ìĿ´ëĭ¬ ìĨĮ
Ġëª¨ëį¸ë §ģ
ë¶Ģìľł ìĦ±
¡¬ëĵ¤ ìķĦ
ĠãħĤãĦ· ãħĤãĦ·
Ġìĺ¬ìĬ¤íĥĢë ¥¼
Ġì¹°ìľĻëı¡ ìĹĲê²Į
8 2
C D
G E
I T
S S
c p
d s
e c
i on
j yp
§ ĪëĦ¤
© ¸ë§Ŀ
Ĥ ļ
Ĭ ¬
ł ĺë
Ġë ¥´ë
ìĿ´ ê²łëĦ¤
ìĿ´ ìĹĪëħ¸
ê°Ģ ë³´ëĦ¤
ê°Ģ íĿĶ
ê°Ģ ì±łë
¼ë ĥĲ
ëĭ¤ ë©°
ê³ł ì§Ģ
Ĥĺ ê³ł
ìĿ´ë £¨
ìĿ´ë ĮĢíĺ¸
ìķĦ ê°ĢëĬĶ
ìķĦ ìľłë¯¸
Ħ¤ ãħĭãħĭ
Ģë ĵĿ
.. !
ëį° ëłĲëĿ¼
ê¹ Įë¦¬
ìĽ Įë¦¬
Ġë° ´ëĵľ
ìĪ °
íķľ ìĦ±
ĠìĿ´ ìĤ¬ëŀĮ
ĠìĿ´ ê²¼ëĦ¤
ìĭľ ìľĦ
ìĿ¸ ìĥģ
ìĿ¸ ì¹Ń
íĮ Įëĵ¤
ìĨ Ķì§ģ
íķĺë ŀĳ
ì² ´ë¦¬
ê¹Į ìĦľ
íķ´ ìĦł
íķ´ ì§Ħëĭ¤
ĠëĤ ¯
ĠëĤ Ģ
ìļĶ ê±°
íķĺëĬĶ ê±´ëį°
¹Ħ ì¹ĺ
íĸ ĪëĤĺë³´ëĦ¤
ìŀ¥ ìĿ´ëŀĳ
ìŀ¥ ë°ľ
§Į íķĺëĥĲ
§Į íķ´ëıĦ
¦¬ë ĪĦ
¦¬ë ł¤ê³ł
ìłĦ ìĿĦ
Ġê°Ģ ìĬ¤
Ġê°Ģ ë²Ħë
Ġê°Ģ ë³´ìŀĲ
ìĦ± ê³¼
§Ī ìĿĮ
ëĤĺ ìĺ¬
ĠìķĪ ì¹ľ
ĠìķĪ ìĿ½
ìĿ¸ë įĶ
ìĽĲ ì¤ĳ
ĠìĿ´ë ħ¸
ĠìĿ´ë ŀĺìĦľ
ĠìŀĪ ì§Ģë§Į
ĠìĪ ¨ë
ì¤ĳ ê³Ħë
... !
ĠìĤ¬ íĺķ
íĦ° ì¹ĺ
íĦ° ì§Ģë©´
ĵľë ¡Ń
ìŀĪ ê¸´
íİ ©
Ġìłķ ë³´ë
Ġìłķ ëĸ¨ìĸ´
Ġë³´ íĹĺ
ìĺ¤ë Ķĺ
Ġìĺ¤ ëĭī
êµŃ ìķ¼
Ġìĭľ ì¦Ī
Ġìĭľ íĤ¤ëĬĶ
įĺ ì§Ģ
Ġíĺ Ģ
íķ´ë Ĩĵ
íķ´ë ³´ëĭĪ
íķ´ë ³´ëĭĪê¹Į
íķ´ë ³¼ë
ĠëĮĢ ê°Ģë¦¬ê°Ģ
ì¹´ ìĬ¤ë¯¸
ĠìĥĿ íĮĮ
Ġíķľ ê³¡
ĠìĿ¸ ìŀ¥
Ġì¢Ĩ ëĲĺëĬĶ
Ġê°Ļ ê¸´
ìĨĮ ìĭłë°ľìĸ¸
ì¼Ģ íĬ¸
Ġë¬´ ì¡°
íĶ¼ ìĹĲ
íĶ¼ ìĸ´
íĶ¼ ìĶ¨
Ġíķĺ ê²łëĦ¤
ĠìĪĺ ìļ©
Ġê³µ ìĿ´
Ġê³µ ëª¨
Ġê³µ ê¸°ìĹħ
Ġê¸° ìłģìĿĺ
ìĭ¤ íĻĶ
Ġìŀĺ íķľëĭ¤ê³ł
ĠìŀĲ ê¸°ëĵ¤
ĠìŀĲ ê°Ģê²©
ĠìŀĲ ì²´ë¥¼
ëĤ´ ì¹ľêµ¬
¡ľë ¥¼
¸Į ê¸Ī
ìĹ° ì±ł
íĤ¤ ìĦ¸
íĤ¤ ìŀĳ
íĭ° ëĭĪ
Ġ5 2
°© íķĻ
Ġë¯¸ ìĪł
Ġìĥģ ìĭľ
ëĭ¹ íĸĪëĭ¤
Ġìĭł ìĿ¸ë
Ġëĸ ¤ëĥĲ
Ġì¤ĳ ë°ĺ
ìķĺ ìĬµëĭĪëĭ¤
ìĨĮë Ŀ¼
ìĨĮë ¡ľ
íı¬ ê°¤
Ġì¡° ì§Ģ
Ġì¡° ê¸°
Ġê±° ëĬĶ
¥´ë °Ķ
Ġë¨¹ ìĿĦë
Ġëĵ¤ ë°ķ
ìĻĶ êµ¬ëĤĺ
ë¶Ģ ëĬĶ
ë¶Ģ ìłģ
Ġë§Ĳ ìĹĲ
ìĪĺë £Į
íĥľ ìĿ¼
íķĻ ì°½ìĭľìłĪ
ĠìĦ± ê°¤
ª¨ ëĬĶ
ê²ľ ìĹĲìĦľ
Ġëª¨ë °Ķ
ìłĦë ħ¸
íĨł íģ°
ìĤ´ ìŀĲ
ĠìķĬ ëĬĶëį°
Ġë°Ľ ê¸°
íĪ¬ ìĤ¬
Ġëħ¸ë £¨
Ġëħ¸ë ¦¬ëĬĶ
Ġìº łë
ìĦľë °©
ìķĪë Ĥ´
ĠìĹ° ìĥģ
Ġìµľ ëĭ¤
20 3
ĠëĲĺ ê²łëĭ¤
ì¹ĺë ©´ìĦľ
ë¬¸ ìĭł
¸Ķë łĪìĬ¤
ìĥĪ ìļ°
ê·Ģ ìĭł
Ġê°ķ ìłķíĺ¸
ĠíĤ¤ íĥĢ
íĻ© ê¸Ī
Ġë°ķ ìłķë¯¼
ĠìĤ´ ìŀĲ
ì´Ī ê°Ģ
ãħħãħ Ī
Ġêµ¬ ê°Ħ
ëĭ¬ ìĿ´
Ġë°° ê·¸
ê²° íķ©
Ġë¶Ī íĮĲ
íĻĺ ê¸ī
°ķ íķľ
Ġë§Įë Ĥ¬
ê¾¸ ì¤Ģ
Ġë¶Ģë ¥¼
ë³¸ ê°Ģ
Ġìķł ìŀĶ
Ġëĵľë Ħ¤
Ġë§Īë ł¥
Ġë§Īë ħĢ
ĠëģĿ ìĿ´
ìĤ¼ êµŃì§Ģ
ì²ĺë ĦĮ
ê°Ī ê²Į
Ġê°¤ë ¡ľê·¸
ìĵ° ì§Ģ
ĠìĽĲ ìĪŃìĿ´
Ġê³łë ł¤
ĠíĥĢ ìĦĿ
ìķĮ íĮĮ
Ġì£½ ìĿ´ëĬĶ
ìĭ¸ ìĿ´ì½Ķ
ĠíĬ¸ë Ł¼íĶĦ
ë¥ ľ
Ġìľłë §Īê°¤
ëª¨ ê¸°
ê´ĳ ëĮĢ
£¨ë £¨
íĶ½ ìĿĢ
Ġì£¼ë ¡ľ
ìĦ¸ë ĮĢë
Ġìłģ ì¤ĳ
Ġìłģ ìĸ´ëıĦ
Ġìŀ¡ ëĬĶê±°
Ġë½ĳ ëĬĶê²Į
ĠìĹĲ íİĻ
ë°Ķ íĢ´
ëĤł ê°ľ
¹Ħë ´ī
ĠëĤĺìĺ¤ ëĬĶê±°ìŀĦ
Ġêµ¬ë ¶Ħë
ìĻķ ìĿĢ
Ġìŀ¬ë°Į ìĿĦ
Ġìĭ¬ ìķ¼
Ġìĭľìŀĳ íķľëĭ¤
Ġë§Įëĵ¤ ì§Ģ
11 9
Ġìĵ°ë ©´ìĦľ
ĠìĿ´ëŁ° ìĭĿìľ¼ë¡ľ
Ġì§ģ ìŀĳ
ê°ĵ ëĭ¤
§Įë ĵ¬
Ĥľ ê²Į
Ġê°Ħ íĺ¸
ĠìĦľë °Ķ
Ġê±°ë ¥¼
Ġìī ĳ
°Ķë ©Ķ
ìį¨ ìļĶ
ĠìĻĶ ìĿĮ
ìĽħ ë¹Ī
ìķĮë £¨ì½Ķ
ë°Ľ ìķĦ
ëĺ¥ ê²¬ëĵ¤
Ġì½Ķë ¯¸
Ġì²ĺ ì°¸
ĠíĦ° ì§ĢëĦ¤
íĬ¹ ìĦ±
ãħĤ ãĦ±
íĶ¼ë ħ¸
ĠëĤľ íĪ¬
ìµľ íķŃ
Ġì¹´ë ©Ķë
¦°ìĿ´ ìĿ¸ëį°
Ġìĺ¬ëĿ¼ ê°Ģë©´
íĸĩ ìľ¼ë©´
ĠëĪĦêµ¬ íķľíħĮ
ë°Ķë Ģ
ìĿ´ìľł ëĬĶ
ìĿĦëķĮ ê¹Įì§Ģ
ĠëĶ°ë ¨¹ê³ł
ĠìĤ¼ êµŃì§Ģ
Ġì´Ī ì°½ê¸°
ëĿ¼ë ¦¬ê°Ģ
ĠíĮĶ ê¹Į
ĠíĮĶ ìķĺëĬĶëį°
Ġê¸Ī ìķ¡
ĠíĻĶ íķ´
Ġì²« ë°©
ê²¼ ìĸ´
ĠìĿĮ ì¹¨
Ġê°ĻìĿĢ ê²Į
ìĬĪ ì£¼ê°¤
Ġëĭ¬ ìķĦë
ĠìĤ¬ì§Ħ ìĿ´
Ġìĸ¼ë§Ī ê¹Įì§Ģ
ĠíĨł íģ°
ì»¤ë §Ī
ĠëĲľ ê±°ëĥĲ
ĠëĤ« ê²łì§Ģ
ìĬ¬ë ¡ľ
ĠìĦ¸ë ¦¬ì¹´
ĠëĿ¼ë ¯¸
ĠìĿ¼ë³¸ ìĿ¸
íİĺë ¶ģ
Ġë°ĺë °Ķì§Ģ
ĠëĨĴ ëĥĲ
ìĹł íĮį
íķĺê³łìĭ¶ ëĦ¤
ĠíĶ¼ë ¡ľëıĦ
Ġë¶Ļ ìĿĢ
ĠìŀĺìĥĿ ê²»
ĠëĪĦë ¥´ê³ł
Ġë´ī ìĹ¼
ëĦĪë Ħ¤ëĵ¤
ìĿ´ë²Ħ ê±°
ãħłãħłãħłãħł ãħłãħł
Ġëıħ ìŀ¬
ĠìĹ´ë ©´
ĠìŀĦ ìĺģìĽħ
Ġê¼¬ íĻĢ
Ġëį°ëł¤ ìĺ¤ìŀĲ
ĠìķĶ íĿĳ
ìĭ¬ë ¦¬
ê±´ë ĮĢ
ìĻĵ ëĦ¤
ìī½ ê²Į
ìī½ ëĦ¤
íı´ ìķĦìĽĥ
17 0
ìĪĺëıĦ ê¶Į
Ġìı ´
ĠëĲł ê¹ĮìļĶ
Ġê°ľì¢Ĩ ê°Ļ
ĠíĤ¤ë ©´
Ġëĸ¡ë°¥ ìĿĢ
ë²ł ìĿ´
Ġt he
Ġë¹ĦìĬ· íķĺëĦ¤
ĠìĿ´ìģĺ ëĭ¤ê³ł
ìķĦë³´ ìĿ´ëĬĶëį°
Ġì¤Ģ ì§Ģ
íĥŃ ì¹łíĶĮ
ĠíĶĮ íĥĲ
ĠìĥĢ ìĸ´
Ġìĸ¸ê¸ī ëıĦ
ĠìĿ¸ìĬ¤íĥĢ ê·¸ëŀ¨
ĠìĿ¸ìłķ íķľëĭ¤
íķľê±´ ì§Ģ
Ġìĭľë°ľë ħĦ
Ġêµ° ìĿ¸
ĠìķĮê³ł ë¦¬ì¦ĺ
Ġëĭī ìĸ¸
íķłê±° ëĭ¤
Ġì¡°íķ© ìĿ´
Ġíķľëªħ ìĿ´
Ġê¼´ ìķĦë°ķ
ĠëĤĺìĺ¬ë ķĮë§Īëĭ¤
ĠìĪĻ ìĨĮ
ëĮķ ëĮķ
ĠìĹ¬ì¹ľ ìĿ´
Ġìŀ¬ë°ĭ ìĿĮ
Ġê¸°ë³¸ ìĨĮëĵĿ
ĠìĽĥê¸´ ê±°
ìĹĲíĶ½ ìĦ¸ë¸Ĳ
íķĺì§Ģë§Ī ìĦ¸ìļĶ
Ġíĺ¸ê°Ĳ ê³łëĭī
Ġêµ´ë ¹Ħ
ìķĪëĲĺ ëĬĶê±°
íĮ¬ë ĵ¤ìĿĢ
ĠãĦ´ ãĦ±
ŀ« ëĬĶëį°
ĠìľłìłĢ ê°Ģ
ĠìŀĲëıĻ ì°¨
Ġë¥ĺ ì§Ģíĺģ
ìª Ħ
Ġë§ŀì¶Ķ ê³ł
ìķĮëª» ìĿ¸ëį°
ìĵ¸ë ª¨
Ġë¸Ŀ ë¯¸
ë¸Ŀ ë¯¸
Ġêµ°ë ĮĢë
ê¸´ë ĵ¯
Ġì²¨ë ³´ëĦ¤
Ġìŀĥ ìĸ´ë²Ħë
ãħıãħıãħıãħı ãħıãħıãħıãħı
ëħĢë ŀĳ
Ġê±°ëŀĺ ê°ĢëĬ¥
Ġë¬¸ìłľë Ħ¤
ĠìĹ°ìĨį ìľ¼ë¡ľ
ìĥĮë ĶĶ
Ġëĭ¤ëĭĪ ëĬĶëį°
ĠìĪĺëıĦ ê¶Į
ëİħ ìĿ´
ts d
ìĬ¤íħĮ ìĿ´ì§Ģ
Ġê°ľì© Ĳëĭ¤
ëĭ¤ëĭĪë ©´ìĦľ
Ġë¹Ħë¹Ħ íģĲ
Ġê³łëĶ© ëķĮ
ëĶ´ ê±´
ë³´ìĦ± ìķĦ
ìĬ¤íĶ¼ ì»¤
°ĶëĢ Į
ë¯¸ìķĪ íķľëį°
ĠíĦ°ë ľ¨ë
ĠìŀĲê²© ì¦Ŀ
ĠìĹĲë° Ģë¦¬
ëĸłë ł¤ëĭĪ
Ġíĳľë ³¸
ŀ¨ë ¸Ķ
ëĤ¬ë ħ¸
ĠíĬľ ëĭĿ
íĺĦìĭľ ê°ģ
ĠìĽĥê³ł ìŀĪëĭ¤
ê¿Ģë²Į ì§ģìºł
ìłĬ ìĿĢ
ĠìłĢìŀĳ ê¶Į
ìĹĲë°Ģë¦¬ ìķĦ
ìĹĲìĿ´ì¹ĺ ìĹĺë¹Ħ
Ġíļį ëĵĿ
ì¡°ìĬ¹ìĹ° vliveê°¤
ìĭłê³¡ë³´ìĿĢìĻĶ íĺ¸ì¤ĳ
6 7
7 4
? ...
F eat
M S
h a
n ew
t v
u t
¬ ¶
® ¤ë
ë ŁŃ
ë ¦¿
Ķ ´ë
Ġì Ĵ
Ġì Ĥĺ
íķ Įë
ëĬĶ êµ¬ëĤĺ
ìĿ´ ìĿĺ
ìĿ´ ìĻĢ
ìĿ´ ìŀ¬
ìĿ´ ê³¼
ê² Ĳë
ì§Ģ ìĨį
ì§Ģ íĳľ
ê³ł ë§Ī
ìĿ´ë Ħ
ìĿ´ë ĶĶ
ìĿ´ë °©ìĨ¡
¦¬ ìķĪ
¦¬ ì½ĶëĦ¤
Ġíķ ¸
Ġíķ Ħë¦¬íķĢ
êµ ´ë¦¬
Ġê° Ń
ìĬ¤ íĤ¬ë
ëį° ë¹Ħì¡´
ìĸ´ ì¨
ìĸ´ ìłľë¶ĢíĦ°
íķľ ìĪĺ
ĠìĿ´ ìĥĪëĤĢ
ìĭľ ê²Į
ìĿ¸ ìł¤
ì£ łë
íĮ ¥
íķĺë Ĩį
ìŀĲ ìĹĲ
ìŀĲ êµŃ
ĠìķĦ ì¤Įë§Īë
ìľ¼ë Ĥĺ
ìĺ¤ ì¤Į
ìĺ¤ ëĭīìĬ¤
ìĤ¬ íĨłë¯¸ë
ì£¼ ìķĪ
ì£¼ ëĬĶê±´
íķĺëĬĶ ìķłëĵ¤ìĿĢ
¯¸ íİĺ
ĠëĤĺ íĺ¼ìĤ°
ëĦ¤ íģ¬
êµ¬ ìĦ±
ìĦ± ê·ľ
´ëĭ Īë
ëĤĺ ìĺ¨ëĭ¤
ĠìķĪ ìłĳ
ĠìķĪ íķĺëħ¸
ĠìķĪ ê°ĢëĦ¤
ê¸Ī ìķ¡
ìĭł êµ¬
ì½ °
ĠìĬ ¼ë
ì¹ĺ ëĬĶê±´
ıĻ ìĪ²
ĠìĹĨ ìĬµëĭĪëĭ¤
íĥĢ ìĦł
ĠëĦ ī
ê·¸ë łĪìĿ´
ĠìĤ¬ ì£¼ë
ìļ° íĬ¸
ìļ° ìĦł
ìļ° ìĬ¤ëĬĶ
ìĥĿ ìĿĢ
ê±´ ìĿĢ
ìŀĪ ìĸ´ìķ¼
Ġìłķ ìļ°ìĺģ
Ġë³´ íĺ¸
ìķĦë §Īë
íŀĪ ëĬĶëį°
ê°ľ ìĿĺ
ìķĪ íķĺëĬĶëį°
Ġëı ļê±°
Ġëª» ëįĺ
ìĤ¬ë ł¹
íķĺê³ł ëĤĺìĦľ
ĠëĲ Į
Ġê¹ ¼
ĠìĬ¤ íĥĢë
ĠëŃĲ ìĤ¬
ĠìĤ¬ë ¡Ģ
ìłģ ë³´
ìłģ ìĿ¸ê±°
íķ´ë ´¤ëĭ¤
ëĵ¤ ìĿĦ
ëĵ¤ ë§Į
ĠëĮĢ íĸī
ĠëĮĢ ì°¸ìĤ¬
íħĮ ìĿ´
ìĺģ ìŀħ
ĠìĥĿ ê²¨ìĦľ
ĠìĿ¸ ìĬ¤
ĠìĿ¸ íĶĦíĶ¼
Ġì¢Ĩ ê°Ħì§Ģ
ê²½ ê³Ħ
ì¡° ìĿĮ
Ġíķĺ ìĸ
Ġíķĺ íĺĪ
íĬ¸ë ³´ëĭ¤
ëĭ¨ íĥĢ
ìĭ¤ ìłľë¡ľ
ëĤ´ ê°Ģë
ìĹ° ìĦľë²Ħ
ĠãĦ¹ãħĩ ë£¨
ìĬ¤ë ¦¬
Ġë§İ ëĭ¤ê³ł
ì¦Ī íĤ¤
íĺ¸ ìĺ¹ìĿ´
¯¸ë ŀĺ
Ġìľł íĨµ
ê°Ĳ ìĹ¼
ê³Ħ ìĬ¹
ì¢Ĩ ë³ĳìĭł
ê·¸ ê±´
ê°ķ ìĤ¬
ê°ķ ë°±íĺ¸
Ġìĥģ íķľ
Ġë§Ī ì°¨ëıĦ
ëĭ¹ íķľê±°
ìĨĮë ŀĳ
ìĨĮë ¦¬ëĥĲ
ĠìłĦ ìĭľ
ĠìłĦ íĻĺ
Ġë¹Ħ ìĬĪ
Ġ4 500
íĶĦë ıĦ
Ġì¡° ê³µ
ì§Ī ê±°
ê²ĥ ì¢Ģ
ìķ¼ë ¦°
íĺĦ ì§Ī
Ġìłľ ê±°
Ġìĺ¬ë ł¸ëĬĶëį°
ìŀħ ëĮĢ
ĠìķĦë ¥´ë§Īëĭ¤
ë¶Ģ ìĹī
ĠìłĢ ìĥĪëĤĢ
Ġìĺģ ì§Ģ
Ġê·¸ ëĬĶ
íĶĮ íķ¸
ì¤Ħ ìĿ´
Ġê²Į ìĭľë¬¼
ìĤ° ìĹħ
ìĤ° ë§¥
ĠìķĮ íĮĮ
ĠìķĮ ìķĦìķ¼
Ġìĺ¤ëĬĺ ìĿ´
Ġëª¨ ëĭĿ
ĠëĤĺë ħ¸
ĠëĤĺë Ŀ¼ê°Ģ
ĠíĽ ħ
Ġë°Ľ ìķĦëıĦ
ìļ¸ ìĸ´
ì§ĳ ëĭ¨
ĠëŃĲë Ŀ¼ëıĦ
Ġìŀħ ìĪł
ĠíĹ Ĳ
Ġìº Ķ
Ġê¸°ë ¯¹
Ġë¶Ģ ì²ľ
ëıĦë Ĥłë
Ġìŀ¥ ìĿ¸
´Ĳ ìļĶ
¶ĢíĦ° ê°Ģ
Ġê²½ ê³Ħ
ë¬´ ìŀ¥
íģ¬ë ©´
Ġìĸ´ëĶĶ ìķ¼
Ġíķ´ë ´Ĳìķ¼
ĠãħĪ ãħĤ
ì¹ĺë ªħ
ìĭłë Ĥĺë¦°
¸Ķë ŀĻ
ĪĦ ê°Ģ
ìĸµ ìĿ´
ì§Ģë ¦¬ëĦ¤
ìĥĪ ê°Ģ
§Ŀ ìĿ´
ĠìĤ´ ê±°
ë§Ĳ ìĪĻ
Ġêµ¬ ìĿ¸
Ġë§Ŀ íķĺê³ł
Ġë²Ħ ìĬ¤íĦ°
ĠëıĻ ê¸°
ĠëıĻ ìĪ²
ĠíĮĮ íĬ¸ëĦĪ
Ġë¨¸ ê³ł
Ġíı¬ íĭĢ
ìĪľ ìĿ´ëĵ¤
ë§Ŀ êµ¬ëĵ¤
Ġê¹Ģ ìĹ°
ĠíĪ¬ ìĥ·
Ķ± ì§Ģ
ĠíĥĢ ìĦł
ĠíĥĢ ê²Ł
ìĭ¸ ê²Į
ìŀ¬ë ¥¼
ìŀ¬ë ²Į
¸Įë ıĦ
Ġìľłë ıĦ
ĠìłĦë ¶ĢíĦ°
Ġëĭ¹ ëĭ¹íķĺê²Į
Ġì°į ê¸°
ĠìĨĮë Ĥĺ
ĠëĶĶ ê²Į
ìĦ¸ë §ĪëĿ¼
Ġìŀ¡ ìĿĮ
ĠìĹĲ ìĸ´ë
ĠìĦľ ìĥĪë´Ħ
ĠìĿ´ìĥģ ìĿĢ
ĠìĿ´ìĥģ íķĺëĭ¤
Ġìĺ¬ ìĿ¸
Ġìĺ¬ íĥĢìŀĦ
ìĻķ êµŃ
Ġìĸ´ì¼Ģ íķ´
ĠìľĦ ì£¼ë¡ľ
Ġìĭ¬ íķľëį°
ê±¸ë ¦¬ëĦ¤
ëłĪ ìłĦ
Ġë¯¸ë ł¨
Ġì§ĳ ë¹Į
ĠêµŃ ìķ¼
Ġë§ī íĶ¼
Ġê°Ħ ëĭ´íļĮ
Ġëĭ¤ìĭľ ëĬĶ
ĠëĮĢë ©´
íĺģ ì¤ĢìĿ´
Ġì¹ĺ íĻķ
ìĸ¼ ìĿĮ
ĠìĦłë °©
ê²ĮìŀĦ ìĹĲ
Ġìĸĳ ëħĲ
ëĺ¥ ê¼¬
Ġë¶Ħ ìĸĳ
ĠíĦ° ì§Ħê±°
ĠìĪľ ìĤŃ
ìĹ¬ê¸° ëıĦ
ëħ¸ë §Ĳ
ìµľ ì§Ģ
Ġìĺ¬ëĿ¼ ìĺ¤ë©´
íĭ°ë ī´
ĶĶë ¨¸
ĠëķĮ ê¹Įì§Ģ
ĠìĹ¬ê¸° ëıĦ
ĠìĹ¬ê¸° ë¡ľ
ŀĺë ¡ľ
Ġì´Ī ê²¬
ë¯¸ë Ŀ¼
ë¶Ģë §¤
ĠìĬ¤ë ħ¸
ì¼Ģë ¦Ń
Ġ12 5
Ġê´Ģ ìĥģ
²ł ìĿ´ìĬ¤
ì§¸ ìļĺ
ë°ĺ ìĿĳ
ĠíĻĶ ìĨį
ìľ¤ ìĪĺ
ì§Ħë į°
ĠìĤ´ë ²Į
Ġë¯¼ ê°Ĳ
ë¨¸ë ¦¬ê°Ģ
ë¦¬ë §Ī
ì¢Į íĮĮ
Ġê°ĻìĿĢ ê±´
ĠìĿ¸ë ¥ĺ
Ġìŀł ìŀ¬
Ġë³¼ ìĪĺìŀĪ
ìĿĮë £Į
Ġëł ĪëĤĺ
ĠíĶĮë §¤
Ġìķħ ìĹŃ
ĠíķĦìļĶ ìĹĨ
²Ķ ìĿ´
Ġë¹¡ ëĮĢ
íķŃ ìłĦ
ĠíĨłë §ī
ê²¬ ìĿ´
ì¹Ń ì°¬
Ġë¸Ķë ŀĺ
ĠìĨį ìĺ·
ĠìĦ¤ë ¬¸ì¡°ìĤ¬
ë¶ģ ì»¤ë²Ħ
Ġì°½ êµŃìĿ´
Ġì¶ķ êµ¬ë
ëª» íķ´
ĠíĿĳ íĻĶ
ëĭ¤ëĭĪ ê¹Ĳ
Ġp s
ıĮë ¦¬ë©´
ì§Ģë©´ ìĦľ
Ġìĺ¨ ê±°
Ġìĺ¨ ê°ĸ
į± ìĿ´
Ġ17 00
ĠíĶ½ ìĭľë¸Į
ĠìŀĪëĭ¤ ëĬĶëį°
!!!!!!!! !!!
íĹ¬ íį¼
Ġì¡´ëĤĺë ª»
Ġìĺ¬ëł¤ ì£¼ìĦ¸ìļĶ
Ġëį°ëł¤ ìĺ¨
ĠëĤ® ìĹĲ
ĠìĤ¬ê¸° ìŀĦ
ì·¨ ìĹħ
íĿ¬ë ŀĳ
ëĭ¨ë ĺĲ
Ġì¿ł íı°ë
Ġíıīê°Ģ ê°Ģ
Ġìı ľëĭ¤
ìĽł ìĸ´
ĠíĭĢ íĢ´
22 2
ë©Ķë ī´
Ħ£ ìľ¼ë©´
ĠíĹ¤ ì¹´íħĮ
ìķłë¯¸ ìĶ¨ë°ľ
ĠìĪĺì¤Ģ ìĿ´
ëª¬ íĹĮ
Ġíı° ê²ľ
ĠëĶ¸ ì¹ĺëĬĶ
ì°¾ ìķĺëĭ¤
ĠìĥĢ ìĿĮ
ìĹ¬ì¹ľ ìĿ´
ĠëĮĢëĭ¨ íķľê²Į
ìĿ¼ê¹Į ìļĶ
Ġìĸ» ëĬĶ
ìİ Ħë
Ġìĸµ ê¹Į
ìĹ´ë §¤
ĠëĩĮ íĶ¼ìħľ
Ġë§ĪìĿĮ ìĿĦ
Ġë¹Įë ³´ëĵľ
ì¤Ħë ĵ¯
ĠM C
ëĪĪ ì¹ĺ
Ġìĥģê´Ģ ìĹĨìĿ´
ê°Ģì¶ķ ëĵ¤ìķĦ
ĠëĶĶë ŁŃìĬ¤
ĠìĨĶë °©
Ġê°¤ëŁ¬ë ĵ¤
ì§¤ëħĢ ê°Ģ
ìłĸ ìĿ´
ì¢Ģë ´Ĳ
ĠëĽ° ëĬĶ
ww w
ĠK BO
Ġíĺ¸ê°Ĳ ìŀĦ
ëĤ¨ë ħĢ
Ĥ« ëĦ¤
Ġì§Ģì§Ģìľ¨ ìĿ´
ë¦° ìłľ
Ġìłľëª© ìĿ´
íĩ´ê·¼ ê¸¸
ì§Ģë°© ì§ģ
ë¹Į ì§Ģ
ĠíĤ¤ìļ° ëĬĶê²Į
ìĨĶë ŀŃ
íķ´ì¤Ħ ìĤ¬ëŀĮ
Ġê¹¨ë ©´
Ġìķłë§¤ íķĺëĦ¤
Ġìĸ¸ìłľê¹Įì§Ģ ìŀĦ
ĠìķĪíĥĢ ê¹Į
ĠíĻķìĭ¤ íķĺê²Į
Ġìĭ¬ê°ģ íķľ
ĤĻ ìĹ°
ê¼Ń ì§Ģ
íĮĢë ıĦ
Ġëª¨ëĳĲ ê°Ģ
Ġì© ĮëĦ¤
Ġì© Ĳëĭ¤
Ġë©Ī ì·
ìĹĶë ĵľ
ì¯Ķ ìľĦ
ëįĺë ¦°ìĿ´
Ġãħħãħħãħħãħħãħħãħ ħãħħ
ĠëłĪìĿ´ ìłĢ
Ġëĥī ìŀ¥
Ġë³´ëĿ¼ ìĥī
ìħĶë ĦĲ
ë§ĮìĽĲë §Į
ìľ¤ì§Ģ ìķ¼
ĠìĿ´ëĶ´ ê±°
ĠìķĶë §Į
ĠìķĦë§Ī ì¡´
Ġì¤¬ ìľ¼ë©´
Ġê°ĢìĿĦ ìķ¼êµ¬
ê¹ľ ì§Ŀ
ìĿ´ìĬ¹ íĺĦ
Ġë´£ ëĬĶëį°
ì£¼ìĦ¸ ìĹ¬
ĠìĹĲíĶ¼ ìĨĮëĵľ
ìķĦíĭ° ìĬ¤íĬ¸
Ġì¦Ī ê·¸
ĠëĤĺìĺ¨ë ĮĢ
ĠìµľíĽĦ ìĿĺ
į°ë¦¬ ì¹´
Ġìļ± ìĿ¼ê¸°
man hwa
ìĤ¼ìĦ±ëĿ¼ìĿ´ìĺ¨ ì¦Īê°¤
Ġë¯¸ëŀĺë ¥¼
ĠëħĢ ìĦĿ
Ġêµī ìŀ¥
ĠìłĦíĺķ ìłģìĿ¸
Ġfine ìĭłê³¡ë³´ìĿĢìĻĶíĺ¸ì¤ĳ
< --
j a
£ »
§ ¨ëĵľ
º Ģ
¿ ħ
ë ĥĲëĵ¤
Ġì ¬
Ġì µ¸ë¹Ħ
Ġë ĵľê°Ģ
ëĬ Ħ
ìĿ´ íĮĢìĿĢ
ìĿ´ ê²ĥìĿ´
¼ë Ĥĺ
ì§Ģ ìĦł
ì§Ģ ê²łëĦ¤
ì§Ģ ë§ĲëĿ¼ê³ł
ê± Ģ
ëĭ¤ ìĿ´ë
ê³ł ëĿ¼
Ĥĺ ìĺ¨ëĭ¤
ĠìĿ Ģë¹Ħ
ìĹĲ ì½Ķ
ìĿ´ë Ł´ë
ìķĦ ê¹Įë
ê¸° ì²´
ê¸° ëĬĶê²Į
ê¸° ëıĻ
¡ľ ìį¨
ìĦľ ìĿ¸
ìĤ ´ëĤĺ
ìĬ¤ ìĹł
Ġì§ Ħë¦¬
ê¹ ¼ëĭ¤
ë§ ĺë§ĪíĨµ
ĠìĿ´ ê¸¸ë
ìĭľ ìĺ¨
ìĿ¸ íħĶ
ëĤ ´ëĤĺ
ìŀĲ íģ¬
ĠìķĦ ëĬĶê±°
ĠìķĦ íı¬
ĠìķĦ ì¿ł
íķ´ ì£¼ë
íķ´ ì£¼ëĥĲ
íķ´ ìł¸ìĦľ
íĻ Īë
ìĤ¬ ëĭ¤
ìļĶ ìĿ´
¬´ ê°Ģ
ìĪĺ ìĿµ
ìłķ ìĿĦ
ìłķ ëĭ¹
¹Ħ êµĲ
ĠìĦ ¼ë
Ġì¡ ĮëĦ¤
ìŀ¥ ë§Į
§Į ìĿĢ
¦¬ë ī´
ìłĦ ì§ģ
êµ¬ ìłķ
ìĦ± ë¯¼ê·ľ
łĪ ìĿ´ëĵľë
íķ¨ ê»ĺ
ĠìķĪ ìĺ¤
ĠìķĪ ìĺ¬ë
ĠìķĪ ê¶ģê¸Ī
ê¸Ī ê°ķ
ìĭł ìĺģìĿ´
ĠìĻľ ì§Ģ
ĠìĻľ ì¼Ģë
ĠìĻľ ê·¸ëŁ¬
ĠíĮ ½
Ġìĸ´ë ĳĲ
ëĬĶê±° ë©´
ìĸ´ë ¹ĦìĬ¤
ĠìĿ´ë łĩ
ĠìŀĪ ìĿĦë
ĠìŀĪ ìľ¼ëł¤ëĤĺ
Ġì§Ħ ê¶ģ
Ġì§Ħ íĺĪê·Ģ
ĠìĹĨ ì§Ģë§Į
Ł¬ ìļ´
ìľł ìłĦëį°
ì¤ĳ ìĸ¼
ĠëĦ ĺëĵ¤
ìĶ ½
²Ħ íĬ¼
ĠìĤ¬ ê³łìĭ¶ìĿĢëį°
ĠìĤ¬ íĪ¬ë¦¬
íĦ° ê°Ģ
ëħ ģ
ĠìķĪë ıĮìķĦ
ìŀĪ ìĹĪ
ìŀĪ ëĭ¤ê°Ģ
ìŀĪ ëĬĶê±°ëĥĲ
įĶ ìĬ¤
Ġìłķ êµŃ
Ġë³´ ê³łìĭ¶ìĿĢëį°
ìķĦë ĶĶ
ìķĦë °©
Ġë¶ īìĿĢ
Ġíķĺë Ŀ¼
Ġ3 500
Ġì§Ģ ìĪĺ
Ġì§Ģ ìļ°ê³ł
ìĤ¬ë §Ī
êµŃ ëĮĢ
ìĦ¸ ìĿ´ë²Ħ
ê³µ ë¬´
ëĮĢ íĥĢ
ĠëŃĲ íķ´ìķ¼íķ¨
ëĭĪë ħ¸
ĠìĤ¬ë Ŀ¼ê³ł
ìłģ ìĿ´ì§Ģ
íħĮ ìĺ¨
ìĺģ ìĽĲ
ìŀĳ ìľĦ
ìŀĳ ë²ķ
¦° ëĭ¤ëĬĶ
ì¹´ ìĬ¤ë
ê´ Ń
ãħĭãħĭãħĭ ãĦ±
ĠìĥĿ ê²»
Ġíķľ ìĿ¼
Ġíķľ ì§¤
ëĭĺ ìĿĦ
Ġì¢Ĩ ë°©
ë³´ íĹĺ
ìłĲ ìľ¼ë¡ľ
Ġë¬´ ê¸°ëĬĶ
Ġë¬´ ìĤ¬ë§Įë£¨
ê°Ģë ¦¬ëĬĶ
ê°Ģë ĨĪ
ê°Ģë ĵĿ
ê°Ģë ©´ë
íĶ¼ ê·ľìĸ´
ì¡° íĥĢ
íĬ¸ë ¦Ń
íĬ¸ë ŀĻ
íĬ¸ë ¦ŃìĬ¤
ëĬ¥ êµŃ
Ġê¸° ì¶ľë
ì°¨ ê³ł
ì°¨ ìĿ´ë
Ł° ìĬ¤
ĠìŀĲ ìĦĿ
ì½Ķ íĬ¸ëĬĶ
ìĬ¤ë §¨
ìĬ¤ë ĵľë¦¼
³´ë ł¤ê³ł
Ġë³´ë įĺ
íĤ¤ ê°¤
íĤ¤ ìķĦëĿ¼
íĺ¸ íģ¬
¯¸ë Ħ¤
Ġìĵ °ë¦¬
¨¸ ì§Ģ
ìĭ¬ íķ´
Ġëĺ ĲëĿ¼ìĿ´
ì¢Ĩ ê°Ļëĭ¤
Ġë¯¸ ìĬ¤íĭ±
Ġìĥģ ëĭ¹íŀĪ
ĠìĿ´ê±° ëĬĶ
ë°© ìŀ¥
ĠìłĦ íĪ¬ë
Ġë¹Ħ íĮĲ
Ġë§ŀ ì¶Ķë©´
³¸ ê±°
Ġê³ł ìĬ¤íĬ¸
íı¬ ìĹłë
ķĮë Ĥĺ
ìļ°ë ²Ħê±°
íĨµ ìĿ¼
ĠìķĦë ¹łë
ĠíĤ ´
ë¡ľ ìļ°
ë¡ľ ê°ĵ
ìĿ´ëĭ ¨
Ġë§Ĳ ìķ¼
ìºĲ ìŀĦ
ê¹Ģ íķĺìĦ±
¨¸ë ĦĪ
ìĪĺë ¬¼
¶Ħ ìĦĿ
ìĥĪëģ¼ëĵ¤ ëıĦ
Ġì§Ģë ĵ£ëħ¸
Ġëª¨ ìķĦ
ì¹´ë łĪ
ì¹´ë ¥¼
ì¹´ë ĵľëĬĶ
ĠíĨ ±
íĸī ëıĻ
Ġë°Ľ ìľ¼ëŁ¬
ëĤĺë ¬´ë
Ġìŀħ êµ¬
Ġìŀħ ìľ¼ë©´
ĠíĹ Ŀ
ĠíĹ ĪëıĦíĻĺ
ìĶ¨ ìķ¼ê°¤
Ġìº ¬ë£¨ë
ìķĪë ¶Ģ
Ĥ¨ ìķĦ
20 21
ĠãħĪ ê°ĻìĿ´
ë¯¼ ìļ°
ê°ľë ĵ¤
ê°ľë °ĸìĹĲ
ì¹ĺë įĺ
ìĸ¸ ìĸ´
ìĸ¸ ìłł
ìĸ¸ ìłľë¶ĢíĦ°
ì§Ģë ¥´ê³ł
Ġì± Įë¦°
ĠìĨĮ íĨµ
êµ° ìĹĲìĦľ
íĻ© ìķ¼
Ġë°ķ ëĬĶ
ìĽĢ ì§ģ
§Ŀ ê°Ģ
Ġì¢ĭìķĦ íķĺëĦ¤
Ġì¢ĭìķĦ íĸĪëĬĶëį°
ĠíĻķ ëĮĢ
ëĭĺëĵ¤ ìĿ´
ìĦŃ ìĿ´
ë°ķ ë³´
ĠìĿ´ìłľ ìĻĢìĦľ
ìĺĢ ëĭ¤ë©´
Ġìĵ° ìŀĲ
°Ľ ê¸°
°° ëĭ¹
Ġë§Į ìł¸ë
íĤ¤ë Ħ¤
Ġê¹Ģ íķĺìĦ±
ĠíĮ¨ ìĭ±
ìĵ° ëĭ¤ê°Ģ
ê²Įë Ĥ«
Ġë³¸ ê±°
íĤ¹ íĥĦ
ıĮ íĮĮ
Ġì°į ëĬĶê±°
Ġì°į ìĸ´ìĦľ
Ġë°©ìĨ¡ ìĹĲ
Ġì£¼ë ł¥
íĪ °ë
Ġë½ĳ ìķĦìĦľ
ìĿ´ìłľ ìķ¼
³ĳ íĹĮ
Ġë°ľ ìłķ
íĥĿ ìĿ´
íĥĿ ìĭľ
ĠìĻĢ ìĿ´íĶĦ
Ġìĭ¬ íķĺëĥĲ
Ġìĭ¬ íķĺëĭ¤
ëłĪ ìĿ¸
ëįĺ ê°¤
ŀĦ ê¹Į
Ġì¹´ ìĬ¤ë¯¸
Ġë°ĺ ì§Ŀ
Ġìĭ¸ ìļ°ëĦ¤
ê²Ł ëĥĲ
ê°ĵ ìĺ¤íķĺ
ìĹ¬ë Ł¬
ëĭ¬ë ¦¼
Ġë§ī ìķĦ
Ġë§ī ëĤ´
Ġê°Ħ ìĭĿ
ĠëıĪ ìĿĢ
ĠëıĪ ìľ¼ë¡ľ
ì°¨ë ©´
Ġíķ© ì³ĲìĦľ
Ġìĸĳ ëıĦ
Ġì½Ķë ħ¸
ì¡Į ê¸Ķ
Ġì¶ľ ê²©
ìĵ°ë ħ¸
Ġìķ½ íķ¨
ìĨĲ ìŀĲ
ìĨĲ ê²Ģ
Ġëª© ê±¸ìĿ´
ĠíĨµ ìĪĺ
ì© Ŀ
íıŃ ê²©
Ġíĭ° ìłĢë
ĠíĭĢë ¦°
ìĦ¼ ì¹ĺ
ĠìºĲë¦Ń ìĿĢ
íħĮë ĶĶ
ĠíıŃ ëĵ±
²ł ëĬĶ
ĠìķĮëł¤ ì¤Ħ
ĠìķĮëł¤ ì£¼ëĬĶ
Ġê°ĵ ëį°
ìĭŃ ìĭľ
ìĭŃ ëĭĪëĭ¤
ëª¨ë ¥´ëĬĶ
ìķ° ìĿ¸ëį°
Ġëį°ë ·Ķë
ĠìĿĮ ìĦ±
íģ´ ìĿĢ
ìĿ´ìĥģ ìĿĢ
Ġê²Ģ ìłľ
ì§± ê°ľ
Ġìŀł ê¹Ĳë
Ġë¹Ħë ¹Į
ĠíĶĮë Ł¬ìĬ¤
Ġìķħ ìļ©
ìĭľì¦Į ìĹĲ
ĠêµĲ íĸī
ĠíķĦìļĶ íķĺëĥĲ
ĠãħĨ ãĦ±ãĦ´
ì¥¬ ìĸ¼ë
ŁŃ ìĭľë
ë§ŀ ê³ł
Ġì¡´ ì¢ĭ
ĠëĿ¼ë ¹Ħë
Ġìļ°ë ıĻ
Ġíľ ł
ĠìķĦìĿ´ë ¦°
Ġì¼Ģ ìĿ´ë¸Ķ
ĠìĶ¨ë°ľë ł¨ëĵ¤
ìŀł ìĭ¤
Ġëĭµ ìŀ¥
Ķ°ë Ķ°
Ġì²´ ìľ¡
Ġë°ľë ¡ľ
ĠìķĦëĬĶ ì²Ļ
ìºł íĶĦ
Ġíĺ¼ ìŀĲë
ĠíĮ¬ íĭ°ë
¹¨ ìķĦ
ê²½ì°¬ ìĿ´
Ġë´ī ìĿ¸
Ġê¸°ë¶Ħ ì¢ĭ
ì»´ ìľ¼ë¡ľ
íľ´ ì§Ģ
íļĮë ıĦ
Ġë£ ¬ë
ĠíĻĺ ìĪĺ
Ġê¿Ģ ìŀł
ĠìĹĺë ¦¬ë
Ġë²ł ìķĦ
Ġë¡ľë §Ī
Ŀ¼ìĿ´ íģ¬
ĠìĹ´ë °Ľ
ĠìŀĦ íĮ©íĬ¸
Ġì§Ħê°ģ ìĦ±
ìķĦëĿ¼ ê³¤
Ġëĺĳ ë°Ķë¡ľ
Ġë°Ķê¿ Ģë
ĠíĹĪ êµ¬
ĠìĭĿ ìĥģ
Ġê³łëĭī ìĿ´
Ġë°ĶëĢ Įë©´
Ġa p
ìĨĶ ì°įíŀĪ
©Ķë ŀĳ
Ġê°Ģë ´¤ëĬĶëį°
§¤ë ¡ľ
ĠíĭĢ ê³ł
Ġãħľ ãħľãħľ
ë²Ķ ìĪĺ
ĠìĬ¤íĤ¬ íı¬ìĿ¸íĬ¸
íķ´ì£¼ ëĬĶëį°
Ġì½ľë Ŀ¼
Ġëĸ³ ëĦ¤
íĺĦë ıĦ
ĠìĿ½ ìĸ´ë
ìĥģìĭĿ ìłģìľ¼ë¡ľ
ë°ľë ¡ľëŀĢíĬ¸
ĠìłĦë¶Ģ ëĭ¤
Ġì¢ĭìĿĢê±° ëĥĲ
ĠíĶĮ íĭ°
ìĹ°ë ł¹
Ġíķµ ìŁģìĿ´
êº¼ë Ŀ¼
ĠìĿ´ìĥĪëģ¼ ê°Ģ
ĠìĥĿìĿ¼ íĴį
ĠíĿ¥ ë¶Ħ
ŀŃ ìĿ´
Ġb b
Ġl cd
ìĶ¨ë°ľë ł¨
ìĤ¼ìĦ± ìĥĿëªħ
©ĶëĿ¼ ê¸°
ĠíķĦë ¦Ħ
Ġë°Ģë ©´
Ġê¸Ģë §Į
íĶĦëĿ¼ ìĿ´ëĵľ
ìĸ´ëĶĶ ê°Ĳ
ĠìķĪë³´ ìĿ´ëĦ¤
ĠìĮį ìĪĺ
ì¤Ģë ıĦ
ĠëıĮë¦¬ ëĬĶëį°
íĬĢ ê¹Ģ
Ġíı¬ë ıĦ
íķłìĪĺ ìŀĪìĿĮ
¹¨ë ¡ľ
Ġë°ľìŀĳ íķĺëĬĶ
ë® ¤ë
Ġë¹¼ë °ķ
Ġìĩ¼ ì¼ĢìĿ´ìĬ¤
Ġíķĺëĭ¤ ë³´ë©´
łĢ ëĭ¤
ĠìĿ´ê¸¸ ìĪĺ
Ġë³´ê¸° ìĹĶ
ë¯ ¹
ìħ¨ ëĭ¤
ìĹ¬ë¦Ħ ìĹĲ
ìłĢëħģ ìĹĲ
ìŀĺìĥĿ ê¹Ģ
ìŀĺìĥĿ ê¸°ë©´
ĠíĥĪê°¤ íķ¨
Ġêº¼ë Ĥ´
ĳĶ ê±°
ëĳĺ ì¤ĳìĹĲ
ĠëĿµ ìŀĳ
ëĵł ëĭ¤
ëĬĲê¸Ī ìĿĢ
Ġìĵ¸ë§Į íķľê±°
ĠëĦ¤ë įķ
ĠìĺģìĹħ ìĿ´ìĿµ
íĺĦìĭ¤ ìĹĲìĦľ
Ġë³´ëĤ´ë ĬĶëį°
ĠìĤ´ëł¤ ì¤ĺ
ĠìĤ´ëł¤ ì£¼ìĦ¸ìļĶ
Ġìĸ¼êµ´ë ¡ľ
ìķĮëł¤ ì¤Į
ĠëĤĺìĻĶë įĺ
Ġë¬¸ìłľë ĥĲ
ëªħìĿ´ ìĦľ
Ġíĩ´ë ¬¼ë
ìľ¼ìľ¼ ìľ¼ìľ¼
ĠëķĮë¬¸ ìŀĦ
ì²ĺìĿĮ ìľ¼ë¡ľ
ĠíĶĦëĿ¼ ìĿ´ëĵľ
ĠíĤ¤ìĽĮ ìķ¼
ĠëĬĻ ìĿĢ
ëĸ³ ëĥĲ
ìĨĲíĺģ ìĿĢ
Ġíĺ¼ë Ĥ´
ĠìķĦë§Ī ê¸°
Ł¼ë ¸Ķ
ĠìķĪëħķ íķĺìĦ¸ìļĶ
ĸ´ë Ħ¤
Ġë°Ķê¿Ģ ê¹Į
ëĵ£ ê³ł
ĠìĤ¿ ëĬĶëį°
ĠãĦ±ãĦ±ãĦ± ãĦ±
ĠíķĺìĿ´ë °ĺ
Ġìĺ¤íĨłë °ĶìĿ´
ĠìķĦëĤĺ ìļ´
ĠëĽ°ìĸ´ë Ħĺ
ê¹Ģì¢ħ ìĿ¸
ë©Ķê°Ī íķĮ
ëª¨ëĳĲ ê°Ģ
YA O
íĺ¼ëĭ¤ ê°ķ
ĠìıŁ ìķĦ
Ġ2008 13
Ġë§ł ìĭłìĺģ
FA CT
Ġìĸ´ëĬĲìłķëıĦë ĥĲ
ĠìĪ¨ì°¸ ëĬĶëĭ¤
tu be
ì§Ģë°ķ ê·Ģ
ĠíĬ¼ íĬ¼
ëłĪë²¨ìĹħ ê°¤
Ġê°¯ ìĪĺ
Ġmb ti
ìĤ¬íĨłë¯¸ë Ĥĺë¯¸ê°¤
N A
R X
a a
c e
e u
h y
u m
¡ ¬ë
¡ Ģë
ë ·Ķë¹¡
ì µ¸ë¹Ħ
Ħ ĺëĵ¤
Ĩ ĶëıĦ
į ©ìĿ´
ìĿ´ ì§Ħíĺģ
ì§Ģ ãħĭãħĭ
ì§Ģ ìļ°
ëĭ¤ ëĭĮ
ê³ł ê¸ī
ê³ł ì¡¸
ĠìĿ Ħë
ìĺ Ľ
ìĹĲ ìŀĩ
ìĹĲ ìŀĪëĬĶ
ìĹĲ íĶĦëĦ¬
íķĺ ì°¨
íķĺ ê²łëĥĲ
ìķĦ ì¡°
ıĦ ìĭľ
ê¸° ìĤ¬ë
¡ľ ìľĪ
ìĤ ¥
ìĬ¤ íĥĳ
Ġìł łë
ê· ¤ë
ìĸ´ ìľĪ
ê²Į ìĿ´íĬ¸
ëĭĪ ìĥ¤
ĮĢ ìĥģ
ìĭľ ìķĪ
ìĭľ ì§Ħíķĳ
ë° ĭ
ë° Ł
ë° ĺëıĦ
ìŀĲ ìĦ¸
ìŀĲ íĤ¤
ìŀĲ ì¹Ń
Ġê· ľë
ĠìķĦ ìĿ´ìĬ¤
ĠìķĦ ìŀ¬ëĵ¤
ĠëĤ Ħë
ìĺ¤ ê³µ
ìĺ¤ íĮĮ
Ġìĥ Į
ìĥģ ìĹĲìĦľ
íķĺëĬĶ ê±´ê°Ģ
¯¸ ëĭĪ
ëıĦ ì¿Ħ
ìŀ¥ ë¹Ħë
°ľ ìĸ¸
ĠëĤĺ ê°ĢëĿ¼
¦¬ë ·°
ì¶ ¤ë
ìłĦ íŀĪ
ìłĦ ìĦ¸ê³Ħ
Ġê°Ģ ëĤľ
Ġê°Ģ ì£½
łĪ ìķĦ
ëĤĺ ìĺ¤ë
¬¸ ìĹĲ
ĠìķĪ íĴĢë
ìĭł ìŀħ
Ġëĭ¤ ëĭĮ
ìĽĲ ìĬ¤
ìĽĲ íĥľ
ì¹ĺ íĺ¸
ì¹ĺ ìķĬ
ëĬĶê±° ë´Ĳ
Ġì§Ħ ìŀĳ
Ł¬ ì¹ĺ
ìľł ìĤ¬
ì¼ Īë
íĥĢ ìŀĦë
ìĹ¬ ìĤ¶
ìĹ¬ ìĤ¬ì¹ľ
ê°Ħ ëĭ¨
ĠìĤ¬ ê·Ħ
íĦ° ìł¸ìĦľ
ìĥĿ ê¸°ë©´
ê°ģ ìŀĲ
ĠìķĪë §Ŀ
ĠìķĪë ³´ëĬĶ
Ġìłķ ë©´
Ġìłķ ë°ľ
Ġë³´ íĶĮ
Ġë³´ ê³łìĭ¶ìĿĢ
ìķĦë £¨
ìķĦë Ĥ´
Ġìĺ¤ ê¸Ģ
Ġìĺ¤ ê°ĢëĤĺ
Ġíķĺë ŀľ
Ġê°ľ ì§ľì¦Ŀ
Ġê°ľ ìŀ¬ë°ĮëĦ¤
Ġê°ľ ê·¹íĺĲ
Ġê°ľ ê·ĢìĹ½ëĦ¤
Ġì§Ģ íļ¨
Ġì§Ģ íľĺ
Ġì§Ģ íĮ¡ìĿ´
Ġëª» ê°Ĳ
Ġëª» ëĵ¤ìĸ´
Ġëª» íķ´ë¨¹
ì§ģ ëł¬
ìĦ¸ ì°¨
ìĦ¸ ìļ©
ìĦ¸ ìĽħ
ê³µ ìĽĲ
ĠíĶ ħ
ëĮĢ ì¤ĳ
ĠìĬ¤ ì½Ķ
ĠìĬ¤ íĥľ
ĠìĬ¤ íĤ¨ë
ê²ł ê³ł
ĠìĤ¬ë ĤĺìĿ´
íķ´ë ¦¬
ĠëĮĢ ì²ĺë
ìŀĲë Ł¬
Ġê°Ļ ëįĶëĿ¼
ì¼Ģ íĮħ
©Ķ ìĿ¸
ĠìĹ¬ ìºĲë
íĹ ¨ë¦¬
¥´ ìŀĲ
íķł ìĪĺê°Ģ
ì£¼ë ¨¹
ì£¼ë §ĮìĹĲ
Ġê¸° ìĿ¸
ëĭ¨ ìľĦ
ĠìŀĲ ìķ¼
¸Į ìĬ¤
ìĹ° ê°¤ìĹĲìĦľ
ìĬ¤ë ĵ¤
íĺķ ìķĦ
ì¤Ģ íĺ¸
íĤ¤ ê¸°
ëł Ľ
ìĭľë ł¨
¯¸ë Ŀ¼
ìļ© ìĸ´
Ġìľł íĶĮ
ìĭ¬ ìķ¼
ê³Ħ ìĿ¸
Ġíķ´ ì£¼ìħĪ
Ġíķ´ ìķ¼ëĲĺëĥĲ
Ġë¯¸ ì¹ł
Ġë¯¸ ê¶ģ
Ġìĥģ ìĦ±
Ġìĥģ ìĥģëıĦ
Ġë°© ìĭĿ
Ġë°© êµ¬ìĦĿ
Ġë§Ī ìĭľê³ł
ë¹ ¤
ë¹ Ħë¡ľ
ĠëĤ´ êµ¬ëıĦ
Ġìĭł íĻĶë
Ġì¤ĳ ê¸ī
Ġë´ ¤ëĦ¤
Ġë¹Ħ ìľł
Ġê³ł ìŀĳ
íĶĦë łĪìĿ´
Ġì¡° ê³ĦíĺĦ
Ġê±° ê¾¸ë¡ľ
ê³¼ ì´Ī
Ġì£¼ ìŀĲ
Ġë¨¹ ìĿ´
Ġíĸ Īëħ¸
Ġëĵ¤ ìĸ´ëĿ¼
Ġìĺ¬ë ¦¬ê¸°
ĠìĥĿê°ģ ëĤ¬ëĬĶëį°
ĠìķĦë Ħ¤
ë¡ľ ìłľ
ë¡ľ ìıĺ
íķĺëĬĶê±° ë³´ëĭĪ
ê¼ ĩ
ì°½ ê³ł
Ġìŀ¬ë ¦¼
ë¶Ģ ê°Ģ
ìºĲ ìī¬
ì¶© ìĿ´ëĵ¤
ì³ ¤ëħ¸
ĳĲ ê°Ģ
ĳĲ ê·¼
Ġíİ ¨
ìģ ľë
Ġëª¨ë ¥¼
Ġãħĩ ãĦ±ãĦ¹
ìĤ° ìĿĢ
ìĤ´ ìķĦë
ëĿ¼ íı¬ìĹłë
ĠëĤĺë ĪĦ
ëĤĺë ıĦë
Ġìŀħ ë§Ľ
ĠíĹ Ĳë¦¬
Ġëħ¸ë ŀĺëĵ¤
Ġê¸°ë ³¸ë
Ġë¶Ģ ê´Ģ
Ġë¶Ģ ê³Ħìłķ
ìĦľë ¨¸
ìī °
ê´Ģ ì¤ĳ
Ġìŀ¥ íĥĢ
ì²Ń ëħĦ
ì²Ń ë°¥
Ġë°Ķë ĵľ
Ġë°Ķë Ĥ¸
Ġê²½ ìĺģ
Ġìµľ ìłģ
ĠëĲĺ ê³łìĭ¶ëĭ¤
êµĲ ìĪĺ
ĠìĺĪ ìłĦë¶ĢíĦ°
ë¯¼ íĺģ
ĠìĶ¹ íĥĢ
ìľ¼ ìĦ¸ìļĶ
ĠìĶ¨ë°ľ ìĥĪëģ¼ëĵ¤ìķĦ
ë¬¸ íĶ¼ìķĦ
Ġë°Ķ ìģĺ
Ġë°Ķ ê¼Ī
ë³´ë ĥĲ
Ġê°ľë °©
Ġê°ľë ĸ¡ìĥģ
ĠìĨĮ íĻĶ
ĠìĨĮ ìĭłë°ľìĸ¸
Ġê°ķ ë°±íĺ¸
ĠíĤ¤ ëĬĶ
ĠíķĺëĬĶ ì¤ĳ
Ġìŀĺë Ĥľ
Ġì¢ĭìķĦ ì£½
ìļĶì¦ĺ ìĹĲ
ìļĶì¦ĺ ìĹĶ
Ġë¶Ī ìĭ¸ê°ľ
Ġìĭľë ģĦëŁ¬
Ġë§Ŀ íķ´
Ġë§Ŀ íĨł
ìłĢë Ł¬
ıĦë Ĳĺ
ĠìķĮë łī
ª» íķĺëĬĶ
Ġë¶Ģë ¦Ħ
Ġëĵľë łĪ
ĠìĦ¸ ì»¨
ìķħ íķľ
´ī ìĿ´
Ġ9 2
íĥĢë §Į
ìĤ¼ ìĺģ
Ġëĵ¤ìĸ´ ìĺ¤ëĬĶ
ê°Ī íĨµ
Ġê¹Ģ ìĿ¸
Ġê¹Ģ ì§Ħìļ±
ĠíĪ¬ ìĪĺê°Ģ
ĠíĪ¬ ìĪĺëĵ¤
ë© ¸ë§Ŀ
ĠìĽĥ ëĬĶ
ìŀ¡ ëĥĲ
ë²ķ ì¢Ģ
Ġê¸Ģ ìĶ¨
´¤ ìĿĦëķĮ
ë¥ ¸ë
ĠìłĦë ¬´ë
ĠìłĦë ©¸
Ġëĭ¹ ìĿ¼
Ġë³´ê³ł ëıĦ
ĠëĬĲë ¦¼
Ġìłģ ìĸ´
Ġê°Ĳ ëĭ¹
Ġëĭ¨ ìĭĿ
ë°Ķ ìĿ´ìĺ¤
ëĮĢë Ŀ¼
Ġìŀ¬ë°Į ìĸ´ë³´
ĠìľĦ ì¦ĪìĽĲ
Ġê·¼ ê·¼
Ġë¯¸ë ħĢ
ê°ĳ ëĭ¤
Ġë°ĺ íĨłë§ī
Ġìŀ¬ ìĥĿ
ëĵ± ë¶Ħ
§Įë Ĥĺë©´
ĠëıĦë £¨
ë©Ķ ìĬ¬
Ġìī °
Ġìī °ëĭ¤
íĻķ ë¥łë¡ľ
ĠëĴ¤ ì§Ģë©´
ëĭ¤ë ¥¼
ĠìĻĶ íĤ¹ë¡¤
ĠìĻ¸ íĢ´ëĵ¤
°± ì§Ī
ìķĮë ¦¼
ìĹĩ ëįĺ
ĠìķĪëĤĺ ìĺ¤ëĬĶëį°
Ġê²ĥ ìĿ´ëĭ¤
ìŀĪëĬĶ ëĵ¯
ê¸Ģë ĵ¤
Ġíķłë §¤
Ġìłĳ ìĶ¨
ĠíĨµ íĨµ
ì£½ ìĹ¬ë
[...]
