#version: 0.2 - Trained by `huggingface/tokenizers`
ㅋ ㅋ
ㅋㅋ ㅋㅋ
는 데</w>
ㅋ ㅋ</w>
ㅋㅋㅋㅋ ㅋㅋㅋㅋ
ㅋㅋ ㅋ</w>
에 서</w>
진 짜</w>
근 데</w>
으 로</w>
하 는
ㅋㅋ ㅋㅋ</w>
아 니
인 데</w>
으 면</w>
오 늘</w>
하 는</w>
새 끼
이 거</w>
하 면</w>
0 0
니 까</w>
는 거</w>
존 나</w>
는 거
ㄹ ㅇ</w>
하 고</w>
나 오
p g</w>
j pg</w>
고 싶
지 금</w>
들 은</w>
생 각
같 은
시 발</w>
이 랑</w>
니 다</w>
들 이</w>
ㅋㅋㅋㅋ ㅋ</w>
다 고</w>
ㄷ ㄷ
라 고</w>
한 테</w>
보 다</w>
ㅡ ㅡ
들 아</w>
들 어
1 0
하 네</w>
아 이
있 음</w>
까 지</w>
는 게</w>
레 이
너 무</w>
씨 발</w>
사 람
하 냐</w>
아 니</w>
오 늘
그 냥</w>
2 0
사 람</w>
이 제</w>
해 서</w>
이 네</w>
보 면</w>
면 서</w>
해 야
이 유</w>
부 터</w>
어 디
ㅋㅋㅋㅋ ㅋㅋ</w>
v s</w>
새 끼</w>
라 이
아 님</w>
ㅋㅋㅋㅋㅋㅋㅋㅋ ㅋㅋㅋㅋㅋㅋㅋㅋ
보 고</w>
요 즘</w>
존 나
있 냐</w>
병 신
그 래
솔 직
하 게</w>
겠 다</w>
ㅅ ㅂ</w>
솔직 히</w>
같 음</w>
하 는데</w>
이 냐</w>
ㅇ ㅇ</w>
내 가</w>
했 는데</w>
이 면</w>
새끼 들</w>
좋 아
거 임</w>
어 떻
던 데</w>
다 가</w>
이 야</w>
같은 데</w>
렇 게</w>
ㅅ ㅅ
재 밌
리 는</w>
이 다</w>
여 자
중 에</w>
이 라
하 나
같 은</w>
갤 러
안 되
ㅋㅋㅋㅋ ㅋㅋㅋ</w>
스 트
ㄷ ㄷ</w>
가 능
이 나</w>
지 않
얼 마
해 도</w>
추 천
시 간
언 제
정 도
한 다</w>
이 번
애 들</w>
아니 냐</w>
었 는데</w>
제 일</w>
씨 발
고싶 다</w>
하 지</w>
이 상
더 라</w>
좋 은
이 지</w>
님 들</w>
3 0
하는 거</w>
하 나</w>
1 1
붕 이</w>
세 요</w>
하 다</w>
ㅠ ㅠ
시 간</w>
없 음</w>
나 도</w>
어 서</w>
해 주
모 르
이 거
이 가</w>
나 는</w>
g i
어떻 게</w>
누 구
잖 아</w>
우 리
1 2
지 만</w>
있 는</w>
스 트</w>
ㅋㅋㅋㅋ ㅋㅋㅋㅋ</w>
gi f</w>
시 작
야 지</w>
이 벤
지 금
거 같
이 는</w>
소 리
전 에</w>
아 무
을 까</w>
어 케
게 임
많 이</w>
붕 이
는 건</w>
이 유
어 제</w>
있 는데</w>
이 번</w>
ㅡㅡ ㅡㅡ
인 가</w>
뭐 냐</w>
한 거</w>
스 타
자 기</w>
나 왔
올 라
1 5
방 송
여 기
내 일</w>
겠 지</w>
거 냐</w>
겠 네</w>
보 니까</w>
이 런
보 니</w>
이 렇게</w>
만 에</w>
구 나</w>
아 서</w>
다 는</w>
뭐 임</w>
누 가</w>
했 다</w>
스 토
아 닌
어 도</w>
같 이</w>
한 데</w>
말 고</w>
은 데</w>
때 문
시 발
지 는</w>
이 게</w>
1 00
웃 기
처 럼</w>
가 면</w>
아 직
려 고</w>
없 는</w>
게 임</w>
ㅠ ㅠ</w>
았 는데</w>
뉴 비</w>
다 시</w>
제 발</w>
것 도</w>
친 구
레이 드</w>
사 이
레 전
봤 는데</w>
마 다</w>
더 니</w>
나 요</w>
나 옴</w>
리 고</w>
질 문
습 니다</w>
2 00
하 노</w>
애 미
남 자
없 냐</w>
5 0
이 라</w>
괜 찮
문 제
대 로</w>
알 려
좆 같
원 래</w>
한 국
냐 고</w>
만 들
왤 케</w>
ㄷㄷ ㄷㄷ
가 능</w>
되 냐</w>
지 랄
스 타</w>
프 리
는거 임</w>
메 이
방 송</w>
어 요</w>
ㅋㅋㅋㅋㅋㅋㅋㅋ ㅋ</w>
캐 릭
그래 도</w>
돌 아
가 서</w>
고 있
하 지
ㄹ ㅇ
갑 자기</w>
라 도</w>
건 데</w>
질 문</w>
할 때</w>
대 체</w>
v s
유 튜
프 로
염 보
적 으로</w>
려 면</w>
거 야</w>
그래 서</w>
무 슨</w>
너 무
에 서
해 라</w>
기 가</w>
보 이
1 8
때문 에</w>
다 니
합 니다</w>
다 음
이 었
하는 게</w>
본 인</w>
ㅈ ㄴ</w>
나 온
ㅌ ㅊ
추천 좀</w>
1 3
ㅌ ㅊ</w>
그 러
진 짜
기 는</w>
아직 도</w>
사 진</w>
와 서</w>
리 가</w>
언 제</w>
있 었
좋 음</w>
간 다</w>
가 지
리 네</w>
하 루
우 리</w>
밖 에</w>
여 기</w>
일 본
뭐 야</w>
궁 금
없 네</w>
린 이</w>
좋 겠다</w>
리 면</w>
노 래
사 실</w>
다 이
나 올
나오 면</w>
이 쁘
2 0</w>
받 아
인 증</w>
노 래</w>
떨 어
한 거
갤러 리</w>
사 랑
빨 리</w>
가 는</w>
정 신
라 는</w>
ㅈ ㄴ
하 면서</w>
인 증
그 런
이 런</w>
브 이
투 표
t x
올 려
1 7
어 떰</w>
을 때</w>
갤 에</w>
네 요</w>
뉴 비
필 요
이 라고</w>
1 6
았 다</w>
머 리
하 니까</w>
계 속</w>
지 가</w>
미 친
념 글</w>
한 게</w>
tx t</w>
정 도</w>
봐 도</w>
한 번
으 로
들 도</w>
ㅋㅋㅋㅋㅋㅋㅋㅋ ㅋㅋ</w>
정도 면</w>
1 4
가 요</w>
기 대
다 른
마 지
이 고</w>
야 함</w>
영 상</w>
하는 거
은 거</w>
데 이
시 즌
많 이
보 네</w>
게 이
드 는</w>
케 이
소 바</w>
이벤 트</w>
마 이
잘 생
마 라</w>
나 가
다 시
왜 이
아 직</w>
있 네</w>
귀 여
아니 라</w>
보 는</w>
었 다</w>
확 실
바 로</w>
있 으면</w>
보 고
되 면</w>
만 원
나 만</w>
이 해
다 들</w>
자 꾸</w>
저 거</w>
마 갤</w>
그 럼</w>
재 미
에 게</w>
할 까</w>
뭐 가</w>
맞 음</w>
머 리</w>
있 는
ㅡ ㅡ</w>
지않 냐</w>
얼마 나</w>
했 네</w>
한 다
냐 들</w>
놓 고</w>
주 는</w>
니 들</w>
이 기
사 가</w>
사 기
소 리</w>
무 조
갤 에서</w>
라 인
봐 라</w>
일 러
방 금</w>
ㄱ ㄱ
네 이
처 음
하 기</w>
수 가</w>
입 니다</w>
이유 가</w>
4 0
1 0</w>
는 다</w>
없 는데</w>
에 도</w>
보 는데</w>
있 어</w>
진 지
나 서</w>
때 마다</w>
먹 고</w>
않 냐</w>
동 안</w>
하 자</w>
는거 냐</w>
보 내
여 자</w>
ㅅㅅ ㅅㅅ
가 이
없 다</w>
입 갤</w>
설 쉬</w>
드 디
뭔 가</w>
없 이</w>
거 같은데</w>
경 기</w>
이 건</w>
스 는</w>
그 리
가 장</w>
그 만
같 다</w>
1 9
너 네</w>
애 들은</w>
키 우
오 면</w>
느 낌
만 들어
속 보</w>
인 지</w>
쓰 레
끝 나
된 다</w>
에 는</w>
하 고
없 는
까 지
맞 지</w>
시 즌</w>
왔 다</w>
어디 서</w>
좋 은</w>
지 네</w>
1 3</w>
싶 다</w>
스토 리</w>
역 시</w>
거 같음</w>
으 니까</w>
스 가</w>
얼 굴
린 다</w>
무조 건</w>
드디 어</w>
사 는</w>
안 됨</w>
페 이
년 들</w>
미 쳤
있 다</w>
치 는</w>
얘 기
무 슨
싫 어
레전 드</w>
갤 주</w>
어 케</w>
는 지</w>
주 세요</w>
쓰 는</w>
려 나</w>
올 리
우 승
같은 거</w>
만 원</w>
어 야
ㅅ ㅂ
서 울
웃기 네</w>
근 황</w>
되 는</w>
와 이
해 보
오늘 은</w>
길 래</w>
뭔 데</w>
올 해</w>
레이 드
나 이
아 는</w>
이 름
인 거</w>
왔 는데</w>
철 구
데 려
없 어</w>
거 면</w>
특 징</w>
경 기
이 러
선 수
하 고싶
한 번</w>
건 가</w>
니 깐</w>
아 아
누 나</w>
는 데
최 고
정 상
거 지</w>
대 가
무 기</w>
지 면</w>
코 로
내 일
ㄷㄷ ㄷ</w>
에 이
마 스
마 리
실 화
이 노</w>
프 레
오 르
일 러</w>
혹 시</w>
ㅋㅋㅋㅋㅋㅋㅋㅋ ㅋㅋㅋ</w>
오 랜
했 음</w>
인 이</w>
어 느
붕이 들</w>
6 0
놈 들</w>
별 로
보 은
고 민
사 진
평 가
시 키
결 국</w>
을 듯</w>
주 면</w>
준 다</w>
했 으면</w>
ㅋㅋ ㅋ
생각 해
지 도</w>
텐 데</w>
바 다</w>
좋 겠
추 천</w>
잘 못
귀 엽
머 임</w>
일 어
시 에</w>
실 분</w>
있 지</w>
진지 하게</w>
ㅇ ㅇ
이 제
었 네</w>
알 아
어떻 게
7 0
다 는데</w>
애 니
형 들</w>
서 버</w>
요 즘
적 인</w>
할 수
념 글
좋 아</w>
공 부
노 트
다 른</w>
ㅅ ㅌㅊ
바 이
지 지
그 렇게</w>
신 기
이 야
확실 히</w>
생 겼
5 00
성 이</w>
트 위
수 영
운 동
다 음</w>
벌 써</w>
애 들
한 다고</w>
드 립
살 아
로 아</w>
이라 도</w>
나 네</w>
려 서</w>
해야 지</w>
ㅁ ㅌㅊ</w>
는거 야</w>
복 귀
후 기</w>
유 진</w>
기 분
ㅜ ㅜ</w>
되 네</w>
패 치
기 다
자 기
카 드</w>
문 경
설 x</w>
오늘 도</w>
없 지</w>
일 단</w>
2 2
인 듯</w>
아니 면</w>
ㅎ ㅎ</w>
는 중</w>
보 단</w>
힘 들
디 시
캐 릭</w>
트 로
같 네</w>
안 나오
으 니</w>
코 스
먹 을
트 레이드</w>
새끼 들은</w>
치 고</w>
친 구</w>
신 캐</w>
언 냐들</w>
이번 에</w>
만 화</w>
보 여
김 태
이 였
중 요
그 거</w>
어 떤
ㅋㅋㅋㅋㅋㅋㅋㅋ ㅋㅋㅋㅋ</w>
는거 지</w>
씨 젠</w>
인 기
행 복
모르 겠
인 터
없 으면</w>
거 리
퀴 들</w>
노 잼
좋 다</w>
만 나
주 고</w>
그 림
파 이
i n
나 와
었 음</w>
차 단
컨 텐
보 고싶
문 재
해 야</w>
돌 리
쓰 면</w>
한 테
어 려
영 상
사람 이</w>
1 2</w>
어 차
초 에</w>
의 외
하 기
한 남
여기 서</w>
민 주
얼 굴</w>
하 다가</w>
개 좆
이 상</w>
고 닉
사 라
정 리
쓰레 기
요 새</w>
인 생
기 사
방 법</w>
아 침
싸 우
2 5
가 져
개 인
새 벽
이 도</w>
기 사</w>
라 면</w>
바 꾸
어 쩌
같 아</w>
하 겠
삭 제
할 만
시 켜
왜 케</w>
유 진
일 차</w>
부 르
철 구</w>
투 표</w>
8 0
남 자</w>
들어 가
중 국
애 들이</w>
라이 브</w>
해 줘</w>
ㅠㅠ ㅠㅠ
섹 스
에 선</w>
네 ㅋㅋ</w>
먹 음</w>
3 00
없 어
있 나</w>
넘 어
다 면</w>
맨 날</w>
식 이</w>
오랜 만에</w>
어차 피</w>
맞 냐</w>
비 슷
세 계
에 어
성 공
년 에</w>
드 라
아니 고</w>
어 렵
카 드
리 아</w>
갤 주
유 니
려 는데</w>
선 택
찐 따
걸 로</w>
꼴 리
물 어
스 카
개 꿀
자 체
가 축
댓 글
무 기
실화 냐</w>
불 쌍
아 는
아 야
차 이</w>
선 수</w>
아 냐</w>
새끼 가</w>
스 크
이 겜</w>
팩 트</w>
까 요</w>
스 킬
좋 네</w>
대 기
대 단
하 이
2 1
드 컵</w>
얘 들아</w>
따 라
축 하
레전 드
ㄱ ㄱ</w>
오 지
할 듯</w>
소리 바다</w>
2 4
먹 어
보 통</w>
새끼 들아</w>
줌 마
이 새끼</w>
하 다
계 정</w>
되 는데</w>
서 버
ㅅ ㅅ</w>
도 와
애 니</w>
그 렇
일 본</w>
지 고</w>
브이 앱</w>
재 밋
찾 아
보은 왔
좋은 데</w>
자 마
진 각
보 는
추 가
갤 은</w>
자 가</w>
병 신</w>
콜 라
리 스
유튜 브</w>
버 그
모 음</w>
없 어서</w>
거 의</w>
민 이</w>
야 구
돌 려
이 들</w>
차 이
많 네</w>
알 바
중 인데</w>
좋아 하는</w>
누 가
스 밍
생 일
하 면
고 닉</w>
공 지</w>
리 냐</w>
새끼 들
2 주
타 이
워 서</w>
니 가</w>
라 고
인 간
아닌 데</w>
게 이</w>
결 혼
그 림</w>
노 무
마지 막
자 나</w>
호 감
생각 보다</w>
는 듯</w>
옛 날
수 록</w>
아 까</w>
어 그
이 름</w>
학 교
나오 는</w>
근 본
질문 좀</w>
떡 밥
부 터
빼 고</w>
찬 이</w>
e a
고 소
장 현
라 라
받 음</w>
알 았
인 생</w>
무 서
스 터</w>
시 상
캬 루</w>
하는 건</w>
ㅇ ㅈ</w>
광 고</w>
의외 로</w>
맞 추
트 는</w>
만 화
애 초에</w>
이 긔</w>
가지 고</w>
자마 자</w>
않 음</w>
어 제
모 드</w>
빨 리
나 보네</w>
내 려
마 음
점 검
정 말</w>
엘 마</w>
유 저
치 면</w>
가 슴
기 억
안 함</w>
하는 거임</w>
ㅇ ㅈ
세 계</w>
여 친
이 미
사람 들</w>
만 드
정 리</w>
결 과</w>
어 떤</w>
프 로</w>
없 나</w>
이 쁜
진 심</w>
페 미
정 보</w>
확 정
레 이</w>
나오 네</w>
스 터
씹 덕
광 고
마 렵
이 미</w>
나 가</w>
입 갤
아이 즈
쓰 는
같 이
라 서</w>
바 르
사 실
장 이</w>
지 원
눈 나</w>
주 인
영 이</w>
진 다</w>
보 지
클 리
던 거</w>
에서 도</w>
주 식
피 셜</w>
오 는</w>
보 고싶다</w>
오늘 의</w>
니 네</w>
먹 었
도 대체</w>
스 포
우 스</w>
ㅋㅋㅋㅋㅋㅋㅋㅋ ㅋㅋㅋㅋㅋ</w>
새끼 는</w>
염보 성</w>
보 자</w>
준 비
다 르
소 환
알 았는데</w>
인 정
가 야
긴 함</w>
댓 글</w>
ㅏ ㅏ
실 시간</w>
의 미
많 음</w>
버 리
별 로</w>
어 울
졌 네</w>
충 들</w>
제 로</w>
해야 함</w>
아 도</w>
새끼 들이</w>
관 련</w>
어 야</w>
받 고</w>
삼 성
라 인</w>
먹 는</w>
바 꿔
틀 딱
패 치</w>
하 니</w>
선 발
시 청
올 해
자 리</w>
때 는</w>
새 기
수 비
열 심
2 3
현 재</w>
김 치
수 는</w>
안 나
오 프
틀 드
순 위</w>
어 캐
생 기
이 정도면</w>
누 구</w>
되 는
일 반
애 들아</w>
트 가</w>
떡 상
여 러
이 형</w>
처 음</w>
수 도</w>
떡 밥</w>
응 원
지 마</w>
현 실
있 을
어 떡
원 이</w>
인 은</w>
있 는거</w>
자 살
구 함</w>
다 고
상 관
보 기</w>
정 지
아무 리</w>
기 안
늒 네</w>
시 스
영 화
좆 망
좆같 네</w>
시 긔</w>
안되 냐</w>
강 화
애 미</w>
마 가</w>
새 로
전 부</w>
만 큼</w>
보 상</w>
예 쁘
에 픽
샘 슨</w>
요 일
절 대</w>
정 치
한 국</w>
둘 다</w>
않 았
무 료
보 임</w>
에 요</w>
갤 이</w>
나 랑</w>
돼 지
퇴 근
지않 음</w>
나 면</w>
만 한</w>
보 스
본 다</w>
엄 청</w>
오 래
온 다</w>
대 는</w>
부 탁
ㅡㅡㅡㅡ ㅡㅡㅡㅡ
슬 슬</w>
아 라</w>
한 건</w>
시 리
일 까</w>
설 X</w>
오 네</w>
지 만
해 줘
내 가
존 버
인 스타</w>
비 교
언 급
조 선
마지 막</w>
많 은
미 국
던 파</w>
성 은</w>
하 긔</w>
가 라</w>
가 지</w>
여 름
와 꾸
좋 냐</w>
하 고싶다</w>
준 이</w>
해 요</w>
캐릭 터</w>
으 면
P G</w>
웃 긴
1 4</w>
나오 냐</w>
쓰 냐</w>
앞 으로</w>
1 9</w>
블 루
사 면</w>
했 어</w>
코로 나</w>
그 룹</w>
근 첩
들 한테</w>
혼 자</w>
계 정
링 크</w>
이 지
있 을까</w>
200 8
유튜 브
같 냐</w>
거 나</w>
시 절</w>
아 닐
포 인
문경 찬</w>
년 아</w>
말 이</w>
쓰 고</w>
유 동
주 냐</w>
애미 뒤
승 리
8 월</w>
자 는</w>
되 지</w>
나 라
얘 기</w>
자 고</w>
크 로
드 가</w>
무 섭
가 는
갈 아
제 가</w>
잇 음</w>
나 라</w>
야 됨</w>
대 가</w>
도 안
선 발</w>
운 데</w>
아이 돌
떴 다</w>
리 스</w>
감 독
져 서</w>
이벤 트
인증 왔
가 네</w>
였 음</w>
베 르
신 캐
짜 리</w>
주 라</w>
대 통
직 업
아이 돌</w>
겠 노</w>
중 계
하 게
가 냐</w>
가 자</w>
이런 거</w>
공 격
느 낌</w>
부 럽
저 렇게</w>
하 긴</w>
9 0
받 았
입 장
ㄷㄷ ㄷㄷ</w>
가 격
문 제</w>
소 바
홍 어
가 챠
스 킬</w>
은 근</w>
자 리
진 각</w>
거 르
난 다</w>
배 우
분 위
시 는</w>
어 떠
했 냐</w>
가능 함</w>
J PG</w>
고 양
라 리</w>
많 은</w>
생 각</w>
영 화</w>
관 심
여 친</w>
학 교</w>
미 친</w>
수 준</w>
데이 트</w>
네이 마
그 룹
어 때</w>
대 충</w>
챔 스</w>
1 5</w>
하 던데</w>
오늘 자</w>
땜 에</w>
인 싸
인 게</w>
패 키
합 격
어디 서
미 래
하 루</w>
경 원
되 나</w>
끝 났
때 까지</w>
인 가
플 레이
형 님들</w>
10 0</w>
골 드</w>
미 안
베 이
보 기
아 레
주 네</w>
확 률</w>
3 0</w>
연 습
인 방
있 노</w>
제 일
파 티
수영 복</w>
나 온</w>
도 배
스 킨</w>
스토 리
기 본
되 는거</w>
보 면서</w>
가 격</w>
겟 다</w>
과 금
때 가</w>
없 고</w>
짜 증
ㅋㅋㅋㅋㅋㅋㅋㅋ ㅋㅋㅋㅋㅋㅋ</w>
하 세요</w>
아무 도</w>
는 법</w>
대 로
이 벤</w>
스트 리
들 을</w>
보 냐</w>
이 후
볼 까</w>
영 웅
왜이 리</w>
ㅂ ㅅ
너 네
드 리
보 상
1 위</w>
버 그</w>
비 트
축 구
케 이</w>
공 개
달 라
좆 같은</w>
하 더라</w>
기 준</w>
으 면서</w>
주 의</w>
세 상
였 는데</w>
00 0
그 나
네 ㅋㅋㅋ</w>
못 함</w>
코 인</w>
다 행
버 렸
비 틱
웨 이
이 어
아니 지</w>
새끼 야</w>
걱 정
꼬 마</w>
드 림</w>
비 비
예 상
키 워
ㅅ ㅌㅊ</w>
공 지
대 한</w>
추 가</w>
다 는
무 시
수 준
스 러
스 티
연 애
예 전에</w>
사람 은</w>
스 피
신 고
자 러
쳐 맞
1 위
상 황</w>
하 던</w>
1 년
들 의</w>
역 대
20 20</w>
느 끼
아 시
차 라리</w>
갤러 리
갔 는데</w>
생 긴
선 생
인 줄</w>
가 는데</w>
거 래
만 함</w>
점 검</w>
전 화
조 용
쿠 폰</w>
아 카
일 이</w>
커 여
끼 리</w>
먹 으면</w>
빠 는</w>
만 든
한 달
거 지
아 가
씨발 련
블 랙
와이 스</w>
갤 러</w>
아 프
저 번
1 1</w>
기 만
티 어
때 도</w>
치 킨
평 가</w>
0 0</w>
아 가</w>
어 디</w>
였 네</w>
응 애</w>
트 리
나 와</w>
심 심
해 줌</w>
v 4</w>
급 식
남 았
신 인
염 보</w>
자 주
치 가</w>
항 상</w>
나 봐</w>
봤 다</w>
분 들</w>
사 냥
시 로
라 스
먼 저</w>
안 하고</w>
감 사
느 금
밑 에</w>
수 캬루</w>
여 고
완 장
년 들아</w>
력 이</w>
뭐 가
지 마라</w>
포 기
그 려
노 무</w>
틀 드</w>
한 듯</w>
버 스
시 작</w>
제 대로</w>
지 방
차 트</w>
하 라고</w>
아 마
오 스</w>
반 지</w>
ㅆ ㅅㅌㅊ
고 보니</w>
도 가</w>
들 만</w>
성 능
알 바</w>
저 러
할 거
ㅜ ㅜ
가 챠</w>
그 래</w>
근 데
디 시</w>
저 녁
따 리</w>
많 냐</w>
일 주
카 메
5 0</w>
데 뷔
세 이
이 재
지 냐</w>
해 줄
고싶 은데</w>
같 긔</w>
씹 창
작 년</w>
졌 다</w>
컨 셉
하나 만</w>
보 라
보 지</w>
장현 식</w>
년 이</w>
부 분</w>
어 이
없 노</w>
o n</w>
긴 한데</w>
이 나
할 거</w>
컨텐 츠</w>
걸 까</w>
신 곡
아닌 가</w>
남 순
설 마</w>
안 에</w>
요 일</w>
택 배
생각 함</w>
뒤 에</w>
해주 세요</w>
그 만</w>
키 보
3 개
모 자
사 야
앨 범</w>
우 승</w>
잡 고</w>
아니 었
거같 다</w>
들 고</w>
박 정
방 법
봐 야
아 파
오 리
오 냐</w>
이 젠</w>
전 설
코 드</w>
누 군
손 절
했 던</w>
대 학
머 냐</w>
몇 개
사 주
오 태
기 안</w>
나 이</w>
로 는</w>
번 째</w>
트로 이</w>
가 테</w>
던 가</w>
도 사</w>
됐 네</w>
미 디
신 이</w>
이 간
찍 어
타 는</w>
끝나 고</w>
대 회</w>
먹 는
좋 았
한 명
아니 야</w>
이 래</w>
하 러
라이 브
버 스</w>
수 정
시 다</w>
좆 같은
상 향
스 위
ㄷㄷㄷㄷ ㄷㄷㄷㄷ
하지 마</w>
기 분</w>
나 중에</w>
드 라</w>
우 울
가 도</w>
귀 찮
된 거</w>
살 까</w>
스 럽
신 청
통 합
잘생 겼
도 는</w>
부 산
업 데이트</w>
구 라
기 도</w>
리 그
리 그</w>
다 운
몰 랐
못 하
인 가요</w>
장 비</w>
ㄱ ㅊ
골 드
느 낀
스 테
완 료</w>
위 한</w>
치 네</w>
마 시
빠 르
사 과
싶 은데</w>
올 스타</w>
주 작
대 깨
마 도</w>
비 트</w>
운 동</w>
자 동
저 는</w>
레 벨
생 김</w>
시 절
약 간</w>
와 꾸</w>
적 이</w>
트 레
헤 어
이라 는</w>
갤 럭
군 대
스 밍</w>
아 르
은 거
이 득
주 딱
투 수
피 스</w>
기 로</w>
서 울</w>
조 합</w>
지 르
한 동
홍 보
대가 리</w>
9 9
갤 럼
드 레
렇 게
보 다
아니 다</w>
아닐 까</w>
검 색
나 와서</w>
메 카
중 고
트 레이드
폴 가이
a c
개 추</w>
링 크
뭐 노</w>
실 패
싱 글
장 은</w>
커 엽
이 새끼들</w>
라이 프
나 갈
린 거</w>
바 람
움 짤</w>
이 이
장 난
점 이</w>
지금 까지</w>
어떠 냐</w>
경 험
담 배
당 연
모 바
사 고</w>
오 른
헬 스
하나 도</w>
나 만
상 황
열심 히</w>
그 거
성 형
자 랑
정 보
진 거</w>
하 려
하 러</w>
기 원</w>
니 아</w>
망 호</w>
사 용
아 프리
편 의
혼 자
ㅋㅋㅋㅋㅋㅋㅋㅋ ㅋㅋㅋㅋㅋㅋㅋ</w>
멜 론</w>
바 로
받 을
상 대
야 구</w>
인 데
해 봄</w>
안되 는</w>
100 0
도 시
뒤 지
수 있
엘 마
재밌 네</w>
하지 마라</w>
다 리</w>
바 리</w>
살 려
설 명
스 킨
우 면</w>
터 지
했 노</w>
들어 와
누구 임</w>
고 수
구 가</w>
미 션</w>
사 회
상 위
역 겨
왤 케
있 어서</w>
크 리
하 시
하 려면</w>
화 가</w>
여자 가</w>
아이즈 원</w>
1 6</w>
도 됨</w>
점 심
진 심
하 려고</w>
겜 은</w>
계 속
달 아
라 비
양 심
초 반
햇 는데</w>
히 어
사 기</w>
아 리
저 격
조 합
렸 는데</w>
오 오
패 드</w>
프 라이
해야 됨</w>
목 소리</w>
수 사
엄 마
한 거임</w>
확 인
5 성</w>
똥 찬이</w>
먹 으
스 로</w>
팩 트
그 오</w>
님 이</w>
루 시
불 러
알 고</w>
출 근
달 리
들 고
렸 다</w>
어 라</w>
오 픈
하는 거냐</w>
구 매
무 대
아 쉽
은 게</w>
고 인
아 예</w>
카 페
확 률
가능 하냐</w>
시간 에</w>
캐릭 터
로 그
마 리</w>
사 랑</w>
유 입
짤 녀</w>
짱 깨
2 개
강 다니
꼬 라
꿀 잼
이 래
주 년</w>
줘 라</w>
했 다고</w>
누구 냐</w>
투표 인증</w>
꼬 마
역 겹
을 텐데</w>
인 기</w>
조 회
캬 루
티 어</w>
나 는
보 스</w>
전 투
중 계</w>
집 에</w>
모 든</w>
슈 퍼
유 일
졸 업
채 팅
나 음</w>
달 라고</w>
원 탑</w>
코 인
2 년
길 드
멤 버
비 싸
애 가</w>
예 상</w>
있 었는데</w>
잡 아
디 씨
리 버
사 서</w>
삼 성</w>
안 녕
야 스
점 핑
코 네</w>
이야 기</w>
2 개</w>
공 무
너 프
대 신</w>
로 아
무 대</w>
방 어
완 전</w>
이 길
이 란
파 는</w>
마이 너</w>
개 빡
사 귀
신 규
이 걸</w>
장 에</w>
카 운
현 이</w>
다 는거</w>
모 든
지 나
직 업</w>
팔 아
긴 하네</w>
냄 새
느 껴
머 두
야 짤</w>
하루 종
패키 지</w>
동 생
디 자
본 인
업 뎃
염 퀴
영 웅</w>
이 니</w>
이유 는</w>
깅 이</w>
연 예
정신 병
ㅁ ㅊ</w>
구 만</w>
나 나
남 은</w>
외 국
유 저</w>
하 고있
재밌 음</w>
가 고</w>
걸 리
도 움
라 는데</w>
모 니
목 록</w>
밖 에
배 달
버 프
세 트</w>
포인 트</w>
부 모
안 보
죽 이
드립 니다</w>
자체 가</w>
3 3
5 천
기 에</w>
난 리
받 으면</w>
발 표
2 7
구 리
다 며</w>
다 는게</w>
ㅆ ㅂ</w>
건 지</w>
게 시
길 태
뜨 면</w>
애 매
앰 들</w>
유 리
익 스
정 이</w>
충 격
어디 갔
그나 마</w>
각 성
강 간
까 진</w>
는 대</w>
라 이</w>
박 보
이 닝</w>
주 문
ㅗ ㅜ
받 은</w>
샀 는데</w>
유 명
지 말
트 사가</w>
컨텐 츠
네이마 르</w>
발 작
방 에</w>
었 으면</w>
있 나요</w>
적 당
존 재
붕이 들아</w>
가 끔</w>
걸 림</w>
기 어
라 도
스 포</w>
이 었는데</w>
장 비
징 징
브이 앱
그 립
금 지
길 드</w>
대 상
대 체
들 이
바 리
브 리
이 용
일 리
라인 업</w>
나 한테</w>
대 전</w>
시 원
일 에</w>
잇 냐</w>
치 킨</w>
많 아
명 이</w>
안 타
힘 드
라이프 치
놈 이</w>
던 전</w>
머 야</w>
스 마
저 새끼</w>
필 독</w>
지지 율</w>
이번 주</w>
0 8</w>
v e
오 토
작 가
지 로</w>
파 딱
페 도
좋은 거</w>
새벽 에</w>
되 게</w>
방 에서</w>
예 정</w>
자 들</w>
주 셈</w>
에서 는</w>
딩 때</w>
맞 다</w>
태 어
픽 업
스트 레
모르 는</w>
2 8
같 지</w>
다 니까</w>
신 경
제 작
죄 다</w>
개 씹
뭔 지</w>
반 응</w>
보 다가</w>
사 도</w>
살 인
었 어</w>
이 찬
천 장
총 공</w>
고싶 어</w>
개 발
개 병신
공 개</w>
받 는</w>
우 는</w>
테 스트</w>
메 인
부 러
아 까
인 스타
전 은</w>
지 하
캐 밥</w>
생각해 보니</w>
어그 로</w>
섹 스</w>
운 영
제 발
주 말
초 기
콘 서
파 딱</w>
노 가
눈 물
카 오
고싶 네</w>
사랑 해</w>
됐 다</w>
드 래
배 고
주 식</w>
주 는거</w>
줬 으면</w>
챔 스
쳐 서</w>
필 수
ㅋㅋㅋㅋㅋㅋㅋㅋㅋㅋㅋㅋㅋㅋㅋㅋ ㅋㅋㅋㅋㅋㅋㅋㅋㅋㅋㅋㅋㅋㅋㅋㅋ
김태 진</w>
고 는</w>
관 련
관 리
나 무
누 르
때 부터</w>
버 전</w>
볼 때마다</w>
술 사</w>
작 가</w>
1 8</w>
느 그
상 상
서 로</w>
왤 캐</w>
후 회
이름 이</w>
하루종 일</w>
감 스트</w>
결 정
늘 어
뭐 지</w>
아 기
안 지만</w>
원 영
인 다</w>
확 정</w>
히 로
어느 정도
마 인
부 분
신 화</w>
엘 리
원 은</w>
좆 목
주 가</w>
최 근</w>
a n
o r
노 ㅋㅋ</w>
수 있음</w>
진 이</w>
보이 는데</w>
평가 좀</w>
요즘 은</w>
과 금</w>
라 디
레 벨</w>
만 약</w>
저 런
정 우
진 행
최 근
할 게</w>
2 차
2 5</w>
상 자</w>
아 라
안 뜨
되 고</w>
먹 은</w>
은 퇴
이 것
거같 아</w>
폴가이 즈</w>
그 리고</w>
따 리
먹 고
보 소</w>
안 쓰
잘 하네</w>
화 면</w>
w w
두 개
마 무
마 법
아 웃
민주 당</w>
아레 나</w>
김 민
아 쉬
엄 마</w>
없 는거</w>
오 히
장 애
정 병
타 임</w>
탈 갤
토 탈
ㅋㅋㅋㅋ ㅋ
V S</w>
꼴 리는</w>
났 네</w>
놈 들은</w>
배 터
비 가</w>
오 버
일 베
1 등
긴 해</w>
떴 냐</w>
매 니
밀 어
복 구
수 저
우 가</w>
주 에</w>
해 지
모 아
부 족
지 원</w>
했 지</w>
화 장
ㅠㅠ ㅠ</w>
ㄱㄱ ㄱㄱ
콜라 보</w>
3 개</w>
그 냥
던 파
디 씨</w>
라 스</w>
랜 드</w>
실 력
예 전
왔 네</w>
투 수</w>
한 거냐</w>
나왔 으면</w>
미쳤 네</w>
문재 인</w>
감 독</w>
바 다
받 는
줌 들</w>
캐 밥
컴 퓨
5 분
기 술
낫 냐</w>
매 일</w>
불 편
뽑 기</w>
이 든</w>
접 속
해 봤는데</w>
가이 드</w>
니 네
못 하는</w>
미 국</w>
상 태
다이 어
오히 려</w>
년 은</w>
시 오</w>
신 화
요 약</w>
장 에서</w>
점 수</w>
풀 어
했 더니</w>
여자 들</w>
15 0
갤 질
한 지</w>
그런 데</w>
a r
같 노</w>
근 본</w>
달 려
렸 네</w>
미 가</w>
시 가</w>
연 장
줌 마</w>
타 격
터 졌
개인 적으로</w>
가 입
능 력
들 이랑</w>
릭 스</w>
부 활
애 플
왜 이렇게</w>
월 드컵</w>
플 러
2 1</w>
구 는</w>
는 것
디 스
빨 아
야 짤
전 사</w>
중 에서</w>
중 붕이</w>
해 본
2 6
겠 는데</w>
레 드
만 든</w>
많 은데</w>
언 냐</w>
였 으면</w>
외 질
이 게
이 모
이 렇게
제 주
파 리</w>
p c
다 리
라 면
모 리
미 나
보 셈</w>
스 펙
엇 는데</w>
여 도</w>
하 지만</w>
회 사
알려 준다</w>
대가 리
4 00
미 니
의 사
일 듯</w>
지 에</w>
ㅋㅋㅋㅋㅋㅋㅋㅋ ㅋㅋㅋㅋㅋㅋㅋㅋ</w>
나왔 는데</w>
마리 나</w>
아는 사람</w>
시상 식</w>
가 슴</w>
갓 겜
비 교</w>
아 티
어 지
여 서</w>
기 전에</w>
당 함</w>
맞 는데</w>
버 티
브 라
생 활
아 지
았 네</w>
완 장</w>
지 마
지 말고</w>
진 자</w>
5 성
기 네</w>
릴 때</w>
분 탕
신 은</w>
엔 딩
얼마 나
친구 가</w>
골 라
는 것도</w>
따 로</w>
만 족
바 라
얼 마</w>
엄 청
운 거</w>
주 딱</w>
오태 곤</w>
겠 음</w>
겨 서</w>
랑 이</w>
먹 었는데</w>
불 안
싫 어</w>
에 바
이 겼
적 용
정 확
클 로
피 곤
우리 가</w>
올라 오
떨어 지
ㅇ ㅅ
모 으
발 표</w>
봐 서</w>
키 스
훈 련
개 념
개 추
겟 네</w>
세 라
속 도</w>
손 흥
심 각
예 쁜
지 역
캐 르
분위 기</w>
l c
나 보다</w>
영 어
웃 김</w>
점 심</w>
티 아
팀 이</w>
하 라
지않 나</w>
이상 화</w>
사이 트</w>
냄 새</w>
밸 런
새 로</w>
온 냐들</w>
저 게</w>
카 톡
해 외
겟 지</w>
났 는데</w>
더 만</w>
크 로</w>
들어 오
2008 13</w>
남 아
동 생</w>
순 위
아 바
키 울
귀여 운</w>
이미 지</w>
5 분</w>
나 도
니 는</w>
미 는</w>
았 음</w>
이 란</w>
집 에서</w>
페 코</w>
넣 어
다 던데</w>
도 전
복 귀</w>
최 고</w>
카 페</w>
형 이</w>
최고 의</w>
ac t</w>
거 부
신 곡</w>
싸 개
아 버
와 라</w>
피 해
헤 어</w>
이후 로</w>
거 는</w>
거 든</w>
기 준
먹 고싶다</w>
블 리
세 대</w>
애 기
언 니</w>
해 준다</w>
오늘 부터</w>
갤러 리는</w>
그러 고보니</w>
N C
감 이</w>
국 내
네 ㅋㅋㅋㅋ</w>
동 네</w>
떳 다</w>
스 케
슬 로
어 가</w>
작 년
초 월
안되 네</w>
어케 함</w>
옛날 에</w>
미디 신
개 웃기네</w>
게 이야</w>
니 들이</w>
쓸 만
약 독
었 냐</w>
엉 덩
이 승
일 부
컴 백
한 가</w>
효 과</w>
관 계
리 는거</w>
린 이
맛 있
맞 아</w>
모 드
뿡 2</w>
샘 슨
에 픽</w>
이 니까</w>
자 전
장 면</w>
저 런</w>
중 임</w>
픽 업</w>
ㅅㅅ ㅅ</w>
시리 즈</w>
내 년</w>
노 스
다 녀
롯 데
멍 청
미 통
분 에</w>
비 슈
소 설</w>
인 건</w>
중 간
차 단</w>
하 자
할 사람</w>
사람 들이</w>
가능 성</w>
메이 플</w>
3 일
내 년에</w>
려 고
소 개
식 은</w>
왜 안
웹 툰</w>
트 와이스</w>
갤러 들</w>
ㅎ ㅎ
내 용
다 운</w>
따 라</w>
반 응
선 물
성 능</w>
요 청</w>
이 긴</w>
하 던
한 가
해 봤
희 망
하는 지</w>
하지 말
2 2</w>
뿡 2
수 로</w>
시 아</w>
조 언
하 겠지</w>
해 서
어그 로
가 성
같 아서</w>
단 체
될 까</w>
어 야지</w>
연 속</w>
합 방
드라 마</w>
됐 는데</w>
듣 고</w>
따 효
수 비</w>
없 다고</w>
웃 음
입 고</w>
전 무</w>
찬 또</w>
커 버</w>
하 하
해 결
화 이
시발 련
시스 템</w>
박 진
배 메</w>
파 티</w>
대 장</w>
더 블
써 야
아 스
아 요</w>
이 긴
이 한테</w>
주 실분</w>
패 스</w>
하루 에</w>
좋겠 음</w>
생 일</w>
성 적
세 리
아 저
웃 겨</w>
월 에</w>
인 들</w>
점 점</w>
주 지</w>
찍 고</w>
커 뮤
판 매
18 0
갔 네</w>
괴 롭
꾹 앰
난 이도</w>
많 아</w>
먹 은
버 리고</w>
설 정
쓰 는데</w>
원 영이</w>
자 신
좋 지</w>
중 국</w>
할 인
할 거면</w>
호 가</w>
줌마 들</w>
구 역</w>
기 간
대 한
떳 냐</w>
뭐 라
봉 준
순 간</w>
스 파
시 험
아 빠
엔 딩</w>
위 해</w>
제 로
r ea
공 식</w>
도 사
받 으
뽑 아
안 하냐</w>
앨 범
영 업
좀 요</w>
즈 갤</w>
카 이
한 정
해 도
v 4
가 는거</w>
고 도</w>
글 이</w>
나 쁜
돌 이</w>
디 렉
스 에</w>
싸 움
아 이</w>
안 돼</w>
이 짤</w>
전 이</w>
조 사</w>
취 소
패 드
패 턴</w>
혈 귀
홈 런
가 족
구 리</w>
기 고</w>
나 쁘
날 씨</w>
동 네
버 려
소 녀</w>
아 깝
어 는</w>
프리 코네</w>
마스 크</w>
ㅆ ㅅㅌㅊ</w>
겠 냐</w>
공 략</w>
그 랬
누 나
두 고</w>
때 려
미 치
버 린</w>
서 도</w>
어 떨
없 는게</w>
외 모
원 탑
병신 들</w>
여자 는</w>
역대 급</w>
사 주</w>
억 울
유 격
출 시
혐 오
좋아 함</w>
11 8</w>
남자 가</w>
히어 로
대 회
말 이
메 갈
받 은
번 역
사 냐</w>
신 규</w>
없 애
였 냐</w>
올 랐
유 지
쟁 이</w>
전 성
키 움
3 천
공 이</w>
기 만</w>
되 서</w>
라 가</w>
아 키
안 내</w>
았 냐</w>
야 붕이</w>
왔 어요</w>
운 지
키 움</w>
택 배</w>
어디 감</w>
나온 다</w>
대통 령
니 들은</w>
릴 까</w>
마 려
아 재
입 문
점 은</w>
주 는
즈 는</w>
최 종
하 다고</w>
나왔 네</w>
고 기</w>
글 에</w>
무 한
박 아
부 동
비 는</w>
안 오
이 홍
파 밍
랜 덤
리 는
맞 네</w>
번 호</w>
빠 는
싸 이
졌 는데</w>
하는 거야</w>
안되 나</w>
정도 로</w>
거같 냐</w>
트위 치</w>
2 3</w>
국 민
당 첨
둘 이</w>
새 기</w>
써 도</w>
아 닌</w>
안 하면</w>
져 도</w>
진 화
카 스
쿠 폰
포 켓
문제 가</w>
갈 까</w>
강 화</w>
국 가
나 올</w>
녀 가</w>
똥 퀴
수 있냐</w>
악 의
이 정
자 주</w>
잘 하는</w>
좆 밥
직 캠</w>
챙 겨
치 기</w>
평 균</w>
회 사</w>
투표 인증왔
ㄱ ㅊ</w>
거 리</w>
그 게</w>
꿀 팁</w>
뇌 절
는 분</w>
대 에</w>
망 오스</w>
식 으로</w>
퀘 스트</w>
티 셔
플 레이</w>
피 시
8 4</w>
경 찰
고 구
국 내</w>
달 린다</w>
전 기
주 의
죽 여
평 생</w>
학 생
코로 나
카메 라</w>
3 6
ㅡ 타</w>
봉 퀴
옛 날</w>
정 지</w>
터 짐</w>
통 피
하 드
아이 폰</w>
그런 가</w>
보은왔 어요</w>
고양 이</w>
1 7</w>
갔 다
고 기
라 운
마 그
번 역</w>
싫 다</w>
아 오
아 시발</w>
자 연
타 임
할 꺼
끝나 면</w>
2 차</w>
굿 즈</w>
까 봐</w>
다 크
루 나</w>
비 추
신 고</w>
싶 은</w>
어 린
여 긴</w>
은 듯</w>
치 즈
코 리
30 분
뉴비 인데</w>
감 스트
논 란</w>
당 이</w>
리 는데</w>
스 도</w>
작 은</w>
마렵 다</w>
나 스
내 년
드 랍
매 도</w>
배 경
수 도
습 니까</w>
올 리면</w>
우 파
의 상</w>
있 다고</w>
자 너</w>
전 문
제 목
존 잘
최 강
파 리
케이 스</w>
이해 가</w>
5 9</w>
ㅎ ㅌㅊ
김 연
났 다</w>
노 트</w>
박 스</w>
보 러
상 이</w>
여 캐
이 성
이 후</w>
총 공
효 과
왜이 러
이야 기
싱글 글</w>
머두 링</w>
a t
i t
o u
개 념글</w>
당 한</w>
은 근
2 9
공 략
대 해</w>
빡 세
생 긴</w>
스 텔
어 스</w>
예 정
이 랑
이 시
조 작
찐 따</w>
현 타
아니 네</w>
어케 됨</w>
이었 음</w>
한번 도</w>
2 기</w>
7 00
o l
가 는게</w>
광 복
까 는</w>
네 임
두 개</w>
리 세계</w>
메 리
봐 야</w>
사 고
애 플</w>
읍 니다</w>
이 해</w>
일 은</w>
한 대</w>
정도 는</w>
네이 버</w>
ㅅㅅㅅㅅ ㅅㅅㅅㅅ
아아 아아
4 0</w>
거 품
나 왓
남 친
대 결</w>
몰 라도</w>
뭐 고</w>
불 펜
사 제</w>
어 어
있 고</w>
저 녁</w>
호 모
후 에</w>
계 약
그 린
사 건</w>
시 너
저 도</w>
전 쟁
한 명</w>
해 볼
마렵 네</w>
3 년
7 0</w>
공 부</w>
낫 지</w>
도 적</w>
될 듯</w>
똥 찬
라 우
뭐 하냐</w>
바 지</w>
부 캐
안 나옴</w>
야 겠다</w>
업 뎃</w>
여 성
이 잖아</w>
있 는거
사람 들은</w>
3 5
나 의</w>
나 름</w>
다 니</w>
대 놓고</w>
망 구
사 전
을 거</w>
저 장
죽 어</w>
티 비
히 트
생각 하는</w>
아이 폰
ㅡㅡㅡㅡ ㅡㅡ
별로 임</w>
안녕 하세요</w>
나 를</w>
너 희
동 이</w>
리 나</w>
머 가</w>
무 사
보 다는</w>
봐 야지</w>
사 는
산 다</w>
안 타</w>
잠 깐</w>
재 료</w>
칭 찬
코 가</w>
타 고</w>
힘 든
이쁘 네</w>
어느 정도</w>
이간 질
1 차
교 환
국 밥
끝 내
들 어</w>
리 스트</w>
올 림</w>
지 옥
지 우
팀 은</w>
포 트</w>
했 었는데</w>
시즌 2</w>
새기 들</w>
간 만에</w>
금 지</w>
로 도</w>
맘 에</w>
보 닌</w>
성 격
성 적</w>
신 청</w>
않 나</w>
역 전
재 료
타 가</w>
플 레
하 냐고</w>
화 는</w>
나오 는데</w>
해주 면</w>
도 전</w>
맞 는</w>
상 은</w>
십 시오</w>
쥬 지
팔 로
해 봐</w>
병신 들아</w>
진짜 로</w>
쓰레 기</w>
부럽 다</w>
그 대로</w>
되 는거
리 얼
밀 리
바 람</w>
봉 준</w>
상 도</w>
생 활</w>
솔 로
시 티</w>
안 내
차 이가</w>
첫 방
카 가</w>
키 가</w>
해 본</w>
알려 줘</w>
시상 식
거르 고</w>
고 르
고 정
군 대</w>
기 아
꼴 림</w>
데 스
뭐 라고</w>
사 무
사 는게</w>
수 정</w>
어 느</w>
연 합</w>
이 춘
인 사
전 무
조 심
줘 야
탈 출
궁금 한게</w>
트위 터</w>
에어 컨</w>
아프리 카</w>
국 이</w>
기 면</w>
나 락
대 구</w>
데 미
로 이
머 가
문 투</w>
버 퍼
부 가</w>
여 행
코 트</w>
토 끼
하 긴
다음 주</w>
인터 뷰</w>
라이프치 히</w>
ㄱ ㄴ</w>
ㅁ ㅌㅊ
걸 러
결 과
공 혁
나 대
돼 지</w>
로 그</w>
못 해</w>
빠 지
형 님</w>
대통 령</w>
조회 수</w>
고 마
고 백</w>
괜 히</w>
눈 치
소 속
오 디
카 는</w>
코 는</w>
탈 리</w>
트 레이
표 정</w>
하는 법</w>
아니 노</w>
저번 에</w>
걸 그룹</w>
김 치</w>
논 란
머 니</w>
배 우</w>
불 펜</w>
새 벽</w>
새 낀</w>
언 냐
외 질</w>
있 잖아</w>
조 금
지 능
코 드
했 다
귀여 워</w>
토탈 워</w>
8 8
경 괴</w>
님 들
린 지</w>
많 아서</w>
미 드
성 공</w>
세 트
아 다
야 갤</w>
얘 네</w>
어 워
올 리는</w>
유 행
잘 알
티 켓</w>
3 9
것 같
꾹 찜
날 씨
님 들아</w>
드 러
때 매</w>
말 까</w>
몇 년
모 두</w>
신 민
알 못
엘 롯
열 어
커 버
투 자
하 겠네</w>
생각 하면</w>
가 야지</w>
대 상</w>
되 어
되 노</w>
마 도
몇 시
벌 레
보 니깐</w>
시 나
시 바</w>
아 오</w>
있 어도</w>
파 워
한 마
게임 이</w>
메이 플
왜이 럼</w>
지만 이형</w>
당연 히</w>
4 5
마 는</w>
멤 버</w>
소 름
수 능
실 망
싸 움</w>
아 침</w>
안 된
앞 에서</w>
연 습</w>
이 태
재 능
최 소</w>
ㅋㅋㅋㅋㅋㅋㅋㅋㅋㅋㅋㅋㅋㅋㅋㅋ ㅋㅋㅋ</w>
ㄹㅇ ㅋㅋ</w>
유튜 버
한테 도</w>
8 월
s s
거 다</w>
공 유
극 혐
기 업
느 라</w>
당 장</w>
대 리
두 번
먹 었다</w>
방 출
옵 션</w>
나오 고</w>
문경 찬
모르겠 음</w>
일부 러</w>
1 20
경 괴
계 산
내 는</w>
내 용</w>
냐 면</w>
면 접
물 이</w>
미 리</w>
받 는다</w>
부 산</w>
승 부
없 는거
이 럴
이 지랄
정 공
지 도
카 스</w>
하 스
어디 가</w>
이었 네</w>
잘생 긴
ㅇㅇ ㅇㅇ
키보 드</w>
p v
간 지
경 북</w>
기 계
년 도</w>
는 애들</w>
던 지
먹 냐</w>
미 래</w>
버 즈
알 고
였 지</w>
울 트
주 제
커 피
터 진
트 와</w>
가능 한</w>
귀엽 네</w>
노무 현</w>
2 천
ㅊ ㅊ
ㅓ ㅓ
개 월
답 답
똥 꼬
맘 에
상 대</w>
아 웃</w>
옆 에</w>
잘 함</w>
평 균
라이 트</w>
11 8
있었 음</w>
개 쩌
글 은</w>
급 으로</w>
나 는데</w>
년 들이</w>
담 당
데 이</w>
랜 드
말 로</w>
보 이네</w>
상 승
시 그
신 작</w>
안 하는</w>
양 아
용 병
우 주
있 던데</w>
테 이
나오 는거</w>
생각 나네</w>
하나 요</w>
ㅠㅠ ㅠㅠ</w>
게임 은</w>
오지 게</w>
여러 분</w>
1 회
M D
가 면
갤 을</w>
구 단
닉 스</w>
대 사</w>
떡 락
리 세
모 델
오 피셜</w>
월 드
자 랑</w>
전 설</w>
줘 도</w>
찬 또
최 대
키 는</w>
플 래
하 늘
하 더니</w>
해 준
화 면
2 군
f act</w>
ㅅ ㄱ</w>
가 만
걸 레
겜 이</w>
과 거
김 우
댕 댕
마 나
말 은</w>
버 프</w>
소 설
써 서</w>
저 거
채 널
처 리
환 불
하는 애들</w>
10 분
해야 겠다</w>
사실 상</w>
편의 점</w>
1 주
1 시간
2 만
4 8
가 가</w>
고 백
관 리</w>
금 민
남 음</w>
대 박
빨 간
사 르
승 격
예 약
오 재
오 지네</w>
요 네</w>
장 님</w>
제 목</w>
키 로</w>
투 기
혜 자
환 상
ㅋㅋㅋㅋㅋㅋㅋㅋㅋㅋㅋㅋㅋㅋㅋㅋ ㅋㅋㅋㅋㅋㅋㅋ</w>
재밌 다</w>
유튜 버</w>
다니 는</w>
않았 냐</w>
콘서 트</w>
구 경
느 금</w>
딜 러
박 고</w>
악 세</w>
안 드
에 만</w>
이 리</w>
있 는게</w>
제 한</w>
200 0
rea l</w>
ㄹ ㄹ
기 가
기 회
나 게</w>
생 존
스 페
에 디
역 대</w>
영 혼
조 선</w>
창 녀
처 녀
타 령
해 짐</w>
는데 도</w>
5 5
까 지는</w>
박 찬
번 호
상 대로</w>
클 린
피 스
하 잖아</w>
고싶 음</w>
사이 퍼
한번 만</w>
어려 움</w>
3 2
e r
뒤 졌
버 거
벌 써
수 리
연 이</w>
외 형</w>
음 식</w>
있 긔</w>
자 로</w>
트 에</w>
티 저</w>
활 동
안되 는데</w>
아무 것도</w>
이쁘 다</w>
힘들 다</w>
웃긴 게</w>
시로 코</w>
기 부
놈 들
놈 은</w>
대 장
동 희</w>
로 드</w>
만 큼
먹 기</w>
무 리
뭘 까</w>
반 대
상 태</w>
오 빠</w>
외 형
적 은</w>
출 신
취 급
염보 성
있었 네</w>
인터 넷
2주 년</w>
1 분
기 념</w>
대 호</w>
던 게</w>
되 나요</w>
드 립</w>
말 아
말 이야</w>
받 아서</w>
버 퍼</w>
올 스타
자 르
커 스
프 트</w>
하 지않
한 다는</w>
아침 에</w>
유니 폼</w>
남 았다</w>
리 노</w>
버 거</w>
범 죄
보 면
보 이는</w>
석 이</w>
설 정</w>
영 어</w>
오 나
이 로</w>
전 히</w>
쥬 지</w>
최 대</w>
취 향
크 게</w>
티 켓
학 치
해 놓고</w>
홈 런</w>
아이 유</w>
재밌 냐</w>
이번 엔</w>
알려 줌</w>
개 소리
난 거</w>
년 들은</w>
다 ㅋㅋ</w>
단 톡
수 학
시 장</w>
여 캐</w>
오 바
치 는
편 집
포 지
현 대
언제 까지</w>
좋은 점</w>
지금 은</w>
하지 말고</w>
데려 오
개꿀 잼
갤럭 시</w>
배터 리</w>
비슈 바
1 인
e r</w>
s t
고 소</w>
다 름</w>
들 에게</w>
마 냥</w>
머 지</w>
보 인다</w>
상 위</w>
신 분</w>
씨 젠
여 신
완 벽
있 어
쳐 도</w>
컨 셉</w>
팔 고</w>
포 수</w>
한 글
후 반
손흥 민</w>
t s
경 쟁
고 가</w>
공 주
끝 까지</w>
담 배</w>
덤 디
먼 데</w>
없 었
연 기
왔 어</w>
의 사</w>
이 것도</w>
일 찍</w>
클 럽
시간 이</w>
시청 자</w>
감사 합니다</w>
박보 검</w>
1 도</w>
9 급</w>
가 나</w>
간 단
거 기
공 익
그 램</w>
네 가</w>
돈 이</w>
로 나</w>
리 지</w>
버 림</w>
브 금</w>
얍 얍
어 쩔
역 사
연 락
와 중에</w>
위 험
인 형
자 유
전 붕이</w>
충 분
쿠 팡
쿠 팡</w>
10 년
ㅋㅋㅋㅋㅋㅋㅋㅋㅋㅋㅋㅋㅋㅋㅋㅋ ㅋ</w>
좋겠 어</w>
V 4</w>
갤 도</w>
결 승
공 식
님 덜</w>
단 어</w>
못 보
부 정
성 장
소 울
손 해
아 나</w>
얘 는</w>
원 에</w>
월 급</w>
있 으
지 를</w>
하 위
한 남</w>
아이 패드</w>
이라 서</w>
정상 임</w>
콜라 보
애미뒤 진
일주 일
8 0</w>
T O
o n
ㅅ ㅍ</w>
공 짜
교 육
망 함</w>
매 력
몸 매</w>
빼 면</w>
사 이</w>
어 때
영 입
음 식
이 동
이 딴
절 대
추 억
칠 플</w>
퇴 근</w>
필 요</w>
언제 부터</w>
이상 한</w>
좆같 다</w>
있었 으면</w>
다시 보기</w>
일어 나
6 0</w>
거 라</w>
누 적</w>
만 해도</w>
사 건
사 라</w>
우 스
원 숭
잼 민
팬 덤
해 줬
하지 마
철구 가</w>
모바 일
고인 물
1 시간</w>
거 긔</w>
그 런</w>
기 를</w>
던 전
소 녀
솔 까</w>
안 된다</w>
영 지
오 빠
운 게</w>
이 도
패 턴
하 려는데</w>
20 20
아무 리
마스 터
애미뒤 진</w>
라비 던
승격 을</w>
1 년</w>
내 고</w>
는 걸</w>
리 오</w>
명 은</w>
몇 개</w>
목 표
못 잡
못 하네</w>
밤 에</w>
소 식</w>
아 주</w>
아 래</w>
안 경
어 카
없 어도</w>
에 반
왜 캐</w>
음 악
전 까지</w>
제 한
조 금</w>
히 는</w>
ㅋㅋㅋㅋ ㅋㅋ
사람 있냐</w>
약독 대</w>
가 테
구 독
꾸 준
노 력
는 디</w>
뒷 광고</w>
롯 데</w>
모 모
부 상
부 캐</w>
비 율</w>
센 터
싶 어</w>
없 긔</w>
왔 습니다</w>
월 드</w>
일 때</w>
정 주
제 이
파 수
질문 점</w>
싫어 하는</w>
마스 터</w>
자러 감</w>
미디신 비</w>
a l
것 같음</w>
날 이</w>
로 빈
메 타
박 지
번 트
상 담
수 페코</w>
쉽 게</w>
시 아
쎄 리</w>
언 급</w>
여 캠
욕 먹
웹 툰
유 투
이 정도</w>
일 진
임 신
점 수
정 민
좌 파
질 러
치 냐</w>
남자 는</w>
나올 까</w>
프레 임</w>
가 기</w>
걸 어
걸 이</w>
김 준
끼 고</w>
냐 고
네 임</w>
놈 들이</w>
는 건데</w>
대 부분</w>
되 는거임</w>
떴 는데</w>
먼 저
바 꿀
박 주
보 민이</w>
부 는</w>
비 밀
살 기</w>
안 해도</w>
어 리
오 프</w>
이 구나</w>
장 원
주 변
채 널</w>
코 디</w>
큰 일
테 러
티 니아</w>
하 지않냐</w>
화 질</w>
휴 가
여기 가</w>
소환 사</w>
새로 운</w>
모니 터</w>
최근 에</w>
거 래</w>
겠 습니다</w>
공 포
그 라
넘 게</w>
달 달
둥 이</w>
등 장</w>
목 소리
보 은</w>
수 저</w>
시 기</w>
아 나
야 갤
오 타
자 기가</w>
재 앙
전 체
좆 같음</w>
찍 으면</w>
하 셈</w>
아이 들</w>
하는거 지</w>
스트리 머</w>
ㅁ ㅊ
게 요</w>
국 어</w>
나 나</w>
문 자
사 망</w>
서 브
어 몽
이 틀
인 성
잠 수
정 신</w>
좆 이
토 마
판 타
기다 리
1 등</w>
3 6</w>
6 00
것 들</w>
견 들</w>
공 주</w>
기 록</w>
까 이
나 여</w>
냥 이</w>
데 스</w>
맞 고</w>
무 료</w>
배 민</w>
뷰 지
삐 부</w>
연 결
연 차</w>
전 사
캐 리
터 질
트 와
한거 지</w>
U MD
가 수
글 로
기 능</w>
노 잼</w>
라 오
만 이</w>
블 핑
안 들어
없 으니까</w>
이 뻐
일 리</w>
작 년에</w>
죽 어
지 구
진 정
집 중
천 장</w>
피 규
피 지
해 설
호 기</w>
프레 스</w>
주인 공</w>
강다니 엘</w>
8 00
검 은
글 삭
기 도
닮 았
먼 가</w>
못 생겼
뭐 함</w>
비 스</w>
아 래
안 해</w>
어 찌
용 병</w>
직 관
하 니깐</w>
헤 드
재밌 는</w>
언제 쯤</w>
정신 나갈
념글 에</w>
수영 복
2 번
가 르
개 씨발</w>
겁 나</w>
대 전
등 록
만 봐도</w>
미 리
변 경
비 디
샤 워
설 치
없 을
올 렸
올 린
이 적
이 던데</w>
일 정</w>
쥬 얼</w>
코 어
튜 브</w>
파 이</w>
하 네요</w>
해 명
핸 드
생각해 보니까</w>
NC 다이
갤 럼</w>
기 들</w>
등 장
보 드</w>
본 사람</w>
삐 앰
서 건
세 팅
세 팅</w>
손 혁
시 대
쓰 는거</w>
에 에
웠 는데</w>
이 기</w>
이 쁜</w>
젠 지</w>
존 버</w>
지 랄</w>
체 력
트 로</w>
할 인</w>
할 수</w>
좋아 요</w>
페이 커</w>
9 0</w>
그 오
까 고</w>
모 습</w>
미 션
믿 고</w>
뽑 을
샀 다</w>
순 수
신 발
안 전
오 래</w>
왔 다
유 동</w>
이 쯤
초 록
이라 는데</w>
30 분</w>
으로 도</w>
으로 는</w>
이러 면</w>
나와 도</w>
ㅇㅈ ㄹ</w>
1 개
갔 다</w>
겨 울
놀 러
당 하는</w>
돌 파</w>
비 싼
수 학</w>
아 ㅋㅋ</w>
악 질
안 정
으 으
즈 가</w>
찍 음</w>
체 감
충 이</w>
핑 까
하 실분</w>
ㅅㅅ ㅅㅅ</w>
해주 라</w>
노트 20</w>
3 번
l i
각 개</w>
것 같은데</w>
까 지만</w>
루 리
마 르
망 상
문 자</w>
버 린
보 이냐</w>
수 갤</w>
스 랑</w>
신 레</w>
안 가
않 을까</w>
여 론
올 릴
이 를</w>
인 지
좆 병신
주 워
줄 사람</w>
축 구</w>
침 착
틀 딱</w>
피 아
한 녀
흑 우
ㄷㄷㄷㄷ ㄷ</w>
나온 거</w>
13 5
9 급
c m</w>
각 인
갤 로</w>
김 종
노 리
독 서
맞 는
먹 어도</w>
백 수
보 여</w>
불 타
뷰 지</w>
선 물</w>
설 첫</w>
실 력</w>
안 들
양 준
연 합
우 고</w>
이 건
이 민
좋 긔</w>
주 전
카 톡</w>
캐 시
클 래
퇴 물
하는 듯</w>
라이 트
스타 일
열심 히
사르 포
O N</w>
갤 길</w>
결 제
고 추
도 망
등 급
뜨 네</w>
무 적
성 격</w>
손 가
안 잡
앞 에</w>
였 다</w>
움 짤
원 래
이 노
작 업
중 인</w>
지 들</w>
채 팅</w>
최 악
충 전
테 일
티 가</w>
팔 면</w>
포 카</w>
피 가</w>
한 판
해 체
히 토
하나 는</w>
축하 왔
ㅏㅏ ㅏㅏ
대한 민
1 억
갖 고</w>
넣 으면</w>
네 는</w>
대 리</w>
드 려
모 집
볼 때</w>
안 돼
앗 는데</w>
워 싱
음 ㅋㅋ</w>
이 닝
코 스</w>
하 네
한 점</w>
할 거임</w>
나오 는
게이 들아</w>
맞추 기</w>
시스 템
메카 노</w>
강다니 엘
뉴 빈
라 니까</w>
말 을</w>
맘 마
먹 을</w>
받 았는데</w>
방 탄
방 학
버 닝
볼 만
어 캐</w>
였 노</w>
인 거
자 도</w>
자 지</w>
전 라도</w>
점 에서</w>
중 복
지 코</w>
직 접</w>
함 께
현 실</w>
호 구
같은 게</w>
어디 까지</w>
귀여 움</w>
처음 으로</w>
아바 타</w>
거부 합니다</w>
1 차</w>
2 4</w>
4 강
감 정
계 약</w>
고 쳐
극 장
기 능
김 호
니 들
루 나
만 드는</w>
못 하겠
미 스
성 형</w>
신 인</w>
심 함</w>
왜 저
웃 겼
원 딜
월 급
유 독</w>
조 각
주 세
카 펫</w>
커 리
탈 리
호 날
거같 긔</w>
코스 피</w>
나 냐</w>
날 라
내 야
달 고</w>
도 리</w>
뛰 어
무 페
물 고</w>
복 각
봐 줘</w>
비 율
사 제
아 픈
아 재</w>
온 냐</w>
이 걸로</w>
주 술
짤 은</w>
카 던</w>
평 소
생각 이</w>
아이 디</w>
ㅋㅋㅋㅋㅋㅋㅋㅋㅋㅋㅋㅋㅋㅋㅋㅋ ㅋㅋ</w>
존나 게</w>
여자 랑</w>
갤주 님</w>
컴퓨 터</w>
악의 꽃</w>
e n
구 도</w>
균 열</w>
냈 다</w>
뒤 진
레 인
매 수
복 구</w>
연 장</w>
이 에요</w>
정 의
파 트
피 는</w>
형 은</w>
아파 트</w>
5 년
9 월
가 디
걸 렸
겠 어</w>
기 적
기 업</w>
냐 ㅋㅋ</w>
넣 고</w>
듯 이</w>
라 니</w>
봤 음</w>
얍 얍</w>
여 름</w>
였 나</w>
였 어</w>
인 도</w>
치 는거</w>
타 자</w>
토 목
현 질
지금 도</w>
나왔 다</w>
500 0
아침 부터</w>
스카 우
올해 의</w>
이찬 원
티아 고</w>
1 일</w>
개 웃기
나 간
낫 다</w>
님 은</w>
모 닝</w>
못 하고</w>
번 트</w>
부 탁</w>
분 석
소 방
수 상
안 감</w>
알 아</w>
언 더
엔 씨
왔 쎄리</w>
워 녕
인 간</w>
잘 알</w>
정 가
출 신</w>
카 카오
호 는</w>
20 대</w>
모르 겠다</w>
이었 으면</w>
내일 은</w>
노트 20
드라 마
21 1</w>
시청 자
웨이 브</w>
3 4
g a
ㅈ ㄹ
강 남
거 아님</w>
계 획
기 아</w>
라 나</w>
만 하면</w>
물 냐
빠 른
선 넘
성 우</w>
슬 프
쓰 기</w>
아 아</w>
안 좋
왜 케
움 직
유 키
인 줄
일 찍
잡 을
적 폐
졸 라</w>
주 공
지 역</w>
찍 먹
차 는</w>
체 가</w>
초 딩
페 미</w>
핑 크
했 던
했 긔</w>
만들 면</w>
ㅇㅈ ㄹ
힘드 네</w>
이홍 구</w>
3 연
7 5
C K
ㅉ ㅉ</w>
갔 다가</w>
고 있는데</w>
구 린
노 예
니 까
다 가
도 적
드 림
때 리
몇 명
보 추
사 망
서 양
손 혁</w>
었 노</w>
예 약</w>
예 쁜</w>
위 에</w>
이 리
이 사
이 준
있 어요</w>
잘 어울
좆 같이</w>
찍 은</w>
청 소
출 시</w>
커 플
팬 들</w>
할 때
할 지</w>
햇 다</w>
해주 는</w>
노래 는</w>
왜이 래</w>
귀엽 다</w>
만나 면</w>
이간 질</w>
6 성</w>
9 강</w>
개 씨발
건 가요</w>
근 육
꼴 리네</w>
끝 남</w>
동 물
되 니까</w>
리 오
마 음</w>
망 가</w>
먹 네</w>
반 지
보 는거</w>
비 추</w>
성 인
센 세</w>
스 시
실 점</w>
올 리고</w>
윤 지
정 상</w>
조 아</w>
크 리스
트 루
틀 퀴
패 스
핑 크</w>
붕이 들은</w>
스타 일</w>
친구 들</w>
돌아 가
다이 아</w>
오랜 만
트위 터
진심 으로</w>
a s
p l
가 을
공 트</w>
눈 이</w>
능 력</w>
단 독</w>
돈 벌
듀 라
리 메이
모 두
몰 라</w>
수 강
싶 음</w>
옵 션
요 리
원 정
이 지만</w>
점 핑</w>
조 지
주 년
커 피</w>
탈 모
테 슬
페 코
홍 어</w>
좋아 서</w>
얼마 임</w>
노트 북</w>
ea t</w>
어떡 함</w>
조언 좀</w>
공혁 준</w>
어워 즈</w>
3 명</w>
4 년
R O
기 간</w>
꼴 데
끄 러
내 리
놈 들아</w>
니 쥬
리 얼</w>
마 일리
바 닥
받 냐</w>
발 견
병 원
삭 제</w>
순 간
스 팀
아 기</w>
연 기</w>
오 마이
왔 음</w>
전 자
팔 이</w>
프 라
기다 려
디자 인</w>
가성 비</w>
따효 니</w>
티셔 츠</w>
계 의</w>
근 장</w>
김 재
나 타
나 가면</w>
노 ㅋㅋㅋ</w>
다 는건</w>
대 구
들 끼리</w>
마 갤
모 름</w>
박 이</w>
보 고있
본 상</w>
섹 시
싸 개</w>
악 세
영 향
영 탁</w>
와 도</w>
위 키</w>
유 망
은 건</w>
이 서</w>
있 습니다</w>
조 건
체 력</w>
클 럽</w>
패 는</w>
하 라</w>
학 원</w>
문제 임</w>
마이 너
할수 록</w>
한테 는</w>
스밍 인증</w>
가 치
고 딩
고 민</w>
기 준이</w>
나 봉
도 착
따 먹
롱 빵</w>
뭐 있음</w>
봤 냐</w>
블 핑</w>
뽑 아야
세 대
스 키
앱 등
예 전</w>
오 스
우 우
으 론</w>
이 모</w>
인 성</w>
정 규
터 는</w>
할 때마다</w>
하고싶 은데</w>
4 성
갑 니다</w>
건 강
는 이유</w>
도 로</w>
로 만</w>
리 세</w>
말 하는</w>
메 가
모 험
배 틀
버 서
분 명</w>
살 짝</w>
생 이</w>
시 로</w>
신 정
안 녕</w>
언 니들</w>
예 비
잇 는데</w>
졌 어</w>
찾 음</w>
파 밍</w>
아닌 지</w>
친구 랑</w>
애미 들</w>
13 일</w>
NC다이 노스
1 일차</w>
4 강</w>
ㅣ ㅣ
귀 신
닉 네임</w>
먹 어야
못 참
미 사
바 보
배 송
보 이</w>
시 계
싫 음</w>
아 반
알 았다</w>
열 등
오 픈</w>
유 로</w>
이 다
저 기</w>
좆 도</w>
줘 서</w>
차 도</w>
참 여
컴 백</w>
크 래
크 는</w>
황 금
하는 중</w>
생각 남</w>
10 만
누구 야</w>
이유 가
괜찮 음</w>
그만 해</w>
경험 치</w>
다이어 트</w>
제주 도</w>
2 시간
4 개
s e
국 룰
글 을</w>
꺼 져</w>
넥 슨
는 구나</w>
대 표
뜬 금
로 헨
롤 드컵</w>
먹 는데</w>
먹 는거</w>
멸 망
물 은</w>
보 라</w>
불 법
뽑 기
선 이</w>
시 네</w>
실 제로</w>
쓰 네</w>
이 뻐</w>
정 해
주 로</w>
찾 았다</w>
캐 르</w>
플 옵
학 원
기분 이</w>
in g
키보 드
9 9</w>
나 봄</w>
데 요</w>
만 약
만 듬</w>
먹 어</w>
면 됨</w>
모 집</w>
받 네</w>
소 나</w>
속 성</w>
시 킨
안 했
았 으면</w>
어 로</w>
연 차
우 르
으 라고</w>
직 원
테 스트
피 아</w>
같은 건</w>
거같 애</w>
이기 면</w>
22 3</w>
느낀 점</w>
주말 에</w>
1 군
1 일
과 학
기 록
까 는
도 배</w>
동 은</w>
마 우스</w>
망 했
먹 지</w>
메 가</w>
뮤 비</w>
받 을</w>
사 쿠
수 험
스 찌
아 무</w>
이 겨
이 김</w>
자 이
정 글
줄 게</w>
집 착
키 스</w>
여자 들이</w>
느낌 이</w>
생각해 보면</w>
디시 콘</w>
모르겠 는데</w>
공무 원</w>
D UMD
o p
가 즈
네 좆
뉴 스</w>
니 다
려 도</w>
른 다</w>
먹 엇
먹 어서</w>
멀 티
몇 번
분 석</w>
사 장
시 고</w>
실 패</w>
애 비
외 모</w>
이 새끼
자 고
전 장</w>
주 사
주 자</w>
진 은</w>
통 피</w>
페 그오</w>
하 신</w>
하 겠다</w>
합 성
합 방</w>
생각 했는데</w>
레이 크</w>
만들 고</w>
라인 업
인방 갤</w>
선생 님</w>
게시 판</w>
S 7
ㄴ ㄴ</w>
가 짜
같 애</w>
갤 집</w>
검 사</w>
남 아</w>
됐 냐</w>
뒤 질
띠 니</w>
란 다</w>
망 가
박 근
스 펙</w>
아 탈
아 줌마
애 는</w>
에 게
엠 카</w>
위 로</w>
잘 해</w>
주 노</w>
초 보
플 로
홍 이</w>
이라 면</w>
괜찮 은데</w>
데이 트
데이 터</w>
생겼 네</w>
할만 함</w>
300 0
뉴빈 데</w>
2 는</w>
3 분
3 페
감 성
경 우
근 개
꼴 데</w>
나 은
동 수
매 일
메 모
메 시
본 적
분 이</w>
뿌 리
새 키
선 착
수 잇
않 아</w>
엄 마가</w>
유 리</w>
이 년</w>
조 아
지 코
창 국
체 감</w>
패 러
포 레
폰 으로</w>
피 드
하 마
20 0</w>
좋은 듯</w>
갤럭 시
초기 화
9 월</w>
G I
a i
글 리
는 게
대 냐</w>
덕 분에</w>
데 리
들 으면</w>
따 로
마 영
매 칭
모 임</w>
못 하면</w>
부 자
설 레
아 는데</w>
않 는</w>
오 류
오 후</w>
올 린</w>
유 럽
유 희
이 럼</w>
일 반</w>
있 어야</w>
자 존
주 는데</w>
캡 쳐
피 자
헤 카
ㅋㅋㅋㅋㅋㅋㅋㅋㅋㅋㅋㅋㅋㅋㅋㅋ ㅋㅋㅋㅋㅋㅋㅋㅋㅋ</w>
우리 도</w>
이런 거
네이 버
가축 들</w>
스밍 인증왔
유일 한</w>
금민 철</w>
2 루
4 성</w>
8 4
걸 린
결 혼</w>
고 등
김 봉준</w>
깨 달
나 보
남 캐
늦 게</w>
니 아
듣 는</w>
들 임</w>
못 한</w>
박 제
방 금
배 달</w>
부 활</w>
비 하
상 향</w>
성 우
세 가</w>
순 이</w>
쓰 리
오 름</w>
온 거</w>
용 으로</w>
있 게</w>
잘 하는
제 이</w>
쥬 얼
찍 었
친 다</w>
카 르
터 가</w>
팀 에</w>
편 임</w>
한 승
해 보고</w>
존나 웃기네</w>
재밌 게</w>
언제 나옴</w>
한번 에</w>
2 위
P C
l e
가 게</w>
가 치</w>
갔 으면</w>
거 라고</w>
노 부
노 블
도 안</w>
떴 네</w>
만 은</w>
만 갤</w>
보 성
보 수
선 동
아 들</w>
야 해</w>
요 청
우 리는</w>
이 의</w>
저 건</w>
줄 까</w>
지 니</w>
판 다</w>
팬 티
포 르
하 스</w>
한 화
나오 지</w>
사람 있음</w>
추천 점</w>
ㅠㅠㅠㅠ ㅠㅠㅠㅠ
어렵 네</w>
가슴 이</w>
기안 84</w>
아시 는분</w>
밸런 스</w>
s t</w>
갓 겜</w>
개 꿀</w>
갤 플</w>
경 북
깔 끔
더 러
로 리
많 노</w>
면 접</w>
몸 이</w>
문 의</w>
버 전
신 의</w>
여 초
원 피스</w>
이 따
저 걸</w>
좋 노</w>
지 무
지 는거</w>
천 재
크 가</w>
태 블
트 럼
퍼 는</w>
하 트
한 거야</w>
그런 거</w>
내일 부터</w>
통합 당</w>
이춘 향</w>
사이퍼 즈</w>
I N
p d
갓 기</w>
그 새끼</w>
글 섭</w>
내 면</w>
니 쥬</w>
대 중
대 학</w>
돌 리면</w>
듀 얼
떡 상</w>
라 는
레 스</w>
먹 을까</w>
살 면서</w>
시 험</w>
실 수
언 젠
일 로</w>
있 던</w>
잘 못</w>
조 사
죽 을
지 리
지 각</w>
토 목</w>
티 비</w>
프 가</w>
하 누</w>
현 재
히 트</w>
는거 같음</w>
ㅋㅋㅋㅋㅋㅋㅋㅋㅋㅋㅋㅋㅋㅋㅋㅋ ㅋㅋㅋㅋㅋㅋ</w>
메이 저</w>
트위 치
클리 어</w>
네이마 르
가 스</w>
거 짓
경 원</w>
교 보
김 성
나 노</w>
날 아
남 순</w>
넷 플
대 네</w>
되 었
들 었
똑 똑
머 리가</w>
민 트
박 살
버 는</w>
사 가
소 감</w>
신 한
심 한</w>
연 구
온 라인
이 명
이 요</w>
입 은</w>
자 면</w>
자 의</w>
좋 겟다</w>
중 독
지 워
크 림
티 저
프 리</w>
궁금 한거</w>
비슷 한</w>
주인 공
엉덩 이</w>
양준 일
o r</w>
괴 물
김 진
다 면서</w>
된 거임</w>
둘 중</w>
말 복
바 퀴
박 원
받 아</w>
법 좀</w>
부 랄
비 주
사 는데</w>
서 는</w>
섭 은</w>
시 대</w>
야 동
어 음</w>
오 류</w>
욕 하는</w>
조 계
주 술사</w>
초 딩때</w>
코 어</w>
탈 퇴
하 트</w>
핫 산</w>
같은 거
아이 디
어디 임</w>
ㅋㅋㅋㅋㅋㅋㅋㅋㅋㅋㅋㅋㅋㅋㅋㅋ ㅋㅋㅋㅋㅋㅋㅋㅋㅋㅋ</w>
다음 에</w>
ㅇㅅ ㅇ</w>
자전 거</w>
은근 히</w>
장원 영</w>
1 명</w>
4 7
6 6
9 5
개 미
겨 드
고 생
교 체
구 매</w>
근 무
단 발
된 거
라 핌
레 나</w>
모 의
방 은</w>
방 이</w>
방 패</w>
수 고
수 익
스 크</w>
시 티
싹 다</w>
아 싸
연 애</w>
옷 장</w>
유 료
이 게임</w>
전 쟁</w>
좋 더라</w>
짤 녀
철 염
코 디
타 라</w>
펀 치</w>
피 셜
해 놓
재밌 는데</w>
12 1</w>
프리 뷰</w>
이였 는데</w>
도와 줘</w>
생기 면</w>
초반 에</w>
공무 원
정우 람</w>
3 위
3 페</w>
ㅅ ㅁ
가 장
갈 때</w>
거 리는</w>
검 사
고 나
관 심</w>
김 에</w>
나 가서</w>
늒 네
대 기</w>
드 네</w>
뜨 냐</w>
망 한</w>
며 칠
모 습
못 하는
봤 어</w>
상 자
시 벌</w>
아 씨발</w>
악 마
여 행</w>
영 원
원 하는</w>
위 치</w>
윤 지</w>
장 점</w>
조 만
크 기</w>
프 린
확 진자</w>
나오 노</w>
들어 가면</w>
아이 피</w>
ㅋㅋㅋㅋㅋㅋㅋㅋㅋㅋㅋㅋㅋㅋㅋㅋ ㅋㅋㅋㅋㅋ</w>
안되 지</w>
이거 지</w>
그러 면</w>
나올 듯</w>
ㄱㄱ ㄱ</w>
바르 샤</w>
스트리 머
이래 서</w>
투기 장</w>
비슈바 크</w>
만약 에</w>
포레 스텔
2 시간</w>
I A</w>
w a
갈 수록</w>
국 밥</w>
그 리</w>
남 이</w>
듀 오</w>
라 는게</w>
뭐 하는</w>
보 드
봤 자</w>
부 로</w>
빨 고</w>
사 냥</w>
수 련
시 계</w>
싶 네</w>
싶 으면</w>
쓰 는게</w>
알 아서</w>
앚 퀴
야 한
어 깨
임 대
있 긴</w>
자 야지</w>
잖 음</w>
장 도</w>
좋 을까</w>
증 거</w>
출 연
탈 주
할 건데</w>
홍 보</w>
황 희
히 면</w>
는거 보면</w>
좋아 하는
시리 즈
헬스 장</w>
드래 곤
모리 즈</w>
커뮤 니
구 요</w>
국 은</w>
근 첩</w>
기 념
나 주
네 좆</w>
노 는</w>
뉴 짤</w>
달 라</w>
대 면</w>
더 럽
된 다고</w>
둘 중에</w>
로 드
리 아
몇 퍼
문 코리
바 이</w>
배 가</w>
벌 레</w>
보 낸
시 까지</w>
아 크</w>
의 심
이 엇
조 정
지 방</w>
짜 리
착 각
착 한
참 고
클 라
특 이
포 수
현 금
아이 유
아이 스크
나올 때</w>
미통 당</w>
디렉 터</w>
부동 산</w>
S7 k</w>
2 번</w>
9 강
ㅇ ㄷ
가 스
개 가</w>
계 획</w>
구 다
꺼 지
끝 난
남 았는데</w>
냐 는</w>
너 는</w>
돌 릴
되 는게</w>
든 다</w>
레 알</w>
만 루
먹 고싶
솔 플
스 갤</w>
시 세</w>
운 전
은 하</w>
인 프
잔 다</w>
지 켜
지 ㅋㅋ</w>
직 캠
칸 나</w>
페 르
현 황</w>
아니 긔</w>
ㅋㅋㅋㅋㅋㅋㅋㅋㅋㅋㅋㅋㅋㅋㅋㅋ ㅋㅋㅋㅋ</w>
ㅋㅋㅋㅋㅋㅋㅋㅋㅋㅋㅋㅋㅋㅋㅋㅋ ㅋㅋㅋㅋㅋㅋㅋㅋㅋㅋㅋㅋ</w>
이라 니</w>
모르 고</w>
한국 에서</w>
고있 네</w>
잘생 김</w>
얼굴 이</w>
해보 자</w>
할만 한</w>
그렇 고</w>
타이 밍
신인 상</w>
유일 하게</w>
노가 다</w>
라디 오</w>
GI F</w>
1 10
2 분
3 만
5 주년</w>
z z
ㅎ ㅇ
가 기
가 노</w>
개 조
개 로</w>
겨 우</w>
고 우
과 연</w>
근 대</w>
급 식</w>
기 랑</w>
내 놔</w>
다 님</w>
단 계</w>
맞 나</w>
매 매
메 타</w>
뽑 으면</w>
수 능</w>
승 률</w>
아 빠</w>
안 나</w>
애 정
어 이</w>
어 냐</w>
연 갤</w>
왕 따
우 결
우 유
전 부터</w>
정 수
죄 송
주 는게</w>
지 수</w>
찍 었다</w>
타 로</w>
트 리</w>
틀 어
피 부
하 드</w>
할 래</w>
해 볼까</w>
마스 크
인터 넷</w>
알았 음</w>
누군 데</w>
r o
경 우</w>
고 다</w>
끝 날
년 들
단 점</w>
려 는</w>
로 켓
멘 탈
못 하냐</w>
문 파
미 나</w>
방 구
밴 드</w>
버 튼</w>
본 인이</w>
속 성
숙 제
업 적</w>
없 으니</w>
원 도</w>
일 기</w>
자 꾸
작 품
탈 락
토 르
판 은</w>
한 텐</w>
병신 임</w>
일본 에서</w>
문재 인
씨발련 들아</w>
어몽 어스</w>
2 기
3 9</w>
4 8</w>
D 59</w>
가 까
가 든
고 치
곳 이</w>
구 분
까 면</w>
나 고</w>
높 은
높 은</w>
달 에</w>
대 형
든 든
딸 이</w>
루 루
머 니
몬 스터</w>
무 과금
보 석</w>
상 점</w>
생 축
알 리
엔 씨</w>
연 재
유 전
이 네
이 마
이 중
인 원</w>
인 척</w>
있 더라</w>
전 부
조 센
최 적
킹 롤</w>
틱 톡</w>
패 널
프 트
생각 하냐</w>
해야 하냐</w>
해야 되냐</w>
씨발 년아</w>
모르겠 고</w>
그렇 지</w>
요일 에</w>
블루 카펫</w>
씨발련 아</w>
연예 인</w>
엘롯 연합</w>
4 2
T X
m m
감 동
걸 린</w>
걸 그룹
겟 노</w>
구 제
그 저</w>
당 하면</w>
데 뷔</w>
도 박
도 서
도 르</w>
마 라
많 았
메 시</w>
무 난
바 에</w>
방 탄</w>
빌 드
상 렬
수 급
어 플</w>
어 우</w>
오 후
오 버</w>
오 는데</w>
음 해
이 안
읽 어
자 위
장 기
준 비</w>
처 럼
코 코
키 로
키 면</w>
튀 어
프 랑
향 이</w>
회 차</w>
아니 라고</w>
올라 옴</w>
50 0</w>
떨어 짐</w>
잘생 긴</w>
귀여 운
시키 면</w>
보고싶 어</w>
대단 하다</w>
레전드 네</w>
마지막 에</w>
부탁 드립니다</w>
경원 반지</w>
전성 기</w>
포켓 몬</w>
3 명
4 9
L 30
가 축</w>
고 잇
그 때</w>
그 동안</w>
달 성</w>
라 포
말 도</w>
못 생긴
브 론
살 이</w>
서 포트</w>
수 호
승 리</w>
시 나</w>
실 에서</w>
어 깨</w>
없 찐
올 려</w>
외 퀴
좋 을
지 현
지 들이</w>
질 이</w>
차 별
투 력</w>
파 란
팡 이</w>
하 자마자</w>
한 달</w>
한 정</w>
했 잖아</w>
회 복
흑 인
여자 들은</w>
아무 나</w>
다이 아
올해 는</w>
자주 국
플러 스</w>
아저 씨</w>
사르포 자</w>
테슬 라</w>
L30 k</w>
A ga
개 잘
갤 탭
내 역</w>
대 충
동 의
들 을
똥 퀴들</w>
만 남</w>
매 도
몸 매
뭘 로</w>
보 가</w>
부 리
빡 치
사 지</w>
성 희
속 이</w>
시 도</w>
에 피
완 성
웠 다</w>
이 만</w>
자 야
저 씨
정 가</w>
좋 다고</w>
초 월</w>
태 그</w>
터 로</w>
토 토
티 콘</w>
할 배
하는 것도</w>
이라 는게</w>
여기 는</w>
프로 필</w>
뉴비 들</w>
미쳤 다</w>
이미 지
모바 일</w>
RO CK
조만 간</w>
R ol
ㄱ ㅈ
가 리
강 의</w>
교 통
꺼 져
남 친</w>
느 그</w>
다 닐
당 한
도 못
루 는</w>
류 준
버 러
보 석
브 앱</w>
비 해</w>
뽑 음</w>
시 즈
안 해주
에 다</w>
연 속
웅 이</w>
원 본</w>
유 로
이 에</w>
저 스</w>
짤 드컵</w>
참 기</w>
챔 피
클 릭
한 개
한 화</w>
했 을때</w>
허 벅
혀 서</w>
회 로</w>
생각 해도</w>
사람 도</w>
이상 한
기대 된다</w>
해줘 라</w>
익스 프레스</w>
마그 멜</w>
무페 토</w>
ing Rol
양준일 갤</w>
ROCK ingRol
3 성
4 번
L C
가 고싶다</w>
같 으면</w>
개 념</w>
그 대로
기 어</w>
기 야</w>
나 비
내 내</w>
단 이</w>
딸 치
먹 었네</w>
문 학</w>
사 도
살 만
수 면
스 를</w>
스 드</w>
신 발</w>
안 팔
알 림</w>
어 어</w>
언 니
영 은</w>
옹 이</w>
왔 킹롤</w>
웅 장
장 면
재 미</w>
전 라도
정 은
지 는데</w>
지 현이</w>
쪽 팔
판 에</w>
해 제</w>
호 불
희 재
아이 콘</w>
얼마 냐</w>
11 시</w>
느낌 임</w>
기사 사진</w>
마음 에</w>
이어 폰</w>
울트 라</w>
2 명
5 만
S D</w>
건 드
경 제
경 녀</w>
공 통
그 린</w>
끼 리
너 스</w>
데 리고</w>
돼 서</w>
되 는거냐</w>
뒤 집
등 급</w>
뜨 는</w>
러 셀</w>
몰 아
못 쓰
봉 준이</w>
브 가</w>
사 나
스 마갤</w>
알 지</w>
연 봉</w>
예 능
윤 도
이 겜은</w>
인 연
정 동
좆 됐다</w>
지 는
지 리네</w>
초 반</w>
최 애
치 명
토 끼</w>
트 롤
포 도
포 함
허 벌
ㅋㅋㅋㅋㅋㅋㅋㅋㅋㅋㅋㅋㅋㅋㅋㅋ ㅋㅋㅋㅋㅋㅋㅋㅋ</w>
붕이 들이</w>
메이 저
염보 성이</w>
그러 냐</w>
선수 들</w>
사라 짐</w>
노무 현
라라 라라
이재 명</w>
적당 히</w>
매니 저</w>
고구 마</w>
3 7
3 성</w>
4 5</w>
t h
ㅇ ㅇㅇ</w>
ㅎ ㅇ</w>
구 로</w>
국 에</w>
나 무</w>
남 은
로 마
매 칭</w>
못 생
무 너
바 는</w>
방 역
법 사</w>
보 정
비 틱</w>
빠 진
사 는거</w>
서 가</w>
스 워
시 점</w>
신 나
아 야</w>
안 댐</w>
안 하는데</w>
애 비</w>
애 기</w>
여 중
용 이</w>
원 더
자 격
재 수
중 망호</w>
지 지</w>
초 동</w>
최 소
최 용
치 로</w>
표 정
햇 네</w>
했 을
이번 시즌</w>
거같 네</w>
그런 지</w>
한다 는데</w>
만들어 서</w>
Aga in
3 8
3 5</w>
p s
강 정
겟 음</w>
고 장
구 멍
그 건</w>
기 상</w>
깨 워
낫 네</w>
는 사람</w>
다 네</w>
딱 히</w>
떠 서</w>
못 해서</w>
무 엇
무 과금</w>
문 투
뭐 해</w>
배 당
변 경</w>
보 는게</w>
북 이</w>
비 스
세 상</w>
센 터</w>
시 면</w>
시 부터</w>
아 지</w>
애 들도</w>
었 나</w>
었 지</w>
이 로
줄 어
집 회
타 카
탈 출</w>
터 지면</w>
테 라
트 도</w>
팬 티</w>
피 겨
하 십시오</w>
허 리
효 율
히 네</w>
지금 부터</w>
정상 이냐</w>
알아 보자</w>
선택 권</w>
스러 운</w>
여고 딩</w>
2 명</w>
3 대</w>
i n</w>
ㅌ ㅌ
가 정
구 글
끼 면</w>
나 는거</w>
너 프</w>
단 어
닮 음</w>
로 스트
뽑 은</w>
사 로</w>
새 봄
십 쇼</w>
십 니까</w>
쓸 데
아 줌마</w>
얘 가</w>
여 갤러
우 기</w>
우 린</w>
유 입</w>
자 지
재 앙</w>
졌 냐</w>
줄 은</w>
찍 었는데</w>
키 고</w>
태 양
틀 퀴들</w>
파 스타</w>
판 이</w>
패 고</w>
평 범
포 카
하 려나</w>
합 격</w>
현 역
이제 는</w>
무섭 다</w>
로빈 치</w>
5 개</w>
5 만원
L I
고 오
구 조
기 술</w>
꼴 리면</w>
꾹 삐
당 하고</w>
더 워서</w>
됐 음</w>
디 는</w>
랭 킹</w>
루 트</w>
맞 는듯</w>
미 쳐
분 노
사 퍼</w>
삼 겹
선 택</w>
씹 덕</w>
씹 슴</w>
에 스
의 대
인 거임</w>
저 능
전 역
전 용
즈 원</w>
징 크
책 임
하 이</w>
할 텐데</w>
좋아 해</w>
고있 다</w>
올려 줘</w>
14 0
키우 는</w>
나이 트</w>
안나오 네</w>
무섭 네</w>
역겹 네</w>
박진 영</w>
영지 점</w>
1 대
4 개</w>
6 1</w>
t i
ㅍ ㅍ</w>
가 니까</w>
감 자
고 수</w>
기 냐</w>
돌 림</w>
됐 노</w>
뒷 광고
딜 러</w>
매 크로</w>
민 심</w>
발 라
선 권</w>
세 탁
소 드</w>
스 에서</w>
시 브</w>
아 파</w>
앗 다</w>
어 따
없 나요</w>
왜 자꾸</w>
웨 이</w>
유 출</w>
으 려고</w>
이 분</w>
전 력
조 이</w>
존 잘</w>
좆 슨</w>
채 원</w>
철 권
토 트
트 에서</w>
특 별
평 타
하 죠</w>
모르 는데</w>
12 시</w>
필요 한</w>
미친 놈
힘들 어</w>
유진 이</w>
승리 하고</w>
블랙 핑크</w>
정확 히</w>
피규 어</w>
6 천
가 끔
가 라
금 수저
났 노</w>
높 음</w>
는 다고</w>
대 도</w>
독 일
동 시에</w>
뒤 져
디 지
떳 는데</w>
로 우
리 액
많 다</w>
몰 려
뭐 있냐</w>
바 라</w>
받 는거</w>
발 전
백 용
버 려</w>
벤 치
보 조
볼 수록</w>
분 은</w>
븝 딱
빈 이</w>
빠 따
뽑 고</w>
삼 국
상 남자
석 은</w>
수 인
실 점
아 크
어 릴때</w>
유 출
을 수
이 정도
인 치</w>
임 영웅</w>
자 해
잘 하면</w>
잠 이</w>
찐 특</w>
차 로</w>
카 나</w>
타 면</w>
파 서</w>
풍 월
히 히
ㅋㅋㅋㅋ ㅋㅋㅋ
씨발 년</w>
좋은 게</w>
지금 이</w>
200 80
만들 기</w>
다행 이다</w>
카메 라
스마 트
0 6
1 루
1 만
1 티어</w>
2 50
6 5
A T
f eat</w>
고 있는</w>
공 공
꾹 찜</w>
느 바</w>
다 ㅋㅋㅋ</w>
데 바
라 미
랑 은</w>
러 시아</w>
리 뷰</w>
맛 이</w>
매 물</w>
버 즈</w>
보 세요</w>
불 가</w>
브 금
비 게
색 이</w>
소 득
숙 제</w>
실 버
아 리</w>
아 트</w>
안 될
안 맞
어 플
온 라인</w>
완 료
이 누
일 상
적 응
전 장
정 식</w>
중 이다</w>
지 속
찍 덕
타 마
팬 덤</w>
페 이지</w>
포 스터</w>
프 메</w>
하 길래</w>
힘 듬</w>
이상 함</w>
이상 하게</w>
한국 인
시즌 2
한남 들</w>
아니었 냐</w>
이찬 원</w>
미나 미
라라라라 라
1 억</w>
4 대
n t
간 거</w>
갈 라
경 이</w>
그 니까</w>
근 로
기 타</w>
노 스</w>
노 ㅋㅋㅋㅋ</w>
녹 두
눈 팅
눈 에</w>
담 주</w>
대 화
두 산
똥 찬</w>
러 브
말 투</w>
메 일</w>
메 뉴</w>
민 아</w>
베 리
보 냈
사 에</w>
살 리
생 리
숙 이</w>
스 윙
신 수
아 름
없 었으면</w>
오 고</w>
올 시즌</w>
왔 으면</w>
위 가</w>
이 겜
이 보다</w>
익 스</w>
잦 돌
제 작</w>
종 목</w>
좆 소
줬 는데</w>
체 험
추 방
파 괴
패 배
퍼 가</w>
포 스</w>
혁 이</w>
혈 귀</w>
는거 아님</w>
사람 인데</w>
이러 냐</w>
어렵 다</w>
마음 이</w>
바르 샤
아쉽 네</w>
한마 디
서건 창</w>
아탈 란
1 티어
2 배
5 9
s k
개 봉
공 격</w>
꾸 라</w>
꾸 니</w>
나 지</w>
내 놓
네 ㅋㅋㅋㅋㅋ</w>
늦 게
단 디
대 문</w>
등 판
망 겜</w>
무 지
무 게</w>
문 의
민 호</w>
방 패
볼 수
봤 네</w>
수 술
쓸 모
쓸 만함</w>
아 칼
안 했는데</w>
앰 창
여 캠</w>
열 이</w>
요 리</w>
윤 석
의 식
잇 엇
있 는거임</w>
자 세
자 대</w>
전 화</w>
짤 이</w>
천 사
피 통</w>
해 줄</w>
해 설</w>
들어 서</w>
필요 함</w>
프레 임
입장 에서</w>
스위 치</w>
지하 철
마인 드</w>
세라 핌</w>
키움 히어로
왜이러 냐</w>
박찬 호</w>
라비던 스마갤</w>
진정 한</w>
강다니엘 갤</w>
Again 신곡
4 6
5 5</w>
6 시</w>
m b
p c</w>
ㅍ ㅌㅊ</w>
개 편
갤 의</w>
거 울
것 같다</w>
교 육</w>
기 대</w>
김 혜
넣 음</w>
뒤 로</w>
머 뷔
멸 망</w>
뭐 냐
백 업
붙 어
설 명</w>
없 잖아</w>
영 탁
은 카</w>
장 발
절 반
좀 만</w>
지 듣
집 회</w>
짱 개
찜 앰
차 가</w>
초 코
축 하</w>
트 와이
팝 니다</w>
포 함</w>
하 꼬
합 리
해 줬으면</w>
했 나</w>
했 다가</w>
우리 나라</w>
시작 한</w>
올라 왔
시발 아</w>
문제 는</w>
프로 듀
게이 들</w>
마지막 으로</w>
2008 12</w>
남순 이</w>
첫방 축하왔
대한민 국</w>
ㅅㅁ ㅇㅈ</w>
단디 왔쎄리</w>
4 4
N T
ㅈ 같네</w>
ㅋ ㄱ
각 인</w>
공 앱</w>
공 매도</w>
관 계</w>
구 림</w>
굿 즈
기 관
누 나가</w>
대 서</w>
동 양
들 음</w>
먹 이
몰 라서</w>
문 과
바 지
반 박
보 정</w>
쉬 움</w>
았 노</w>
어 서
오 승
윤 영
이 팀</w>
이 대로</w>
인 물</w>
전 혀</w>
점 프
좋 았는데</w>
커 플</w>
코 트
퀘 스트
판 매</w>
피 자</w>
함 ㅋㅋ</w>
해 봐라</w>
해 진다</w>
사람 을</w>
어디 로</w>
어디 냐</w>
언제 임</w>
괜찮 은</w>
노래 가</w>
부터 가</w>
선생 님들</w>
꼬라 지</w>
중간 에</w>
괴롭 히
이찬원 마갤</w>
3 번</w>
5 6
국 수</w>
그 랑
네 네
노 답
노 가</w>
놀 이</w>
단 계
데 도</w>
랬 는데</w>
마 레</w>
말 인데</w>
망 구</w>
멘 탈</w>
모 션</w>
무 라</w>
미 드</w>
밥 먹
보 호
브 앱
뽑 았는데</w>
살 짝
아 다</w>
어 짜
요 새
이 죠</w>
쟁 이
적 어
제 외
제 는</w>
좆 두</w>
짱 깨</w>
캐 는</w>
코 토
트 롯
해 외</w>
하나 로</w>
언제 까지
여기 에</w>
14 일</w>
있는 사람</w>
없는 듯</w>
시키 고</w>
하겠 습니다</w>
남았 네</w>
빠르 게</w>
마무 리</w>
아티 스트
아키 노</w>
시너 지</w>
1 시</w>
2 년</w>
4 천
T S
a m
가 다</w>
가 진</w>
개 장
건 담</w>
급 은</w>
끌 어
나 아
니 지
단 기</w>
당 은</w>
더 라도</w>
되 는거지</w>
들 면</w>
레 드</w>
망 한
백 호</w>
부 반</w>
사 나</w>
안 할
안 이</w>
안 하는
여 동생</w>
오 가</w>
위 키
인 이유</w>
졌 노</w>
조 각</w>
주 나</w>
주 는거
폴 라</w>
한 적
혼 란
화 력</w>
희 재</w>
시작 했는데</w>
아닌 거</w>
ㄷㄷㄷㄷ ㄷㄷ</w>
그러 는데</w>
한거 같음</w>
17 0
한다 면</w>
노트 북
신기 하네</w>
안나오 냐</w>
어렵 냐</w>
알았 네</w>
그립 다</w>
광복 절</w>
신민 혁</w>
가즈 아</w>
2 군</w>
2 7</w>
5 개
b o
ㅂ ㄷ
ㅂ ㄹ</w>
ㅅ ㄱ
가 려
개 는</w>
갤 질</w>
거 의
고 로
고 통
눈 물</w>
단 장
도 라
도 록</w>
되 겠네</w>
렌 탈
련 아</w>
리 모
린 데</w>
마 감
망 겜
미 주
반 고</w>
버 릴
샌 드
시 조
시 는데</w>
씨 가</w>
없 었는데</w>
여 동생
오 락
오 브
왔 찬또</w>
음 원
있 을</w>
있 어야
잘 한다</w>
전 소
점 에</w>
조 이
좋 게</w>
주 말</w>
찍 을
취 업
커 가</w>
크 보</w>
크 린이</w>
피 통
해 피
라이 온
ㅋㅋㅋㅋㅋㅋㅋㅋㅋㅋㅋㅋㅋㅋㅋㅋ ㅋㅋㅋㅋㅋㅋㅋㅋㅋㅋㅋ</w>
좋아 하는데</w>
이라 고
시작 함</w>
에서 만</w>
나온 다고</w>
궁금 해서</w>
16 0
보고 가라</w>
스카 디</w>
축하 해</w>
틀딱 들</w>
어떡 하냐</w>
비비 큐</w>
박정 수</w>
카운 터</w>
연예 인
장애 인
김연 아</w>
만큼 은</w>
아무리 봐도</w>
1 던</w>
3 3</w>
ㅇ ㄱ
개 판
것 도
계 란
고 나서</w>
공 감
기 타
김 정
꺼 내
년 대</w>
력 은</w>
를 까</w>
마 츠
만 붕이</w>
못 봄</w>
뭐 하는
바 꾼
박 으면</w>
받 았다</w>
받 은거</w>
배 경</w>
봊 돌</w>
빌 려
성 욕
성 을</w>
실 적</w>
심 이</w>
쓴 다</w>
아 케
안 사
안 치
염 색
오 브</w>
으 려면</w>
의 상
이 더라</w>
인 원
자 라</w>
작 전
장 려
주 간
중 이</w>
쯤 에</w>
코 미
크 루
타 자
토 미
하 향
한 건데</w>
행 사</w>
훈 이</w>
병신 같은</w>
재밌 어
재밌 어</w>
씨발 련</w>
사이 버
사이 드</w>
이였 네</w>
클리 어
이지 랄</w>
일주 일</w>
프라이 즈</w>
s a</w>
ㅍ ㅌㅊ
ㅜ ㅜㅜ</w>
가 수</w>
강 제
개 좆같
거 랑</w>
구 단</w>
기 본</w>
김 지
나 감</w>
너 구리</w>
동 희
뒤 진</w>
라 며</w>
로 가</w>
맞 으면</w>
몇 살
문 학
미 니</w>
선 배
셀 카</w>
소 에서</w>
수 를</w>
스 프
신 비
실 시간
쓸 때</w>
에 휴</w>
여 사
여 왕
이 때</w>
인 천
인 별</w>
입 고
전 투</w>
졸 라
차 트
천 천
특 징
할 까요</w>
햇 음</w>
아니 시발</w>
아니 었음</w>
고싶 은</w>
아이 템</w>
나왔 음</w>
사이 에</w>
만들 었
염보 가</w>
는데 요</w>
좋겠 긔</w>
에어 컨
스포 츠
갤럼 들</w>
스트레 스</w>
광복 절
박원 순</w>
TX T</w>
I T
b b
결 승</w>
고 아
기 르
꼬 추
나 갔
님 의</w>
당 당
대 표</w>
도 란
도 시</w>
디 코
똑 같은</w>
량 이</w>
만 렙
만 의</w>
모 스</w>
버 리네</w>
벌 어
불 가
빠 져
수 지</w>
수 리</w>
시 킬
없 을까</w>
에 러
에 다가</w>
일 시</w>
임 ㅋㅋ</w>
저 번</w>
전 공
조 상
조 건</w>
찜 이</w>
쳐 발
출 발
충 격</w>
충 인데</w>
친 추
투 구</w>
틱 톡
파 냐</w>
파 트</w>
판 단
프 렌
하 아</w>
하 지않음</w>
한 시간
후 기
10 월</w>
씨발 년들아</w>
그러 니까</w>
보고 가</w>
ㅅㅅㅅㅅ ㅅ</w>
미쳤 노</w>
싫어 함</w>
바꾸 면</w>
어쩌 고</w>
미안 한데</w>
방어 구</w>
김우 석</w>
댕댕 이</w>
2 9</w>
3 1</w>
c m
i c
ㄴ ㄴ
ㅇ ㅁ
ㅈ ㄹ</w>
ㅌ ㅍ
가 세
각 성</w>
개 사기
갤 임</w>
경 기는</w>
공 중
공 장</w>
기 상
나 머지</w>
노 블</w>
는 건가</w>
달 소</w>
도 저
돈 을</w>
두 면</w>
떡 이</w>
련 들</w>
로 운</w>
마 구
마 니
매 번</w>
매 출</w>
봐 봐</w>
사 은
상 식
스 갤
아 씨</w>
야 스</w>
어 릴
에 바</w>
여 장
역 사</w>
역 전</w>
예 고
오 는거</w>
완 결
운 이</w>
원 딜</w>
음 료
음 바
이 새끼들은</w>
인 도
정 식
정 화
종 결
줘 야지</w>
쳐 다
초 대
초 등
치 기
카 오</w>
케 이가</w>
탈 리스
토 론
토 벌</w>
트 라이
플 옵</w>
학 창
환 이</w>
ㅋㅋㅋㅋㅋㅋㅋㅋㅋㅋㅋㅋㅋㅋㅋㅋ ㅋㅋㅋㅋㅋㅋㅋㅋㅋㅋㅋㅋㅋㅋ</w>
스토 어</w>
괜찮 네</w>
일본 어</w>
인터 뷰
베르 너</w>
오태 곤
어디갔 냐</w>
아반 떼</w>
2 가</w>
5 일
6 성
ㅇ ㄷ</w>
가 봐</w>
간 호
개 새끼</w>
걸 리냐</w>
검 은</w>
까 질
너 가</w>
노 수
단 장</w>
닮 은</w>
둘 다
똑 같
러 블리
로 스</w>
롱 빵
리 티</w>
막 상</w>
만 으로</w>
모 음
모 아서</w>
박 세
버 블
본 데</w>
뽑 았
속 도
시 에
신 가요</w>
심 하네</w>
아 틀
안 하네</w>
요 약
워 요</w>
유 사
응 애
잡 음</w>
잡 으면</w>
저 격</w>
좋 겠네</w>
주 차
지 박
지 랑</w>
직 장
출 근</w>
크 네</w>
통 일
피 싸개
할 땐</w>
행 정
현 은</w>
아니 근데</w>
들어 감</w>
방송 은</w>
알려 주
하고싶 어</w>
나와 라</w>
자체 는</w>
ㅡㅡㅡㅡㅡㅡㅡㅡ ㅡㅡ
세상 에</w>
몰랐 는데</w>
이정 후</w>
우파 메카노</w>
0 8
X B
l o
간 에</w>
강 동
걸 려서</w>
김 선
꺼 면</w>
놀 랍
놀 이
대 문
돌 리는</w>
돌 리고</w>
등 이</w>
라 핌</w>
리 가
리 더
리 에</w>
마 대
만 만
부 부
소 년
쇼 미
시 녀
시 비
시 장
아 츠
야 한다</w>
언 플
엔 젤
여 신</w>
예 장</w>
외 야
요 한</w>
워 치</w>
은 거임</w>
음 원</w>
이 하
인 사</w>
자 짤</w>
저 랑</w>
죽 음</w>
찜 은</w>
쳤 는데</w>
커 는</w>
커 스</w>
커 미션</w>
피 겨</w>
필 터
한 계
생각 해</w>
들어 가서</w>
좋은 거
좋은 거임</w>
모르 겠네</w>
일러 가</w>
오르 네</w>
보여 주
어려 운
누군 지</w>
대깨 문
수사 렌</w>
노가 다
아버 지</w>
2020 년</w>
침착 맨</w>
황희 찬</w>
3 시간
4 시간
u n
교 환</w>
그 렸
기 자
년 도
뇌 절</w>
눈 나
대 답
도 네</w>
도 란</w>
독 립
돌 파
동 일
두 번</w>
드 랑</w>
들 었는데</w>
떡 고</w>
라 타</w>
매 수</w>
모 델</w>
뭐 냐고</w>
미 미
바 꿈</w>
보 구
부 대</w>
부 부</w>
사 항</w>
안 보이
얘 네
어 휴</w>
연 출</w>
이 가
자 사
자 임</w>
재 업</w>
재 넌</w>
좆 돌
체 결</w>
치 는데</w>
투 스</w>
페 스
페 도</w>
픽 뚫
필 기
하 냐
활 동</w>
새끼 도</w>
가능 성
프리 미
프로 그램</w>
일어 나서</w>
머두 링
어떨 까</w>
어카 냐</w>
ㅎ ㅎㅎ</w>
계 란</w>
굴 비</w>
놀 라
뉴 스
대 부분
덕 질
도 우
딱 이</w>
려 니</w>
메 인</w>
멘 트</w>
믿 을
발 언</w>
보 려고</w>
보 시긔</w>
붙 으면</w>
븝 퍼</w>
빠 짐</w>
솔 로</w>
쉬 운
시 도
실 물</w>
실 제</w>
싶 어
안 해
않 은</w>
았 나</w>
야 생
어 류
없 었음</w>
연 봉
요 구
운 영</w>
의 미</w>
이 걸
일 섭</w>
잘 나가
저 기
저 가</w>
전 엔</w>
중 고</w>
진 행</w>
쪽 으로</w>
창 년</w>
추 이</w>
컷 이</w>
탱 이</w>
통 이</w>
푸 엉
프 는</w>
하 락
효 율</w>
나오 나</w>
고싶 은
어디 에</w>
하나 가</w>
이상 해</w>
15 00
보이 스</w>
파이 터</w>
여고 생</w>
확률 로</w>
라운 드</w>
학치 커</w>
거기 서</w>
TO P</w>
파수 꾼</w>
박주 홍</w>
손가 락</w>
호날 두</w>
0 5</w>
2 인
5 8
a k
a t</w>
고 추</w>
공 연</w>
권 은</w>
급 임</w>
기 는데</w>
긴 하다</w>
나 잇</w>
단 순
달 러</w>
당 분
더 워</w>
덤 디</w>
두 명
뒤 짐</w>
러 가</w>
련 들아</w>
몇 일
무 새
민 주</w>
바 가</w>
발 로
보 러</w>
보 이면</w>
복 지
브 레이
빌 런</w>
사 료
생 들</w>
소 환</w>
수 치
승 이</w>
싶 어서</w>
싸 게</w>
쓰 지</w>
아 주
악 물고</w>
안 씀</w>
야 이</w>
업 글
은 행
음 악</w>
이 은
이 새끼는</w>
인 형</w>
자 총</w>
작 품</w>
재 기
적 임</w>
접 는다</w>
줘 야</w>
창 렬
토 벌
피 방
한 게
해 킹
현 직</w>
환 급
후 려
히 나
하는 이유</w>
안되 는거</w>
이번 달</w>
11 7</w>
소리 바다
이런 건</w>
으로 만</w>
문재 앙</w>
무서 운</w>
영웅 이</w>
커여 운</w>
트레 저</w>
히어 로</w>
포지 션
김준 수갤</w>
아이스크 림</w>
2 8</w>
3 2</w>
5 억
9 7</w>
X IA</w>
a p
ㅈ 같
갤 길
경 민</w>
경 상도</w>
공 산
금 요일</w>
기 존
나 가는</w>
덕 에</w>
래 도</w>
로 갓
르 는</w>
리 셋
마 카
말 에</w>
말 곤</w>
먹 는다</w>
뭐 로</w>
민 은</w>
병 원</w>
복 커
불 가능
비 아</w>
사 업
사 과</w>
사 장</w>
세 일
소 드
신 레
않 네</w>
없 다
없 제</w>
에 리
여 전히</w>
예 리
오 라</w>
오 토</w>
올 림
왓 는데</w>
용 선권</w>
운 지</w>
이 따</w>
이 거임</w>
잘 하냐</w>
잡 는</w>
적 자
전 에서</w>
채 워
캐 시</w>
콜 로
콜 라</w>
클 레
할 려면</w>
함 께</w>
해 제
했 습니다</w>
화 력
10 시</w>
여자 한테</w>
있는 지</w>
그만 하고</w>
어떻게 함</w>
중요 한</w>
하면 됨</w>
이쁜 데</w>
버렸 네</w>
아프리 카
지하 철</w>
라우 드</w>
3 시간</w>
M E
i p
k g
것 만</w>
고 십
구 속</w>
기 여
기 출
김 하
능 국
니 스</w>
되 겠지</w>
두 명</w>
떠 나서</w>
마 크</w>
만 지
먹 은거</w>
몬 가</w>
뭐 하노</w>
배 메
번 에</w>
본 적</w>
부 들
상 하
선 은</w>
성 과</w>
소 는</w>
소 울</w>
수 집
시 팔</w>
아 줌마들</w>
악 몽</w>
오 니까</w>
왜 함</w>
이 영
이 즈
이 네요</w>
익 숙
있 다
작 은
장 으로</w>
전 체</w>
정 부
정 글</w>
조 눈</w>
족 구</w>
줄 알았는데</w>
지 난
질 투
추 는</w>
취 향</w>
타 고
테 일</w>
하 구나</w>
할 거야</w>
환 영
후 장
모르 는
우리 집</w>
이유 를</w>
올라 온</w>
13 5</w>
요즘 도</w>
이였 음</w>
in g</w>
인가 봐</w>
작가 가</w>
화이 팅</w>
시나 리오</w>
히토 미</w>
스카우 터</w>
NC다이노스 갤러리</w>
1 군</w>
4 일
7 시</w>
거 기</w>
거 품</w>
걸 리면</w>
공 익</w>
구 야</w>
기 원
꺼 임</w>
나 야</w>
더 라
돌 이
됐 으면</w>
때 만</w>
롤 백
리 다</w>
릴 라</w>
만 날
많 으면</w>
맨 날
먹 여
몇 시간
못 생긴</w>
반 기</w>
버 튼
베 트
복 각</w>
붕 이가</w>
붙 여
브 는</w>
섭 외
송 가
승 급
쓸 까</w>
안 들어가
오 는
유 미</w>
잠 깐
적 인
정 부</w>
졌 음</w>
조 국</w>
조 작</w>
주 작</w>
차 에</w>
치 이</w>
크 보
크 트</w>
허 수
후 타
흑 우</w>
안되 노</w>
지않 았냐</w>
추천 좀
gi sa</w>
ㄷㄷㄷㄷ ㄷㄷㄷ</w>
40 0</w>
ㅅㅂ ㅋㅋ</w>
레전드 다</w>
미안 하다</w>
택배 없는
고인 물</w>
리버 풀</w>
초기 화</w>
유격 수</w>
원숭 이</w>
근개 비
1 30
U SD</w>
k t
r e
가 든</w>
가 실분</w>
갓 기
갔 냐</w>
개 새끼들아</w>
과 거</w>
구 간</w>
남 들</w>
남 캐</w>
놔 라</w>
대 결
도 움</w>
돌 면</w>
된 거냐</w>
딩 이</w>
만 나서</w>
말 고는</w>
몇 임</w>
몸 에</w>
미 체결</w>
방 향
봐 주
붕 아</w>
상 품
새 우
소 개</w>
수 즈
스 톤</w>
싶 었는데</w>
싸 게
어 나
올 까</w>
위 치
임 기
자 짤
전 기</w>
접 속</w>
정 액
참 치
충 무
코 로</w>
코 코</w>
타 입
터 져서</w>
투 구
페 이</w>
페 스</w>
후 반</w>
나오 니까</w>
10 억
씨발 아</w>
해주 실분</w>
누구 랑</w>
이유 로</w>
웃기 노</w>
문제 점</w>
한거 같은데</w>
정신 차
확실 한건</w>
일러 는</w>
일러 스트</w>
시키 는</w>
이제 야</w>
노잼 이네</w>
심심 해서</w>
전설 이다</w>
XB T</w>
7 7
c h
ㅈ ㄱ</w>
거 네</w>
교 체</w>
군 요</w>
급 이</w>
기 획
까 말까</w>
너 희</w>
능 지</w>
드 로</w>
디 가</w>
렙 인데</w>
마 이</w>
망 했네</w>
명 의</w>
못 가
발 기
배 수</w>
법 이</w>
변 신
봉 퀴들</w>
봊 돌
비 키
소 니
솔 랭
신 수</w>
실 물
써 라</w>
안 했으면</w>
았 어</w>
엇 다</w>
엇 음</w>
었 던</w>
예 고</w>
완 성</w>
왔 노</w>
유 나</w>
은 지</w>
음 방</w>
있 다면</w>
잔 아</w>
잡 기</w>
잼 민이</w>
점 프</w>
정 냐
좋 고</w>
주 소</w>
지 안
지 노</w>
집 에
찌 찌
퀴 즈</w>
포 토
플 렉
하 랜
학 생</w>
할 게
휴 가</w>
나오 겠지</w>
아이 패드
해야 하는데</w>
우리 팀</w>
시작 하면</w>
신기 함</w>
조용 히</w>
신곡 보은왔
들어와 봐</w>
투표인증왔 XIA</w>
오나 홀</w>
수강 신청</w>
0 7</w>
4 만
7 시
a v
가 사</w>
같 던데</w>
개 월</w>
것 같아</w>
고 있음</w>
구 합니다</w>
그 럴
그 는</w>
긴 다</w>
끄 럽
나 발
내 꺼
동 의</w>
되 도</w>
리 제로</w>
릴 리
마 크
만 루</w>
메 구
무 관
문 파</w>
뭐 긔</w>
뭐 부터</w>
반 도
발 매
배 송</w>
보 는거
봐 주라</w>
북 커버</w>
브 이</w>
블 레이드</w>
삼 각
소 나
수 있는</w>
수 밖에</w>
스 키</w>
스 의</w>
시 드</w>
실 화</w>
싫 은데</w>
쓰 니까</w>
아 트
악 플
안 경</w>
열 폭
왤 캐
요 미</w>
욱 이</w>
육 성
이 치
이 길</w>
잇 네</w>
잘 자
주 공</w>
죽 이고</w>
줘 요</w>
지 나가
직 히</w>
차 기</w>
충 은</w>
터 졌네</w>
포 스트</w>
할 걸</w>
할 려고</w>
해 적
해 본다</w>
화 질
확 인</w>
흑 발
흑 흑</w>
하는 새끼들</w>
들어 옴</w>
해야 댐</w>
병신 아</w>
이라 며</w>
이라 니까</w>
소리 가</w>
일본 은</w>
데이 터
오르 는</w>
하다 하다</w>
도와 주
갈아 타
미안 해</w>
시로 코
한동 희</w>
리버 풀
세라 핌
1 개</w>
2 부</w>
4 번</w>
개 털
결 장</w>
꼬 마가</w>
꼴 려</w>
끄 고</w>
끼 는</w>
놓 고
느 낀</w>
늘 려
단 은</w>
달 린
당 해서</w>
대 사
더 이상</w>
두 는</w>
맥 주</w>
먹 방</w>
메 라
몰 빵
문 상
박 은</w>
별 명</w>
분 전</w>
블 랙</w>
뿐 임</w>
선 언</w>
스 샷</w>
아 우
아 쿠
않 이</w>
알 겠다</w>
약 속
연 출
우 선
워 너
의 자</w>
이 형
이 여</w>
이 딴</w>
이 시간에</w>
일 섭
잘 하
전 담
죄 악
주 인</w>
준 지</w>
증 명
차 기
크 트
파 는
패 션
플 스</w>
하 필</w>
한 사람</w>
호 감</w>
어케 하냐</w>
만들 어</w>
정신 병</w>
있는 듯</w>
무조 건
유니 폼
스포 츠</w>
경원 비
커여 워</w>
꼬라 지
다이어 트
아빠 가</w>
공짜 로</w>
주변 에</w>
김호 중</w>
지듣 노</w>
1 회</w>
K B
i g
개 선
검 머
고 3
과 자</w>
구 롱빵</w>
기 괴
기 지</w>
꾸 라
난 이도
날 에</w>
답 변
당 근
두 부
등 판</w>
랭 크</w>
레 어
리 프
말 투
머 꼴
메 좆</w>
목 표</w>
뭔 일
뭘 로
박 민
백 호
비 호감
사 료</w>
살 에</w>
선 언
섭 종
소 식
소 원
소 화
손 으로</w>
스 팀</w>
아 미
아 킬
야 리
어 벤
어 색
얻 음</w>
에 이</w>
연 승
오 우</w>
인 벤
인 들은</w>
일 정
잇 는</w>
잘 하고</w>
졌 으면</w>
좋 다
주 주
철 권</w>
컴 으로</w>
클 라</w>
키 작
태 가</w>
토 막
피 씨
피 갤집</w>
필 리
하 며</w>
아니 겠지</w>
생각 에</w>
그래 픽
그래 프</w>
게임 에</w>
방송 에서</w>
사이 즈</w>
캐릭 이</w>
뉴비 가</w>
한번 씩</w>
처음 에</w>
경기 도</w>
중요 함</w>
대기 업</w>
의미 가</w>
세상 에서</w>
아마 기</w>
이득 임</w>
인데 도</w>
아쉽 다</w>
이란 게</w>
ve r</w>
마무 리
데미 지</w>
벌써 부터</w>
조계 현</w>
장려 금</w>
도저 히</w>
1 점
3 루
6 9
8 호</w>
9 시</w>
C O
F A
b y</w>
ㅎ ㄷㄷ</w>
각 이다</w>
간 다
갈 듯</w>
감 성</w>
개 새끼야</w>
갤 플
구 해요</w>
굴 리
길 이</w>
꼬 리
꿀 벌
꿀 잼</w>
나 비</w>
대 만
데 ㅋㅋ</w>
덱 은</w>
동 성
듀 오
드 컵
로 리</w>
릴 카</w>
마 마
마 감</w>
모 가</w>
못 하는데</w>
뭐 라</w>
뭔 가
뮤 비
박 준
박 제</w>
받 기</w>
받 는데</w>
배 워
변 호
보 닌
봐 요</w>
분 명
블 본</w>
선 수가</w>
소 가</w>
수 랑</w>
시 바
심 리
안 대
안 나온
여 니</w>
열 리
영 양
와 타
욕 심
이 우
이 어도</w>
인 물
인 거냐</w>
일 날</w>
입 금
잇 어</w>
존 경
칭 호</w>
코 네
코 토</w>
타 구
타 격</w>
투 명
퍼 섭
폭 발
한 섭</w>
해 진
허 리</w>
현 준</w>
호 환
환 불</w>
후 보</w>
힐 러
하는 게
하는 사람</w>
하는 구나</w>
는거 긔</w>
고싶 어
10 개
사람 만</w>
오늘 따라</w>
안되 는
얼마 에</w>
해주 셈</w>
지금 이라도</w>
다음 주에</w>
우승 하면</w>
없어 짐</w>
다르 네</w>
베르 드</w>
부럽 네</w>
베이 스</w>
여고 생
카운 터
콘서 트
배경 화면</w>
로이 드</w>
가만 히</w>
에반 데</w>
비하 인
어짜 피</w>
0 1</w>
1 이</w>
4 3
O O
k g</w>
ㅈ ㅇ</w>
가 온
가 야</w>
개 잡
개 좆같네</w>
게 스트
고 급
과 목</w>
광 대
구 창
국 룰</w>
권 이</w>
금 요일
긴 장
나 혼
나 연</w>
날 은</w>
느 꿈</w>
닮 은
두 번째</w>
드 랍</w>
드 레이크</w>
똑 같이</w>
뜨 는데</w>
루 페
맛 있음</w>
메 리</w>
메 린이</w>
멜 숙
명 예
몰 래</w>
못 깨
문 신
뮤 직
미 개
미 라
바 나나
배 당</w>
별 론
부 반
분 량</w>
상 을</w>
상 담</w>
세 는</w>
소 마</w>
수 캬루
시 메
안 좋아
알 로
어 렸
어 른
얼 음
었 다고</w>
예 능</w>
왓 다</w>
외 노
용 서
웃 긴</w>
이 던</w>
입 니까</w>
조 음</w>
좆 사기
주 기</w>
직 관</w>
질 듯</w>
쪽 이</w>
창 년들</w>
타 이거
팬 이</w>
팬 아트</w>
하 도</w>
한 적</w>
한 놈</w>
할 매
는거 같은데</w>
얼마 정도
시발 ㅋㅋ</w>
떨어 진
먹어 야지</w>
그렇 게
2주 년
ㅜㅜ ㅜㅜ
인데 요</w>
원영 아</w>
ww ww
진화 석</w>
포켓 몬
최악 의</w>
드려 요</w>
마영 전</w>
6 시
8 8</w>
N O</w>
Y A
겠 긔</w>
곡 이</w>
구 글</w>
기 의</w>
꼬 우면</w>
나 중
나 처럼</w>
놈 의</w>
듣 는데</w>
들 은
듯 ㅋㅋ</w>
련 이</w>
마 주
만 두
말 임</w>
말 하는거</w>
매 출
미 워
미 다</w>
미 노</w>
보 구</w>
부 담
부 끄러
북 한
불 만
비 행
살 면</w>
상 의</w>
쇼 룸</w>
수 행
수 의</w>
스 튜
신 경</w>
실 수로</w>
씨 야</w>
씹 새
안 주
안 보고</w>
알 고있
야 마
엔 터
여 우
예 술
와 우</w>
일 간</w>
자 냐</w>
정 병</w>
제 대로
준 다고</w>
중 복</w>
체 크
취 미
치 트
테 라</w>
파 워</w>
파 스타
풀 리
프 레</w>
필 승
할 거같은데</w>
했 어요</w>
아니 씨발</w>
하나 씩</w>
갤러 들아</w>
가능 한
언제 함</w>
애미 가</w>
ㄹㅇ 임</w>
필요 가</w>
그리 스
서울 대</w>
어떻게 됨</w>
포인 트
인가 보네</w>
너네 는</w>
저녁 에</w>
유명 한</w>
라이프치 히
살인 마</w>
배고 프
세리 카</w>
핑까 좀</w>
로헨 델</w>
겨드 랑이</w>
생축 보은왔어요</w>
정동 원</w>
라라라라라 생축보은왔어요</w>
8 강
I D
g o
m c
가 게
가 족</w>
개 지랄
갤 탭</w>
공 감</w>
김 동
김 수
꾹 은</w>
나 랑
넣 을
니 가
대 해서</w>
데 드
데 가</w>
데 드</w>
돈 으로</w>
됐 어</w>
랭 킹
리 부
맘 들</w>
매 크로
먹 는게</w>
문 화
물 건
물 타
바 네</w>
블 락</w>
성 배
슬 이</w>
실 드</w>
싫 은</w>
안 당
않 노</w>
알 루
알 못</w>
얘 들</w>
어 딜
어 마
언 더</w>
에 프
여 갤러</w>
유 마갤</w>
응 디</w>
의 지</w>
이 들아</w>
이 겠지</w>
이 기는</w>
인 구
인 다
있 겠지</w>
장 식
점 령
주 민
지 가
지 능</w>
직 원</w>
창 이</w>
찾 기</w>
챙 기
천 원
컴 갤</w>
코 이
터 트
특 수
하 하</w>
했 을까</w>
헬 린이</w>
환 장
후 보
10 만</w>
해야 하나</w>
30 대</w>
괜찮 은
ㄷㄷㄷㄷ ㄷㄷㄷㄷ</w>
다음 주
다른 거</w>
키우 면</w>
철구 는</w>
이제 부터</w>
꼴리 는데</w>
역대 급
홍보 왔킹롤</w>
모니 터
나스 닥</w>
꾸준 히</w>
Again신곡 홍보왔킹롤</w>
6 2</w>
8 강</w>
9 8
ㅇ ㅂ
각 이냐</w>
간 지</w>
같 아
개 그
걸 릴
걸 고</w>
것 보다</w>
겠 다고</w>
고 딩때</w>
그 마</w>
기 임</w>
남 성
대 만</w>
대 의</w>
댕 이</w>
도 착</w>
되 잖아</w>
루 피
루 가</w>
모 야</w>
문 화</w>
물 리
뭐 니</w>
박 병
반 에</w>
발 견</w>
방 출</w>
보 컬
분 탕</w>
뿡 모리즈</w>
삐 부
상 관</w>
성 배</w>
손 이</w>
솔 플</w>
스 팅
신 레이드</w>
심 사
쓰 다가</w>
아 들
안 달
안 남</w>
야 이
야 하냐</w>
열 림</w>
영 입</w>
외 식
음 이</w>
이 더
인 천</w>
자 수</w>
재 탕
쟤 는</w>
저 스
적 용</w>
전 형
좋 던데</w>
지 나면</w>
쪽 은</w>
찬 성
채 원
최 초
카 리</w>
케 틀</w>
켜 서</w>
큐 브</w>
터 진</w>
파 라
파 판
포 트
하 시긔</w>
한 강
현 타</w>
병신 새끼</w>
그래 픽</w>
하나 같이</w>
스타 트
사이 트
괜찮 냐</w>
머리 색</w>
처음 부터</w>
ㅅㅅㅅㅅ ㅅㅅ</w>
고민 되네</w>
지지 율
인기 상</w>
인생 이</w>
스카 이
24 시간</w>
무서 움</w>
아이즈 원
드레 드</w>
아저 씨
헤카 테</w>
호불 호</w>
2 배</w>
3 인
3 일</w>
f a
n e
s p
ㅎ ㅌㅊ</w>
ㅣ 발</w>
가 위
갈 사람</w>
걸 리네</w>
것 은</w>
것 이</w>
견 제
경 찬</w>
고 딩</w>
공 명
구 데
글 러
나 쁜</w>
남 녀
다 ㅋㅋㅋㅋ</w>
더 블</w>
데 브
돈 은</w>
되 기</w>
드 럽
등 록</w>
뜨 고</w>
래 서</w>
랜 선
마 대</w>
만 난</w>
맞 는거</w>
모 양
무 라
무 사</w>
무 뽑</w>
뭔 소리
미 만</w>
바 거</w>
발 리
배 민
버 리는</w>
봉 퀴</w>
빡 치네</w>
사 콜</w>
샤 샤
소 서</w>
손 절</w>
수 가
스 파이
싫 어서</w>
싱 글</w>
씨 팔</w>
아 악</w>
안 지만
얼 리버
열 어</w>
염 퀴들</w>
엽 충
오 우
왜 저러
요 네
운 점</w>
유 부
유 치
은 비
인 디</w>
일 기
일 베</w>
잘 자</w>
잘 하노</w>
잦 스
정 작</w>
지 배
캐 스터</w>
쿠 키
토 가</w>
토 는</w>
티 나</w>
폴 라
하 느라</w>
합 시다</w>
해 도됨</w>
해 달라고</w>
현 장
환 경
는거 랑</w>
이거 나</w>
이거 보고</w>
게임 을</w>
나왔 냐</w>
18 0</w>
이었 다</w>
다른 건</w>
이기 고</w>
보내 고</w>
에이 스</w>
싸우 면</w>
불쌍 해</w>
보는 곳</w>
보스 턴</w>
스피 릿</w>
한달 에</w>
아프 다</w>
스럽 다</w>
필수 임</w>
부동 산
망구 들</w>
ㅁㅌㅊ 냐</w>
주제 에</w>
오타 쿠
평소 에</w>
최용 제</w>
나발 이고</w>
2 6</w>
2 만원
3 일차</w>
6 년
7 월</w>
a y</w>
d l
각 인데</w>
거 슬
고 속
공 시</w>
굴 러
규 는</w>
기 인</w>
나 누
나 서
나 은</w>
남 겨
는 짤</w>
디 코</w>
렙 업
로 쏘
많 지</w>
매 미</w>
몇 달
몇 시에</w>
모 자</w>
민 심
박 스
백 화
봤 을때</w>
부 비
부 심</w>
성 추
소 리는</w>
시 골
안 하
안 한</w>
안 한다</w>
암 살
야 댐</w>
없 을듯</w>
예 뻐
오 리</w>
을 땐</w>
을 걸</w>
음 방
이 슈
자 료</w>
재 산</w>
저 작
정 령
졸 업</w>
종 료</w>
좆 도
지 잡
짜 르
쳐 먹고</w>
쳤 다</w>
최 종</w>
크 고</w>
크 다</w>
패 드립
퍼 센
포 텐
플 스
플 은</w>
했 었
현 직
는거 봐</w>
아이 들
20 19</w>
아무 거나</w>
얼굴 에</w>
ㅅㅂ ㅅㅂ
코스 프레</w>
고닉 들</w>
정치 질
직업 이</w>
주딱 이</w>
힘드 냐</w>
어느정도 임</w>
아티 스트</w>
lc k</w>
싸이 코
오디 세
정민 규</w>
피지 컬</w>
이쯤 되면</w>
류준 열</w>
1 번
2 부
c o
d r
v p
x x
ㅏ ㅏ</w>
강 제로</w>
겠 지만</w>
고 졸
국 힙</w>
기 기</w>
긴 데</w>
길 태</w>
내 서</w>
던 져
딱 봐도</w>
똥 퀴</w>
뜬 다</w>
로 우</w>
마 일</w>
마 핸</w>
말 라
말 리
말 라고</w>
매 우</w>
머 선
메 르
몇 번</w>
무 는</w>
문 고</w>
뭐 씀</w>
배 신
빅 히트</w>
빡 이</w>
빨 라
삐 는</w>
사 님</w>
살 사람</w>
새 봄</w>
샌 박</w>
생 은</w>
수 수
수 용
쉬 는
시 드
실 적
싸 인
쓴 거</w>
아 시발
안 뜸</w>
안 하는게</w>
암 컷
야 는</w>
역 할
온 냐
의 원</w>
이 득</w>
이 들이</w>
인 싸</w>
일 도</w>
있 는거냐</w>
있 으니까</w>
있 을듯</w>
자 를</w>
작 작
잘 하는데</w>
잠 시</w>
잡 히
좆 창
주 문</w>
죽 으면</w>
지 명
집 단
집 이</w>
찾 는</w>
처 리</w>
초 딩</w>
치 료
칠 이</w>
크 면</w>
토 리
토 리</w>
토 요일</w>
통 합</w>
하 신
하 자고</w>
는거 면</w>
생각 을</w>
어디 가
안되 면</w>
진짜 임</w>
ㅠㅠㅠㅠ ㅠ</w>
도와 주세요</w>
현실 에서</w>
버렸 다</w>
역겨 운</w>
징징 대
관련 해서</w>
라디 오
혈귀 혼</w>
커스 텀</w>
마일리 지</w>
1 던
1 은</w>
4 9</w>
5 만원</w>
7 8
T V</w>
c p
강 의
갖 다
거 아니냐</w>
겠 습니까</w>
결 론
공 은</w>
공 유</w>
관 적으로</w>
군 아</w>
그 지
근 처
긴 급
님 들은</w>
단 독
담 원</w>
대 에서</w>
도 르
들 중에</w>
뜬 거</w>
모 션
못 본
미 모</w>
밸 패
보 물
보 이지</w>
분 의</w>
빌 드</w>
상 장
생 산
선 풍
센 스</w>
수 이
순 서</w>
슬 라이
실 분
심 한
싸 울
안 먹
앰 이</w>
야 하는데</w>
어 머
어 빌
연 승</w>
오 를
우 기
원 본
월 광
이 짤
인 거같음</w>
일 으
입 장</w>
있 을때</w>
장 마
재 는</w>
조 가</w>
존 예
주 린이</w>
지 인
지 나</w>
찐 팬
찬 양
체 는</w>
친 거</w>
카 라
커 마</w>
타 도</w>
테 마
토 스</w>
트 렌
파 가</w>
프 사</w>
해 지는</w>
힘 들어
생각 인데</w>
존나 웃기
궁금 한</w>
바꾸 고</w>
에어 팟</w>
플레이 어</w>
보다 도</w>
이이 이이
히로 인</w>
사전 예약</w>
극장 판</w>
유망 주</w>
버서 커</w>
탈리스 만</w>
당분 간</w>
1 주년</w>
J Y
가 보
간 다고</w>
갈 비
갑 자기
갱 신
게 스트</w>
겜 에</w>
고 에</w>
공 방</w>
김 유
나 이가</w>
날 먹
넘 모</w>
는 중
달 러
덱 이</w>
도 감
드 냐</w>
드 에</w>
떳 네</w>
똥 싸
뜨 거
레 오
로 스
룰 러</w>
많 은거</w>
매 장</w>
몰 입
뭐 여</w>
뮤 직</w>
밥 은</w>
보 유
부 른
부 천
사 경</w>
수 록
시 대가</w>
아 포
어 야함</w>
없 찐</w>
없 던데</w>
엑 스
여 혐
오 라
오 가나</w>
올 린다</w>
우 파</w>
이 진
이 어</w>
이 하</w>
이 들은</w>
재 난
저 리</w>
전 국
점 유
주 소
준 거</w>
중 섭</w>
진 지</w>
찍 찍
창 에</w>
최 원
충 들은</w>
카 이</w>
콤 보</w>
크 레
크 림</w>
탄 절</w>
테 크
팬 미
표 절
하 네ㅋㅋ</w>
한 판</w>
해 조</w>
희 망</w>
들어 가는</w>
30 0</w>
한국 은</w>
궁금 하네</w>
떨어 지면</w>
페이 스
선수 는</w>
가져 옴</w>
학교 에서</w>
여친 갤</w>
다르 게</w>
상관 없음</w>
느끼 는</w>
수사 시</w>
디자 인
나무 위키</w>
누르 면</w>
시발련 들아</w>
티셔 츠
판타 지</w>
기적 의</w>
자이 언
ROCKingRol l
로스트 아크</w>
0 6</w>
2 억
9 00
p o
ㄹ ㅈ
ㅋ ㅌ
가 에</w>
갔 노</w>
개 나
개 다</w>
결 정</w>
고 정</w>
공 시
구 걸
군 이</w>
그 랜
그 걸</w>
나 승
났 어</w>
놀 리
누 가이
단 기
단 단
대 선
도 우</w>
된 게</w>
두 산</w>
란 트</w>
레 알
리 세계
린 거
마 사
머 노</w>
먹 방
무 가</w>
문 이</w>
뭐 뭐</w>
바 란</w>
백 수</w>
백 신</w>
병 살
보 추</w>
봤 으면</w>
블 래
블 리</w>
빵 빵
뿌 려
사 생
사 석
사 촌
사 퍼
사 용</w>
산 거</w>
살 아</w>
소 득</w>
수 급</w>
숨 겨
스 작</w>
스 턴</w>
신 섭
신 영
실 버</w>
심 해</w>
쏘 대장</w>
아 마</w>
알 게
암 굴
야 간
어 저
어 지</w>
염 퀴</w>
였 구나</w>
올 때</w>
은 이</w>
음 ㅋㅋㅋ</w>
이 발</w>
이 전</w>
인 대</w>
일 일
일 을</w>
임 시
있 긴
있 구나</w>
자 야</w>
좆 돌</w>
좋 으면</w>
주 전</w>
중 갤</w>
진 입
천 원</w>
쳤 네</w>
충 들이</w>
카 던
크 로아</w>
토 츠</w>
10 분</w>
20 대
병신 겜</w>
거같 지</w>
아직 까지</w>
좆같 아서</w>
그러 고</w>
궁금 한데</w>
노래 방</w>
무슨 일
에이 스
바이 스</w>
살아 남
행복 회로</w>
보고싶 은데</w>
댓글 에</w>
여친 이</w>
안나 와</w>
자러 간다</w>
스럽 게</w>
시절 에</w>
편의 점
오오 오오
박보 검
어지 간
피시 방</w>
에디 션</w>
완벽 한</w>
덤디 덤디</w>
토마 토</w>
듀라 한
귀신 같이</w>
동수 칸</w>
아킬 레
ROCKingRoll Again신곡홍보왔킹롤</w>
1 로</w>
1 번</w>
3 년</w>
5 명</w>
h t
ㄱ ㅋ</w>
ㅆ ㅂ
가 방</w>
가 드</w>
강 남</w>
갤 주는</w>
결 제</w>
고 대
곡 은</w>
국 뽕
글 싸
기 억</w>
김 강
꾸 니
꾸 역
나 라는</w>
낮 은
내 라</w>
논 리
달 린</w>
대 처
대 타</w>
더 쿠
도 태
따 지면</w>
란 이</w>
로 로</w>
마 차도</w>
많 고</w>
메 좆
모 닝
바 나나</w>
발 이</w>
백 퍼</w>
보 험
부 유
부 름</w>
사 태</w>
살 때</w>
삼 진
서 머
선 녀
세 실
소 비
소 신발
속 에</w>
수 상</w>
슴 고</w>
시 위
실 험
실 에</w>
쓰 러
쓰 는거임</w>
씨 바</w>
악 질</w>
안 해서</w>
않 고</w>
어 요
여 론</w>
오 피
올 라</w>
의 자
이 글
이 대
이 때
이 없네</w>
잇 으면</w>
있 니</w>
장 을</w>
잦 돌</w>
정 체</w>
제 품
제 니</w>
조 립
조 닭</w>
중 앙
즐 거
지 난</w>
진 구</w>
차 은
착 한</w>
창 은</w>
채 우
최 초</w>
치 지</w>
코 치
크 냐</w>
테 러</w>
틀 와</w>
팀 에서</w>
평 화
할 것</w>
할 줄</w>
해 보이
했 지만</w>
했 구나</w>
생각 나
10 만원
아이 템
아이 피
오늘 이</w>
20 분
해야 해</w>
올라 가
아직 도
정신 이</w>
좋겠 는데</w>
애니 메이
김태 진
그림 체</w>
어쩌 다</w>
옛날 엔</w>
무서 운
감독 이</w>
갤러리 입니다</w>
못하 겠네</w>
훈련 소</w>
시발련 아</w>
고마 워</w>
워싱 턴</w>
오마이 걸
선착 순</w>
버러 지
근로 장려금</w>
3 주
n c
가 세요</w>
개 패
경 찬이</w>
교 정
구 려</w>
그 리는</w>
깨 고</w>
끔 찍
나 루
나 니까</w>
네 ㅋㅋㅋㅋㅋㅋ</w>
노 란
느 김치</w>
니 폼</w>
대 비</w>
데 비
동 남아</w>
드 릴
디 아
또 라이
럭 스</w>
류 지
리 뷰
마 마</w>
만 한
말 야</w>
말 자</w>
맞 아
목 이</w>
미 러
박 을
밥 이</w>
버 튜
벤 치</w>
변 기</w>
블 루</w>
뽑 냐</w>
살 빼
세 컨
순 서
시 급
시 브
시 각</w>
신 들</w>
아 슬
안 믿
안 나왔
안 받아
야 되는데</w>
예 구</w>
오 지</w>
오 전</w>
오 닉스</w>
와 야지</w>
이 루
인 점</w>
자 극
자 료
자 원
작 이</w>
접 고</w>
제 2
제 품</w>
젠 지
족 이</w>
좆 같은데</w>
중 딩
즐 기
지 를
지 어</w>
찍 은
취 급</w>
카 레
코 르
투 력
투 어</w>
트 롤</w>
티 는</w>
편 함</w>
폭 사
폭 원
표 현
프 듀
플 라
필 합
하 던가</w>
한 결
행 시</w>
흑 인</w>
히 든
힐 링
여자 친구</w>
이번 에도</w>
방송 이</w>
친구 한테</w>
괜찮 지</w>
괜찮 아</w>
만들 었는데</w>
있었 냐</w>
이쁘 게</w>
떨어 질
이름 은</w>
정리 해준다</w>
부르 면</w>
어떡 해</w>
아레 나
스피 커</w>
양심 고백</w>
토탈 워
슬로 건</w>
개쩌 네</w>
포지 션</w>
충분 히</w>
맘마 통</w>
모두 가</w>
0 2</w>
1 명
2 일차</w>
2 YA
6 4
M A
S K
e d
m a
m s
가 시
간 담
갓 직히</w>
갔 음</w>
강 한
고 시
교 복
그 레이
금 방</w>
김 봉준
까 는거</w>
나 머
나 아</w>
닌 텐
담 주
당 황
동 물</w>
될 지</w>
두 달
딱 대</w>
뜨 는거</w>
라 라</w>
레 시
리 리
릴 듯</w>
마 누
머 갈
민 폐
박 히
박 음</w>
반 복
뿡 이</w>
상 승</w>
서 약
서 재
세 금
안 하나</w>
알 파
앚 은</w>
야 동</w>
에 미
에 밀
엑 시
원 정</w>
유 도
으 응</w>
은 하
이 랬
이 스
이 주
입 에</w>
잖 어</w>
주 먹
죽 었
지 겹
지 효
지 기</w>
출 연</w>
타 르
타 율</w>
태 그
태 민
특 성</w>
포 스
필 름</w>
하 다는</w>
헬 스</w>
혼 다
화 려
생각 난
생각 하니</w>
ㅋㅋㅋㅋㅋㅋㅋㅋㅋㅋㅋㅋㅋㅋㅋㅋ ㅋㅋㅋㅋㅋㅋㅋㅋㅋㅋㅋㅋㅋㅋㅋㅋ</w>
병신 들
이상 은</w>
해주 네</w>
여기 도</w>
남자 들</w>
염보 성은</w>
이쁘 면</w>
일러 로</w>
생겼 는데</w>
보고싶 네</w>
어울 리는</w>
예쁘 네</w>
짜증 나</w>
아시 아
지방 직</w>
하러 감</w>
못하 겠다</w>
먹으 러
예전 엔</w>
디렉 터
이준 기</w>
신정 환</w>
박근 혜</w>
아탈란 타</w>
ㅌㅍ ㅇㅈ</w>
이은 상</w>
3 억
8 5
m an
가 루
개 병신</w>
견 적</w>
경 상
골 반
공 명</w>
관 이</w>
구 한다</w>
급 인데</w>
낙 서</w>
내 로
내 부
냐 ㅋㅋㅋ</w>
넘 는</w>
높 아
니 미</w>
님 한테</w>
닭 가슴
데 미</w>
되 니</w>
리 더</w>
마 다
마 을
마 저</w>
마 켓</w>
만 났
망 갤
매 미
몸 무게</w>
무 게
미 스터
민 호
베 스트</w>
본 상
사 자
사 투
상 폐
세 금</w>
숨 참
신 용
싫 은
씹 슴
아 조
알 면</w>
야 식</w>
어 빌</w>
예 언
오 닉
오 줌
오 노</w>
워 이</w>
으 려나</w>
의 대</w>
이 분
자 비
작 에</w>
전 력</w>
정 규</w>
종 류
좆 나</w>
좆 노잼
주 고
증 거
지 루
지 웠
짤 로</w>
쳐 먹
컴 디씨</w>
토 르</w>
통 신
통 령</w>
펀 치
평 생
폭 쥐
폭 원</w>
필 수</w>
학 과</w>
할 카스</w>
해 방
햇 어</w>
희 는</w>
고싶 으면</w>
존나 많네</w>
15 0</w>
알려 주라</w>
이쁘 냐</w>
받아 라</w>
17 5</w>
보고 왔는데</w>
이해 가
키우 는데</w>
보여 서</w>
거리 는거</w>
한테 만</w>
타이 밍</w>
새기 들아</w>
유튜브 에</w>
승리 의
입장 에선</w>
스티 커</w>
방법 이</w>
한동 훈</w>
확률 이</w>
ㅋㅋㅋㅋㅋㅋㅋㅋㅋㅋㅋㅋㅋㅋㅋㅋㅋㅋㅋㅋㅋㅋㅋㅋㅋㅋㅋㅋㅋㅋㅋㅋ ㅋㅋㅋ</w>
ㅋㅋㅋㅋㅋㅋㅋㅋㅋㅋㅋㅋㅋㅋㅋㅋㅋㅋㅋㅋㅋㅋㅋㅋㅋㅋㅋㅋㅋㅋㅋㅋ ㅋㅋㅋㅋ</w>
화장 실</w>
기준 으로</w>
버즈 라이브</w>
정주 행
루리 웹</w>
왜저 래</w>
예비 군</w>
저능 아
징크 스</w>
토트 넘</w>
살짝 설
0 3</w>
2 일
i d
i s
o t
가 로</w>
가 면서</w>
강 한</w>
걱 정</w>
공 연
기 관</w>
김 윤
끝 임</w>
나 카
나 코
날 개</w>
닉 네임
다 양
다 인
답 변</w>
대 박</w>
돌 고
동 남아
뒤 에서</w>
드 루
라 랑</w>
러 스</w>
려 다가</w>
마 넌
만 갤
만 보면</w>
맞 긔</w>
매 드
무 식
무 효
미 만
바 닥</w>
변 신</w>
보 빨
보 는중</w>
봉 이</w>
블 러
사 경
사 스</w>
사 려는데</w>
산 이</w>
삼 전</w>
새 삼</w>
생 명</w>
세 나</w>
수 에</w>
수 익</w>
시 체
아 리아</w>
안 쓰고</w>
않 은데</w>
없 는건</w>
예 구
예 나</w>
예 지</w>
월 이
으 러</w>
이 니
이 자
이 누</w>
이 냐고</w>
인 거지</w>
있 는건</w>
자 취
자 체</w>
접 대
제 보
조 차</w>
조 정</w>
좆 슨
주 기
지 갑
직 접
직 전</w>
진 명
집 은</w>
처 녀</w>
친 절
카 트</w>
코 노
콘 은</w>
콘 이</w>
퀴 즈
특 히</w>
패 션</w>
평 타</w>
폭 탄
폭 탄</w>
폴 리
하 여</w>
햄 버거</w>
허 도
협 동
호 선</w>
환 은</w>
힘 든</w>
10 5
10 년</w>
사람 들
20 분</w>
지않 을까</w>
염보 는</w>
재미 가</w>
이러 고</w>
김태 균</w>
어려 워</w>
불쌍 한</w>
대단 한</w>
주인 공이</w>
예쁘 다</w>
느금 마</w>
부모 님</w>
드래 곤</w>
ㄱㄱㄱㄱ ㄱㄱㄱㄱ
커스 텀
루리 웹
글리 젠</w>
죄송 합니다</w>
0 4</w>
1 페
3 시
3 차</w>
L G
S T
ㄱ ㄴ
가 자
강 간</w>
거 고</w>
것 처럼</w>
경 계
구 르
국 가</w>
근 육</w>
금 수저</w>
김 요한</w>
깝 치
나 보고</w>
내 전</w>
내 신</w>
넘 기
네 네</w>
노 동
놀 랐
느 리
다 다</w>
닥 치고</w>
달 성
달 면</w>
더 워
데 서</w>
도 리
돌 아</w>
되 냐고</w>
두 가</w>
득 점
딜 이</w>
똥 칰
렸 음</w>
로 이</w>
리 메</w>
망 했다</w>
매 물
미 스</w>
바 스
보 급
보 성</w>
부 들</w>
부 모</w>
빠 따</w>
생 명
서 요</w>
설 총</w>
섭 스</w>
셀 카
스 태
시 기
싫 으면</w>
아 껴
안 바
암 만</w>
야 되냐</w>
억 경</w>
없 다는</w>
요 정
우 진</w>
이 새
이 세계
이 악물고</w>
인 걸</w>
일 자리</w>
자 궁
잖 아
잡 았
장 애</w>
전 담</w>
접 음</w>
정 석
좆 나
지 갑</w>
진 출
창 년
첫 방</w>
카 즈
터 지고</w>
통 화
표 지</w>
풀 이</w>
한 대
한 섭
한 건가</w>
할 때는</w>
호 텔
화 속
회 식
휴 지
새끼 임</w>
들어 온
20 19
이거 는</w>
그러 고
올려 라</w>
하는거 보면</w>
케이 스
귀여 워
보고 있는데</w>
이기 냐</w>
페이 트</w>
에이 티
신기 해</w>
안나오 나</w>
하기 전에</w>
성공 한</w>
만화 가</w>
오프 닝</w>
좆망 겜</w>
나라 가</w>
아마 존</w>
방법 은</w>
마시 고</w>
커엽 네</w>
이래 도</w>
채팅 창</w>
느껴 짐</w>
마인 드
각인 석</w>
테일 즈
리메이 크</w>
태블 릿
트럼 프</w>
문코리 타</w>
윤도 영</w>
윤영 삼</w>
천천 히</w>
3 대
3 위</w>
S S
b j
m m</w>
가 사
가 오
갈 리
갓 오
강 아지</w>
개 빻
검 색</w>
공 방
광 화
구 성
국 어
글 도</w>
글 만</w>
김 현
꿀 팁
날 조
남 편
녀 랑</w>
니 어</w>
단 일
당 시</w>
당 첨</w>
더 니
도 입
도 되냐</w>
돈 도</w>
라 갤</w>
로 보
로 하</w>
만 도</w>
맥 주
메 뉴
몇 분
모 기
몬 스터
못 받
못 한다</w>
밀 봉
발 매</w>
배 기</w>
버 리면</w>
보 로</w>
복 잡
복 학
브 로
뽑 을까</w>
뽑 았다</w>
삼 진</w>
샤 이</w>
선 생</w>
선 에서</w>
수 속
수 치</w>
스 벅</w>
썩 어
쓴 다고</w>
안 치고</w>
얘 도</w>
언 노
영 혼</w>
오 징
오 른</w>
유 미
을 때
입 력
잇 는
자 살</w>
저 씨</w>
저 새끼는</w>
전 반
전 용</w>
제 외</w>
족 구
좆 방
주 면
준 은</w>
줄 여
중 딩때</w>
지 어
직 전
짤 좀</w>
찍 는</w>
커 뮤</w>
컴 디시</w>
퇴 구
패 는거</w>
피 부</w>
하 든</w>
행 동
혁 명</w>
힙 합
하는 건데</w>
아니 라
들어 갈
들어 간</w>
들어 오면</w>
10 월
해야 하는</w>
지않 노</w>
이번 화</w>
때문 임</w>
만들 었다</w>
돌아 다니
다음 은</w>
하루 만에</w>
머리 카
재미 로</w>
얼굴 은</w>
이러 다</w>
하고싶 은
신기 한게</w>
생겼 다</w>
이였 으면</w>
민주 당
부르 는</w>
않았 나</w>
퇴근 하고</w>
여름 에</w>
끝났 다</w>
이후 에</w>
모자 키</w>
정보 글</w>
컴퓨 터
화이 트</w>
나쁘 지</w>
치즈 루</w>
나스 만</w>
ㅁㅌㅊ 임</w>
이태 양</w>
단톡 방</w>
공통 점</w>
풍월 량</w>
1 페</w>
9 5</w>
E A
o u</w>
v e</w>
y ou
가 득
가 셈</w>
건 가
건 들
고 스트</w>
공 대
교 행</w>
귀 속
그 로
근 황
글 자</w>
났 음</w>
냉 혹
너 도</w>
넘 으면</w>
늘 리
다 보면</w>
동 안
두 고
뒤 져</w>
라 미</w>
로 딩
마 나</w>
마 스</w>
마 망</w>
막 아
망 해서</w>
맞 노</w>
매 장
못 자
못 차
밀 고</w>
받 습니다</w>
방 종
변 태
변 화
본 캐
봤 더니</w>
부 대
붕 이는</w>
비 겁
빨 갱
사 토
색 욕
선 거
선 미</w>
성 민
손 에</w>
스 모
스 압</w>
스 스로</w>
신 호
신 지</w>
실 이</w>
씨 팔
아 싸</w>
안 풀
알 람
알 렉
알 림
앚 퀴들</w>
야 한</w>
억 지로</w>
얼 른</w>
엄 준
없 어요</w>
에 스</w>
여 유
연 어
예 뻐</w>
오 라고</w>
올 만에</w>
응 지</w>
이 전
이 펙
이 는거</w>
인 종
인 강</w>
인 식</w>
일 퀘
장 갑</w>
저 주
조 져
졸 커
준 다
중 반
줘 야함</w>
줬 음</w>
지 각
진 영
집 어
짓 을</w>
천 지
최 지
출 발</w>
커 서</w>
케 틀
코 치</w>
타 로
타 케
터 뜨
터 지네</w>
통 은</w>
특 전</w>
파 게
한 끼
할 때가</w>
해 금
해 석
해 보니까</w>
해 봤다</w>
호 모</w>
후 의</w>
아니 잖아</w>
생각 은</w>
들어 와</w>
10 시
재밌 었
안되 는게</w>
얼마 정도</w>
모르 겟
100 만
궁금 하다</w>
뉴비 는</w>
16 00
키우 기</w>
와이 프</w>
카드 가</w>
세이 브</w>
군대 에서</w>
담배 피
냄새 가</w>
스트레 스
가성 비
피시 방
조심 해라</w>
한마 디</w>
자주국 방</w>
허벅 지</w>
비하인 드</w>
2 장</w>
4 시
B B
a i</w>
p ve
ㅂ ㅅ</w>
ㅈ 같은</w>
갑 주</w>
강 철
개 인</w>
개 좋네</w>
개 꼴리네</w>
건 보
경 찰</w>
계 승
관 왕</w>
그 와중에</w>
글 고보니</w>
금 강
깨 면</w>
내 야</w>
냉 정
느 니</w>
다 들
대 출
던 거
독 일</w>
된 다
될 까요</w>
딴 거</w>
똥 냐
라 에</w>
랭 크
멸 치
명 함
명 단</w>
무 비</w>
뭔 데
미 노
미 우
법 은</w>
보 낼
봊 연갤</w>
부 턴</w>
브 랜드</w>
블 매
븝 퍼
빠 른</w>
뿌 린다</w>
사 들</w>
사 야지</w>
상 남자</w>
선 거</w>
세 력
수 만</w>
스 노
스 택
신 영</w>
쓰 면서</w>
씨 벌</w>
악 몽
안 좋은</w>
야 하는</w>
양 키
얼 평
엘 지</w>
엘 리</w>
연 아</w>
영 지</w>
오 시
옵 치
옷 장
와 이번</w>
완 전
완 전히</w>
요 미
위 는</w>
유 산
자 막</w>
작 성
재 넌
재 일</w>
재 평가</w>
저 나</w>
적 어도</w>
정 체
좌 가</w>
질 다</w>
찌 찌</w>
참 치</w>
창 녀</w>
초 돌
최 강</w>
캡 쳐</w>
코 루</w>
키 리
테 니</w>
파 라</w>
프 메
하 차
함 성</w>
했 다는</w>
헤 헤</w>
들어 도</w>
하나 보네</w>
이번 주
12 3
12 강
이런 게</w>
괜찮 아
돌아 왔
올려 도</w>
만원 에</w>
이해 안
한다 고
자기 전에</w>
문재 인이</w>
하다 보면</w>
누가 봐도</w>
장현 식
페미 니
일반 인
으면 좋겠다</w>
비트 던</w>
비트 던파</w>
어이 없네</w>
3개 월
하려 는</w>
먹으 러</w>
전투 력</w>
ㅎㅎ ㅎㅎ
양아 치
어쩔 수
듀라 한</w>
키움히어로 즈갤</w>
승리의 엘롯
2 학
6 8
e l
간 지나
감 은</w>
감 자</w>
개 노잼
갱 신</w>
거 림</w>
겜 임</w>
고 다니
괴 수
교 수
구 려
국 장
기 vs
나 코</w>
나 두</w>
날 짜</w>
남 앗
냐 구</w>
너 를</w>
넘 사
높 네</w>
누 워
대 신
대 선</w>
로 아는</w>
롱 이</w>
많 던데</w>
말 한</w>
맛 있는</w>
먹 으니까</w>
메 모</w>
목 록
무 기는</w>
미 용
반 성
방 역</w>
배 윤
배 포
보 관
봐 주세요</w>
비 쌈</w>
빌 지</w>
빨 면서</w>
뿌 림</w>
사 요
사 고싶다</w>
서 비스</w>
셔 서</w>
소 문
소 형
수 붕이</w>
슈 스
실 수</w>
안 다</w>
안 봄</w>
안 퀴</w>
안 나오면</w>
야 발
엇 네</w>
엠 창
운 다</w>
웃 겨
워 크
의 견
이 동</w>
이 크</w>
이 새낀</w>
인 의</w>
자 라
잡 을</w>
잡 지</w>
저 정도면</w>
제 성</w>
졸 려</w>
좆 리
지 키
찍 어서</w>
찬 호</w>
추 첨
캠 페
코 센
키 ㅡㅡㅡㅡㅡㅡㅡㅡ
탑 승
태 워
테 넷</w>
트 루</w>
퍼 섭</w>
폰 은</w>
푸 보</w>
프 런
플 리
하 여
할 거같음</w>
합 법
했 던거</w>
혜 리</w>
확 장
후 유
휴 대
10 퍼</w>
아이 린</w>
레이 저</w>
라이 프</w>
좋아 하면</w>
재밌 는거</w>
재밌 었는데</w>
안되 서</w>
가능 할까</w>
이상 화는</w>
해주 냐</w>
너무 하네</w>
올려 서</w>
키우 고</w>
보고싶 음</w>
어려 운</w>
댓글 로</w>
아시 아</w>
좆같은 게</w>
들어와 라</w>
로그 인
개빡 치네</w>
lc k
조금 만</w>
울트 라
가디 언</w>
열등 감</w>
피드 백</w>
한승 우</w>
노부 기</w>
포레스텔 라</w>
라포 엠</w>
LI ME
데바 데</w>
CO M</w>
LIME 97</w>
1 분</w>
1 발</w>
1 인데</w>
2 회
3 기</w>
6 3
7 년
p g
가 치가</w>
각 이</w>
계 수
공 백
구 속
군 무
군 은</w>
그 루
금 은</w>
기 엔</w>
김 기
낮 은</w>
노 네</w>
는 줄</w>
답 이</w>
대 세
도 현
되 려나</w>
디 스</w>
레 나
루 시</w>
릴 라
링 이</w>
마 네
만 두</w>
만 하지</w>
말 하면</w>
맨 시티</w>
명 작
모 솔
모 여
못 해
무 소
무 현</w>
문 상</w>
바 쁘
바 디</w>
보 노</w>
분 들은</w>
살 고</w>
상 에</w>
생 겨서</w>
서 새봄</w>
성 갤</w>
세 실</w>
소 에</w>
순 대
시 라
시 진
신 의
신 지
심 해
심 바</w>
안 죽
안 좋은
안 주냐</w>
양 학
오 서
우 흥
우 흥</w>
운 전</w>
을 거같은데</w>
이 면
이 엿
이 익</w>
인 기가</w>
입 덕
입 문</w>
있 다가</w>
자 석
작 전</w>
작 업</w>
잘 하는거</w>
잘 했다</w>
전 도</w>
전 자</w>
접 었
조 국
조 언</w>
죄 이</w>
지 효</w>
진 성</w>
찍 기</w>
처 맞
철 염</w>
청 원</w>
초 창
축 제</w>
치 도</w>
카 걸</w>
클 릭</w>
키 노</w>
타 령</w>
터 져
퇴 갤
트 롯</w>
파 일</w>
폐 급
포 터</w>
피 파
하 체
하 마</w>
하 거나</w>
한 자
할 거냐</w>
현 장</w>
활 용
희 귀
해야 한다</w>
안되 겠다</w>
11 5
이거 야</w>
문제 야</w>
좆같 이
ㄹㅇ 로</w>
이었 노</w>
나온 거
떨어 지는</w>
마이 크</w>
오르 냐</w>
행복 한</w>
나와 야</w>
하겠 노</w>
오지 게
삼성 라이온
에픽 세
가격 이</w>
고양 이
짜증 나
라스 칼</w>
오리 지
설명 좀</w>
주문 하신</w>
안타 깝
외질 이</w>
클로 저</w>
이시 각</w>
ㅇㅇㅇㅇ ㅇㅇㅇㅇ
얍얍 이</w>
파수 꾼
가르 쳐
워녕 이</w>
박근 혜
커뮤니 티</w>
LC K</w>
녹두 로</w>
푸엉 큼</w>
내로 남
2 위</w>
2 주</w>
4 명
4 분
5 억</w>
6 개월
8 천
A R
O N
T V
k t</w>
m p
ㅁ ㅁ
걸 려
경 찬
계 좌
고 사</w>
곳 은</w>
구 에</w>
국 장</w>
글 섭
금 이</w>
기 한</w>
꺼 야</w>
네 일</w>
노 말
놀 아
놓 으면</w>
누 비</w>
능 지
니 들도</w>
다 를
돌 은</w>
디 비</w>
딴 건</w>
떡 인지</w>
레 카</w>
로 함</w>
린 게</w>
마 루
마 셈</w>
망 이</w>
매 매</w>
메 일
별 거
복 습
부 랄</w>
븝 미</w>
비 글
빨 면</w>
사 인
사 요</w>
상 주
상 수</w>
색 기
생 성
서 열
성 현준</w>
셀 롯
손 님</w>
슬 림
심 하게</w>
씨 ㅡ
안 쓰는</w>
앞 머리</w>
얘 기는</w>
없 지만</w>
연 동
연 은</w>
영 구
옆 에서</w>
오 오</w>
우 유</w>
유 키</w>
음 ㅇㅇ</w>
이 과
이 시간
인 셉
인 정</w>
일 행</w>
자 본
잡 이</w>
잡 는거</w>
장 갑
장 사
전 라
정 냐</w>
제 시</w>
조 절
좆 됨</w>
주 지
죽 은
참 고</w>
최 주
출 석
치 노</w>
토 츠
통 수</w>
팝 콘
포 장
프 록
플 티</w>
픽 뚫</w>
하 내</w>
할 거같
합 성</w>
했 는지</w>
회 수
히 오스</w>
힐 러</w>
들어 왔는데</w>
10 퍼
10 만원</w>
이라 던데</w>
스트 로</w>
언제 하냐</w>
언제 나와</w>
이상 화
11 0</w>
해주 세
해주 지</w>
12 시
이벤 트는</w>
아무 튼</w>
나왔 을때</w>
올라 감</w>
시발 ㅋㅋㅋ</w>
알려 주세요</w>
알려 드림</w>
13 9</w>
노래 방
나올 때까지</w>
ㄱㄱ ㄱㄱ</w>
그리 스</w>
없는 이유</w>
70 0</w>
어떤 가요</w>
사라 지
어쩌 구</w>
무서 워</w>
무서 워서</w>
어제 부터</w>
만드 냐</w>
기안 84
퇴근 길</w>
비교 하면</w>
어디서 봄</w>
미래 가</w>
끝났 네</w>
너네 가</w>
아프 네</w>
사냥 터</w>
아파 서</w>
중고 로</w>
비싸 네</w>
도움 좀</w>
지말 라고</w>
받는 곳</w>
해본 사람</w>
자전 거
문경찬 은</w>
역사 상</w>
라비던 스</w>
나봉 쓰</w>
수험 생</w>
DUMD i</w>
스밍인증왔 대호</w>
비주 얼</w>
충무 공
1 이닝</w>
2 루</w>
3 카</w>
3 배</w>
4 시간</w>
G T
f p
ㄴ ㅇㅈ</w>
ㅂ ㄹ
ㅅ ㅍ
가 는거
갓 반
건 전
겠 죠</w>
곳 에</w>
과 학</w>
괴 담
구 간
구 원
그 럼
금 발
꼬 리</w>
꾹 앰</w>
끼 워
나 다</w>
나 인</w>
낙 서
넘 들</w>
넘 어서</w>
노 ㅋㅋㅋㅋㅋ</w>
놈 아</w>
는 새끼</w>
다 구</w>
단 타
단 다</w>
달 림</w>
대 지</w>
돈 주고</w>
드 루</w>
들 아
때 메</w>
랜 덤</w>
레 기</w>
레 일리</w>
렸 노</w>
루 스</w>
루 머</w>
리 베
리 사</w>
마 핸
만 들</w>
맥 스</w>
모 른
목 걸이</w>
몰 이</w>
못 이기
물 약</w>
뭐 든</w>
믿 는다</w>
바 위
받 는게</w>
보 험</w>
복 커</w>
부 계
비 밀</w>
비 제이</w>
빌 런
살 인데</w>
선 호
세 우
세 워
센 세
셋 이</w>
수 염
수 면</w>
숭 이</w>
스 폰
스 틱</w>
슬 리
시 노
시 전
신 입
신 도</w>
심 판</w>
싸 인</w>
쓰 던</w>
씹 어
씹 새끼</w>
아 내
아 돌
아 디
아 메리
안 고
안 와</w>
알 람</w>
에 너
여 태</w>
여 돌</w>
오 니</w>
요 정</w>
위 해서</w>
유 이</w>
응 디
인 강
인 방</w>
일 거</w>
일 지</w>
잔 데</w>
잡 혀
장 난</w>
재 평가
정 수</w>
정 치</w>
좆 쥐
좋 을듯</w>
쥬 지가</w>
체 육
카 드는</w>
큐 시
키 타</w>
탈 워</w>
털 어
통 수
파 렉
팔 림</w>
편 하게</w>
포 가</w>
플 이</w>
필 드</w>
한 이</w>
한 식</w>
할 일</w>
했 어도</w>
헌 터</w>
현 역</w>
홍 이
하는 데
하는 건가</w>
아니 였냐</w>
나오 겠네</w>
들어 라</w>
10 구역</w>
사람 임</w>
20 년
해야 돼</w>
병신 같
좋아 하냐</w>
씨발 씨발
이상 한거</w>
시작 하는</w>
나왔 노</w>
나왔 어</w>
방송 에</w>
200 7
한국 이</w>
17 일</w>
미친 새끼</w>
페이 스</w>
마리 아</w>
60 0</w>
별로 야</w>
유저 인데</w>
만드 네</w>
무료 로</w>
와꾸 가</w>
ㅋㅋㅋㅋㅋㅋㅋㅋㅋㅋㅋㅋㅋㅋㅋㅋㅋㅋㅋㅋㅋㅋㅋㅋㅋㅋㅋㅋㅋㅋㅋㅋ ㅋㅋㅋㅋㅋ</w>
매니 저
이모 티콘</w>
린이 인데</w>
단체 로</w>
하하 하하
아깝 다</w>
it h</w>
시그 니
무적 권</w>
고등 학교</w>
태블 릿</w>
포레스텔 라갤</w>
조센 징
도서 관</w>
백용 환</w>
음바 페</w>
태민 갤</w>
1 초
3 점
5 번
e e
가 불
가 입</w>
각 임</w>
갓 성은</w>
거 절
경 기가</w>
고 평가
공 기업</w>
구 라</w>
그 때
그 램
근 이</w>
기 생
꼬 추</w>
꿈 에서</w>
난 투</w>
눈 치</w>
는 점</w>
님 들이</w>
답 게</w>
덱 에</w>
돌 고</w>
드 도</w>
룩 삼</w>
마 켓
마 니</w>
막 히
많 더라</w>
미 지</w>
바 스</w>
밤 새
방 방
배 팅
베 스트
변 화</w>
복 이</w>
브 라</w>
빅 텍</w>
빠 들</w>
빼 곤</w>
뽑 는</w>
사 령
사 사
삼 이</w>
색 깔
소 스</w>
쇼 미</w>
신 병
아 끼
안 본
안 심
안 한
앗 음</w>
앰 뒤
야 돼</w>
야 하나</w>
어 의</w>
어 찌</w>
없 을</w>
엘 비</w>
운 건</w>
유 격</w>
윤 이</w>
의 사가</w>
이 더</w>
있 는거지</w>
자 세</w>
자 들은</w>
장 르
정 은</w>
제 국
주 택
주 호
죽 일
지 내
지 옥</w>
진 격
질 은</w>
코 구
콩 이</w>
키 트</w>
테 오
토 요일
튜 브
트 랑</w>
팔 이
팬 인데</w>
프 붕이</w>
하 긴함</w>
한 방
한 수
한 태</w>
한 시간</w>
할 줄
합 니까</w>
핵 심
호 로
화 난
히 하
힘 이</w>
고싶 노</w>
생각 하고</w>
생각 하니까</w>
들어 와서</w>
오늘 만</w>
해야 되는데</w>
지않 아</w>
15 일</w>
아닌 듯</w>
캐릭 은</w>
이었 냐</w>
궁금 해</w>
잘생 기면</w>
보고 도</w>
이기 야</w>
페이 커
서울 에</w>
대가 리가</w>
어떻게 든</w>
바이 크</w>
22 1</w>
만나 고</w>
파이 어
갤주 가</w>
개꿀 잼</w>
불쌍 하네</w>
떡밥 이</w>
기안 은</w>
조선 족
여고 딩
빠르 네</w>
라비 리
외국 인
5천 원
려고 하는데</w>
카스 미</w>
국가 직</w>
승부 존</w>
커리 어</w>
깔끔 하게</w>
최적 화</w>
김혜 성</w>
시조 새</w>
러블리 즈갤</w>
냉혹 한</w>
3 장</w>
T S</w>
m e</w>
s 7</w>
ㄹ ㄹ</w>
가 로
갑 옷
개 쓰레기
거 봐</w>
건 물
경 은</w>
고 평가</w>
공 장
광 역
구 해
국 야</w>
국 대</w>
글 쓰
길 가
내 는거</w>
너 만
네 ㄷㄷ</w>
녀 는</w>
누 굴</w>
는 것</w>
니 샤
닉 변
닉 언
다 닌
다 이</w>
당 하네</w>
당 했다</w>
대 참
대 타
더 가</w>
돌 림
동 갑
됐 지</w>
될 거</w>
드 라이
든 지</w>
들 과</w>
똥 퍼
라 시
라 는거</w>
라 모스</w>
랑 이
로 시</w>
루 트
리 도</w>
리 마</w>
마 레
마 비
마 로</w>
마 법</w>
마 세요</w>
망 갤</w>
맞 짱
매 운
명 품
몇 이냐</w>
무 뽑
문 에</w>
뭐 냐면</w>
미 야
박 는</w>
밖 에서</w>
버 크</w>
복 수
볼 게</w>
봊 초
부 엉
부 상</w>
불 리
브 리</w>
븝 딱</w>
비 틀
사 탄
사 야</w>
사 나이</w>
살 만함</w>
서 야</w>
세 스
세 력</w>
소 풍
쉽 게
스 톤
시 스</w>
시 킨</w>
씨 는</w>
아 머
아 네</w>
안 티
안 어울
야 무
야 간</w>
언 론
없 겠지</w>
연 재</w>
영 의</w>
위 즈
육 군</w>
이 틀</w>
인 벤</w>
잇 지</w>
잡 냐</w>
재 벌
저 새낀</w>
조 닭
조 롱
종 목
주 니까</w>
지 니
직 구
진 화</w>
참 가
참 여</w>
치 고
치 치</w>
캐 가</w>
테 마</w>
텐 션</w>
톡 스</w>
판 정</w>
한 잔</w>
함 성
회 에</w>
희 가</w>
아니 였음</w>
나오 려나</w>
생각 나는</w>
생각 나서</w>
10 연차</w>
병신 이</w>
가능 해</w>
씨발 ㅋㅋ</w>
해주 고</w>
12 00
친구 는</w>
사이 드
이쁘 지</w>
받아 도</w>
떨어 졌
머리 에</w>
라인 전</w>
40 분
철구 야</w>
내일 도</w>
에이 텍</w>
ㅠㅠㅠㅠ ㅠㅠ</w>
여친 이랑</w>
있을 까요</w>
분위 기
스테 이지</w>
브리 검</w>
하지말 라고</w>
죽여 버리
감스트 가</w>
어때 서</w>
피지 컬
슬프 다</w>
유희 왕</w>
사은 품</w>
김하 성</w>
1 시
3 차
3 은</w>
F act</w>
n g</w>
가 야함</w>
강 원
강 백호</w>
개 쩔
개 시발</w>
개 돼지
갤 스밍</w>
거 든
검 제</w>
결 국
계 는</w>
공 휴
귀 걸이</w>
극 혐</w>
기 계</w>
기 존</w>
꾹 이</w>
나 같은</w>
날 려
녀 들</w>
녹 음
눈 깔
는 중인데</w>
니 지</w>
다 하면</w>
더 태민갤</w>
뒤 면</w>
들 이나</w>
래 요</w>
러 는</w>
리 랑</w>
마 셔
막 타</w>
만 하냐</w>
모 의</w>
못 먹
무 상
무 엇</w>
뭐 야
미 즈
보 충
보 자마자</w>
본 섭
본 체</w>
불 꽃
빠 졌
빠 진</w>
빨 았
뽑 을</w>
뿡 은</w>
사 자</w>
산 업
살 찌
살 다</w>
색 으로</w>
설 문
성 에</w>
세 웠
소 소
소 용
속 으로</w>
쉬 운</w>
스 벅
스 택</w>
심 야
심 지어</w>
아 수
아 랑</w>
아 머</w>
안 써
안 줌</w>
안 보임</w>
얘 기가</w>
어 째</w>
업 데이트
에 코
연 패
염 색</w>
왔 냐</w>
외 전</w>
외 퀴들</w>
웠 던</w>
이 론
이 새기</w>
인 권
일 텐데</w>
자 라고</w>
잡 았다</w>
저 딴
저 새끼
전 략
전 개</w>
전 으로</w>
전 에도</w>
좆 본
죽 어도</w>
즈 도</w>
짐 승
창 들</w>
천 사</w>
취 소</w>
칭 찬</w>
카 와
카 도</w>
카 카오</w>
케 미
크 리</w>
특 문</w>
팬 미</w>
팬 들이</w>
폼 이</w>
학 식
해 가</w>
행 님들</w>
헤 메
현 식이</w>
화 나
훈 련</w>
휴 방
생각 하는데</w>
10 개</w>
병신 들은</w>
언제 나</w>
11 구역</w>
여기 다</w>
시발 년</w>
알려 주셈</w>
다니 깐</w>
궁금 함</w>
이쁘 노</w>
시즌 에</w>
잘생 겨
하고 있는데</w>
어야 됨</w>
고민 중</w>
트로 이
싸우 는</w>
유니 온</w>
맞추 고</w>
입갤 ㅋㅋ</w>
않았 음</w>
그나 저나</w>
인스타 에</w>
이승 현</w>
다크 포
소속 사</w>
트레이 드는</w>
pv p
스페 셜</w>
구독 자</w>
핸드 폰</w>
김종 인</w>
함께 라는</w>
챔피 언</w>
dl c</w>
아이들 갤</w>
0 9
1 달
2 각
2 달
4 시</w>
K T
t v
ㅆ ㅎㅌㅊ
ㅊ ㅊ</w>
가 서
강 이</w>
개 똥
거 북
거 잖아</w>
것 이다</w>
경 쟁</w>
계 좌</w>
고 교
고 려
고 말
골 든
골 반</w>
관 중
광 탈
구 토
군 대가
기 때</w>
기 는거</w>
낮 에</w>
낸 다</w>
넘 게
녕 이</w>
다 같이</w>
달 라고
대 항
대 고</w>
두 근
듣 보
띵 곡
라 노
러 들</w>
레 후</w>
마 왕</w>
망 하면</w>
맞 는거
머 고</w>
목 격
뭐 뭐
미 술
밑 에
반 이</w>
발 정
버 닝</w>
보 민
복 지</w>
부 를
사 일
사 콜
사 태
소 시
쇼 룸
수 련</w>
수 있을까</w>
스 만</w>
스 워</w>
슬 라
슼 갈
시 야</w>
신 분
신 작
신 섭</w>
싫 네</w>
싶 은
쌍 욕
쓸 만한</w>
씨 벌
아 예
안 까
안 돌아
어 이가</w>
없 는거임</w>
열 차</w>
였 긔</w>
오 로
오 클
와 야
우 드</w>
웃 김
원 에서</w>
월 요일
은 비</w>
이 혼
이 글</w>
이 임</w>
이 사람</w>
이 긴한데</w>
이 여도</w>
임 병
임 영웅
자 식
자 총
잘 되
잘 뽑
잡 는
재 가</w>
저 리
정 전
제 시
조 아라</w>
줌 들이</w>
중 치
직 은</w>
질 까</w>
찍 먹</w>
찍 는데</w>
철 은</w>
체 리
친 선
쿠 르
틀 드는</w>
판 독
폭 격
풍 성
픽 츄
한 가지</w>
해 는데</w>
해 보면</w>
홍 이형</w>
화 나네</w>
흐 름
히 기</w>
새끼 들도</w>
는거 보다</w>
생각 할수록</w>
10 강</w>
누구 보다</w>
시작 해서</w>
시발 련</w>
시발 년아</w>
올리 냐</w>
ㅅㅂ ㅋㅋㅋ</w>
할수 도</w>
문경 찬이</w>
in e
유니 크</w>
꼴리 지</w>
재밋 음</w>
타이 틀
부터 임</w>
무서 워
맞추 면</w>
유저 들</w>
이쁜 거</w>
김치 찌
소바 는</w>
인싸 촌</w>
느끼 는건데</w>
귀찮 아서</w>
느낀 게</w>
레벨 업
혼자 서</w>
안뜨 냐</w>
니네 가</w>
그랬 는데</w>
올랐 네</w>
시너 지
이춘 향
pv p</w>
정주 행</w>
전체 적으로</w>
이쯤 에서</w>
로헨 델
말복 쿠폰</w>
영원 히</w>
성희 롱
강정 호</w>
미주 픽츄
노수 광</w>
김선 빈</w>
시메 오네</w>
오마이걸 갤</w>
승리의엘롯 스밍인증왔대호</w>
0 9</w>
1 루</w>
2 대
7 월
T NO</w>
i r
s n
가 이</w>
가 고싶
갔 어</w>
개 새끼들</w>
결 론</w>
계 신가요</w>
과 락
구 린</w>
기 차
까 마
꼴 린다</w>
나 시</w>
남 의</w>
농 담
놓 은</w>
누 난
뉴 욕
단 백
동 영상</w>
되 겠
두 려
딱 지</w>
라 던데</w>
로 맨
롭 게</w>
리 즈
리 로</w>
립 니다</w>
만 난
말 복</w>
맛 잇
망 호
망 상</w>
매 직</w>
멀 티</w>
명 문
목 요일
문 과</w>
박 수
발 음</w>
발 라</w>
방 문
배 틀</w>
밴 드
밸 패</w>
베 가</w>
분 량
사 울</w>
살 은</w>
서 번트</w>
센 텀
소 추
손 목
수 인</w>
스 윙</w>
식 단</w>
신 비</w>
싸 가지
아 노</w>
않 다</w>
양 이</w>
어 린</w>
없 더라</w>
영 국</w>
예 언</w>
왕 이</w>
운 빨
유 령
유 식
유 우
유 럽</w>
의 료
인 디
일 까지</w>
입 으면</w>
자 들이</w>
잦 글
전 환
정 국
좆 끼
줘 패
증 가</w>
지 게</w>
직 구</w>
진 로
진 실</w>
컨 트롤</w>
큰 거</w>
타 락
탈 빠
템 렙</w>
토 큰</w>
특 성
틀 퀴</w>
파 악
파 크</w>
편 성</w>
포 도</w>
폴 드</w>
푸 쉬
풀 림</w>
퓨 딜
피 파</w>
필 기</w>
하 울
한 장
한 것도</w>
해 드림</w>
헤 이
히 비
20 18
ㅋㅋㅋㅋㅋㅋㅋㅋㅋㅋㅋㅋㅋㅋㅋㅋ ㅋㅋㅋㅋㅋㅋㅋㅋㅋㅋㅋㅋㅋ</w>
얼마 전에</w>
12 일</w>
한국 인</w>
보이 스
보이 노</w>
다니 는데</w>
노래 도</w>
이쁘 고</w>
인증 한다</w>
마지 노
일러 레</w>
에이 치
인생 은</w>
어쩌 라고</w>
꼴리 는
대기 열</w>
서버 는</w>
유저 가</w>
먹었 어</w>
오프 라인</w>
응원 봉</w>
자리 에</w>
쳐맞 고</w>
갤러리 에</w>
우울 증</w>
귀찮 다</w>
통합 공지</w>
대깨 문</w>
달아 줘</w>
멤버 들</w>
신경 쓰
환상 동
손가 락
사쿠 라</w>
피드 백
아칼 리</w>
모음 집</w>
글러 트
생각난 건데</w>
1 화</w>
3 8</w>
4 인
4 000
5 카</w>
L E
i t</w>
o s
u b
가 를</w>
가 루</w>
가 는중</w>
갈 비</w>
감 염
개 봉</w>
개 소리</w>
건 물</w>
겜 에서</w>
공 대</w>
교 복</w>
구 리네</w>
군 인
꼴 림
나 은듯</w>
너 의</w>
넣 는</w>
노 출
니 카</w>
다 함</w>
담 당</w>
대 면
된 듯</w>
따 따
따 고</w>
따 는</w>
딸 딸
떠 려니</w>
레 게
로 또
리 디
린 은</w>
린 다고</w>
맞 출
매 치</w>
먹 튀
멀 리
모 동
모 기</w>
모 라타</w>
무 한</w>
뭔 가요</w>
미 네</w>
바 는데</w>
반 짝
방 어</w>
방 식</w>
배 는</w>
백 합
범 이</w>
베 리</w>
별 거</w>
볼 거</w>
봉 인
불 러</w>
비 하면</w>
빡 쳐서</w>
빡 대가리
빨 아</w>
사 러
사 에서</w>
상 현</w>
상 품</w>
상 대가</w>
선 착</w>
세 네</w>
소 라
소 중
순 으로</w>
술 사
스 작
스 케</w>
시 냐</w>
시 아님</w>
시 나요</w>
실 드
실 제
썩 어</w>
아 고</w>
안 고</w>
안 하지</w>
않 습니다</w>
앰 생
야 야</w>
야 발</w>
야 생</w>
없 구나</w>
었 긔</w>
여 거
연 생</w>
오 짐</w>
용 사</w>
웅 앰
웠 음</w>
유 난
유 플</w>
의 문
이 갤</w>
일 퀘</w>
자 괴
자 사</w>
자 원</w>
잘 해서</w>
잡 아야
전 직
전 북</w>
전 에는</w>
정 책</w>
제 도</w>
조 승
주 시긔</w>
죽 은</w>
줌 이</w>
중 이네</w>
진 국
찐 오
창 국이</w>
천 국
체 인
춘 향
치 과
캐 스터
커 즈</w>
콜 로</w>
타 팀
태 극
토 모
통 과
틀 린</w>
파 일
팩 트는</w>
페 그오
피 에
필 살기</w>
한 녀</w>
해 진</w>
혜 원
훈 수
휴 식
힘 을</w>
하는 애들은</w>
10 시에</w>
하나 봐</w>
시간 은</w>
거같 노</w>
이런 것도</w>
스토 리가</w>
200 50
괜찮 은거</w>
한국 에</w>
일본 이</w>
미친 년
나가 고</w>
ㅅㅅㅅㅅ ㅅㅅㅅ</w>
하고 도</w>
별로 네</w>
어떤 게</w>
타이 틀</w>
일반 인</w>
많은 듯</w>
짜증 나네</w>
공지 사항</w>
만든 거</w>
아가 리
아파 트
좋았 음</w>
하러 간다</w>
스위 칭</w>
ㄱㅊ 음</w>
상황 이</w>
모든 게</w>
태어 나서</w>
정우 영</w>
안뜨 네</w>
롯데 리아</w>
소개 팅
메갈 핌
이정 후
오재 일</w>
생존 자</w>
글로 벌</w>
성희 롱</w>
웅장 해진다</w>
신나 린</w>
06 25</w>
나혼 산</w>
스튜 디
5 명
5 점
D A
L P
c g
e b
ㅆ ㅆ
갈 리는</w>
감 봉
강 점
거 같은
검 신</w>
겼 다</w>
구 나
구 성</w>
기 름
기 사가</w>
김 채원</w>
깨 짐</w>
꼬 접
나 노
내 꺼</w>
넘 음</w>
노 인
누 적
님 을</w>
담 원
당 에</w>
대 학교</w>
댕 라</w>
도 로
되 는건</w>
든 가</w>
들 으
똑 같음</w>
띵 곡</w>
러 시
러 스트</w>
럼 들아</w>
로 서</w>
루 미
마 일
막 타
만 해</w>
맞 았
매 직
먼 트</w>
면 상
모 금</w>
미 오
밀 면</w>
반 등
반 대</w>
발 롱
발 로</w>
보 통
본 캐</w>
북 한</w>
비 웃
빠 는거</w>
빠 지면</w>
산 지</w>
상 처
색 깔</w>
성 골
세 스</w>
셋 팅</w>
소 전
수 업</w>
수 술</w>
숭 아</w>
시 후
시 위</w>
시 후</w>
식 이
실 리
싫 긔</w>
심 장</w>
안 자
안 올라
안 봤는데</w>
알 겠네</w>
어 에</w>
여 는</w>
영 국
오 줌</w>
옵 이</w>
왕 은</w>
위 주로</w>
유 에</w>
음 란
의 견</w>
이 낙
익 절
인 별
일 임</w>
일 이고</w>
자 다</w>
작 곡
잘 한
점 을</w>
접 을
접 대</w>
정 답
제 주</w>
젤 다</w>
조 기
조 눈
종 이
주 도
중 소
중 일</w>
지 겨
지 에서</w>
차 지</w>
처 넌
철 수</w>
첨 에</w>
최 저
최 애</w>
축 제
치 는게</w>
카 리
커 맨
쿠 로
타 워</w>
탈 모</w>
틀 와
팁 좀</w>
판 정
팔 아야
페 북
포 는</w>
픈 데</w>
피 니
피 쳐
필 드
하 길</w>
한 식
했 으니</w>
헬 리
헬 지
호 출
화 에</w>
10 억</w>
ㅋㅋㅋㅋㅋㅋㅋㅋㅋㅋㅋㅋㅋㅋㅋㅋ ㅋㅋㅋㅋㅋㅋㅋㅋㅋㅋㅋㅋㅋㅋㅋ</w>
병신 인</w>
재밌 게
스트 가</w>
추천 받음</w>
언제 냐</w>
어케 되냐</w>
시발 ㅋㅋㅋㅋ</w>
100 만원
지랄 하네</w>
프리 코네
나올 거</w>
떨어 지네</w>
사랑 의</w>
프레 데리
사진 이</w>
애니 화</w>
애들 한테</w>
디시 콘
안나오 는</w>
하기 로</w>
자체 를</w>
차이 임</w>
떡밥 은</w>
부터 는</w>
클리 드</w>
시청 률</w>
크로 스</w>
베르 드
커여 움</w>
급식 들</w>
완장 들</w>
해줄 사람</w>
메카 닉</w>
커엽 다</w>
경험 치
꼬라 박
해봤 자</w>
할꺼 면</w>
ㅡㅡㅡㅡㅡㅡ 타</w>
ㅓㅓ ㅓㅓ
어때 요</w>
조건 이</w>
새키 들</w>
진명 호</w>
갓오 하</w>
4 2</w>
4 명</w>
5 에</w>
6 5</w>
8 시</w>
9 월에</w>
F P
a d
e t
s o</w>
ㄱ ㄷ
ㅠ ㅜ</w>
가 방
가 보자</w>
각 자</w>
감 나
감 도</w>
개 새끼
개 념글
것 을</w>
계 수</w>
고 전
고 옴</w>
고 2</w>
고 화질</w>
곳 에서</w>
공 단기</w>
과 로
국 방
궁 예
극 장</w>
근 접
글 쓴
글 자
기 출</w>
꼬 홀
꾹 삐</w>
꾹 앰들</w>
나 죽어</w>
날 개
날 리
날 듯</w>
남 는</w>
노 예</w>
니 도</w>
니 랑</w>
다 매</w>
다 ㅋㅋㅋㅋㅋ</w>
다 더니</w>
다 저스</w>
단 체</w>
덕 이</w>
도 라</w>
되 는거야</w>
드 나</w>
드 는데</w>
등 등</w>
디 비
따 잇</w>
때 보다</w>
똑 같은
렸 어</w>
렸 냐</w>
롤 드컵
률 이</w>
르 르
리 자
만 에
망 토</w>
맞 나요</w>
면 상</w>
목 욕
못 하지</w>
무 선
물 마
뭐 였지</w>
미 랑</w>
바 사
발 언
밥 먹고</w>
법 을</w>
베 는</w>
본 인은</w>
볼 땐</w>
비 아
비 동의
빙 고</w>
뻔 했네</w>
산 적
살 았
살 구</w>
색 히
샌 박
성 지</w>
성 장</w>
센 츄
수 박
수 요
스 나</w>
시 네
시 세
실 업
싸 워
쓰 는거
아 사
안 개
않 는다</w>
애 랑</w>
앤 비
양 념
역 체
열 면</w>
오 네
오 자</w>
욕 하면</w>
유 는</w>
이 채
이 는데</w>
임 ㅋㅋㅋ</w>
입 는</w>
잘 팔
장 마</w>
재 련
재 능</w>
적 이
전 생
전 원</w>
정 답</w>
종 교
좆 다</w>
좌 표</w>
죄 악</w>
주 실</w>
주 변</w>
주 술</w>
중 경
증 가
지 수
진 궁
진 자
진 게</w>
집 안
짤 들</w>
짤 림</w>
쪽 에</w>
쳐 내
초 동
취 직
칠 때</w>
칭 호
크 라
큰 데</w>
키 타
탱 크
테 가</w>
토 미</w>
트 라
티 나
파 도</w>
파 원</w>
팔 아</w>
풀 리면</w>
풍 성이</w>
피 카
하 위</w>
한 줄
한 새끼</w>
할 배</w>
해 봐야</w>
했 을</w>
혜 원</w>
회 원
히 고</w>
히 히</w>
나오 는거
들어 갔는데</w>
레이 드는</w>
재밌 노</w>
스트 는</w>
이거 뭐냐</w>
우리 동네</w>
아무 도
ㅡㅡㅡㅡ 타</w>
메이 드</w>
돌아 가는</w>
한다 는거</w>
그만 해라</w>
키우 는게</w>
하고싶 네</w>
최고 다</w>
최고 야</w>
일어 났
어떻게 하냐</w>
요즘 엔</w>
애들 만</w>
문재 앙
돌리 는데</w>
에어 팟
불쌍 함</w>
대단 하네</w>
그렇 다
장현 식은</w>
확정 임</w>
어캐 함</w>
급식 때</w>
성능 은</w>
아니었 으면</w>
몰랐 다</w>
아르 마다</w>
오른 쪽</w>
부러 워</w>
엘리 시
배터 리
예쁜 데</w>
하자 면</w>
개쩌 는</w>
김호 중
가디 언
pd f
삼겹 살</w>
삼국 지</w>
렌탈 여친</w>
상식 적으로</w>
심사 위
4 위
5 7
5 시</w>
5 년</w>
9 7
9 시
A p
L i
V S
i s</w>
s k</w>
t op
u r
x m
ㄴ ㅁ
ㅊ ㄱ
가 운
가 구</w>
가 오</w>
갑 옷</w>
갓 데</w>
갔 을때</w>
강 력
같 아요</w>
갤 하는</w>
건 축
걸 스</w>
겟 어</w>
결 장
고 무
과 목
교 사</w>
그 것도</w>
급 하게</w>
기 운</w>
긴 하지</w>
까 이는</w>
나 을
나 잇
나 로</w>
남 은거</w>
낫 지않냐</w>
넣 은</w>
넣 어도</w>
노 량
논 리</w>
님 도</w>
닥 쳐</w>
대 화</w>
도 를</w>
돌 았
되 고싶다</w>
디 톡스</w>
또 또</w>
려 했는데</w>
렸 으면</w>
로 써</w>
룸 빵
리 코
린 제</w>
마 약
마 왕
만 져
메 이</w>
모 를
무 능
뭔 지
보 냄</w>
보 내</w>
본 거</w>
본 가</w>
부 수
분 리
비 티</w>
비 동의</w>
뽀 뽀
뿐 이다</w>
사 복
사 운
사 정
사 려고</w>
살 다
상 당
새 낀
새 요</w>
생 방
서 열</w>
세 일</w>
세 움</w>
소 름</w>
수 업
수 준이</w>
순 이
스 턴
슬 퍼</w>
시 는
시 부
실 북
씩 만</w>
아 몰
안 뽑
안 좋음</w>
안 가네</w>
애 국
애 도</w>
야 식
약 함</w>
어 옴</w>
없 냐고</w>
에 버
엠 카
온 도</w>
요 렌
용 량</w>
월 클
위 에서</w>
이 정도로</w>
이 와중에</w>
인 척
일 뽕
임 대</w>
있 지
자 제
자 인데</w>
잡 은</w>
잡 네</w>
전 드</w>
정 액</w>
제 국</w>
종 이</w>
좆 같은거</w>
좆 되네</w>
준 수
중 견
중 붕이들</w>
쥬 리
진 던</w>
진 입</w>
질 리
카 노</w>
컨 디
탈 주</w>
탱 크</w>
퇴 갤</w>
트 래
티 스</w>
티 브</w>
티 니아
폭 염
폭 풍
픽 시브</w>
한 마리</w>
할 것
할 말
함 이</w>
합 류
헌 혈
화 가
후 원
ㅋㅋ ㄱ
나오 는거임</w>
아이 스
어디 다</w>
어디 까지
언제 나오냐</w>
이거 도</w>
ㅡㅡㅡㅡ ㅡ타</w>
100 0</w>
있었 나</w>
잘생 기
귀여 운데</w>
만원 짜리</w>
재미 없네</w>
사기 꾼
보내 면</w>
는데 ㅋㅋ</w>
요즘 에</w>
복귀 했는데</w>
비슷 함</w>
ㅇㅈ 이지</w>
세상 이</w>
웨이 버</w>
ㅆㅅㅌㅊ 네</w>
방법 좀</w>
스럽 네</w>
느낀 건데</w>
자동 으로</w>
뒤지 게</w>
캐릭터 가</w>
정신병 자</w>
아지 르</w>
아재 들</w>
팔로 우</w>
유튜버 들</w>
1주 일
학치 커
토마 토
핑까 점</w>
여론 조사</w>
침착 맨
독서 실</w>
못하겠 음</w>
꺼져 라</w>
리액 션</w>
이누 야
nt r
수즈 나</w>
루페 온</w>
소신발 언</w>
거든 요</w>
3 1
3 시</w>
4 1
8 15
A I</w>
C T</w>
K ID
c c
i p</w>
j y
s h
t s</w>
w a</w>
ㅂ ㄷ</w>
ㅍ ㅍ
가 리</w>
갈 게</w>
감 정</w>
거 같은</w>
걸 레</w>
검 찰
겨 우
결 말</w>
고 를</w>
공 사</w>
관 에서</w>
괜 히
구 미
규 가</w>
극 한
급 발
기 부</w>
꼴 아
끼 들</w>
나 성
난 투
날 이네</w>
남 겜
내 역
냉 장
널 널
녀 석</w>
노 꼴
놀 람</w>
는 새끼들</w>
님 이랑</w>
다 길래</w>
단 판
당 했네</w>
대 창
더 는</w>
도 냐</w>
돌 려</w>
돌 계</w>
된 다면</w>
드 는
때 랑</w>
떠 나
떤 냐</w>
레 고</w>
렌 즈</w>
려 다</w>
마 력
마 구</w>
마 드리
만 한거</w>
말 해</w>
몇 명</w>
모 금
모 노
못 봤는데</w>
무 거
무 현
문 열어
미 연
발 악
배 포</w>
백 인
변 기
보 수</w>
복 장</w>
뽑 는게</w>
산 책
샀 음</w>
생 방</w>
생 인데</w>
설 계
성 약
성 도</w>
성 으로</w>
세 로
쉬 는</w>
스 이</w>
슬 픈</w>
식 당</w>
실 행
실 체</w>
십 다</w>
쓰 면
안 오네</w>
안 오냐</w>
양 심</w>
어 을까</w>
에 포
여 성</w>
오 해
오 탈</w>
오 피</w>
왔 더니</w>
우 니까</w>
유 도</w>
유 가</w>
육 성</w>
음 반</w>
의 심</w>
이 천
이 적</w>
이 용</w>
이 어서</w>
이 네ㅋㅋ</w>
일 루시
있 으니</w>
장 작
장 문</w>
쟁 이들</w>
전 술
전 세계</w>
존 못
졸 커</w>
좀 더</w>
좆 두
좆 목</w>
좆 냥이</w>
주 장
주 갤</w>
주 겠지</w>
중 심
지 적
지 표</w>
창 에서</w>
철 이</w>
첫 날</w>
최 신
캐 리</w>
코 레
코 구</w>
클 라스</w>
퇴 물</w>
투 어
팬 들은</w>
푸 르
풀 어</w>
퓨 딜</w>
프 론
하 꼬</w>
하 시는</w>
한 심
할 까봐</w>
허 언
혁 은</w>
호 빠
호 마갤</w>
홀 리
홍 구</w>
후 배
후 속
나오 는게</w>
들어 간
들어 간다</w>
어디 갓
병신 같은
병신 같음</w>
병신 같네</w>
여자 도</w>
이라 는거</w>
이라 면서</w>
하나 도
이상 형</w>
시작 부터</w>
아무 래도</w>
시발 년들아</w>
질문 있음</w>
이었 어</w>
받아 야
그런 거임</w>
16 강</w>
미쳤 나</w>
서울 대
하고싶 음</w>
이제 와서</w>
파이 어</w>
어려 워
하기 도</w>
할만 하냐</w>
유진 이랑</w>
24 H
다르 냐</w>
인방 갤
심심 하면</w>
봐야 겠다</w>
프라이 드</w>
하고있 네</w>
어디갔 노</w>
지말 자</w>
이것 이</w>
화장 실
상태 로</w>
판매 량</w>
스시 녀</w>
마일리 지로</w>
커뮤니 티
챔피 언
영탁 마갤</w>
여사 친
잦스 틴</w>
개나 소나</w>
캠페 인</w>
1 학
2 시
2 만원</w>
3 배
9 6
T r
T 1</w>
a l</w>
e u</w>
o p</w>
가 드
가 려면</w>
같 고</w>
개 조</w>
개 씩</w>
건 은</w>
것 들이</w>
경 험</w>
고 래
공 홈
광 주
국 민</w>
규 모</w>
균 열
그 자체
기 자</w>
기 회</w>
김 대
노 려
니 미
니 키</w>
담 주에</w>
대 형</w>
데 모
덱 스</w>
도 트</w>
되 긔</w>
두 라</w>
둘 이서</w>
드 만</w>
득 점</w>
레 즈
레 어</w>
로 또</w>
리 타
마 야</w>
마 토</w>
만 붕이들</w>
망 해
맞 은</w>
물 에</w>
물 건</w>
뭐 할까</w>
뭐 시기</w>
미 남
바 냐</w>
반 드
반 은</w>
받 지</w>
발 렌
발 음
버 스터
범 룡
베 라</w>
보 조</w>
보 라고</w>
볼 넷</w>
부 갤주</w>
뽑 아서</w>
살 구
색 욕</w>
성 욕</w>
소 아
소 방</w>
속 에서</w>
솔 킬</w>
수 원
슈 퍼</w>
스 바
스 테</w>
슬 롯</w>
시 카
시 외</w>
심 장
쓰 고
아 님
아 몬
아 씨발
안 열
않 을
알 트
알 앗는데</w>
약 국</w>
어 스
어 필
어 든</w>
에 나</w>
여 프리</w>
연 상
열 매</w>
영 업</w>
예 요</w>
오 느
오 니
와 요</w>
와 이번
완 장이</w>
우 정
운 명
웃 음</w>
위 임</w>
유 능
의 지
이 달
이 길래</w>
이 자나</w>
인 상
인 식
일 하는</w>
읽 고</w>
있 던
자 신이</w>
작 화</w>
잠 재
장 시
전 북
접 었는데</w>
정 체가</w>
제 네
종 료
좆 병신</w>
주 는건</w>
지 표
진 도</w>
집 가서</w>
찍 는
찍 는거</w>
차 네</w>
청 와
쳐 라</w>
초 돌</w>
추 격
추 미
침 대</w>
카 트
커 트
컴 터</w>
컷 신</w>
쿠 키</w>
클 립</w>
태 도</w>
택 이</w>
터 졌다</w>
통 제
트 사
파 고</w>
판 도</w>
패 는
팬 싸</w>
평 점</w>
하 노
한 놈
합 니
해 체</w>
해 석</w>
햇 냐</w>
헤 으응</w>
현 상
황 제
아니 까</w>
하나 만
하나 에</w>
우리 나라
12 5</w>
12 0</w>
거같 지않냐</w>
소리 임</w>
질문 좀요</w>
한국 어</w>
있었 다</w>
가지 고
재미 는</w>
오르 면</w>
할수 있음</w>
불쌍 하다</w>
재밋 네</w>
찾아 봤는데</w>
오프 라인
지만 아</w>
해줘 도</w>
드리 블</w>
다는 걸</w>
어이 없
스위 치
시절 이</w>
엘마 는</w>
루시 안</w>
정신병 자
부러 움</w>
저런 거</w>
골라 줘</w>
샘슨 은</w>
반응 이</w>
웃음 벨</w>
너희 들</w>
힘든 데</w>
ㅊㅊ 좀</w>
올스타 전</w>
하지마 세요</w>
유투 브</w>
조각 가</w>
pl e</w>
NC다이노스 갤</w>
신한 류</w>
특징 이</w>
당당 하게</w>
발로 란트</w>
점유 율</w>
허도 환</w>
중치 마인드</w>
KID S</w>
1 부</w>
2 던</w>
3 이</w>
3 루</w>
3 인데</w>
P C</w>
V 4
d lc
l t
ㅂ ㅂ
ㅂ ㅈ
가 없네</w>
강 원도</w>
갖 고
같 더라</w>
갤 에
겼 는데</w>
경 고
경 우는</w>
고 침</w>
공 속
공 계</w>
광 주</w>
구 멍</w>
그 로</w>
그 분</w>
긴 했는데</w>
김 인
깔 아
나 간</w>
낙 관</w>
내 전
너 스
년 대
높 냐</w>
뇌 가</w>
느 림
는 가</w>
더 쿠</w>
도 네
독 재
돌 렸는데</w>
되 겠다</w>
둥 세웠
드 는거</w>
듣 는
또 는</w>
똥 냐</w>
라 면서</w>
러 셀
레 전</w>
련 님</w>
로 제</w>
루 루</w>
류 가</w>
마 을</w>
말 고
맛 있냐</w>
매 는</w>
머 꼴</w>
모 는</w>
못 사
못 해도</w>
못 하는거</w>
무 기가</w>
물 냐</w>
물 량</w>
미 터</w>
미 갤</w>
미 안</w>
믿 어</w>
바 디
바 퀴</w>
박 경
배 수
버 가</w>
병 살</w>
보 적
본 적이</w>
볼 거
부 심
빌 다리</w>
빡 침</w>
샀 어</w>
서 밋</w>
성 향</w>
세 무
션 이</w>
쇼 타
쉽 네</w>
시 는분</w>
쓰 노</w>
쓰 알</w>
아 츠</w>
안 키
안 하노</w>
암 만봐도</w>
애 교
약 한</w>
양 은</w>
양 팡</w>
어 버
엠 붕이</w>
역 갤
영 도</w>
오 면
오 피셜
오 블락</w>
올 리네</w>
와 봐</w>
우 아
원 인</w>
위 닝
육 수
의 도
이 겠네</w>
인 사이드</w>
일 수록</w>
잇 노</w>
있 길래</w>
자 퇴
자 님</w>
자 식</w>
잠 실
재 계약</w>
전 문</w>
전 직</w>
정 석</w>
조 리
조 는</w>
좆 이</w>
좆 망</w>
진 중
진 듯</w>
진 작에</w>
찍 냐</w>
차 별</w>
차 인데</w>
채 용
채 로</w>
천 둥
충 새끼들</w>
코 옵</w>
클 러
키 미
튜 토
파 엠</w>
퍼 포
폭 행
프 레이
피 해</w>
하 실
할 카스
해 선</w>
해 명</w>
해 지네</w>
했 다는데</w>
호 구</w>
회 장</w>
회 복</w>
희 생
는거 보니</w>
사람 한테</w>
좋아 하는거</w>
스트 레이
씨발 새끼</w>
이상 하네</w>
거같 아서</w>
남자 들은</w>
한국 의</w>
다니 면</w>
떨어 져
투표 부탁</w>
16 강
다시 보기
드디 어
해보 려는데</w>
사진 은</w>
좋겠 노</w>
애들 이랑</w>
코스 프레
중요 한게</w>
돌리 기</w>
어쩌 냐</w>
물어 보면</w>
알바 가</w>
인간 적으로</w>
만화 는</w>
ㅏㅏ ㅏ</w>
미국 이</w>
보기 엔</w>
보상 으로</w>
000 원</w>
키워 야
아카 데미</w>
오른 다</w>
설명 회</w>
역겨 움</w>
아리 사</w>
5천 원</w>
충격 적인</w>
장애 인</w>
미디신 비
원탑 은</w>
ㅡㅡㅡㅡㅡㅡ ㅡ타</w>
날씨 가</w>
이럴 거면</w>
알고 리
ㄹㄹ ㄹㄹ
오나 홀
클래 식</w>
주세 요
아픈 데</w>
원정 대</w>
주사 위</w>
지무 선</w>
이명 기</w>
기념 으로</w>
드럽 게</w>
데비 존</w>
월이 세</w>
둥세웠 탁</w>
2 만</w>
2 500
4 시에</w>
6 만
M B
M C
P S
T h
W h
k e
t i</w>
u s
w h
갓 파</w>
갓 는데</w>
강 림</w>
개 네</w>
개 를</w>
과 천
과 정</w>
관 전
괴 수</w>
교 행
그 제</w>
근 장
기 엽
기 절
김 세
깨 지
꾸 미
꾸 역</w>
끝 에</w>
나 기</w>
너 구리
넣 었
네 일
넥 슨</w>
노 출</w>
느 김치
다 는거
달 이</w>
달 리면</w>
도 끼
돈 까
되 긴</w>
들 리
떡 락</w>
러 시아
리 젠</w>
린 인데</w>
마 앰</w>
만 세</w>
망 하고</w>
망 한거</w>
맞 서</w>
먹 을때</w>
목 요일</w>
못 받음</w>
못 생김</w>
무 수리
뭐 하고</w>
바 드</w>
바 낸</w>
벨 트</w>
봐 도
부 가
부 른</w>
분 해
비 제
비 즈
뿐 이야</w>
생 겨
생 길
소 수
솔 찍
수 갤
순 애
스 즈
시 동
심 한데</w>
쓰 리</w>
안 퀴
안 옴</w>
알 수
앰 창</w>
억 지
억 이면</w>
얻 어
업 체</w>
에 피</w>
엔 진</w>
여 태
였 던
오 동
오 마
온 이</w>
울 와</w>
원 인데</w>
위 로
유 지</w>
으 니깐</w>
이 말
이 팀은</w>
있 나
있 지않냐</w>
자 산
자 한테</w>
자 가격
장 점이</w>
정 책
정 원</w>
정 권</w>
조 교
조 로</w>
좆 기
좋 지않냐</w>
주 차</w>
주 붕이</w>
죽 는</w>
즐 겨
지 른
진 여신
쪽 에서</w>
차 지
체 크</w>
추 어
치 니까</w>
카 카</w>
카 엘</w>
케 릭
키 아라</w>
타 입</w>
탈 덕
태 는</w>
택 시
터 치</w>
터 지는</w>
테 두
테 는</w>
특 가</w>
틀 고</w>
파 업
팔 았
팔 아서</w>
페 북</w>
폭 쥐</w>
프 라</w>
플 레</w>
픽 은</w>
하 던거</w>
학 과
한 자</w>
한 것</w>
할 때도</w>
해 리
해 졌
했 대</w>
했 나보네</w>
허 수</w>
헐 리
현 대</w>
현 무</w>
현 금</w>
호 랑</w>
히 짱</w>
아니 지만</w>
들어 갔
10 월에</w>
아이 고</w>
사람 이
20 만</w>
재밌 는
안되 고</w>
씨발 년들</w>
30 개</w>
11 1</w>
시작 한지</w>
여기 서
100 만</w>
질문 받는다</w>
애미 들이</w>
돌아 오
돌아 온</w>
진짜 냐</w>
있었 던</w>
궁금 한거
그런 거
미친 년</w>
다시 는</w>
평가 가</w>
일어 나면</w>
애니 는</w>
신기 한</w>
먹을 거</w>
보여 주는</w>
어떤 거</w>
영상 에</w>
쓰레기 임</w>
개꿀 이네</w>
가축 새끼들</w>
인간 이</w>
호감 고닉</w>
떡밥 임</w>
만드 는거</w>
바르 셀
과금 은</w>
짜증 남</w>
스러 워</w>
갤러리 에서</w>
생긴 거</w>
스위 칭
한동 숙</w>
상위 권
로그 인</w>
역겹 다</w>
어디갔 어</w>
시원 하게</w>
아쉬 움</w>
니네 는</w>
넷플 릭스</w>
깨워 투표부탁</w>
평범 한</w>
추방 자</w>
전소 미</w>
구창 모</w>
얼리버 드</w>
누가이 김</w>
에이티 즈</w>
누난 나</w>
1 도
3 4</w>
3 주년</w>
3 대장</w>
5 위
8 시
A S
B o
P O
d i
d m
i l
k b
p l</w>
v li
ㄴ ㅇ
ㅈ ㅅ
ㅊ ㅋ
ㅋ ㅅ
가 라고</w>
간 이</w>
감 을</w>
갤 이냐</w>
거 가</w>
검 이</w>
겜 을</w>
공 황
관 은</w>
관 한</w>
굴 려
금 방
김 계란</w>
깨 냐</w>
나 연
나 니</w>
난 이
날 인데</w>
내 네</w>
년 생</w>
노 모</w>
느 려
닉 이</w>
단 발</w>
덕 배</w>
델 핀
도 는데</w>
돌 려서</w>
때 리고</w>
똑 같네</w>
랜 스</w>
량 은</w>
롤 은</w>
망 치
머 리는</w>
메 슬</w>
며 칠</w>
몬 린이</w>
못 찾
못 하게</w>
못 하는게</w>
무 작
무 시</w>
미 인
미 트
밀 라</w>
바 텀
반 일
반 고닉</w>
받 고
받 앗
배 치</w>
벅 지</w>
벌 크
보 던</w>
보 성이</w>
봤 긔</w>
부 인</w>
불 행
붙 은</w>
비 슈</w>
사 리
사 막
사 면
사 상</w>
살 건데</w>
성 대
성 향
소 시</w>
솔 킬
수 속</w>
스 무
스 샷
스 카</w>
슬 퍼
시 러
시 마</w>
시 켜</w>
신 도
심 리</w>
쎄 네</w>
쓰 다</w>
아 델</w>
알 앗
알 겠는데</w>
야 요
야 가</w>
약 국
어 메이
얼 코센
없 지않냐</w>
엘 시</w>
여 주</w>
여 야</w>
연 금
연 결</w>
온 나</w>
우 는거</w>
울 때</w>
원 작
원 으로</w>
월 광</w>
윈 도우</w>
유 기
유 통
유 의</w>
유 물</w>
이 강
이 고
이 는
인 연</w>
일 그오</w>
입 음</w>
자 네</w>
자 리가</w>
잘 라
잘 했네</w>
장 수
장 인</w>
전 붕이
젠 지가</w>
주 민</w>
즐 겁
지 급
지 ㅋㅋㅋ</w>
진 혈귀</w>
찍 어도</w>
처 분
최 상
출 산
카 라</w>
컬 러
케 오
크 지</w>
클 립
키 운
탱 이
터 치
파 랑
파 네</w>
패 치는</w>
페 는</w>
폭 주
픽 이</w>
필 터</w>
하 진</w>
한 글</w>
할 게요</w>
해 보는데</w>
핵 쟁이</w>
했 었음</w>
허 락
호 크
화 장</w>
흥 분
히 나</w>
20 년</w>
해야 할</w>
병신 새끼들</w>
좋아 짐</w>
스트 라이
시간 을</w>
이상 한데</w>
모르 네</w>
모르 냐</w>
어케 댐</w>
ㅡㅡㅡㅡ ㅡ
올라 왔네</w>
스토 리는</w>
웃기 지</w>
남자 들이</w>
괜찮 겠습니까</w>
만들 었네</w>
프로 트</w>
이었 구나</w>
다시 보는</w>
한다 며</w>
40 대</w>
올리 는거</w>
귀엽 지</w>
보여 줘</w>
행복 해</w>
하이 반</w>
하이 라이트</w>
새끼들 만</w>
알았 어</w>
만드 는게</w>
가야 겠다</w>
수비 비</w>
떡상 함</w>
기안 이</w>
정치 질</w>
조선 족</w>
웃긴 점</w>
분위 기가</w>
역대 급으로</w>
라스 칼
포기 하고</w>
세이 버</w>
해줄 게</w>
모자 키
좆같은 점</w>
ㄷㄷㄷㄷㄷㄷㄷㄷ ㄷ</w>
아르 카나</w>
성형 외
이것 저
예전 부터</w>
제주 도
지마 셈</w>
엄청 난</w>
이겼 다</w>
맛있 게</w>
소개 팅</w>
진화 석
이성 규</w>
사전 예약
첫방 축하
135 레이드</w>
학창 시절</w>
간담 회</w>
레시 피</w>
닭가슴 살</w>
1 렙
1 순위</w>
2 로</w>
2 시</w>
2 각</w>
3 각
3 7</w>
4 6</w>
5 천</w>
6 7
6 개월</w>
9 시에</w>
o o
p ng</w>
t w
u p
가 요
가 봄</w>
가 보네</w>
감 봉</w>
감 염</w>
강 퇴
같 지않냐</w>
구 자
구 사</w>
구 조선</w>
그 마
그 저
근 근
긴 급</w>
길 게</w>
김 밥
까 서</w>
네 덕
네 코
네 크</w>
눈 감
눈 빛
는 애들은</w>
다 던</w>
단 점이</w>
데 는</w>
도 루
돌 아서</w>
돌 릴까</w>
됐 다고</w>
되 어</w>
두 기</w>
든 데</w>
듣 기</w>
디 아이콘</w>
따 지
뛰 고</w>
라 리가</w>
레 기
로 하스</w>
리 치
릴 리</w>
릴 리아</w>
마 녀
마 히
만 장
말 랑
말 함</w>
맛 에</w>
망 전</w>
머 함</w>
몇 점
몰 래
문 은</w>
문 피아</w>
뭐 라고
미 소
밑 으로</w>
박 서
발 리</w>
발 기</w>
배 트
백 업</w>
보 트
볼 수</w>
봊 연
봐 줄
봤 던</w>
부 지</w>
불 타는</w>
브 라이
비 서</w>
비 치</w>
빅 토
빠 름</w>
빵 이</w>
사 의</w>
사 양</w>
사 업</w>
사 렌</w>
사 라고</w>
살 기
선 을</w>
성 별
세 번
쇼 핑
시 랑</w>
시 대에</w>
식 극
쌍 수
써 야지</w>
쓰 라고</w>
씹 타
씹 새끼들</w>
안 아
안 는데</w>
어 랑</w>
어 짐</w>
어 따</w>
엔 경찬</w>
오 선
오 열
오 바</w>
온 거
왕 굴</w>
외 야</w>
요 기
운 운
울 와
원 이랑</w>
월 요일</w>
이 불
이 노래</w>
이 아니라</w>
인 거야</w>
일 행
일 진</w>
일 요일</w>
입 대
잖 아요</w>
잘 까</w>
장 식</w>
쟤 네</w>
적 으로
전 함</w>
젖 꼭
조 타</w>
죽 는
쥬 리</w>
지 인</w>
진 출</w>
질 질
짤 녀가</w>
쩌 네</w>
찍 은거</w>
채 보
채 원이</w>
청 년
초 급</w>
칠 플
캐 쉬
콘 크리
콤 보
크 게
클 리</w>
타 선</w>
폭 락
폰 이</w>
풀 버전</w>
품 절
피 닉스</w>
하 체</w>
하 긴하네</w>
한 숨
해 준</w>
허 구
허 접
허 경민</w>
현 무
형 제
화 내
화 보</w>
환 생
환 경</w>
회 장
흑 마</w>
새끼 를</w>
나오 기</w>
생각 나</w>
생각 엔</w>
들어 왔
10 연
아이 언
존나 웃겨</w>
재밌 지</w>
스트 라
가능 하지</w>
추천 좀요</w>
시간 당</w>
정도 임</w>
11 강
11 시
게임 즈</w>
고있 노</w>
다니 면서</w>
13 9
나올 때마다</w>
브이 포</w>
마이 크
만원 으로</w>
한다 는게</w>
경기 력</w>
할수 있는</w>
기다 리는</w>
힘들 지</w>
영상 은</w>
고닉 이</w>
개인 적인</w>
세계 관</w>
가축 들아</w>
서버 가</w>
진각 은</w>
학교 때</w>
어제 는</w>
사실 임</w>
상관 없이</w>
미국 에서</w>
관심 이</w>
패키 지
공지 에</w>
아가 리</w>
귀찮 네</w>
드레 기</w>
도시 락</w>
엄마 한테</w>
먹으 려고</w>
팩트 임</w>
루시 드</w>
점핑 캐</w>
각성 석</w>
배고 파서</w>
마법 사</w>
지마 세요</w>
아바 타
키울 까</w>
스케 줄</w>
아깝 네</w>
1회 차</w>
플래 티
추억 의</w>
아나 운
시청자 수</w>
선넘 네</w>
DUMD i
보성 아</w>
유전 데</w>
트와이 스
조상 우</w>
필터 링</w>
택배없는 날</w>
살짝설 어
건보 료</w>
라비리 스타</w>
Ap ple</w>
3 시에</w>
4 3</w>
4 장</w>
5 만</w>
5 번</w>
8 9
B J</w>
C G
V E</w>
e m
ㅂ ㅇ
ㅗ ㅗ
가 난
갈 래</w>
감 상
값 이</w>
개 많네</w>
건 이</w>
게 도</w>
겠 누</w>
고 집
고 1</w>
공 속</w>
구 별
구 입
구 롱빵
군 지
그 랑</w>
글 들</w>
금 카</w>
기 품
기 생</w>
까 는건</w>
깡 패
넘 네</w>
넣 어서</w>
놈 도</w>
놓 은거</w>
누 굴
니 코
단 또
단 챠
답 장
당 신의</w>
대 주
대 라</w>
도 그</w>
동 에</w>
돼 공
되 는지</w>
된 건</w>
두 부</w>
러 간다</w>
레 깅
로 제
룩 삼
리 온</w>
마 른
마 운
마 키
막 차</w>
만 명</w>
많 다고</w>
맞 을
머 마</w>
먹 는거
먹 는중</w>
먼 지</w>
메 소
모 양</w>
못 믿
못 할
못 씀</w>
미 소녀</w>
민 초
바 면</w>
바 엔</w>
반 년
방 덱</w>
방 으로</w>
배 치
버 릴까</w>
번 개
별 명
볼 넷
봊 친
봐 주셈</w>
부 적</w>
불 싸개</w>
브 로</w>
뻔 함</w>
사 고싶은데</w>
살 벌
살 지</w>
색 기들</w>
생 기는</w>
서 양</w>
세 차
소 전</w>
쉽 냐</w>
슈 팅
스 스
스 틱
스 드림</w>
시 벌
식 당
식 사
신 세계
신 영이</w>
심 하냐</w>
써 야함</w>
쓰 자</w>
아 자
안 됐
암 튼</w>
야 심한</w>
양 보
양 석
어 두
업 냐</w>
없 음
에 고
여 단</w>
여 스</w>
연 동</w>
영 향</w>
예 민
예 선</w>
오 퍼
오 나</w>
오 진다</w>
온 콘</w>
왜 하냐</w>
우 석
우 와</w>
웨 딩
윤 성
이 에
이 내</w>
이 즈</w>
인 팁
인 텔</w>
인 거같은데</w>
일 자</w>
있 다는데</w>
자 매
자 만</w>
장 인
장 전</w>
재 생
저 항
전 범
전 시
전 원
전 적</w>
전 생</w>
점 마</w>
접 은</w>
정 연
정 연</w>
제 구</w>
조 공
조 공</w>
조 절</w>
조 노블</w>
종 류</w>
좆 냥
좆 되
주 라
주 도</w>
즈 그
지 들
지 의</w>
지 북이</w>
진 실
진 궁</w>
질 는데</w>
짱 구</w>
찍 덕</w>
차 고</w>
찬 란
참 피
최 합
치 우
치 호
캐 로</w>
캡 틴</w>
크 랑</w>
크 레이
클 랜
탄 압
탈 갤</w>
탱 커</w>
털 이</w>
테 크</w>
퇴 구</w>
투 수가</w>
팔 리
팔 찌</w>
패 작
팬 싸
편 집</w>
편 이냐</w>
포 기</w>
하 아
하 실</w>
하 라는</w>
하 라고
한 개</w>
한 애들</w>
할 까
합 의
해 질
해 보니</w>
행 사
허 용
호 중</w>
호 환</w>
화 해
후 후
흥 갤</w>
하는 놈들</w>
고싶 긔</w>
이상 형
모르 면</w>
웃기 다</w>
좆같 아</w>
만들 지</w>
고있 어</w>
이었 던</w>
미친 듯이</w>
으로 서</w>
14 0</w>
케이 팝</w>
왜이 리
얼굴 로</w>
철구 랑</w>
정상 인
평가 점</w>
일어 남</w>
일어 났는데</w>
알아 냄</w>
바이 오</w>
모르겠 어</w>
노잼 임</w>
먹어 야</w>
새끼들 임</w>
마음 을</w>
이미 지가</w>
어울 리
부탁 해</w>
근첩 들</w>
계정 으로</w>
유튜브 에서</w>
스러 움</w>
스피 릿
씨발련 들</w>
ㅜㅜ ㅜㅜ</w>
한명 이</w>
한명 만</w>
잘생겼 다</w>
링크 좀</w>
카페 에서</w>
카운 트
외국 인</w>
게시 글</w>
컨텐츠 가</w>
엘리 트
타격 감</w>
밸런 스
려고 했는데</w>
웃음 벨
아오 바</w>
빡세 게</w>
네임 드
어어 어어
것같 애</w>
양아 치</w>
월드 컵
판타 지
테일 즈</w>
pd f</w>
연속 으로</w>
스마트 폰</w>
비게 퍼
송가 인
비키 니</w>
흑발 짤드컵</w>
필리 핀
별론 데</w>
선풍 기</w>
애니메이 션</w>
제2 의</w>
에밀 리아</w>
인셉 션</w>
2 던
2 회차</w>
3 만</w>
5 초
6 화</w>
7 5</w>
7 급</w>
A N
D R
I P
K T</w>
c k</w>
e n</w>
n o</w>
ㅊ ㅋ</w>
가 락
각 종</w>
감 시
강 팀
강 지</w>
강 사</w>
같 긴</w>
개 꼴리
건 곤
걸 리는</w>
게 됨</w>
게 이가</w>
경 치</w>
계 가</w>
고 자
급 여</w>
기 운
김 용
까 들</w>
껴 서</w>
꼴 박
나 옴
남 고</w>
났 냐</w>
넣 기</w>
네 ㅋㅋㅋㅋㅋㅋㅋ</w>
노 말</w>
느 꿈
다 만
다 보니</w>
단 톡</w>
대 머리
던 지는</w>
던 린이</w>
도 트
동 시
드 라이브</w>
들 부들</w>
똥 견들</w>
뜨 는
럭 키
럭 키</w>
레 비아</w>
력 으로</w>
로 마</w>
리 저
막 차
만 기
만 요</w>
많 구나</w>
맘 대로</w>
맛 집
망 오스
맞 잖아</w>
머 라
멀 린</w>
메 라</w>
메 모리
멜 론
몇 시간</w>
모 아</w>
무 근본</w>
문 회</w>
문 채원</w>
뭐 하지</w>
미 칠
미 우</w>
믿 어
박 았
반 고
반 기
받 이</w>
받 을까</w>
백 종
병 먹
보 컬</w>
보 너스</w>
비 빌
비 용</w>
비 제이
뽀 록
사 칭
사 회</w>
사 고싶
살 찐
삼 성이</w>
삼 재일</w>
상 임</w>
새 키</w>
서 밋
섭 이</w>
세 기</w>
소 통
수 십
수 염</w>
순 다
쉬 워
쉬 고</w>
스 파</w>
슬 픈
신 레이드
심 판
쌍 베</w>
씨 빨</w>
씹 사기
아 루
아 즈
아 패
악 개
안 젤
안 은</w>
암 흑
앙 망
앰 흑
앰 들은</w>
어 비스</w>
얼 버
에 그
연 령
연 간</w>
연 서버</w>
염 병
였 던</w>
오 너
온 다고</w>
올 린거</w>
와 우
왔 긔</w>
요 샌</w>
용 어</w>
우 야</w>
워 터
워 싱</w>
원 짜리</w>
의 식</w>
이 냐
이 스</w>
이 면서</w>
이 새끼가</w>
이 세계</w>
인 류
인 파</w>
인 젤</w>
일 케</w>
일 수도</w>
잇 나</w>
자 노</w>
자 칭</w>
장 신
장 영
장 착
장 군</w>
적 이네</w>
절 망
정 권
종 족
좆 물
좆 소</w>
주 는거임</w>
죽 음
줄 알고</w>
중 급
지 팡이</w>
짝 사랑
짤 털</w>
창 작
첫 번째</w>
청 춘
캠 핑
케 이는</w>
코 리아</w>
탄 핵
토 착
트 젠
파 생
파 리가</w>
포 텐</w>
폭 로
폭 로</w>
풀 로</w>
품 번</w>
하 가</w>
하 심</w>
할 때까지</w>
할 머니</w>
항 공
해 축
했 을듯</w>
행 정</w>
헬 지</w>
협 박
형 아</w>
호 랑이</w>
홀 로</w>
홍 준
화 를</w>
후 계
후 르
하는 걸</w>
새끼 한테</w>
생각 으로</w>
들어 왔다</w>
10 일</w>
20 퍼</w>
병신 은</w>
가능 임</w>
가능 성이</w>
30 대
우리 형</w>
애미 디
문제 냐</w>
지랄 하는</w>
돌아 감</w>
다음 날</w>
다음 시즌</w>
이었 지</w>
나온 거임</w>
있었 어</w>
일본 인
궁금 한점</w>
한거 아니냐</w>
17 0</w>
필요 해</w>
미친 놈</w>
다른 데</w>
하는거 보니</w>
시즌 은</w>
이해 하면</w>
올리 기</w>
데려 와</w>
데려 오면</w>
실화 임</w>
삭제 함</w>
물어 보
대기 업
대기 중</w>
하이 반
돌려 도</w>
차이 점</w>
기억 이</w>
입갤 ㅋㅋㅋㅋ</w>
주식 으로</w>
먹었 냐</w>
가야 됨</w>
크로 스
감독 님</w>
받았 네</w>
트리 플
리그 는</w>
지르 고</w>
수사 렌
길드 전</w>
살인 마
아라 곤</w>
내용 이</w>
한가 보네</w>
마려 운데</w>
하스 스톤</w>
김우 석
목소리 가</w>
비디 디</w>
워녕 아</w>
뜬금 없이</w>
언젠 가</w>
모의 고사</w>
인프 피</w>
가까 이</w>
오승 환</w>
리모 뜨
분명 히</w>
알루 코</w>
박병 호</w>
JY P</w>
나승 엽</w>
꾸역 꾸역</w>
닌텐 도</w>
히비 키</w>
김호중 마갤</w>
솔찍 히</w>
0 5
4 만원</w>
6 시에</w>
8 6
N o
N C</w>
S N
a y
f ine
가 진
가 봤는데</w>
각 각</w>
개 멋
개 똥찬</w>
건 담
걸 려</w>
것 임</w>
결 산</w>
공 카</w>
공 팟</w>
공 기업
구 석
구 현
군 인</w>
굴 비
귀 빨
극 복
글 카</w>
긔 윤</w>
기 로
기 모
기 차</w>
길 레</w>
길 드는</w>
길 거리
깡 통
나 에</w>
낮 아
내 로</w>
내 기</w>
넣 는거</w>
넷 플</w>
노 짱</w>
놈 인데</w>
농 구
느 악몽</w>
단 에</w>
달 릴
되 는듯</w>
된 거야</w>
들 보면</w>
들 었다</w>
디 발라</w>
딜 은</w>
라 는건</w>
락 스</w>
레 티
레 식</w>
로 테</w>
막 말로</w>
만 년
많 을
많 았는데</w>
말 든</w>
맛 집</w>
매 그
매 치
명 장
모 리</w>
모 른다</w>
모 코코</w>
무 근본
물 약
반 반
방 향</w>
보 장</w>
붕 괴
비 싼</w>
빙 의
사 인</w>
사 르</w>
산 은</w>
상 점
선 정</w>
성 태</w>
소 모
손 민
수 입
순 수</w>
술 먹고</w>
시 러</w>
식 상
실 검</w>
써 요</w>
씨 게</w>
안 쓸
안 온다</w>
알 고보니</w>
암 울
애 애
야 마</w>
어 류</w>
얻 을
에 임
엔 터</w>
엘 사</w>
연 섭</w>
오 도</w>
오 세요</w>
온 도
왜 그러
외 로
욕 을</w>
원 을</w>
유 카
응 원</w>
인 격
잇 다</w>
있 다는</w>
있 긴함</w>
자 막
재 판
재 계약
정 국</w>
제 니
조 루
좀 마
좆 본</w>
죽 었다</w>
중 에
지 상
지 휘
지 다</w>
지 구</w>
지 는게</w>
지 린다</w>
짤 을</w>
찍 네</w>
찍 어야
찐 이야기
처 벌
처 참
초 보</w>
최 후의</w>
충 전</w>
치 하
친 한</w>
코 트는</w>
콩 국수</w>
키 무라</w>
탄 절
탈 워
토 갤</w>
토 토</w>
투 자</w>
트 라이</w>
티 니
파 푸
파 는데</w>
팔 았는데</w>
푸 보
푸 르</w>
핑 계
하 니
하 브</w>
한 때</w>
한 일</w>
한 이유</w>
해 킹</w>
헤 라
현 상</w>
활 성
회 피
회 는</w>
흐 르
하는 애들
는거 는</w>
생각 난다</w>
존나 잘
시작 하고</w>
시작 한다</w>
시작 했다</w>
게임 도</w>
100 만원</w>
문제 지</w>
좆같 노</w>
지랄 났네</w>
프로 게이
나온 게</w>
나온 대</w>
13 00
브이 갤</w>
필요 없음</w>
필요 없고</w>
다른 거
시즌 1</w>
한다 니까</w>
느낌 인데</w>
하고 나서</w>
얼굴 만</w>
ㅅㅂ ㅋㅋㅋㅋ</w>
데려 올
김태 진이</w>
민주 당이</w>
개좆 밥
개좆 같은
개좆 같은</w>
중국 이</w>
내려 감</w>
기억 에</w>
주인 님</w>
오프 닝
여러 개</w>
현실 적으로</w>
상관 없는데</w>
새로 운
해줘 서</w>
이벤트 로</w>
미래 를</w>
축구 중계</w>
웨이 브
거래 소</w>
아마 존
사야 겠다</w>
좋았 을텐데</w>
다운 로드</w>
엘마 일러</w>
살려 주세요</w>
스킨 은</w>
익스 프레
오토 바이</w>
스트레 일리</w>
정우 람
슬로 스
전성 기
효과 가</w>
머가 리</w>
찬또 는</w>
오재 원</w>
개꿀잼 이네</w>
잼민 이
손혁 은</w>
오마이 걸</w>
ㅣㅣ ㅣㅣ
1대 1</w>
강동 호마갤</w>
임기 영</w>
꿀벌 직캠</w>
리부 트</w>
성추 행</w>
저작 권
숨겨 진</w>
냉정 하게</w>
괴수 8호</w>
테오 키스</w>
대참 사</w>
3 각</w>
3 번째</w>
4 위</w>
4 는</w>
4 500
4 일차</w>
7 일
P 0</w>
U I
Y E
d c
e x
f c
n o
n 라인</w>
ㄱ ㅇ
가 질
가 온</w>
감 탄
같 다고</w>
개 막
개 꼴리는</w>
거 에</w>
건 너
건 드리
검 거</w>
것 다</w>
것 인가</w>
것 같냐</w>
겜 도</w>
격 투
경 영
고 작</w>
고 졸</w>
공 구</w>
교 대
기 는
기 인
기 프
김 민주
까 임</w>
깨 는</w>
꼬 꼬
꾸 레
끝 냈
나 의
난 거
남 기고</w>
낮 방</w>
내 림</w>
내 친구</w>
넘 은</w>
누 워서</w>
눈 을</w>
능 력이</w>
니 어
단 군
단 식
달 아</w>
대 는데</w>
더 빙
덕 질</w>
덩 이</w>
도 인
돈 이
돌 핀</w>
동 기</w>
두 렵
뒤 에
들 보다</w>
듯 한</w>
딴 거
똥 견
뛰 는</w>
라 피스</w>
라 리가
려 하는데</w>
론 토</w>
만 렙</w>
망 이
매 주</w>
머 신</w>
모 았다</w>
몬 헌
무 새</w>
뭐 쓰냐</w>
미 적
미 궁</w>
민 트</w>
믿 는</w>
바 꿔</w>
받 을때</w>
발 작</w>
베 아</w>
벨 이</w>
보 물</w>
보 구가</w>
본 방
본 게</w>
볼 래</w>
부 작
북 미
비 구
사 야함</w>
샤 먼
서 민
서 스</w>
서 머</w>
수 있는
스 드
스 라
심 바
써 봄</w>
씨 들</w>
안 깨
안 지
안 통
안 대</w>
안 그래도</w>
알 음</w>
야 하네</w>
양 의지</w>
어 노</w>
없 던</w>
없 누</w>
엠 갤</w>
여 주
오 퍼</w>
왜 캐
외 계
우 석</w>
우 결</w>
울 어</w>
원 기
위 장
위 대한</w>
위 즈원</w>
유 대
이 서
이 세
이 과</w>
이 중에</w>
인 장</w>
입 구
입 술
있 누</w>
있 지만</w>
있 는거야</w>
자 매</w>
재 판</w>
저 장</w>
전 까진</w>
정 면
정 모
젤 리</w>
종 결</w>
좆 간
좋 긴한데</w>
좌 표
주 무
주 택</w>
주 려고</w>
줌 은</w>
중 엔</w>
즈 에서</w>
증 권
질 을</w>
처 먹
처 가</w>
첫 날
청 소</w>
충 임</w>
충 들아</w>
친 추</w>
침 붕이</w>
카 랑</w>
컬 렉
키 도</w>
키 케</w>
타 석
타 점</w>
탭 칠플</w>
테 디</w>
테 니까</w>
틀 린
파 편
팔 까</w>
포 니
포 틀
포 드</w>
풀 돌
프 갤</w>
피 닉
하 구
하 단</w>
하 신분</w>
한 패</w>
한 줄</w>
한 척</w>
할 라고</w>
해 라
해 져서</w>
해 달라
햄 버거
햇 으면</w>
했 고</w>
했 겠지</w>
했 길래</w>
했 었네</w>
허 가
헤 더</w>
헬 갤</w>
호 미
호 옹이</w>
홀 로
화 난</w>
회 전
흑 화
생각 없이</w>
10 강
아이 가</w>
재밌 겠다</w>
여자 애</w>
스트 라</w>
정도 만</w>
모르 노</w>
누구 있음</w>
스타 트</w>
다니 네</w>
다음 으로</w>
그러 게</w>
받아 요</w>
17 00
필요 하냐</w>
하는거 아님</w>
보내 는</w>
가이 드
에이 프
그림 자
한남 이</w>
80 0</w>
카드 로</w>
스킬 포인트</w>
장현 식이</w>
만드 는데</w>
입갤 ㅋㅋㅋ</w>
선발 로</w>
수비 는</w>
23 5</w>
있을 거</w>
2008 11</w>
너네 들</w>
느금 은</w>
전설 의</w>
한명 도</w>
빠르 냐</w>
조합 이</w>
비싸 냐</w>
안보 이네</w>
죽이 기</w>
ve 갤</w>
누르 고</w>
영어 로</w>
스파 이</w>
패드 립</w>
랜덤 짤</w>
투표인증왔 어요</w>
수도 권</w>
제목 이</w>
이랑 은</w>
무사 만루</w>
알못 인데</w>
118 이</w>
정신나갈 거같애</w>
독서 실
왜저 럼</w>
페코 라</w>
프라 임</w>
패러 디
패러 디</w>
비주 얼
가끔 씩</w>
아티스트 상</w>
마츠 리</w>
실시간 으로</w>
에러 코드</w>
전형 적인</w>
류지 혁</w>
마네 킹</w>
반드 시</w>
vli ve갤</w>
토착 왜
1 라
1 라</w>
1 만</w>
1 호</w>
3 분</w>
5 시
6 명</w>
B J
S F
a n</w>
d d
n n
r y</w>
간 단</w>
감 으로</w>
갤 가서</w>
거 리네</w>
건 곤</w>
것 네</w>
게 이는</w>
겠 더라</w>
겠 어요</w>
구 장
구 분</w>
그 릴
금 액
급 이네</w>
까 네</w>
깐 다</w>
나 츠
나 선</w>
날 카
남 주</w>
낫 노</w>
넘 버
네 오
노 기</w>
놔 서</w>
눈 부
다 는거임</w>
대 비
대 여
대 나</w>
도 비
도 끼</w>
도 댐</w>
도 현</w>
돈 버
돌 릴</w>
동 료
되 지않냐</w>
될 거같은데</w>
둘 러
들 으니까</w>
디 엠
뚜 뚜
락 이</w>
란 드</w>
랍 니다</w>
레 스
로 고</w>
리 어</w>
리 타</w>
린 지
막 음</w>
만 점
만 족</w>
맞 은
머 는</w>
먹 자</w>
메 갈</w>
명 언</w>
몇 렙
모 텔
모 냐</w>
몰 라
몸 은</w>
못 감</w>
못 따라
무 유</w>
문 명
물 로</w>
미 세
미 남</w>
바 니
바 이러
박 사
박 혀
박 아서</w>
반 값
반 영
버 스터</w>
변 환</w>
병 이</w>
보 1
보 플
보 나</w>
보 게</w>
봐 라
봤 었는데</w>
부 에</w>
부 천</w>
북 커버
분 들이</w>
브 하</w>
비 타
비 도</w>
빡 빡
빡 센
사 상
사 퇴
상 의
상 반기</w>
성 냥
세 대는</w>
소 서
소 주
수 있어</w>
숙 소</w>
쉽 다</w>
슈 라우드</w>
스 탭
슬 러</w>
시 급</w>
시 끄럽
실 검
실 전
실 력이</w>
써 본</w>
아 동
아 ㅋㅋㅋ</w>
아 진짜</w>
안 붙
안 산
안 무</w>
않 는데</w>
않 았는데</w>
암 것도</w>
애 드
야 수
야 수</w>
야 근데</w>
야 하지</w>
야 겠네</w>
야 린이</w>
야 말로</w>
어 드
어 쩔</w>
엄 지</w>
업 적
업 글</w>
엇 어</w>
여 러</w>
오 세
오 클</w>
오 만에</w>
와 시발</w>
외 퀴</w>
유 재
음 침
음 료</w>
이 렇
이 브
이 드</w>
이 대호</w>
일 인데</w>
임 ㅇㅇ</w>
있 냐고</w>
자 와</w>
장 성우</w>
재 기</w>
저 희</w>
저 평가
전 광
정 말
정 한</w>
정 후</w>
젖 닌
제 노
제 정신
젠 신병
조 진
존 맛
졸 귀
좋 나요</w>
주 머니</w>
지 성
질 질</w>
집 값</w>
차 비</w>
차 이는</w>
채 보</w>
체 로</w>
초 대</w>
취 미</w>
치 만</w>
타 수</w>
탄 이</w>
탑 은</w>
터 진다</w>
털 리
텔 레
튼 튼
티 샤
팀 도</w>
패 면</w>
포 스트
푸 는</w>
플 루
피 코
하 성
하 긴해</w>
한 걸</w>
한 참</w>
할 라
함 을</w>
함 ㅋㅋㅋ</w>
합 쳐서</w>
햇 노</w>
허 삼
현 질</w>
히 크</w>
생각 도</w>
라이 즈</w>
어떻 냐</w>
여자 로</w>
씨발 새끼들아</w>
누구 누구</w>
우리 랑</w>
12 9</w>
12 시에</w>
올라 오면</w>
좆같 으면</w>
메이 커</w>
프로 그래
다니 고</w>
하루 카</w>
한거 아님</w>
올려 봐</w>
사기 임</w>
일러 레
그리 워
만들어 도</w>
올리 지</w>
해보 임</w>
별로 냐</w>
어떤 지</w>
인생 을</w>
싸우 네</w>
하겠 냐</w>
스카 웃</w>
재밋 다</w>
2주 차</w>
어제 자</w>
먹었 으면</w>
생기 고</w>
해줘 야</w>
유동 이</w>
공격 력</w>
가격 은</w>
합격 하면</w>
끝났 는데</w>
너네 도</w>
버렸 어</w>
포기 함</w>
보라 머리</w>
박정 민</w>
스테 이
자동 차</w>
바람 의
살려 줘</w>
아리 아
사귀 면</w>
밖에 없음</w>
길태 견
애매 하네</w>
적당 히
금지 어
일베 충</w>
접속 이</w>
버티 면</w>
정확 한</w>
받으 러</w>
전문 가
ㅡㅡㅡㅡㅡㅡ ㅡ
팔로 워</w>
하지마 셈</w>
3연 전</w>
리메이 크
신한 류
로켓 펀치</w>
프랑 스</w>
th e</w>
못생 겨서</w>
영양 제</w>
man h
최주 환</w>
에이치 엘비</w>
이것저 것</w>
찐이야기 둥세웠탁</w>
2 등
2 20</w>
3 셋</w>
4 일</w>
5 g
7 9
7 만
8 5</w>
A M
B O
C o
D L
E R
g m
h z</w>
o f</w>
s s</w>
t p
t o</w>
t v</w>
ㄴ 짤녀</w>
ㅂ ㅁ
ㅈ 밥
ㅈ ㅅ</w>
감 사</w>
갑 분
개 쌍
개 에</w>
검 정
겁 나
경 민
경 민이</w>
고 가
고 덕</w>
공 홈</w>
과 제</w>
교 보</w>
군 주</w>
근 무</w>
급 함</w>
까 는게</w>
꼬 홀</w>
꼴 찌
나 년</w>
나 에게</w>
난 게</w>
날 두</w>
남 견
남 편</w>
내 지</w>
노 ㅋㅋㅋㅋㅋㅋ</w>
누 나랑</w>
눈 누난나</w>
는 걸까</w>
다 람
다 했다</w>
달 리는</w>
대 진
대 는거</w>
던 지면</w>
도 게
도 장</w>
되 요</w>
된 다는</w>
두 꺼
두 배
뒤 졌네</w>
들 인데</w>
딸 배
땡 기네</w>
띵 군</w>
라 방</w>
렙 업</w>
로 지
리 듬
마 미
마 창
마 루</w>
막 힘</w>
만 장</w>
만 한데</w>
만 한게</w>
머 신
머 지
명 품</w>
모 를</w>
모 험</w>
못 한다고</w>
무 좆
뭐 에요</w>
미 루
박 용
박 아도</w>
발 자
방 붕이</w>
별 루
보 일
봉 사
부 계</w>
북 미</w>
불 가능</w>
붕 어
브 실
비 참
빨 로</w>
사 괜</w>
산 맥</w>
색 기</w>
샌 박이</w>
서 특
성 애
성 사</w>
셋 팅
송 이</w>
수 페코
스 캐
스 페코</w>
신 문고</w>
써 보
씩 은</w>
안 무
안 유진</w>
않 겠지</w>
야 갤에서</w>
약 속</w>
양 로
양 현
언 어
없 습니다</w>
없 는거지</w>
엠 씨
여 법</w>
여 프리
연 생
엿 음</w>
영 통</w>
오 가
오 이
올 렸는데</w>
옷 이</w>
와 파
외 국</w>
요 번</w>
우 동
우 랑</w>
우 즈</w>
울 갤
원 들</w>
유 압</w>
윤 미
이 뿌
이 슬
이 없
인 스
일 간
자 다
잡 아</w>
적 자</w>
전 에
전 통
전 환</w>
정 령</w>
젖 이</w>
젖 탱이</w>
제 거
제 조
졌 지</w>
조 직
조 지고</w>
종 합
좆 쥐</w>
좋 긴</w>
좋 다는</w>
좌 파</w>
주 행
중 력
중 독</w>
중 에선</w>
줘 야됨</w>
즐 겜
지 명</w>
지 름</w>
지 움</w>
차 면</w>
쳐 내</w>
최 항</w>
축 리
츠 는</w>
치 즈</w>
치 면서</w>
친 목
침 대
칼 로</w>
컨 트롤
코 도</w>
코 프</w>
코 트가</w>
클 퍼</w>
타 서</w>
탁 또</w>
탄 산
통 령
트 랙
특 유의</w>
파 리는</w>
판 테
퍼 플
포 스터
풀 고</w>
풀 셋</w>
프 사
플 매
핑 이</w>
하 의</w>
한 건
한 동안</w>
할 만</w>
함 에</w>
함 부로</w>
항 로</w>
해 운
행 복</w>
허 브
헤 르
형 님
확 대
황 야
회 의
흐 름</w>
흥 미
ㅋㅋㅋㅋㅋㅋㅋㅋ ㅋㅋ
하는 년들</w>
는거 도</w>
들어 가지
오늘 부로</w>
어디 야</w>
병신 짓
좋아 하네</w>
하나 하나</w>
추천 해줘</w>
누구 나</w>
누구 는</w>
우리 집
시작 하네</w>
소리 를</w>
올라 가면</w>
메이 드
너무 한거</w>
보이 던데</w>
투표 인증
기대 됨</w>
게이 밍</w>
확실 한</w>
확실 하게</w>
40 분</w>
하고싶 은</w>
오르 페
고민 상담
바이 오
지지 합니다</w>
김태 진은</w>
하기 엔</w>
싸우 는거</w>
바꾸 냐</w>
학교 에</w>
점검 보상</w>
아이즈 원은</w>
다르 지</w>
현실 은</w>
부탁 드려요</w>
와꾸 는</w>
짜증 난다</w>
ㅂㅅ 들아</w>
보상 이</w>
성능 이</w>
할거 다</w>
아니었 나</w>
우울 증
고수 님들</w>
프라이 즈
조회 수
동생 이</w>
게시 물</w>
인스타 스토리</w>
배고 파</w>
아쉬 운</w>
캐밥 이</w>
순위 가</w>
슬로 스</w>
약독 대
하지말 자</w>
뿡2 는</w>
빡세 네</w>
남친 이</w>
가만 히
현대 차</w>
원숭 이
잼민 이들</w>
가든 이</w>
패널 티</w>
다닐 때</w>
ROCKingRol l</w>
아케 인</w>
안치 홍</w>
로갓 하고</w>
베트 남</w>
근개비 들</w>
이우 성</w>
가능한 가요</w>
루피 나</w>
외식 비</w>
머리카 락</w>
설문 조사</w>
1 부
2 점
2 억</w>
2 호기</w>
3 달
3 주년
7 7</w>
9 15
E P
E U</w>
E NT
F A</w>
F C</w>
S t
W ith</w>
a b
n b
p r
r pg
ㅂ ㅂ</w>
ㅈ ㅇ
ㅜ ㅠ</w>
가 락</w>
가 려고</w>
감 옥
갓 성
같 기도</w>
개 꼴
갤 창
갤 칠플</w>
거 려</w>
건 의</w>
검 수
겠 네요</w>
고 독
고 유
고 증
공 구
공 급
공 을</w>
괴 물</w>
구 역
구 장</w>
구 조선
국 제
그 레
글 좀</w>
길 에</w>
끄 면</w>
끌 고</w>
남 돌</w>
넘 었는데</w>
노 루
는 건
다 행</w>
단 관
단 거</w>
단 챠</w>
달 리</w>
달 려</w>
대 출</w>
대 머리</w>
더 스</w>
더 레</w>
던 지</w>
도 도
도 발
도 에</w>
돌 계
돌 핀
동 급
동 호</w>
될 거같음</w>
들 으면서</w>
디 에
딸 딸이</w>
때 리는</w>
떡 고
뚜 벅
룰 러
리 드
리 카</w>
린 다
링 은</w>
마 랑</w>
만 명
만 하고</w>
맞 죠</w>
맥 북
머 있음</w>
먹 히
먹 고싶네</w>
멋 진</w>
몇 까지</w>
목 숨
못 막
무 죄
물 고
물 을</w>
미 식
미 카
미 터
바 란
바 리가</w>
반 도</w>
발 광
발 키
방 해
배 기
버 스타
범 위</w>
보 장
보 실분</w>
볼 만한</w>
부 자</w>
불 판</w>
블 매</w>
블 로그</w>
빌 리
뽑 아</w>
서 로
서 비스
석 우
선 구
설 치</w>
소 장
손 아
손 자</w>
솔 랭</w>
수 원</w>
수 박</w>
스 피</w>
스 2</w>
스 팅</w>
시 민
시 타</w>
신 박
신 선
신 성
신 형</w>
실 장
실 트</w>
심 우
십 덕
써 야</w>
씹 노잼
아 일
아 티</w>
아 내</w>
악 역
악 마</w>
안 부
안 친
안 하는거</w>
알 칸
압 도
았 던</w>
앞 으로
양 산
어 과
업 로드</w>
엇 냐</w>
엔 드
엘 베
여 지
역 변
연 계
연 패</w>
영 뽑
온 앤
온 은</w>
올 때마다</w>
요 원</w>
우 람
우 려
원 킬
유 용
율 이</w>
의 도</w>
인 것</w>
인 게임</w>
일 단
일 의</w>
자 자</w>
자 켓</w>
자 다가</w>
작 아
잡 으
잡 다</w>
저 렇게
전 차</w>
접 씨
정 원
정 산</w>
제 가
졌 다고</w>
조 지</w>
존 재</w>
존 내</w>
좌 는</w>
주 영</w>
죽 고</w>
줬 다</w>
지 민</w>
찌 르
찍 어</w>
찾 았
천 박
청 밥</w>
춘 향이</w>
친 년들</w>
쿨 감
크 퀘
크 루</w>
태 국
택 신</w>
테 섭</w>
텔 라
톡 방</w>
통 통
트 윈
팀 으로</w>
파 면</w>
퍼 펙
편 은</w>
폐 기
폐 지
포 포
푸 퀴
피 방</w>
학 살
한 곡
한 손
한 잔
할 로
할 려는데</w>
해 달
해 당
허 위
혐 이</w>
형 도</w>
혜 리
혜 택</w>
혼 내
화 난다</w>
회 사가</w>
흥 갤
하는 것</w>
새끼 랑</w>
는거 아니냐</w>
나오 는건</w>
10 뽑</w>
아이 콘
사람 이랑</w>
해야 하는거</w>
재밌 을
시간 째</w>
이번 달
좋은 건</w>
좋은 거냐</w>
시작 임</w>
올라 오는</w>
애미 씨발</w>
남자 랑</w>
50 개</w>
지랄 이네</w>
하지 도</w>
노래 를</w>
ㅈㄴ 웃기네</w>
인증 하면</w>
올려 주세요</w>
하는거 같음</w>
시즌 1
케이 드</w>
나가 라</w>
보내 줘</w>
그만 좀</w>
까지 임</w>
얼굴 도</w>
나이 트
아아 아</w>
정상 인</w>
마리 나
70 렙</w>
디시 에서</w>
하겠 는데</w>
선택 권
대단 한게</w>
따라 서</w>
여친 사
지원 금</w>
보지 에</w>
올해 의
어캐 됨</w>
유동 으로</w>
다행 이네</w>
좋았 던</w>
트레이드 가</w>
하려 고
달리 기</w>
캐릭터 는</w>
카운 트</w>
애매 한</w>
히로 인
아라 벨</w>
회사 에서</w>
에바 임</w>
미통 당
미통 당이</w>
180 석</w>
해도 되냐</w>
메갈 핌</w>
네임 드</w>
저장 용</w>
범죄 자</w>
on e</w>
미리 보기</w>
윤지 야</w>
크리스 탈</w>
앱등 이</w>
네이마르 가</w>
김진 욱</w>
자주국 방
비게 퍼</w>
윤석 열</w>
아틀 레티
소니 쇼</w>
ㄹㅈ ㄷ</w>
그러고 보니까</w>
복학 왕</w>
군무 원</w>
큐시 트</w>
조승 연
단군 연합
manh wa</w>
1 카</w>
2 회</w>
3 등
5 인
5 위</w>
5 가</w>
6 인
6 개</w>
G M
S A
U I</w>
e s</w>
k m</w>
y ou</w>
ㅅ ㅇ
가 비
가 죽
가 는건</w>
갑 주
갑 은</w>
강 종
거 나
거 니</w>
검 열
경 제</w>
공 성
관 에</w>
구 도
구 를</w>
글 삭</w>
금 전
김 밥</w>
껴 도</w>
꿈 을</w>
끄 는</w>
나 미</w>
나 는게</w>
낫 나</w>
낫 겠지</w>
낮 잠
내 게</w>
내 줘</w>
내 리고</w>
넣 냐</w>
넷 마
느 바
다 다
다 하고</w>
닥 치
당 한거</w>
더 듬
던 은</w>
던 갤</w>
돌 격
돌 때</w>
둘 째
뒤 지면</w>
들 박
딸 기
라 리
랭 커
러 쉬</w>
리 사
리 젠
리 치</w>
림 은</w>
마 작
마 트</w>
마 슈</w>
막 피
말 이냐</w>
머 전
명 곡</w>
무 선</w>
뮤 지
미 성
미 로</w>
미 소녀
믿 음
밀 리</w>
바 운
바 바</w>
바 텀</w>
발 동
방 도리</w>
배 제성</w>
백 섭
밴 픽</w>
범 수</w>
법 사
베 네
봤 노</w>
부 품</w>
부 리는</w>
뷔 빡
비 천
비 로</w>
빠 질
뿌 듯
사 형
상 시
서 약</w>
설 사
성 과
세 운
센 스
셀 롯</w>
소 주</w>
손 실</w>
손 목</w>
수 동
수 입</w>
스 플
스 메라
시 ㅡ
시 점
신 들아</w>
심 야</w>
쓰 기
씹 소</w>
안 켜
안 한다고</w>
않 긔</w>
앚 이</w>
애 를</w>
어 림
어 째
업 은</w>
업 이</w>
업 슴</w>
여 스
온 갖</w>
올 인
올 게</w>
옷 은</w>
요 괴
요 키
욱 일기</w>
워 크</w>
원 작</w>
웨 딩</w>
유 야</w>
이 왜
이 리스</w>
일 만</w>
자 가
잘 그리
잠 실</w>
잠 이안
장 군
장 문
전 을</w>
접 씨</w>
좆 박
좆 밥</w>
좆 됐네</w>
좋 았다</w>
중 대
줘 봐</w>
지 민
지 누</w>
징 그
짤 리
쯤 은</w>
찍 었네</w>
찐 으로</w>
책 장</w>
천 상
초 시
출 전
치 다</w>
치 를</w>
카 로</w>
칸 이</w>
컵 라면
코 스타</w>
타 워
타 냐</w>
타 에</w>
타 석</w>
태 진
테 런
텔 창</w>
토 리아</w>
트 사가
파 편</w>
판 에서</w>
패 싱
패 배</w>
패 악질</w>
퍼 스트
편 성
폭 동
폭 원숭이</w>
폭 숭이</w>
푸 냐</w>
프 렌</w>
피 셔</w>
하 세
하 와
하 프
하 려</w>
하 드리
하 지않나</w>
한 마리
한 방에</w>
함 정
항 로
허 무
호 옹
환 영</w>
활 약
후 편</w>
아니 었네</w>
새끼 냐</w>
20 21
솔직 히
좋아 했는데</w>
여자 의</w>
이라 매</w>
갤러 들이</w>
스트 림</w>
11 9</w>
해주 는거</w>
방송 을</w>
방송 으로</w>
친구 들이랑</w>
남자 의</w>
프로 그램
18 일</w>
있었 지</w>
브이 로그</w>
17 년</w>
16 0</w>
케이 크</w>
다시 봐도</w>
귀여 우면</w>
처음 엔</w>
키우 냐</w>
만들어 봄</w>
와이 파이</w>
신기 하다</w>
사라 진
비슷 하게</w>
스크 램
누가 더</w>
어제 도</w>
입갤 ㅋㅋㅋㅋㅋ</w>
인정 한다</w>
응원 가</w>
다고 함</w>
해줘 야
미국 은</w>
키워 도</w>
조용 한</w>
커여 운
이재 명
갤럼 들아</w>
드레 드
헬스 장
도시 2</w>
모든 걸</w>
안타 까
배고 파
어느정도 냐</w>
김민 주</w>
탈갤 함</w>
오버 워치</w>
당첨 자</w>
마그 멜
은근 슬
지우 고</w>
시그 널</w>
고인물 들</w>
유투 버</w>
이뻐 서</w>
손혁 이</w>
이민 호</w>
이민 우</w>
웃겼 는데</w>
구린 데</w>
wa r</w>
wa n</w>
참고 로</w>
KB O</w>
스타트 업</w>
버튜 버</w>
배윤 정</w>
노량 진</w>
마드리 드</w>
1 승</w>
1 배수</w>
2 페
2 도</w>
2 일</w>
3 d
3 스</w>
5 등
5 판
5 배</w>
5 8</w>
6 강
6 강</w>
9 2</w>
D M
E R</w>
b le
f c</w>
i f
j p
u v</w>
v c
v p</w>
ㅌ ㅈ</w>
각 개
각 이네</w>
간 장
강 진
개 만</w>
개 발</w>
개 같네</w>
갤 인데</w>
거 보면</w>
게 하네</w>
겨 울</w>
결 사
고 고
고 를
과 대
구 랑</w>
그 오는</w>
글 케</w>
금 토
기 노</w>
긴 거</w>
김 다
까 지가</w>
깨 진
끌 고
끝 이</w>
나 스</w>
나 을까</w>
남 주
남 이랑</w>
내 도</w>
내 에</w>
냐 가</w>
놔 도</w>
누 나는</w>
는 애</w>
다 듬
달 고
답 은</w>
당 했는데</w>
대 운
대 행
던 질
던 거임</w>
데 우스</w>
도 날
되 던데</w>
두 두
드 르
득 와</w>
디 파이</w>
딸 은</w>
때 문</w>
때 리네</w>
땡 겨
떠 도</w>
라 부</w>
랄 까</w>
러 서</w>
러 감</w>
로 아가</w>
롬 들아</w>
롭 다</w>
루 즈
리 셋</w>
린 저</w>
막 내
만 이
만 나는</w>
말 도
말 아</w>
말 해줌</w>
맘 이</w>
매 트
면 제
면 은</w>
미 련
미 도</w>
미 침</w>
민 감
바 른
바 고</w>
바 보</w>
박 아야
반 갑
반 대로</w>
반 바지</w>
버 지</w>
번 은</w>
번 도</w>
부 주
부 를</w>
부 기</w>
부 관</w>
빌 딩</w>
빠 꾸
사 격
사 단</w>
사 제가</w>
상 시</w>
상 한</w>
상 한가</w>
생 존</w>
성 매매
세 작
세 지</w>
손 해</w>
수 코토</w>
순 식
스 쿠
시 오
식 스</w>
신 본
신 사
쌍 둥이</w>
썩 은
쓰 는건</w>
씹 가능</w>
아 린
아 만
아 방
아 맥</w>
안 간다</w>
안 봐도</w>
않 은
암 굴</w>
애 쉬
애 한테</w>
야 붕이들</w>
양 도
양 반
어 딜</w>
어 머니</w>
얼 티
여 전
연 락</w>
열 리면</w>
예 지
오 전
오 이</w>
오 티</w>
오 열</w>
오 는게</w>
올 해도</w>
올 타임</w>
옹 호
용 산
우 규
우 연
우 편
우 선</w>
울 었어</w>
월 이</w>
위 기</w>
윙 에게</w>
유 플
은 행</w>
이 자</w>
이 씨발</w>
인 구</w>
인 지도</w>
일 드
일 동은</w>
자 강
자 본</w>
잘 한다고</w>
잘 나가는</w>
장 미</w>
장 발</w>
저 랑
저 럼</w>
적 이고</w>
제 우스</w>
좆 된
좋 긴
주 짓
줄 알았
중 얼
중 위
중 이
지 민이</w>
진 로</w>
찬 스</w>
창 술사</w>
천 재</w>
칠 까</w>
칰 윙에게</w>
카 나
카 펫
커 미션
케 트</w>
켜 라</w>
코 스트</w>
크 퀘</w>
탄 다</w>
탄 은</w>
테 르
토 너
토 무
통 상
투 명</w>
틀 니
티 콘
파 는거</w>
파 는게</w>
팔 라
팔 사람</w>
팔 리냐</w>
패 시브</w>
팩 질
편 지</w>
편 하네</w>
프 롬
피 어
합 니다
허 브</w>
헤 비
혈 액
혜 자</w>
호 남
호 텔</w>
화 제
화 폐
회 가</w>
희 동</w>
하는 줄</w>
아니 였
생각 해보
생각 났는데</w>
같은 디</w>
10 5</w>
레이 션</w>
20 3</w>
라이 벌
병신 이네</w>
재밌 었다</w>
여자 를</w>
하나 의</w>
시간 대</w>
이번 에는</w>
누구 있냐</w>
올라 왔다</w>
이런 식으로</w>
아닌 게</w>
아닌 가요</w>
100 00
친구 들이</w>
알려 주는</w>
ㄹㅇ ㅋㅋㅋ</w>
그러 네</w>
하루 만</w>
사랑 해
14 00
하는거 긔</w>
보고 서</w>
만원 이면</w>
재미 있는</w>
네이 처</w>
보내 는데</w>
그리 운</w>
데려 온
선수 맞추기</w>
아아 아
내일 이</w>
ㅋㅋㅋ ㄱ
코스 피
문재 인은</w>
돌리 냐</w>
돌리 는거</w>
할만 한거</w>
중국 은</w>
넘어 가면</w>
비슷 한
꼴리 게</w>
24 시간
야구 혁명</w>
페미 들</w>
다르 다</w>
오래 된</w>
와꾸 로</w>
웃긴 거</w>
아이돌 은</w>
배우 는</w>
스트리 밍</w>
ㅂㅅ 들</w>
버렸 노</w>
스러 워
뭐가 더</w>
저녁 은</w>
ㄷㄷㄷㄷㄷㄷㄷㄷ ㄷㄷㄷㄷㄷㄷㄷㄷ
마시 면</w>
사과 문</w>
꼬마 는</w>
이란 거</w>
염퀴 들이</w>
길태 견들</w>
컨텐츠 는</w>
많아 짐</w>
태어 났
인스타 그램</w>
카오 리</w>
부분 이</w>
레드 벨
외질 은</w>
손흥 민
심각 한</w>
블리 치</w>
해봤 음</w>
희망 일자리</w>
시발련 들</w>
3천 원
드랍 률</w>
아아아아 아아아아
양아 지</w>
올스타 를</w>
보면 됨</w>
편집 자</w>
TO P
헤드 폰</w>
클래 스</w>
아반 떼
유희 왕
자존 감</w>
넷플 릭
되었 습니다</w>
스트리머 들</w>
스프 링</w>
년도 에</w>
놀라 운</w>
고십 다</w>
변호 사</w>
필승 조</w>
물타 기</w>
지지율 이</w>
아킬레 우스</w>
아돌 라</w>
레벨업 갤</w>
비동의 강간
살다 살다</w>
jy p</w>
1 인</w>
2 장
2 에서</w>
2 20
4 만</w>
4 7</w>
4 4</w>
5 강
5 1</w>
5 강</w>
6 3</w>
6 월</w>
e c
l g
u i
ㅈ 같은
ㅋ ㄱ</w>
갈 거</w>
갈 건데</w>
강 제</w>
갖 고싶다</w>
같 았는데</w>
개 쳐
개 편</w>
갤 만</w>
갤 벤</w>
갤 로그</w>
거 가
거 꾸
거 라
건 보</w>
검 제
것 같긔</w>
겠 다
경 녀
경 우가</w>
고 만</w>
공 팟
교 가</w>
구 이</w>
궁 금</w>
그 대
그 파</w>
기 동
기 둥
기 숙
기 나</w>
깅 이들</w>
까 도</w>
꺼 냐</w>
꺼 같은데</w>
낼 부터</w>
냐 ㅋㅋㅋㅋ</w>
넘 겨
녕 데
노 짱
노 근본</w>
놈 들도</w>
누 이</w>
는 놈</w>
는 방법</w>
닥 터
달 렸
달 작
달 창
당 신
대 공
대 딸
대 요</w>
더 운데</w>
도 사랑</w>
돌 린
되 려면</w>
듀 얼</w>
들 로</w>
들 이네</w>
들 고있
등 교
디 디</w>
디 럭스</w>
떨 구
뛰 는거</w>
랭 이</w>
레 인</w>
레 오</w>
려 니까</w>
로 워
루 징
류 는</w>
리 메
리 트
마 부</w>
마 호</w>
맞 춘
머 릿
먹 었음</w>
메 달</w>
모 은</w>
못 했는데</w>
못 하노</w>
못 알아
무 제한</w>
물 총
물 리</w>
물 고기
미 녀</w>
민 족
바 드
바 니</w>
바 라는</w>
박 해
뱅 드림</w>
벨 라
벽 갤</w>
병 크
보 아
보 낸</w>
볼 이</w>
볼 수있
부 장
불 어
불 법</w>
븝 미
비 싸</w>
빈 은</w>
빠 지네</w>
빠 졌네</w>
뽑 은
살 라
상 인</w>
상 에서</w>
샤 이닝
서 럽
서 바</w>
서 포터</w>
선 배</w>
소 워</w>
소 희</w>
소 프트</w>
손 님
수 있나</w>
슈 주갤</w>
스 탈
스 플</w>
스 찌</w>
스 케이
시 디
시 끄러
실 세
심 연
싸 운
써 본
쏘 2</w>
쓰 알
아 구
아 테
안 받
안 에
안 쳐
안 와서</w>
안 하니까</w>
안 주네</w>
안 가고</w>
압 타</w>
앗 냐</w>
애 잔
애 새끼들</w>
앰 들이</w>
야 드
엑 박
열 은</w>
염 경
영 통
옆 집</w>
오 글
올 드
와 서
와 인
와 야</w>
왕 관
외 로</w>
요 한
요 소</w>
욕 먹는</w>
우 라
울 프
웃 고있다</w>
웨 어</w>
이 수
이 원
이 브</w>
이 사진</w>
인 지는</w>
인 피니
있 다는게</w>
잘 한거</w>
잠 들
잡 았는데</w>
장 소</w>
저 따
적 어라</w>
전 개
접 어</w>
정 당
정 복
정 돈</w>
좀 해라</w>
주 요</w>
죽 임</w>
줬 네</w>
쥐 는</w>
지 니까</w>
챔 프</w>
처 먹고</w>
철 학
초 구</w>
최 면
추 고</w>
치 마</w>
코 랑</w>
큐 브
크 기
크 크
클 이</w>
키 랑</w>
태 곤
태 고</w>
탱 커
터 진거</w>
텍 사스</w>
트 통령</w>
특 집</w>
특 정</w>
패 전
퍼 스트</w>
폰 에</w>
표 본
풍 이</w>
필 라
하 우스</w>
해 군
해 두
해 지면</w>
헬 적
헬 퍼
혁 준
호 이
호 도</w>
호 영</w>
혹 시
황 교
회 에서</w>
후 가</w>
히 든</w>
하는 애</w>
나오 냐고</w>
고싶 어서</w>
생각 이
아이 오
라이 더</w>
병신 인데</w>
재밌 었음</w>
이라 도
갤러 들은</w>
정도 가</w>
이상 으로</w>
12 강</w>
12 2</w>
12 3</w>
시작 해도</w>
거같 애
올라 오네</w>
15 년
이런 데</w>
질문 좀
문제 네</w>
한국 사</w>
지랄 임</w>
18 2</w>
이었 나</w>
있었 노</w>
인증 함</w>
그런 게</w>
14 4
가이 아</w>
만들어 줘</w>
까지 도</w>
얘기 를</w>
어야 겠다</w>
애니 가</w>
패치 가</w>
기다 려</w>
거리 면서</w>
어려 운데</w>
시켜 라</w>
들어가 네</w>
들어가 냐</w>
넘어 가
비슷 하네</w>
세계 에서</w>
성공 한
스킬 은</w>
먹어 라</w>
먹어 봄</w>
재밋 냐</w>
인간 은</w>
유저 는</w>
삼성 생명</w>
새기 들이</w>
무료 뽑</w>
아이돌 이</w>
직업 은</w>
거르 는</w>
그룹 이</w>
합격 자</w>
베이 스
연애 는</w>
이재 학</w>
커엽 노</w>
버프 력</w>
그립 읍니다</w>
ㅋㅋㅋㅋㅋㅋㅋㅋㅋㅋㅋㅋㅋㅋㅋㅋㅋㅋㅋㅋㅋㅋㅋㅋㅋㅋㅋㅋㅋㅋㅋㅋ ㅋ</w>
ㅋㅋㅋㅋㅋㅋㅋㅋㅋㅋㅋㅋㅋㅋㅋㅋㅋㅋㅋㅋㅋㅋㅋㅋㅋㅋㅋㅋㅋㅋㅋㅋ ㅋㅋ</w>
상상 도</w>
상상 함</w>
능력 치</w>
이게 뭐노</w>
적용 됨</w>
피해 자</w>
모드 로</w>
한가 봐</w>
버려 라</w>
고구 마
어린 슈</w>
오디 션</w>
안된 다고</w>
pv e</w>
타령 하는</w>
데려오 자</w>
간단 한</w>
있으 려나</w>
어카 지</w>
큰일 났다</w>
테러 방</w>
글로 벌
충전 기</w>
대한민 국
버닝 섭</w>
커리 어
비율 이</w>
수강 신청
자존 심</w>
거짓 말</w>
연구 소</w>
늒네 인데</w>
페르 소나</w>
ㅎㅇ ㅎㅇ
못생 겨
아름 다운</w>
언제까지 임</w>
이영 하</w>
신곡보은왔 호중</w>
FA CT</w>
ㅇㅂ ㅂㄹ</w>
김강 열</w>
서재 응
무효 니</w>
언노 운</w>
스노 우
조승연 vlive갤</w>
1 장</w>
1 선발</w>
4 년</w>
5 퍼
5 일</w>
6 6</w>
6 000
F eat</w>
O T
S K</w>
f a</w>
h o
k or
n pc
ㄱ ㅅ
가 망
가 여</w>
가 운데</w>
갈 이</w>
개 같이</w>
개 귀엽네</w>
걸 면</w>
겆 줌들</w>
격 이</w>
계 산</w>
고 문
공 약</w>
구 하기</w>
궁 극
귀 족
그 게
그 린거</w>
길 을</w>
까 는데</w>
꿀 빨
끝 난</w>
남 돌
내 기
넘 는데</w>
넘 치는</w>
넣 을까</w>
녀 석
녹 화
높 게</w>
는 애들
다 했는데</w>
다 가도</w>
단 또</w>
담 은</w>
답 이다</w>
대 양
더 운
던 거같은데</w>
데 레
데 브</w>
덱 으로</w>
도 티</w>
돌 았네</w>
되 게
된 거지</w>
뒤 졌다</w>
드 롭
디 게</w>
떴 음</w>
뛰 면</w>
란 거</w>
랜 뽑
로 쏘</w>
롤 망호</w>
루 사</w>
리 프</w>
림 이</w>
마 요
마 요</w>
마 녀</w>
마 킹</w>
만 붕이
많 긔</w>
말 이지</w>
말 대로</w>
매 년</w>
머 상</w>
먹 노</w>
모 은
모 모</w>
무 적</w>
무 빙</w>
무 제한
뭐 해야
뭐 라도</w>
뭐 부터
뭐 해야함</w>
미 화
미 스테
민 혁
민 지</w>
반 찬
발 생
방 장</w>
배 그
배 척
버 블</w>
벅 스</w>
범 죄</w>
보 니
보 도</w>
분 들
브 랜드
비 상
빼 고는</w>
사 설
사 막</w>
색 은</w>
세 키로</w>
셔 틀</w>
소 재</w>
수 간
수 라
슈 화</w>
시 노</w>
시 를</w>
신 상
씹 타</w>
아 린</w>
아 라는</w>
안 가</w>
알 라
알 레
알 몸
압 살
앙 망</w>
애 완
약 점
약 점</w>
얼 빠
없 이
었 습니다</w>
에 르
엘 소드</w>
엘 소드
엘 사님</w>
연 구</w>
오 사
오 자마자</w>
오 론토</w>
와 씨발</w>
요 거
욕 쳐
용 은</w>
우 가
우 미</w>
우 스가</w>
울 듯</w>
울 갤</w>
움 이</w>
웃 는거</w>
워 치
워 드</w>
원 영</w>
음 중</w>
이 슈</w>
이 긴함</w>
이 정도는</w>
이 메일</w>
인 상</w>
인 다고</w>
일 부</w>
임 이</w>
임 ㅋㅋㅋㅋ</w>
입 으로</w>
있 겠네</w>
자 율
자 에</w>
자 야겠다</w>
잔 나비
잘 버
잘 벌
잘 됨</w>
잠 원
잠 을</w>
장 점
저 는
저 평가</w>
정 기
정 공</w>
제 라
젤 라</w>
존 잼
좀 해</w>
좆 예
좆 은</w>
좌 빨
주 시
주 간</w>
중 갤
중 ㅋㅋ</w>
즈 랑</w>
지 정
지 타
진 주
진 혁</w>
집 빌
쩌 리
찜 한테</w>
차 원
창 고
첨 보네</w>
청 자</w>
쳐 박
카 데
카 카
캐 논</w>
커 넥
컷 신
코 에</w>
키 커</w>
킹 갓
킹 은</w>
타 라
타 팀</w>
튜 닝
트 랜
트 러
트 를</w>
파 르
파 크
파 판</w>
파 렉</w>
포 터
포 수가</w>
폭 등
폭 발</w>
폴 드
푸 거
퓨 처
플 탐</w>
피 엘</w>
하 혈
하 대</w>
한 전</w>
한 걸로</w>
할 려나</w>
합 치면</w>
항 상
했 누</w>
행 동</w>
헨 이</w>
현 기
현 커
현 우</w>
형 제</w>
홍 건
화 랑</w>
휴 스턴</w>
히 메
히 하</w>
하는 것
는거 보고</w>
나오 면
해야 겠네</w>
솔직 하게</w>
여자 들한테</w>
갤러 리가</w>
이상 이</w>
30 억</w>
시작 이네</w>
소리 도</w>
올라 서</w>
올라 오냐</w>
여기 까지</w>
사이 에서</w>
50 퍼
좆같 아
메이 크
캐릭 들</w>
나온 지</w>
다이 온</w>
이쁘 다고</w>
떨어 지냐</w>
사랑 하는</w>
올려 치기</w>
하는거 랑</w>
재미 없
싫어 하는데</w>
서울 시</w>
하고싶 으면</w>
정상 적인</w>
프레 나</w>
보은 을
사진 도</w>
알아 보는</w>
안나오 는데</w>
하기 싫다</w>
한남 충</w>
부르 네</w>
개꿀 팁</w>
댓글 이</w>
진각 성</w>
콜라 보는</w>
호감 임</w>
근본 은</w>
페미 가</w>
웃긴 데</w>
유튜브 는</w>
고양 이가</w>
비트 앤
비틱 질</w>
완장 아</w>
일주 일에</w>
라이브 는</w>
잘생겼 네</w>
트레 일러</w>
염퀴 들아</w>
부모 님
ve r
제발 요</w>
이것 만</w>
김민 식</w>
상태 가</w>
의사 들</w>
개추 좀</w>
슬로 건
엉덩 이
따효 니
카이 저</w>
말이 되냐</w>
감스트 는</w>
총공 왔
현타 옴</w>
두번 째
1분 전</w>
박주 홍
재앙 이</w>
라오 루</w>
서건 창
모집 중</w>
미스 틱</w>
주세 여</w>
이리 야</w>
버서 커
드래곤 볼</w>
방구 석
상렬 이</w>
라포 엠
프로듀 서
사은 품
지박 귀</w>
플렉 스</w>
멜숙 씨</w>
어렸 을때</w>
그리스 로마
ne w
머선 일이고</w>
김유 식</w>
팬미 팅</w>
사토 미나미
못해 먹
시진 핑</w>
삼성라이온 즈갤</w>
괴담 동</w>
리저 브</w>
fine 신곡보은왔호중</w>
1 승
1 세트</w>
2 에</w>
2 스</w>
3 에</w>
6 장</w>
6 9</w>
9 000
A I
M O
N E
P D
R P
S wan</w>
m o
p ts
s 7
t ub
v o
x x</w>
ㅈ 망
ㅈ ㅈ</w>
ㅌ 7</w>
ㅌ ㅌ</w>
가 을</w>
가 볼까</w>
각 도</w>
강 서
강 소
개 선</w>
개 미</w>
개 웃겨</w>
갤 라
거 노</w>
검 마</w>
것 들을</w>
견 자
견 적
고 2
고 릴라</w>
공 수
공 항
공 화
과 자
과 는</w>
관 왕
구 먼</w>
국 대
국 산
국 해
규 정</w>
그 랜드
글 래
기 반
기 신
기 체</w>
김 영
김 웅
김 주
꿀 잠
나 락</w>
날 먹</w>
내 마
내 냐</w>
내 구도</w>
년 들도</w>
놈 있냐</w>
눈 깔</w>
느 악몽
니 스
다 마
다 키
다 주</w>
단 지</w>
단 에서</w>
대 다
던 건</w>
도 의</w>
도 없고</w>
동 원
동 점
동 님</w>
동 인지</w>
되 야</w>
됨 ㅋㅋ</w>
드 는게</w>
때 림</w>
뜨 지</w>
락 은</w>
런 닝
레 아</w>
렌 더</w>
려 라</w>
로 버
로 딩</w>
리 츠
리 쿠
리 리</w>
마 차
마 인</w>
만 나</w>
만 날</w>
만 신</w>
만 인데</w>
만 따리</w>
말 랐
말 만</w>
맛 있네</w>
망 할</w>
먹 버
먹 고싶은데</w>
명 작</w>
모 으면</w>
모 여서</w>
무 장
무 위키</w>
문 신</w>
미 쿠
민 경
밑 에서</w>
박 시
박 기</w>
발 은</w>
방 도</w>
방 학</w>
배 려
백 룡
번 째
벌 었다</w>
법 으로</w>
보 건
보 소
보 갤</w>
본 가
부 매
부 서
분 데스</w>
불 로
붙 어서</w>
블 로
비 유
비 판
비 랑</w>
빡 친
빡 셈</w>
빻 았
빼 는</w>
삐 가</w>
삐 앰</w>
사 관
사 네</w>
사 리</w>
사 복</w>
사 니까</w>
사 는건</w>
사 다리</w>
상 식</w>
생 파</w>
서 아
서 태
서 특</w>
서 브</w>
성 갤
성 규</w>
세 종
소 스
소 프트
속 의</w>
손 차
수 자
수 전
슼 이</w>
시 에서</w>
실 존
심 해서</w>
싸 는</w>
싹 다
쓰 려면</w>
씨 야갤</w>
씨 이발</w>
아 근데</w>
아 유미</w>
알 겠음</w>
애 서</w>
앤 비</w>
야 야
야 붕이
얍 칸</w>
어 윈</w>
에 도
에 라이</w>
엘 갤</w>
여 돌
역 시
역 은</w>
열 혈
영 광
예 리</w>
오 셈</w>
와 줘</w>
왕 자</w>
용 사
우 체
우 웅</w>
워 로드</w>
원 스
유 마
유 즈
유 혹
윤 갤</w>
을 때가</w>
이 별
이 여
이 참
이 탈
이 현
이 씨발
이 구만</w>
이 달소</w>
인 장
인 우</w>
일 루
일 방
임 팩트</w>
입 은
잇 나요</w>
있 대</w>
있 자나</w>
자 서</w>
잡 은
잡 아서</w>
장 학
재 현</w>
저 래</w>
저 딴</w>
적 정
적 도</w>
전 세
전 한
전 보다</w>
절 대로</w>
접 수
정 했다</w>
제 노블
조 유리</w>
종 특
좆 민
좆 좆
좆 그오</w>
주 황
죽 이면</w>
준 태</w>
중 입니다</w>
지 요</w>
지 좀</w>
지 타</w>
직 전에</w>
집 단</w>
찌 질
착 용
찾 습니다</w>
채 연이</w>
천 지</w>
체 인</w>
초 밥
초 코</w>
최 신</w>
치 어리
카 타
칸 나
캐 도</w>
캐 임</w>
컨 포</w>
케 릭</w>
코 카
퀸 친</w>
키 키
키 운</w>
타 겟
태 성
통 산</w>
특 정
파 인
판 으로</w>
페 스티
편 돌이</w>
평 이</w>
폐 지</w>
포 항
포 토</w>
포 틀</w>
푸 라
풀 면</w>
플 핸
피 로도</w>
피 싸개</w>
하 겟
핫 산
해 여</w>
햇 살
했 을텐데</w>
헬 레
헬 퍼</w>
현 시각</w>
형 아들</w>
호 기
홍 예
확 팩</w>
환 수</w>
후 로</w>
훈 은</w>
휴 지</w>
힙 합</w>
힙 스터
새끼 네</w>
나오 기
ㅡㅡ ㅡ
사람 의</w>
20 개</w>
해야 되나</w>
해야 되는거</w>
병신 이지</w>
ㅅㅅ ㅅ
추천 받는다</w>
30 명</w>
모르 게</w>
우리 학교</w>
우리 나라는</w>
시작 하자마자</w>
이유 없이</w>
여기 로</w>
100 개</w>
50 분
괜찮 을
알려 줘라</w>
프로 는</w>
다니 엘</w>
떨어 진다</w>
떨어 져서</w>
기대 되네</w>
시즌 3</w>
케이 팝
케이 블</w>
확실 함</w>
19 0
느낌 이네</w>
하고 옴</w>
싫어 짐</w>
싫어 하는
서울 의
귀엽 노</w>
ㅅㅌㅊ 임</w>
드립 은</w>
이였 노</w>
어쩌 면</w>
시켜 서</w>
중국 에서</w>
어렵 지</w>
유니 크
물어 봄</w>
누가 더
이쁜 듯</w>
준비 중</w>
소환 사
버리 지</w>
선발 이</w>
안나 와서</w>
다고 하면</w>
부탁 한다</w>
많은 게</w>
많은 건</w>
가챠 는</w>
배우 가</w>
기본 소득
기본 소득</w>
웨이 버
트리 플</w>
3개 월</w>
몰랐 네</w>
주딱 은</w>
보다 보면</w>
바람 이</w>
들어와 바</w>
진심 2YA
엄마 랑</w>
부모 님이</w>
죽이 고싶다</w>
애매 하게</w>
금지 어</w>
나무 위키
미나 미</w>
이겼 네</w>
아버 지가</w>
쓸만 하냐</w>
샘슨 이</w>
화이 트
영업 이익</w>
마려 움</w>
빡세 냐</w>
남친 이랑</w>
성격 이</w>
걸러 라</w>
모델 링</w>
처리 반</w>
사이퍼 즈
인터넷 에서</w>
이딴 거</w>
바꿀 까</w>
테러 단</w>
좆이 돌</w>
겨울 에</w>
바닥 에</w>
근개 비</w>
글리 젠
더러 운</w>
괴물 쥐</w>
더럽 게</w>
이마 트</w>
정은 원</w>
여중 생</w>
반박 불가</w>
고로 시</w>
리모 뜨</w>
김정 숙</w>
노수 광
박세 혁</w>
지박 귀
예리 한</w>
외노 자</w>
부유 성</w>
2YA O</w>
마누 라</w>
경상 도
숨참 는다</w>
광화 문</w>
상당 히</w>
미성 년
사토미나미 갤</w>
tub e</w>
진심2YA 2YAO</w>
1 기</w>
2 페</w>
5 1
5 배
7 천
9 8</w>
A P
K O
M L
M D</w>
T H
T W
c h</w>
e d</w>
f f
t 1</w>
u l
가 운</w>
간 은</w>
감 수
강 요
강 원</w>
같 아도</w>
개 면</w>
갤 이야</w>
거 도</w>
거 에요</w>
건 축</w>
겁 니까</w>
게 아니라</w>
경 치
경 력</w>
고 어
고 향
고 대</w>
과 몰입
구 조</w>
구 하냐</w>
군 수
그 녀
그 레이</w>
김 도
김 상수</w>
까 진
께 서</w>
꼬 시
꼴 짤</w>
나 은데</w>
나 을듯</w>
나 본데</w>
남 양
낫 는데</w>
낮 방
낮 음</w>
내 려</w>
내 보내
냉 동
네 여</w>
네 캐</w>
네 진짜</w>
노 랑
노 루</w>
노 리는</w>
놈 임</w>
높 으면</w>
늦 은</w>
니 당</w>
다 리가</w>
던 지고</w>
도 발</w>
도 감</w>
돌 릴때</w>
되 더라</w>
드 론
드 레이
듣 고
들 려
따 까
따 먹고</w>
땡 칠
땡 긴다</w>
똥 겜
똥 양
란 게</w>
래 퍼</w>
러 도</w>
로 나
리 스트
린 건</w>
린 이가</w>
마 오
마 우스
만 수
만 점</w>
말 해준다</w>
망 토
망 이니</w>
매 니아</w>
맥 북</w>
면 역
몬 헌</w>
몰 이
무 당
문 열어</w>
바 낸
바 닐
바 랍니다</w>
박 종
밤 샘
배 운
배 그</w>
백 인</w>
베 라
변 환
보 게
보 자
보 는건</w>
보 지도</w>
보 였는데</w>
본 체
볼 만</w>
볼 만함</w>
분 조
분 홍
붕 인데</w>
붙 음</w>
비 중</w>
비 면</w>
비 에</w>
비 호감</w>
빈 집
빌 딩
빠 전</w>
빠 는데</w>
뿐 인데</w>
사 시
살 고싶다</w>
살 려는데</w>
삼 갤</w>
서 번트
선 방
성 괴
세 기
세 체
속 도가</w>
손 잡
송 하
수 야</w>
수 잔</w>
순 한
스 코어
슬 기</w>
시 가
시 팔
신 검
신 체
신 태
싫 다고</w>
십 새
십 니다</w>
써 본사람</w>
씹 새끼들아</w>
아 스</w>
악 플</w>
안 시</w>
안 된</w>
안 해줌</w>
액 션
앱 솔</w>
야 념</w>
어 뜨
어 택</w>
엘 프
엘 리스</w>
열 고</w>
열 받네</w>
염 빡
영 이랑</w>
오 더
오 공</w>
올 듯</w>
옵 변
옵 은</w>
옵 치</w>
요 거</w>
욕 하는
용 돈
우 도</w>
우 산</w>
웃 고</w>
원 턴
원 스토어</w>
위 기
위 클리</w>
윙 족이</w>
유 벤
유 형</w>
이 입
인 겜</w>
인 이랑</w>
임 무</w>
자 급
작 정
잔 인
잘 해주
장 사</w>
저 게
적 혀
적 음</w>
전 멸
전 복
전 신
전 략</w>
접 는
정 예
져 스</w>
좀 비
좆 기</w>
좆 이어
좌 우
줄 이</w>
중 단</w>
중 대</w>
중 딩</w>
중 이냐</w>
중 붕이
쥬 쥬
즈 만</w>
지 진
지 현</w>
진 건</w>
진 작</w>
짜 면</w>
짜 는</w>
초 견</w>
총 대
추 팔
춘 향</w>
출 혈
치 곤</w>
친 일
커 마
커 녕</w>
켜 놓고</w>
쿠 티
키 갤</w>
털 고</w>
통 베
투 사</w>
트 럭
파 울
파 츠
포 갤
포 엑
폭 식
폭 파
표 현</w>
푸 딩
풀 콤
피 씨</w>
필 합</w>
하 단
하 락</w>
학 벌
한 것
한 두
한 수</w>
한 건지</w>
할 가</w>
할 매</w>
함 은</w>
해 머</w>
했 는데도</w>
헤 딩
호 호
화 보
확 신
환 산</w>
획 득
ㅋㅋㅋㅋㅋㅋㅋㅋ ㅋ
는거 네</w>
나오 던데</w>
어디 로
어디 가서</w>
병신 들이</w>
하나 임</w>
지않 았나</w>
이상 하다</w>
누구 한테</w>
우리 랜드</w>
소리 바
게임 임</w>
스타 일이</w>
아닌 거같은데</w>
사이 코
200 4
애미 들은</w>
남자 도</w>
프로 필
너무 좋아</w>
18 00
13 8
13 0</w>
가지 마라</w>
사랑 은</w>
투표 보은왔
미친 거</w>
으로 써</w>
다른 거임</w>
하는거 봐</w>
많이 함</w>
많이 남</w>
나가 서
보고 왔다</w>
이해 안감</w>
처음 인데</w>
진지 박</w>
싫어 해</w>
해보 셈</w>
해보 고싶다</w>
이러 다가</w>
오르 는데</w>
고민 된다</w>
일어 나</w>
알아 냈다</w>
복귀 유저</w>
안나오 고</w>
중요 해</w>
모르겠 지만</w>
거리 는데</w>
정리 해줌</w>
중국 몽</w>
하이 브리
그렇 네</w>
버그 가</w>
내려 가
입갤 ㅋㅋㅋㅋㅋㅋ</w>
ㅏㅏ ㅏㅏ</w>
틀드 로</w>
영화 는</w>
예쁘 면</w>
언급 인물</w>
갈아 탈
아이돌 라이브</w>
신캐 가</w>
입장 권</w>
드리 블
보라 색</w>
박정 희</w>
잘생겼 는데</w>
몰랐 음</w>
폴가이 즈
상황 에서</w>
고수 만</w>
상위 권</w>
역겨 운
출근 길</w>
슈퍼 엠</w>
길드 원</w>
이용 자수</w>
스마 게</w>
아까 워</w>
늘어 남</w>
불안 하네</w>
싸개 들</w>
아스 날</w>
없애 고</w>
수도 권
되는거 아님</w>
첫방 축하</w>
조금 씩</w>
계산 기</w>
마나 카</w>
버거 킹</w>
씨젠 은</w>
쿠팡 에서</w>
팬덤 은</w>
좆이 돌
해설 은</w>
워싱 턴
레인 보
이새끼 도</w>
깨달 음</w>
나주 거</w>
전부 다</w>
지하철 에서</w>
제외 하고</w>
08 13</w>
프리미 엄</w>
저기 서</w>
올림 픽</w>
콜로 세움</w>
송가 인</w>
워너 비</w>
차은 우</w>
엄준 식
진영 대창
하여 간</w>
xm 4</w>
컨디 션</w>
나성 범</w>
문열어 문열어
추미 애</w>
퍼포 먼
ㅊㅋ ㅊㅋ</w>
난이 도가</w>
2 할
2 탄</w>
3 월
3 만원</w>
4 k</w>
5 4
5 월
5 는</w>
5 판</w>
5 이닝</w>
6 2
6 월
7 4
7 000
8 7</w>
L A
R R
S 7</w>
b d
b j</w>
d o
n c</w>
r pg</w>
ㅁ ㅁ</w>
가 구
가 창
가 는거임</w>
가 고싶어</w>
각 잡고</w>
갈 고</w>
갈 거임</w>
갓 갓
강 열이</w>
개 신
개 씹창
갤 7
갤 클
거 를
거 미
거 로</w>
건 우</w>
걸 로
걸 렸네</w>
겠 다는</w>
고 리</w>
고 3</w>
공 기
공 단</w>
공 에</w>
구 본
그 가</w>
그 닥</w>
그 거임</w>
근 로</w>
글 로</w>
금 사
꿀 벌</w>
꿈 꾸
꿈 이</w>
끼 가</w>
낫 긔</w>
너 의
너 야</w>
넣 은
넣 었는데</w>
네 ㅋ</w>
노 ㅋㅋㅋㅋㅋㅋㅋㅋㅋㅋㅋㅋㅋㅋㅋㅋㅋㅋㅋㅋㅋㅋㅋ</w>
놓 음</w>
눈 빛</w>
느 냐</w>
니 애미</w>
다 만</w>
당 신은</w>
댕 라
던 파는</w>
도 구
도 마
동 부
돼 지가</w>
됐 고</w>
등 에</w>
디 트</w>
딜 도</w>
따 먹고싶다</w>
딱 지
뜬 금</w>
러 쉬
레 넥
롤 이</w>
루 친
루 탑</w>
류 현
리 조
리 제로
린 거임</w>
릴 레이</w>
마 신
막 고</w>
만 하네</w>
만 났는데</w>
맛 이
망 할
맥 도날
멀 한</w>
메 다
면 서
면 허</w>
면 안됨</w>
모 찌
무 장</w>
무 실점</w>
묻 어
뭔 임</w>
미 군
미 도
미 인</w>
박 승
박 이
박 아라</w>
발 생</w>
방 갤</w>
배 슬
백 룡</w>
밴 픽
벌 었
베 타
보 리
보 려는데</w>
본 진
봉 은</w>
부 품
분 양
붕 괴</w>
브 룩
비 드
비 번</w>
빨 간</w>
뽑 아도</w>
뿌 릴
사 또
사 수</w>
살 자
살 거</w>
상 화
색 스
생 파
서 바
선 행
설 리
설 현</w>
세 끼</w>
센 징
수 령
수 들</w>
수 잇음</w>
스 브
스 보다</w>
스 와이프</w>
슨 상
슨 이</w>
슬 슬
슴 고
승 급</w>
시 설
시 만</w>
시 녀</w>
시 골</w>
신 상</w>
싫 고</w>
심 흑
심 하다</w>
싸 웠
쌈 무</w>
쓰 래
씹 소
아 델
아 지르
악 이</w>
악 의</w>
안 읽
안 주면</w>
안 봐서</w>
안 하겠지</w>
알 럽
알 리</w>
앙 헬리
애 드라</w>
야 외
야 숨</w>
어 시</w>
어 용</w>
어 진</w>
억 에</w>
없 죠</w>
없 네요</w>
옆 집
예 매
예 아</w>
오 또
오 전에</w>
오 빠는</w>
요 금
욕 이</w>
우 월
우 한
윤 수</w>
음 ㅋㅋㅋㅋ</w>
이 병
이 빨
이 와</w>
이 처럼</w>
이 새기들</w>
인 력
인 맥
인 우
일 이
입 사
입 시
입 어
입 학
잇 엇는데</w>
있 네요</w>
자 신</w>
잘 나옴</w>
장 전
장 이랑</w>
장 원영
재 검
재 련</w>
저 분</w>
전 혀
전 재산</w>
점 으로</w>
접 근
존 예</w>
좆 혁</w>
주 노
주 연
죽 을</w>
줄 이
줌 들은</w>
중 립
줬 다고</w>
증 후
질 로</w>
질 러</w>
차 냐</w>
찬 원
참 교육</w>
창 년아</w>
찾 아서</w>
채 연
철 수
최 다
최 형
최 후</w>
추 진
층 에서</w>
치 료</w>
카 피
칼 삭
커 리</w>
케 미</w>
코 미디
킬 러</w>
킹 이</w>
킹 탄</w>
태 우
통 언
팬 츠</w>
퍼 거
편 갤</w>
편 인데</w>
포 즈</w>
포 엠</w>
폰 겜
푸 른
풀 발
품 번
풍 선
풍 은</w>
플 로</w>
피 트</w>
하 구</w>
하 네ㅋㅋㅋ</w>
학 자</w>
한 체
한 짤</w>
한 가요</w>
할 때부터</w>
해 골
해 금</w>
해 졌네</w>
해 보이는데</w>
헌 혈</w>
현 식
현 피
형 이랑</w>
혜 성</w>
화 속</w>
확 장</w>
확 챠</w>
회 귀
후 면</w>
휴 재
는거 노</w>
는거 에</w>
나오 게</w>
들어 본</w>
들어 온</w>
10 일
레이 터</w>
오늘 의
20 퍼
그래 서
재밌 더라</w>
여자 애들</w>
하나 봄</w>
얼마 쯤
30 일</w>
게임 에서</w>
때문 이다</w>
100 퍼
100 퍼</w>
남자 한테</w>
좆같 냐</w>
메이 릴</w>
보이 는
보이 긔</w>
다음 엔</w>
이었 긔</w>
진짜 네</w>
사랑 이</w>
올려 주
뉴비 들은</w>
기대 했는데</w>
다른 게</w>
보고 옴</w>
재미 없다</w>
한다 던데</w>
사기 네</w>
ㅅㅅㅅㅅ ㅅㅅㅅㅅ</w>
무슨 임</w>
ㅅㅂ ㅅㅂ</w>
이름 도</w>
내일 까지</w>
프레 이</w>
별로 다</w>
념글 요청</w>
인생 에</w>
25 2</w>
유진 은</w>
300 0</w>
축하 드립니다</w>
그렇 다</w>
진각 일러</w>
보는 중인데</w>
스밍 왔
생일 풍</w>
타이 탄</w>
결혼 은</w>
결혼 하면</w>
호감 도</w>
여친 은</w>
주식 은</w>
먹었 노</w>
삼성 은</w>
새기 들은</w>
되는 건가</w>
오래 걸림</w>
언급 도</w>
나라 에서</w>
신캐 는</w>
어디서 함</w>
경원 무기</w>
수준 임</w>
신고 게시판</w>
1년 만에</w>
느끼 는게</w>
버스 에서</w>
통합 당이</w>
구라 안치고</w>
한동 숙
헬스 장에서</w>
점심 은</w>
양심 고백
꿀잼 인데</w>
디씨 에서</w>
느껴 지
본인 쟝</w>
충격 적
각성 기</w>
발작 하는</w>
아까 움</w>
ww w</w>
pc 로</w>
lc d
아버 지
단체 짤드컵</w>
해결 법</w>
받으 려면</w>
뽑아 야</w>
할꺼 임</w>
ou ble
공략 글</w>
데미 지
스페 셜
있어 야함</w>
덤디 덤디
안들어 가지
이적 시장</w>
으으 으으
안돼 서</w>
호날 두
수상 소감</w>
스키 즈</w>
신정 환
가짜 사나이</w>
거짓 말
3위 신</w>
zz zz
고우 석</w>
최적 화
에피 소드</w>
자격 증</w>
최소 한</w>
NT R
요새 는</w>
혼란 한</w>
얘네 들</w>
당근 마켓</w>
스카이 림</w>
퍼센 트</w>
수이 오</w>
최원 준</w>
어저 미
어지간 히</w>
내로남 불</w>
임병 욱</w>
찐오 아</w>
엘리시 움</w>
가운 데
요렌 테</w>
급발 진
아몬 케트</w>
느림 자
좀마 형</w>
라포엠 마갤</w>
1 천
2 성
2 랑</w>
2 화</w>
3 700
4 개월
5 인데</w>
6 명
9 4
E E
I m</w>
L G</w>
S O
U C
V P
b l
e l</w>
h d</w>
i m
p k
t m
u m
ㅇ ㅋ</w>
ㅈ 도</w>
ㅈ ㅂ</w>
가 만</w>
가 겠네</w>
갈 수</w>
강 민
강 지
개 방
개 최</w>
개 찐따
개 줌마
갤 떡
갤 이네</w>
거 름</w>
건 의
걸 판</w>
걸 렸는데</w>
게 이지</w>
고 리
공 모
과 의</w>
관 종
교 회
교 수</w>
교 정</w>
구 축
구 인</w>
굴 이</w>
굴 에서</w>
귀 축
그 걸로</w>
극 단
금 일</w>
기 하</w>
기 름</w>
길 듯</w>
김 택
김 치는</w>
까 냐</w>
까 먹음</w>
깔 았는데</w>
꺼 라</w>
꺼 억</w>
꼴 갤</w>
꿈 에</w>
끝 나서</w>
나 갓
나 빠
나 간다</w>
날 이다</w>
남 한테</w>
내 글</w>
냈 으면</w>
너 드</w>
넣 을</w>
네 스</w>
노 시
님 아</w>
다 야</w>
다 좋은데</w>
단 축
닮 지</w>
대 치
더 판</w>
델 핀</w>
도 사가</w>
동 거
동 정
되 었다</w>
두 근</w>
둘 중
들 때문에</w>
디 아</w>
딜 찍
따 서</w>
떠 오름</w>
떡 공장</w>
떨 린다</w>
떴 노</w>
떴 긔</w>
똥 칰</w>
뜨 니까</w>
라 네</w>
레 지</w>
렸 다고</w>
로 도
루 머
루 카
리 어
마 신</w>
마 넌</w>
마 좆</w>
마 녀가</w>
막 보</w>
맛 있는데</w>
맛 있다</w>
매 력</w>
먹 기
메 모리즈</w>
명 빵</w>
명 장면</w>
모 욕
모 임
모 아야
모 가지</w>
목 에</w>
못 넘
못 봤
못 하나</w>
못 버티
무 협
무 지</w>
무 이</w>
무 대는</w>
문 어
문 켓
뭐 로
뭐 만하면</w>
미 궁
미 하
미 키</w>
미 쳐</w>
미 꾸라
바 름</w>
바 른</w>
박 문
박 았다</w>
받 고싶다</w>
방 시
백 신
버 럭
벌 금
베 테
보 리</w>
복 사
본 섭</w>
봐 바</w>
봐 야됨</w>
부 적
불 매
불 사
불 어</w>
블 라
블 로</w>
비 리
빅 뱅
빌 보드</w>
빠 지고</w>
빨 래
빵 집</w>
뽑 으
사 렌
사 서
사 에
사 탕</w>
사 나이
삭 발
살 인</w>
살 걸</w>
살 아서</w>
상 징
상 한
샌 디</w>
샤 오
서 강
섭 외</w>
성 우가</w>
세 이</w>
세 운</w>
셋 은</w>
소 워
수 류
스 갤에서</w>
승 률
시 대는</w>
시 점에서</w>
신 임</w>
싶 긔</w>
싸 고</w>
씹 ㅋㅋ</w>
씹 가능
아 토
악 용
안 다
안 마
안 망
안 햇
안 나올
안 오면</w>
안 나네</w>
안 걸리
안 써도</w>
알 테
애 임</w>
약 뱅</w>
얘 들은</w>
어 게
어 여</w>
어 비스
얼 만
없 으면서</w>
에 라</w>
엔 트리</w>
엘 지
엠 비
여 연
역 갤</w>
연 전
열 대
열 일
열 렸다</w>
엿 는데</w>
옆 에
옆 동네</w>
오 티
올 릴</w>
옵 변</w>
와 따</w>
와 씨</w>
왕 관</w>
외 제
우 영
우 진
우 주</w>
우 니</w>
우 스는</w>
울 산</w>
워 즈</w>
웹 소</w>
유 아
유 연
으 악</w>
은 카
이 오</w>
이 갤은</w>
인 턴</w>
일 시
일 주</w>
임 신</w>
있 겠다</w>
있 나보네</w>
있 습니까</w>
자 동</w>
자 소서</w>
잠 금
저 도
저 지
저 지랄
적 은
전 여친</w>
절 정
정 시
정 국이</w>
제 재</w>
제 트</w>
져 라</w>
조 명</w>
좋 을텐데</w>
죽 고싶다</w>
죽 이는</w>
죽 인다</w>
준 아</w>
줄 듯</w>
줌 들아</w>
중 일
중 에서도</w>
즐 기는</w>
지 망
지 점
지 들끼리</w>
직 렬
직 장</w>
짱 개</w>
찐 이야</w>
창 모</w>
찾 아</w>
채 은
철 읍
철 읍</w>
쳐 야</w>
총 선</w>
최 선
최 대한</w>
출 루
출 격</w>
치 마
치 랑</w>
칭 구
카 에
컷 은</w>
케 는</w>
코 박
코 옵
코 지마</w>
코 인은</w>
퀴 들이</w>
클 로</w>
키 드
키 시
키 마</w>
키 워</w>
킹 오
타 갤</w>
탁 또
탁 옵</w>
탄 생
탭 칠
탭 칠</w>
터 네</w>
터 에서</w>
터 지냐</w>
테 오</w>
템 은</w>
토 스
투 수는</w>
파 비
파 스</w>
파 카</w>
파 악</w>
팟 이</w>
패 널</w>
팩 질</w>
페 가</w>
편 하다</w>
폭 창</w>
폰 겜</w>
폴 크
푸 키
풀 돌</w>
풀 매수
프 듀</w>
프 텍</w>
플 매</w>
플 뷰</w>
픽 시브
하 수
한 방</w>
한 거같
한 자리</w>
할 데</w>
할 꺼</w>
할 아버지</w>
해 옴</w>
혁 명
현 철
현 시점</w>
혜 택
호 르
후 드
아니 구나</w>
는거 다</w>
나오 자마자</w>
10 연</w>
20 억</w>
추천 해주세요</w>
언제 와</w>
언제 오냐</w>
좋은 거야</w>
좋은 거같음</w>
11 월</w>
누구 지</w>
어케 해</w>
나왔 던</w>
나왔 습니다</w>
올라 온
올라 온거</w>
15 일
50 퍼</w>
괜찮 다</w>
메이 로</w>
돌아 와</w>
고있 으면</w>
염보 야</w>
그러 지</w>
정신 과</w>
정신 못차
머리 를</w>
미친 놈들</w>
게이 트</w>
귀여 워서</w>
이해 하는데</w>
얘기 만</w>
올리 는게</w>
경기 를</w>
오르 는거</w>
잘못 된</w>
지지 하는</w>
22 2</w>
트로 피
이였 냐</w>
중요 하지</w>
행복 하다</w>
노잼 인데</w>
파이 즈
보고싶 은</w>
한남 충들</w>
기사 단</w>
어쩌 지</w>
성공 했다</w>
카드 들</w>
선택 좀</w>
꼴리 냐</w>
스카 니아</w>
가축 들이</w>
스킬 이</w>
먹어 본</w>
먹어 봤는데</w>
보은왔 어옴</w>
보는 법</w>
하면 서도</w>
인간 의</w>
유저 수</w>
삼성 전자</w>
선발 은</w>
안나 는데</w>
현실 적인</w>
어떡 하지</w>
ㅡㅡㅡㅡㅡㅡㅡㅡ ㅡ타</w>
인싸 들</w>
대로 면</w>
보상 은</w>
비틱 질
거래 가능</w>
저러 고</w>
해줄 까</w>
컨셉 이</w>
남순 이는</w>
한명 은</w>
보다 보니</w>
이이 이
그거 아냐</w>
불러 서</w>
유입 이</w>
멤버 가</w>
이길 수</w>
하고있 노</w>
도움 이</w>
부러 워
엘리 트</w>
진행 중</w>
김민 성</w>
컴퓨 터로</w>
ar t</w>
는것 만</w>
피곤 해</w>
모으 는</w>
모으 기</w>
멍청 한</w>
세리 카
혈귀 혼
나쁘 지않
라운 지</w>
나스 닥
리세 마라</w>
과거 폭로</w>
기가 스</w>
해줬 는데</w>
웹툰 은</w>
핸드 폰
에에 에</w>
초록 별</w>
ㅏㅏㅏㅏ ㅏㅏㅏㅏ
모집 합니다</w>
파트 너</w>
토목 직</w>
발견 함</w>
유망 주
우르 크</w>
노블 레스</w>
천재 단
언젠 간</w>
아이디 어</w>
인프 피
2분 기</w>
빌드 업</w>
브론 즈
수호 자</w>
할배 들</w>
문투 인증</w>
쓸데 없는</w>
세탁 기</w>
시조 새
여동생 이</w>
토론 토</w>
허수 아
택배없는 날
치트 키
라이프치히 가</w>
왜저러 냐</w>
근처 에</w>
자이언 츠</w>
MA G
you tube</w>
휴대 폰</w>
하울 링
이누야 샤</w>
일루시 아</w>
Tr ouble
성형외 과</w>
플래티 넘</w>
YE S</w>
기프 티콘</w>
징그 럽
비트앤 파이터</w>
총공왔 동호</w>
1 조</w>
2 트</w>
3 D
3 억</w>
4 세대</w>
5 면</w>
6 4</w>
6 시간
6 시간</w>
7 2</w>
7 6</w>
8 시간</w>
H al
e st
g e</w>
h z
s p</w>
y g
ㄹ ㅈㄴ
ㅂ ㄱ</w>
ㅈ ㅈ
ㅈ 같다</w>
가 고
가 동
가 본
간 당</w>
갈 려면</w>
감 당
감 전
감 조
갓 양
강 아지
개 구
개 통
개 나</w>
개 장</w>
개 같은
개 이득
갤 매
거 인</w>
거 만</w>
거 리가</w>
고 만
고 왔다</w>
공 룡
공 학
구 름
구 하는</w>
군 머
군 데</w>
그 들
그 살</w>
근 갤</w>
근 디</w>
금 딸
금 액</w>
기 초
긴 하냐</w>
길 전</w>
김 원
깡 통</w>
끌 리
끝 냈다</w>
나 인
나 타</w>
날 뛰
날 도</w>
남 의
내 놔
내 장
냈 는데</w>
냉 면</w>
너 드
너 만</w>
네 우스</w>
노 바</w>
논 쟁
놓 은
뇌 피셜</w>
눈 나가</w>
다 스</w>
달 려서</w>
당 했
대 려
대 호
대 군</w>
대 게</w>
덩 치
데 스티
도 는게</w>
돼 요</w>
됐 긔</w>
두 둥
듣 기
들 여
등 산
딸 치고</w>
때 리면</w>
똥 친
똥 이</w>
띵 작
띵 잦
라 투
라 마</w>
람 이</w>
러 시</w>
러 브</w>
러 스트
레 일
렌 즈
련 다</w>
렸 던</w>
류 중일</w>
리 시
리 안</w>
리 마스터</w>
마 실
마 도는</w>
마 사지</w>
막 심
막 판</w>
망 오
매 미가</w>
머 머리
먹 으면서</w>
먹 은거
먹 고싶어</w>
멋 지
메 카</w>
메 소</w>
면 허
면 서도</w>
멸 치</w>
몇 화
몇 년</w>
몬 은</w>
무 겁
뭐 였
뭐 하러</w>
뭐 먹지</w>
뭘 해도</w>
미 투
미 에</w>
미 미</w>
미 트</w>
밀 워
박 석
박 았는데</w>
방 치
방 구</w>
배 에</w>
버 들</w>
버 는데</w>
버 린다</w>
벌 면</w>
벌 금</w>
범 위
별 이</w>
볼 사람</w>
봉 지
부 두
분 데스
붕 어</w>
붕 이랑</w>
붙 이
브 루
블 게
블 링
블 본
뽑 는데</w>
뽕 숭아</w>
사 모
사 탕
사 유</w>
상 처</w>
샤 워</w>
서 진
서 인</w>
선 비
선 에</w>
성 지
세 차</w>
셀 프
쇼 챔</w>
수 지
숙 련
숙 소
쉬 운데</w>
스 쿨
스 임</w>
스 탑</w>
스 런</w>
슬 기
슬 롯
습 관
슼 타</w>
시 크
시 기가</w>
식 사</w>
신 혜
신 기</w>
신 입</w>
싶 어요</w>
싸 패
쌍 둥
써 봤는데</w>
아 형</w>
악 플러
안 부</w>
안 으로</w>
안 철수</w>
알 던</w>
압 축
애 쉬</w>
야 옹
야 념글</w>
얘 네는</w>
어 니
어 질
어 선</w>
어 필</w>
어 웨이</w>
업 음</w>
없 는거냐</w>
없 다는데</w>
에 임</w>
에 에</w>
에 있는</w>
에 밀리
엘 든
여 우</w>
역 배
연 휴
오 기
오 메
오 야
오 천
오 를</w>
올 렸다</w>
와 바</w>
완 결</w>
왕 국</w>
욕 은</w>
우 니
원 자
유 두
유 형
유 효
유 카</w>
육 덕
윤 대
율 른</w>
은 혼</w>
음 색
음 주
음 탕
이 들
이 종
이 왕</w>
이 없음</w>
이 겨서</w>
익 수</w>
인 건가</w>
일 침
일 요일
입 금</w>
잇 슴</w>
있 죠</w>
있 던거</w>
있 지않음</w>
자 는
자 아
작 고</w>
작 가는</w>
잘 지
잡 아도</w>
잦 듀
저 럴
저 희
적 게
적 극
적 게</w>
적 폐</w>
적 이지</w>
전 국</w>
전 만</w>
전 범</w>
정 화</w>
조 종
좋 게
좋 네요</w>
죄 가</w>
주 제</w>
주 석</w>
준 지
중 섭
중 세
중 이야</w>
중 이라</w>
지 났
지 식
지 연
지 분</w>
짱 구
찌 는</w>
찍 으
찐 텐
찜 앰</w>
찬 은</w>
채 집
초 밥</w>
최 준
추 면</w>
출 구</w>
충 성
치 사
치 자</w>
친 척
커 밍
커 브</w>
컨 택
코 크
코 이</w>
클 은</w>
키 웠
키 퍼</w>
킨 드</w>
킹 스
타 투
탈 뿡
테 르</w>
토 레
파 메카노</w>
판 단</w>
팟 은</w>
페 티
편 안
평 단</w>
평 가는</w>
포 로</w>
폭 스</w>
푸 근
풀 콤</w>
피 치
피 코</w>
하 르
하 더만</w>
한 강</w>
한 창</w>
한 걸까</w>
할 리
할 라면</w>
해 결</w>
햇 더니</w>
혁 준이</w>
현 명
혼 다</w>
홀 나</w>
홀 리</w>
홍 련
화 남</w>
환 승
환 급</w>
황 올</w>
효 니</w>
훈 훈
흑 성배</w>
하는 짓
아니 어도</w>
아니 라서</w>
나오 긔</w>
나오 긴</w>
나오 나요</w>
들어 오는</w>
오늘 까지</w>
20 살</w>
병신 같이</w>
재밌 긴</w>
재밌 어서</w>
하나 를</w>
하나 라도</w>
가능 성은</w>
얼마 까지</w>
언제 부터
이상 하지</w>
좋은 지</w>
해주 는데</w>
모르 나</w>
이거 냐</w>
이거 랑</w>
15 분
스토 어
알려 줄게</w>
만들 까</w>
돌아 가면</w>
돌아 오면</w>
프로 미스
너무 너무</w>
너무 좋다</w>
보이 는거</w>
다음 달</w>
하루 가</w>
이쁘 긔</w>
받아 줘</w>
떨어 진</w>
사랑 을</w>
한번 만
한번 은</w>
한번 더</w>
재미 있음</w>
재미 없음</w>
일러 가지고</w>
키우 는
하고 있음</w>
얘기 하니까</w>
레이드 가</w>
철구 한테</w>
선수 들이</w>
최고 지</w>
ㅋㅋㅋ ㄱ</w>
ㅇㅇ ㅇㅇ</w>
이제 보니</w>
생겼 어</w>
애들 임</w>
트로 피</w>
김태 균
파이 널</w>
한테 서</w>
인생 의</w>
싸우 고</w>
부르 는거</w>
넘어 감</w>
갤주 야</w>
찐따 대결</w>
스킬 트리</w>
차이 남</w>
근본 이</w>
유저 들이</w>
페미 들이</w>
확정 이네</w>
바꿔 서</w>
되는 법</w>
영화 관</w>
ㅡㅡㅡㅡㅡㅡㅡㅡ 타</w>
90 년대</w>
받았 으면</w>
스피 드</w>
거래 가능
트리 온</w>
심심 한데</w>
남았 노</w>
그려 봄</w>
사주 가</w>
자동 차
군대 가면</w>
지르 면</w>
역겨 운게</w>
캐릭터 들</w>
방어 력</w>
팔아 요</w>
냄새 남</w>
대상 이</w>
시원 하네</w>
스마 일</w>
파딱 이</w>
원영 이가</w>
안쓰 럽
오버 롤</w>
엔딩 이</w>
제로 원</w>
미치 겠다</w>
미치 겠네</w>
통피 로</w>
제목 에</w>
최강 자
똥찬 이가</w>
너희 는</w>
팔로 우
지능 이</w>
답답 하네</w>
32 강</w>
뒤졌 으면</w>
한글 화</w>
팬덤 이</w>
한녀 들</w>
라이트 닝</w>
안돼 냐</w>
사제 는</w>
오랜만 에
우우 우우
se y</w>
키보드 커버</w>
설레 발</w>
자존 심
브론 즈</w>
여중 생
토트 넘
미나미 데이</w>
윤영 삼
타이거 즈</w>
구데 기
성추 행
블래 스터</w>
사석 에서</w>
혼다 강</w>
사투 리</w>
자비 처</w>
미만 잡
이펙 트</w>
오서 경</w>
초창 기</w>
안타깝 다</w>
보충 제</w>
헤메 코</w>
잦글 램
스튜디 오</w>
강점 기</w>
프레데리 카</w>
에포 나</w>
청와 대</w>
세무 서</w>
부가 세</w>
테두 리</w>
누굴 까</w>
얼버 기</w>
김우석 브이갤</w>
황야 여단</w>
ENT A</w>
MAG ENTA</w>
1 퍼
1 호
2 d
2 성</w>
3 초
3 만원
4 억
5 7</w>
6 번
8 7
8 년
8 회
A P</w>
D D
F L
L uv</w>
M IN
N O
V R
a r</w>
d p
f f</w>
h d
l e</w>
p t
u l</w>
ㅁ ㅌ
ㅈ 같이</w>
가 도
가 튼
가 보고</w>
가 기전에</w>
간 접
갈 갈
감 기
감 소</w>
값 은</w>
강 함</w>
같 어</w>
같 네요</w>
개 야
개 씹</w>
개 같은</w>
개 재밌네</w>
개 웃김</w>
거 유
거 유</w>
건 방
게 함</w>
게 더</w>
계 에서</w>
고 사
고 점
고 지</w>
고 래</w>
골 격
골 이</w>
공 인
교 과
그 녀</w>
근 대
근 처</w>
글 씨
급 하다</w>
기 갈
기 승
기 체
까 글</w>
까 나</w>
깔 고</w>
꾸 레</w>
끝 판
나 베</w>
나 ㅋㅋ</w>
남 아서</w>
내 주면</w>
넘 었
노 근본
놀 란</w>
누 님</w>
느 려</w>
니 키
다 깨
다 꾸
다 해도</w>
다 ㅠㅠ</w>
달 콤
대 인
대 노</w>
더 라고</w>
던 짐</w>
데 레</w>
덱 좀</w>
도 도</w>
도 어</w>
도 13</w>
독 시</w>
돌 았는데</w>
동 기
돼 벨</w>
둘 은</w>
듀 링</w>
드 를</w>
드 롭</w>
들 러
들 이야</w>
디 즈
디 펜
디 케이</w>
딜 량</w>
따 면</w>
따 가</w>
딱 인데</w>
때 나</w>
땡 기
땡 칠플</w>
떴 다
떴 어</w>
뜨 겁
레 고
렙 이</w>
력 을</w>
로 고
롭 네</w>
르 가</w>
리 즈</w>
마 기
마 케
마 갤은</w>
막 판에</w>
만 능
만 이면</w>
만 되면</w>
말 해서</w>
말 고도</w>
맘 스터
망 치</w>
망 했냐</w>
망 했다고</w>
매 장에서</w>
맨 은</w>
맵 이</w>
머 글
먹 엇는데</w>
메 는</w>
몇 백
모 래
모 에
모 토</w>
몰 락
못 할</w>
못 하게
뭐 하냐고</w>
미 야</w>
미 군</w>
바 나</w>
발 동</w>
밥 도</w>
방 을</w>
백 합</w>
베 어
벨 은</w>
보 긔</w>
보 며</w>
보 는거냐</w>
부 계정</w>
부 끄럽
불 량
불 만</w>
블 은</w>
비 정상
빠 는게</w>
뽀 무</w>
뿌 링
뿌 리네</w>
사 마
사 려면</w>
사 야됨</w>
상 급
상 큼
새 기가</w>
서 드림</w>
선 별
세 레
섹 시</w>
션 은</w>
소 음
소 도</w>
소 련</w>
소 고기</w>
숭 아
스 탑
스 은</w>
스 면</w>
시 경</w>
식 겁
신 데</w>
신 이랑</w>
십 창
쎄 게</w>
쓰 게</w>
쓰 는거냐</w>
아 현
아 슬</w>
아 ㅋㅋㅋㅋ</w>
안 에서</w>
안 먹음</w>
안 될까</w>
안 나온다</w>
알 티
알 파</w>
압 박
애 널
액 정
앨 리
야 할듯</w>
약 뱅
어 리</w>
어 치</w>
어 웨이
언 어</w>
엄 지
었 다
었 더니</w>
에 어</w>
에 디</w>
엔 진
엘 사
여 포
역 할</w>
역 시나</w>
연 말
였 다고</w>
영 하</w>
오 랑
오 주
오 은</w>
오 시</w>
오 너</w>
옵 스</w>
와 르
와 이지</w>
왓 네</w>
왕 자
왕 의</w>
왕 택신</w>
요 번
용 돈</w>
우 타
울 까</w>
워 아</w>
월 세
유 승
유 주</w>
을 가</w>
이 십
이 팀
이 하는</w>
이 없다</w>
인 실
일 까요</w>
입 개
잇 던데</w>
있 나봐</w>
잔 나비</w>
잘 안
잘 한</w>
잘 한듯</w>
잡 힘</w>
재 학
재 화
저 를</w>
저 의</w>
적 중
전 날</w>
점 대</w>
점 수가</w>
정 돈
정 발
정 배
정 인
정 품
조 현
종 말
종 문
좆 반고</w>
좋 겟
주 름
주 절
주 운</w>
주 얼</w>
주 먹</w>
죽 고싶
죽 었네</w>
중 지</w>
중 인거</w>
중 학교때</w>
지 게
지 선
직 이</w>
직 렬</w>
진 성
진 들</w>
진 다고</w>
집 행
집 안</w>
집 빌</w>
짤 라
찍 을</w>
찜 앰들</w>
찬 성</w>
채 용</w>
챔 스는</w>
초 기</w>
층 이</w>
치 확
치 게</w>
카 와</w>
캠 프</w>
케 인</w>
콘 텐
쿠 보</w>
크 리스</w>
클 린</w>
클 라우드</w>
키 워서</w>
타 릭</w>
타 는데</w>
태 형</w>
택 시</w>
터 질</w>
토 이</w>
통 제</w>
튀 김</w>
트 임</w>
팀 전
파 업</w>
패 는데</w>
패 악질
팩 팩
페 리</w>
페 마갤</w>
편 입
편 이</w>
평 일</w>
평 자</w>
폭 공
폭 동</w>
폭 행</w>
표 절</w>
표 정이</w>
프 롤
플 티
플 폼
플 핸</w>
피 티
피 로</w>
피 방에서</w>
필 름
하 다는데</w>
학 습
학 점</w>
한 타
합 쳐
해 머
해 졌다</w>
했 는데
했 어야</w>
헤 이</w>
혐 오</w>
호 가
호 복
홍 콩
활 발
후 원</w>
후 장에</w>
ㅋㅋ ㄱ</w>
하는 말</w>
하는 놈</w>
하는 디</w>
새끼 만</w>
나오 니</w>
나오 더라</w>
들어 오네</w>
10 초
10 3</w>
10 50
존나 게
좋아 해서</w>
여자 애가</w>
이라 는
이라 는건</w>
이라 길래</w>
하나 면</w>
하나 밖에</w>
하나 도안
갤러 가</w>
추천 함</w>
추천 하는</w>
추천 한다</w>
이번 주는</w>
이거 봐</w>
이벤 트가</w>
이벤 균열</w>
지금 쯤</w>
방송 도</w>
이런 걸</w>
이런 거임</w>
100 억</w>
사이 버</w>
애미 는</w>
50 분</w>
문제 다</w>
돌아 옴</w>
18 년
ㅌㅊ ㅈㅇ</w>
있었 구나</w>
일본 어
떨어 지고</w>
올려 치기
17 년
필요 없지</w>
기대 하고</w>
잘생 기고</w>
만들어 라</w>
미쳤 는데</w>
우승 은</w>
ㅅㅂ ㅋㅋㅋㅋㅋ</w>
서울 은</w>
나이 에</w>
실화 야</w>
어느 게</w>
60 렙</w>
귀엽 고</w>
귀엽 냐</w>
애들 있냐</w>
디시 가</w>
영상 이</w>
어쩌 다가</w>
삭제 하고</w>
시켜 야</w>
부르 고</w>
댓글 좀</w>
축하 왔어요</w>
오지 노</w>
24 3</w>
하다 보니</w>
버그 는</w>
야구 장</w>
인정 하는</w>
새기 야</w>
있을 텐데</w>
존버 한다</w>
배우 들</w>
플레이 어
다행 이지</w>
스티 브</w>
스피 드
만든 거냐</w>
심심 해</w>
그려 옴</w>
드레 스</w>
트레이드 로</w>
링크 는</w>
실패 한</w>
편의 점에서</w>
역겨 워</w>
카페 에</w>
유입 인데</w>
비싸 게</w>
야스 오</w>
방어 율</w>
이길 듯</w>
사귀 고</w>
본인 도</w>
부모 가</w>
아까 부터</w>
원영 이는</w>
김민 교</w>
터졌 냐</w>
애플 이</w>
정확 하게</w>
개념 이</w>
캐르 는</w>
선물 로</w>
똥퀴 들아</w>
전문 가</w>
최강 의</w>
언냐 가</w>
1주 년
결승 전</w>
모바일 겜</w>
오빠 들</w>
오타 쿠</w>
어몽 어스
피규 어
노리 개</w>
무페 토
주술 사
레인 저</w>
개웃기 노</w>
노트20 울트라</w>
트위터 에</w>
1일 1
2위 신</w>
철염 남</w>
생축 보은왔
ㄱㅈ ㄷ</w>
살만 하냐</w>
원더 바니</w>
깨워 MAGENTA</w>
1대 1
nt r</w>
키움히어로 즈</w>
여사 친</w>
IT S</w>
가세 연</w>
마카 롱</w>
경원비 봉</w>
인구 수</w>
가위 바위
찐팬 상</w>
나루 토</w>
다인 큐</w>
주기 적으로</w>
오리지 널</w>
비글 즈</w>
드라이 버</w>
환상동 화</w>
글러트 니</w>
24H ITS</w>
파푸 니카</w>
눈부 시고</w>
DL C</w>
자강 두
보은을 깨워MAGENTA</w>
new s</w>
이참 에</w>
0 으로</w>
2 40
2 80
3 할
3 점</w>
3 에서</w>
4 만원
6 8</w>
7 일</w>
8 인데</w>
8 15</w>
9 회</w>
G B
N AM
S S</w>
T I
e t</w>
n pc</w>
r a
s e</w>
t c
ㄴ ㅇ</w>
ㅁ ㅇ</w>
ㅁ ㅎ</w>
ㅈ 같음</w>
가 다가</w>
가 는거냐</w>
개 정
개 지
개 트
개 이쁘네</w>
거 인
건 다</w>
게 는</w>
겟 냐</w>
경 비
경 영</w>
고 집</w>
고 화질
공 허
과 천</w>
관 광
관 음
교 불
구 하
국 장이</w>
군 정
귀 에</w>
그 리면</w>
그 놈의</w>
글 씨</w>
금 딸</w>
기 보단</w>
김 희
꺼 같음</w>
께 요</w>
꽃 은</w>
끌 려
끼 냐</w>
내 새끼</w>
넣 어야
네 ㅡㅡ</w>
년 까지</w>
노 조
노 드</w>
놓 지마</w>
누 누
느 린
늒 비</w>
는 법좀</w>
니 시
다 신</w>
다 녀</w>
닮 았네</w>
당 일
당 해</w>
대 졸
대 인데</w>
던 대</w>
덩 크</w>
도 있음</w>
도 사는</w>
동 료</w>
되 나여</w>
된 장
두 르
두 시간
득 피</w>
들 림</w>
따 봉
딱 딱
때 로</w>
떠 오르는</w>
떳 음</w>
떴 으면</w>
똑 바로</w>
똥 줄
뜨 겠지</w>
라 카
라 에서</w>
락 밴드</w>
랭 초
런 스</w>
런 던</w>
레 카
로 로
롤 갤</w>
리 티
마 치</w>
맛 있어</w>
맛 있는거</w>
맞 긴</w>
맞 는거냐</w>
매 지
맨 이</w>
머 장
먹 다가</w>
멋 있네</w>
멋 있다</w>
메 디
명 곡
명 의
몇 장
모 순
모 았는데</w>
목 소리는</w>
못 뚫
무 도</w>
문 을</w>
물 류
물 도</w>
물 품</w>
물 고기</w>
뭔 상관
미 프</w>
미 만은</w>
민 좆
바 구
바 빠
바 인
박 는거</w>
받 짤
받 으니까</w>
방 빼
백 퍼
버 림
버 냐</w>
번 방</w>
벌 리
벌 떡</w>
벨 파
보 세
봐 야함</w>
부 채
부 스터</w>
분 노</w>
붙 는</w>
비 하</w>
빠 져서</w>
빨 고싶다</w>
빼 고
뿌 리면</w>
사 신
사 원</w>
사 직</w>
사 이다</w>
사 놓고</w>
사 주는</w>
산 다고</w>
상 성
상 상</w>
상 화</w>
생 태
생 방송</w>
서 에</w>
설 이</w>
성 호</w>
성 기사</w>
성 향이</w>
세 탁</w>
셔 츠</w>
소 금
소 재
소 과금
속 삭
속 옷</w>
손 을</w>
솔 방
쇼 다운</w>
수 만
술 은</w>
술 이</w>
슈 타
스 보고</w>
습 니다
슼 없찐
슼 망구</w>
시 련
시 게</w>
시 의</w>
시 온</w>
시 설</w>
시 총</w>
식 단
식 극</w>
신 한</w>
신 검</w>
신 던전</w>
신 코스</w>
심 한거</w>
싱 싱
싶 노</w>
싸 가지</w>
써 보고</w>
쓸 어
씨 바
아 서
아 에</w>
아 패</w>
아 십니까</w>
안 파
안 톤</w>
안 가는게</w>
앚 퀴</w>
야 비
야 되나</w>
야 알못
양 도</w>
업 네</w>
없 겠네</w>
없 자나</w>
없 나보네</w>
없 나봐</w>
에 몽</w>
엑 스</w>
엑 바</w>
엠 넷
여 격
여 드
오 탈
오 기</w>
옵 니다</w>
옷 을</w>
와 의</w>
왔 씨야</w>
왜 하는거임</w>
우 동</w>
울 산
원 태
원 스</w>
원 하는거</w>
위 에
윙 크</w>
유 자
유 학
육 군
윤 붕이</w>
응 우
의 혹</w>
이 군</w>
임 산
임 찬
있 나여</w>
자 범
자 작
자 위</w>
자 러</w>
잘 만</w>
잠 만</w>
장 히</w>
저 주</w>
적 응</w>
전 승
전 준
전 사는</w>
정 착
정 호
제 3
제 출
제 거</w>
져 야
조 유리
좆 경
좆 될
좆 간</w>
좆 노잼</w>
주 력
주 랑</w>
준 호</w>
준 다는데</w>
줄 때</w>
중 단
중 반</w>
지 덱</w>
진 구
진 보
짐 승</w>
집 합
짝 짝
찬 빈</w>
참 가</w>
찾 았는데</w>
천 안
첨 으로</w>
쳤 으면</w>
초 부터</w>
총 정리</w>
추 석
추 첨</w>
충 도</w>
충 이라</w>
츠 가</w>
층 에</w>
치 매
치 나</w>
친 한
침 수
카 테
카 락스</w>
칼 리
캐 들</w>
캐 스팅</w>
캡 처
캡 틴
코 루
코 시</w>
쿠 라</w>
크 킹
크 도</w>
크 킹</w>
클 퍼
키 즈
타 쿠
타 구</w>
탄 으로</w>
턴 에</w>
통 에</w>
투 탑</w>
트 만에</w>
티 원</w>
파 도
파 츠</w>
팔 찌
팝 업
포 장</w>
폭 력
표 기
표 가</w>
풍 기</w>
프 엑
프 커
플 라이
플 라스
하 느
하 습니다</w>
한 쪽
한 놈들</w>
할 려
할 머
할 사람
해 진거</w>
했 네요</w>
했 다며</w>
했 어야지</w>
헌 터
혐 혼
혜 디</w>
홈 마</w>
확 진</w>
환 수
후 리
하는 대</w>
하는 새끼들은</w>
하는 건지</w>
아니 에요</w>
는거 같다</w>
같은 데
같은 걸</w>
들어 봐</w>
들어 봄</w>
10 시간</w>
10 700
10 700</w>
사람 잇냐</w>
오늘 은
20 억
해야 할듯</w>
해야 겟다</w>
존나 네</w>
스트 존</w>
가능 할듯</w>
얼마 가</w>
이번 주에</w>
씨발 새끼야</w>
11 일</w>
11 2</w>
11 시에</w>
시작 할때</w>
소리 냐</w>
스타 는</w>
올라 간
때문 에
100 억
질문 이</w>
200 개</w>
한국 인이</w>
고있 었는데</w>
프로 가</w>
다니 는거</w>
다음 화</w>
나온 다
가지 마</w>
하루 도</w>
한거 면</w>
17 3</w>
뉴비 라</w>
기대 가</w>
하는거 보고</w>
하는거 아니냐</w>
게이 있냐</w>
나가 리
한다 는
사기 꾼</w>
보내 자</w>
서울 에서</w>
해보 여</w>
이러 는거</w>
시키 냐</w>
생각해 봤는데</w>
할수 있냐</w>
공부 를</w>
운동 하고</w>
기분 좋다</w>
패치 로</w>
정리 글</w>
싸우 지</w>
섹스 하고싶다</w>
찐따 들</w>
하이 닉스</w>
서버 에</w>
도와 주실분</w>
옛날 부터</w>
알았 더니</w>
맞추 기
클리 너</w>
어울 림</w>
바꿔 줘</w>
예쁘 고</w>
유튜브 로</w>
감독 은</w>
부럽 노</w>
소바 에서</w>
파티 원정</w>
버렸 는데</w>
무시 하고</w>
1위 는</w>
갤러리 로</w>
전화 번호</w>
아카 리</w>
씨발련 이</w>
완장 은</w>
ㅆㅅㅌㅊ 임</w>
ㅆㅅㅌㅊ 인데</w>
저러 면</w>
이재 원</w>
오리 진</w>
주작 기</w>
레벨 업</w>
트레 저
장난 감</w>
오른 쪽
뒤지 게
상위 호환
하시 는
조합 은</w>
엄마 는</w>
2년 전</w>
디자 인이</w>
발작 버튼</w>
태어 나
개발 자
눈물 이</w>
안뜨 는데</w>
갤질 하냐</w>
터졌 는데</w>
에바 지</w>
떨어지 는거</w>
올랐 는데</w>
코로나 로</w>
왜이러 노</w>
스텔 라</w>
리얼 미터</w>
결과 가</w>
ㅊㅊ ㅊㅊ
방탄 소년
오랜만 이네</w>
예비 군
하마 옷</w>
데리 고
이따 구
이따 구로</w>
몇퍼 임</w>
유로 파</w>
문투 인증왔
쓸데 없이</w>
삼겹 살
보냈 는데</w>
개장 수</w>
샌드 백</w>
스프 링
ㅡㅡㅡㅡㅡㅡㅡㅡㅡㅡ ㅡ타</w>
쇼미 9</w>
단순 히</w>
아쿠 아
닮은 꼴</w>
수행 자</w>
유부 녀</w>
오디세 이</w>
오디세 우스</w>
결론 은</w>
ㄹㅈ ㄷ
다인 큐
매드 무비</w>
오징 어</w>
진로 좀</w>
리디 머</w>
여거 너</w>
남겜 잘</w>
바르셀 로나</w>
Bo y</w>
야요 이</w>
장신 구</w>
바이러 스</w>
Hal sey</w>
2 번째</w>
3 천</w>
3 500
4 50
5 일차</w>
6 점
6 7</w>
7 50
C C
C h
R ea
S U
X X
g s
k e</w>
t t
ㄹ 황</w>
ㅌ ㅋ</w>
가 니</w>
가 형</w>
가 없음</w>
각 오
간 절
감 각
갓 본
개 창
개 당</w>
개 시발
개 떡상
갤 이랑</w>
거 대
거 니까</w>
걸 렸다</w>
검 거
게 가</w>
결 합
계 승</w>
고 른
고 급</w>
교 차
구 려서</w>
국 에서</w>
권 을</w>
권 희동</w>
그 날
그 레이드</w>
극 딜
극 한</w>
글 보고</w>
금 발</w>
기 공</w>
기 사는</w>
까 다
꼴 갤
꼴 레
끌 올</w>
끝 이야</w>
나 우</w>
나 겠네</w>
나 라도</w>
나 은거</w>
난 거임</w>
날 거</w>
낫 다고</w>
내 신
내 자</w>
내 에서</w>
내 리면</w>
넘 는
넘 쳐
네 요
노 르
농 구</w>
높 은거</w>
누 ㅋㅋ</w>
는 지
니 새끼</w>
다 진짜</w>
단 타</w>
달 리네</w>
담 에</w>
답 을</w>
대 피
대 검</w>
대 오</w>
대 행</w>
대 략</w>
덕 배
던 공
데 빌
덱 리</w>
도 용
도 이</w>
도 없는데</w>
도 아니고</w>
독 이</w>
독 해</w>
돈 없어서</w>
동 숙
되 겠노</w>
둘 둘</w>
득 피
득 이</w>
듣 냐</w>
듣 다가</w>
들 에</w>
들 이냐</w>
등 신
따 개
따 리가</w>
똥 꼬</w>
띠 꺼
라 모
라 소</w>
래 퍼
랜 다</w>
랜 선</w>
러 줘</w>
런 트</w>
레 바
레 는</w>
렙 에</w>
로 하
루 피</w>
리 퍼
마 트
마 네</w>
마 미</w>
마 시는</w>
막 을
말 한다</w>
말 했다</w>
말 아야
망 한거임</w>
매 너
매 력이</w>
머 형
메 갤</w>
면 류
명 함</w>
명 으로</w>
명 이나</w>
모 셔
모 카
몸 을</w>
못 살
못 했다</w>
문 법</w>
문 득</w>
묻 은</w>
묻 는다</w>
뭔 일</w>
미 아</w>
바 위</w>
반 반</w>
반 박</w>
받 노</w>
받 자</w>
받 은거
발 달
방 명
방 영
배 마</w>
배 움</w>
백 서</w>
번 들</w>
범 계</w>
병 휘
보 려면</w>
본 격
봊 질
봤 지</w>
부 케</w>
분 배</w>
불 젖이</w>
비 공개
빨 강
뿌 릴</w>
사 오
사 울
사 직
사 줘</w>
사 정</w>
사 지마라</w>
산 책</w>
삼 탈워</w>
상 으로</w>
서 새봄
설 탕
성 대</w>
성 적이</w>
세 나
세 월
세 명</w>
소 련
소 심
소 진
속 은</w>
손 혜원</w>
쇼 크</w>
쇼 케이스</w>
수 금
수 제
순 정
쉽 지</w>
스 다
슬 레이
승 은</w>
시 온
시 외
시 지</w>
신 나는</w>
실 종
실 책
실 장</w>
싫 지</w>
싸 워</w>
써 도
써 밋
쓰 라
쓰 는거야</w>
쓸 거면</w>
씹 게이
씹 새끼야</w>
아 로</w>
아 녀</w>
아 현</w>
안 츄
안 음</w>
안 나가
안 쓰면</w>
안 쓰냐</w>
안 될듯</w>
않 으면</w>
알 겠
았 지</w>
애 틀</w>
애 비가</w>
야 마다</w>
약 간
양 현</w>
얘 드라</w>
어 릴</w>
억 제
없 나
없 뎃
없 게</w>
없 니</w>
에 비
에 코</w>
엘 은</w>
엠 블
여 왕</w>
오 염
오 지는</w>
오 후에</w>
올 까요</w>
왕 따</w>
왜 저렇게</w>
요 시</w>
욕 함</w>
욕 먹음</w>
우 중
우 라</w>
운 빨</w>
원 조
원 조</w>
월 간
위 신</w>
음 반
의 제
이 력
이 르
이 블
이 오
이 집
이 크
이 있음</w>
이 건데</w>
인 수
인 을</w>
인 들이</w>
일 이야</w>
임 을</w>
입 을
잇 는거</w>
잘 맞
잘 살
잘 때</w>
잘 했는데</w>
잘 하지</w>
잘 했음</w>
잘 하긴</w>
잡 는데</w>
장 타
장 단점</w>
재 고
재 획
저 새기</w>
전 만해도</w>
정 충</w>
정 연이</w>
졌 나</w>
조 준
조 켓
조 무사</w>
존 내
종 전</w>
좆 구
좆 성
주 면서</w>
주 는거야</w>
주 홍이</w>
죽 네</w>
줄 래</w>
줄 이면</w>
중 2
중 간</w>
중 이긔</w>
즐 라
지 령
직 작
직 도</w>
찜 삐
차 량
찬 데</w>
창 조
창 짓</w>
찾 고</w>
첨 부터</w>
출 장
출 전</w>
치 던</w>
치 구사</w>
카 에</w>
칸 나는</w>
케 어</w>
케 타</w>
켜 도</w>
코 딩
크 스</w>
키 웠는데</w>
킨 드
킬 러
타 기</w>
탑 이</w>
태 양</w>
터 에</w>
토 크
토 나오네</w>
토 요일에</w>
퇴 사
투 비
트 퀴
틀 은</w>
팀 들</w>
판 다
패 도</w>
폴 아웃
풀 렸
풍 형</w>
프 갤
플 릭</w>
플 라이</w>
하 브
하 우
하 기가</w>
하 노ㅋㅋ</w>
한 은</w>
한 장</w>
할 거같다</w>
함 ㅇㅇ</w>
햄 탈
했 으니까</w>
했 던게</w>
허 문회</w>
현 생
호 노
혼 혈
홍 상
화 감</w>
화 살</w>
화 까지</w>
회 계
후 후</w>
히 크
하는 새끼</w>
하는 애들이</w>
생각 한</w>
생각 해서</w>
생각 한다</w>
들어 봤는데</w>
20 렙</w>
해야 된다</w>
존나 하네</w>
존나 웃김</w>
여자 들도</w>
씨발 년
30 초
30 퍼
해주 시긔</w>
우리 팀
12 4</w>
지금 보니</w>
스타 가</w>
올라 가네</w>
100 개
웃기 긔</w>
친구 도</w>
좆같 지</w>
프리 카</w>
ㄹㅇ 루</w>
염보 한테</w>
18 시</w>
18 년</w>
18 3</w>
다이 나
ㅈㄴ 웃기
다시 보는데</w>
귀여 움
끝나 니까</w>
끝나 자마자</w>
미쳤 냐</w>
싫어 하냐</w>
나이 스</w>
최고 임</w>
에이 즈원</w>
마리 나는</w>
고민 상담</w>
념글 은</w>
바이 럴
기다 릴
기다 리고</w>
트로 트</w>
안나오 지</w>
보여 주고</w>
이였 다</w>
중요 하냐</w>
어떤 식으로</w>
그림 은</w>
차단 목록</w>
돌리 는게</w>
고닉 일시</w>
아침 을</w>
싸우 냐</w>
싸우 지말고</w>
어쩌 고
부르 냐</w>
ㅠㅠㅠㅠ ㅠㅠㅠ</w>
비슷 한거</w>
갤주 들</w>
선택 존</w>
스카 이</w>
댓글 달
아는 척
야구 를</w>
하면 서
새끼들 한테</w>
라고 요</w>
근본 없는</w>
마음 의</w>
가슴 에</w>
여친 한테</w>
먹었 다고</w>
버리 기</w>
바꿔 라</w>
올해 가</w>
틀드 썰</w>
예쁘 게</w>
블루 투스</w>
계정 에</w>
이지 ㅋㅋ</w>
이벤트 맵</w>
미래 시</w>
도배 하는</w>
축구 는</w>
다행 임</w>
스티 커
조용 하네</w>
누군 가
라이브 로</w>
이득 이냐</w>
주딱 아</w>
99 99
점심 나가서
꿀잼 이네</w>
코인 으로</w>
죽이 고싶네</w>
징징 거리
개발 자</w>
드래 프트</w>
실력 은</w>
불편 함</w>
상태 에서</w>
레드 카펫</w>
대가리 깨
브라 운
순위 는</w>
세리 에</w>
가족 이</w>
그랬 나</w>
누나 들</w>
우파 메카
이시 국에</w>
ㅅㅅㅅㅅㅅㅅㅅㅅ ㅅ</w>
나왓 는데</w>
부캐 로</w>
너희 들은</w>
끝내 기</w>
신민 혁
열어 줘</w>
재능 이</w>
맘에 든다</w>
우주 소녀</w>
구단 가치</w>
금민 철은</w>
안드 로이드</w>
박찬 호
후반 에</w>
어쩔 수</w>
오빠 가</w>
트와 가</w>
수영복 은</w>
피아 노</w>
김종 인이</w>
시스템 이</w>
잘어울 리
니쥬 가</w>
네좆 이</w>
경우 도</w>
쓰리 런</w>
짤녀 랑</w>
나주 거
나주 환</w>
타이밍 이</w>
루루 루루
한개 도</w>
뒤집 어
윤도 영
백용 환
아름 다
mb ti</w>
한적 월</w>
ㅂㄷ ㅂㄷ
음료 수</w>
대부분 이</w>
베트 남
반도 프
필리 핀</w>
JY P
도감 작</w>
수록 곡</w>
이진 혁
꾸니 야</w>
파게 생축보은왔
프런 트</w>
계수 표</w>
마비 노기</w>
위즈 원
대항 전</w>
김치찌 개</w>
따따 설x</w>
유난 히</w>
자괴 감</w>
LP L</w>
과로 사</w>
리자 몽</w>
ㅊㄱ ㅂㄹ</w>
장시 환</w>
마히 로</w>
찬란 한적월</w>
크레이 그</w>
윤미 향</w>
신본 기</w>
파게생축보은왔 우즈</w>
1 단
1 트</w>
1 코</w>
1 렙</w>
1 년에</w>
2 분</w>
2 30
3 도</w>
3 부</w>
3 D</w>
3 으로</w>
3 60
4 가</w>
5 주년
6 4강</w>
7 4</w>
8 월에</w>
A B
D C
L T
O S
a a
c k
h t</w>
o d
s m
s r
v i
ㄴ ㄱ
ㅈ ㄷ
ㅈ ㅎ
ㅌ ㄱ
가 놈</w>
간 식</w>
갈 아</w>
감 히</w>
갔 다고</w>
갔 더니</w>
강 행
갤 기
거 울</w>
거 보다</w>
격 겜
격 기
계 열
계 투</w>
계 십니까</w>
고 영
고 칠
고 전</w>
골 프
공 짜</w>
과 일
과 장
관 중</w>
광 우
괴 담</w>
구 워
구 슬</w>
귀 멸
그 닥
그 럭
그 새끼
글 고</w>
급 이냐</w>
기 공
기 독
길 거리</w>
끝 이네</w>
난 다
난 다고</w>
날 짜
남 미
남 민
남 초
남 녀</w>
냉 면
냥 냥
넘 기면</w>
네 ㅋㅋㅋㅋㅋㅋㅋㅋㅋ</w>
노 릴
노 아
농 협
높 은데</w>
누 나한테</w>
는 법
는 곳</w>
닉 은</w>
닉 언</w>
다 크</w>
단 의</w>
대 갈
대 인</w>
댓 출</w>
던 지네</w>
도 핑
도 아</w>
도 는거</w>
도 없네</w>
돌 렸
동 반
동 인
동 도</w>
동 시</w>
되 팔
된 다는데</w>
두 마리</w>
둘 기</w>
드 워
따 잇
뚫 고</w>
라 방
란 은</w>
러 닝
럭 시</w>
레 몬
레 슬
레 지
로 운
로 의</w>
로 디</w>
로 에서</w>
루 이</w>
루 카</w>
르 기
리 엄
마 즘</w>
막 는</w>
만 와</w>
만 으로도</w>
말 하는거임</w>
망 은</w>
망 하는</w>
머 해</w>
머 전</w>
머 갈</w>
먹 금
먹 으면
먼 가
메 타가</w>
명 도</w>
명 예</w>
모 로</w>
못 한
못 하니까</w>
못 할듯</w>
무 언
무 화
무 리</w>
문 장</w>
묻 히
물 량
뭐 하나</w>
미 네
미 적</w>
미 소</w>
밀 림</w>
바 꿀</w>
바 린이</w>
박 은
박 을</w>
박 아</w>
박 민</w>
반 교</w>
반 값</w>
반 토막
밥 을</w>
방 지
버 터
병 화
병 은</w>
보 증
보 변</w>
보 는거임</w>
보 너스
복 근
복 싱
봉 염</w>
부 지
부 서</w>
부 네</w>
부 매</w>
부 장</w>
불 닭
불 알
브 브
브 레이크</w>
블 이</w>
블 랑</w>
블 로그
비 대
비 서
비 티
비 리</w>
비 문학</w>
빌 보드
빙 고
빠 지는</w>
빵 은</w>
빼 도</w>
뿡 창
사 죄
산 다이온</w>
살 려고</w>
삼 탈</w>
상 견
새 가</w>
서 수
서 면</w>
서 라도</w>
석 으로</w>
선 봉
섭 에서</w>
섹 파</w>
센 트</w>
센 텀</w>
소 식이</w>
속 옷
수 성
수 영</w>
수 명</w>
순 삭
순 진
순 이들</w>
쉬 발</w>
스 나
스 프</w>
스 완</w>
스 엠</w>
습 격</w>
시 선
시 청</w>
신 라
신 세
신 석</w>
싫 어요</w>
심 상
십 억경</w>
싱 크로</w>
싶 지</w>
쓰 고싶다</w>
아 음</w>
아 따</w>
악 한</w>
안 뜬
안 찍
안 톤
안 나는</w>
안 했다</w>
안 보내
안 사고</w>
안 들어오
안 해도
않 는
않 았다</w>
알 면서</w>
압 도적
앞 으로도</w>
앨 리스</w>
앱 솔
앱 에서</w>
야 채
야 들아</w>
약 한
억 까
언 니가</w>
얻 는</w>
얻 냐</w>
얻 었다</w>
없 지않음</w>
었 구나</w>
에 러</w>
에 혀</w>
여 대
여 잔데</w>
역 이</w>
역 에서</w>
연 어</w>
염 마토</w>
영 의
옆 자리</w>
오 더</w>
오 메가
오 메가</w>
왓 어</w>
왜 해</w>
왜 그래</w>
요 양
요 번에</w>
욕 하고</w>
욕 하면서</w>
욕 먹는
용 접
우 는
욱 은</w>
웅 은</w>
원 챔
원 투
원 하는
원 피스
월 클</w>
윈 도우
유 력
유 이
육 수</w>
육 진구</w>
윤 이
율 은</w>
음 성</w>
이 문
이 와
이 인데</w>
이 있다</w>
이 네ㅋㅋㅋ</w>
이 게임은</w>
인 겜
인 질
인 바디</w>
일 과</w>
임 롬
입 을</w>
잘 하는게</w>
장 엄
장 판</w>
재 방
저 걸
전 의</w>
전 공</w>
전 술</w>
접 어
접 은
접 수</w>
정 함</w>
제 구
제 노블</w>
조 강
조 개</w>
조 졌다</w>
종 합</w>
종 족</w>
좆 드
좆 문
좆 끼</w>
좋 나</w>
좋 을</w>
주 안</w>
주 는거냐</w>
죽 겠다</w>
죽 여도</w>
중 공
중 붕</w>
쥐 어
증 이</w>
지 혜
지 형</w>
지 급</w>
진 던
진 않
질 린다</w>
짜 파게
짱 이</w>
찾 는
천 하
청 산
체 리</w>
최 성
충 청
취 업</w>
치 워
치 라고</w>
치 는건</w>
카 걸
카 에서</w>
카 이도</w>
카 밀라</w>
칼 날</w>
캐 논
컴 갤
코 시
콘 솔
콱 은</w>
콱 이</w>
크 롬</w>
클 라이
킹 해킹</w>
타 선
탄 생</w>
텐 션
토 크</w>
통 계</w>
투 는</w>
트 라우
특 가
틀 와이스</w>
티 나게</w>
파 오후
팔 려
팔 아라</w>
폴 센</w>
프 란
프 랜
프 롱</w>
프 붕이들</w>
하 래</w>
하 늘</w>
하 기는</w>
하 한가</w>
한 타</w>
한 성</w>
할 당
할 거같아</w>
항 아리</w>
혐 짤</w>
형 으로</w>
홀 딩
홍 창
화 들
화 학</w>
확 진
회 로
희 한
히 키
히 오스
히 승이</w>
아니 씨발
는거 잖아</w>
생각 만</w>
10 번
10 6</w>
20 일</w>
20 21</w>
라이 벌</w>
존나 많
병신 이냐</w>
언제 야</w>
언제 옴</w>
씨발 새끼들</w>
30 만</w>
30 뽑</w>
30 살</w>
30 만원
모르 지</w>
12 시간</w>
지금 처럼</w>
거같 던데</w>
올라 가는</w>
올라 가냐</w>
방송 키
100 프로</w>
괜찮 았는데</w>
한국 도</w>
지랄 을</w>
프리 뷰
프리 코
프리 티</w>
고있 는
염보 랑</w>
받아 야</w>
떨어 졌네</w>
브이 라이브</w>
투표 는</w>
필요 한
필요 한데</w>
게이 밍
보고 가세요</w>
가이 즈</w>
19 토
느낌 으로</w>
미쳤 어</w>
미쳤 긔</w>
이름 좀</w>
보은 스밍</w>
일어 났다</w>
지지 해</w>
드립 이</w>
보여 줌</w>
그림 을</w>
파이 널
보고싶 긔</w>
돌리 니까</w>
영상 도</w>
개좆 두</w>
고닉 은</w>
고닉 으로</w>
사라 진</w>
가져 왔다</w>
하겠 음</w>
삭제 해</w>
할만 한데</w>
시켜 도</w>
없어 지
물어 본</w>
도와 주라</w>
학교 는</w>
알았 지</w>
맞추 는</w>
마렵 노</w>
지원 금
주식 충</w>
버리 노</w>
바꿔 야함</w>
생기 냐</w>
여러 분
응원 법</w>
에픽 은</w>
유동 은</w>
애미뒤 짐</w>
나라 에</w>
신캐 랑</w>
90 년대
끝났 음</w>
스토리 에</w>
세상 은</w>
수준 인데</w>
선생 님
남았 어</w>
세이 브
잘생겼 어</w>
투수 진</w>
중고 나라</w>
싱글 글
나만 의</w>
바로 크</w>
루시 드
꿀잼 임</w>
캬루 가</w>
느껴 진다</w>
길태 견</w>
장비 는</w>
후회 된다</w>
어느정도 로</w>
마인 드가</w>
화장 실에서</w>
기술 직</w>
불편 하네</w>
풀어 줘</w>
디스 플레이</w>
얼마나 걸림</w>
모으 고</w>
개념 요청</w>
쓸만 한거</w>
더블 헤더</w>
아스 카</w>
이긴 다</w>
동네 는</w>
동네 에</w>
히어로 즈</w>
예정 임</w>
티비 로</w>
환상 체</w>
스페 인</w>
하지않 았냐</w>
박지 현</w>
일진 들
못생겼 는데</w>
시스템 은</w>
슬프 네</w>
인줄 알았는데</w>
마이너 스</w>
열등 감
시킨 거</w>
주인공 은</w>
수련 수련</w>
보낸 거</w>
꺼지 라고</w>
코미 어</w>
개사기 네</w>
초등 학교</w>
아쿠 아</w>
검머 머</w>
당근 마켓
그래픽 카드</w>
비행 기</w>
저작 권</w>
싸이코 패스</w>
dr x
암굴 왕</w>
어저 미</w>
즐거 운</w>
아레나 에서</w>
엑시 즈</w>
돌아왔 구나</w>
내로남 불
에너 지
결국 엔</w>
쿠르 키키
판독 기</w>
마지노 선</w>
심사위 원</w>
여태 까지</w>
구자 욱</w>
아나운 서</w>
순다 라</w>
아틀레티 코</w>
점심나가서 먹을
1 카
1 점</w>
1 에서</w>
2 라</w>
2 시에</w>
2 세트</w>
3 는</w>
3 관왕</w>
5 차</w>
5 6</w>
5 시간
7 이</w>
7 명</w>
7 시에</w>
8 만
8 9</w>
8 시에</w>
9 천
9 회
9 4</w>
9 15</w>
D O
H O
I C
M C</w>
N B
S D
S h
Y G</w>
g n
h 4
i on</w>
s f
u n</w>
ㅇ ㄹ
ㅍ ㅅㅌㅊ
가 관
가 다
가 자고</w>
각 인가</w>
간 당
간 신
갈 지</w>
감 상</w>
갑 네</w>
갔 나</w>
강 렬
강 승
강 열
강 은</w>
개 이
개 좃
개 줌
개 혁
개 임</w>
개 좋다</w>
개 잘하네</w>
거 를</w>
거 점</w>
겜 인데</w>
경 던</w>
계 집
계 단</w>
고 블
고 스
고 음
고 척
고 있냐</w>
골 랐
공 간
과 외
광 이</w>
괜 춘
교 재</w>
구 구
구 하면</w>
구 리냐</w>
국 수
군 필
권 력
귀 요미</w>
그 분
그 날</w>
그 치</w>
긔 작
기 소
기 병</w>
기 까지</w>
깅 이가</w>
까 요
까 비</w>
까 기</w>
까 니까</w>
꼬 움</w>
꼴 랑</w>
꼴 보기</w>
꾹 줌마
나 다
나 치
나 긔</w>
나 갈</w>
난 리</w>
날 임</w>
남 을</w>
낫 샤이</w>
내 정
내 라고</w>
내 놔라</w>
냈 네</w>
넣 어</w>
넣 은거</w>
넣 었다</w>
노 숙
노 답</w>
녹 스</w>
놀 고</w>
눈 은</w>
느 다</w>
는 걸로</w>
다 더라</w>
담 시즌</w>
당 하는
대 성
대 규모</w>
더 쇼</w>
돌 린다</w>
돼 도</w>
되 면서</w>
두 가지</w>
둘 리
듀 란
드 로
드 노</w>
들 하고</w>
딸 리
뚜 기</w>
뚫 어
뜨 노</w>
라 마
라 멘
라 구</w>
레 반도프
로 코</w>
로 하면</w>
론 이</w>
롱 런
룡 이</w>
루 틴</w>
르 누
리 플</w>
마 앰
마 킹
마 프</w>
마 더</w>
마 갤에서</w>
만 리
만 보고</w>
만 났다</w>
말 하는게</w>
망 령
망 햇
망 했는데</w>
매 춘
맥 스
맥 날</w>
머 장</w>
먹 는법</w>
먹 은게</w>
메 츠</w>
면 스</w>
몇 위
몇 천
모 고</w>
모 도</w>
모 에</w>
몰 빵</w>
무 빙
무 안타
물 러
뭐 줌</w>
뭐 뭐있음</w>
미 츠
미 를</w>
민 규
믿 음</w>
바 슈
반 사
받 는건</w>
밥 값
밥 에</w>
방 울</w>
배 운</w>
배 메가</w>
벌 고</w>
범 은</w>
베 로스</w>
별 개로</w>
보 안
보 싶</w>
본 다고</w>
봉 염
부 관
부 여
부 위</w>
부 채</w>
분 기
빠 에</w>
빡 쳤
빨 던</w>
빨 기</w>
뿐 이네</w>
사 재기
살 까말까</w>
삼 란
삼 중
상 세
상 수
상 점에서</w>
서 른
서 커스</w>
설 마
성 님</w>
소 감
손 자
쇼 타</w>
수 해
수 당</w>
수 2</w>
술 마시
스 스</w>
스 탭</w>
스 퀴즈</w>
스 퀴즈
슬 램
시 마
시 련</w>
식 물
신 났
신 드
실 사
심 술
십 자
싱 크로
쌈 무
쓴 글</w>
쓸 수있음</w>
씹 똥찬</w>
아 랑
아 유
아 인
아 포</w>
아 스트
아 시는</w>
안 깔
안 자고</w>
안 난다</w>
안 보이는데</w>
안 한지</w>
알 계</w>
암 속
앗 어</w>
앚 저씨
애 자
액 티브</w>
앱 이</w>
야 할</w>
야 겜</w>
야 붕이들아</w>
양 손
양 평</w>
양 카스</w>
얘 두라</w>
어 매
어 부
어 를</w>
어 린이
어 중간
억 인데</w>
업 나</w>
없 으
없 대</w>
없 긴</w>
없 을때</w>
엠 생
엠 붕이
여 시</w>
여 배우</w>
연 에</w>
연 희</w>
였 다면</w>
영 보
오 도
오 겠지</w>
오 케이</w>
올 레
와 사
욕 하지</w>
용 신
용 인</w>
우 습
우 에
울 프</w>
워 존</w>
원 거리</w>
위 영
위 협
유 주
유 인원
은 퇴</w>
은 거냐</w>
을 목
을 때는</w>
을 때도</w>
응 지
이 그
이 목
이 순
이 식
이 마</w>
이 뭐임</w>
이 랬는데</w>
인 에</w>
인 베이
일 케
일 하고</w>
일 부터</w>
일 이냐</w>
입 은거</w>
자 켓
자 리는</w>
잘 만든
잡 는게</w>
장 혜
장 만</w>
장 수</w>
장 르</w>
재 개
재 림
재 보
재 산
재 업
재 고</w>
저 년</w>
적 있음</w>
전 동
전 후</w>
정 성
정 통
제 재
제 트
제 임</w>
제 랑</w>
조 명
조 커
졸 리다</w>
좀 해줘</w>
좆 로나</w>
좋 으니까</w>
주 던데</w>
중 순
중 형
중 에도</w>
쥐 가</w>
즈 에</w>
증 표</w>
지 정</w>
지 새끼</w>
지 코는</w>
직 변
진 데</w>
진 국</w>
진 영</w>
진 파수꾼</w>
질 에</w>
질 하는</w>
징 그러
짜 장
짝 사랑</w>
차 우
착 장</w>
창 고</w>
철 도</w>
청 원
체 스</w>
체 감이</w>
초 콜
총 선
최 동
추 하다</w>
충 남
치 에</w>
침 풍</w>
카 노
카 니
카 루
캠 프
커 엽</w>
쿠 린이</w>
크 를</w>
클 라우
킹 능
킹 정
탈 것</w>
터 냐</w>
터 리</w>
통 과</w>
퇴 출
투 척</w>
티 끌
팀 인데</w>
파 쿠
파 붕이</w>
팔 카</w>
패 네</w>
패 시브
팬 텀
팬 다</w>
팬 픽</w>
팬 텀</w>
펀 플</w>
평 행
평 소</w>
폭 돼
풀 려
풍 룡</w>
퓨 쳐
플 폼</w>
피 엘
피 처
피 노</w>
필 살
하 반
하 향</w>
하 니까
하 더라도</w>
학 년
한 류
한 발
한 의</w>
할 머니
함 정</w>
해 변
해 저
해 져
해 적</w>
해 골</w>
해 봐야지</w>
했 자나</w>
허 가</w>
허 허</w>
헬 프</w>
호 들
혹 은</w>
화 상
화 성
화 염
황 혼
회 차
후 임
흑 잔
하는 건
하는 짓</w>
아니 냐고</w>
아니 였으면</w>
새끼 가
는거 고</w>
는거 같아</w>
사람 이냐</w>
20 70
병신 새끼들아</w>
좋아 지
재밌 던데</w>
가능 한데</w>
씨발 ㅋㅋㅋ</w>
좋은 이유</w>
해주 는게</w>
우리 한테</w>
이유 좀</w>
나왔 다고</w>
15 퍼</w>
시발 ㅋㅋㅋㅋㅋ</w>
시발 시발
질문 받음</w>
200 0</w>
애미 애비</w>
50 만
50 만</w>
지랄 이야</w>
ㄹㅇ 이냐</w>
에서 나</w>
나온 다면</w>
일본 에</w>
나올 지</w>
나올 려나</w>
이쁘 더라</w>
받아 줌</w>
받아 야함</w>
한거 는</w>
머리 로</w>
미친 년들</w>
미친 놈들
이기 네</w>
보내 라</w>
그리 드</w>
끝나 냐</w>
없는 건가</w>
페이 지
얘기 하면</w>
이름 을</w>
하고싶 은거</w>
에이 텍
마리 오</w>
사진 으로</w>
잘못 임</w>
70 렙
바이 퍼</w>
신기 하게</w>
생겼 냐</w>
운동 하면</w>
패치 하고</w>
디시 는</w>
보여 주면</w>
인기 도</w>
의외 의</w>
사라 졌네</w>
바꾸 자</w>
바꾸 는거</w>
시켜 줘</w>
중국 인</w>
ㅠㅠㅠㅠ ㅠㅠㅠㅠ</w>
300 개</w>
세계 관
유니 온
선택 은</w>
물어 보는</w>
스크 린
대기 실</w>
재밋 는데</w>
버그 로</w>
돌려 줘</w>
차이 로</w>
누가 보면</w>
라고 함</w>
결혼 하고</w>
옛날 에는</w>
씹덕 들</w>
쓰는 애들</w>
바르 고</w>
먹었 더니</w>
준비 하는</w>
소환 사는</w>
바꿔 도</w>
23 36</w>
여러 분들</w>
응원 합니다</w>
여름 이</w>
블루 레이</w>
가는 구나</w>
받았 어</w>
받았 냐</w>
입장 에서는</w>
홍어 들</w>
가챠 가</w>
거르 면</w>
미래 는</w>
이어 폰
키워 드</w>
수준 이네</w>
1년 동안</w>
전화 해서</w>
만든 거임</w>
한달 만에</w>
치킨 은</w>
감사 하십시오</w>
뭐가 좋음</w>
저러 냐</w>
신곡 보은</w>
남순 이가</w>
ㄷㄷㄷㄷㄷㄷㄷㄷ ㄷㄷ</w>
우울 해</w>
우울 하다</w>
귀찮 아</w>
리그 에서</w>
느낀 거</w>
갤럼 들은</w>
갤럼 있냐</w>
검색 하면</w>
수있 나요</w>
팩트 로</w>
꼬마 승</w>
적당 한</w>
존재 감</w>
대상 은</w>
태어 나면</w>
배고 픈데</w>
관련 된</w>
아쉬 운점</w>
일베 충
플러 스
디스 코드</w>
어지 럽
만족 함</w>
키스 방</w>
훈련 소
나쁘 진</w>
버려 도</w>
마려 운</w>
당첨 되면</w>
경찰 서</w>
할꺼 야</w>
어린 슈
전쟁 나면</w>
똥찬 아</w>
오디 션
언냐 들은</w>
던지 는거</w>
테이 블</w>
화면 에</w>
대박 이네</w>
혜자 네</w>
번호 판</w>
자르 고</w>
한글 패치</w>
간단 하게</w>
유투 브
공포 의</w>
아래 로</w>
비디 디
비디 오</w>
가을 야구</w>
섹시 한</w>
앱등 이들</w>
못참 고</w>
넥슨 캐시</w>
수험 생
네좆 마좆</w>
동수 칸
선착 순
트럼 프
현재 까지</w>
트위치 에서</w>
짤녀 는</w>
자세 히</w>
합리 적</w>
오락 실
후기 좀</w>
초등 학생
ㅡㅡㅡㅡㅡㅡㅡㅡㅡㅡ 타</w>
포지션 이</w>
잠깐 만</w>
메구 미</w>
차기 작</w>
나중 에
어마 어마
얼리버 드
잦스 틴
쿠키 런</w>
화려 한</w>
오닉 스
블러 드
2019 년</w>
테일즈 볼</w>
성민 규</w>
엄준 식</w>
씨ㅡ 발
방방 봐</w>
소소 한</w>
단백 질</w>
이낙 연</w>
커맨 드</w>
색히 들</w>
자가격 리</w>
어메이 징
유통 기한</w>
네코 파라</w>
콘크리 트</w>
백종 원</w>
두렵 다</w>
샤먼 킹</w>
박용 택</w>
순식 간에</w>
거꾸 로</w>
녕데 라</w>
실세 즈</w>
미꾸라 지</w>
엘든 링</w>
2 연
2 등</w>
3 판
4 확</w>
5 3</w>
5 시간</w>
5 선발</w>
6 일
7 8</w>
8 000
9 1</w>
K IA</w>
M e
Y ou</w>
d n
g t
m t
m vp</w>
t 1
t r
u i</w>
u h</w>
w r
x 3</w>
z z</w>
ㅅ ㅌ
ㅇ ㅋ
가 시</w>
가 본</w>
가 죽</w>
갈 색
감 싸
감 이
갓 데
강 등
개 강
개 악
개 좋은데</w>
개 쳐맞
개 구리</w>
개 돼지</w>
개 저씨
개 쳐발
갤 에도</w>
갱 이</w>
건 조
걸 어</w>
검 수</w>
겆 줌
게 된</w>
겟 는데</w>
고 고</w>
고 향</w>
공 단
공 도</w>
공 포</w>
공 룡</w>
과 몰
관 적인</w>
교 는</w>
교 촌</w>
구 슬
구 걸</w>
굴 라
굴 리는</w>
귀 염
급 여
기 머
기 아는</w>
길 어</w>
김 규
깨 서</w>
깨 기</w>
꺼 다</w>
꺼 같냐</w>
꼴 릴때</w>
꿈 은</w>
끝 난거</w>
나 혼자
날 이냐</w>
내 구
내 렸
내 리는</w>
냐 ㅋㅋㅋㅋㅋ</w>
넣 네</w>
넣 는게</w>
노 ㅋㅋㅋㅋㅋㅋㅋ</w>
높 아</w>
뇌 피셜
누 는</w>
눈 팅</w>
늦 었
다 정
단 위
단 위로</w>
달 라는</w>
대 는
대 두
대 물
대 본
대 우
댓 다</w>
더 위
던 진
던 디</w>
데 몬
도 는
도 루</w>
도 박</w>
도 중에</w>
도 13
도 윤이</w>
독 점
돈 만</w>
돈 많은</w>
동 호
된 건가</w>
될 텐데</w>
둘 이
뒤 져도</w>
뒷 담
듀 링
득 2</w>
듯 ㅋㅋㅋㅋ</w>
따 르
딴 겜
딸 치는</w>
떨 려</w>
라 비</w>
랭 겜</w>
러 스
련 은</w>
로 코
로 워</w>
론 은</w>
룡 은</w>
리 벤
리 본
리 터
리 야</w>
리 를</w>
리 로이</w>
린 다는</w>
마 토
막 막
막 내</w>
막 폴</w>
막 히네</w>
많 을까</w>
말 까
말 씀
말 을
말 지</w>
말 하지만</w>
맛 은</w>
망 천
망 령</w>
망 한거
망 했음</w>
맞 제</w>
맞 다고</w>
맞 다니까</w>
맵 은</w>
머 구
머 머
머 중
먹 을듯</w>
메 달
명 언
명 진
몇 십
몇 주
몇 층
몇 퍼</w>
모 여</w>
모 드는</w>
모 스크
목 적
몰 리
못 먹음</w>
무 쌍
무 직
무 토
무 의미
문 도</w>
미 들</w>
미 카</w>
미 쳐서</w>
민 족</w>
믿 으면</w>
바 쁜
바 키</w>
박 고
박 치
반 만</w>
받 으면서</w>
밤 의</w>
밥 먹고
배 리
배 너</w>
베 이</w>
벽 에</w>
병 휘</w>
보 플</w>
보 라는</w>
볼 트</w>
볼 수있냐</w>
분 배
분 신
분 해</w>
분 기</w>
불 싸개
뷰 지에</w>
브 더</w>
블 락
비 지
비 야</w>
비 만</w>
빠 가</w>
빼 박
뻔 한</w>
뽑 았으면</w>
뽕 이</w>
사 일러
사 장님</w>
살 살
삼 생</w>
상 어
생 물
서 부</w>
서 출구</w>
석 이랑</w>
선 포
선 별</w>
설 렌
성 민</w>
세 냐</w>
세 여</w>
세 력이</w>
소 액
소 년</w>
소 원</w>
소 취</w>
송 중
수 물
수 습
수 직
수 있을
순 회
순 서가</w>
술 취
숨 기
스 웨
시 다
시 민</w>
시 이발</w>
식 스
신 앙
신 음
신 맵</w>
신 분들</w>
심 리가</w>
싱 크
써 밋</w>
써 도됨</w>
썰 은</w>
쓰 지마라</w>
씨 게
씨 부
아 낙
아 네
아 메
아 키</w>
아 는거</w>
아 들이</w>
아 ㅋㅋㅋㅋㅋ</w>
아 는게</w>
아 린이</w>
아 케이드</w>
안 구
안 살
안 쓴
안 준
안 주</w>
안 줘</w>
안 쓰는
안 터지
알 러
알 긔</w>
애 정이</w>
야 겜
야 념
야 린
야 방</w>
약 핑
얍 칸
어 진
어 버린</w>
업 무
업 서</w>
업 지</w>
없 다고
에 잇</w>
에 타</w>
에 펙</w>
엑 스트라</w>
엔 팁
엘 시
여 부</w>
연 금</w>
영 수
예 산</w>
오 의</w>
오 랑</w>
온 콘
온 게</w>
옵 이랑</w>
와 노
와 인</w>
왔 다고</w>
왕 의
왜 그럼</w>
외 부
욕 하는거</w>
울 었다</w>
울 마왕</w>
워 짐</w>
워 커</w>
원 장
유 행</w>
으 려
으 나</w>
을 거임</w>
의 의</w>
이 인
이 사</w>
이 겨</w>
이 수</w>
이 치</w>
이 전에</w>
이 자너</w>
인 턴
인 투
인 식이</w>
일 본인</w>
임 무
임 아니</w>
입 히
있 겠
있 음
잉 크</w>
자 국
작 으면</w>
잔 잔
잘 랐
잘 만들
잘 나온
잡 아라</w>
장 량
장 필
장 민호</w>
쟤 네
저 럭</w>
저 정도</w>
저 새끼가</w>
저 거는</w>
적 절
전 남</w>
전 번</w>
절 단
절 반</w>
정 직
정 발</w>
제 대
조 영
조 질
존 좋</w>
졸 려
졸 린데</w>
종 로</w>
좆 데
좆 과금</w>
죠 죠
주 요
주 운
주 야</w>
주 니</w>
주 라고</w>
주 던가</w>
주 위에</w>
죽 인</w>
준 수</w>
줄 임
줄 도</w>
줄 이야</w>
중 화
중 연</w>
즈 그</w>
지 고
지 노
지 좀
지 났는데</w>
진 혈귀
질 때</w>
짜 냐</w>
째 인데</w>
쩌 는</w>
찜 깅이</w>
차 량</w>
착 하게</w>
찰 떡
참 교육
창 짓
채 우고</w>
척 하는</w>
첨 엔</w>
첨 부</w>
추 함</w>
출 금
치 파
치 호</w>
카 오스</w>
칼 로
캐 슬</w>
캐 쉬</w>
컴 터로</w>
코 짤</w>
코 린이</w>
코 달소</w>
쿨 감</w>
퀴 들아</w>
탄 핵</w>
탈 퇴</w>
탑 승</w>
텐 텐</w>
트 갤
틀 이</w>
티 내
티 아</w>
티 에</w>
팅 기
패 노</w>
포 말</w>
표 시
풀 강
풍 설</w>
플 랜
피 오
핀 냐</w>
하 란
하 츠
하 긴한데</w>
한 복
한 참
한 도리</w>
한 순간
항 의
해 롱
해 물
해 선
해 다</w>
해 피</w>
해 봐도</w>
핵 이</w>
했 다면</w>
헤 헤
헤 드</w>
현 강
협 회</w>
혜 지
호 랑
호 제
혹 시나</w>
홍 옥</w>
회 수</w>
후 오
후 장</w>
휴 게
휴 먼
히 오
히 기어</w>
힙 갤</w>
같은 거임</w>
ㅡㅡ ㅡ타</w>
들어 가</w>
들어 갈</w>
들어 보면</w>
들어 왔네</w>
10 렙
10 위
10 명</w>
아이 루</w>
20 만
라이 블리</w>
병신 인게</w>
좋아 하고</w>
재밌 는듯</w>
가능 하네</w>
얼마 야</w>
씨발 년이</w>
이상 한게</w>
30 퍼</w>
해주 겠지</w>
이거 맞냐</w>
12 년
이벤 은</w>
이유 도</w>
15 분</w>
방송 보는데</w>
질문 이요</w>
200 9
남자 임</w>
50 층</w>
알려 줄까</w>
지랄 이고</w>
프리 장</w>
18 5</w>
나올 거같음</w>
받아 들
떨어 져</w>
사랑 해요</w>
정신 과
필요 하다</w>
케이 형</w>
나가 네</w>
보고 가셈</w>
이해 를</w>
사기 캐
네이 처
19 일</w>
만들어 야
페이 커가</w>
해보 고싶
레이드 에서</w>
이름 만</w>
데려 가
이러 는데</w>
는데 ㅋㅋㅋ</w>
별로 지</w>
고민 중인데</w>
사진 을</w>
귀엽 게</w>
공부 하면</w>
생겼 으면</w>
500 개</w>
수영 장</w>
복귀 하고</w>
기분 임</w>
패치 노트</w>
트로 트
먹을 수</w>
노잼 이라</w>
차단 하면</w>
돌리 면서</w>
민주 당은</w>
사라 져
기사 님</w>
25 0</w>
중국 인
비슷 한데</w>
성공 함</w>
어렵 다고</w>
찐따 는</w>
물어 보자</w>
스카 디
아는 분</w>
스크 립
축하 한다</w>
하다 고
야구 는</w>
시상 식이</w>
시상 식은</w>
어제 오늘</w>
바르 는</w>
사실 은</w>
인정 한</w>
의미 없는</w>
새로 나온</w>
돼지 새끼</w>
보스 턴
해줘 야지</w>
근첩 새끼들</w>
유동 들</w>
무섭 노</w>
받았 음</w>
관심 도</w>
그룹 은</w>
끝났 냐</w>
보기 에</w>
인방 갤에서</w>
스토리 모드</w>
다행 히</w>
예상 함</w>
키워 라</w>
공지 영</w>
다는 것도</w>
조용 호</w>
아가 야</w>
아프 냐</w>
저번 주</w>
남았 냐</w>
할거 라고</w>
사야 되냐</w>
아니었 어도</w>
좋았 어</w>
좆같은 건</w>
지르 는</w>
검색 어</w>
정보 근</w>
설명 해줌</w>
하시 나요</w>
양심 이</w>
조합 으로</w>
프라이 드
꼬라 지가</w>
걸리 는데</w>
그립 네</w>
시원 한</w>
늘어 나
안쓰 는데</w>
마법 사
부족 해</w>
던파 가</w>
예전 에는</w>
받는 다고</w>
해본 적
이겼 는데</w>
작년 엔</w>
더블 오</w>
180 석
봉준 이
받으 려고</w>
뽑아 야함</w>
없애 면</w>
아재 가</w>
싸이 버거</w>
피시 방에서</w>
경찰 서
자연 스럽게</w>
내년 엔</w>
여캐 는</w>
조작 와이스</w>
3년 차</w>
무사 만루
끝내 고</w>
인사 왔씨야</w>
하긴 하다</w>
고마 워
조금 이라도</w>
꾹찜 충</w>
몇시 에
벌레 들</w>
시나 리오
이럴 때</w>
알고 보면</w>
똥꼬 쇼
뒤졌 냐</w>
비슈바 크
1인 칭</w>
간단 함</w>
부정 선거</w>
던전 에서</w>
패턴 이</w>
질러 서</w>
오타 니</w>
잠수 함</w>
라오 어
블핑 은</w>
블핑 갤</w>
비싼 거</w>
li st</w>
안들 면</w>
웃겼 음</w>
노트20 u</w>
스시 녀
보고있 으면</w>
크래 미</w>
이유가 뭐임</w>
사쿠 라
이따 가</w>
트럼 프가</w>
민트 헤어</w>
95 제</w>
수익 률</w>
상자 에서</w>
프린 세스</w>
방구 석</w>
42 위</w>
분노 의</w>
프로듀 서</w>
동양 인</w>
성욕 이</w>
김지 찬</w>
푸엉 큼
환영 합니다</w>
av i</w>
야리 코네</w>
치트 키</w>
물타 기
랜선 팬미</w>
뭔소리 임</w>
백화 검</w>
co m</w>
수수 료</w>
나승 엽
대처 법</w>
민폐 녀</w>
ot e</w>
부대 찌
미용 실</w>
무소 속</w>
프록 시</w>
야무 치</w>
케미 칼</w>
고말 숙</w>
유식 아</w>
산적 굴</w>
브라이 언</w>
요기 요</w>
CG V</w>
아자 르</w>
양석 환</w>
바람의 나라</w>
발자 크</w>
판테 온</w>
발키 리</w>
어과 초</w>
텔라 닥</w>
스크램 블</w>
주짓 수</w>
RP G
내마 위</w>
박시 영</w>
TH E</w>
느림자 부대</w>
폴크 라이</w>
ㄹㅈㄴ ㅂ
그들 만의</w>
자범 퇴</w>
1 화
1 패</w>
1 시에</w>
1 실점</w>
2 천</w>
3 기
3 셋
3 반</w>
3 50
3 300
4 렙</w>
5 렙
6 갑</w>
6 키노</w>
7 시간
7 일차</w>
8 분
H o
N H
O P
S k
T C
T M
a bo
c a
c c</w>
i c</w>
m g
m vp
p 4
p k</w>
w w</w>
ㄱ ㅅ</w>
ㅇ ㅅ</w>
ㅌ ㄱㅈ
가 상
가 짐</w>
가 짜</w>
가 아니라</w>
간 게</w>
갈 거야</w>
갓 파
강 사
강 장
강 조
개 랑</w>
개 좋음</w>
개 쓰레기</w>
갤 갤
갤 서</w>
갤 에선</w>
거 점
건 강</w>
걸 음</w>
검 증
검 열</w>
겁 니다</w>
게 더
겨 털
결 국은</w>
계 시
고 메
고 로</w>
고 생</w>
고 우</w>
골 드는</w>
곳 임</w>
공 원
공 이랑</w>
관 대
관 짝
관 상</w>
구 인
궁 합</w>
권 으로</w>
귀 환
귀 신</w>
그 건
그 립</w>
극 성
긴 하더라</w>
길 은</w>
김 경
김 고
김 풍</w>
까 일
깨 어
깨 질
꼬 박
꼴 려
꼴 려서</w>
꼴 보기
꾸 니는</w>
끄 네</w>
나 우
나 해</w>
나 바스</w>
날 때</w>
넘 어</w>
넣 으
넣 지</w>
누 군</w>
닉 값
닌 자</w>
다 닥</w>
다 봤다</w>
닥 쳐
단 도</w>
단 일</w>
달 리고</w>
답 장</w>
당 해
당 연</w>
대 역
더 빙</w>
더 좋음</w>
더 샤이</w>
던 데
데 프트</w>
도 에서</w>
돈 좀</w>
돌 았다</w>
동 방
동 자</w>
동 예지</w>
돼 야</w>
된 지</w>
될 때</w>
될 때까지</w>
두 시간</w>
뒤 진다</w>
듀 블</w>
드 릴</w>
듣 는게</w>
디 디
따 먹기</w>
딱 모</w>
똑 같은거</w>
똥 남아
뜨 는거
뜨 자마자</w>
라 떼
랄 까봐</w>
랭 매</w>
런 이</w>
런 처</w>
레 미
레 가</w>
렉 스</w>
루 크
루 키
루 다</w>
룩 우스</w>
룰 루</w>
르 크</w>
리 허
리 옹</w>
릭 스
마 빡
마 찬
마 들</w>
말 어</w>
말 소</w>
말 하고</w>
맞 어</w>
매 국
매 트</w>
매 제</w>
맨 들</w>
머 포
머 금</w>
머 시기</w>
메 탈
메 갓</w>
면 댐</w>
멸 종
명 확
명 을</w>
모 다
모 유
몰 카
몰 아서</w>
못 갈
못 내
못 어</w>
못 하는건</w>
못 봐서</w>
못 이김</w>
무 단
무 득
무 머
무 비
문 구</w>
물 론</w>
뭐 에</w>
뭐 해야됨</w>
뭐 이리</w>
미 주</w>
미 라이</w>
바 요
바 탕
바 티
박 냐</w>
방 문</w>
방 제</w>
배 웠
버 터</w>
보 아</w>
보 겠네</w>
본 거
본 능
볼 려고</w>
볼 수있음</w>
봐 줘라</w>
봐 주실분</w>
봤 어요</w>
부 기
부 위
부 인
부 키</w>
부 주</w>
분 할
브 레
비 기
비 작</w>
빌 스택
빛 나는</w>
빠 네</w>
빠 진거</w>
빡 대가리</w>
빨 라</w>
빨 아서</w>
빻 은</w>
빼 기</w>
뻔 하지</w>
뻔 했다</w>
뿌 리고</w>
뿡 3</w>
뿡 리프</w>
사 단
사 양
사 연
사 노</w>
사 전</w>
산 타
살 릴
살 만</w>
삼 촌</w>
상 체
상 장</w>
새 우</w>
샤 프
서 러
서 부
서 운
서 류</w>
서 바이
서 폴드</w>
섬 마</w>
성 서
성 이랑</w>
세 개
세 끼
세 번</w>
셔 틀
소 음</w>
손 실
송 민호</w>
수 연
수 출
수 나</w>
수 마갤</w>
쉬 냐</w>
스 까
스 물
스 붕이들</w>
승 부</w>
시 각
시 오리
신 다</w>
싸 네</w>
쏘 면</w>
쓸 수</w>
아 의</w>
아 탈</w>
아 가는</w>
아 주세요</w>
안 양
안 올
안 냐</w>
안 드</w>
안 되</w>
안 주고</w>
안 해봄</w>
안 뜨면</w>
안 올라오
안 됐는데</w>
알 비
압 구
앗 노</w>
앗 네</w>
애 인
야 숨
야 호</w>
약 코
양 전
양 치
양 키</w>
어 우
어 택
업 체
없 지않나</w>
에 우
엔 드</w>
여 보
여 포</w>
여 장</w>
영 아</w>
영 뽑</w>
옆 으로</w>
오 일
오 에</w>
온 거임</w>
왔 세운</w>
왜 곡
외 우
외 전
욕 심</w>
욕 하지마라</w>
용 산</w>
움 은</w>
월 세</w>
위 드
유 일</w>
유 사</w>
유 식이</w>
유 플러스</w>
유 카리</w>
으 으</w>
음 색</w>
음 ㅋㅋㅋㅋㅋ</w>
응 급
응 딩이</w>
의 서</w>
이 국
이 익
이 질
이 타
이 토
이 은</w>
이 속</w>
이 대로
인 사람</w>
인 성이</w>
일 거같은데</w>
일 도리</w>
입 양
입 이</w>
있 어야지</w>
자 와
자 장
자 격</w>
자 컨</w>
작 화
잘 쓰
잘 했
잘 은</w>
잘 할듯</w>
잡 자</w>
장 관
장 어
재 성
재 승
쟁 탈
전 향
전 때</w>
절 박
정 시</w>
정 현</w>
정 부가</w>
정 세운
제 안</w>
조 나
조 던
조 연
조 은
종 신
종 종</w>
좆 반
좆 발
좆 타
좆 으로</w>
좆 된다</w>
좋 으
좋 다고
주 급</w>
주 인이</w>
죽 겠네</w>
중 수
중 량</w>
중 학생
쥬 짱</w>
지 뉴</w>
진 마
징 역</w>
찐 임</w>
차 서</w>
착 함</w>
챙 이</w>
청 밥
초 구
초 가</w>
최 우
추 억</w>
치 확</w>
침 식</w>
카 습</w>
카 구야</w>
칼 로리</w>
커 트</w>
컵 라면</w>
케 로로</w>
코 에서</w>
클 랜</w>
키 커
키 트
타 는
타 릭
타 자가</w>
탈 락</w>
탕 수
토 갤
토 나와</w>
통 나무
트 레</w>
팀 한테</w>
파 람</w>
파 오후</w>
판 별
팔 았다</w>
팟 에</w>
패 면서</w>
퍼 로</w>
페 도는</w>
포 이
포 획
폭 사</w>
폭 격</w>
표 는</w>
표 본</w>
풀 업
풀 발</w>
퓨 전</w>
프 2</w>
피 네</w>
피 치</w>
피 하는</w>
하 에</w>
하 랑</w>
하 자나</w>
하 자는</w>
한 그
한 민
한 편
한 날</w>
한 그오</w>
해 드립니다</w>
했 어야
행 님덜</w>
허 니
허 전
헤 필</w>
헨 리</w>
헬 갤
현 자</w>
현 피</w>
혜 수
호 주</w>
화 났
화 나</w>
화 요일</w>
확 팩
환 상</w>
회 색
휴 식</w>
흐 엉
흑 잔</w>
희 랑</w>
히 메</w>
하는 법
하는 방법</w>
하는 중인데</w>
하는 걸까</w>
아니 래</w>
나오 는거야</w>
고싶 지</w>
10 대</w>
아이 언</w>
아이 랜드</w>
오늘 도
20 살
어디 에
존나 잘하네</w>
병신 겜
좋아 지는</w>
안되 는이유</w>
가능 하면</w>
얼마 쯤</w>
시간 표</w>
언제 쯤
언제 해</w>
씨발 놈들아</w>
30 분에</w>
ㅠㅠ ㅠ
누구 긔</w>
12 8
시작 하는데</w>
소리 야</w>
소리 하네</w>
아무 거나
붕이 들
올라 갈
올라 와</w>
때문 인가</w>
시발 년들</w>
시발 럼들아</w>
질문 있다</w>
200 42
괜찮 은듯</w>
알려 줄
지랄 하는거</w>
돌아 왔네</w>
보이 즈</w>
다음 이</w>
이었 던
일본 의</w>
노래 중에</w>
떨어 졌다</w>
한거 봐</w>
필요 없다</w>
16 60
14 1</w>
기대 되노</w>
하는거 면</w>
많이 들</w>
게이 들은</w>
마이 크로
나가 는데</w>
나가 는거</w>
만원 만</w>
한다 네</w>
한다 면서</w>
한다 더니</w>
처음 봄</w>
그만 두
느낌 은</w>
얼굴 을</w>
올리 는데</w>
ㅅㅂ ㅋㅋㅋㅋㅋㅋ</w>
서울 시
이름 으로</w>
오르 고</w>
고민 이</w>
시키 네</w>
이제 서야</w>
ㅅㅌㅊ 네</w>
바이 럴</w>
생겼 노</w>
수영 장
살아 있는</w>
기분 나
자기 도</w>
중요 한건</w>
중요 한듯</w>
인기 상
거리 두기</w>
그림 자</w>
그림 그리
보고싶 어서</w>
하기 싫
사라 졌
쓰레기 네</w>
인생 에서</w>
기사 에</w>
들어가 는데</w>
섹스 하고</w>
어렵 게</w>
유니 콘</w>
찐따 가</w>
꼴리 는거</w>
불쌍 하노</w>
대단 하긴</w>
하이 라이트
도와 줄</w>
진각 이</w>
생일 인데</w>
고소 당
만드 는
아이즈 원이</w>
쓰는 사람</w>
가야 하나</w>
의미 로</w>
수비 가</w>
안나 님</w>
자살 함</w>
시리 즈는</w>
조선 장</w>
하게 됨</w>
홍어 는</w>
인가 봄</w>
베이 비
달라 하면</w>
예상 하냐</w>
선생 님이</w>
이재 명이</w>
컨셉 으로</w>
ㄱㅊ 은데</w>
레벨 이</w>
실패 하면</w>
아프리 카가</w>
받을 수</w>
1000 개</w>
디씨 에</w>
이란 다</w>
안보 여</w>
안보 이냐</w>
게시 판
길태 부부</w>
그립 습니다</w>
제작 진</w>
메인 퀘
챔스 우승
관리 자</w>
느그 들</w>
5분 전</w>
불편 한</w>
외질 혜</w>
클로 저
피곤 하네</w>
도전 과제</w>
하자 너</w>
희망 이</w>
꾹앰 은</w>
자신 감
한정 판</w>
대통령 이</w>
갔다 왔는데</w>
내년 에도</w>
여캐 들</w>
it s</w>
똥찬 이는</w>
있는거 같음</w>
히트 곡</w>
공혁 준
언냐 들이</w>
날씨 에</w>
없는거 같음</w>
간지 나는</w>
똥꼬 쇼</w>
해준 다고</w>
2군 에서</w>
소설 은</w>
공주 겜</w>
위험 한</w>
못보 겠다</w>
일어나 니까</w>
목표 가</w>
목표 는</w>
못잡 음</w>
모모 코</w>
al l</w>
상담 좀</w>
큰일 남</w>
변경 권</w>
미사 키</w>
이겨 도</w>
초보 방</w>
매일 매일</w>
버전 으로</w>
바퀴 벌레</w>
몇퍼 냐</w>
고치 돈</w>
패널 티
도서 관
프랑 스
류준 열
호불 호
태양 광</w>
저능 아</w>
아크 릴</w>
히히 히히
어플 로</w>
파괴 력</w>
무지 개</w>
Again신곡 홍보</w>
광복절 에</w>
친추 좀</w>
무새 들</w>
하랜 사제</w>
박민 우</w>
김수 현</w>
파판 7</w>
dr x</w>
실적 발표</w>
cp u</w>
뜨거 운</w>
차은 우
카즈 야</w>
광화 문
슈스 울</w>
자석 펫</w>
건전 한</w>
너만 오면
두근 두근</w>
임영웅 마갤</w>
로맨 스</w>
잦글 램</w>
그렇다 쳐도</w>
사운 드
클러 치</w>
튜토 리얼</w>
알고리 즘</w>
추어 탕</w>
호크 아이</w>
박서 준</w>
SN S</w>
토착왜 구</w>
로지 텍</w>
축리 웹
손아 섭</w>
단군연합 투표인증왔어요</w>
SA Y</w>
혈액 형</w>
현기 증
하이브리 드</w>
통언 뜬
박문 각</w>
감전 수용
이목 구
정세운 갤</w>
1 단</w>
1 초</w>
1 구역</w>
2 m</w>
2 10</w>
3 호기</w>
4 연
4 월
4 점
4 1</w>
5 셋</w>
6 뿡
7 은</w>
7 1</w>
7 개</w>
7 9</w>
7 이닝</w>
8 회</w>
E D
F C
F 1</w>
L v</w>
M R</w>
R PG</w>
V P</w>
W AR
Y ou
c e</w>
g b
l pl
m c</w>
o st
v r
w an
w ar
ㅁ ㅅ
ㅅ ㅌ</w>
ㅆ ㄱㄴ</w>
가 비</w>
가 며</w>
감 기</w>
개 성
개 아
개 처
개 왕</w>
갤 방</w>
건 설
건 창</w>
걸 이
겜 하면서</w>
견 이</w>
결 은</w>
겼 네</w>
계 기</w>
고 쳤
고 증</w>
곤 란
공 신
공 평
공 모</w>
공 덱</w>
관 통
광 기</w>
괜 찬
교 공</w>
구 할</w>
국 야
국 회
국 적</w>
국 물</w>
귀 가</w>
귀 속</w>
근 질
기 성
기 보다</w>
긴 하는데</w>
길 어
길 에서</w>
김 광
꺼 지고</w>
나 르
나 름
나 방
나 열
나 더라</w>
나 세실</w>
내 성
너 랑</w>
넘 나</w>
넘 었네</w>
네 버
년 의</w>
노 바
노 지
놀 림
놈 한테</w>
눈 이
뉴 이
느 데</w>
니 에</w>
니 트</w>
님 드라</w>
다 수</w>
단 종
단 식</w>
달 갤</w>
달 리냐</w>
닮 았는데</w>
당 발</w>
당 신</w>
당 했노</w>
대 응
대 랑</w>
대 여</w>
대 하는</w>
대 전은</w>
더 샤
더 욱</w>
더 라면</w>
던 갤
덤 덤
데 자
도 색
도 있네</w>
동 갤
동 기부
동 아리</w>
된 다니까</w>
드 론</w>
드 라이브
든 말든</w>
듣 네</w>
듣 는거</w>
등 반
디 저
딜 레
떠 들
똑 같은데</w>
똥 은</w>
똥 보성</w>
띠 니는</w>
라 소
라 임</w>
랄 로</w>
런 칭
레 노
로 랑</w>
리 노
리 틀
리 쿠</w>
마 가
마 부
마 호
마 작</w>
마 기</w>
마 공</w>
막 을</w>
만 을</w>
많 나</w>
말 할때</w>
말 해봐</w>
맞 겠지</w>
매 의
매 입
매 물이</w>
맥 은</w>
머 그
머 하냐</w>
머 라고
먹 구
멋 있는</w>
메 호
메 붕이</w>
면 도</w>
명 치
몇 판
모 았
모 갤</w>
못 했네</w>
못 생기
못 받은
무 인
무 친</w>
무 려</w>
문 서
문 서</w>
물 려
물 류</w>
뭐 였음</w>
미 역
미 이
미 라</w>
미 디</w>
민 스</w>
바 타</w>
바 지에</w>
박 사</w>
박 자</w>
박 수</w>
방 사
버 전이</w>
병 장
보 강
보 더라</w>
복 무
복 정
복 습</w>
본 선</w>
본 건데</w>
본 거같은데</w>
볼 때
볼 베</w>
봉 랑이</w>
봉 디비</w>
부 빈
부 랑</w>
부 림</w>
분 류
분 열
불 고기</w>
불 가능한</w>
붕 이다</w>
비 상</w>
비 공개</w>
비 더레</w>
빅 젖
빌 라</w>
빨 지</w>
뽑 은거</w>
뽑 아라</w>
사 각
사 소
사 항
사 관</w>
사 실분</w>
산 도</w>
산 초</w>
살 려</w>
살 살</w>
삼 행시</w>
상 호
상 대는</w>
상 대로
샤 는</w>
샷 건</w>
서 큐
서 기</w>
석 우</w>
선 임</w>
선 냐</w>
선 원</w>
선 장</w>
선 인간</w>
설 리</w>
설 거지
섭 종</w>
성 폭행
셔 스</w>
소 문</w>
소 니</w>
소 왕굴</w>
속 상
손 해보
수 잔
수 임</w>
수 호</w>
수 생</w>
순 시
스 런
스 매
스 캠
스 코어</w>
슬 래
습 니
시 무
시 공</w>
시 탑</w>
시 즈</w>
시 킬</w>
시 티가</w>
신 부</w>
실 습
실 현
실 험</w>
싱 크</w>
싸 면</w>
쌍 도
써 야됨</w>
쓰 셈</w>
쓰 려고</w>
쓰 지마</w>
씹 ㅋㅋㅋㅋ</w>
아 베
아 르</w>
아 루</w>
아 앙</w>
안 갈
안 시
안 떠</w>
안 한거</w>
안 넘어
안 좋은데</w>
안 했지</w>
안 나왔으면</w>
알 현</w>
알 잖아</w>
압 도적</w>
앰 인데</w>
야 밤에</w>
약 하네</w>
어 김
어 닝
언 박
얻 고</w>
얻 기</w>
없 앤
에 레
에 반</w>
에 이지</w>
에 대한</w>
에 대해</w>
엠 씨</w>
여 나</w>
여 초</w>
여 혐</w>
연 관
연 대</w>
열 려
열 린
염 제</w>
엿 네</w>
영 정
오 다</w>
오 일</w>
오 는건</w>
오 실분</w>
올 렸네</w>
옴 걸</w>
옷 피셜</w>
왜 자꾸
요 가</w>
욕 설
욕 처
우 갤</w>
우 사랑</w>
운 행
울 부
울 고</w>
울 면서</w>
웃 어
워 이
월 간</w>
위 원
윈 드
유 물
유 포
유 스</w>
윤 아</w>
응 시
이 개
이 것</w>
인 텔
일 렉
일 야</w>
일 드</w>
일 요일에</w>
읽 는</w>
입 술</w>
입 성</w>
입 어도</w>
있 어라</w>
자 나
자 의
자 정
자 캐
자 산</w>
자 는데</w>
작 살
작 네</w>
작 음</w>
작 작</w>
잘 만
잡 는다</w>
장 한</w>
재 현
재 화</w>
쟁 이가</w>
적 이다</w>
전 도
전 세</w>
전 사가</w>
전 상현</w>
절 로</w>
정 독
정 색
정 당</w>
제 갈
제 공
제 비
젤 리
조 졌
족 발
족 구가</w>
존 중
존 나오
종 일</w>
좆 제
좋 누</w>
좋 지만</w>
좋 겟음</w>
좌 석</w>
죄 이
주 스
주 나요</w>
주 십쇼</w>
준 게</w>
줄 수</w>
줄 이고</w>
중 원</w>
중 학교</w>
즈 갤러리</w>
증 발
지 거
지 른</w>
지 렸다</w>
진 에</w>
짜 기</w>
짜 장면</w>
짤 도</w>
짤 만</w>
창 문
천 국</w>
철 혈</w>
철 린이</w>
청 량
청 순
청 년</w>
체 인지
총 대</w>
최 단
추 출
추 하네</w>
축 신
출 고
출 신이</w>
치 이
칠 흑
카 붕이</w>
카 리나</w>
캐 슬
캐 스팅
커 다
코 노</w>
코 스트
콜 렉
쿨 타임</w>
크 롬
키 기</w>
키 울</w>
키 커버</w>
타 나
타 이</w>
타 마</w>
타 노스</w>
탁 구</w>
탄 탄
탈 코
탈 때</w>
태 고
태 랑</w>
탭 7</w>
터 트리
템 이</w>
토 익</w>
토 레스</w>
통 일</w>
투 척
투 샷</w>
팀 전</w>
파 스
패 는게</w>
편 순이</w>
편 돌이
폐 기</w>
포 갤</w>
포 유</w>
풀 업</w>
풍 선</w>
피 노
피 트
피 나</w>
필 독
하 리
하 반기</w>
학 력
학 점
학 기</w>
한 편</w>
한 사람
합 은</w>
합 쳐도</w>
핫 픽
해 조
해 네</w>
해 지고</w>
했 어
했 냐고</w>
허 세
현 식</w>
형 의</w>
호 빠</w>
홍 콩</w>
화 살
환 동</w>
후 지
후 방</w>
흥 행
흥 민이</w>
희 귀</w>
히 크로</w>
힘 내</w>
ㅋㅋㅋㅋ ㄱ</w>
하는 사람
나오 는지</w>
생각 난</w>
생각 나는데</w>
10 8
10 판</w>
아이 즈</w>
레이 더</w>
20 개
20 강</w>
해야 하지</w>
해야 되는</w>
어디 있냐</w>
좋아 보이는데</w>
하나 더
가능 한가</w>
정도 냐</w>
정도 의</w>
이번 달에</w>
씨발 ㅋㅋㅋㅋ</w>
이상 하냐</w>
30 일
30 년</w>
해주 실</w>
이거 만</w>
이거 보면</w>
이거 뭐임</w>
12 8</w>
12 시간
시작 합니다</w>
아무 도안
어케 하는거임</w>
게임 이냐</w>
붕이 의</w>
붕이 인데</w>
이유 있음</w>
나왔 으니</w>
시발 거</w>
웃기 냐</w>
친구 를</w>
남자 로</w>
괜찮 게</w>
알려 줄</w>
알려 줄사람</w>
만들 때</w>
캐릭 으로</w>
고있 었
고있 는거</w>
에서 의</w>
보이 는게</w>
13 시</w>
궁금 하면</w>
다이 브</w>
이쁘 게
이쁘 던데</w>
받아 야지</w>
17 살</w>
뉴비 를</w>
미친 새끼들</w>
14 7</w>
기대 되는</w>
하는거 다</w>
데이 먼</w>
시즌 이</w>
나가 리</w>
이해 안됨</w>
일러 에</w>
진지 한</w>
그리 폰</w>
만들어 야함</w>
까지 마</w>
무슨 일이</w>
어야 하는데</w>
서울 시장</w>
철구 도</w>
데려 온</w>
에이 전
ㅇㅇ ㅇㅇㅇ</w>
애니 화
할수 가
공부 는</w>
복귀 하면</w>
패치 후</w>
기다 리면</w>
이였 어</w>
중요 한
in k</w>
차단 함</w>
영상 을</w>
한남 은</w>
민주 야</w>
25 초</w>
가져 가
어쩌 구
할만 하네</w>
없어 서
없어 진
없어 지면</w>
비슷 하지</w>
스크 롤</w>
21 8</w>
레전드 임</w>
오지 마</w>
버그 냐</w>
인간 실
스포 티
인정 이지</w>
가야 하냐</w>
가야 되냐</w>
의미 없음</w>
되는 구나</w>
여러 번</w>
좆망 겜
해줘 요</w>
으면 됨</w>
이지 영</w>
포인 트는</w>
중계 방</w>
고양 이는</w>
파티 에</w>
기본 적으로</w>
한달 동안</w>
근데 진짜</w>
어이 없음</w>
사야 하나</w>
ㄱㅊ 은
시절 인연
투수 들</w>
홍보 왔
트레이드 를</w>
상황 임</w>
하려 니까</w>
상대 방</w>
달아 주
양심 적으로</w>
초반 부터</w>
프라이 언</w>
무대 도</w>
확률 은</w>
사귀 는</w>
지나 가는</w>
디자 인은</w>
유명 함</w>
이용 자</w>
작가 님</w>
28 일</w>
28 00
카오 스
엘리 베이
은퇴 투어</w>
ㄱㄱㄱㄱ ㄱㄱ</w>
캐밥 은</w>
애플 은</w>
이승 현
이승 기</w>
맛있 겠다</w>
따효 니가</w>
성적 은</w>
자신 을</w>
뽑아 야지</w>
똥퀴 새끼들</w>
아오 이</w>
현타 온다</w>
현타 오네</w>
ㅅㅅㅅㅅㅅㅅㅅㅅ ㅅㅅㅅ</w>
아이폰 은</w>
무사 시</w>
플레 마</w>
결과 는</w>
빠지 는거</w>
트레이 너</w>
유튜버 가</w>
극혐 이네</w>
버즈 플</w>
개월 만에</w>
플래 그</w>
10분 전</w>
경쟁 률</w>
달달 하노</w>
트와 는</w>
지구 촌</w>
정신나갈 거같애
샤워 하고</w>
에에 에
한판 에</w>
버닝 때</w>
주공 두</w>
할때 만</w>
영향 력</w>
나봉 쟝</w>
못참 지</w>
집착 하는</w>
플로 프</w>
메모 리</w>
창국 이가</w>
깨달 았다</w>
남캐 는</w>
언젠 데</w>
겨드 랑이
라핌 이</w>
고나 우석</w>
며칠 전에</w>
아이유 님</w>
끝날 때까지</w>
로켓 펀치
무난 하게</w>
빌드 업
들을 때마다</w>
포도 머
어따 씀</w>
삼국 지
라라라라라 단군연합투표인증왔어요</w>
거의 다</w>
오락 실</w>
ㅇㅁ ㅎ</w>
아틀 란
대깨문 들</w>
브레이 브</w>
배메 는</w>
비키 니
데이터 주의</w>
보닌 쟝</w>
개잡 주</w>
루페 온
고속 도로</w>
암살 자</w>
vp n</w>
머선 129</w>
가보 조</w>
사생 아</w>
있긴 하냐</w>
서머 너</w>
의자 에</w>
안나왔 지</w>
오징 어
비겁 다
빨갱 이</w>
인종 차별
시진 핑
씨ㅡ 발</w>
사령 관</w>
부엉 이</w>
아수 라</w>
라노 벨</w>
환상동 화
중경 외
스바 루</w>
트사 가가</w>
박경 수</w>
우아 하게</w>
알고리 즘
돈까 스</w>
벌크 업
케오 베</w>
병먹 금</w>
후르 츠</w>
만년 필</w>
스라 벨</w>
pr o</w>
할로 윈</w>
여친사 먹</w>
넷마 블</w>
하와 와</w>
우규 민</w>
서재응 이</w>
갤라 쇼</w>
전한 길</w>
헬레 네</w>
ML B
귀축 교사</w>
부두 술</w>
맘스터 치</w>
그럭 저럭</w>
1 발
1 배
1 장
1 에</w>
1 권</w>
1 퍼</w>
2 점</w>
2 층</w>
3 장
3 퍼</w>
3 등</w>
4 기</w>
5 차
5 퍼</w>
5 장</w>
5 4</w>
5 렙</w>
5 500
7 시간</w>
8 2</w>
8 6</w>
A A
A K
B S</w>
E O
I A
S M
S P
b d</w>
g o</w>
i g</w>
j a
l v</w>
l pl</w>
p h
p v</w>
s d
s 20</w>
u d
ㄱ ㅇㄷ</w>
ㅂ ㄱ
ㅇ ㄴ</w>
ㅇ ㅁ</w>
ㅇ ㅊ</w>
ㅈ 목
가 겠
가 보면</w>
가 붕이</w>
각 슬이</w>
간 헐
간 거임</w>
간 거냐</w>
간 다는</w>
갈 발
감 각</w>
갓 다
강 습
강 아
같 았
개 오
개 최
개 도</w>
개 사기</w>
개 구리
개 노잼</w>
거 른
거 박
거 시
거 치
거 구나</w>
건 줄</w>
걸 어서</w>
걸 리고</w>
걸 린거</w>
검 찰</w>
겜 하는</w>
겜 하는데</w>
결 투
경 남
계 절
계 열</w>
고 1
고 침
고 야</w>
고 아</w>
고 감</w>
고 름</w>
고 장난
고 치냐</w>
골 라서</w>
곳 도</w>
공 약
공 수</w>
광 대</w>
교 회</w>
구 독</w>
군 주
권 도
권 도</w>
그 지</w>
그 거냐</w>
글 쓰는</w>
금 포
금 전</w>
긔 작</w>
기 리
기 품</w>
기 아가</w>
긴 했
긴 했다</w>
길 게
까 라</w>
까 놓고</w>
꾹 줌마</w>
끝 낫
나 게
나 시
나 폴
나 밍</w>
나 정도면</w>
나 빼고</w>
난 사
날 이
날 엔</w>
날 인가</w>
남 북
낮 네</w>
내 인생</w>
낸 거</w>
넘 이</w>
년 만에</w>
녕 드컵</w>
노 총
녹 턴</w>
농 ㅋㅋ</w>
놔 두고</w>
뉴 가</w>
느 리네</w>
능 국</w>
닉 으로</w>
님 께</w>
님 또</w>
다 되
다 해</w>
다 는거야</w>
단 점
단 위</w>
단 가</w>
달 은</w>
당 선
당 하는거</w>
대 검
대 군
대 운</w>
던 에서</w>
던 져도</w>
던 데요</w>
데 ㅋㅋㅋ</w>
델 련님</w>
도 깨
도 면</w>
돈 받고</w>
돌 로</w>
돌 린</w>
돌 면서</w>
돌 리네</w>
동 일</w>
될 거같냐</w>
두 리
뒤 로
뒷 북
드 럼
들 었음</w>
들 한테는</w>
디 어
디 카
디 파이
따 이
따 먹는</w>
땡 기는데</w>
땡 칠이</w>
떠 오르
떡 선</w>
똑 같이
똥 남아</w>
똥 장미</w>
라 부
라 노</w>
라 매</w>
라 멘</w>
라 스트
럼 들</w>
레 버</w>
렌 티</w>
렌 트</w>
렸 지</w>
령 이</w>
로 지</w>
룩 딸
리 니지
리 니지</w>
린 제
릴 거</w>
마 린
마 망
마 술
마 슈
마 오</w>
막 트</w>
만 갤에</w>
만 지고</w>
말 던</w>
말 씀</w>
말 해줘</w>
맘 은</w>
맞 게</w>
맞 지않냐</w>
맞 는지</w>
맞 긴함</w>
맨 시티
머 스
머 라고</w>
먹 이</w>
먹 힘</w>
먹 는건</w>
메 츠
면 되냐</w>
몇 시</w>
몇 부터</w>
모 이면</w>
목 매
못 치
못 가면</w>
못 보냐</w>
무 인</w>
무 실점
문 폭스</w>
물 어</w>
뭐 임
뭐 길래</w>
뭐 살까</w>
뭐 였냐</w>
미 필
미 냐</w>
민 현
밀 한</w>
밀 란</w>
바 나
반 포
반 전</w>
발 령
발 송
발 목</w>
발 열</w>
발 롱</w>
밥 한끼
방 침</w>
방 식이</w>
배 구
배 부르
백 선
버 스는</w>
번 만</w>
범 용
베 아
벽 갤
별 명이</w>
보 랑</w>
보 기가</w>
복 붙
복 근</w>
볼 게
봉 쪽
불 평
붙 은
뷔 창
블 러</w>
블 럭</w>
비 꼬
비 니
비 비</w>
비 전공
빡 치는</w>
빨 통</w>
빨 았는데</w>
뻔 뻔
뿌 린
뿡 더
뿡 탄</w>
사 겨
사 지
산 에</w>
살 자</w>
살 설</w>
살 았는데</w>
살 거야</w>
삼 전
삼 촌
상 점에</w>
생 중계</w>
서 치
설 사</w>
설 레</w>
성 숙
성 실
성 님들</w>
성 갤에서</w>
성 매매</w>
세 트는</w>
세 대가</w>
세 번째</w>
센 츄</w>
소 뱅
소 우
소 모</w>
소 과금</w>
수 빈
수 확
수 1</w>
수 집</w>
수 있다</w>
수 상자</w>
숨 어
슈 브</w>
스 칼
스 스위
스 미스</w>
슨 은</w>
시 총
시 체</w>
시 원</w>
시 호</w>
시 국에</w>
식 에</w>
신 카</w>
신 인가</w>
실 모</w>
십 시
싹 쓰리</w>
썰 이</w>
쎄 냐</w>
쏘 고</w>
씹 년아</w>
아 잉
아 플
아 미</w>
아 하</w>
안 박
안 짤
안 알려
안 했네</w>
안 보는데</w>
안 먹고</w>
안 했음</w>
안 좋네</w>
안 받고</w>
안 사면</w>
안 가냐</w>
안 가는데</w>
안 우진</w>
알 피
애 호
앱 플</w>
앱 으로</w>
야 근
야 만
야 랑</w>
야 시발</w>
야 된다</w>
야 되는</w>
야 되는거</w>
야 겟다</w>
양 상
얘 랑</w>
얘 네가</w>
어 센
어 윈
어 콘</w>
어 머니
억 떡
얼 평</w>
업 다</w>
없 었다</w>
없 는거야</w>
에 잇
에 브리
엔 버</w>
엘 마가</w>
여 니는</w>
염 불
염 소
예 장
예 매</w>
오 렌
오 준
오 예</w>
옷 도</w>
와 근데</w>
요 롱
요 시
요 원
요 년</w>
욕 해</w>
우 네</w>
우 효</w>
우 마갤</w>
울 이</w>
원 신</w>
원 하지</w>
위 신
위 클리
음 성
의 가</w>
이 놈</w>
이 불</w>
이 럴</w>
이 하면</w>
이 뭐냐</w>
이 노래
이 새끼들
이 긴하네</w>
인 공
인 젤
인 재</w>
인 트</w>
인 으로</w>
인 거같
일 년
일 줄</w>
일 침</w>
일 하면서</w>
읽 을
잇 을까</w>
있 슴</w>
있 다던데</w>
자 국</w>
자 연</w>
잘 된
잘 해도</w>
잠 잠
잠 도</w>
잡 을때</w>
장 담
장 의</w>
재 다
재 훈</w>
쟝 이</w>
저 래
저 쩌
전 과
전 두
전 립
전 선
전 주</w>
전 세계
절 실
점 여</w>
접 어야
정 산
정 승
정 의</w>
정 복</w>
젖 통</w>
제 스
조 짐</w>
조 진다</w>
졸 렬
졸 리
종 로
좆 뉴비</w>
좆 과금
좆 간지
좆 까고</w>
좌 완</w>
죠 죠</w>
주 루
주 수리</w>
죽 기</w>
줄 서
줌 년들</w>
중 산
중 첩
중 심</w>
중 갤에</w>
줬 어</w>
줬 냐</w>
즈 로</w>
지 독
지 문
지 우</w>
지 녁</w>
지 ㅇㅇ</w>
지 는건</w>
진 세
진 진
진 으로</w>
질 하고</w>
집 권
집 중</w>
짓 은</w>
짜 고</w>
짤 그려
찜 만</w>
차 를</w>
차 세대</w>
착 해</w>
참 석
창 원
찾 기
철 혈
철 감봉</w>
청 룡
체 지방</w>
추 종
추 출</w>
추 옵</w>
출 석</w>
치 명</w>
치 다가</w>
치 우고</w>
친 게</w>
카 리스
카 라스
칼 바람</w>
케 가</w>
케 프라</w>
코 를</w>
코 연</w>
쿨 러</w>
퀴 가</w>
퀴 들은</w>
크 기가</w>
큰 게</w>
키 캡</w>
킹 리
타 점
타 곤</w>
탁 희</w>
태 진이</w>
탭 칠이</w>
탱 탱
터 미
털 리고</w>
템 으로</w>
토 게
토 큰
토 론</w>
토 막</w>
퇴 장
튀 김
트 비
틀 면</w>
티 배
팀 을</w>
팀 임</w>
판 을</w>
팔 자</w>
팝 콘</w>
팡 팡
패 는건</w>
포 무
폴 더
풀 매수</w>
피 함</w>
피 갤</w>
필 라</w>
하 프</w>
학 폭
학 은</w>
학 이</w>
학 벌</w>
한 의
한 짤
한 한
한 도</w>
한 새끼들</w>
할 께</w>
항 조</w>
해 성사</w>
햄 탈</w>
허 용</w>
헤 세
헬 창
현 도</w>
혈 압
협 찬
형 님이</w>
호 그</w>
혹 사
홀 드</w>
화 룡</w>
화 요일
화 력이</w>
확 통</w>
환 가</w>
황 제</w>
효 도
후 라
후 광</w>
후 라이
휴 메</w>
흐 흐
흑 성배
히 틀
히 프
히 는거</w>
힘 들어서</w>
하는 짤</w>
하는 곳</w>
하는 데도</w>
아니 라는</w>
새끼 야
나오 는거냐</w>
생각 하지</w>
생각 하는거</w>
같은 대</w>
ㅡㅡ ㅡ</w>
들어 갔네</w>
10 렙</w>
레이 스
레이 는</w>
사람 없냐</w>
사람 들도</w>
20 만원
20 22
해야 겠
좋아 보임</w>
하나 씩
하나 더</w>
가능 한거</w>
지않 았음</w>
얼마 안
얼마 면</w>
얼마 만에</w>
이번 에
30 년
11 월
11 단</w>
11 00
소리 만</w>
어케 하노</w>
올라 왔는데</w>
15 9</w>
15 000
방송 만</w>
방송 켜서</w>
여기 저기</w>
때문 이지</w>
시발 새끼</w>
애미 애비
50 억
괜찮 나요</w>
알려 주실분</w>
한국 어
한국 여자</w>
메이 킹</w>
돌아 도</w>
다음 달에</w>
있었 어도</w>
나올 거같은데</w>
정신 줄
인증 하고</w>
그런 건</w>
뉴비 들을</w>
미친 새끼
하는거 같은데</w>
데이 비드
나가 기</w>
다시 보니까</w>
귀여 운거</w>
한다 는건</w>
일러 스트
40 억</w>
느낌 이
느낌 일까</w>
얘기 좀</w>
싫어 하는거</w>
나이 따</w>
철구 형</w>
데려 왔
데려 와서</w>
이러 는</w>
정상 이지</w>
고민 이다</w>
사진 보고</w>
어떻게 되냐</w>
할수 도
할수 밖에</w>
노트 10</w>
이야 기가</w>
이야 말로</w>
복귀 유전데</w>
기분 일까</w>
기다 린다</w>
안나오 는거</w>
김태 형</w>
거리 노</w>
나와 야지</w>
차단 한</w>
의외 네</w>
하기 vs
정리 좀</w>
개인 정보</w>
바꾸 니까</w>
삭제 됨</w>
들어가 고</w>
300 만</w>
없어 졌네</w>
드라 마가</w>
어렵 노</w>
오지 마라</w>
도와 주셈</w>
도와 줄사람</w>
추가 로</w>
생일 입니다</w>
생일 보은왔어요</w>
하면 안됨</w>
결혼 식</w>
호감 인</w>
유저 들은</w>
기억 남</w>
클리 퍼
주식 충
의미 가
선발 전</w>
23 0</w>
예쁘 다고</w>
무료 연
여름 은</w>
여름 엔</w>
블루 카펫
승리 의</w>
승리 호</w>
무섭 냐</w>
받았 다고</w>
경원 9강</w>
인가 여</w>
달라 짐</w>
다행 이야</w>
웨이 보</w>
다는 애들</w>
스러 운
느끼 는데</w>
아카 데미
세이 버
컨셉 은</w>
박정 수는</w>
대학 생</w>
먹는 다고</w>
좋았 지</w>
귀찮 은데</w>
부산 은</w>
ㄱㅊ 네</w>
레벨 링</w>
헤어 는</w>
한동 희
드레 스
자랑 하는</w>
혼자 만</w>
사회 적</w>
팩트 만</w>
조회 수가</w>
캬루 는</w>
졸업 하고</w>
이란 건</w>
사귀 기</w>
느껴 지는</w>
하루종 일
디자 이
염퀴 가</w>
강간 당
박보 영</w>
브이앱 은</w>
브이앱 도</w>
대체 로</w>
일리 치치</w>
눈물 의</w>
부분 은</w>
부족 한</w>
불편 해</w>
니네 들</w>
신화 는</w>
ar abo
이모 티콘
다리 에</w>
브라 운</w>
불안 한데</w>
에바 야</w>
개추 요청</w>
하라 메</w>
자신 의</w>
자신 감</w>
받으 러
이홍 구
할꺼 냐</w>
내년 부터</w>
수도 있음</w>
김연 경</w>
이야기 를</w>
밀리 애니</w>
빠지 게</w>
유행 하는</w>
드러 누
이태 원
ss d</w>
2천 원</w>
화면 이</w>
화면 으로</w>
1주 일</w>
영혼 의</w>
염보성 님</w>
완벽 하게</w>
하위 호환
사건 이</w>
해줬 다</w>
꾸준 글</w>
박지 성</w>
정민 규
문자 투표</w>
헤드 셋</w>
해명 해</w>
순수 재미</w>
초록 별
물냐 줌들</w>
원정 대
학원 에서</w>
2루 타</w>
근무 지</w>
든든 하다</w>
마라 벨</w>
장면 이</w>
끼리 만</w>
강정 호
테라 버닝</w>
LI VE</w>
리액 션
살리 기</w>
해피 증</w>
ㅇㄱ ㄹ
몇살 임</w>
IT E
정식 갤러리</w>
공산 당</w>
버튼 이</w>
후타 나
새우 버거</w>
어나 더
정신차 려</w>
지안 냐</w>
말투 가</w>
소화 제</w>
go at
스팅 어</w>
안지만 이</w>
수이 스</w>
트렌 드
레오 나</w>
아포 칼
찍찍 찍찍
뿌려 라</w>
커스텀 런</w>
언노 운
2학 기</w>
넘사 벽
대신 에</w>
하여 튼</w>
다를 게</w>
충무공 좌</w>
낙서 장</w>
너만 오면</w>
공휴 일</w>
자총 왔
sn s</w>
까마 귀
레게 노</w>
바사 삭</w>
에어팟 프로</w>
top 3</w>
실북 갤</w>
젖꼭 지</w>
레깅 스</w>
다만 악</w>
홍준 표</w>
프로게이 머</w>
도인 비</w>
둘째 치고</w>
요키 치</w>
황교 안</w>
쿠티 뉴</w>
포엑 밥</w>
브룩 스</w>
천재단 역</w>
ㅁㅌ ㅇㅈ</w>
바빠 서</w>
벨파 스트</w>
방탄소년 단</w>
본격 적으로</w>
이진혁 마갤</w>
조강 현</w>
화들 짝</w>
간신 히</w>
과몰 입</w>
1 조
1 달</w>
1 라운드</w>
2 층
2 권</w>
2 11
2 관왕</w>
3 퍼
3 회
4 차
4 로</w>
4 에</w>
5 회
6 위</w>
6 일</w>
6 이닝</w>
7 억
7 3</w>
7 50</w>
9 만
A V
B L
B ro
B EA
C A
D Y
E X
E X</w>
G M</w>
H KT
M G
P art</w>
c s
e 14</w>
f ps
i f</w>
j un
l a
m e
m i
m k
m r
m x
n d</w>
o s</w>
o d</w>
o st</w>
r p
s 20
u s</w>
ㅈ 다</w>
ㅈ ㅅㅂ</w>
ㅈ 됐다</w>
ㅈ 같은게</w>
ㅓ ㅓ</w>
가 해
갈 등
갓 네</w>
강 보
개 망
개 명
개 좆같다</w>
갤 벤
갤 매</w>
갤 이나</w>
거 리고</w>
거 른다</w>
걸 린다</w>
검 마
검 귀</w>
겜 으로</w>
겜 하면</w>
겠 던데</w>
격 겜</w>
경 남</w>
경 반</w>
고 용
곡 들</w>
공 군</w>
공 백</w>
공 항</w>
광 배
구 세
구 글에</w>
국 힙
군 단</w>
그 라</w>
그 거지</w>
그 분들</w>
기 쁘
기 침
기 다</w>
기 구</w>
기 스</w>
기 적</w>
길 바
김 찬
김 대중
김 채원
김 요한
까 여</w>
깨 는데</w>
꺼 도</w>
꾹 릴라</w>
꾼 이</w>
나 님</w>
나 카</w>
나 던데</w>
낙 태
낙 지</w>
난 데</w>
날 기
날 림</w>
남 는
남 충</w>
남 들은</w>
남 들이</w>
남 은건</w>
내 글
내 놓고</w>
네 트
네 반</w>
네 ㅅㅂ</w>
넥 플</w>
녀 한테</w>
노 련
노 노</w>
논 거</w>
높 다</w>
높 이</w>
뉴 스에</w>
늘 었
늦 은
니 로</w>
다 중
다 현
다 냐</w>
다 오</w>
다 하네</w>
다 해서</w>
다 ㅇㅇ</w>
단 게</w>
단 장이</w>
담 이</w>
답 다</w>
답 임</w>
당 명</w>
당 근</w>
대 꼴
대 하여</w>
더 기</w>
더 움</w>
더 하면</w>
덕 분
덕 아웃
던 전은</w>
데 헌</w>
데 우스
도 있냐</w>
도 현이</w>
도 적은</w>
도 련님</w>
돌 다</w>
돌 렸다</w>
동 원이</w>
돼 벨
됐 어도</w>
되 고싶
되 자나</w>
두 들
두 루
드 렸
드 세요</w>
득 와
든 거</w>
듣 보</w>
듣 는다</w>
들 만
들 이지</w>
디 다
디 버프</w>
따 위
따 져
때 까지
떡 이
떼 기</w>
똑 딱
똥 캐
똥 겜</w>
뚫 었다</w>
뜨 면
랭 매
러 야</w>
럭 스
럼 아</w>
레 벌떡</w>
리 임</w>
리 의</w>
리 전</w>
리 퍼</w>
마 늘
마 딜
마 피아
막 냐</w>
만 이라도</w>
만 나네</w>
말 라는</w>
말 하는거
망 했어</w>
맞 아서</w>
맞 는거임</w>
맞 히기</w>
머 거
머 단
머 씀</w>
머 냐고</w>
멀 리</w>
면 제</w>
면 에서</w>
명 칭
명 이면</w>
몇 등
몇 몇</w>
모 라
몸 에서</w>
못 버
못 써
못 타
못 보고</w>
몽 환
몽 이</w>
무 궁
문 죄
뭐 다</w>
미 시
미 지
미 코토</w>
민 도</w>
밀 크</w>
바 랑</w>
박 소
박 는다</w>
밖 으로</w>
반 가
반 격
반 등</w>
받 기
방 1
배 드
배 재
배 팅</w>
백 만</w>
뱅 이</w>
벌 려
베 에서</w>
병 크</w>
보 람
보 보
보 유</w>
보 낼</w>
보 이게</w>
복 기
부 진
부 질
부 스</w>
부 갤</w>
불 이</w>
불 에</w>
불 꽃</w>
불 는데</w>
붕 들</w>
뷰 티
브 시간</w>
블 록
블 신
블 리스</w>
비 번
빌 트</w>
빠 냐</w>
빠 진다</w>
빠 졌는데</w>
빡 친다</w>
빨 다</w>
빼 박</w>
뽀 뽀</w>
사 다
사 대
사 슴
사 줄
사 치
사 키</w>
사 신</w>
살 래</w>
살 만한</w>
샀 으면</w>
상 사</w>
상 갤</w>
새 싹
새 해
생 선
샤 이닝</w>
서 준
선 전
성 덕
성 명
성 약</w>
세 명
세 개</w>
섹 파
센 치
셀 서
셔 터</w>
소 다</w>
소 랑</w>
소 엑</w>
솔 큐
송 형
송 혜
수 컷
수 라</w>
수 사</w>
수 해</w>
수 수</w>
수 금</w>
수 확</w>
수 있으면</w>
수 많은</w>
순 경
숨 이</w>
쉬 다
쉬 어
쉬 네</w>
슈 발</w>
슼 은</w>
시 구
시 집
시 선</w>
시 퍼</w>
시 기에</w>
시 1발</w>
식 을</w>
신 데
신 생
신 세계</w>
실 감
실 루
실 습</w>
심 연</w>
싶 었
싶 다고</w>
싸 냐</w>
쌍 으로</w>
쓰 던
쓸 모</w>
씨 네
씹 지
씹 레</w>
아 를</w>
아 픈</w>
악 수
악 재
악 사</w>
안 좋아</w>
안 드레
안 좋은거</w>
안 들어</w>
안 하냐고</w>
않 게</w>
알 현
았 습니다</w>
앞 에
앞 자리</w>
앰 코
약 이</w>
양 가든</w>
얘 들
어 처
어 지는</w>
언 트</w>
언 니는</w>
얼 음</w>
업 는</w>
업 그레이드</w>
엇 으면</w>
에 로
에 메
에 펙
엘 더
엘 비
엘 화</w>
여 법
역 으로</w>
연 의</w>
열 받
엿 노</w>
였 습니다</w>
오 공
오 즈
와 카
완 화
왓 음</w>
왔 어
왔 다가</w>
왕 도</w>
외 워
용 어
우 지
운 명</w>
울 어
원 소
원 피
위 의</w>
유 니</w>
유 버</w>
유 료</w>
유 에서</w>
으 며</w>
은 왜
을 지</w>
음 모
음 해</w>
음 식이</w>
의 꽃</w>
이 비
이 소
이 초
이 헤
이 날</w>
이 대</w>
이 농</w>
이 빨</w>
이 말이야</w>
이 분은</w>
이 똥찬</w>
익 주</w>
인 국
인 듯
인 재
인 이다</w>
인 기는</w>
인 거같다</w>
일 당
일 찐
일 판</w>
일 걸</w>
읽 음</w>
임 상
임 용
임 페
임 시</w>
입 맛
입 혀
입 덕</w>
있 다고
자 너
자 책
자 컨
자 키</w>
자 이</w>
작 아서</w>
잘 난</w>
잠 수</w>
장 투
장 작</w>
잦 친
잦 친</w>
재 상</w>
저 만</w>
저 항</w>
적 으론</w>
전 교
전 임</w>
정 호</w>
젠 자</w>
조 의</w>
조 심</w>
조 센</w>
조 온나</w>
졸 림</w>
좃 같네</w>
종 토
좆 바
좆 벤
좋 겠지</w>
주 목
주 얼
주 접
주 거</w>
주 홍</w>
주 목</w>
주 머니
준 대</w>
줄 거면</w>
중 지
지 겠네</w>
지 나서</w>
직 무
직 후</w>
진 압
진 해
진 혁
진 상</w>
진 입장
집 착</w>
짜 릿
찌 라
차 려
차 나</w>
찾 는다</w>
채 움</w>
챔 프
챙 기고</w>
천 만
첨 봄</w>
체 셔</w>
체 험</w>
초 롱
최 예나</w>
추 노
추 진</w>
축 복
춘 무유</w>
충 이들</w>
츠 키
치 반
침 투
카 러
카 야
카 인</w>
카 야</w>
카 를</w>
카 카페</w>
칸 무
칼 데
칼 라
칼 퇴
컨 포
코 너
콘 좀</w>
쿨 찐
퀘 는</w>
크 론
크 롭
크 라운
클 라스
키 크고</w>
킹 데
킹 반
탐 정
태 평
탭 7
통 계
통 장</w>
퇴 치
투 바
투 런</w>
트 라</w>
트 릭</w>
트 럭</w>
틀 리
티 나는</w>
파 운
파 탑</w>
패 닉
패 작</w>
팬 도</w>
평 판</w>
포 긔
포 션
포 션</w>
폴 아웃</w>
푸 두
푸 는데</w>
풀 린
풀 리네</w>
풀 어라</w>
프 랑</w>
플 에</w>
플 랜</w>
피 디
핀 이</w>
하 야
하 키
하 겟지</w>
한 성
한 끼</w>
한 심한</w>
한 섭은</w>
할 듯
할 일
할 뻔</w>
할 필요
할 바에</w>
항 복
항 모</w>
해 방</w>
햇 지</w>
했 던데</w>
현 생</w>
현 우진</w>
혐 한
협 력
형 석
홀 란드</w>
화 된</w>
확 챠
환 산
황 밸
회 의</w>
회 식</w>
회 장님</w>
후 루
후 배</w>
후 회</w>
흑 인이</w>
흥 이</w>
희 대의</w>
히 스토
하는 사람들</w>
아니 랄까봐</w>
새끼 나</w>
고싶 냐</w>
생각 듬</w>
생각 나노</w>
10 명
10 1</w>
아이 큐
아이 패
아이 스</w>
아이 큐</w>
레이 가</w>
레이 너</w>
사람 중에</w>
사람 있어</w>
20 18</w>
해야 겠노</w>
라이 너</w>
존나 많이
병신 이면</w>
병신 인가</w>
좋아 도</w>
좋아 하지</w>
좋아 하는게</w>
어떻 노</w>
재밌 고</w>
여자 친구가</w>
안되 긔</w>
안되 니까</w>
안되 는거
이상 해
11 연</w>
해주 자</w>
모르 겟네</w>
이거 다</w>
이거 면</w>
이거 보니까</w>
누구 였지</w>
지금 이랑</w>
게임 의</w>
붕이 들도</w>
스타 벅스</w>
15 판</w>
방송 중</w>
방송 하는</w>
웃기 긴</w>
친구 가
친구 들
친구 들은</w>
사이 다
질문 있습니다</w>
지랄 이노</w>
돌아 왔다</w>
ㄹㅇ ㅋㅋㅋㅋ</w>
보이 고</w>
다니 냐</w>
이쁘 긴</w>
떨어 뜨
사랑 한다</w>
정신 승리
인증 하는</w>
그런 거냐</w>
16 8</w>
머리 도</w>
미친 개</w>
미친 년들아</w>
한번 이라도</w>
케이 블
케이 티
케이 스는</w>
나가 도</w>
다시 보니</w>
재미 있네</w>
있는 건가</w>
일러 보고</w>
그리 움</w>
그만 하라고</w>
느낌 이지</w>
하고 있는</w>
미쳤 나봐</w>
얘기 도</w>
얘기 함</w>
무슨 맛
올리 는
서울 이</w>
해보 이냐</w>
데려 와라</w>
최고 로</w>
고민 하는</w>
고민 중임</w>
사진 찍
사진 들</w>
시키 는게</w>
알아 도</w>
어떻게 해</w>
할수 있을까</w>
코스 닥</w>
보여 줄
거리 는
나와 야함</w>
어려 운거</w>
영상 보고</w>
싸우 는게</w>
할만 하지</w>
80 년대</w>
중국 어</w>
넘어 가는</w>
비슷 해</w>
무기 에</w>
불쌍 한게</w>
스크 가</w>
하이 퍼
21 세기</w>
축하 합니다</w>
재밋 어</w>
진각 나오면</w>
추가 됨</w>
리스 크</w>
생일 보은왔
학교 대항전</w>
기억 나네</w>
인정 함</w>
생기 네</w>
예쁘 노</w>
에픽 이</w>
부탁 왔
ㅡㅡㅡㅡㅡㅡㅡㅡ ㅡ
비교 하는</w>
비교 해서</w>
으면 좋겟다</w>
이지 은</w>
공격 수</w>
소바 에</w>
거르 는게</w>
인싸 들은</w>
끝났 어</w>
연습 생</w>
공개 함</w>
거래 량</w>
트리 피
사냥 터
느금 이</w>
아니었 노</w>
오리 콘</w>
누군 가</w>
ㄷㄷㄷㄷㄷㄷㄷㄷ ㄷㄷㄷ</w>
귀찮 음</w>
느낀 다</w>
아르 테
실패 함</w>
커엽 긔</w>
들어와 보셈</w>
상위 호환</w>
크리 에이
하시 네</w>
확인 하는</w>
무대 에서</w>
역겹 노</w>
2년 동안</w>
공무 원이</w>
이란 이</w>
신규 유저</w>
나나 미</w>
외국 인들</w>
구리 다</w>
구리 다고</w>
바리 맘들</w>
태어 난
눈물 나</w>
후회 함</w>
an d</w>
아라 가</w>
이것 좀</w>
아쉬 운게</w>
부족 해서</w>
화장 품</w>
ㄱㄱㄱㄱ ㄱ</w>
타격 이</w>
이모 가</w>
이렇게 까지</w>
회사 에</w>
의사 항</w>
브라 질</w>
피곤 한데</w>
올라오 는데</w>
심각 하네</w>
멍청 한
ㅎㅎ ㅎㅎ</w>
단체 사진</w>
써야 겠다</w>
꾹앰 들은</w>
기간 이</w>
기간 에</w>
앨범 은</w>
패드 로</w>
외모 는</w>
싸이 코</w>
다크 소울
ㅅㅅㅅㅅㅅㅅㅅㅅ ㅅㅅ</w>
3년 전</w>
아이폰 12</w>
1차 전</w>
지우 냐</w>
재료 는</w>
되는거 아니냐</w>
논란 이</w>
님들 님들</w>
소름 네</w>
잘생긴 거</w>
알고 있음</w>
시그 마</w>
플래 그
플래 시</w>
취향 이</w>
가테 갤</w>
유투 버
일진 들</w>
악질 임</w>
클래 식
스타일 링</w>
안잡 히
방탄 갤</w>
함께 하는</w>
미스 틱
빠른 데</w>
잘어울 리네</w>
근육 이</w>
트위터 에서</w>
크래 프트</w>
정해 져
까는 글</w>
주사 위
메시 지</w>
헤카 테
네이버 에</w>
2루 수</w>
여초 에서</w>
어깨 가</w>
아이스크 림
우유 통</w>
걸그룹 은</w>
교통 대</w>
안해주 냐</w>
쪽팔 리
여중 딩</w>
무엇 을</w>
븝딱 들</w>
공공 근로</w>
데바 데
무지 개
쓸모 없는</w>
아칼 리
mb ti
합리 적
ㅂㄷ ㅂㄷ</w>
고로 시
ㅇㄱ ㄹ</w>
도란 은</w>
마구 마구</w>
학창 시절에</w>
놀랍 게도</w>
시녀 들</w>
눈나 들</w>
동일 인물
히나 타</w>
플렉 스
악플 러</w>
ig ht</w>
박준 태</w>
존경 하는</w>
개잡 주
미개 봉</w>
야마 토</w>
샤샤 샤
vp n
평화 로운</w>
버튜 버
순서 대로</w>
미스터 트롯</w>
통신 사</w>
돌고 돌아</w>
오서 경
씨발씨발 씨발씨발
시그니 엘</w>
목격 담</w>
체리 블
sn s
단백 질
하울 링</w>
DA Y
시후 야</w>
익절 남</w>
지겨 워</w>
싸워 라</w>
이채 연</w>
가디언 테일즈</w>
새낀 데</w>
김인 태</w>
키미 히</w>
무작 위</w>
그저 께</w>
살벌 하네</w>
DR X</w>
치하 야</w>
익스프레 스
외계 인</w>
컬렉 션</w>
호미 페</w>
바니 걸</w>
젠신병 자</w>
마창 사</w>
어림 도</w>
어째 서</w>
금토 일</w>
토너 먼트</w>
메이크 업</w>
그리스로마 신화</w>
국해 성</w>
장학 금</w>
신태 일</w>
어게 인</w>
허수아 비</w>
김원 중</w>
개창 국</w>
ㅌㄱ ㅉ
쿠르키키 형</w>
백선 엽</w>
1 대</w>
1 섭</w>
1 부터</w>
1 호선</w>
2 인</w>
2 조</w>
2 정</w>
2 인데</w>
2 10
2 200
2 60
2 마리</w>
3 부
3 줄
3 조</w>
3 세대</w>
4 대</w>
4 조</w>
4 마리</w>
4 주년
5 로</w>
6 개
7 위</w>
7 만</w>
7 모</w>
8 위</w>
8 일차</w>
9 위</w>
9 6</w>
A O
A 4</w>
C P
D LC
E T
H D</w>
L O
M V</w>
N e
N 라인</w>
S up
U S
b a
b g
d o</w>
e x</w>
e Me
l h
n d
s 는</w>
ㄱ ㅈ</w>
ㄴ ㄷ
ㄴ 데</w>
ㄴ ㄱ</w>
ㅆ ㅎㅌㅊ</w>
ㅇ ㅌ
ㅈ ㅅㅂ
ㅈ 망겜</w>
가 깝
가 들</w>
가 랑</w>
가 고싶은데</w>
가 도됨</w>
각 도
갈 개
갈 구
갈 려
갈 면</w>
갑 시다</w>
강 림
강 진성</w>
개 새
개 수
개 방</w>
개 인데</w>
개 좋아</w>
개 줌마들</w>
개 야갤</w>
개 창국
개 무섭네</w>
개 이득</w>
거 부</w>
걸 리</w>
것 에</w>
것 좀</w>
것 이지</w>
것 보단</w>
것 도안
게 따</w>
격 리
경 비</w>
경 계</w>
경 매장</w>
계 급
계 범
계 급</w>
고 릴
고 지
고 자</w>
고 차비</w>
곡 도</w>
골 은</w>
골 라</w>
공 정
공 기</w>
공 원</w>
공 학과</w>
교 양
교 통</w>
교 차로</w>
구 질
구 기</w>
구 제</w>
구 해서</w>
국 산</w>
군 수</w>
굴 은</w>
권 총
극 과
근 친
근 래</w>
글 쓰면</w>
급 이면</w>
기 세
기 습
김 사무
김 갑주</w>
깅 아</w>
까 이면</w>
까 먹고</w>
깔 려
깨 졌
꺼 려
끝 나는</w>
나 란
나 태
나 한테
나 세실
낙 관
날 로</w>
남 성</w>
내 는게</w>
내 주고</w>
내 줬으면</w>
내 생각엔</w>
넌 트</w>
넣 는
네 로</w>
네 시발</w>
네 ㅠㅠ</w>
년 이네</w>
노 선
노 아</w>
노 랑</w>
노 리고</w>
노 신화</w>
놀 다가</w>
높 아서</w>
놓 으
놓 치고</w>
누 락
느 림</w>
늘 었네</w>
니 티</w>
니 애미
다 털
다 메</w>
다 봤는데</w>
단 어가</w>
달 다</w>
당 하냐</w>
대 1
대 량
대 를</w>
대 처</w>
더 위</w>
더 우니까</w>
데 헌
데 린이</w>
덱 리
도 그
도 미
도 장
도 킹
도 10</w>
독 사일
돌 기</w>
동 창
동 갤</w>
동 점</w>
되 자마자</w>
되 지않음</w>
되 기전에</w>
된 거같은데</w>
될 것</w>
될 거같
둥 이는</w>
뒤 지네</w>
듀 브론
들 지</w>
등 기
따 위</w>
딸 배</w>
딸 이랑</w>
딸 려서</w>
땅 땅</w>
떨 림</w>
똥 숙
라 건
라 지</w>
러 가
레 반
레 비
레 서</w>
레 비</w>
렌 더
렌 은</w>
로 망
롤 모델
루 틴
루 비</w>
리 옹
리 드</w>
리 창</w>
마 베
마 자</w>
마 갤이</w>
막 다</w>
막 네</w>
많 을듯</w>
망 전
망 했으면</w>
맞 춘</w>
맞 는게</w>
맞 았네</w>
맞 는거같음</w>
매 우
매 고</w>
머 마
머 머리</w>
먹 튀</w>
먹 겠네</w>
메 롱
메 이지</w>
명 단
명 일방
몇 으로</w>
모 을
모 랑</w>
모 딩</w>
모 드가</w>
목 마</w>
몸 값</w>
못 찍
못 봤네</w>
무 뇌
무 덤
무 재
무 친
무 카</w>
무 관</w>
무 섭</w>
무 자본
문 젠
문 어</w>
뭐 시
미 달
민 지
민 초</w>
믿 고
믿 는
밀 린
바 쿠
박 으
반 갈
받 다가</w>
받 는거임</w>
발 리는</w>
밤 새</w>
밥 이랑</w>
방 안</w>
방 종</w>
방 가서</w>
배 럭
배 제
배 리나</w>
백 혐</w>
백 카스</w>
버 틴
벌 어</w>
벌 이</w>
베 인</w>
베 타</w>
벽 람
보 병
보 시
보 인
보 긴</w>
보 았다</w>
복 숭아</w>
본 다는</w>
부 셔
불 탈
불 과</w>
불 기사</w>
붙 었
붙 었다</w>
붙 여서</w>
뷔 극
브 릿
블 럭
블 레
비 중
비 니</w>
비 해서</w>
빅 뱅</w>
빅 히트
빙 수</w>
빠 이
빵 리</w>
빻 은
뽑 는다</w>
뽕 맛</w>
뿡 도</w>
삐 찜</w>
삐 앰들</w>
삐 부가</w>
사 려
사 먹
사 볼
사 를</w>
사 와</w>
사 설</w>
사 아야</w>
살 거임</w>
삼 아</w>
삼 자범퇴</w>
상 반
상 영
상 성</w>
샘 물
생 제
샷 건
서 리
서 서</w>
선 두
설 탕</w>
설 정이</w>
성 기</w>
성 별</w>
세 뇌
세 요
세 션</w>
센 코
센 세가</w>
셋 다</w>
셋 중에</w>
셔 츠
셔 널</w>
소 마
소 고기
손 잡고</w>
송 구</w>
수 분
수 위</w>
수 기</w>
수 덱</w>
수 룡</w>
수 잇냐</w>
쉬 기</w>
쉬 워</w>
스 투
스 하면</w>
스 붕이</w>
슬 액</w>
승 승
시 공
시 호
신 라</w>
신 차</w>
신 호</w>
신 화가</w>
실 트
싶 은거</w>
쏘 는</w>
쓰 더라</w>
쓰 세요</w>
쓰 다듬
씨 빨
씨 쇼
씹 년들아</w>
아 갈
아 넘
아 부
아 형
아 군</w>
아 놔</w>
아 디</w>
아 베</w>
아 크로
아 맞다</w>
악 당
악 성
악 에서</w>
안 껴
안 빨
안 듬</w>
안 젤</w>
안 사람</w>
안 보는</w>
안 할듯</w>
안 좋은점</w>
안 좋아서</w>
안 됐냐</w>
않 나요</w>
알 계
알 까</w>
애 용
앤 데</w>
앰 들아</w>
앱 은</w>
야 자
야 지
야 하는거</w>
야 한거</w>
야 할까</w>
야 로나</w>
야 가다</w>
약 한데</w>
어 머</w>
언 은</w>
얻 은</w>
얼 티</w>
얼 토츠</w>
업 는
에 여</w>
에 미</w>
에 오</w>
에 포트</w>
엔 트리
엔 시티</w>
엘 레
엘 프</w>
엠 은</w>
여 단
열 매
열 정
염 응지</w>
엽 서</w>
영 도
영 이는</w>
오 카</w>
오 착</w>
올 킬
와 퍼</w>
와 13</w>
와 일드
왔 을때</w>
외 교
요 구</w>
용 인
용 느</w>
우 산
우 는데</w>
운 세</w>
울 었
웃 어</w>
웅 웅</w>
원 트
원 만</w>
웠 어</w>
웹 소설</w>
위 냐</w>
위 장</w>
유 나
유 흥
유 비</w>
육 개장</w>
으 내
은 거야</w>
음 밥</w>
응 봉</w>
응 지방
의 아라</w>
이 만큼</w>
이 때까지</w>
이 년은</w>
이 짤은</w>
익 텐
익 이</w>
인 내
인 신
인 테
인 제</w>
인 권</w>
인 맥</w>
인 것도</w>
인 공지
일 제
일 이지</w>
읽 었는데</w>
임 나연</w>
입 대</w>
잇 어요</w>
있 지는</w>
자 발
자 서
자 판
자 기는</w>
잘 뜬
잘 먹
잘 래</w>
잘 해라</w>
잘 아는</w>
잘 했으면</w>
잘 부르
잠 이
잠 이나</w>
잡 고
잡 히면</w>
장 한
재 끼
재 방</w>
재 벌</w>
저 지</w>
저 수지</w>
적 인데</w>
적 으로는</w>
전 우
전 과</w>
전 형</w>
전 인데</w>
전 장은</w>
접 으면</w>
접 어야지</w>
정 근
정 대</w>
정 모</w>
정 민</w>
정 박아
정 말로</w>
제 련
젠 지는</w>
졌 티
조 도</w>
조 립</w>
조 노블
존 에서</w>
종 의</w>
좆 비
좆 튜
좆 퍼
좆 되는</w>
주 니
주 실
주 홍
주 연</w>
주 삼</w>
주 행</w>
주 화</w>
주 고싶다</w>
주 려나</w>
주 는거지</w>
죽 창
죽 어라</w>
죽 었으면</w>
준 드</w>
줄 아냐</w>
중 얼</w>
즈 를</w>
지 목
지 남</w>
지 령</w>
진 마</w>
질 려서</w>
차 게</w>
찬 망구</w>
참 을
창 원</w>
찾 냐</w>
찾 는데</w>
채 집</w>
책 을</w>
챙 겨</w>
철 도
첫 판</w>
청 자
청 범수</w>
체 지방
쳐 야
쳤 어</w>
초 고
초 로</w>
초 고수
추 피</w>
추 는거</w>
층 은</w>
치 열
치 요
치 치
치 히
치 지마</w>
카 구
카 기</w>
카 레</w>
카 마인
칼 싸개
케 리
코 메
코 라</w>
콘 도</w>
콤 프</w>
쿠 비
크 린
크 레</w>
키 배
키 큰
키 무라
킨 드레드</w>
킹 탄
킹 덤</w>
타 에
타 스</w>
타 랑</w>
타 리</w>
타 순</w>
탁 은</w>
태 국</w>
터 져도</w>
털 리는</w>
텐 텐
템 렙
튀 기</w>
트 만</w>
티 브
티 남</w>
팀 의</w>
파 나
파 마
파 우
파 로</w>
파 이는</w>
판 다고</w>
팔 에</w>
팡 이
패 파</w>
펙 트</w>
편 갤
평 야</w>
포 모
포 시
폭 스
표 시</w>
표 식이</w>
푸 퀴</w>
풀 셋
품 이</w>
필 사
하 치
하 겟네</w>
하 거든</w>
한 애</w>
한 경기</w>
할 라는데</w>
함 선</w>
항 해</w>
해 놔
해 니다</w>
해 봐야
해 냈다</w>
핵 과금
핸 드</w>
햇 빛
했 오</w>
했 나봐</w>
행 운
행 님</w>
형 태</w>
형 한테</w>
호 이</w>
홀 로그
홍 수
화 로</w>
화 에서</w>
화 나서</w>
회 사는</w>
후 임</w>
훈 갤</w>
히 탄절</w>
히 탄절
하는 가</w>
아니 지않냐</w>
아니 였나</w>
레이 지</w>
사람 잇음</w>
사람 들을</w>
오늘 경기
20 만원</w>
해야 할
해야 하나요</w>
병신 년</w>
그래 도
좋아 죽
여자 임</w>
하나 여</w>
안되 는거임</w>
가능 하다</w>
가능 한지</w>
추천 해준다</w>
이상 적인</w>
30 판</w>
30 80
11 6
이거 로</w>
이거 든</w>
12 7</w>
시작 했네</w>
지금 봐도</w>
게임 으로</w>
15 만</w>
레전 드는</w>
애미 창년
괜찮 나</w>
괜찮 다고</w>
괜찮 던데</w>
괜찮 을까</w>
만들 자</w>
지랄 이냐</w>
메이 져
메이 커
캐릭 을</w>
프로 토
다음 달
나온 거냐</w>
나온 다는데</w>
궁금 해
다이 스</w>
한거 긔</w>
한거 보면</w>
ㅈㄴ 많네</w>
올려 봄</w>
17 5
17 성</w>
뉴비 들이</w>
뉴비 들아</w>
머리 만</w>
미친 놈이</w>
미친 놈들아</w>
14 일
하는거 도</w>
나가 지</w>
다시 한번</w>
있는 걸까</w>
이기 는게</w>
보내 는거</w>
그리 즈만</w>
그만 하자</w>
하고 십
하고 있냐</w>
하고 나면</w>
우승 각</w>
나이 키</w>
경기 에서</w>
는데 스</w>
마리 나가</w>
사진 좀</w>
시키 는거</w>
잘못 한거</w>
ㅅㅌㅊ 인데</w>
바이 든</w>
운동 을</w>
살아 야지</w>
복귀 한</w>
기분 좋음</w>
힘들 게</w>
안나오 냐고</w>
김태 군</w>
인기 가요</w>
그림 이</w>
그림 체가</w>
한남 들은</w>
한남 들이</w>
개좆 같이</w>
쓰레기 냐</w>
가져 와
바꾸 는</w>
삭제 하면</w>
없어 졌
꼴리 노</w>
꼴리 지않냐</w>
대단 해</w>
버그 임</w>
야구 선수</w>
2주 간</w>
인간 들</w>
확정 으로</w>
씹덕 이</w>
광고 가</w>
입갤 ㅋㅋㅋㅋㅋㅋㅋ</w>
바르 면</w>
가야 하는데</w>
버리 는
어울 려</w>
새로 고침</w>
예쁘 지</w>
에픽 게임즈</w>
정치 인</w>
시리 즈가</w>
지만 이</w>
웃긴 이유</w>
2008 10</w>
홍어 가</w>
자리 에서</w>
플레이 는</w>
미안 해
스토리 에서</w>
스트리 밍
드리 치</w>
비트 코인</w>
비비 큐
1위 네</w>
만든 다</w>
사냥 꾼</w>
뭐가 더
ㅆㅅㅌㅊ 노</w>
ㅜㅜ ㅜㅜㅜ</w>
근데 왜</w>
세이 프
몇개 임</w>
신청 하면</w>
잘생겼 노</w>
구라 임</w>
ㄱㅊ 냐</w>
스테 이지
지르 는거</w>
장난 아니네</w>
사용 법</w>
인데 ㅋㅋ</w>
사회 생활
초반 엔</w>
개빡 세
연예 인들</w>
하고있 어</w>
걸리 는거</w>
난리 남</w>
난리 난</w>
길태 매직</w>
발작 하는거</w>
메인 에</w>
메인 퀘</w>
운영 자</w>
느그 랑</w>
이것 들</w>
안쓰 러
1등 급
복구 버그</w>
갤질 하는</w>
애플 펜
는것 보다</w>
디스 크</w>
해본 적</w>
이렇게 된거</w>
스펙 업
갓겜 임</w>
버티 고</w>
만족 한다</w>
클로 저스</w>
피곤 해서</w>
올라오 는거</w>
작년 보다</w>
쓸만 해</w>
하하 하하</w>
아스 모
아빠 랑</w>
번역 추</w>
대통령 은</w>
마려 워</w>
안오 노</w>
안오 는데</w>
코로나 19</w>
36 00
라운 드
다크 소울</w>
최강 자</w>
이시 스</w>
히트 박스</w>
국밥 은</w>
사무 소</w>
로이 드
세트 로</w>
소름 끼
ss ul</w>
하스 스톤
2천 원
테이 블
찬또 가</w>
오재 일
반대 하는</w>
출신 임</w>
티켓 팅</w>
간단 히</w>
손해 임</w>
사건 은</w>
모바일 로</w>
여캠 들이</w>
목소리 도</w>
잠수 함
까이 는거</w>
검은 색</w>
기도 함</w>
기도 하고</w>
닮았 노</w>
원래 는</w>
맘마 통
기능 은</w>
언더 볼
계획 모드</w>
유키 카</w>
잘어울 려</w>
크리스 탈
크리스 마스</w>
오랜만 이야</w>
순간 부터</w>
기다려 라</w>
김재 현</w>
마이너 갤러리</w>
마이너 갤러리는</w>
뽑아야 됨</w>
먹어야 겠다</w>
불법 이</w>
우르 스</w>
먹엇 다</w>
몇번 을</w>
에게 도</w>
요청 하신</w>
경북 대</w>
라는 말</w>
똑똑 한</w>
겨드 랑
모습 이</w>
보드 게임</w>
문코리 타는</w>
특이 한</w>
가스 라이
ㅎㅇ ㅌ</w>
문파 레이드</w>
무과금 으로</w>
조센 징</w>
mm r</w>
파란 색</w>
다이아 몬
몸매 가</w>
버러 지</w>
평범 하게</w>
뒷광고 가</w>
디지 몬</w>
풍월 량
잦돌 들</w>
체험 판</w>
한마디 만</w>
내놓 으라고</w>
ㅋㄱ ㅋ</w>
노트북 으로</w>
어릴 땐</w>
직장 인</w>
외야 수</w>
이하 로</w>
픽뚫 로</w>
상하 차</w>
익숙 한</w>
정냐 가</w>
미개 한</w>
미라 클</w>
알로 알로
엔터 주</w>
배고프 다</w>
장식 장</w>
구데 기</w>
예뻐 서</w>
지잡 대</w>
슬라이 더</w>
세컨 드</w>
서재 응</w>
지겹 다</w>
타르 코프</w>
협동 전</w>
타케 우
ㅅㅍ ㅅㅍ</w>
아메리 카노</w>
안어울 려</w>
공휴 일
자괴 감
cg v</w>
국방 부</w>
실업 급여</w>
냉장 고</w>
이천 웅</w>
24H its</w>
조리 돌림
진중 권</w>
오동 석</w>
kb o</w>
장영 석</w>
활성 화</w>
허삼 영</w>
갓성 은
심우 준</w>
온앤 오프
비천 색
2021 년</w>
매트 릭스</w>
중얼 중얼</w>
기숙 사</w>
남양 주</w>
Trouble 총공왔동호</w>
감조 새</w>
데스티 니</w>
밀워 키</w>
블게 주</w>
서진 용</w>
FL O</w>
구하 소서</w>
이력 서</w>
조켓 다</w>
송중 기</w>
호제 던</w>
BEA 3
eMe BEA3
김사무 엘갤</w>
0 10</w>
1 주</w>
1 스</w>
1 층</w>
1 순위
1 배수
2 승
2 월
2 p</w>
2 편</w>
2 가지</w>
2 관왕
3 마리</w>
4 달
4 분</w>
4 신수</w>
5 조</w>
5 초</w>
5 시에</w>
5 기생</w>
6 번</w>
7 번
8 에</w>
8 50
9 2
A R</w>
F F
F or
P V</w>
R E</w>
e 가</w>
k d
l d
l p
l y</w>
m l
m g</w>
n p
o o</w>
p p
s 10</w>
t 14
v 2</w>
y a
ㄷ ㅊ
ㄹ ㄷ
ㅣ 발
가 동</w>
가 에서</w>
가 수가</w>
가 는거지</w>
가 겠노</w>
간 의</w>
갈 림</w>
갈 수있음</w>
감 고</w>
강 하게</w>
개 성</w>
개 거품
갤 떡</w>
갤 보다</w>
갤 입니다</w>
갤 로그
갤 디코</w>
거 주
거 미</w>
거 맞지</w>
거 아냐</w>
건 디</w>
검 귀
것 들은</w>
것 들아</w>
게 으
겨 도</w>
견 우</w>
경 민아</w>
고 덕
고 라
고 발
고 임</w>
고 척</w>
고 릴라
곤 은</w>
골 차</w>
공 동
공 급</w>
공 주가</w>
공 매도
과 도
관 상
관 음</w>
관 종</w>
괜 춘</w>
교 도
교 배
교 사
구 경</w>
구 하고</w>
국 뽕</w>
군 이랑</w>
굴 림</w>
귀 두
그 나</w>
그 려</w>
근 딜
급 식이</w>
기 하
기 훈</w>
기 둥</w>
기 인데</w>
기 는게</w>
긴 했네</w>
김 승
김 혁
김 시원
김 희재</w>
까 이고</w>
깨 네</w>
꼴 잘알
끝 물
끼 니까</w>
나 기
나 물
나 을</w>
나 사</w>
나 진짜</w>
난 왜</w>
날 까</w>
날 조</w>
날 이야</w>
남 주가</w>
남 동생</w>
내 가이
냐 냐
너 구
네 스
네 들</w>
년 생
년 이랑</w>
년 한테</w>
념 요청</w>
노 는
노 마
노 브
노 태
노 력</w>
노 선</w>
놀 랬
놀 리는</w>
놈 을</w>
누 드
누 스</w>
누 름</w>
눈 데</w>
눈 동자</w>
니 폼
니 엔</w>
다 큐
다 로</w>
다 랑</w>
다 갤</w>
단 차</w>
단 장은</w>
달 았다</w>
당 할</w>
대 마
대 임</w>
대 본</w>
대 진</w>
대 우</w>
댓 삭
댕 이
던 오프</w>
덤 벨
덱 도</w>
도 화</w>
도 모다
돈 내
돌 갤</w>
동 화
동 실이</w>
되 죠</w>
되 누</w>
두 배</w>
듣 지</w>
들 이라</w>
등 골</w>
등 극</w>
디 바</w>
따 리는</w>
딱 밤
딱 은</w>
딴 건
때 처럼</w>
떠 려
떨 공
떳 다
또 다른</w>
똥 견</w>
라 로</w>
라 ㅋㅋ</w>
라 스트</w>
라 피스
람 쥐</w>
랍 시고</w>
랑 만</w>
랜 디</w>
럽 코</w>
레 르</w>
레 즈</w>
레 압</w>
레 비아
로 젠
로 테
로 어</w>
로 스터</w>
록 스</w>
루 비
룸 예
류 호
르 고</w>
리 마
리 빙
마 련
마 조
마 심</w>
마 소</w>
막 폴
막 은</w>
만 개</w>
많 어</w>
많 았음</w>
말 디
말 했는데</w>
말 숙이</w>
맘 터</w>
망 한다</w>
망 이니
맞 았는데</w>
맞 냐고</w>
매 달</w>
맨 몸
맵 에</w>
머 야
머 표
머 학
먹 금</w>
메 보
멜 뮤</w>
면 역</w>
명 전
몇 프로
모 붕이</w>
모 스티
몽 은</w>
몽 어스</w>
무 브
무 원</w>
무 녀</w>
무 토</w>
무 서울
무 수리</w>
문 동
물 린
뭐 더라</w>
뭐 하는거임</w>
뭐 든지</w>
뭔 짓
미 쿠</w>
민 증
밀 려
밀 었는데</w>
밀 리네</w>
바 바
바 브
바 는거</w>
바 리는</w>
바 피네</w>
박 는
박 상
반 장</w>
반 고닉
밥 통
방 갤
방 무</w>
배 울
배 라</w>
백 만
백 억
버 니
버 릴</w>
버 전은</w>
범 두
법 에</w>
베 레
베 팅
베 개</w>
벨 라</w>
병 가
병 디</w>
보 나
보 강</w>
보 2</w>
보 이나</w>
보 스는</w>
보 아라</w>
복 수</w>
볼 은</w>
봄 ㅋㅋ</w>
봤 나</w>
부 조
불 태
불 쌍</w>
붙 잡고</w>
뷔 줌마
뷔 빡이</w>
브 갤</w>
블 카</w>
블 라인
비 쥬얼
빅 텍
빅 토</w>
빈 다</w>
빠 전
빡 겜
빡 친</w>
빨 던
빨 이</w>
뽑 는
뽑 으로</w>
뽑 는거</w>
뽕 은</w>
뿡 티
사 보
사 의
사 호</w>
사 도됨</w>
사 다리
산 데</w>
살 해
살 을</w>
살 았다</w>
살 거면</w>
삼 대장</w>
상 단
상 체</w>
새 롬
새 기는</w>
샌 디
샘 좆</w>
생 김
서 류
서 를</w>
석 도</w>
설 득
섬 멸
성 의
섹 스는</w>
센 치</w>
센 징</w>
셀 프</w>
소 굴
소 로</w>
소 총</w>
속 을</w>
속 발음
