{"<unk>":0,"!":1,"\"":2,"#":3,"%":4,"&":5,"'":6,"(":7,")":8,"+":9,",":10,"-":11,".":12,"/":13,"0":14,"1":15,"2":16,"3":17,"4":18,"5":19,"6":20,"7":21,"8":22,"9":23,":":24,";":25,"<":26,"=":27,">":28,"?":29,"@":30,"A":31,"B":32,"C":33,"D":34,"E":35,"F":36,"G":37,"H":38,"I":39,"J":40,"K":41,"L":42,"M":43,"N":44,"O":45,"P":46,"R":47,"S":48,"T":49,"U":50,"V":51,"W":52,"X":53,"Y":54,"[":55,"]":56,"^":57,"_":58,"a":59,"b":60,"c":61,"d":62,"e":63,"f":64,"g":65,"h":66,"i":67,"j":68,"k":69,"l":70,"m":71,"n":72,"o":73,"p":74,"r":75,"s":76,"t":77,"u":78,"v":79,"w":80,"x":81,"y":82,"z":83,"~":84,"ㄱ":85,"ㄴ":86,"ㄷ":87,"ㄹ":88,"ㅁ":89,"ㅂ":90,"ㅅ":91,"ㅆ":92,"ㅇ":93,"ㅈ":94,"ㅉ":95,"ㅊ":96,"ㅋ":97,"ㅌ":98,"ㅍ":99,"ㅎ":100,"ㅏ":101,"ㅓ":102,"ㅗ":103,"ㅜ":104,"ㅠ":105,"ㅡ":106,"ㅣ":107,"가":108,"각":109,"간":110,"갈":111,"감":112,"갑":113,"값":114,"갓":115,"갔":116,"강":117,"갖":118,"같":119,"개":120,"갤":121,"갱":122,"걍":123,"거":124,"걱":125,"건":126,"걸":127,"검":128,"겁":129,"것":130,"겆":131,"게":132,"겜":133,"겟":134,"겠":135,"겨":136,"격":137,"견":138,"결":139,"겹":140,"겼":141,"경":142,"계":143,"고":144,"곡":145,"곤":146,"곧":147,"골":148,"곳":149,"공":150,"과":151,"관":152,"광":153,"괜":154,"괴":155,"교":156,"구":157,"국":158,"군":159,"굴":160,"굿":161,"궁":162,"권":163,"귀":164,"규":165,"균":166,"그":167,"극":168,"근":169,"글":170,"금":171,"급":172,"긔":173,"기":174,"긴":175,"길":176,"김":177,"깅":178,"까":179,"깐":180,"깔":181,"깝":182,"깡":183,"깨":184,"꺼":185,"께":186,"껴":187,"꼬":188,"꼭":189,"꼴":190,"꽃":191,"꾸":192,"꾹":193,"꾼":194,"꿀":195,"꿈":196,"꿔":197,"끄":198,"끌":199,"끔":200,"끝":201,"끼":202,"낀":203,"낌":204,"나":205,"낙":206,"난":207,"날":208,"남":209,"낫":210,"났":211,"낮":212,"내":213,"낸":214,"낼":215,"냄":216,"냈":217,"냉":218,"냐":219,"냥":220,"너":221,"넌":222,"널":223,"넘":224,"넣":225,"네":226,"넥":227,"넷":228,"녀":229,"녁":230,"년":231,"념":232,"녕":233,"노":234,"녹":235,"논":236,"놀":237,"놈":238,"농":239,"높":240,"놓":241,"놔":242,"뇌":243,"누":244,"눈":245,"뉴":246,"느":247,"늒":248,"는":249,"늘":250,"능":251,"늦":252,"니":253,"닉":254,"닌":255,"닐":256,"님":257,"닝":258,"다":259,"닥":260,"단":261,"달":262,"닭":263,"닮":264,"담":265,"답":266,"당":267,"대":268,"댐":269,"댓":270,"댕":271,"더":272,"덕":273,"던":274,"덜":275,"덤":276,"덩":277,"데":278,"덱":279,"델":280,"뎃":281,"도":282,"독":283,"돈":284,"돌":285,"동":286,"돼":287,"됐":288,"되":289,"된":290,"될":291,"됨":292,"두":293,"둘":294,"둥":295,"뒤":296,"뒷":297,"듀":298,"드":299,"득":300,"든":301,"듣":302,"들":303,"듬":304,"듯":305,"등":306,"디":307,"딜":308,"딩":309,"따":310,"딱":311,"딴":312,"딸":313,"땅":314,"때":315,"땐":316,"땜":317,"땡":318,"떠":319,"떡":320,"떤":321,"떨":322,"떰":323,"떳":324,"떴":325,"떻":326,"떼":327,"또":328,"똑":329,"똥":330,"뚜":331,"뚫":332,"뛰":333,"뜨":334,"뜬":335,"뜸":336,"띠":337,"띵":338,"라":339,"락":340,"란":341,"랄":342,"람":343,"랍":344,"랐":345,"랑":346,"래":347,"랙":348,"랜":349,"램":350,"랩":351,"랬":352,"랭":353,"략":354,"량":355,"러":356,"럭":357,"런":358,"럴":359,"럼":360,"럽":361,"렇":362,"레":363,"렉":364,"렌":365,"렙":366,"려":367,"력":368,"련":369,"렬":370,"렵":371,"렸":372,"령":373,"로":374,"록":375,"론":376,"롤":377,"롬":378,"롭":379,"롯":380,"롱":381,"료":382,"룡":383,"루":384,"룩":385,"룰":386,"룸":387,"룹":388,"류":389,"률":390,"르":391,"른":392,"를":393,"름":394,"리":395,"릭":396,"린":397,"릴":398,"림":399,"립":400,"릿":401,"링":402,"마":403,"막":404,"만":405,"많":406,"말":407,"맘":408,"맛":409,"망":410,"맞":411,"매":412,"맥":413,"맨":414,"맵":415,"머":416,"먹":417,"먼":418,"멀":419,"멋":420,"멍":421,"메":422,"멘":423,"멜":424,"멤":425,"며":426,"면":427,"멸":428,"명":429,"몇":430,"모":431,"목":432,"몬":433,"몰":434,"몸":435,"못":436,"몽":437,"무":438,"문":439,"묻":440,"물":441,"뭐":442,"뭔":443,"뭘":444,"뮤":445,"미":446,"민":447,"믿":448,"밀":449,"밋":450,"밌":451,"밍":452,"밑":453,"바":454,"박":455,"밖":456,"반":457,"받":458,"발":459,"밤":460,"밥":461,"방":462,"배":463,"백":464,"밴":465,"밸":466,"뱅":467,"버":468,"벅":469,"번":470,"벌":471,"범":472,"법":473,"베":474,"벤":475,"벨":476,"벽":477,"변":478,"별":479,"병":480,"보":481,"복":482,"본":483,"볼":484,"봄":485,"봉":486,"봊":487,"봐":488,"봤":489,"부":490,"북":491,"분":492,"불":493,"붕":494,"붙":495,"뷔":496,"뷰":497,"브":498,"블":499,"븝":500,"비":501,"빅":502,"빈":503,"빌":504,"빙":505,"빛":506,"빠":507,"빡":508,"빨":509,"빵":510,"빻":511,"빼":512,"뻐":513,"뻔":514,"뽀":515,"뽑":516,"뽕":517,"뿌":518,"뿐":519,"뿡":520,"쁘":521,"쁜":522,"삐":523,"사":524,"삭":525,"산":526,"살":527,"삼":528,"샀":529,"상":530,"새":531,"색":532,"샌":533,"샘":534,"생":535,"샤":536,"샷":537,"서":538,"석":539,"선":540,"설":541,"섬":542,"섭":543,"성":544,"세":545,"섹":546,"센":547,"셀":548,"셈":549,"셉":550,"셋":551,"셔":552,"션":553,"셜":554,"소":555,"속":556,"손":557,"솔":558,"송":559,"쇼":560,"수":561,"숙":562,"순":563,"술":564,"숨":565,"숭":566,"쉬":567,"쉽":568,"슈":569,"스":570,"슨":571,"슬":572,"슴":573,"습":574,"슷":575,"승":576,"슼":577,"시":578,"식":579,"신":580,"실":581,"싫":582,"심":583,"십":584,"싱":585,"싶":586,"싸":587,"싹":588,"싼":589,"쌈":590,"쌍":591,"써":592,"썩":593,"썰":594,"쎄":595,"쏘":596,"쓰":597,"쓴":598,"쓸":599,"씀":600,"씨":601,"씩":602,"씹":603,"아":604,"악":605,"안":606,"않":607,"알":608,"암":609,"압":610,"앗":611,"았":612,"앙":613,"앚":614,"앞":615,"애":616,"액":617,"앤":618,"앨":619,"앰":620,"앱":621,"야":622,"약":623,"얍":624,"양":625,"얘":626,"어":627,"억":628,"언":629,"얻":630,"얼":631,"엄":632,"업":633,"없":634,"엇":635,"었":636,"엉":637,"에":638,"엑":639,"엔":640,"엘":641,"엠":642,"여":643,"역":644,"연":645,"열":646,"염":647,"엽":648,"엿":649,"였":650,"영":651,"옆":652,"예":653,"옛":654,"오":655,"옥":656,"온":657,"올":658,"옴":659,"옵":660,"옷":661,"옹":662,"와":663,"완":664,"왓":665,"왔":666,"왕":667,"왜":668,"왤":669,"외":670,"요":671,"욕":672,"용":673,"우":674,"욱":675,"운":676,"울":677,"움":678,"웃":679,"웅":680,"워":681,"원":682,"월":683,"웠":684,"웨":685,"웹":686,"위":687,"윈":688,"윙":689,"유":690,"육":691,"윤":692,"율":693,"으":694,"은":695,"을":696,"음":697,"읍":698,"응":699,"의":700,"이":701,"익":702,"인":703,"일":704,"읽":705,"임":706,"입":707,"잇":708,"있":709,"잉":710,"자":711,"작":712,"잔":713,"잖":714,"잘":715,"잠":716,"잡":717,"장":718,"잦":719,"재":720,"잼":721,"쟁":722,"쟝":723,"쟤":724,"저":725,"적":726,"전":727,"절":728,"점":729,"접":730,"정":731,"젖":732,"제":733,"젠":734,"젤":735,"져":736,"졌":737,"조":738,"족":739,"존":740,"졸":741,"좀":742,"좃":743,"종":744,"좆":745,"좋":746,"좌":747,"죄":748,"죠":749,"주":750,"죽":751,"준":752,"줄":753,"줌":754,"중":755,"줘":756,"줬":757,"쥐":758,"쥬":759,"즈":760,"즌":761,"즐":762,"즘":763,"증":764,"지":765,"직":766,"진":767,"질":768,"짐":769,"집":770,"짓":771,"징":772,"짜":773,"짝":774,"짤":775,"짭":776,"짱":777,"째":778,"쩌":779,"쩔":780,"쪽":781,"쯤":782,"찌":783,"찍":784,"찐":785,"찜":786,"차":787,"착":788,"찬":789,"찮":790,"찰":791,"참":792,"창":793,"찾":794,"채":795,"책":796,"챔":797,"챙":798,"챠":799,"처":800,"척":801,"천":802,"철":803,"첨":804,"첩":805,"첫":806,"청":807,"체":808,"쳐":809,"쳤":810,"초":811,"촌":812,"총":813,"최":814,"추":815,"축":816,"춘":817,"출":818,"충":819,"취":820,"츄":821,"츠":822,"층":823,"치":824,"친":825,"칠":826,"침":827,"칩":828,"칭":829,"칰":830,"카":831,"칸":832,"칼":833,"캐":834,"캠":835,"캡":836,"캬":837,"커":838,"컨":839,"컬":840,"컴":841,"컵":842,"컷":843,"케":844,"켓":845,"켜":846,"코":847,"콘":848,"콜":849,"콤":850,"콩":851,"콱":852,"쿠":853,"쿨":854,"퀘":855,"퀴":856,"퀸":857,"큐":858,"크":859,"큰":860,"클":861,"큼":862,"키":863,"킨":864,"킬":865,"킹":866,"타":867,"탁":868,"탄":869,"탈":870,"탐":871,"탑":872,"탕":873,"태":874,"택":875,"탭":876,"탱":877,"터":878,"턴":879,"털":880,"텀":881,"테":882,"텍":883,"텐":884,"텔":885,"템":886,"토":887,"톡":888,"톤":889,"통":890,"퇴":891,"투":892,"툰":893,"튀":894,"튜":895,"트":896,"특":897,"튼":898,"틀":899,"티":900,"틱":901,"틴":902,"팀":903,"팁":904,"팅":905,"파":906,"판":907,"팔":908,"팝":909,"팟":910,"팡":911,"패":912,"팩":913,"팬":914,"퍼":915,"펀":916,"페":917,"펙":918,"펜":919,"펫":920,"편":921,"평":922,"폐":923,"포":924,"폭":925,"폰":926,"폴":927,"폼":928,"표":929,"푸":930,"풀":931,"품":932,"풍":933,"퓨":934,"프":935,"픈":936,"플":937,"피":938,"픽":939,"핀":940,"필":941,"핌":942,"핑":943,"하":944,"학":945,"한":946,"할":947,"함":948,"합":949,"핫":950,"항":951,"해":952,"핵":953,"핸":954,"햄":955,"햇":956,"했":957,"행":958,"향":959,"허":960,"헌":961,"헐":962,"험":963,"헤":964,"헨":965,"헬":966,"혀":967,"혁":968,"현":969,"혈":970,"혐":971,"협":972,"형":973,"혜":974,"호":975,"혹":976,"혼":977,"홀":978,"홈":979,"홍":980,"화":981,"확":982,"환":983,"활":984,"황":985,"회":986,"획":987,"효":988,"후":989,"훈":990,"휘":991,"휴":992,"흐":993,"흑":994,"흥":995,"희":996,"히":997,"힐":998,"힘":999,"힙":1000,"고</w>":1001,"다</w>":1002,"데</w>":1003,"까</w>":1004,"글</w>":1005,"들</w>":1006,"인</w>":1007,"은</w>":1008,"나</w>":1009,"거</w>":1010,"방</w>":1011,"재</w>":1012,"노</w>":1013,"도</w>":1014,"위</w>":1015,"5</w>":1016,"터</w>":1017,"람</w>":1018,"날</w>":1019,"중</w>":1020,"면</w>":1021,"서</w>":1022,"키</w>":1023,"네</w>":1024,"음</w>":1025,"구</w>":1026,"어</w>":1027,"을</w>":1028,"때</w>":1029,"가</w>":1030,"상</w>":1031,"s</w>":1032,"주</w>":1033,"w</w>":1034,"듯</w>":1035,"준</w>":1036,"됨</w>":1037,"라</w>":1038,"ㅋ</w>":1039,"는</w>":1040,"지</w>":1041,"단</w>":1042,"야</w>":1043,"를</w>":1044,"요</w>":1045,"임</w>":1046,"로</w>":1047,"이</w>":1048,"냐</w>":1049,"끝</w>":1050,"함</w>":1051,"국</w>":1052,"아</w>":1053,"에</w>":1054,"만</w>":1055,"돼</w>":1056,"봐</w>":1057,"군</w>":1058,"시</w>":1059,"일</w>":1060,"긔</w>":1061,"줌</w>":1062,"사</w>":1063,"할</w>":1064,"송</w>":1065,"분</w>":1066,"스</w>":1067,"해</w>":1068,"션</w>":1069,"땐</w>":1070,"ㅇ</w>":1071,"좀</w>":1072,"럼</w>":1073,"e</w>":1074,"님</w>":1075,"게</w>":1076,"의</w>":1077,"러</w>":1078,"랑</w>":1079,"년</w>":1080,"ㄷ</w>":1081,"테</w>":1082,"체</w>":1083,"래</w>":1084,"죠</w>":1085,"대</w>":1086,"냄</w>":1087,"력</w>":1088,"p</w>":1089,"댕</w>":1090,"1</w>":1091,"세</w>":1092,"던</w>":1093,"자</w>":1094,"적</w>":1095,"o</w>":1096,"론</w>":1097,"d</w>":1098,"벨</w>":1099,"비</w>":1100,"여</w>":1101,"속</w>":1102,"긴</w>":1103,"건</w>":1104,"플</w>":1105,"티</w>":1106,"퀘</w>":1107,"카</w>":1108,"봄</w>":1109,"용</w>":1110,"홍</w>":1111,"리</w>":1112,"물</w>":1113,"작</w>":1114,"끼</w>":1115,"강</w>":1116,"E</w>":1117,"팀</w>":1118,"갤</w>":1119,"탈</w>":1120,"합</w>":1121,"선</w>":1122,"겨</w>":1123,"보</w>":1124,"운</w>":1125,"기</w>":1126,"쿠</w>":1127,"갑</w>":1128,"질</w>":1129,"미</w>":1130,"잇</w>":1131,"조</w>":1132,"약</w>":1133,"알</w>":1134,"본</w>":1135,"발</w>":1136,"빡</w>":1137,"겜</w>":1138,"숭</w>":1139,"친</w>":1140,"퀸</w>":1141,"r</w>":1142,"팁</w>":1143,"누</w>":1144,"전</w>":1145,"수</w>":1146,"짤</w>":1147,"병</w>":1148,"ㅠ</w>":1149,"짐</w>":1150,"너</w>":1151,"드</w>":1152,"ㅎ</w>":1153,"타</w>":1154,"페</w>":1155,"관</w>":1156,"치</w>":1157,"욱</w>":1158,"줘</w>":1159,"튀</w>":1160,"신</w>":1161,"답</w>":1162,"떡</w>":1163,"와</w>":1164,"옴</w>":1165,"습</w>":1166,"밍</w>":1167,"감</w>":1168,"련</w>":1169,"문</w>":1170,"한</w>":1171,"깐</w>":1172,"숨</w>":1173,"트</w>":1174,"안</w>":1175,"남</w>":1176,"폰</w>":1177,"격</w>":1178,"걍</w>":1179,"점</w>":1180,"L</w>":1181,"엔</w>":1182,"패</w>":1183,"A</w>":1184,"초</w>":1185,"내</w>":1186,"당</w>":1187,"원</w>":1188,"홀</w>":1189,"투</w>":1190,"곳</w>":1191,"츠</w>":1192,"검</w>":1193,"피</w>":1194,"촌</w>":1195,"봉</w>":1196,"쇼</w>":1197,"동</w>":1198,"취</w>":1199,"공</w>":1200,"놔</w>":1201,"0</w>":1202,"ㅡ</w>":1203,"니</w>":1204,"마</w>":1205,"달</w>":1206,"든</w>":1207,"팩</w>":1208,"양</w>":1209,"ㅂ</w>":1210,"려</w>":1211,"몬</w>":1212,"빠</w>":1213,"연</w>":1214,"째</w>":1215,"코</w>":1216,"컷</w>":1217,"것</w>":1218,"판</w>":1219,"녀</w>":1220,"빈</w>":1221,"오</w>":1222,"간</w>":1223,"낸</w>":1224,"y</w>":1225,"ㄴ</w>":1226,"제</w>":1227,"두</w>":1228,"과</w>":1229,"권</w>":1230,"역</w>":1231,"매</w>":1232,"떰</w>":1233,"바</w>":1234,"개</w>":1235,"킨</w>":1236,"림</w>":1237,"택</w>":1238,"삼</w>":1239,"땅</w>":1240,"필</w>":1241,"꺼</w>":1242,"블</w>":1243,"염</w>":1244,"능</w>":1245,"길</w>":1246,"천</w>":1247,"t</w>":1248,"찜</w>":1249,"닥</w>":1250,"교</w>":1251,"충</w>":1252,"쥬</w>":1253,"ㅜ</w>":1254,"몽</w>":1255,"규</w>":1256,"i</w>":1257,"랍</w>":1258,"뇌</w>":1259,"실</w>":1260,"층</w>":1261,"띠</w>":1262,"풀</w>":1263,"쿨</w>":1264,"행</w>":1265,"번</w>":1266,"ㅆ</w>":1267,"법</w>":1268,"2</w>":1269,"7</w>":1270,"망</w>":1271,"델</w>":1272,"렉</w>":1273,"영</w>":1274,"진</w>":1275,"탑</w>":1276,"O</w>":1277,"셈</w>":1278,"냥</w>":1279,"듀</w>":1280,"틱</w>":1281,"배</w>":1282,"ㅏ</w>":1283,"룹</w>":1284,"출</w>":1285,"텐</w>":1286,"각</w>":1287,"통</w>":1288,"걸</w>":1289,"식</w>":1290,"줄</w>":1291,"특</w>":1292,"황</w>":1293,"석</w>":1294,"ㅁ</w>":1295,"삭</w>":1296,"댐</w>":1297,"덜</w>":1298,"승</w>":1299,"무</w>":1300,"프</w>":1301,"셉</w>":1302,"차</w>":1303,"며</w>":1304,"르</w>":1305,"현</w>":1306,"골</w>":1307,"반</w>":1308,"탄</w>":1309,"슬</w>":1310,"직</w>":1311,"변</w>":1312,"모</w>":1313,"담</w>":1314,"집</w>":1315,"퍼</w>":1316,"a</w>":1317,"ㄹ</w>":1318,"유</w>":1319,"I</w>":1320,"x</w>":1321,"쟝</w>":1322,"정</w>":1323,"토</w>":1324,"철</w>":1325,"울</w>":1326,"포</w>":1327,"런</w>":1328,"광</w>":1329,"힘</w>":1330,"책</w>":1331,"릭</w>":1332,"쪽</w>":1333,"경</w>":1334,"심</w>":1335,"옷</w>":1336,"란</w>":1337,"궁</w>":1338,"말</w>":1339,"짝</w>":1340,"3</w>":1341,"즌</w>":1342,"쥐</w>":1343,"링</w>":1344,"록</w>":1345,"놈</w>":1346,"하</w>":1347,"털</w>":1348,"파</w>":1349,"씀</w>":1350,"l</w>":1351,"장</w>":1352,"금</w>":1353,"업</w>":1354,"챠</w>":1355,"써</w>":1356,"힐</w>":1357,"g</w>":1358,"딱</w>":1359,"짓</w>":1360,"엑</w>":1361,"늘</w>":1362,"화</w>":1363,"계</w>":1364,"듬</w>":1365,"갈</w>":1366,"캐</w>":1367,"웅</w>":1368,"큼</w>":1369,"곡</w>":1370,"혜</w>":1371,"즈</w>":1372,"칸</w>":1373,"툰</w>":1374,"뜸</w>":1375,"픽</w>":1376,"얼</w>":1377,"엉</w>":1378,"져</w>":1379,"6</w>":1380,"퇴</w>":1381,"린</w>":1382,"4</w>":1383,"버</w>":1384,"온</w>":1385,"씩</w>":1386,"별</w>":1387,"립</w>":1388,"곤</w>":1389,"난</w>":1390,"콩</w>":1391,"죄</w>":1392,"씹</w>":1393,"예</w>":1394,"M</w>":1395,"옵</w>":1396,"저</w>":1397,"셀</w>":1398,"떼</w>":1399,"딴</w>":1400,"디</w>":1401,"못</w>":1402,"ㅣ</w>":1403,"절</w>":1404,"밤</w>":1405,"팅</w>":1406,"뽀</w>":1407,"불</w>":1408,"형</w>":1409,"부</w>":1410,"태</w>":1411,"목</w>":1412,"밴</w>":1413,"추</w>":1414,"학</w>":1415,"웃</w>":1416,"켓</w>":1417,"펀</w>":1418,"편</w>":1419,"히</w>":1420,"급</w>":1421,"막</w>":1422,"ㅌ</w>":1423,"후</w>":1424,"환</w>":1425,"9</w>":1426,"명</w>":1427,"품</w>":1428,"탁</w>":1429,"레</w>":1430,"브</w>":1431,"c</w>":1432,"호</w>":1433,"창</w>":1434,"괴</w>":1435,"폐</w>":1436,"등</w>":1437,"값</w>":1438,"덱</w>":1439,"싸</w>":1440,"ㅗ</w>":1441,"독</w>":1442,"팔</w>":1443,"생</w>":1444,"소</w>":1445,"술</w>":1446,"밥</w>":1447,"잡</w>":1448,"턴</w>":1449,"애</w>":1450,"베</w>":1451,"량</w>":1452,"ㄱ</w>":1453,"센</w>":1454,"쓸</w>":1455,"D</w>":1456,"셔</w>":1457,"표</w>":1458,"렙</w>":1459,"름</w>":1460,"징</w>":1461,"메</w>":1462,"셋</w>":1463,"닝</w>":1464,"템</w>":1465,"루</w>":1466,"랩</w>":1467,"성</w>":1468,"새</w>":1469,"맛</w>":1470,"쌈</w>":1471,"T</w>":1472,"회</w>":1473,"즘</w>":1474,"압</w>":1475,"앰</w>":1476,"닉</w>":1477,"ㅅ</w>":1478,"섭</w>":1479,"김</w>":1480,"뻐</w>":1481,"산</w>":1482,"케</w>":1483,"맨</w>":1484,"따</w>":1485,"먼</w>":1486,"틀</w>":1487,"깡</w>":1488,"럭</w>":1489,"크</w>":1490,"짱</w>":1491,"설</w>":1492,"m</w>":1493,"액</w>":1494,"률</w>":1495,"돌</w>":1496,"랄</w>":1497,"맘</w>":1498,"움</w>":1499,"왕</w>":1500,"믿</w>":1501,"ㅈ</w>":1502,"콘</w>":1503,"좌</w>":1504,"종</w>":1505,"앱</w>":1506,"J</w>":1507,"류</w>":1508,"된</w>":1509,"클</w>":1510,"8</w>":1511,"꿈</w>":1512,"딩</w>":1513,"색</w>":1514,"척</w>":1515,"씨</w>":1516,"널</w>":1517,"젠</w>":1518,"께</w>":1519,"뭐</w>":1520,"율</w>":1521,"왜</w>":1522,"험</w>":1523,"입</w>":1524,"넌</w>":1525,"총</w>":1526,"극</w>":1527,"범</w>":1528,"또</w>":1529,"ㅍ</w>":1530,"꾼</w>":1531,"커</w>":1532,"더</w>":1533,"뽑</w>":1534,"올</w>":1535,"싼</w>":1536,"칩</w>":1537,"살</w>":1538,"펜</w>":1539,"쯤</w>":1540,"ㅊ</w>":1541,"캬</w>":1542,"덩</w>":1543,"탭</w>":1544,"우</w>":1545,"킹</w>":1546,"벤</w>":1547,"덕</w>":1548,"f</w>":1549,"찬</w>":1550,"북</w>":1551,"족</w>":1552,"처</w>":1553,"N</w>":1554,"암</w>":1555,"킬</w>":1556,"R</w>":1557,"른</w>":1558,"끔</w>":1559,"손</w>":1560,"혐</w>":1561,"순</w>":1562,"청</w>":1563,"결</w>":1564,"근</w>":1565,"악</w>":1566,"워</w>":1567,"엘</w>":1568,"박</w>":1569,"외</w>":1570,"잘</w>":1571,"락</w>":1572,"료</w>":1573,"붕</w>":1574,"좆</w>":1575,"퀴</w>":1576,"챔</w>":1577,"룡</w>":1578,"컵</w>":1579,"죽</w>":1580,"쉽</w>":1581,"팬</w>":1582,"싱</w>":1583,"응</w>":1584,"잼</w>":1585,"견</w>":1586,"짜</w>":1587,"언</w>":1588,"월</w>":1589,"민</w>":1590,"잉</w>":1591,"퓨</w>":1592,"렬</w>":1593,"슴</w>":1594,"빵</w>":1595,"평</w>":1596,"멘</w>":1597,"겹</w>":1598,"증</w>":1599,"머</w>":1600,"톤</w>":1601,"v</w>":1602,"컴</w>":1603,"찍</w>":1604,"옥</w>":1605,"ㅓ</w>":1606,"핌</w>":1607,"끄</w>":1608,"슈</w>":1609,"낌</w>":1610,"핑</w>":1611,"뒤</w>":1612,"뷰</w>":1613,"땡</w>":1614,"허</w>":1615,"W</w>":1616,"억</w>":1617,"샷</w>":1618,"빻</w>":1619,"백</w>":1620,"쟁</w>":1621,"접</w>":1622,"먹</w>":1623,"획</w>":1624,"얍</w>":1625,"탐</w>":1626,"굴</w>":1627,"돈</w>":1628,"침</w>":1629,"념</w>":1630,"b</w>":1631,"느</w>":1632,"엄</w>":1633,"h</w>":1634,"팟</w>":1635,"꼬</w>":1636,"n</w>":1637,"싹</w>":1638,"항</w>":1639,"솔</w>":1640,"졸</w>":1641,"램</w>":1642,"렌</w>":1643,"축</w>":1644,"완</w>":1645,"될</w>":1646,"꼴</w>":1647,"k</w>":1648,"득</w>":1649,"앙</w>":1650,"확</w>":1651,"얘</w>":1652,"익</w>":1653,"츄</w>":1654,"캡</w>":1655,"농</w>":1656,"댓</w>":1657,"없</w>":1658,"텔</w>":1659,"숙</w>":1660,"컨</w>":1661,"그</w>":1662,"쁘</w>":1663,"깅</w>":1664,"꿀</w>":1665,"잔</w>":1666,"앗</w>":1667,"찌</w>":1668,"B</w>":1669,"뮤</w>":1670,"떳</w>":1671,"릿</w>":1672,"냉</w>":1673,"S</w>":1674,"럽</w>":1675,"볼</w>":1676,"활</w>":1677,"희</w>":1678,"P</w>":1679,"쳐</w>":1680,"뱅</w>":1681,"ㅉ</w>":1682,"섬</w>":1683,"향</w>":1684,"윤</w>":1685,"엽</w>":1686,"C</w>":1687,"z</w>":1688,"랜</w>":1689,"똥</w>":1690,"톡</w>":1691,"쏘</w>":1692,"벽</w>":1693,"K</w>":1694,"몇</w>":1695,"롯</w>":1696,"샤</w>":1697,"낼</w>":1698,"훈</w>":1699,"걱</w>":1700,"귀</w>":1701,"빨</w>":1702,"튼</w>":1703,"넘</w>":1704,"딜</w>":1705,"풍</w>":1706,"싶</w>":1707,"딸</w>":1708,"H</w>":1709,"랭</w>":1710,"멜</w>":1711,"롤</w>":1712,"채</w>":1713,"칰</w>":1714,"첩</w>":1715,"뉴</w>":1716,"헨</w>":1717,"빼</w>":1718,"X</w>":1719,"틴</w>":1720,"펫</w>":1721,"V</w>":1722,"꾸</w>":1723,"븝</w>":1724,"녕</w>":1725,"덤</w>":1726,"롬</w>":1727,"멸</w>":1728,"갓</w>":1729,"깔</w>":1730,"닌</w>":1731,"참</w>":1732,"G</w>":1733,"맵</w>":1734,"혈</w>":1735,"큐</w>":1736,"둥</w>":1737,"되</w>":1738,"폴</w>":1739,"령</w>":1740,"뜬</w>":1741,"샘</w>":1742,"칭</w>":1743,"혼</w>":1744,"쎄</w>":1745,"열</w>":1746,"벌</w>":1747,"쓰</w>":1748,"잠</w>":1749,"힙</w>":1750,"탕</w>":1751,"띵</w>":1752,"폭</w>":1753,"핫</w>":1754,"뿐</w>":1755,"눈</w>":1756,"낙</w>":1757,"샌</w>":1758,"텍</w>":1759,"룸</w>":1760,"럴</w>":1761,"휴</w>":1762,"앞</w>":1763,"꿔</w>":1764,"균</w>":1765,"잦</w>":1766,"칼</w>":1767,"뷔</w>":1768,"흥</w>":1769,"큰</w>":1770,"좋</w>":1771,"닭</w>":1772,"논</w>":1773,"꾹</w>":1774,"뭔</w>":1775,"착</w>":1776,"롱</w>":1777,"옹</w>":1778,"쉬</w>":1779,"밑</w>":1780,"푸</w>":1781,"존</w>":1782,"멤</w>":1783,"욕</w>":1784,"껴</w>":1785,"춘</w>":1786,"헐</w>":1787,"엠</w>":1788,"렵</w>":1789,"컬</w>":1790,",</w>":1791,"폼</w>":1792,"슼</w>":1793,"챙</w>":1794,"슨</w>":1795,"릴</w>":1796,"핸</w>":1797,"찐</w>":1798,"섹</w>":1799,"겠</w>":1800,"썰</w>":1801,"깨</w>":1802,"칠</w>":1803,"뽕</w>":1804,"으</w>":1805,"펙</w>":1806,"복</w>":1807,"셜</w>":1808,"삐</w>":1809,"웹</w>":1810,"협</w>":1811,"헬</w>":1812,"끌</w>":1813,"u</w>":1814,"낀</w>":1815,"윈</w>":1816,"픈</w>":1817,"쓴</w>":1818,"같</w>":1819,"흑</w>":1820,"랙</w>":1821,"곧</w>":1822,"혀</w>":1823,"젤</w>":1824,"텀</w>":1825,"왓</w>":1826,"팡</w>":1827,"밸</w>":1828,"뻔</w>":1829,"빌</w>":1830,"뜨</w>":1831,"육</w>":1832,"혁</w>":1833,"휘</w>":1834,"캠</w>":1835,"밀</w>":1836,"몰</w>":1837,"팝</w>":1838,"핵</w>":1839,"뎃</w>":1840,"넷</w>":1841,"멍</w>":1842,"꼭</w>":1843,"맥</w>":1844,"빙</w>":1845,"앤</w>":1846,"찰</w>":1847,"탱</w>":1848,"썩</w>":1849,"j</w>":1850,"콤</w>":1851,"첨</w>":1852,"녹</w>":1853,"놀</w>":1854,"홈</w>":1855,"룩</w>":1856,"쩔</w>":1857,"윙</w>":1858,"엇</w>":1859,"닐</w>":1860,"읍</w>":1861,"Y</w>":1862,"헤</w>":1863,"튜</w>":1864,"웨</w>":1865,"U</w>":1866,"똑</w>":1867,"콜</w>":1868,"둘</w>":1869,"깝</w>":1870,"빅</w>":1871,"켜</w>":1872,"받</w>":1873,"콱</w>":1874,"겼</w>":1875,"핀</w>":1876,"겟</w>":1877,"뚜</w>":1878,"쌍</w>":1879,"몸</w>":1880,"봤</w>":1881,"젖</w>":1882,"떴</w>":1883,"떠</w>":1884,"흐</w>":1885,"봊</w>":1886,"F</w>":1887,"넥</w>":1888,"있</w>":1889,"룰</w>":1890,"했</w>":1891,"효</w>":1892,"슷</w>":1893,"녁</w>":1894,"혹</w>":1895,"낮</w>":1896,"략</w>":1897,"헌</w>":1898,"뿌</w>":1899,"늒</w>":1900,"=</w>":1901,"벅</w>":1902,"멀</w>":1903,"앨</w>":1904,"롭</w>":1905,"뭘</w>":1906,"뿡</w>":1907,"즐</w>":1908,"햄</w>":1909,"밋</w>":1910,"떤</w>":1911,"꽃</w>":1912,"굿</w>":1913,"옆</w>":1914,"갱</w>":1915,"빛</w>":1916,"첫</w>":1917,"십</w>":1918,"^</w>":1919,"좃</w>":1920,"쁜</w>":1921,"찮</w>":1922,"<</w>":1923,"쳤</w>":1924,"싫</w>":1925,"(</w>":1926,"떨</w>":1927,"낫</w>":1928,"쩌</w>":1929,"뚫</w>":1930,"않</w>":1931,"최</w>":1932,"묻</w>":1933,":</w>":1934,"앚</w>":1935,"땜</w>":1936,"엿</w>":1937,"밖</w>":1938,"햇</w>":1939,"괜</w>":1940,"았</w>":1941,"갔</w>":1942,"왔</w>":1943,"잖</w>":1944,"졌</w>":1945,"늦</w>":1946,"갖</w>":1947,"랐</w>":1948,"찾</w>":1949,"줬</w>":1950,"많</w>":1951,"멋</w>":1952,"뛰</w>":1953,"겁</w>":1954,"@</w>":1955,"듣</w>":1956,"맞</w>":1957,"옛</w>":1958,"]</w>":1959,"밌</w>":1960,"붙</w>":1961,"짭</w>":1962,"[</w>":1963,"였</w>":1964,"%</w>":1965,"높</w>":1966,")</w>":1967,"었</w>":1968,"></w>":1969,"겆</w>":1970,"렸</w>":1971,"뒷</w>":1972,"쟤</w>":1973,"#</w>":1974,"/</w>":1975,"됐</w>":1976,"&</w>":1977,"+</w>":1978,".</w>":1979,"닮</w>":1980,"읽</w>":1981,"-</w>":1982,"왤</w>":1983,"~</w>":1984,"\"</w>":1985,"_</w>":1986,";</w>":1987,"'</w>":1988,"!</w>":1989,"?</w>":1990,"ㅋㅋ":1991,"ㅋㅋㅋㅋ":1992,"는데</w>":1993,"ㅋㅋ</w>":1994,"ㅋㅋㅋㅋㅋㅋㅋㅋ":1995,"ㅋㅋㅋ</w>":1996,"에서</w>":1997,"진짜</w>":1998,"근데</w>":1999,"으로</w>":2000,"하는":2001,"ㅋㅋㅋㅋ</w>":2002,"아니":2003,"인데</w>":2004,"으면</w>":2005,"오늘</w>":2006,"하는</w>":2007,"새끼":2008,"이거</w>":2009,"하면</w>":2010,"00":2011,"니까</w>":2012,"는거</w>":2013,"존나</w>":2014,"는거":2015,"ㄹㅇ</w>":2016,"하고</w>":2017,"나오":2018,"pg</w>":2019,"jpg</w>":2020,"고싶":2021,"지금</w>":2022,"들은</w>":2023,"생각":2024,"같은":2025,"시발</w>":2026,"이랑</w>":2027,"니다</w>":2028,"들이</w>":2029,"ㅋㅋㅋㅋㅋ</w>":2030,"다고</w>":2031,"ㄷㄷ":2032,"라고</w>":2033,"한테</w>":2034,"보다</w>":2035,"ㅡㅡ":2036,"들아</w>":2037,"들어":2038,"10":2039,"하네</w>":2040,"아이":2041,"있음</w>":2042,"까지</w>":2043,"는게</w>":2044,"레이":2045,"너무</w>":2046,"씨발</w>":2047,"사람":2048,"하냐</w>":2049,"아니</w>":2050,"오늘":2051,"그냥</w>":2052,"20":2053,"사람</w>":2054,"이제</w>":2055,"해서</w>":2056,"이네</w>":2057,"보면</w>":2058,"면서</w>":2059,"해야":2060,"이유</w>":2061,"부터</w>":2062,"어디":2063,"ㅋㅋㅋㅋㅋㅋ</w>":2064,"vs</w>":2065,"새끼</w>":2066,"라이":2067,"아님</w>":2068,"ㅋㅋㅋㅋㅋㅋㅋㅋㅋㅋㅋㅋㅋㅋㅋㅋ":2069,"보고</w>":2070,"요즘</w>":2071,"존나":2072,"있냐</w>":2073,"병신":2074,"그래":2075,"솔직":2076,"하게</w>":2077,"겠다</w>":2078,"ㅅㅂ</w>":2079,"솔직히</w>":2080,"같음</w>":2081,"하는데</w>":2082,"이냐</w>":2083,"ㅇㅇ</w>":2084,"내가</w>":2085,"했는데</w>":2086,"이면</w>":2087,"새끼들</w>":2088,"좋아":2089,"거임</w>":2090,"어떻":2091,"던데</w>":2092,"다가</w>":2093,"이야</w>":2094,"같은데</w>":2095,"렇게</w>":2096,"ㅅㅅ":2097,"재밌":2098,"리는</w>":2099,"이다</w>":2100,"여자":2101,"중에</w>":2102,"이라":2103,"하나":2104,"같은</w>":2105,"갤러":2106,"안되":2107,"ㅋㅋㅋㅋㅋㅋㅋ</w>":2108,"스트":2109,"ㄷㄷ</w>":2110,"가능":2111,"이나</w>":2112,"지않":2113,"얼마":2114,"해도</w>":2115,"추천":2116,"시간":2117,"언제":2118,"정도":2119,"한다</w>":2120,"이번":2121,"애들</w>":2122,"아니냐</w>":2123,"었는데</w>":2124,"제일</w>":2125,"씨발":2126,"고싶다</w>":2127,"하지</w>":2128,"이상":2129,"더라</w>":2130,"좋은":2131,"이지</w>":2132,"님들</w>":2133,"30":2134,"하는거</w>":2135,"하나</w>":2136,"11":2137,"붕이</w>":2138,"세요</w>":2139,"하다</w>":2140,"ㅠㅠ":2141,"시간</w>":2142,"없음</w>":2143,"나도</w>":2144,"어서</w>":2145,"해주":2146,"모르":2147,"이거":2148,"이가</w>":2149,"나는</w>":2150,"gi":2151,"어떻게</w>":2152,"누구":2153,"잖아</w>":2154,"우리":2155,"12":2156,"지만</w>":2157,"있는</w>":2158,"스트</w>":2159,"ㅋㅋㅋㅋㅋㅋㅋㅋ</w>":2160,"gif</w>":2161,"시작":2162,"야지</w>":2163,"이벤":2164,"지금":2165,"거같":2166,"이는</w>":2167,"소리":2168,"전에</w>":2169,"아무":2170,"을까</w>":2171,"어케":2172,"게임":2173,"많이</w>":2174,"붕이":2175,"는건</w>":2176,"이유":2177,"어제</w>":2178,"있는데</w>":2179,"이번</w>":2180,"ㅡㅡㅡㅡ":2181,"인가</w>":2182,"뭐냐</w>":2183,"한거</w>":2184,"스타":2185,"자기</w>":2186,"나왔":2187,"올라":2188,"15":2189,"방송":2190,"여기":2191,"내일</w>":2192,"겠지</w>":2193,"거냐</w>":2194,"겠네</w>":2195,"보니까</w>":2196,"이런":2197,"보니</w>":2198,"이렇게</w>":2199,"만에</w>":2200,"구나</w>":2201,"아서</w>":2202,"다는</w>":2203,"뭐임</w>":2204,"누가</w>":2205,"했다</w>":2206,"스토":2207,"아닌":2208,"어도</w>":2209,"같이</w>":2210,"한데</w>":2211,"말고</w>":2212,"은데</w>":2213,"때문":2214,"시발":2215,"지는</w>":2216,"이게</w>":2217,"100":2218,"웃기":2219,"처럼</w>":2220,"가면</w>":2221,"아직":2222,"려고</w>":2223,"없는</w>":2224,"게임</w>":2225,"ㅠㅠ</w>":2226,"았는데</w>":2227,"뉴비</w>":2228,"다시</w>":2229,"제발</w>":2230,"것도</w>":2231,"친구":2232,"레이드</w>":2233,"사이":2234,"레전":2235,"봤는데</w>":2236,"마다</w>":2237,"더니</w>":2238,"나요</w>":2239,"나옴</w>":2240,"리고</w>":2241,"질문":2242,"습니다</w>":2243,"200":2244,"하노</w>":2245,"애미":2246,"남자":2247,"없냐</w>":2248,"50":2249,"이라</w>":2250,"괜찮":2251,"문제":2252,"대로</w>":2253,"알려":2254,"좆같":2255,"원래</w>":2256,"한국":2257,"냐고</w>":2258,"만들":2259,"왤케</w>":2260,"ㄷㄷㄷㄷ":2261,"가능</w>":2262,"되냐</w>":2263,"지랄":2264,"스타</w>":2265,"프리":2266,"는거임</w>":2267,"메이":2268,"방송</w>":2269,"어요</w>":2270,"ㅋㅋㅋㅋㅋㅋㅋㅋㅋ</w>":2271,"캐릭":2272,"그래도</w>":2273,"돌아":2274,"가서</w>":2275,"고있":2276,"하지":2277,"ㄹㅇ":2278,"갑자기</w>":2279,"라도</w>":2280,"건데</w>":2281,"질문</w>":2282,"할때</w>":2283,"대체</w>":2284,"vs":2285,"유튜":2286,"프로":2287,"염보":2288,"적으로</w>":2289,"려면</w>":2290,"거야</w>":2291,"그래서</w>":2292,"무슨</w>":2293,"너무":2294,"에서":2295,"해라</w>":2296,"기가</w>":2297,"보이":2298,"18":2299,"때문에</w>":2300,"다니":2301,"합니다</w>":2302,"다음":2303,"이었":2304,"하는게</w>":2305,"본인</w>":2306,"ㅈㄴ</w>":2307,"나온":2308,"ㅌㅊ":2309,"추천좀</w>":2310,"13":2311,"ㅌㅊ</w>":2312,"그러":2313,"진짜":2314,"기는</w>":2315,"아직도</w>":2316,"사진</w>":2317,"와서</w>":2318,"리가</w>":2319,"언제</w>":2320,"있었":2321,"좋음</w>":2322,"간다</w>":2323,"가지":2324,"리네</w>":2325,"하루":2326,"우리</w>":2327,"밖에</w>":2328,"여기</w>":2329,"일본":2330,"뭐야</w>":2331,"궁금":2332,"없네</w>":2333,"린이</w>":2334,"좋겠다</w>":2335,"리면</w>":2336,"노래":2337,"사실</w>":2338,"다이":2339,"나올":2340,"나오면</w>":2341,"이쁘":2342,"20</w>":2343,"받아":2344,"인증</w>":2345,"노래</w>":2346,"떨어":2347,"한거":2348,"갤러리</w>":2349,"사랑":2350,"빨리</w>":2351,"가는</w>":2352,"정신":2353,"라는</w>":2354,"ㅈㄴ":2355,"하면서</w>":2356,"인증":2357,"그런":2358,"이런</w>":2359,"브이":2360,"투표":2361,"tx":2362,"올려":2363,"17":2364,"어떰</w>":2365,"을때</w>":2366,"갤에</w>":2367,"네요</w>":2368,"뉴비":2369,"필요":2370,"이라고</w>":2371,"16":2372,"았다</w>":2373,"머리":2374,"하니까</w>":2375,"계속</w>":2376,"지가</w>":2377,"미친":2378,"념글</w>":2379,"한게</w>":2380,"txt</w>":2381,"정도</w>":2382,"봐도</w>":2383,"한번":2384,"으로":2385,"들도</w>":2386,"ㅋㅋㅋㅋㅋㅋㅋㅋㅋㅋ</w>":2387,"정도면</w>":2388,"14":2389,"가요</w>":2390,"기대":2391,"다른":2392,"마지":2393,"이고</w>":2394,"야함</w>":2395,"영상</w>":2396,"하는거":2397,"은거</w>":2398,"데이":2399,"시즌":2400,"많이":2401,"보네</w>":2402,"게이":2403,"드는</w>":2404,"케이":2405,"소바</w>":2406,"이벤트</w>":2407,"마이":2408,"잘생":2409,"마라</w>":2410,"나가":2411,"다시":2412,"왜이":2413,"아직</w>":2414,"있네</w>":2415,"귀여":2416,"아니라</w>":2417,"보는</w>":2418,"었다</w>":2419,"확실":2420,"바로</w>":2421,"있으면</w>":2422,"보고":2423,"되면</w>":2424,"만원":2425,"나만</w>":2426,"이해":2427,"다들</w>":2428,"자꾸</w>":2429,"저거</w>":2430,"마갤</w>":2431,"그럼</w>":2432,"재미":2433,"에게</w>":2434,"할까</w>":2435,"뭐가</w>":2436,"맞음</w>":2437,"머리</w>":2438,"있는":2439,"ㅡㅡ</w>":2440,"지않냐</w>":2441,"얼마나</w>":2442,"했네</w>":2443,"한다":2444,"냐들</w>":2445,"놓고</w>":2446,"주는</w>":2447,"니들</w>":2448,"이기":2449,"사가</w>":2450,"사기":2451,"소리</w>":2452,"무조":2453,"갤에서</w>":2454,"라인":2455,"봐라</w>":2456,"일러":2457,"방금</w>":2458,"ㄱㄱ":2459,"네이":2460,"처음":2461,"하기</w>":2462,"수가</w>":2463,"입니다</w>":2464,"이유가</w>":2465,"40":2466,"10</w>":2467,"는다</w>":2468,"없는데</w>":2469,"에도</w>":2470,"보는데</w>":2471,"있어</w>":2472,"진지":2473,"나서</w>":2474,"때마다</w>":2475,"먹고</w>":2476,"않냐</w>":2477,"동안</w>":2478,"하자</w>":2479,"는거냐</w>":2480,"보내":2481,"여자</w>":2482,"ㅅㅅㅅㅅ":2483,"가이":2484,"없다</w>":2485,"입갤</w>":2486,"설쉬</w>":2487,"드디":2488,"뭔가</w>":2489,"없이</w>":2490,"거같은데</w>":2491,"경기</w>":2492,"이건</w>":2493,"스는</w>":2494,"그리":2495,"가장</w>":2496,"그만":2497,"같다</w>":2498,"19":2499,"너네</w>":2500,"애들은</w>":2501,"키우":2502,"오면</w>":2503,"느낌":2504,"만들어":2505,"속보</w>":2506,"인지</w>":2507,"쓰레":2508,"끝나":2509,"된다</w>":2510,"에는</w>":2511,"하고":2512,"없는":2513,"까지":2514,"맞지</w>":2515,"시즌</w>":2516,"왔다</w>":2517,"어디서</w>":2518,"좋은</w>":2519,"지네</w>":2520,"13</w>":2521,"싶다</w>":2522,"스토리</w>":2523,"역시</w>":2524,"거같음</w>":2525,"으니까</w>":2526,"스가</w>":2527,"얼굴":2528,"린다</w>":2529,"무조건</w>":2530,"드디어</w>":2531,"사는</w>":2532,"안됨</w>":2533,"페이":2534,"년들</w>":2535,"미쳤":2536,"있다</w>":2537,"치는</w>":2538,"얘기":2539,"무슨":2540,"싫어":2541,"레전드</w>":2542,"갤주</w>":2543,"어케</w>":2544,"는지</w>":2545,"주세요</w>":2546,"쓰는</w>":2547,"려나</w>":2548,"올리":2549,"우승":2550,"같은거</w>":2551,"만원</w>":2552,"어야":2553,"ㅅㅂ":2554,"서울":2555,"웃기네</w>":2556,"근황</w>":2557,"되는</w>":2558,"와이":2559,"해보":2560,"오늘은</w>":2561,"길래</w>":2562,"뭔데</w>":2563,"올해</w>":2564,"레이드":2565,"나이":2566,"아는</w>":2567,"이름":2568,"인거</w>":2569,"왔는데</w>":2570,"철구":2571,"데려":2572,"없어</w>":2573,"거면</w>":2574,"특징</w>":2575,"경기":2576,"이러":2577,"선수":2578,"하고싶":2579,"한번</w>":2580,"건가</w>":2581,"니깐</w>":2582,"아아":2583,"누나</w>":2584,"는데":2585,"최고":2586,"정상":2587,"거지</w>":2588,"대가":2589,"무기</w>":2590,"지면</w>":2591,"코로":2592,"내일":2593,"ㄷㄷㄷ</w>":2594,"에이":2595,"마스":2596,"마리":2597,"실화":2598,"이노</w>":2599,"프레":2600,"오르":2601,"일러</w>":2602,"혹시</w>":2603,"ㅋㅋㅋㅋㅋㅋㅋㅋㅋㅋㅋ</w>":2604,"오랜":2605,"했음</w>":2606,"인이</w>":2607,"어느":2608,"붕이들</w>":2609,"60":2610,"놈들</w>":2611,"별로":2612,"보은":2613,"고민":2614,"사진":2615,"평가":2616,"시키":2617,"결국</w>":2618,"을듯</w>":2619,"주면</w>":2620,"준다</w>":2621,"했으면</w>":2622,"ㅋㅋㅋ":2623,"생각해":2624,"지도</w>":2625,"텐데</w>":2626,"바다</w>":2627,"좋겠":2628,"추천</w>":2629,"잘못":2630,"귀엽":2631,"머임</w>":2632,"일어":2633,"시에</w>":2634,"실분</w>":2635,"있지</w>":2636,"진지하게</w>":2637,"ㅇㅇ":2638,"이제":2639,"었네</w>":2640,"알아":2641,"어떻게":2642,"70":2643,"다는데</w>":2644,"애니":2645,"형들</w>":2646,"서버</w>":2647,"요즘":2648,"적인</w>":2649,"할수":2650,"념글":2651,"좋아</w>":2652,"공부":2653,"노트":2654,"다른</w>":2655,"ㅅㅌㅊ":2656,"바이":2657,"지지":2658,"그렇게</w>":2659,"신기":2660,"이야":2661,"확실히</w>":2662,"생겼":2663,"500":2664,"성이</w>":2665,"트위":2666,"수영":2667,"운동":2668,"다음</w>":2669,"벌써</w>":2670,"애들":2671,"한다고</w>":2672,"드립":2673,"살아":2674,"로아</w>":2675,"이라도</w>":2676,"나네</w>":2677,"려서</w>":2678,"해야지</w>":2679,"ㅁㅌㅊ</w>":2680,"는거야</w>":2681,"복귀":2682,"후기</w>":2683,"유진</w>":2684,"기분":2685,"ㅜㅜ</w>":2686,"되네</w>":2687,"패치":2688,"기다":2689,"자기":2690,"카드</w>":2691,"문경":2692,"설x</w>":2693,"오늘도</w>":2694,"없지</w>":2695,"일단</w>":2696,"22":2697,"인듯</w>":2698,"아니면</w>":2699,"ㅎㅎ</w>":2700,"는중</w>":2701,"보단</w>":2702,"힘들":2703,"디시":2704,"캐릭</w>":2705,"트로":2706,"같네</w>":2707,"안나오":2708,"으니</w>":2709,"코스":2710,"먹을":2711,"트레이드</w>":2712,"새끼들은</w>":2713,"치고</w>":2714,"친구</w>":2715,"신캐</w>":2716,"언냐들</w>":2717,"이번에</w>":2718,"만화</w>":2719,"보여":2720,"김태":2721,"이였":2722,"중요":2723,"그거</w>":2724,"어떤":2725,"ㅋㅋㅋㅋㅋㅋㅋㅋㅋㅋㅋㅋ</w>":2726,"는거지</w>":2727,"씨젠</w>":2728,"인기":2729,"행복":2730,"모르겠":2731,"인터":2732,"없으면</w>":2733,"거리":2734,"퀴들</w>":2735,"노잼":2736,"좋다</w>":2737,"만나":2738,"주고</w>":2739,"그림":2740,"파이":2741,"in":2742,"나와":2743,"었음</w>":2744,"차단":2745,"컨텐":2746,"보고싶":2747,"문재":2748,"해야</w>":2749,"돌리":2750,"쓰면</w>":2751,"한테":2752,"어려":2753,"영상":2754,"사람이</w>":2755,"12</w>":2756,"어차":2757,"초에</w>":2758,"의외":2759,"하기":2760,"한남":2761,"여기서</w>":2762,"민주":2763,"얼굴</w>":2764,"하다가</w>":2765,"개좆":2766,"이상</w>":2767,"고닉":2768,"사라":2769,"정리":2770,"쓰레기":2771,"요새</w>":2772,"인생":2773,"기사":2774,"방법</w>":2775,"아침":2776,"싸우":2777,"25":2778,"가져":2779,"개인":2780,"새벽":2781,"이도</w>":2782,"기사</w>":2783,"라면</w>":2784,"바꾸":2785,"어쩌":2786,"같아</w>":2787,"하겠":2788,"삭제":2789,"할만":2790,"시켜":2791,"왜케</w>":2792,"유진":2793,"일차</w>":2794,"부르":2795,"철구</w>":2796,"투표</w>":2797,"80":2798,"남자</w>":2799,"들어가":2800,"중국":2801,"애들이</w>":2802,"라이브</w>":2803,"해줘</w>":2804,"ㅠㅠㅠㅠ":2805,"섹스":2806,"에선</w>":2807,"네ㅋㅋ</w>":2808,"먹음</w>":2809,"300":2810,"없어":2811,"있나</w>":2812,"넘어":2813,"다면</w>":2814,"맨날</w>":2815,"식이</w>":2816,"오랜만에</w>":2817,"어차피</w>":2818,"맞냐</w>":2819,"비슷":2820,"세계":2821,"에어":2822,"성공":2823,"년에</w>":2824,"드라":2825,"아니고</w>":2826,"어렵":2827,"카드":2828,"리아</w>":2829,"갤주":2830,"유니":2831,"려는데</w>":2832,"선택":2833,"찐따":2834,"걸로</w>":2835,"꼴리":2836,"물어":2837,"스카":2838,"개꿀":2839,"자체":2840,"가축":2841,"댓글":2842,"무기":2843,"실화냐</w>":2844,"불쌍":2845,"아는":2846,"아야":2847,"차이</w>":2848,"선수</w>":2849,"아냐</w>":2850,"새끼가</w>":2851,"스크":2852,"이겜</w>":2853,"팩트</w>":2854,"까요</w>":2855,"스킬":2856,"좋네</w>":2857,"대기":2858,"대단":2859,"하이":2860,"21":2861,"드컵</w>":2862,"얘들아</w>":2863,"따라":2864,"축하":2865,"레전드":2866,"ㄱㄱ</w>":2867,"오지":2868,"할듯</w>":2869,"소리바다</w>":2870,"24":2871,"먹어":2872,"보통</w>":2873,"새끼들아</w>":2874,"줌마":2875,"이새끼</w>":2876,"하다":2877,"계정</w>":2878,"되는데</w>":2879,"서버":2880,"ㅅㅅ</w>":2881,"도와":2882,"애니</w>":2883,"그렇":2884,"일본</w>":2885,"지고</w>":2886,"브이앱</w>":2887,"재밋":2888,"찾아":2889,"보은왔":2890,"좋은데</w>":2891,"자마":2892,"진각":2893,"보는":2894,"추가":2895,"갤은</w>":2896,"자가</w>":2897,"병신</w>":2898,"콜라":2899,"리스":2900,"유튜브</w>":2901,"버그":2902,"모음</w>":2903,"없어서</w>":2904,"거의</w>":2905,"민이</w>":2906,"야구":2907,"돌려":2908,"이들</w>":2909,"차이":2910,"많네</w>":2911,"알바":2912,"중인데</w>":2913,"좋아하는</w>":2914,"누가":2915,"스밍":2916,"생일":2917,"하면":2918,"고닉</w>":2919,"공지</w>":2920,"리냐</w>":2921,"새끼들":2922,"2주":2923,"타이":2924,"워서</w>":2925,"니가</w>":2926,"라고":2927,"인간":2928,"아닌데</w>":2929,"게이</w>":2930,"결혼":2931,"그림</w>":2932,"노무":2933,"마지막":2934,"자나</w>":2935,"호감":2936,"생각보다</w>":2937,"는듯</w>":2938,"옛날":2939,"수록</w>":2940,"아까</w>":2941,"어그":2942,"이름</w>":2943,"학교":2944,"나오는</w>":2945,"근본":2946,"질문좀</w>":2947,"떡밥":2948,"부터":2949,"빼고</w>":2950,"찬이</w>":2951,"ea":2952,"고소":2953,"장현":2954,"라라":2955,"받음</w>":2956,"알았":2957,"인생</w>":2958,"무서":2959,"스터</w>":2960,"시상":2961,"캬루</w>":2962,"하는건</w>":2963,"ㅇㅈ</w>":2964,"광고</w>":2965,"의외로</w>":2966,"맞추":2967,"트는</w>":2968,"만화":2969,"애초에</w>":2970,"이긔</w>":2971,"가지고</w>":2972,"자마자</w>":2973,"않음</w>":2974,"어제":2975,"모드</w>":2976,"빨리":2977,"나보네</w>":2978,"내려":2979,"마음":2980,"점검":2981,"정말</w>":2982,"엘마</w>":2983,"유저":2984,"치면</w>":2985,"가슴":2986,"기억":2987,"안함</w>":2988,"하는거임</w>":2989,"ㅇㅈ":2990,"세계</w>":2991,"여친":2992,"이미":2993,"사람들</w>":2994,"만드":2995,"정리</w>":2996,"결과</w>":2997,"어떤</w>":2998,"프로</w>":2999,"없나</w>":3000,"이쁜":3001,"진심</w>":3002,"페미":3003,"정보</w>":3004,"확정":3005,"레이</w>":3006,"나오네</w>":3007,"스터":3008,"씹덕":3009,"광고":3010,"마렵":3011,"이미</w>":3012,"나가</w>":3013,"입갤":3014,"아이즈":3015,"쓰는":3016,"같이":3017,"라서</w>":3018,"바르":3019,"사실":3020,"장이</w>":3021,"지원":3022,"눈나</w>":3023,"주인":3024,"영이</w>":3025,"진다</w>":3026,"보지":3027,"클리":3028,"던거</w>":3029,"에서도</w>":3030,"주식":3031,"피셜</w>":3032,"오는</w>":3033,"보고싶다</w>":3034,"오늘의</w>":3035,"니네</w>":3036,"먹었":3037,"도대체</w>":3038,"스포":3039,"우스</w>":3040,"ㅋㅋㅋㅋㅋㅋㅋㅋㅋㅋㅋㅋㅋ</w>":3041,"새끼는</w>":3042,"염보성</w>":3043,"보자</w>":3044,"준비":3045,"다르":3046,"소환":3047,"알았는데</w>":3048,"인정":3049,"가야":3050,"긴함</w>":3051,"댓글</w>":3052,"ㅏㅏ":3053,"실시간</w>":3054,"의미":3055,"많음</w>":3056,"버리":3057,"별로</w>":3058,"어울":3059,"졌네</w>":3060,"충들</w>":3061,"제로</w>":3062,"해야함</w>":3063,"아도</w>":3064,"새끼들이</w>":3065,"관련</w>":3066,"어야</w>":3067,"받고</w>":3068,"삼성":3069,"라인</w>":3070,"먹는</w>":3071,"바꿔":3072,"틀딱":3073,"패치</w>":3074,"하니</w>":3075,"선발":3076,"시청":3077,"올해":3078,"자리</w>":3079,"때는</w>":3080,"새기":3081,"수비":3082,"열심":3083,"23":3084,"현재</w>":3085,"김치":3086,"수는</w>":3087,"안나":3088,"오프":3089,"틀드":3090,"순위</w>":3091,"어캐":3092,"생기":3093,"이정도면</w>":3094,"누구</w>":3095,"되는":3096,"일반":3097,"애들아</w>":3098,"트가</w>":3099,"떡상":3100,"여러":3101,"이형</w>":3102,"처음</w>":3103,"수도</w>":3104,"떡밥</w>":3105,"응원":3106,"지마</w>":3107,"현실":3108,"있을":3109,"어떡":3110,"원이</w>":3111,"인은</w>":3112,"있는거</w>":3113,"자살":3114,"구함</w>":3115,"다고":3116,"상관":3117,"보기</w>":3118,"정지":3119,"아무리</w>":3120,"기안":3121,"늒네</w>":3122,"시스":3123,"영화":3124,"좆망":3125,"좆같네</w>":3126,"시긔</w>":3127,"안되냐</w>":3128,"강화":3129,"애미</w>":3130,"마가</w>":3131,"새로":3132,"전부</w>":3133,"만큼</w>":3134,"보상</w>":3135,"예쁘":3136,"에픽":3137,"샘슨</w>":3138,"요일":3139,"절대</w>":3140,"정치":3141,"한국</w>":3142,"둘다</w>":3143,"않았":3144,"무료":3145,"보임</w>":3146,"에요</w>":3147,"갤이</w>":3148,"나랑</w>":3149,"돼지":3150,"퇴근":3151,"지않음</w>":3152,"나면</w>":3153,"만한</w>":3154,"보스":3155,"본다</w>":3156,"엄청</w>":3157,"오래":3158,"온다</w>":3159,"대는</w>":3160,"부탁":3161,"ㅡㅡㅡㅡㅡㅡㅡㅡ":3162,"슬슬</w>":3163,"아라</w>":3164,"한건</w>":3165,"시리":3166,"일까</w>":3167,"설X</w>":3168,"오네</w>":3169,"지만":3170,"해줘":3171,"내가":3172,"존버":3173,"인스타</w>":3174,"비교":3175,"언급":3176,"조선":3177,"마지막</w>":3178,"많은":3179,"미국":3180,"던파</w>":3181,"성은</w>":3182,"하긔</w>":3183,"가라</w>":3184,"가지</w>":3185,"여름":3186,"와꾸":3187,"좋냐</w>":3188,"하고싶다</w>":3189,"준이</w>":3190,"해요</w>":3191,"캐릭터</w>":3192,"으면":3193,"PG</w>":3194,"웃긴":3195,"14</w>":3196,"나오냐</w>":3197,"쓰냐</w>":3198,"앞으로</w>":3199,"19</w>":3200,"블루":3201,"사면</w>":3202,"했어</w>":3203,"코로나</w>":3204,"그룹</w>":3205,"근첩":3206,"들한테</w>":3207,"혼자</w>":3208,"계정":3209,"링크</w>":3210,"이지":3211,"있을까</w>":3212,"2008":3213,"유튜브":3214,"같냐</w>":3215,"거나</w>":3216,"시절</w>":3217,"아닐":3218,"포인":3219,"문경찬</w>":3220,"년아</w>":3221,"말이</w>":3222,"쓰고</w>":3223,"유동":3224,"주냐</w>":3225,"애미뒤":3226,"승리":3227,"8월</w>":3228,"자는</w>":3229,"되지</w>":3230,"나라":3231,"얘기</w>":3232,"자고</w>":3233,"크로":3234,"드가</w>":3235,"무섭":3236,"가는":3237,"갈아":3238,"제가</w>":3239,"잇음</w>":3240,"나라</w>":3241,"야됨</w>":3242,"대가</w>":3243,"도안":3244,"선발</w>":3245,"운데</w>":3246,"아이돌":3247,"떴다</w>":3248,"리스</w>":3249,"감독":3250,"져서</w>":3251,"이벤트":3252,"인증왔":3253,"가네</w>":3254,"였음</w>":3255,"베르":3256,"신캐":3257,"짜리</w>":3258,"주라</w>":3259,"대통":3260,"직업":3261,"아이돌</w>":3262,"겠노</w>":3263,"중계":3264,"하게":3265,"가냐</w>":3266,"가자</w>":3267,"이런거</w>":3268,"공격":3269,"느낌</w>":3270,"부럽":3271,"저렇게</w>":3272,"하긴</w>":3273,"90":3274,"받았":3275,"입장":3276,"ㄷㄷㄷㄷ</w>":3277,"가격":3278,"문제</w>":3279,"소바":3280,"홍어":3281,"가챠":3282,"스킬</w>":3283,"은근</w>":3284,"자리":3285,"진각</w>":3286,"거르":3287,"난다</w>":3288,"배우":3289,"분위":3290,"시는</w>":3291,"어떠":3292,"했냐</w>":3293,"가능함</w>":3294,"JPG</w>":3295,"고양":3296,"라리</w>":3297,"많은</w>":3298,"생각</w>":3299,"영화</w>":3300,"관심":3301,"여친</w>":3302,"학교</w>":3303,"미친</w>":3304,"수준</w>":3305,"데이트</w>":3306,"네이마":3307,"그룹":3308,"어때</w>":3309,"대충</w>":3310,"챔스</w>":3311,"15</w>":3312,"하던데</w>":3313,"오늘자</w>":3314,"땜에</w>":3315,"인싸":3316,"인게</w>":3317,"패키":3318,"합격":3319,"어디서":3320,"미래":3321,"하루</w>":3322,"경원":3323,"되나</w>":3324,"끝났":3325,"때까지</w>":3326,"인가":3327,"플레이":3328,"형님들</w>":3329,"100</w>":3330,"골드</w>":3331,"미안":3332,"베이":3333,"보기":3334,"아레":3335,"주네</w>":3336,"확률</w>":3337,"30</w>":3338,"연습":3339,"인방":3340,"있노</w>":3341,"제일":3342,"파티":3343,"수영복</w>":3344,"나온</w>":3345,"도배":3346,"스킨</w>":3347,"스토리":3348,"기본":3349,"되는거</w>":3350,"보면서</w>":3351,"가격</w>":3352,"겟다</w>":3353,"과금":3354,"때가</w>":3355,"없고</w>":3356,"짜증":3357,"ㅋㅋㅋㅋㅋㅋㅋㅋㅋㅋㅋㅋㅋㅋ</w>":3358,"하세요</w>":3359,"아무도</w>":3360,"는법</w>":3361,"대로":3362,"이벤</w>":3363,"스트리":3364,"들을</w>":3365,"보냐</w>":3366,"이후":3367,"볼까</w>":3368,"영웅":3369,"왜이리</w>":3370,"ㅂㅅ":3371,"너네":3372,"드리":3373,"보상":3374,"1위</w>":3375,"버그</w>":3376,"비트":3377,"축구":3378,"케이</w>":3379,"공개":3380,"달라":3381,"좆같은</w>":3382,"하더라</w>":3383,"기준</w>":3384,"으면서</w>":3385,"주의</w>":3386,"세상":3387,"였는데</w>":3388,"000":3389,"그나":3390,"네ㅋㅋㅋ</w>":3391,"못함</w>":3392,"코인</w>":3393,"다행":3394,"버렸":3395,"비틱":3396,"웨이":3397,"이어":3398,"아니지</w>":3399,"새끼야</w>":3400,"걱정":3401,"꼬마</w>":3402,"드림</w>":3403,"비비":3404,"예상":3405,"키워":3406,"ㅅㅌㅊ</w>":3407,"공지":3408,"대한</w>":3409,"추가</w>":3410,"다는":3411,"무시":3412,"수준":3413,"스러":3414,"스티":3415,"연애":3416,"예전에</w>":3417,"사람은</w>":3418,"스피":3419,"신고":3420,"자러":3421,"쳐맞":3422,"1위":3423,"상황</w>":3424,"하던</w>":3425,"1년":3426,"들의</w>":3427,"역대":3428,"2020</w>":3429,"느끼":3430,"아시":3431,"차라리</w>":3432,"갤러리":3433,"갔는데</w>":3434,"생긴":3435,"선생":3436,"인줄</w>":3437,"가는데</w>":3438,"거래":3439,"만함</w>":3440,"점검</w>":3441,"전화":3442,"조용":3443,"쿠폰</w>":3444,"아카":3445,"일이</w>":3446,"커여":3447,"끼리</w>":3448,"먹으면</w>":3449,"빠는</w>":3450,"만든":3451,"한달":3452,"거지":3453,"아가":3454,"씨발련":3455,"블랙":3456,"와이스</w>":3457,"갤러</w>":3458,"아프":3459,"저번":3460,"11</w>":3461,"기만":3462,"티어":3463,"때도</w>":3464,"치킨":3465,"평가</w>":3466,"00</w>":3467,"아가</w>":3468,"어디</w>":3469,"였네</w>":3470,"응애</w>":3471,"트리":3472,"나와</w>":3473,"심심":3474,"해줌</w>":3475,"v4</w>":3476,"급식":3477,"남았":3478,"신인":3479,"염보</w>":3480,"자주":3481,"치가</w>":3482,"항상</w>":3483,"나봐</w>":3484,"봤다</w>":3485,"분들</w>":3486,"사냥":3487,"시로":3488,"라스":3489,"먼저</w>":3490,"안하고</w>":3491,"감사":3492,"느금":3493,"밑에</w>":3494,"수캬루</w>":3495,"여고":3496,"완장":3497,"년들아</w>":3498,"력이</w>":3499,"뭐가":3500,"지마라</w>":3501,"포기":3502,"그려":3503,"노무</w>":3504,"틀드</w>":3505,"한듯</w>":3506,"버스":3507,"시작</w>":3508,"제대로</w>":3509,"지방":3510,"차트</w>":3511,"하라고</w>":3512,"아마":3513,"오스</w>":3514,"반지</w>":3515,"ㅆㅅㅌㅊ":3516,"고보니</w>":3517,"도가</w>":3518,"들만</w>":3519,"성능":3520,"알바</w>":3521,"저러":3522,"할거":3523,"ㅜㅜ":3524,"가챠</w>":3525,"그래</w>":3526,"근데":3527,"디시</w>":3528,"저녁":3529,"따리</w>":3530,"많냐</w>":3531,"일주":3532,"카메":3533,"50</w>":3534,"데뷔":3535,"세이":3536,"이재":3537,"지냐</w>":3538,"해줄":3539,"고싶은데</w>":3540,"같긔</w>":3541,"씹창":3542,"작년</w>":3543,"졌다</w>":3544,"컨셉":3545,"하나만</w>":3546,"보라":3547,"보지</w>":3548,"장현식</w>":3549,"년이</w>":3550,"부분</w>":3551,"어이":3552,"없노</w>":3553,"on</w>":3554,"긴한데</w>":3555,"이나":3556,"할거</w>":3557,"컨텐츠</w>":3558,"걸까</w>":3559,"신곡":3560,"아닌가</w>":3561,"남순":3562,"설마</w>":3563,"안에</w>":3564,"요일</w>":3565,"택배":3566,"생각함</w>":3567,"뒤에</w>":3568,"해주세요</w>":3569,"그만</w>":3570,"키보":3571,"3개":3572,"모자":3573,"사야":3574,"앨범</w>":3575,"우승</w>":3576,"잡고</w>":3577,"아니었":3578,"거같다</w>":3579,"들고</w>":3580,"박정":3581,"방법":3582,"봐야":3583,"아파":3584,"오리":3585,"오냐</w>":3586,"이젠</w>":3587,"전설":3588,"코드</w>":3589,"누군":3590,"손절":3591,"했던</w>":3592,"대학":3593,"머냐</w>":3594,"몇개":3595,"사주":3596,"오태":3597,"기안</w>":3598,"나이</w>":3599,"로는</w>":3600,"번째</w>":3601,"트로이</w>":3602,"가테</w>":3603,"던가</w>":3604,"도사</w>":3605,"됐네</w>":3606,"미디":3607,"신이</w>":3608,"이간":3609,"찍어":3610,"타는</w>":3611,"끝나고</w>":3612,"대회</w>":3613,"먹는":3614,"좋았":3615,"한명":3616,"아니야</w>":3617,"이래</w>":3618,"하러":3619,"라이브":3620,"버스</w>":3621,"수정":3622,"시다</w>":3623,"좆같은":3624,"상향":3625,"스위":3626,"ㄷㄷㄷㄷㄷㄷㄷㄷ":3627,"하지마</w>":3628,"기분</w>":3629,"나중에</w>":3630,"드라</w>":3631,"우울":3632,"가도</w>":3633,"귀찮":3634,"된거</w>":3635,"살까</w>":3636,"스럽":3637,"신청":3638,"통합":3639,"잘생겼":3640,"도는</w>":3641,"부산":3642,"업데이트</w>":3643,"구라":3644,"기도</w>":3645,"리그":3646,"리그</w>":3647,"다운":3648,"몰랐":3649,"못하":3650,"인가요</w>":3651,"장비</w>":3652,"ㄱㅊ":3653,"골드":3654,"느낀":3655,"스테":3656,"완료</w>":3657,"위한</w>":3658,"치네</w>":3659,"마시":3660,"빠르":3661,"사과":3662,"싶은데</w>":3663,"올스타</w>":3664,"주작":3665,"대깨":3666,"마도</w>":3667,"비트</w>":3668,"운동</w>":3669,"자동":3670,"저는</w>":3671,"레벨":3672,"생김</w>":3673,"시절":3674,"약간</w>":3675,"와꾸</w>":3676,"적이</w>":3677,"트레":3678,"헤어":3679,"이라는</w>":3680,"갤럭":3681,"군대":3682,"스밍</w>":3683,"아르":3684,"은거":3685,"이득":3686,"주딱":3687,"투수":3688,"피스</w>":3689,"기로</w>":3690,"서울</w>":3691,"조합</w>":3692,"지르":3693,"한동":3694,"홍보":3695,"대가리</w>":3696,"99":3697,"갤럼":3698,"드레":3699,"렇게":3700,"보다":3701,"아니다</w>":3702,"아닐까</w>":3703,"검색":3704,"나와서</w>":3705,"메카":3706,"중고":3707,"트레이드":3708,"폴가이":3709,"ac":3710,"개추</w>":3711,"링크":3712,"뭐노</w>":3713,"실패":3714,"싱글":3715,"장은</w>":3716,"커엽":3717,"이새끼들</w>":3718,"라이프":3719,"나갈":3720,"린거</w>":3721,"바람":3722,"움짤</w>":3723,"이이":3724,"장난":3725,"점이</w>":3726,"지금까지</w>":3727,"어떠냐</w>":3728,"경험":3729,"담배":3730,"당연":3731,"모바":3732,"사고</w>":3733,"오른":3734,"헬스":3735,"하나도</w>":3736,"나만":3737,"상황":3738,"열심히</w>":3739,"그거":3740,"성형":3741,"자랑":3742,"정보":3743,"진거</w>":3744,"하려":3745,"하러</w>":3746,"기원</w>":3747,"니아</w>":3748,"망호</w>":3749,"사용":3750,"아프리":3751,"편의":3752,"혼자":3753,"ㅋㅋㅋㅋㅋㅋㅋㅋㅋㅋㅋㅋㅋㅋㅋ</w>":3754,"멜론</w>":3755,"바로":3756,"받을":3757,"상대":3758,"야구</w>":3759,"인데":3760,"해봄</w>":3761,"안되는</w>":3762,"1000":3763,"도시":3764,"뒤지":3765,"수있":3766,"엘마":3767,"재밌네</w>":3768,"하지마라</w>":3769,"다리</w>":3770,"바리</w>":3771,"살려":3772,"설명":3773,"스킨":3774,"우면</w>":3775,"터지":3776,"했노</w>":3777,"들어와":3778,"누구임</w>":3779,"고수":3780,"구가</w>":3781,"미션</w>":3782,"사회":3783,"상위":3784,"역겨":3785,"왤케":3786,"있어서</w>":3787,"크리":3788,"하시":3789,"하려면</w>":3790,"화가</w>":3791,"여자가</w>":3792,"아이즈원</w>":3793,"16</w>":3794,"도됨</w>":3795,"점심":3796,"진심":3797,"하려고</w>":3798,"겜은</w>":3799,"계속":3800,"달아":3801,"라비":3802,"양심":3803,"초반":3804,"햇는데</w>":3805,"히어":3806,"사기</w>":3807,"아리":3808,"저격":3809,"조합":3810,"렸는데</w>":3811,"오오":3812,"패드</w>":3813,"프라이":3814,"해야됨</w>":3815,"목소리</w>":3816,"수사":3817,"엄마":3818,"한거임</w>":3819,"확인":3820,"5성</w>":3821,"똥찬이</w>":3822,"먹으":3823,"스로</w>":3824,"팩트":3825,"그오</w>":3826,"님이</w>":3827,"루시":3828,"불러":3829,"알고</w>":3830,"출근":3831,"달리":3832,"들고":3833,"렸다</w>":3834,"어라</w>":3835,"오픈":3836,"하는거냐</w>":3837,"구매":3838,"무대":3839,"아쉽":3840,"은게</w>":3841,"고인":3842,"아예</w>":3843,"카페":3844,"확률":3845,"가능하냐</w>":3846,"시간에</w>":3847,"캐릭터":3848,"로그":3849,"마리</w>":3850,"사랑</w>":3851,"유입":3852,"짤녀</w>":3853,"짱깨":3854,"2개":3855,"강다니":3856,"꼬라":3857,"꿀잼":3858,"이래":3859,"주년</w>":3860,"줘라</w>":3861,"했다고</w>":3862,"누구냐</w>":3863,"투표인증</w>":3864,"꼬마":3865,"역겹":3866,"을텐데</w>":3867,"인기</w>":3868,"조회":3869,"캬루":3870,"티어</w>":3871,"나는":3872,"보스</w>":3873,"전투":3874,"중계</w>":3875,"집에</w>":3876,"모든</w>":3877,"슈퍼":3878,"유일":3879,"졸업":3880,"채팅":3881,"나음</w>":3882,"달라고</w>":3883,"원탑</w>":3884,"코인":3885,"2년":3886,"길드":3887,"멤버":3888,"비싸":3889,"애가</w>":3890,"예상</w>":3891,"있었는데</w>":3892,"잡아":3893,"디씨":3894,"리버":3895,"사서</w>":3896,"삼성</w>":3897,"안녕":3898,"야스":3899,"점핑":3900,"코네</w>":3901,"이야기</w>":3902,"2개</w>":3903,"공무":3904,"너프":3905,"대신</w>":3906,"로아":3907,"무대</w>":3908,"방어":3909,"완전</w>":3910,"이길":3911,"이란":3912,"파는</w>":3913,"마이너</w>":3914,"개빡":3915,"사귀":3916,"신규":3917,"이걸</w>":3918,"장에</w>":3919,"카운":3920,"현이</w>":3921,"다는거</w>":3922,"모든":3923,"지나":3924,"직업</w>":3925,"팔아":3926,"긴하네</w>":3927,"냄새":3928,"느껴":3929,"머두":3930,"야짤</w>":3931,"하루종":3932,"패키지</w>":3933,"동생":3934,"디자":3935,"본인":3936,"업뎃":3937,"염퀴":3938,"영웅</w>":3939,"이니</w>":3940,"이유는</w>":3941,"깅이</w>":3942,"연예":3943,"정신병":3944,"ㅁㅊ</w>":3945,"구만</w>":3946,"나나":3947,"남은</w>":3948,"외국":3949,"유저</w>":3950,"하고있":3951,"재밌음</w>":3952,"가고</w>":3953,"걸리":3954,"도움":3955,"라는데</w>":3956,"모니":3957,"목록</w>":3958,"밖에":3959,"배달":3960,"버프":3961,"세트</w>":3962,"포인트</w>":3963,"부모":3964,"안보":3965,"죽이":3966,"드립니다</w>":3967,"자체가</w>":3968,"33":3969,"5천":3970,"기에</w>":3971,"난리":3972,"받으면</w>":3973,"발표":3974,"27":3975,"구리":3976,"다며</w>":3977,"다는게</w>":3978,"ㅆㅂ</w>":3979,"건지</w>":3980,"게시":3981,"길태":3982,"뜨면</w>":3983,"애매":3984,"앰들</w>":3985,"유리":3986,"익스":3987,"정이</w>":3988,"충격":3989,"어디갔":3990,"그나마</w>":3991,"각성":3992,"강간":3993,"까진</w>":3994,"는대</w>":3995,"라이</w>":3996,"박보":3997,"이닝</w>":3998,"주문":3999,"ㅗㅜ":4000,"받은</w>":4001,"샀는데</w>":4002,"유명":4003,"지말":4004,"트사가</w>":4005,"컨텐츠":4006,"네이마르</w>":4007,"발작":4008,"방에</w>":4009,"었으면</w>":4010,"있나요</w>":4011,"적당":4012,"존재":4013,"붕이들아</w>":4014,"가끔</w>":4015,"걸림</w>":4016,"기어":4017,"라도":4018,"스포</w>":4019,"이었는데</w>":4020,"장비":4021,"징징":4022,"브이앱":4023,"그립":4024,"금지":4025,"길드</w>":4026,"대상":4027,"대체":4028,"들이":4029,"바리":4030,"브리":4031,"이용":4032,"일리":4033,"라인업</w>":4034,"나한테</w>":4035,"대전</w>":4036,"시원":4037,"일에</w>":4038,"잇냐</w>":4039,"치킨</w>":4040,"많아":4041,"명이</w>":4042,"안타":4043,"힘드":4044,"라이프치":4045,"놈이</w>":4046,"던전</w>":4047,"머야</w>":4048,"스마":4049,"저새끼</w>":4050,"필독</w>":4051,"지지율</w>":4052,"이번주</w>":4053,"08</w>":4054,"ve":4055,"오토":4056,"작가":4057,"지로</w>":4058,"파딱":4059,"페도":4060,"좋은거</w>":4061,"새벽에</w>":4062,"되게</w>":4063,"방에서</w>":4064,"예정</w>":4065,"자들</w>":4066,"주셈</w>":4067,"에서는</w>":4068,"딩때</w>":4069,"맞다</w>":4070,"태어":4071,"픽업":4072,"스트레":4073,"모르는</w>":4074,"28":4075,"같지</w>":4076,"다니까</w>":4077,"신경":4078,"제작":4079,"죄다</w>":4080,"개씹":4081,"뭔지</w>":4082,"반응</w>":4083,"보다가</w>":4084,"사도</w>":4085,"살인":4086,"었어</w>":4087,"이찬":4088,"천장":4089,"총공</w>":4090,"고싶어</w>":4091,"개발":4092,"개병신":4093,"공개</w>":4094,"받는</w>":4095,"우는</w>":4096,"테스트</w>":4097,"메인":4098,"부러":4099,"아까":4100,"인스타":4101,"전은</w>":4102,"지하":4103,"캐밥</w>":4104,"생각해보니</w>":4105,"어그로</w>":4106,"섹스</w>":4107,"운영":4108,"제발":4109,"주말":4110,"초기":4111,"콘서":4112,"파딱</w>":4113,"노가":4114,"눈물":4115,"카오":4116,"고싶네</w>":4117,"사랑해</w>":4118,"됐다</w>":4119,"드래":4120,"배고":4121,"주식</w>":4122,"주는거</w>":4123,"줬으면</w>":4124,"챔스":4125,"쳐서</w>":4126,"필수":4127,"ㅋㅋㅋㅋㅋㅋㅋㅋㅋㅋㅋㅋㅋㅋㅋㅋㅋㅋㅋㅋㅋㅋㅋㅋㅋㅋㅋㅋㅋㅋㅋㅋ":4128,"김태진</w>":4129,"고는</w>":4130,"관련":4131,"관리":4132,"나무":4133,"누르":4134,"때부터</w>":4135,"버전</w>":4136,"볼때마다</w>":4137,"술사</w>":4138,"작가</w>":4139,"18</w>":4140,"느그":4141,"상상":4142,"서로</w>":4143,"왤캐</w>":4144,"후회":4145,"이름이</w>":4146,"하루종일</w>":4147,"감스트</w>":4148,"결정":4149,"늘어":4150,"뭐지</w>":4151,"아기":4152,"안지만</w>":4153,"원영":4154,"인다</w>":4155,"확정</w>":4156,"히로":4157,"어느정도":4158,"마인":4159,"부분":4160,"신화</w>":4161,"엘리":4162,"원은</w>":4163,"좆목":4164,"주가</w>":4165,"최근</w>":4166,"an":4167,"or":4168,"노ㅋㅋ</w>":4169,"수있음</w>":4170,"진이</w>":4171,"보이는데</w>":4172,"평가좀</w>":4173,"요즘은</w>":4174,"과금</w>":4175,"라디":4176,"레벨</w>":4177,"만약</w>":4178,"저런":4179,"정우":4180,"진행":4181,"최근":4182,"할게</w>":4183,"2차":4184,"25</w>":4185,"상자</w>":4186,"아라":4187,"안뜨":4188,"되고</w>":4189,"먹은</w>":4190,"은퇴":4191,"이것":4192,"거같아</w>":4193,"폴가이즈</w>":4194,"그리고</w>":4195,"따리":4196,"먹고":4197,"보소</w>":4198,"안쓰":4199,"잘하네</w>":4200,"화면</w>":4201,"ww":4202,"두개":4203,"마무":4204,"마법":4205,"아웃":4206,"민주당</w>":4207,"아레나</w>":4208,"김민":4209,"아쉬":4210,"엄마</w>":4211,"없는거</w>":4212,"오히":4213,"장애":4214,"정병":4215,"타임</w>":4216,"탈갤":4217,"토탈":4218,"ㅋㅋㅋㅋㅋ":4219,"VS</w>":4220,"꼴리는</w>":4221,"났네</w>":4222,"놈들은</w>":4223,"배터":4224,"비가</w>":4225,"오버":4226,"일베":4227,"1등":4228,"긴해</w>":4229,"떴냐</w>":4230,"매니":4231,"밀어":4232,"복구":4233,"수저":4234,"우가</w>":4235,"주에</w>":4236,"해지":4237,"모아":4238,"부족":4239,"지원</w>":4240,"했지</w>":4241,"화장":4242,"ㅠㅠㅠ</w>":4243,"ㄱㄱㄱㄱ":4244,"콜라보</w>":4245,"3개</w>":4246,"그냥":4247,"던파":4248,"디씨</w>":4249,"라스</w>":4250,"랜드</w>":4251,"실력":4252,"예전":4253,"왔네</w>":4254,"투수</w>":4255,"한거냐</w>":4256,"나왔으면</w>":4257,"미쳤네</w>":4258,"문재인</w>":4259,"감독</w>":4260,"바다":4261,"받는":4262,"줌들</w>":4263,"캐밥":4264,"컴퓨":4265,"5분":4266,"기술":4267,"낫냐</w>":4268,"매일</w>":4269,"불편":4270,"뽑기</w>":4271,"이든</w>":4272,"접속":4273,"해봤는데</w>":4274,"가이드</w>":4275,"니네":4276,"못하는</w>":4277,"미국</w>":4278,"상태":4279,"다이어":4280,"오히려</w>":4281,"년은</w>":4282,"시오</w>":4283,"신화":4284,"요약</w>":4285,"장에서</w>":4286,"점수</w>":4287,"풀어":4288,"했더니</w>":4289,"여자들</w>":4290,"150":4291,"갤질":4292,"한지</w>":4293,"그런데</w>":4294,"ar":4295,"같노</w>":4296,"근본</w>":4297,"달려":4298,"렸네</w>":4299,"미가</w>":4300,"시가</w>":4301,"연장":4302,"줌마</w>":4303,"타격":4304,"터졌":4305,"개인적으로</w>":4306,"가입":4307,"능력":4308,"들이랑</w>":4309,"릭스</w>":4310,"부활":4311,"애플":4312,"왜이렇게</w>":4313,"월드컵</w>":4314,"플러":4315,"21</w>":4316,"구는</w>":4317,"는것":4318,"디스":4319,"빨아":4320,"야짤":4321,"전사</w>":4322,"중에서</w>":4323,"중붕이</w>":4324,"해본":4325,"26":4326,"겠는데</w>":4327,"레드":4328,"만든</w>":4329,"많은데</w>":4330,"언냐</w>":4331,"였으면</w>":4332,"외질":4333,"이게":4334,"이모":4335,"이렇게":4336,"제주":4337,"파리</w>":4338,"pc":4339,"다리":4340,"라면":4341,"모리":4342,"미나":4343,"보셈</w>":4344,"스펙":4345,"엇는데</w>":4346,"여도</w>":4347,"하지만</w>":4348,"회사":4349,"알려준다</w>":4350,"대가리":4351,"400":4352,"미니":4353,"의사":4354,"일듯</w>":4355,"지에</w>":4356,"ㅋㅋㅋㅋㅋㅋㅋㅋㅋㅋㅋㅋㅋㅋㅋㅋ</w>":4357,"나왔는데</w>":4358,"마리나</w>":4359,"아는사람</w>":4360,"시상식</w>":4361,"가슴</w>":4362,"갓겜":4363,"비교</w>":4364,"아티":4365,"어지":4366,"여서</w>":4367,"기전에</w>":4368,"당함</w>":4369,"맞는데</w>":4370,"버티":4371,"브라":4372,"생활":4373,"아지":4374,"았네</w>":4375,"완장</w>":4376,"지마":4377,"지말고</w>":4378,"진자</w>":4379,"5성":4380,"기네</w>":4381,"릴때</w>":4382,"분탕":4383,"신은</w>":4384,"엔딩":4385,"얼마나":4386,"친구가</w>":4387,"골라":4388,"는것도</w>":4389,"따로</w>":4390,"만족":4391,"바라":4392,"얼마</w>":4393,"엄청":4394,"운거</w>":4395,"주딱</w>":4396,"오태곤</w>":4397,"겠음</w>":4398,"겨서</w>":4399,"랑이</w>":4400,"먹었는데</w>":4401,"불안":4402,"싫어</w>":4403,"에바":4404,"이겼":4405,"적용":4406,"정확":4407,"클로":4408,"피곤":4409,"우리가</w>":4410,"올라오":4411,"떨어지":4412,"ㅇㅅ":4413,"모으":4414,"발표</w>":4415,"봐서</w>":4416,"키스":4417,"훈련":4418,"개념":4419,"개추":4420,"겟네</w>":4421,"세라":4422,"속도</w>":4423,"손흥":4424,"심각":4425,"예쁜":4426,"지역":4427,"캐르":4428,"분위기</w>":4429,"lc":4430,"나보다</w>":4431,"영어":4432,"웃김</w>":4433,"점심</w>":4434,"티아":4435,"팀이</w>":4436,"하라":4437,"지않나</w>":4438,"이상화</w>":4439,"사이트</w>":4440,"냄새</w>":4441,"밸런":4442,"새로</w>":4443,"온냐들</w>":4444,"저게</w>":4445,"카톡":4446,"해외":4447,"겟지</w>":4448,"났는데</w>":4449,"더만</w>":4450,"크로</w>":4451,"들어오":4452,"200813</w>":4453,"남아":4454,"동생</w>":4455,"순위":4456,"아바":4457,"키울":4458,"귀여운</w>":4459,"이미지</w>":4460,"5분</w>":4461,"나도":4462,"니는</w>":4463,"미는</w>":4464,"았음</w>":4465,"이란</w>":4466,"집에서</w>":4467,"페코</w>":4468,"넣어":4469,"다던데</w>":4470,"도전":4471,"복귀</w>":4472,"최고</w>":4473,"카페</w>":4474,"형이</w>":4475,"최고의</w>":4476,"act</w>":4477,"거부":4478,"신곡</w>":4479,"싸개":4480,"아버":4481,"와라</w>":4482,"피해":4483,"헤어</w>":4484,"이후로</w>":4485,"거는</w>":4486,"거든</w>":4487,"기준":4488,"먹고싶다</w>":4489,"블리":4490,"세대</w>":4491,"애기":4492,"언니</w>":4493,"해준다</w>":4494,"오늘부터</w>":4495,"갤러리는</w>":4496,"그러고보니</w>":4497,"NC":4498,"감이</w>":4499,"국내":4500,"네ㅋㅋㅋㅋ</w>":4501,"동네</w>":4502,"떳다</w>":4503,"스케":4504,"슬로":4505,"어가</w>":4506,"작년":4507,"초월":4508,"안되네</w>":4509,"어케함</w>":4510,"옛날에</w>":4511,"미디신":4512,"개웃기네</w>":4513,"게이야</w>":4514,"니들이</w>":4515,"쓸만":4516,"약독":4517,"었냐</w>":4518,"엉덩":4519,"이승":4520,"일부":4521,"컴백":4522,"한가</w>":4523,"효과</w>":4524,"관계":4525,"리는거</w>":4526,"린이":4527,"맛있":4528,"맞아</w>":4529,"모드":4530,"뿡2</w>":4531,"샘슨":4532,"에픽</w>":4533,"이니까</w>":4534,"자전":4535,"장면</w>":4536,"저런</w>":4537,"중임</w>":4538,"픽업</w>":4539,"ㅅㅅㅅ</w>":4540,"시리즈</w>":4541,"내년</w>":4542,"노스":4543,"다녀":4544,"롯데":4545,"멍청":4546,"미통":4547,"분에</w>":4548,"비슈":4549,"소설</w>":4550,"인건</w>":4551,"중간":4552,"차단</w>":4553,"하자":4554,"할사람</w>":4555,"사람들이</w>":4556,"가능성</w>":4557,"메이플</w>":4558,"3일":4559,"내년에</w>":4560,"려고":4561,"소개":4562,"식은</w>":4563,"왜안":4564,"웹툰</w>":4565,"트와이스</w>":4566,"갤러들</w>":4567,"ㅎㅎ":4568,"내용":4569,"다운</w>":4570,"따라</w>":4571,"반응":4572,"선물":4573,"성능</w>":4574,"요청</w>":4575,"이긴</w>":4576,"하던":4577,"한가":4578,"해봤":4579,"희망":4580,"하는지</w>":4581,"하지말":4582,"22</w>":4583,"뿡2":4584,"수로</w>":4585,"시아</w>":4586,"조언":4587,"하겠지</w>":4588,"해서":4589,"어그로":4590,"가성":4591,"같아서</w>":4592,"단체":4593,"될까</w>":4594,"어야지</w>":4595,"연속</w>":4596,"합방":4597,"드라마</w>":4598,"됐는데</w>":4599,"듣고</w>":4600,"따효":4601,"수비</w>":4602,"없다고</w>":4603,"웃음":4604,"입고</w>":4605,"전무</w>":4606,"찬또</w>":4607,"커버</w>":4608,"하하":4609,"해결":4610,"화이":4611,"시발련":4612,"시스템</w>":4613,"박진":4614,"배메</w>":4615,"파티</w>":4616,"대장</w>":4617,"더블":4618,"써야":4619,"아스":4620,"아요</w>":4621,"이긴":4622,"이한테</w>":4623,"주실분</w>":4624,"패스</w>":4625,"하루에</w>":4626,"좋겠음</w>":4627,"생일</w>":4628,"성적":4629,"세리":4630,"아저":4631,"웃겨</w>":4632,"월에</w>":4633,"인들</w>":4634,"점점</w>":4635,"주지</w>":4636,"찍고</w>":4637,"커뮤":4638,"판매":4639,"180":4640,"갔네</w>":4641,"괴롭":4642,"꾹앰":4643,"난이도</w>":4644,"많아</w>":4645,"먹은":4646,"버리고</w>":4647,"설정":4648,"쓰는데</w>":4649,"원영이</w>":4650,"자신":4651,"좋지</w>":4652,"중국</w>":4653,"할인":4654,"할거면</w>":4655,"호가</w>":4656,"줌마들</w>":4657,"구역</w>":4658,"기간":4659,"대한":4660,"떳냐</w>":4661,"뭐라":4662,"봉준":4663,"순간</w>":4664,"스파":4665,"시험":4666,"아빠":4667,"엔딩</w>":4668,"위해</w>":4669,"제로":4670,"rea":4671,"공식</w>":4672,"도사":4673,"받으":4674,"뽑아":4675,"안하냐</w>":4676,"앨범":4677,"영업":4678,"좀요</w>":4679,"즈갤</w>":4680,"카이":4681,"한정":4682,"해도":4683,"v4":4684,"가는거</w>":4685,"고도</w>":4686,"글이</w>":4687,"나쁜":4688,"돌이</w>":4689,"디렉":4690,"스에</w>":4691,"싸움":4692,"아이</w>":4693,"안돼</w>":4694,"이짤</w>":4695,"전이</w>":4696,"조사</w>":4697,"취소":4698,"패드":4699,"패턴</w>":4700,"혈귀":4701,"홈런":4702,"가족":4703,"구리</w>":4704,"기고</w>":4705,"나쁘":4706,"날씨</w>":4707,"동네":4708,"버려":4709,"소녀</w>":4710,"아깝":4711,"어는</w>":4712,"프리코네</w>":4713,"마스크</w>":4714,"ㅆㅅㅌㅊ</w>":4715,"겠냐</w>":4716,"공략</w>":4717,"그랬":4718,"누나":4719,"두고</w>":4720,"때려":4721,"미치":4722,"버린</w>":4723,"서도</w>":4724,"어떨":4725,"없는게</w>":4726,"외모":4727,"원탑":4728,"병신들</w>":4729,"여자는</w>":4730,"역대급</w>":4731,"사주</w>":4732,"억울":4733,"유격":4734,"출시":4735,"혐오":4736,"좋아함</w>":4737,"118</w>":4738,"남자가</w>":4739,"히어로":4740,"대회":4741,"말이":4742,"메갈":4743,"받은":4744,"번역":4745,"사냐</w>":4746,"신규</w>":4747,"없애":4748,"였냐</w>":4749,"올랐":4750,"유지":4751,"쟁이</w>":4752,"전성":4753,"키움":4754,"3천":4755,"공이</w>":4756,"기만</w>":4757,"되서</w>":4758,"라가</w>":4759,"아키":4760,"안내</w>":4761,"았냐</w>":4762,"야붕이</w>":4763,"왔어요</w>":4764,"운지":4765,"키움</w>":4766,"택배</w>":4767,"어디감</w>":4768,"나온다</w>":4769,"대통령":4770,"니들은</w>":4771,"릴까</w>":4772,"마려":4773,"아재":4774,"입문":4775,"점은</w>":4776,"주는":4777,"즈는</w>":4778,"최종":4779,"하다고</w>":4780,"나왔네</w>":4781,"고기</w>":4782,"글에</w>":4783,"무한":4784,"박아":4785,"부동":4786,"비는</w>":4787,"안오":4788,"이홍":4789,"파밍":4790,"랜덤":4791,"리는":4792,"맞네</w>":4793,"번호</w>":4794,"빠는":4795,"싸이":4796,"졌는데</w>":4797,"하는거야</w>":4798,"안되나</w>":4799,"정도로</w>":4800,"거같냐</w>":4801,"트위치</w>":4802,"23</w>":4803,"국민":4804,"당첨":4805,"둘이</w>":4806,"새기</w>":4807,"써도</w>":4808,"아닌</w>":4809,"안하면</w>":4810,"져도</w>":4811,"진화":4812,"카스":4813,"쿠폰":4814,"포켓":4815,"문제가</w>":4816,"갈까</w>":4817,"강화</w>":4818,"국가":4819,"나올</w>":4820,"녀가</w>":4821,"똥퀴":4822,"수있냐</w>":4823,"악의":4824,"이정":4825,"자주</w>":4826,"잘하는</w>":4827,"좆밥":4828,"직캠</w>":4829,"챙겨":4830,"치기</w>":4831,"평균</w>":4832,"회사</w>":4833,"투표인증왔":4834,"ㄱㅊ</w>":4835,"거리</w>":4836,"그게</w>":4837,"꿀팁</w>":4838,"뇌절":4839,"는분</w>":4840,"대에</w>":4841,"망오스</w>":4842,"식으로</w>":4843,"퀘스트</w>":4844,"티셔":4845,"플레이</w>":4846,"피시":4847,"84</w>":4848,"경찰":4849,"고구":4850,"국내</w>":4851,"달린다</w>":4852,"전기":4853,"주의":4854,"죽여":4855,"평생</w>":4856,"학생":4857,"코로나":4858,"카메라</w>":4859,"36":4860,"ㅡ타</w>":4861,"봉퀴":4862,"옛날</w>":4863,"정지</w>":4864,"터짐</w>":4865,"통피":4866,"하드":4867,"아이폰</w>":4868,"그런가</w>":4869,"보은왔어요</w>":4870,"고양이</w>":4871,"17</w>":4872,"갔다":4873,"고기":4874,"라운":4875,"마그":4876,"번역</w>":4877,"싫다</w>":4878,"아오":4879,"아시발</w>":4880,"자연":4881,"타임":4882,"할꺼":4883,"끝나면</w>":4884,"2차</w>":4885,"굿즈</w>":4886,"까봐</w>":4887,"다크":4888,"루나</w>":4889,"비추":4890,"신고</w>":4891,"싶은</w>":4892,"어린":4893,"여긴</w>":4894,"은듯</w>":4895,"치즈":4896,"코리":4897,"30분":4898,"뉴비인데</w>":4899,"감스트":4900,"논란</w>":4901,"당이</w>":4902,"리는데</w>":4903,"스도</w>":4904,"작은</w>":4905,"마렵다</w>":4906,"나스":4907,"내년":4908,"드랍":4909,"매도</w>":4910,"배경":4911,"수도":4912,"습니까</w>":4913,"올리면</w>":4914,"우파":4915,"의상</w>":4916,"있다고</w>":4917,"자너</w>":4918,"전문":4919,"제목":4920,"존잘":4921,"최강":4922,"파리":4923,"케이스</w>":4924,"이해가</w>":4925,"59</w>":4926,"ㅎㅌㅊ":4927,"김연":4928,"났다</w>":4929,"노트</w>":4930,"박스</w>":4931,"보러":4932,"상이</w>":4933,"여캐":4934,"이성":4935,"이후</w>":4936,"총공":4937,"효과":4938,"왜이러":4939,"이야기":4940,"싱글글</w>":4941,"머두링</w>":4942,"at":4943,"it":4944,"ou":4945,"개념글</w>":4946,"당한</w>":4947,"은근":4948,"29":4949,"공략":4950,"대해</w>":4951,"빡세":4952,"생긴</w>":4953,"스텔":4954,"어스</w>":4955,"예정":4956,"이랑":4957,"이시":4958,"조작":4959,"찐따</w>":4960,"현타":4961,"아니네</w>":4962,"어케됨</w>":4963,"이었음</w>":4964,"한번도</w>":4965,"2기</w>":4966,"700":4967,"ol":4968,"가는게</w>":4969,"광복":4970,"까는</w>":4971,"네임":4972,"두개</w>":4973,"리세계</w>":4974,"메리":4975,"봐야</w>":4976,"사고":4977,"애플</w>":4978,"읍니다</w>":4979,"이해</w>":4980,"일은</w>":4981,"한대</w>":4982,"정도는</w>":4983,"네이버</w>":4984,"ㅅㅅㅅㅅㅅㅅㅅㅅ":4985,"아아아아":4986,"40</w>":4987,"거품":4988,"나왓":4989,"남친":4990,"대결</w>":4991,"몰라도</w>":4992,"뭐고</w>":4993,"불펜":4994,"사제</w>":4995,"어어":4996,"있고</w>":4997,"저녁</w>":4998,"호모":4999,"후에</w>":5000,"계약":5001,"그린":5002,"사건</w>":5003,"시너":5004,"저도</w>":5005,"전쟁":5006,"한명</w>":5007,"해볼":5008,"마렵네</w>":5009,"3년":5010,"70</w>":5011,"공부</w>":5012,"낫지</w>":5013,"도적</w>":5014,"될듯</w>":5015,"똥찬":5016,"라우":5017,"뭐하냐</w>":5018,"바지</w>":5019,"부캐":5020,"안나옴</w>":5021,"야겠다</w>":5022,"업뎃</w>":5023,"여성":5024,"이잖아</w>":5025,"있는거":5026,"사람들은</w>":5027,"35":5028,"나의</w>":5029,"나름</w>":5030,"다니</w>":5031,"대놓고</w>":5032,"망구":5033,"사전":5034,"을거</w>":5035,"저장":5036,"죽어</w>":5037,"티비":5038,"히트":5039,"생각하는</w>":5040,"아이폰":5041,"ㅡㅡㅡㅡㅡㅡ":5042,"별로임</w>":5043,"안녕하세요</w>":5044,"나를</w>":5045,"너희":5046,"동이</w>":5047,"리나</w>":5048,"머가</w>":5049,"무사":5050,"보다는</w>":5051,"봐야지</w>":5052,"사는":5053,"산다</w>":5054,"안타</w>":5055,"잠깐</w>":5056,"재료</w>":5057,"칭찬":5058,"코가</w>":5059,"타고</w>":5060,"힘든":5061,"이쁘네</w>":5062,"어느정도</w>":5063,"이간질":5064,"1차":5065,"교환":5066,"국밥":5067,"끝내":5068,"들어</w>":5069,"리스트</w>":5070,"올림</w>":5071,"지옥":5072,"지우":5073,"팀은</w>":5074,"포트</w>":5075,"했었는데</w>":5076,"시즌2</w>":5077,"새기들</w>":5078,"간만에</w>":5079,"금지</w>":5080,"로도</w>":5081,"맘에</w>":5082,"보닌</w>":5083,"성격":5084,"성적</w>":5085,"신청</w>":5086,"않나</w>":5087,"역전":5088,"재료":5089,"타가</w>":5090,"플레":5091,"하냐고</w>":5092,"화는</w>":5093,"나오는데</w>":5094,"해주면</w>":5095,"도전</w>":5096,"맞는</w>":5097,"상은</w>":5098,"십시오</w>":5099,"쥬지":5100,"팔로":5101,"해봐</w>":5102,"병신들아</w>":5103,"진짜로</w>":5104,"쓰레기</w>":5105,"부럽다</w>":5106,"그대로</w>":5107,"되는거":5108,"리얼":5109,"밀리":5110,"바람</w>":5111,"봉준</w>":5112,"상도</w>":5113,"생활</w>":5114,"솔로":5115,"시티</w>":5116,"안내":5117,"차이가</w>":5118,"첫방":5119,"카가</w>":5120,"키가</w>":5121,"해본</w>":5122,"알려줘</w>":5123,"시상식":5124,"거르고</w>":5125,"고르":5126,"고정":5127,"군대</w>":5128,"기아":5129,"꼴림</w>":5130,"데스":5131,"뭐라고</w>":5132,"사무":5133,"사는게</w>":5134,"수정</w>":5135,"어느</w>":5136,"연합</w>":5137,"이춘":5138,"인사":5139,"전무":5140,"조심":5141,"줘야":5142,"탈출":5143,"궁금한게</w>":5144,"트위터</w>":5145,"에어컨</w>":5146,"아프리카</w>":5147,"국이</w>":5148,"기면</w>":5149,"나락":5150,"대구</w>":5151,"데미":5152,"로이":5153,"머가":5154,"문투</w>":5155,"버퍼":5156,"부가</w>":5157,"여행":5158,"코트</w>":5159,"토끼":5160,"하긴":5161,"다음주</w>":5162,"인터뷰</w>":5163,"라이프치히</w>":5164,"ㄱㄴ</w>":5165,"ㅁㅌㅊ":5166,"걸러":5167,"결과":5168,"공혁":5169,"나대":5170,"돼지</w>":5171,"로그</w>":5172,"못해</w>":5173,"빠지":5174,"형님</w>":5175,"대통령</w>":5176,"조회수</w>":5177,"고마":5178,"고백</w>":5179,"괜히</w>":5180,"눈치":5181,"소속":5182,"오디":5183,"카는</w>":5184,"코는</w>":5185,"탈리</w>":5186,"트레이":5187,"표정</w>":5188,"하는법</w>":5189,"아니노</w>":5190,"저번에</w>":5191,"걸그룹</w>":5192,"김치</w>":5193,"논란":5194,"머니</w>":5195,"배우</w>":5196,"불펜</w>":5197,"새벽</w>":5198,"새낀</w>":5199,"언냐":5200,"외질</w>":5201,"있잖아</w>":5202,"조금":5203,"지능":5204,"코드":5205,"했다":5206,"귀여워</w>":5207,"토탈워</w>":5208,"88":5209,"경괴</w>":5210,"님들":5211,"린지</w>":5212,"많아서</w>":5213,"미드":5214,"성공</w>":5215,"세트":5216,"아다":5217,"야갤</w>":5218,"얘네</w>":5219,"어워":5220,"올리는</w>":5221,"유행":5222,"잘알":5223,"티켓</w>":5224,"39":5225,"것같":5226,"꾹찜":5227,"날씨":5228,"님들아</w>":5229,"드러":5230,"때매</w>":5231,"말까</w>":5232,"몇년":5233,"모두</w>":5234,"신민":5235,"알못":5236,"엘롯":5237,"열어":5238,"커버":5239,"투자":5240,"하겠네</w>":5241,"생각하면</w>":5242,"가야지</w>":5243,"대상</w>":5244,"되어":5245,"되노</w>":5246,"마도":5247,"몇시":5248,"벌레":5249,"보니깐</w>":5250,"시나":5251,"시바</w>":5252,"아오</w>":5253,"있어도</w>":5254,"파워":5255,"한마":5256,"게임이</w>":5257,"메이플":5258,"왜이럼</w>":5259,"지만이형</w>":5260,"당연히</w>":5261,"45":5262,"마는</w>":5263,"멤버</w>":5264,"소름":5265,"수능":5266,"실망":5267,"싸움</w>":5268,"아침</w>":5269,"안된":5270,"앞에서</w>":5271,"연습</w>":5272,"이태":5273,"재능":5274,"최소</w>":5275,"ㅋㅋㅋㅋㅋㅋㅋㅋㅋㅋㅋㅋㅋㅋㅋㅋㅋㅋㅋ</w>":5276,"ㄹㅇㅋㅋ</w>":5277,"유튜버":5278,"한테도</w>":5279,"8월":5280,"ss":5281,"거다</w>":5282,"공유":5283,"극혐":5284,"기업":5285,"느라</w>":5286,"당장</w>":5287,"대리":5288,"두번":5289,"먹었다</w>":5290,"방출":5291,"옵션</w>":5292,"나오고</w>":5293,"문경찬":5294,"모르겠음</w>":5295,"일부러</w>":5296,"120":5297,"경괴":5298,"계산":5299,"내는</w>":5300,"내용</w>":5301,"냐면</w>":5302,"면접":5303,"물이</w>":5304,"미리</w>":5305,"받는다</w>":5306,"부산</w>":5307,"승부":5308,"없는거":5309,"이럴":5310,"이지랄":5311,"정공":5312,"지도":5313,"카스</w>":5314,"하스":5315,"어디가</w>":5316,"이었네</w>":5317,"잘생긴":5318,"ㅇㅇㅇㅇ":5319,"키보드</w>":5320,"pv":5321,"간지":5322,"경북</w>":5323,"기계":5324,"년도</w>":5325,"는애들</w>":5326,"던지":5327,"먹냐</w>":5328,"미래</w>":5329,"버즈":5330,"알고":5331,"였지</w>":5332,"울트":5333,"주제":5334,"커피":5335,"터진":5336,"트와</w>":5337,"가능한</w>":5338,"귀엽네</w>":5339,"노무현</w>":5340,"2천":5341,"ㅊㅊ":5342,"ㅓㅓ":5343,"개월":5344,"답답":5345,"똥꼬":5346,"맘에":5347,"상대</w>":5348,"아웃</w>":5349,"옆에</w>":5350,"잘함</w>":5351,"평균":5352,"라이트</w>":5353,"118":5354,"있었음</w>":5355,"개쩌":5356,"글은</w>":5357,"급으로</w>":5358,"나는데</w>":5359,"년들이</w>":5360,"담당":5361,"데이</w>":5362,"랜드":5363,"말로</w>":5364,"보이네</w>":5365,"상승":5366,"시그":5367,"신작</w>":5368,"안하는</w>":5369,"양아":5370,"용병":5371,"우주":5372,"있던데</w>":5373,"테이":5374,"나오는거</w>":5375,"생각나네</w>":5376,"하나요</w>":5377,"ㅠㅠㅠㅠ</w>":5378,"게임은</w>":5379,"오지게</w>":5380,"여러분</w>":5381,"1회":5382,"MD":5383,"가면":5384,"갤을</w>":5385,"구단":5386,"닉스</w>":5387,"대사</w>":5388,"떡락":5389,"리세":5390,"모델":5391,"오피셜</w>":5392,"월드":5393,"자랑</w>":5394,"전설</w>":5395,"줘도</w>":5396,"찬또":5397,"최대":5398,"키는</w>":5399,"플래":5400,"하늘":5401,"하더니</w>":5402,"해준":5403,"화면":5404,"2군":5405,"fact</w>":5406,"ㅅㄱ</w>":5407,"가만":5408,"걸레":5409,"겜이</w>":5410,"과거":5411,"김우":5412,"댕댕":5413,"마나":5414,"말은</w>":5415,"버프</w>":5416,"소설":5417,"써서</w>":5418,"저거":5419,"채널":5420,"처리":5421,"환불":5422,"하는애들</w>":5423,"10분":5424,"해야겠다</w>":5425,"사실상</w>":5426,"편의점</w>":5427,"1주":5428,"1시간":5429,"2만":5430,"48":5431,"가가</w>":5432,"고백":5433,"관리</w>":5434,"금민":5435,"남음</w>":5436,"대박":5437,"빨간":5438,"사르":5439,"승격":5440,"예약":5441,"오재":5442,"오지네</w>":5443,"요네</w>":5444,"장님</w>":5445,"제목</w>":5446,"키로</w>":5447,"투기":5448,"혜자":5449,"환상":5450,"ㅋㅋㅋㅋㅋㅋㅋㅋㅋㅋㅋㅋㅋㅋㅋㅋㅋㅋㅋㅋㅋㅋㅋ</w>":5451,"재밌다</w>":5452,"유튜버</w>":5453,"다니는</w>":5454,"않았냐</w>":5455,"콘서트</w>":5456,"구경":5457,"느금</w>":5458,"딜러":5459,"박고</w>":5460,"악세</w>":5461,"안드":5462,"에만</w>":5463,"이리</w>":5464,"있는게</w>":5465,"제한</w>":5466,"2000":5467,"real</w>":5468,"ㄹㄹ":5469,"기가":5470,"기회":5471,"나게</w>":5472,"생존":5473,"스페":5474,"에디":5475,"역대</w>":5476,"영혼":5477,"조선</w>":5478,"창녀":5479,"처녀":5480,"타령":5481,"해짐</w>":5482,"는데도</w>":5483,"55":5484,"까지는</w>":5485,"박찬":5486,"번호":5487,"상대로</w>":5488,"클린":5489,"피스":5490,"하잖아</w>":5491,"고싶음</w>":5492,"사이퍼":5493,"한번만</w>":5494,"어려움</w>":5495,"32":5496,"er":5497,"뒤졌":5498,"버거":5499,"벌써":5500,"수리":5501,"연이</w>":5502,"외형</w>":5503,"음식</w>":5504,"있긔</w>":5505,"자로</w>":5506,"트에</w>":5507,"티저</w>":5508,"활동":5509,"안되는데</w>":5510,"아무것도</w>":5511,"이쁘다</w>":5512,"힘들다</w>":5513,"웃긴게</w>":5514,"시로코</w>":5515,"기부":5516,"놈들":5517,"놈은</w>":5518,"대장":5519,"동희</w>":5520,"로드</w>":5521,"만큼":5522,"먹기</w>":5523,"무리":5524,"뭘까</w>":5525,"반대":5526,"상태</w>":5527,"오빠</w>":5528,"외형":5529,"적은</w>":5530,"출신":5531,"취급":5532,"염보성":5533,"있었네</w>":5534,"인터넷":5535,"2주년</w>":5536,"1분":5537,"기념</w>":5538,"대호</w>":5539,"던게</w>":5540,"되나요</w>":5541,"드립</w>":5542,"말아":5543,"말이야</w>":5544,"받아서</w>":5545,"버퍼</w>":5546,"올스타":5547,"자르":5548,"커스":5549,"프트</w>":5550,"하지않":5551,"한다는</w>":5552,"아침에</w>":5553,"유니폼</w>":5554,"남았다</w>":5555,"리노</w>":5556,"버거</w>":5557,"범죄":5558,"보면":5559,"보이는</w>":5560,"석이</w>":5561,"설정</w>":5562,"영어</w>":5563,"오나":5564,"이로</w>":5565,"전히</w>":5566,"쥬지</w>":5567,"최대</w>":5568,"취향":5569,"크게</w>":5570,"티켓":5571,"학치":5572,"해놓고</w>":5573,"홈런</w>":5574,"아이유</w>":5575,"재밌냐</w>":5576,"이번엔</w>":5577,"알려줌</w>":5578,"개소리":5579,"난거</w>":5580,"년들은</w>":5581,"다ㅋㅋ</w>":5582,"단톡":5583,"수학":5584,"시장</w>":5585,"여캐</w>":5586,"오바":5587,"치는":5588,"편집":5589,"포지":5590,"현대":5591,"언제까지</w>":5592,"좋은점</w>":5593,"지금은</w>":5594,"하지말고</w>":5595,"데려오":5596,"개꿀잼":5597,"갤럭시</w>":5598,"배터리</w>":5599,"비슈바":5600,"1인":5601,"er</w>":5602,"st":5603,"고소</w>":5604,"다름</w>":5605,"들에게</w>":5606,"마냥</w>":5607,"머지</w>":5608,"보인다</w>":5609,"상위</w>":5610,"신분</w>":5611,"씨젠":5612,"여신":5613,"완벽":5614,"있어":5615,"쳐도</w>":5616,"컨셉</w>":5617,"팔고</w>":5618,"포수</w>":5619,"한글":5620,"후반":5621,"손흥민</w>":5622,"ts":5623,"경쟁":5624,"고가</w>":5625,"공주":5626,"끝까지</w>":5627,"담배</w>":5628,"덤디":5629,"먼데</w>":5630,"없었":5631,"연기":5632,"왔어</w>":5633,"의사</w>":5634,"이것도</w>":5635,"일찍</w>":5636,"클럽":5637,"시간이</w>":5638,"시청자</w>":5639,"감사합니다</w>":5640,"박보검</w>":5641,"1도</w>":5642,"9급</w>":5643,"가나</w>":5644,"간단":5645,"거기":5646,"공익":5647,"그램</w>":5648,"네가</w>":5649,"돈이</w>":5650,"로나</w>":5651,"리지</w>":5652,"버림</w>":5653,"브금</w>":5654,"얍얍":5655,"어쩔":5656,"역사":5657,"연락":5658,"와중에</w>":5659,"위험":5660,"인형":5661,"자유":5662,"전붕이</w>":5663,"충분":5664,"쿠팡":5665,"쿠팡</w>":5666,"10년":5667,"ㅋㅋㅋㅋㅋㅋㅋㅋㅋㅋㅋㅋㅋㅋㅋㅋㅋ</w>":5668,"좋겠어</w>":5669,"V4</w>":5670,"갤도</w>":5671,"결승":5672,"공식":5673,"님덜</w>":5674,"단어</w>":5675,"못보":5676,"부정":5677,"성장":5678,"소울":5679,"손해":5680,"아나</w>":5681,"얘는</w>":5682,"원에</w>":5683,"월급</w>":5684,"있으":5685,"지를</w>":5686,"하위":5687,"한남</w>":5688,"아이패드</w>":5689,"이라서</w>":5690,"정상임</w>":5691,"콜라보":5692,"애미뒤진":5693,"일주일":5694,"80</w>":5695,"TO":5696,"on":5697,"ㅅㅍ</w>":5698,"공짜":5699,"교육":5700,"망함</w>":5701,"매력":5702,"몸매</w>":5703,"빼면</w>":5704,"사이</w>":5705,"어때":5706,"영입":5707,"음식":5708,"이동":5709,"이딴":5710,"절대":5711,"추억":5712,"칠플</w>":5713,"퇴근</w>":5714,"필요</w>":5715,"언제부터</w>":5716,"이상한</w>":5717,"좆같다</w>":5718,"있었으면</w>":5719,"다시보기</w>":5720,"일어나":5721,"60</w>":5722,"거라</w>":5723,"누적</w>":5724,"만해도</w>":5725,"사건":5726,"사라</w>":5727,"우스":5728,"원숭":5729,"잼민":5730,"팬덤":5731,"해줬":5732,"하지마":5733,"철구가</w>":5734,"모바일":5735,"고인물":5736,"1시간</w>":5737,"거긔</w>":5738,"그런</w>":5739,"기를</w>":5740,"던전":5741,"소녀":5742,"솔까</w>":5743,"안된다</w>":5744,"영지":5745,"오빠":5746,"운게</w>":5747,"이도":5748,"패턴":5749,"하려는데</w>":5750,"2020":5751,"아무리":5752,"마스터":5753,"애미뒤진</w>":5754,"라비던":5755,"승격을</w>":5756,"1년</w>":5757,"내고</w>":5758,"는걸</w>":5759,"리오</w>":5760,"명은</w>":5761,"몇개</w>":5762,"목표":5763,"못잡":5764,"못하네</w>":5765,"밤에</w>":5766,"소식</w>":5767,"아주</w>":5768,"아래</w>":5769,"안경":5770,"어카":5771,"없어도</w>":5772,"에반":5773,"왜캐</w>":5774,"음악":5775,"전까지</w>":5776,"제한":5777,"조금</w>":5778,"히는</w>":5779,"ㅋㅋㅋㅋㅋㅋ":5780,"사람있냐</w>":5781,"약독대</w>":5782,"가테":5783,"구독":5784,"꾸준":5785,"노력":5786,"는디</w>":5787,"뒷광고</w>":5788,"롯데</w>":5789,"모모":5790,"부상":5791,"부캐</w>":5792,"비율</w>":5793,"센터":5794,"싶어</w>":5795,"없긔</w>":5796,"왔습니다</w>":5797,"월드</w>":5798,"일때</w>":5799,"정주":5800,"제이":5801,"파수":5802,"질문점</w>":5803,"싫어하는</w>":5804,"마스터</w>":5805,"자러감</w>":5806,"미디신비</w>":5807,"al":5808,"것같음</w>":5809,"날이</w>":5810,"로빈":5811,"메타":5812,"박지":5813,"번트":5814,"상담":5815,"수페코</w>":5816,"쉽게</w>":5817,"시아":5818,"쎄리</w>":5819,"언급</w>":5820,"여캠":5821,"욕먹":5822,"웹툰":5823,"유투":5824,"이정도</w>":5825,"일진":5826,"임신":5827,"점수":5828,"정민":5829,"좌파":5830,"질러":5831,"치냐</w>":5832,"남자는</w>":5833,"나올까</w>":5834,"프레임</w>":5835,"가기</w>":5836,"걸어":5837,"걸이</w>":5838,"김준":5839,"끼고</w>":5840,"냐고":5841,"네임</w>":5842,"놈들이</w>":5843,"는건데</w>":5844,"대부분</w>":5845,"되는거임</w>":5846,"떴는데</w>":5847,"먼저":5848,"바꿀":5849,"박주":5850,"보민이</w>":5851,"부는</w>":5852,"비밀":5853,"살기</w>":5854,"안해도</w>":5855,"어리":5856,"오프</w>":5857,"이구나</w>":5858,"장원":5859,"주변":5860,"채널</w>":5861,"코디</w>":5862,"큰일":5863,"테러":5864,"티니아</w>":5865,"하지않냐</w>":5866,"화질</w>":5867,"휴가":5868,"여기가</w>":5869,"소환사</w>":5870,"새로운</w>":5871,"모니터</w>":5872,"최근에</w>":5873,"거래</w>":5874,"겠습니다</w>":5875,"공포":5876,"그라":5877,"넘게</w>":5878,"달달":5879,"둥이</w>":5880,"등장</w>":5881,"목소리":5882,"보은</w>":5883,"수저</w>":5884,"시기</w>":5885,"아나":5886,"야갤":5887,"오타":5888,"자기가</w>":5889,"재앙":5890,"전체":5891,"좆같음</w>":5892,"찍으면</w>":5893,"하셈</w>":5894,"아이들</w>":5895,"하는거지</w>":5896,"스트리머</w>":5897,"ㅁㅊ":5898,"게요</w>":5899,"국어</w>":5900,"나나</w>":5901,"문자":5902,"사망</w>":5903,"서브":5904,"어몽":5905,"이틀":5906,"인성":5907,"잠수":5908,"정신</w>":5909,"좆이":5910,"토마":5911,"판타":5912,"기다리":5913,"1등</w>":5914,"36</w>":5915,"600":5916,"것들</w>":5917,"견들</w>":5918,"공주</w>":5919,"기록</w>":5920,"까이":5921,"나여</w>":5922,"냥이</w>":5923,"데스</w>":5924,"맞고</w>":5925,"무료</w>":5926,"배민</w>":5927,"뷰지":5928,"삐부</w>":5929,"연결":5930,"연차</w>":5931,"전사":5932,"캐리":5933,"터질":5934,"트와":5935,"한거지</w>":5936,"UMD":5937,"가수":5938,"글로":5939,"기능</w>":5940,"노잼</w>":5941,"라오":5942,"만이</w>":5943,"블핑":5944,"안들어":5945,"없으니까</w>":5946,"이뻐":5947,"일리</w>":5948,"작년에</w>":5949,"죽어":5950,"지구":5951,"진정":5952,"집중":5953,"천장</w>":5954,"피규":5955,"피지":5956,"해설":5957,"호기</w>":5958,"프레스</w>":5959,"주인공</w>":5960,"강다니엘</w>":5961,"800":5962,"검은":5963,"글삭":5964,"기도":5965,"닮았":5966,"먼가</w>":5967,"못생겼":5968,"뭐함</w>":5969,"비스</w>":5970,"아래":5971,"안해</w>":5972,"어찌":5973,"용병</w>":5974,"직관":5975,"하니깐</w>":5976,"헤드":5977,"재밌는</w>":5978,"언제쯤</w>":5979,"정신나갈":5980,"념글에</w>":5981,"수영복":5982,"2번":5983,"가르":5984,"개씨발</w>":5985,"겁나</w>":5986,"대전":5987,"등록":5988,"만봐도</w>":5989,"미리":5990,"변경":5991,"비디":5992,"샤워":5993,"설치":5994,"없을":5995,"올렸":5996,"올린":5997,"이적":5998,"이던데</w>":5999,"일정</w>":6000,"쥬얼</w>":6001,"코어":6002,"튜브</w>":6003,"파이</w>":6004,"하네요</w>":6005,"해명":6006,"핸드":6007,"생각해보니까</w>":6008,"NC다이":6009,"갤럼</w>":6010,"기들</w>":6011,"등장":6012,"보드</w>":6013,"본사람</w>":6014,"삐앰":6015,"서건":6016,"세팅":6017,"세팅</w>":6018,"손혁":6019,"시대":6020,"쓰는거</w>":6021,"에에":6022,"웠는데</w>":6023,"이기</w>":6024,"이쁜</w>":6025,"젠지</w>":6026,"존버</w>":6027,"지랄</w>":6028,"체력":6029,"트로</w>":6030,"할인</w>":6031,"할수</w>":6032,"좋아요</w>":6033,"페이커</w>":6034,"90</w>":6035,"그오":6036,"까고</w>":6037,"모습</w>":6038,"미션":6039,"믿고</w>":6040,"뽑을":6041,"샀다</w>":6042,"순수":6043,"신발":6044,"안전":6045,"오래</w>":6046,"왔다":6047,"유동</w>":6048,"이쯤":6049,"초록":6050,"이라는데</w>":6051,"30분</w>":6052,"으로도</w>":6053,"으로는</w>":6054,"이러면</w>":6055,"나와도</w>":6056,"ㅇㅈㄹ</w>":6057,"1개":6058,"갔다</w>":6059,"겨울":6060,"놀러":6061,"당하는</w>":6062,"돌파</w>":6063,"비싼":6064,"수학</w>":6065,"아ㅋㅋ</w>":6066,"악질":6067,"안정":6068,"으으":6069,"즈가</w>":6070,"찍음</w>":6071,"체감":6072,"충이</w>":6073,"핑까":6074,"하실분</w>":6075,"ㅅㅅㅅㅅ</w>":6076,"해주라</w>":6077,"노트20</w>":6078,"3번":6079,"li":6080,"각개</w>":6081,"것같은데</w>":6082,"까지만</w>":6083,"루리":6084,"마르":6085,"망상":6086,"문자</w>":6087,"버린":6088,"보이냐</w>":6089,"수갤</w>":6090,"스랑</w>":6091,"신레</w>":6092,"안가":6093,"않을까</w>":6094,"여론":6095,"올릴":6096,"이를</w>":6097,"인지":6098,"좆병신":6099,"주워":6100,"줄사람</w>":6101,"축구</w>":6102,"침착":6103,"틀딱</w>":6104,"피아":6105,"한녀":6106,"흑우":6107,"ㄷㄷㄷㄷㄷ</w>":6108,"나온거</w>":6109,"135":6110,"9급":6111,"cm</w>":6112,"각인":6113,"갤로</w>":6114,"김종":6115,"노리":6116,"독서":6117,"맞는":6118,"먹어도</w>":6119,"백수":6120,"보여</w>":6121,"불타":6122,"뷰지</w>":6123,"선물</w>":6124,"설첫</w>":6125,"실력</w>":6126,"안들":6127,"양준":6128,"연합":6129,"우고</w>":6130,"이건":6131,"이민":6132,"좋긔</w>":6133,"주전":6134,"카톡</w>":6135,"캐시":6136,"클래":6137,"퇴물":6138,"하는듯</w>":6139,"라이트":6140,"스타일":6141,"열심히":6142,"사르포":6143,"ON</w>":6144,"갤길</w>":6145,"결제":6146,"고추":6147,"도망":6148,"등급":6149,"뜨네</w>":6150,"무적":6151,"성격</w>":6152,"손가":6153,"안잡":6154,"앞에</w>":6155,"였다</w>":6156,"움짤":6157,"원래":6158,"이노":6159,"작업":6160,"중인</w>":6161,"지들</w>":6162,"채팅</w>":6163,"최악":6164,"충전":6165,"테일":6166,"티가</w>":6167,"팔면</w>":6168,"포카</w>":6169,"피가</w>":6170,"한판":6171,"해체":6172,"히토":6173,"하나는</w>":6174,"축하왔":6175,"ㅏㅏㅏㅏ":6176,"대한민":6177,"1억":6178,"갖고</w>":6179,"넣으면</w>":6180,"네는</w>":6181,"대리</w>":6182,"드려":6183,"모집":6184,"볼때</w>":6185,"안돼":6186,"앗는데</w>":6187,"워싱":6188,"음ㅋㅋ</w>":6189,"이닝":6190,"코스</w>":6191,"하네":6192,"한점</w>":6193,"할거임</w>":6194,"나오는":6195,"게이들아</w>":6196,"맞추기</w>":6197,"시스템":6198,"메카노</w>":6199,"강다니엘":6200,"뉴빈":6201,"라니까</w>":6202,"말을</w>":6203,"맘마":6204,"먹을</w>":6205,"받았는데</w>":6206,"방탄":6207,"방학":6208,"버닝":6209,"볼만":6210,"어캐</w>":6211,"였노</w>":6212,"인거":6213,"자도</w>":6214,"자지</w>":6215,"전라도</w>":6216,"점에서</w>":6217,"중복":6218,"지코</w>":6219,"직접</w>":6220,"함께":6221,"현실</w>":6222,"호구":6223,"같은게</w>":6224,"어디까지</w>":6225,"귀여움</w>":6226,"처음으로</w>":6227,"아바타</w>":6228,"거부합니다</w>":6229,"1차</w>":6230,"24</w>":6231,"4강":6232,"감정":6233,"계약</w>":6234,"고쳐":6235,"극장":6236,"기능":6237,"김호":6238,"니들":6239,"루나":6240,"만드는</w>":6241,"못하겠":6242,"미스":6243,"성형</w>":6244,"신인</w>":6245,"심함</w>":6246,"왜저":6247,"웃겼":6248,"원딜":6249,"월급":6250,"유독</w>":6251,"조각":6252,"주세":6253,"카펫</w>":6254,"커리":6255,"탈리":6256,"호날":6257,"거같긔</w>":6258,"코스피</w>":6259,"나냐</w>":6260,"날라":6261,"내야":6262,"달고</w>":6263,"도리</w>":6264,"뛰어":6265,"무페":6266,"물고</w>":6267,"복각":6268,"봐줘</w>":6269,"비율":6270,"사제":6271,"아픈":6272,"아재</w>":6273,"온냐</w>":6274,"이걸로</w>":6275,"주술":6276,"짤은</w>":6277,"카던</w>":6278,"평소":6279,"생각이</w>":6280,"아이디</w>":6281,"ㅋㅋㅋㅋㅋㅋㅋㅋㅋㅋㅋㅋㅋㅋㅋㅋㅋㅋ</w>":6282,"존나게</w>":6283,"여자랑</w>":6284,"갤주님</w>":6285,"컴퓨터</w>":6286,"악의꽃</w>":6287,"en":6288,"구도</w>":6289,"균열</w>":6290,"냈다</w>":6291,"뒤진":6292,"레인":6293,"매수":6294,"복구</w>":6295,"연장</w>":6296,"이에요</w>":6297,"정의":6298,"파트":6299,"피는</w>":6300,"형은</w>":6301,"아파트</w>":6302,"5년":6303,"9월":6304,"가디":6305,"걸렸":6306,"겠어</w>":6307,"기적":6308,"기업</w>":6309,"냐ㅋㅋ</w>":6310,"넣고</w>":6311,"듯이</w>":6312,"라니</w>":6313,"봤음</w>":6314,"얍얍</w>":6315,"여름</w>":6316,"였나</w>":6317,"였어</w>":6318,"인도</w>":6319,"치는거</w>":6320,"타자</w>":6321,"토목":6322,"현질":6323,"지금도</w>":6324,"나왔다</w>":6325,"5000":6326,"아침부터</w>":6327,"스카우":6328,"올해의</w>":6329,"이찬원":6330,"티아고</w>":6331,"1일</w>":6332,"개웃기":6333,"나간":6334,"낫다</w>":6335,"님은</w>":6336,"모닝</w>":6337,"못하고</w>":6338,"번트</w>":6339,"부탁</w>":6340,"분석":6341,"소방":6342,"수상":6343,"안감</w>":6344,"알아</w>":6345,"언더":6346,"엔씨":6347,"왔쎄리</w>":6348,"워녕":6349,"인간</w>":6350,"잘알</w>":6351,"정가":6352,"출신</w>":6353,"카카오":6354,"호는</w>":6355,"20대</w>":6356,"모르겠다</w>":6357,"이었으면</w>":6358,"내일은</w>":6359,"노트20":6360,"드라마":6361,"211</w>":6362,"시청자":6363,"웨이브</w>":6364,"34":6365,"ga":6366,"ㅈㄹ":6367,"강남":6368,"거아님</w>":6369,"계획":6370,"기아</w>":6371,"라나</w>":6372,"만하면</w>":6373,"물냐":6374,"빠른":6375,"선넘":6376,"성우</w>":6377,"슬프":6378,"쓰기</w>":6379,"아아</w>":6380,"안좋":6381,"왜케":6382,"움직":6383,"유키":6384,"인줄":6385,"일찍":6386,"잡을":6387,"적폐":6388,"졸라</w>":6389,"주공":6390,"지역</w>":6391,"찍먹":6392,"차는</w>":6393,"체가</w>":6394,"초딩":6395,"페미</w>":6396,"핑크":6397,"했던":6398,"했긔</w>":6399,"만들면</w>":6400,"ㅇㅈㄹ":6401,"힘드네</w>":6402,"이홍구</w>":6403,"3연":6404,"75":6405,"CK":6406,"ㅉㅉ</w>":6407,"갔다가</w>":6408,"고있는데</w>":6409,"구린":6410,"노예":6411,"니까":6412,"다가":6413,"도적":6414,"드림":6415,"때리":6416,"몇명":6417,"보추":6418,"사망":6419,"서양":6420,"손혁</w>":6421,"었노</w>":6422,"예약</w>":6423,"예쁜</w>":6424,"위에</w>":6425,"이리":6426,"이사":6427,"이준":6428,"있어요</w>":6429,"잘어울":6430,"좆같이</w>":6431,"찍은</w>":6432,"청소":6433,"출시</w>":6434,"커플":6435,"팬들</w>":6436,"할때":6437,"할지</w>":6438,"햇다</w>":6439,"해주는</w>":6440,"노래는</w>":6441,"왜이래</w>":6442,"귀엽다</w>":6443,"만나면</w>":6444,"이간질</w>":6445,"6성</w>":6446,"9강</w>":6447,"개씨발":6448,"건가요</w>":6449,"근육":6450,"꼴리네</w>":6451,"끝남</w>":6452,"동물":6453,"되니까</w>":6454,"리오":6455,"마음</w>":6456,"망가</w>":6457,"먹네</w>":6458,"반지":6459,"보는거</w>":6460,"비추</w>":6461,"성인":6462,"센세</w>":6463,"스시":6464,"실점</w>":6465,"올리고</w>":6466,"윤지":6467,"정상</w>":6468,"조아</w>":6469,"크리스":6470,"트루":6471,"틀퀴":6472,"패스":6473,"핑크</w>":6474,"붕이들은</w>":6475,"스타일</w>":6476,"친구들</w>":6477,"돌아가":6478,"다이아</w>":6479,"오랜만":6480,"트위터":6481,"진심으로</w>":6482,"as":6483,"pl":6484,"가을":6485,"공트</w>":6486,"눈이</w>":6487,"능력</w>":6488,"단독</w>":6489,"돈벌":6490,"듀라":6491,"리메이":6492,"모두":6493,"몰라</w>":6494,"수강":6495,"싶음</w>":6496,"옵션":6497,"요리":6498,"원정":6499,"이지만</w>":6500,"점핑</w>":6501,"조지":6502,"주년":6503,"커피</w>":6504,"탈모":6505,"테슬":6506,"페코":6507,"홍어</w>":6508,"좋아서</w>":6509,"얼마임</w>":6510,"노트북</w>":6511,"eat</w>":6512,"어떡함</w>":6513,"조언좀</w>":6514,"공혁준</w>":6515,"어워즈</w>":6516,"3명</w>":6517,"4년":6518,"RO":6519,"기간</w>":6520,"꼴데":6521,"끄러":6522,"내리":6523,"놈들아</w>":6524,"니쥬":6525,"리얼</w>":6526,"마일리":6527,"바닥":6528,"받냐</w>":6529,"발견":6530,"병원":6531,"삭제</w>":6532,"순간":6533,"스팀":6534,"아기</w>":6535,"연기</w>":6536,"오마이":6537,"왔음</w>":6538,"전자":6539,"팔이</w>":6540,"프라":6541,"기다려":6542,"디자인</w>":6543,"가성비</w>":6544,"따효니</w>":6545,"티셔츠</w>":6546,"계의</w>":6547,"근장</w>":6548,"김재":6549,"나타":6550,"나가면</w>":6551,"노ㅋㅋㅋ</w>":6552,"다는건</w>":6553,"대구":6554,"들끼리</w>":6555,"마갤":6556,"모름</w>":6557,"박이</w>":6558,"보고있":6559,"본상</w>":6560,"섹시":6561,"싸개</w>":6562,"악세":6563,"영향":6564,"영탁</w>":6565,"와도</w>":6566,"위키</w>":6567,"유망":6568,"은건</w>":6569,"이서</w>":6570,"있습니다</w>":6571,"조건":6572,"체력</w>":6573,"클럽</w>":6574,"패는</w>":6575,"하라</w>":6576,"학원</w>":6577,"문제임</w>":6578,"마이너":6579,"할수록</w>":6580,"한테는</w>":6581,"스밍인증</w>":6582,"가치":6583,"고딩":6584,"고민</w>":6585,"기준이</w>":6586,"나봉":6587,"도착":6588,"따먹":6589,"롱빵</w>":6590,"뭐있음</w>":6591,"봤냐</w>":6592,"블핑</w>":6593,"뽑아야":6594,"세대":6595,"스키":6596,"앱등":6597,"예전</w>":6598,"오스":6599,"우우":6600,"으론</w>":6601,"이모</w>":6602,"인성</w>":6603,"정규":6604,"터는</w>":6605,"할때마다</w>":6606,"하고싶은데</w>":6607,"4성":6608,"갑니다</w>":6609,"건강":6610,"는이유</w>":6611,"도로</w>":6612,"로만</w>":6613,"리세</w>":6614,"말하는</w>":6615,"메가":6616,"모험":6617,"배틀":6618,"버서":6619,"분명</w>":6620,"살짝</w>":6621,"생이</w>":6622,"시로</w>":6623,"신정":6624,"안녕</w>":6625,"언니들</w>":6626,"예비":6627,"잇는데</w>":6628,"졌어</w>":6629,"찾음</w>":6630,"파밍</w>":6631,"아닌지</w>":6632,"친구랑</w>":6633,"애미들</w>":6634,"13일</w>":6635,"NC다이노스":6636,"1일차</w>":6637,"4강</w>":6638,"ㅣㅣ":6639,"귀신":6640,"닉네임</w>":6641,"먹어야":6642,"못참":6643,"미사":6644,"바보":6645,"배송":6646,"보이</w>":6647,"시계":6648,"싫음</w>":6649,"아반":6650,"알았다</w>":6651,"열등":6652,"오픈</w>":6653,"유로</w>":6654,"이다":6655,"저기</w>":6656,"좆도</w>":6657,"줘서</w>":6658,"차도</w>":6659,"참여":6660,"컴백</w>":6661,"크래":6662,"크는</w>":6663,"황금":6664,"하는중</w>":6665,"생각남</w>":6666,"10만":6667,"누구야</w>":6668,"이유가":6669,"괜찮음</w>":6670,"그만해</w>":6671,"경험치</w>":6672,"다이어트</w>":6673,"제주도</w>":6674,"2시간":6675,"4개":6676,"se":6677,"국룰":6678,"글을</w>":6679,"꺼져</w>":6680,"넥슨":6681,"는구나</w>":6682,"대표":6683,"뜬금":6684,"로헨":6685,"롤드컵</w>":6686,"먹는데</w>":6687,"먹는거</w>":6688,"멸망":6689,"물은</w>":6690,"보라</w>":6691,"불법":6692,"뽑기":6693,"선이</w>":6694,"시네</w>":6695,"실제로</w>":6696,"쓰네</w>":6697,"이뻐</w>":6698,"정해":6699,"주로</w>":6700,"찾았다</w>":6701,"캐르</w>":6702,"플옵":6703,"학원":6704,"기분이</w>":6705,"ing":6706,"키보드":6707,"99</w>":6708,"나봄</w>":6709,"데요</w>":6710,"만약":6711,"만듬</w>":6712,"먹어</w>":6713,"면됨</w>":6714,"모집</w>":6715,"받네</w>":6716,"소나</w>":6717,"속성</w>":6718,"시킨":6719,"안했":6720,"았으면</w>":6721,"어로</w>":6722,"연차":6723,"우르":6724,"으라고</w>":6725,"직원":6726,"테스트":6727,"피아</w>":6728,"같은건</w>":6729,"거같애</w>":6730,"이기면</w>":6731,"223</w>":6732,"느낀점</w>":6733,"주말에</w>":6734,"1군":6735,"1일":6736,"과학":6737,"기록":6738,"까는":6739,"도배</w>":6740,"동은</w>":6741,"마우스</w>":6742,"망했":6743,"먹지</w>":6744,"메가</w>":6745,"뮤비</w>":6746,"받을</w>":6747,"사쿠":6748,"수험":6749,"스찌":6750,"아무</w>":6751,"이겨":6752,"이김</w>":6753,"자이":6754,"정글":6755,"줄게</w>":6756,"집착":6757,"키스</w>":6758,"여자들이</w>":6759,"느낌이</w>":6760,"생각해보면</w>":6761,"디시콘</w>":6762,"모르겠는데</w>":6763,"공무원</w>":6764,"DUMD":6765,"op":6766,"가즈":6767,"네좆":6768,"뉴스</w>":6769,"니다":6770,"려도</w>":6771,"른다</w>":6772,"먹엇":6773,"먹어서</w>":6774,"멀티":6775,"몇번":6776,"분석</w>":6777,"사장":6778,"시고</w>":6779,"실패</w>":6780,"애비":6781,"외모</w>":6782,"이새끼":6783,"자고":6784,"전장</w>":6785,"주사":6786,"주자</w>":6787,"진은</w>":6788,"통피</w>":6789,"페그오</w>":6790,"하신</w>":6791,"하겠다</w>":6792,"합성":6793,"합방</w>":6794,"생각했는데</w>":6795,"레이크</w>":6796,"만들고</w>":6797,"라인업":6798,"인방갤</w>":6799,"선생님</w>":6800,"게시판</w>":6801,"S7":6802,"ㄴㄴ</w>":6803,"가짜":6804,"같애</w>":6805,"갤집</w>":6806,"검사</w>":6807,"남아</w>":6808,"됐냐</w>":6809,"뒤질":6810,"띠니</w>":6811,"란다</w>":6812,"망가":6813,"박근":6814,"스펙</w>":6815,"아탈":6816,"아줌마":6817,"애는</w>":6818,"에게":6819,"엠카</w>":6820,"위로</w>":6821,"잘해</w>":6822,"주노</w>":6823,"초보":6824,"플로":6825,"홍이</w>":6826,"이라면</w>":6827,"괜찮은데</w>":6828,"데이트":6829,"데이터</w>":6830,"생겼네</w>":6831,"할만함</w>":6832,"3000":6833,"뉴빈데</w>":6834,"2는</w>":6835,"3분":6836,"3페":6837,"감성":6838,"경우":6839,"근개":6840,"꼴데</w>":6841,"나은":6842,"동수":6843,"매일":6844,"메모":6845,"메시":6846,"본적":6847,"분이</w>":6848,"뿌리":6849,"새키":6850,"선착":6851,"수잇":6852,"않아</w>":6853,"엄마가</w>":6854,"유리</w>":6855,"이년</w>":6856,"조아":6857,"지코":6858,"창국":6859,"체감</w>":6860,"패러":6861,"포레":6862,"폰으로</w>":6863,"피드":6864,"하마":6865,"200</w>":6866,"좋은듯</w>":6867,"갤럭시":6868,"초기화":6869,"9월</w>":6870,"GI":6871,"ai":6872,"글리":6873,"는게":6874,"대냐</w>":6875,"덕분에</w>":6876,"데리":6877,"들으면</w>":6878,"따로":6879,"마영":6880,"매칭":6881,"모임</w>":6882,"못하면</w>":6883,"부자":6884,"설레":6885,"아는데</w>":6886,"않는</w>":6887,"오류":6888,"오후</w>":6889,"올린</w>":6890,"유럽":6891,"유희":6892,"이럼</w>":6893,"일반</w>":6894,"있어야</w>":6895,"자존":6896,"주는데</w>":6897,"캡쳐":6898,"피자":6899,"헤카":6900,"ㅋㅋㅋㅋㅋㅋㅋㅋㅋㅋㅋㅋㅋㅋㅋㅋㅋㅋㅋㅋㅋㅋㅋㅋㅋ</w>":6901,"우리도</w>":6902,"이런거":6903,"네이버":6904,"가축들</w>":6905,"스밍인증왔":6906,"유일한</w>":6907,"금민철</w>":6908,"2루":6909,"4성</w>":6910,"84":6911,"걸린":6912,"결혼</w>":6913,"고등":6914,"김봉준</w>":6915,"깨달":6916,"나보":6917,"남캐":6918,"늦게</w>":6919,"니아":6920,"듣는</w>":6921,"들임</w>":6922,"못한</w>":6923,"박제":6924,"방금":6925,"배달</w>":6926,"부활</w>":6927,"비하":6928,"상향</w>":6929,"성우":6930,"세가</w>":6931,"순이</w>":6932,"쓰리":6933,"오름</w>":6934,"온거</w>":6935,"용으로</w>":6936,"있게</w>":6937,"잘하는":6938,"제이</w>":6939,"쥬얼":6940,"찍었":6941,"친다</w>":6942,"카르":6943,"터가</w>":6944,"팀에</w>":6945,"편임</w>":6946,"한승":6947,"해보고</w>":6948,"존나웃기네</w>":6949,"재밌게</w>":6950,"언제나옴</w>":6951,"한번에</w>":6952,"2위":6953,"PC":6954,"le":6955,"가게</w>":6956,"가치</w>":6957,"갔으면</w>":6958,"거라고</w>":6959,"노부":6960,"노블":6961,"도안</w>":6962,"떴네</w>":6963,"만은</w>":6964,"만갤</w>":6965,"보성":6966,"보수":6967,"선동":6968,"아들</w>":6969,"야해</w>":6970,"요청":6971,"우리는</w>":6972,"이의</w>":6973,"저건</w>":6974,"줄까</w>":6975,"지니</w>":6976,"판다</w>":6977,"팬티":6978,"포르":6979,"하스</w>":6980,"한화":6981,"나오지</w>":6982,"사람있음</w>":6983,"추천점</w>":6984,"ㅠㅠㅠㅠㅠㅠㅠㅠ":6985,"어렵네</w>":6986,"가슴이</w>":6987,"기안84</w>":6988,"아시는분</w>":6989,"밸런스</w>":6990,"st</w>":6991,"갓겜</w>":6992,"개꿀</w>":6993,"갤플</w>":6994,"경북":6995,"깔끔":6996,"더러":6997,"로리":6998,"많노</w>":6999,"면접</w>":7000,"몸이</w>":7001,"문의</w>":7002,"버전":7003,"신의</w>":7004,"여초":7005,"원피스</w>":7006,"이따":7007,"저걸</w>":7008,"좋노</w>":7009,"지무":7010,"지는거</w>":7011,"천재":7012,"크가</w>":7013,"태블":7014,"트럼":7015,"퍼는</w>":7016,"하트":7017,"한거야</w>":7018,"그런거</w>":7019,"내일부터</w>":7020,"통합당</w>":7021,"이춘향</w>":7022,"사이퍼즈</w>":7023,"IN":7024,"pd":7025,"갓기</w>":7026,"그새끼</w>":7027,"글섭</w>":7028,"내면</w>":7029,"니쥬</w>":7030,"대중":7031,"대학</w>":7032,"돌리면</w>":7033,"듀얼":7034,"떡상</w>":7035,"라는":7036,"레스</w>":7037,"먹을까</w>":7038,"살면서</w>":7039,"시험</w>":7040,"실수":7041,"언젠":7042,"일로</w>":7043,"있던</w>":7044,"잘못</w>":7045,"조사":7046,"죽을":7047,"지리":7048,"지각</w>":7049,"토목</w>":7050,"티비</w>":7051,"프가</w>":7052,"하누</w>":7053,"현재":7054,"히트</w>":7055,"는거같음</w>":7056,"ㅋㅋㅋㅋㅋㅋㅋㅋㅋㅋㅋㅋㅋㅋㅋㅋㅋㅋㅋㅋㅋㅋ</w>":7057,"메이저</w>":7058,"트위치":7059,"클리어</w>":7060,"네이마르":7061,"가스</w>":7062,"거짓":7063,"경원</w>":7064,"교보":7065,"김성":7066,"나노</w>":7067,"날아":7068,"남순</w>":7069,"넷플":7070,"대네</w>":7071,"되었":7072,"들었":7073,"똑똑":7074,"머리가</w>":7075,"민트":7076,"박살":7077,"버는</w>":7078,"사가":7079,"소감</w>":7080,"신한":7081,"심한</w>":7082,"연구":7083,"온라인":7084,"이명":7085,"이요</w>":7086,"입은</w>":7087,"자면</w>":7088,"자의</w>":7089,"좋겟다</w>":7090,"중독":7091,"지워":7092,"크림":7093,"티저":7094,"프리</w>":7095,"궁금한거</w>":7096,"비슷한</w>":7097,"주인공":7098,"엉덩이</w>":7099,"양준일":7100,"or</w>":7101,"괴물":7102,"김진":7103,"다면서</w>":7104,"된거임</w>":7105,"둘중</w>":7106,"말복":7107,"바퀴":7108,"박원":7109,"받아</w>":7110,"법좀</w>":7111,"부랄":7112,"비주":7113,"사는데</w>":7114,"서는</w>":7115,"섭은</w>":7116,"시대</w>":7117,"야동":7118,"어음</w>":7119,"오류</w>":7120,"욕하는</w>":7121,"조계":7122,"주술사</w>":7123,"초딩때</w>":7124,"코어</w>":7125,"탈퇴":7126,"하트</w>":7127,"핫산</w>":7128,"같은거":7129,"아이디":7130,"어디임</w>":7131,"ㅋㅋㅋㅋㅋㅋㅋㅋㅋㅋㅋㅋㅋㅋㅋㅋㅋㅋㅋㅋㅋㅋㅋㅋㅋㅋ</w>":7132,"다음에</w>":7133,"ㅇㅅㅇ</w>":7134,"자전거</w>":7135,"은근히</w>":7136,"장원영</w>":7137,"1명</w>":7138,"47":7139,"66":7140,"95":7141,"개미":7142,"겨드":7143,"고생":7144,"교체":7145,"구매</w>":7146,"근무":7147,"단발":7148,"된거":7149,"라핌":7150,"레나</w>":7151,"모의":7152,"방은</w>":7153,"방이</w>":7154,"방패</w>":7155,"수고":7156,"수익":7157,"스크</w>":7158,"시티":7159,"싹다</w>":7160,"아싸":7161,"연애</w>":7162,"옷장</w>":7163,"유료":7164,"이게임</w>":7165,"전쟁</w>":7166,"좋더라</w>":7167,"짤녀":7168,"철염":7169,"코디":7170,"타라</w>":7171,"펀치</w>":7172,"피셜":7173,"해놓":7174,"재밌는데</w>":7175,"121</w>":7176,"프리뷰</w>":7177,"이였는데</w>":7178,"도와줘</w>":7179,"생기면</w>":7180,"초반에</w>":7181,"공무원":7182,"정우람</w>":7183,"3위":7184,"3페</w>":7185,"ㅅㅁ":7186,"가장":7187,"갈때</w>":7188,"거리는</w>":7189,"검사":7190,"고나":7191,"관심</w>":7192,"김에</w>":7193,"나가서</w>":7194,"늒네":7195,"대기</w>":7196,"드네</w>":7197,"뜨냐</w>":7198,"망한</w>":7199,"며칠":7200,"모습":7201,"못하는":7202,"봤어</w>":7203,"상자":7204,"시벌</w>":7205,"아씨발</w>":7206,"악마":7207,"여행</w>":7208,"영원":7209,"원하는</w>":7210,"위치</w>":7211,"윤지</w>":7212,"장점</w>":7213,"조만":7214,"크기</w>":7215,"프린":7216,"확진자</w>":7217,"나오노</w>":7218,"들어가면</w>":7219,"아이피</w>":7220,"ㅋㅋㅋㅋㅋㅋㅋㅋㅋㅋㅋㅋㅋㅋㅋㅋㅋㅋㅋㅋㅋ</w>":7221,"안되지</w>":7222,"이거지</w>":7223,"그러면</w>":7224,"나올듯</w>":7225,"ㄱㄱㄱ</w>":7226,"바르샤</w>":7227,"스트리머":7228,"이래서</w>":7229,"투기장</w>":7230,"비슈바크</w>":7231,"만약에</w>":7232,"포레스텔":7233,"2시간</w>":7234,"IA</w>":7235,"wa":7236,"갈수록</w>":7237,"국밥</w>":7238,"그리</w>":7239,"남이</w>":7240,"듀오</w>":7241,"라는게</w>":7242,"뭐하는</w>":7243,"보드":7244,"봤자</w>":7245,"부로</w>":7246,"빨고</w>":7247,"사냥</w>":7248,"수련":7249,"시계</w>":7250,"싶네</w>":7251,"싶으면</w>":7252,"쓰는게</w>":7253,"알아서</w>":7254,"앚퀴":7255,"야한":7256,"어깨":7257,"임대":7258,"있긴</w>":7259,"자야지</w>":7260,"잖음</w>":7261,"장도</w>":7262,"좋을까</w>":7263,"증거</w>":7264,"출연":7265,"탈주":7266,"할건데</w>":7267,"홍보</w>":7268,"황희":7269,"히면</w>":7270,"는거보면</w>":7271,"좋아하는":7272,"시리즈":7273,"헬스장</w>":7274,"드래곤":7275,"모리즈</w>":7276,"커뮤니":7277,"구요</w>":7278,"국은</w>":7279,"근첩</w>":7280,"기념":7281,"나주":7282,"네좆</w>":7283,"노는</w>":7284,"뉴짤</w>":7285,"달라</w>":7286,"대면</w>":7287,"더럽":7288,"된다고</w>":7289,"둘중에</w>":7290,"로드":7291,"리아":7292,"몇퍼":7293,"문코리":7294,"바이</w>":7295,"배가</w>":7296,"벌레</w>":7297,"보낸":7298,"시까지</w>":7299,"아크</w>":7300,"의심":7301,"이엇":7302,"조정":7303,"지방</w>":7304,"짜리":7305,"착각":7306,"착한":7307,"참고":7308,"클라":7309,"특이":7310,"포수":7311,"현금":7312,"아이유":7313,"아이스크":7314,"나올때</w>":7315,"미통당</w>":7316,"디렉터</w>":7317,"부동산</w>":7318,"S7k</w>":7319,"2번</w>":7320,"9강":7321,"ㅇㄷ":7322,"가스":7323,"개가</w>":7324,"계획</w>":7325,"구다":7326,"꺼지":7327,"끝난":7328,"남았는데</w>":7329,"냐는</w>":7330,"너는</w>":7331,"돌릴":7332,"되는게</w>":7333,"든다</w>":7334,"레알</w>":7335,"만루":7336,"먹고싶":7337,"솔플":7338,"스갤</w>":7339,"시세</w>":7340,"운전":7341,"은하</w>":7342,"인프":7343,"잔다</w>":7344,"지켜":7345,"지ㅋㅋ</w>":7346,"직캠":7347,"칸나</w>":7348,"페르":7349,"현황</w>":7350,"아니긔</w>":7351,"ㅋㅋㅋㅋㅋㅋㅋㅋㅋㅋㅋㅋㅋㅋㅋㅋㅋㅋㅋㅋ</w>":7352,"ㅋㅋㅋㅋㅋㅋㅋㅋㅋㅋㅋㅋㅋㅋㅋㅋㅋㅋㅋㅋㅋㅋㅋㅋㅋㅋㅋㅋ</w>":7353,"이라니</w>":7354,"모르고</w>":7355,"한국에서</w>":7356,"고있네</w>":7357,"잘생김</w>":7358,"얼굴이</w>":7359,"해보자</w>":7360,"할만한</w>":7361,"그렇고</w>":7362,"타이밍":7363,"신인상</w>":7364,"유일하게</w>":7365,"노가다</w>":7366,"라디오</w>":7367,"GIF</w>":7368,"110":7369,"2분":7370,"3만":7371,"5주년</w>":7372,"zz":7373,"ㅎㅇ":7374,"가기":7375,"가노</w>":7376,"개조":7377,"개로</w>":7378,"겨우</w>":7379,"고우":7380,"과연</w>":7381,"근대</w>":7382,"급식</w>":7383,"기랑</w>":7384,"내놔</w>":7385,"다님</w>":7386,"단계</w>":7387,"맞나</w>":7388,"매매":7389,"메타</w>":7390,"뽑으면</w>":7391,"수능</w>":7392,"승률</w>":7393,"아빠</w>":7394,"안나</w>":7395,"애정":7396,"어이</w>":7397,"어냐</w>":7398,"연갤</w>":7399,"왕따":7400,"우결":7401,"우유":7402,"전부터</w>":7403,"정수":7404,"죄송":7405,"주는게</w>":7406,"지수</w>":7407,"찍었다</w>":7408,"타로</w>":7409,"트리</w>":7410,"틀어":7411,"피부":7412,"하드</w>":7413,"할래</w>":7414,"해볼까</w>":7415,"마스크":7416,"인터넷</w>":7417,"알았음</w>":7418,"누군데</w>":7419,"ro":7420,"경우</w>":7421,"고다</w>":7422,"끝날":7423,"년들":7424,"단점</w>":7425,"려는</w>":7426,"로켓":7427,"멘탈":7428,"못하냐</w>":7429,"문파":7430,"미나</w>":7431,"방구":7432,"밴드</w>":7433,"버튼</w>":7434,"본인이</w>":7435,"속성":7436,"숙제":7437,"업적</w>":7438,"없으니</w>":7439,"원도</w>":7440,"일기</w>":7441,"자꾸":7442,"작품":7443,"탈락":7444,"토르":7445,"판은</w>":7446,"한텐</w>":7447,"병신임</w>":7448,"일본에서</w>":7449,"문재인":7450,"씨발련들아</w>":7451,"어몽어스</w>":7452,"2기":7453,"39</w>":7454,"48</w>":7455,"D59</w>":7456,"가까":7457,"가든":7458,"고치":7459,"곳이</w>":7460,"구분":7461,"까면</w>":7462,"나고</w>":7463,"높은":7464,"높은</w>":7465,"달에</w>":7466,"대형":7467,"든든":7468,"딸이</w>":7469,"루루":7470,"머니":7471,"몬스터</w>":7472,"무과금":7473,"보석</w>":7474,"상점</w>":7475,"생축":7476,"알리":7477,"엔씨</w>":7478,"연재":7479,"유전":7480,"이네":7481,"이마":7482,"이중":7483,"인원</w>":7484,"인척</w>":7485,"있더라</w>":7486,"전부":7487,"조센":7488,"최적":7489,"킹롤</w>":7490,"틱톡</w>":7491,"패널":7492,"프트":7493,"생각하냐</w>":7494,"해야하냐</w>":7495,"해야되냐</w>":7496,"씨발년아</w>":7497,"모르겠고</w>":7498,"그렇지</w>":7499,"요일에</w>":7500,"블루카펫</w>":7501,"씨발련아</w>":7502,"연예인</w>":7503,"엘롯연합</w>":7504,"42":7505,"TX":7506,"mm":7507,"감동":7508,"걸린</w>":7509,"걸그룹":7510,"겟노</w>":7511,"구제":7512,"그저</w>":7513,"당하면</w>":7514,"데뷔</w>":7515,"도박":7516,"도서":7517,"도르</w>":7518,"마라":7519,"많았":7520,"메시</w>":7521,"무난":7522,"바에</w>":7523,"방탄</w>":7524,"빌드":7525,"상렬":7526,"수급":7527,"어플</w>":7528,"어우</w>":7529,"오후":7530,"오버</w>":7531,"오는데</w>":7532,"음해":7533,"이안":7534,"읽어":7535,"자위":7536,"장기":7537,"준비</w>":7538,"처럼":7539,"코코":7540,"키로":7541,"키면</w>":7542,"튀어":7543,"프랑":7544,"향이</w>":7545,"회차</w>":7546,"아니라고</w>":7547,"올라옴</w>":7548,"500</w>":7549,"떨어짐</w>":7550,"잘생긴</w>":7551,"귀여운":7552,"시키면</w>":7553,"보고싶어</w>":7554,"대단하다</w>":7555,"레전드네</w>":7556,"마지막에</w>":7557,"부탁드립니다</w>":7558,"경원반지</w>":7559,"전성기</w>":7560,"포켓몬</w>":7561,"3명":7562,"49":7563,"L30":7564,"가축</w>":7565,"고잇":7566,"그때</w>":7567,"그동안</w>":7568,"달성</w>":7569,"라포":7570,"말도</w>":7571,"못생긴":7572,"브론":7573,"살이</w>":7574,"서포트</w>":7575,"수호":7576,"승리</w>":7577,"시나</w>":7578,"실에서</w>":7579,"어깨</w>":7580,"없찐":7581,"올려</w>":7582,"외퀴":7583,"좋을":7584,"지현":7585,"지들이</w>":7586,"질이</w>":7587,"차별":7588,"투력</w>":7589,"파란":7590,"팡이</w>":7591,"하자마자</w>":7592,"한달</w>":7593,"한정</w>":7594,"했잖아</w>":7595,"회복":7596,"흑인":7597,"여자들은</w>":7598,"아무나</w>":7599,"다이아":7600,"올해는</w>":7601,"자주국":7602,"플러스</w>":7603,"아저씨</w>":7604,"사르포자</w>":7605,"테슬라</w>":7606,"L30k</w>":7607,"Aga":7608,"개잘":7609,"갤탭":7610,"내역</w>":7611,"대충":7612,"동의":7613,"들을":7614,"똥퀴들</w>":7615,"만남</w>":7616,"매도":7617,"몸매":7618,"뭘로</w>":7619,"보가</w>":7620,"부리":7621,"빡치":7622,"사지</w>":7623,"성희":7624,"속이</w>":7625,"시도</w>":7626,"에피":7627,"완성":7628,"웠다</w>":7629,"이만</w>":7630,"자야":7631,"저씨":7632,"정가</w>":7633,"좋다고</w>":7634,"초월</w>":7635,"태그</w>":7636,"터로</w>":7637,"토토":7638,"티콘</w>":7639,"할배":7640,"하는것도</w>":7641,"이라는게</w>":7642,"여기는</w>":7643,"프로필</w>":7644,"뉴비들</w>":7645,"미쳤다</w>":7646,"이미지":7647,"모바일</w>":7648,"ROCK":7649,"조만간</w>":7650,"Rol":7651,"ㄱㅈ":7652,"가리":7653,"강의</w>":7654,"교통":7655,"꺼져":7656,"남친</w>":7657,"느그</w>":7658,"다닐":7659,"당한":7660,"도못":7661,"루는</w>":7662,"류준":7663,"버러":7664,"보석":7665,"브앱</w>":7666,"비해</w>":7667,"뽑음</w>":7668,"시즈":7669,"안해주":7670,"에다</w>":7671,"연속":7672,"웅이</w>":7673,"원본</w>":7674,"유로":7675,"이에</w>":7676,"저스</w>":7677,"짤드컵</w>":7678,"참기</w>":7679,"챔피":7680,"클릭":7681,"한개":7682,"한화</w>":7683,"했을때</w>":7684,"허벅":7685,"혀서</w>":7686,"회로</w>":7687,"생각해도</w>":7688,"사람도</w>":7689,"이상한":7690,"기대된다</w>":7691,"해줘라</w>":7692,"익스프레스</w>":7693,"마그멜</w>":7694,"무페토</w>":7695,"ingRol":7696,"양준일갤</w>":7697,"ROCKingRol":7698,"3성":7699,"4번":7700,"LC":7701,"가고싶다</w>":7702,"같으면</w>":7703,"개념</w>":7704,"그대로":7705,"기어</w>":7706,"기야</w>":7707,"나비":7708,"내내</w>":7709,"단이</w>":7710,"딸치":7711,"먹었네</w>":7712,"문학</w>":7713,"사도":7714,"살만":7715,"수면":7716,"스를</w>":7717,"스드</w>":7718,"신발</w>":7719,"안팔":7720,"알림</w>":7721,"어어</w>":7722,"언니":7723,"영은</w>":7724,"옹이</w>":7725,"왔킹롤</w>":7726,"웅장":7727,"장면":7728,"재미</w>":7729,"전라도":7730,"정은":7731,"지는데</w>":7732,"지현이</w>":7733,"쪽팔":7734,"판에</w>":7735,"해제</w>":7736,"호불":7737,"희재":7738,"아이콘</w>":7739,"얼마냐</w>":7740,"11시</w>":7741,"느낌임</w>":7742,"기사사진</w>":7743,"마음에</w>":7744,"이어폰</w>":7745,"울트라</w>":7746,"2명":7747,"5만":7748,"SD</w>":7749,"건드":7750,"경제":7751,"경녀</w>":7752,"공통":7753,"그린</w>":7754,"끼리":7755,"너스</w>":7756,"데리고</w>":7757,"돼서</w>":7758,"되는거냐</w>":7759,"뒤집":7760,"등급</w>":7761,"뜨는</w>":7762,"러셀</w>":7763,"몰아":7764,"못쓰":7765,"봉준이</w>":7766,"브가</w>":7767,"사나":7768,"스마갤</w>":7769,"알지</w>":7770,"연봉</w>":7771,"예능":7772,"윤도":7773,"이겜은</w>":7774,"인연":7775,"정동":7776,"좆됐다</w>":7777,"지는":7778,"지리네</w>":7779,"초반</w>":7780,"최애":7781,"치명":7782,"토끼</w>":7783,"트롤":7784,"포도":7785,"포함":7786,"허벌":7787,"ㅋㅋㅋㅋㅋㅋㅋㅋㅋㅋㅋㅋㅋㅋㅋㅋㅋㅋㅋㅋㅋㅋㅋㅋ</w>":7788,"붕이들이</w>":7789,"메이저":7790,"염보성이</w>":7791,"그러냐</w>":7792,"선수들</w>":7793,"사라짐</w>":7794,"노무현":7795,"라라라라":7796,"이재명</w>":7797,"적당히</w>":7798,"매니저</w>":7799,"고구마</w>":7800,"37":7801,"3성</w>":7802,"45</w>":7803,"th":7804,"ㅇㅇㅇ</w>":7805,"ㅎㅇ</w>":7806,"구로</w>":7807,"국에</w>":7808,"나무</w>":7809,"남은":7810,"로마":7811,"매칭</w>":7812,"못생":7813,"무너":7814,"바는</w>":7815,"방역":7816,"법사</w>":7817,"보정":7818,"비틱</w>":7819,"빠진":7820,"사는거</w>":7821,"서가</w>":7822,"스워":7823,"시점</w>":7824,"신나":7825,"아야</w>":7826,"안댐</w>":7827,"안하는데</w>":7828,"애비</w>":7829,"애기</w>":7830,"여중":7831,"용이</w>":7832,"원더":7833,"자격":7834,"재수":7835,"중망호</w>":7836,"지지</w>":7837,"초동</w>":7838,"최소":7839,"최용":7840,"치로</w>":7841,"표정":7842,"햇네</w>":7843,"했을":7844,"이번시즌</w>":7845,"거같네</w>":7846,"그런지</w>":7847,"한다는데</w>":7848,"만들어서</w>":7849,"Again":7850,"38":7851,"35</w>":7852,"ps":7853,"강정":7854,"겟음</w>":7855,"고장":7856,"구멍":7857,"그건</w>":7858,"기상</w>":7859,"깨워":7860,"낫네</w>":7861,"는사람</w>":7862,"다네</w>":7863,"딱히</w>":7864,"떠서</w>":7865,"못해서</w>":7866,"무엇":7867,"무과금</w>":7868,"문투":7869,"뭐해</w>":7870,"배당":7871,"변경</w>":7872,"보는게</w>":7873,"북이</w>":7874,"비스":7875,"세상</w>":7876,"센터</w>":7877,"시면</w>":7878,"시부터</w>":7879,"아지</w>":7880,"애들도</w>":7881,"었나</w>":7882,"었지</w>":7883,"이로":7884,"줄어":7885,"집회":7886,"타카":7887,"탈출</w>":7888,"터지면</w>":7889,"테라":7890,"트도</w>":7891,"팬티</w>":7892,"피겨":7893,"하십시오</w>":7894,"허리":7895,"효율":7896,"히네</w>":7897,"지금부터</w>":7898,"정상이냐</w>":7899,"알아보자</w>":7900,"선택권</w>":7901,"스러운</w>":7902,"여고딩</w>":7903,"2명</w>":7904,"3대</w>":7905,"in</w>":7906,"ㅌㅌ":7907,"가정":7908,"구글":7909,"끼면</w>":7910,"나는거</w>":7911,"너프</w>":7912,"단어":7913,"닮음</w>":7914,"로스트":7915,"뽑은</w>":7916,"사로</w>":7917,"새봄":7918,"십쇼</w>":7919,"십니까</w>":7920,"쓸데":7921,"아줌마</w>":7922,"얘가</w>":7923,"여갤러":7924,"우기</w>":7925,"우린</w>":7926,"유입</w>":7927,"자지":7928,"재앙</w>":7929,"졌냐</w>":7930,"줄은</w>":7931,"찍었는데</w>":7932,"키고</w>":7933,"태양":7934,"틀퀴들</w>":7935,"파스타</w>":7936,"판이</w>":7937,"패고</w>":7938,"평범":7939,"포카":7940,"하려나</w>":7941,"합격</w>":7942,"현역":7943,"이제는</w>":7944,"무섭다</w>":7945,"로빈치</w>":7946,"5개</w>":7947,"5만원":7948,"LI":7949,"고오":7950,"구조":7951,"기술</w>":7952,"꼴리면</w>":7953,"꾹삐":7954,"당하고</w>":7955,"더워서</w>":7956,"됐음</w>":7957,"디는</w>":7958,"랭킹</w>":7959,"루트</w>":7960,"맞는듯</w>":7961,"미쳐":7962,"분노":7963,"사퍼</w>":7964,"삼겹":7965,"선택</w>":7966,"씹덕</w>":7967,"씹슴</w>":7968,"에스":7969,"의대":7970,"인거임</w>":7971,"저능":7972,"전역":7973,"전용":7974,"즈원</w>":7975,"징크":7976,"책임":7977,"하이</w>":7978,"할텐데</w>":7979,"좋아해</w>":7980,"고있다</w>":7981,"올려줘</w>":7982,"140":7983,"키우는</w>":7984,"나이트</w>":7985,"안나오네</w>":7986,"무섭네</w>":7987,"역겹네</w>":7988,"박진영</w>":7989,"영지점</w>":7990,"1대":7991,"4개</w>":7992,"61</w>":7993,"ti":7994,"ㅍㅍ</w>":7995,"가니까</w>":7996,"감자":7997,"고수</w>":7998,"기냐</w>":7999,"돌림</w>":8000,"됐노</w>":8001,"뒷광고":8002,"딜러</w>":8003,"매크로</w>":8004,"민심</w>":8005,"발라":8006,"선권</w>":8007,"세탁":8008,"소드</w>":8009,"스에서</w>":8010,"시브</w>":8011,"아파</w>":8012,"앗다</w>":8013,"어따":8014,"없나요</w>":8015,"왜자꾸</w>":8016,"웨이</w>":8017,"유출</w>":8018,"으려고</w>":8019,"이분</w>":8020,"전력":8021,"조이</w>":8022,"존잘</w>":8023,"좆슨</w>":8024,"채원</w>":8025,"철권":8026,"토트":8027,"트에서</w>":8028,"특별":8029,"평타":8030,"하죠</w>":8031,"모르는데</w>":8032,"12시</w>":8033,"필요한</w>":8034,"미친놈":8035,"힘들어</w>":8036,"유진이</w>":8037,"승리하고</w>":8038,"블랙핑크</w>":8039,"정확히</w>":8040,"피규어</w>":8041,"6천":8042,"가끔":8043,"가라":8044,"금수저":8045,"났노</w>":8046,"높음</w>":8047,"는다고</w>":8048,"대도</w>":8049,"독일":8050,"동시에</w>":8051,"뒤져":8052,"디지":8053,"떳는데</w>":8054,"로우":8055,"리액":8056,"많다</w>":8057,"몰려":8058,"뭐있냐</w>":8059,"바라</w>":8060,"받는거</w>":8061,"발전":8062,"백용":8063,"버려</w>":8064,"벤치":8065,"보조":8066,"볼수록</w>":8067,"분은</w>":8068,"븝딱":8069,"빈이</w>":8070,"빠따":8071,"뽑고</w>":8072,"삼국":8073,"상남자":8074,"석은</w>":8075,"수인":8076,"실점":8077,"아크":8078,"어릴때</w>":8079,"유출":8080,"을수":8081,"이정도":8082,"인치</w>":8083,"임영웅</w>":8084,"자해":8085,"잘하면</w>":8086,"잠이</w>":8087,"찐특</w>":8088,"차로</w>":8089,"카나</w>":8090,"타면</w>":8091,"파서</w>":8092,"풍월":8093,"히히":8094,"ㅋㅋㅋㅋㅋㅋㅋ":8095,"씨발년</w>":8096,"좋은게</w>":8097,"지금이</w>":8098,"20080":8099,"만들기</w>":8100,"다행이다</w>":8101,"카메라":8102,"스마트":8103,"06":8104,"1루":8105,"1만":8106,"1티어</w>":8107,"250":8108,"65":8109,"AT":8110,"feat</w>":8111,"고있는</w>":8112,"공공":8113,"꾹찜</w>":8114,"느바</w>":8115,"다ㅋㅋㅋ</w>":8116,"데바":8117,"라미":8118,"랑은</w>":8119,"러시아</w>":8120,"리뷰</w>":8121,"맛이</w>":8122,"매물</w>":8123,"버즈</w>":8124,"보세요</w>":8125,"불가</w>":8126,"브금":8127,"비게":8128,"색이</w>":8129,"소득":8130,"숙제</w>":8131,"실버":8132,"아리</w>":8133,"아트</w>":8134,"안될":8135,"안맞":8136,"어플":8137,"온라인</w>":8138,"완료":8139,"이누":8140,"일상":8141,"적응":8142,"전장":8143,"정식</w>":8144,"중이다</w>":8145,"지속":8146,"찍덕":8147,"타마":8148,"팬덤</w>":8149,"페이지</w>":8150,"포스터</w>":8151,"프메</w>":8152,"하길래</w>":8153,"힘듬</w>":8154,"이상함</w>":8155,"이상하게</w>":8156,"한국인":8157,"시즌2":8158,"한남들</w>":8159,"아니었냐</w>":8160,"이찬원</w>":8161,"미나미":8162,"라라라라라":8163,"1억</w>":8164,"4대":8165,"nt":8166,"간거</w>":8167,"갈라":8168,"경이</w>":8169,"그니까</w>":8170,"근로":8171,"기타</w>":8172,"노스</w>":8173,"노ㅋㅋㅋㅋ</w>":8174,"녹두":8175,"눈팅":8176,"눈에</w>":8177,"담주</w>":8178,"대화":8179,"두산":8180,"똥찬</w>":8181,"러브":8182,"말투</w>":8183,"메일</w>":8184,"메뉴</w>":8185,"민아</w>":8186,"베리":8187,"보냈":8188,"사에</w>":8189,"살리":8190,"생리":8191,"숙이</w>":8192,"스윙":8193,"신수":8194,"아름":8195,"없었으면</w>":8196,"오고</w>":8197,"올시즌</w>":8198,"왔으면</w>":8199,"위가</w>":8200,"이겜":8201,"이보다</w>":8202,"익스</w>":8203,"잦돌":8204,"제작</w>":8205,"종목</w>":8206,"좆소":8207,"줬는데</w>":8208,"체험":8209,"추방":8210,"파괴":8211,"패배":8212,"퍼가</w>":8213,"포스</w>":8214,"혁이</w>":8215,"혈귀</w>":8216,"는거아님</w>":8217,"사람인데</w>":8218,"이러냐</w>":8219,"어렵다</w>":8220,"마음이</w>":8221,"바르샤":8222,"아쉽네</w>":8223,"한마디":8224,"서건창</w>":8225,"아탈란":8226,"1티어":8227,"2배":8228,"59":8229,"sk":8230,"개봉":8231,"공격</w>":8232,"꾸라</w>":8233,"꾸니</w>":8234,"나지</w>":8235,"내놓":8236,"네ㅋㅋㅋㅋㅋ</w>":8237,"늦게":8238,"단디":8239,"대문</w>":8240,"등판":8241,"망겜</w>":8242,"무지":8243,"무게</w>":8244,"문의":8245,"민호</w>":8246,"방패":8247,"볼수":8248,"봤네</w>":8249,"수술":8250,"쓸모":8251,"쓸만함</w>":8252,"아칼":8253,"안했는데</w>":8254,"앰창":8255,"여캠</w>":8256,"열이</w>":8257,"요리</w>":8258,"윤석":8259,"의식":8260,"잇엇":8261,"있는거임</w>":8262,"자세":8263,"자대</w>":8264,"전화</w>":8265,"짤이</w>":8266,"천사":8267,"피통</w>":8268,"해줄</w>":8269,"해설</w>":8270,"들어서</w>":8271,"필요함</w>":8272,"프레임":8273,"입장에서</w>":8274,"스위치</w>":8275,"지하철":8276,"마인드</w>":8277,"세라핌</w>":8278,"키움히어로":8279,"왜이러냐</w>":8280,"박찬호</w>":8281,"라비던스마갤</w>":8282,"진정한</w>":8283,"강다니엘갤</w>":8284,"Again신곡":8285,"46":8286,"55</w>":8287,"6시</w>":8288,"mb":8289,"pc</w>":8290,"ㅍㅌㅊ</w>":8291,"개편":8292,"갤의</w>":8293,"거울":8294,"것같다</w>":8295,"교육</w>":8296,"기대</w>":8297,"김혜":8298,"넣음</w>":8299,"뒤로</w>":8300,"머뷔":8301,"멸망</w>":8302,"뭐냐":8303,"백업":8304,"붙어":8305,"설명</w>":8306,"없잖아</w>":8307,"영탁":8308,"은카</w>":8309,"장발":8310,"절반":8311,"좀만</w>":8312,"지듣":8313,"집회</w>":8314,"짱개":8315,"찜앰":8316,"차가</w>":8317,"초코":8318,"축하</w>":8319,"트와이":8320,"팝니다</w>":8321,"포함</w>":8322,"하꼬":8323,"합리":8324,"해줬으면</w>":8325,"했나</w>":8326,"했다가</w>":8327,"우리나라</w>":8328,"시작한</w>":8329,"올라왔":8330,"시발아</w>":8331,"문제는</w>":8332,"프로듀":8333,"게이들</w>":8334,"마지막으로</w>":8335,"200812</w>":8336,"남순이</w>":8337,"첫방축하왔":8338,"대한민국</w>":8339,"ㅅㅁㅇㅈ</w>":8340,"단디왔쎄리</w>":8341,"44":8342,"NT":8343,"ㅈ같네</w>":8344,"ㅋㄱ":8345,"각인</w>":8346,"공앱</w>":8347,"공매도</w>":8348,"관계</w>":8349,"구림</w>":8350,"굿즈":8351,"기관":8352,"누나가</w>":8353,"대서</w>":8354,"동양":8355,"들음</w>":8356,"먹이":8357,"몰라서</w>":8358,"문과":8359,"바지":8360,"반박":8361,"보정</w>":8362,"쉬움</w>":8363,"았노</w>":8364,"어서":8365,"오승":8366,"윤영":8367,"이팀</w>":8368,"이대로</w>":8369,"인물</w>":8370,"전혀</w>":8371,"점프":8372,"좋았는데</w>":8373,"커플</w>":8374,"코트":8375,"퀘스트":8376,"판매</w>":8377,"피자</w>":8378,"함ㅋㅋ</w>":8379,"해봐라</w>":8380,"해진다</w>":8381,"사람을</w>":8382,"어디로</w>":8383,"어디냐</w>":8384,"언제임</w>":8385,"괜찮은</w>":8386,"노래가</w>":8387,"부터가</w>":8388,"선생님들</w>":8389,"꼬라지</w>":8390,"중간에</w>":8391,"괴롭히":8392,"이찬원마갤</w>":8393,"3번</w>":8394,"56":8395,"국수</w>":8396,"그랑":8397,"네네":8398,"노답":8399,"노가</w>":8400,"놀이</w>":8401,"단계":8402,"데도</w>":8403,"랬는데</w>":8404,"마레</w>":8405,"말인데</w>":8406,"망구</w>":8407,"멘탈</w>":8408,"모션</w>":8409,"무라</w>":8410,"미드</w>":8411,"밥먹":8412,"보호":8413,"브앱":8414,"뽑았는데</w>":8415,"살짝":8416,"아다</w>":8417,"어짜":8418,"요새":8419,"이죠</w>":8420,"쟁이":8421,"적어":8422,"제외":8423,"제는</w>":8424,"좆두</w>":8425,"짱깨</w>":8426,"캐는</w>":8427,"코토":8428,"트롯":8429,"해외</w>":8430,"하나로</w>":8431,"언제까지":8432,"여기에</w>":8433,"14일</w>":8434,"있는사람</w>":8435,"없는듯</w>":8436,"시키고</w>":8437,"하겠습니다</w>":8438,"남았네</w>":8439,"빠르게</w>":8440,"마무리</w>":8441,"아티스트":8442,"아키노</w>":8443,"시너지</w>":8444,"1시</w>":8445,"2년</w>":8446,"4천":8447,"TS":8448,"am":8449,"가다</w>":8450,"가진</w>":8451,"개장":8452,"건담</w>":8453,"급은</w>":8454,"끌어":8455,"나아":8456,"니지":8457,"단기</w>":8458,"당은</w>":8459,"더라도</w>":8460,"되는거지</w>":8461,"들면</w>":8462,"레드</w>":8463,"망한":8464,"백호</w>":8465,"부반</w>":8466,"사나</w>":8467,"안할":8468,"안이</w>":8469,"안하는":8470,"여동생</w>":8471,"오가</w>":8472,"위키":8473,"인이유</w>":8474,"졌노</w>":8475,"조각</w>":8476,"주나</w>":8477,"주는거":8478,"폴라</w>":8479,"한적":8480,"혼란":8481,"화력</w>":8482,"희재</w>":8483,"시작했는데</w>":8484,"아닌거</w>":8485,"ㄷㄷㄷㄷㄷㄷ</w>":8486,"그러는데</w>":8487,"한거같음</w>":8488,"170":8489,"한다면</w>":8490,"노트북":8491,"신기하네</w>":8492,"안나오냐</w>":8493,"어렵냐</w>":8494,"알았네</w>":8495,"그립다</w>":8496,"광복절</w>":8497,"신민혁</w>":8498,"가즈아</w>":8499,"2군</w>":8500,"27</w>":8501,"5개":8502,"bo":8503,"ㅂㄷ":8504,"ㅂㄹ</w>":8505,"ㅅㄱ":8506,"가려":8507,"개는</w>":8508,"갤질</w>":8509,"거의":8510,"고로":8511,"고통":8512,"눈물</w>":8513,"단장":8514,"도라":8515,"도록</w>":8516,"되겠네</w>":8517,"렌탈":8518,"련아</w>":8519,"리모":8520,"린데</w>":8521,"마감":8522,"망겜":8523,"미주":8524,"반고</w>":8525,"버릴":8526,"샌드":8527,"시조":8528,"시는데</w>":8529,"씨가</w>":8530,"없었는데</w>":8531,"여동생":8532,"오락":8533,"오브":8534,"왔찬또</w>":8535,"음원":8536,"있을</w>":8537,"있어야":8538,"잘한다</w>":8539,"전소":8540,"점에</w>":8541,"조이":8542,"좋게</w>":8543,"주말</w>":8544,"찍을":8545,"취업":8546,"커가</w>":8547,"크보</w>":8548,"크린이</w>":8549,"피통":8550,"해피":8551,"라이온":8552,"ㅋㅋㅋㅋㅋㅋㅋㅋㅋㅋㅋㅋㅋㅋㅋㅋㅋㅋㅋㅋㅋㅋㅋㅋㅋㅋㅋ</w>":8553,"좋아하는데</w>":8554,"이라고":8555,"시작함</w>":8556,"에서만</w>":8557,"나온다고</w>":8558,"궁금해서</w>":8559,"160":8560,"보고가라</w>":8561,"스카디</w>":8562,"축하해</w>":8563,"틀딱들</w>":8564,"어떡하냐</w>":8565,"비비큐</w>":8566,"박정수</w>":8567,"카운터</w>":8568,"연예인":8569,"장애인":8570,"김연아</w>":8571,"만큼은</w>":8572,"아무리봐도</w>":8573,"1던</w>":8574,"33</w>":8575,"ㅇㄱ":8576,"개판":8577,"것도":8578,"계란":8579,"고나서</w>":8580,"공감":8581,"기타":8582,"김정":8583,"꺼내":8584,"년대</w>":8585,"력은</w>":8586,"를까</w>":8587,"마츠":8588,"만붕이</w>":8589,"못봄</w>":8590,"뭐하는":8591,"바꾼":8592,"박으면</w>":8593,"받았다</w>":8594,"받은거</w>":8595,"배경</w>":8596,"봊돌</w>":8597,"빌려":8598,"성욕":8599,"성을</w>":8600,"실적</w>":8601,"심이</w>":8602,"쓴다</w>":8603,"아케":8604,"안사":8605,"안치":8606,"염색":8607,"오브</w>":8608,"으려면</w>":8609,"의상":8610,"이더라</w>":8611,"인원":8612,"자라</w>":8613,"작전":8614,"장려":8615,"주간":8616,"중이</w>":8617,"쯤에</w>":8618,"코미":8619,"크루":8620,"타자":8621,"토미":8622,"하향":8623,"한건데</w>":8624,"행사</w>":8625,"훈이</w>":8626,"병신같은</w>":8627,"재밌어":8628,"재밌어</w>":8629,"씨발련</w>":8630,"사이버":8631,"사이드</w>":8632,"이였네</w>":8633,"클리어":8634,"이지랄</w>":8635,"일주일</w>":8636,"프라이즈</w>":8637,"sa</w>":8638,"ㅍㅌㅊ":8639,"ㅜㅜㅜ</w>":8640,"가수</w>":8641,"강제":8642,"개좆같":8643,"거랑</w>":8644,"구단</w>":8645,"기본</w>":8646,"김지":8647,"나감</w>":8648,"너구리</w>":8649,"동희":8650,"뒤진</w>":8651,"라며</w>":8652,"로가</w>":8653,"맞으면</w>":8654,"몇살":8655,"문학":8656,"미니</w>":8657,"선배":8658,"셀카</w>":8659,"소에서</w>":8660,"수를</w>":8661,"스프":8662,"신비":8663,"실시간":8664,"쓸때</w>":8665,"에휴</w>":8666,"여사":8667,"여왕":8668,"이때</w>":8669,"인천":8670,"인별</w>":8671,"입고":8672,"전투</w>":8673,"졸라":8674,"차트":8675,"천천":8676,"특징":8677,"할까요</w>":8678,"햇음</w>":8679,"아니시발</w>":8680,"아니었음</w>":8681,"고싶은</w>":8682,"아이템</w>":8683,"나왔음</w>":8684,"사이에</w>":8685,"만들었":8686,"염보가</w>":8687,"는데요</w>":8688,"좋겠긔</w>":8689,"에어컨":8690,"스포츠":8691,"갤럼들</w>":8692,"스트레스</w>":8693,"광복절":8694,"박원순</w>":8695,"TXT</w>":8696,"IT":8697,"bb":8698,"결승</w>":8699,"고아":8700,"기르":8701,"꼬추":8702,"나갔":8703,"님의</w>":8704,"당당":8705,"대표</w>":8706,"도란":8707,"도시</w>":8708,"디코":8709,"똑같은</w>":8710,"량이</w>":8711,"만렙":8712,"만의</w>":8713,"모스</w>":8714,"버리네</w>":8715,"벌어":8716,"불가":8717,"빠져":8718,"수지</w>":8719,"수리</w>":8720,"시킬":8721,"없을까</w>":8722,"에러":8723,"에다가</w>":8724,"일시</w>":8725,"임ㅋㅋ</w>":8726,"저번</w>":8727,"전공":8728,"조상":8729,"조건</w>":8730,"찜이</w>":8731,"쳐발":8732,"출발":8733,"충격</w>":8734,"충인데</w>":8735,"친추":8736,"투구</w>":8737,"틱톡":8738,"파냐</w>":8739,"파트</w>":8740,"판단":8741,"프렌":8742,"하아</w>":8743,"하지않음</w>":8744,"한시간":8745,"후기":8746,"10월</w>":8747,"씨발년들아</w>":8748,"그러니까</w>":8749,"보고가</w>":8750,"ㅅㅅㅅㅅㅅ</w>":8751,"미쳤노</w>":8752,"싫어함</w>":8753,"바꾸면</w>":8754,"어쩌고</w>":8755,"미안한데</w>":8756,"방어구</w>":8757,"김우석</w>":8758,"댕댕이</w>":8759,"29</w>":8760,"31</w>":8761,"cm":8762,"ic":8763,"ㄴㄴ":8764,"ㅇㅁ":8765,"ㅈㄹ</w>":8766,"ㅌㅍ":8767,"가세":8768,"각성</w>":8769,"개사기":8770,"갤임</w>":8771,"경기는</w>":8772,"공중":8773,"공장</w>":8774,"기상":8775,"나머지</w>":8776,"노블</w>":8777,"는건가</w>":8778,"달소</w>":8779,"도저":8780,"돈을</w>":8781,"두면</w>":8782,"떡이</w>":8783,"련들</w>":8784,"로운</w>":8785,"마구":8786,"마니":8787,"매번</w>":8788,"매출</w>":8789,"봐봐</w>":8790,"사은":8791,"상식":8792,"스갤":8793,"아씨</w>":8794,"야스</w>":8795,"어릴":8796,"에바</w>":8797,"여장":8798,"역사</w>":8799,"역전</w>":8800,"예고":8801,"오는거</w>":8802,"완결":8803,"운이</w>":8804,"원딜</w>":8805,"음료":8806,"음바":8807,"이새끼들은</w>":8808,"인도":8809,"정식":8810,"정화":8811,"종결":8812,"줘야지</w>":8813,"쳐다":8814,"초대":8815,"초등":8816,"치기":8817,"카오</w>":8818,"케이가</w>":8819,"탈리스":8820,"토론":8821,"토벌</w>":8822,"트라이":8823,"플옵</w>":8824,"학창":8825,"환이</w>":8826,"ㅋㅋㅋㅋㅋㅋㅋㅋㅋㅋㅋㅋㅋㅋㅋㅋㅋㅋㅋㅋㅋㅋㅋㅋㅋㅋㅋㅋㅋㅋ</w>":8827,"스토어</w>":8828,"괜찮네</w>":8829,"일본어</w>":8830,"인터뷰":8831,"베르너</w>":8832,"오태곤":8833,"어디갔냐</w>":8834,"아반떼</w>":8835,"2가</w>":8836,"5일":8837,"6성":8838,"ㅇㄷ</w>":8839,"가봐</w>":8840,"간호":8841,"개새끼</w>":8842,"걸리냐</w>":8843,"검은</w>":8844,"까질":8845,"너가</w>":8846,"노수":8847,"단장</w>":8848,"닮은</w>":8849,"둘다":8850,"똑같":8851,"러블리":8852,"로스</w>":8853,"롱빵":8854,"리티</w>":8855,"막상</w>":8856,"만으로</w>":8857,"모음":8858,"모아서</w>":8859,"박세":8860,"버블":8861,"본데</w>":8862,"뽑았":8863,"속도":8864,"시에":8865,"신가요</w>":8866,"심하네</w>":8867,"아틀":8868,"안하네</w>":8869,"요약":8870,"워요</w>":8871,"유사":8872,"응애":8873,"잡음</w>":8874,"잡으면</w>":8875,"저격</w>":8876,"좋겠네</w>":8877,"주차":8878,"지박":8879,"지랑</w>":8880,"직장":8881,"출근</w>":8882,"크네</w>":8883,"통일":8884,"피싸개":8885,"할땐</w>":8886,"행정":8887,"현은</w>":8888,"아니근데</w>":8889,"들어감</w>":8890,"방송은</w>":8891,"알려주":8892,"하고싶어</w>":8893,"나와라</w>":8894,"자체는</w>":8895,"ㅡㅡㅡㅡㅡㅡㅡㅡㅡㅡ":8896,"세상에</w>":8897,"몰랐는데</w>":8898,"이정후</w>":8899,"우파메카노</w>":8900,"08":8901,"XB":8902,"lo":8903,"간에</w>":8904,"강동":8905,"걸려서</w>":8906,"김선":8907,"꺼면</w>":8908,"놀랍":8909,"놀이":8910,"대문":8911,"돌리는</w>":8912,"돌리고</w>":8913,"등이</w>":8914,"라핌</w>":8915,"리가":8916,"리더":8917,"리에</w>":8918,"마대":8919,"만만":8920,"부부":8921,"소년":8922,"쇼미":8923,"시녀":8924,"시비":8925,"시장":8926,"아츠":8927,"야한다</w>":8928,"언플":8929,"엔젤":8930,"여신</w>":8931,"예장</w>":8932,"외야":8933,"요한</w>":8934,"워치</w>":8935,"은거임</w>":8936,"음원</w>":8937,"이하":8938,"인사</w>":8939,"자짤</w>":8940,"저랑</w>":8941,"죽음</w>":8942,"찜은</w>":8943,"쳤는데</w>":8944,"커는</w>":8945,"커스</w>":8946,"커미션</w>":8947,"피겨</w>":8948,"필터":8949,"한계":8950,"생각해</w>":8951,"들어가서</w>":8952,"좋은거":8953,"좋은거임</w>":8954,"모르겠네</w>":8955,"일러가</w>":8956,"오르네</w>":8957,"보여주":8958,"어려운":8959,"누군지</w>":8960,"대깨문":8961,"수사렌</w>":8962,"노가다":8963,"아버지</w>":8964,"2020년</w>":8965,"침착맨</w>":8966,"황희찬</w>":8967,"3시간":8968,"4시간":8969,"un":8970,"교환</w>":8971,"그렸":8972,"기자":8973,"년도":8974,"뇌절</w>":8975,"눈나":8976,"대답":8977,"도네</w>":8978,"도란</w>":8979,"독립":8980,"돌파":8981,"동일":8982,"두번</w>":8983,"드랑</w>":8984,"들었는데</w>":8985,"떡고</w>":8986,"라타</w>":8987,"매수</w>":8988,"모델</w>":8989,"뭐냐고</w>":8990,"미미":8991,"바꿈</w>":8992,"보구":8993,"부대</w>":8994,"부부</w>":8995,"사항</w>":8996,"안보이":8997,"얘네":8998,"어휴</w>":8999,"연출</w>":9000,"이가":9001,"자사":9002,"자임</w>":9003,"재업</w>":9004,"재넌</w>":9005,"좆돌":9006,"체결</w>":9007,"치는데</w>":9008,"투스</w>":9009,"페스":9010,"페도</w>":9011,"픽뚫":9012,"필기":9013,"하냐":9014,"활동</w>":9015,"새끼도</w>":9016,"가능성":9017,"프리미":9018,"프로그램</w>":9019,"일어나서</w>":9020,"머두링":9021,"어떨까</w>":9022,"어카냐</w>":9023,"ㅎㅎㅎ</w>":9024,"계란</w>":9025,"굴비</w>":9026,"놀라":9027,"뉴스":9028,"대부분":9029,"덕질":9030,"도우":9031,"딱이</w>":9032,"려니</w>":9033,"메인</w>":9034,"멘트</w>":9035,"믿을":9036,"발언</w>":9037,"보려고</w>":9038,"보시긔</w>":9039,"붙으면</w>":9040,"븝퍼</w>":9041,"빠짐</w>":9042,"솔로</w>":9043,"쉬운":9044,"시도":9045,"실물</w>":9046,"실제</w>":9047,"싶어":9048,"안해":9049,"않은</w>":9050,"았나</w>":9051,"야생":9052,"어류":9053,"없었음</w>":9054,"연봉":9055,"요구":9056,"운영</w>":9057,"의미</w>":9058,"이걸":9059,"일섭</w>":9060,"잘나가":9061,"저기":9062,"저가</w>":9063,"전엔</w>":9064,"중고</w>":9065,"진행</w>":9066,"쪽으로</w>":9067,"창년</w>":9068,"추이</w>":9069,"컷이</w>":9070,"탱이</w>":9071,"통이</w>":9072,"푸엉":9073,"프는</w>":9074,"하락":9075,"효율</w>":9076,"나오나</w>":9077,"고싶은":9078,"어디에</w>":9079,"하나가</w>":9080,"이상해</w>":9081,"1500":9082,"보이스</w>":9083,"파이터</w>":9084,"여고생</w>":9085,"확률로</w>":9086,"라운드</w>":9087,"학치커</w>":9088,"거기서</w>":9089,"TOP</w>":9090,"파수꾼</w>":9091,"박주홍</w>":9092,"손가락</w>":9093,"호날두</w>":9094,"05</w>":9095,"2인":9096,"58":9097,"ak":9098,"at</w>":9099,"고추</w>":9100,"공연</w>":9101,"권은</w>":9102,"급임</w>":9103,"기는데</w>":9104,"긴하다</w>":9105,"나잇</w>":9106,"단순":9107,"달러</w>":9108,"당분":9109,"더워</w>":9110,"덤디</w>":9111,"두명":9112,"뒤짐</w>":9113,"러가</w>":9114,"련들아</w>":9115,"몇일":9116,"무새":9117,"민주</w>":9118,"바가</w>":9119,"발로":9120,"보러</w>":9121,"보이면</w>":9122,"복지":9123,"브레이":9124,"빌런</w>":9125,"사료":9126,"생들</w>":9127,"소환</w>":9128,"수치":9129,"승이</w>":9130,"싶어서</w>":9131,"싸게</w>":9132,"쓰지</w>":9133,"아주":9134,"악물고</w>":9135,"안씀</w>":9136,"야이</w>":9137,"업글":9138,"은행":9139,"음악</w>":9140,"이은":9141,"이새끼는</w>":9142,"인형</w>":9143,"자총</w>":9144,"작품</w>":9145,"재기":9146,"적임</w>":9147,"접는다</w>":9148,"줘야</w>":9149,"창렬":9150,"토벌":9151,"피방":9152,"한게":9153,"해킹":9154,"현직</w>":9155,"환급":9156,"후려":9157,"히나":9158,"하는이유</w>":9159,"안되는거</w>":9160,"이번달</w>":9161,"117</w>":9162,"소리바다":9163,"이런건</w>":9164,"으로만</w>":9165,"문재앙</w>":9166,"무서운</w>":9167,"영웅이</w>":9168,"커여운</w>":9169,"트레저</w>":9170,"히어로</w>":9171,"포지션":9172,"김준수갤</w>":9173,"아이스크림</w>":9174,"28</w>":9175,"32</w>":9176,"5억":9177,"97</w>":9178,"XIA</w>":9179,"ap":9180,"ㅈ같":9181,"갤길":9182,"경민</w>":9183,"경상도</w>":9184,"공산":9185,"금요일</w>":9186,"기존":9187,"나가는</w>":9188,"덕에</w>":9189,"래도</w>":9190,"로갓":9191,"르는</w>":9192,"리셋":9193,"마카":9194,"말에</w>":9195,"말곤</w>":9196,"먹는다</w>":9197,"뭐로</w>":9198,"민은</w>":9199,"병원</w>":9200,"복커":9201,"불가능":9202,"비아</w>":9203,"사업":9204,"사과</w>":9205,"사장</w>":9206,"세일":9207,"소드":9208,"신레":9209,"않네</w>":9210,"없다":9211,"없제</w>":9212,"에리":9213,"여전히</w>":9214,"예리":9215,"오라</w>":9216,"오토</w>":9217,"올림":9218,"왓는데</w>":9219,"용선권</w>":9220,"운지</w>":9221,"이따</w>":9222,"이거임</w>":9223,"잘하냐</w>":9224,"잡는</w>":9225,"적자":9226,"전에서</w>":9227,"채워":9228,"캐시</w>":9229,"콜로":9230,"콜라</w>":9231,"클레":9232,"할려면</w>":9233,"함께</w>":9234,"해제":9235,"했습니다</w>":9236,"화력":9237,"10시</w>":9238,"여자한테</w>":9239,"있는지</w>":9240,"그만하고</w>":9241,"어떻게함</w>":9242,"중요한</w>":9243,"하면됨</w>":9244,"이쁜데</w>":9245,"버렸네</w>":9246,"아프리카":9247,"지하철</w>":9248,"라우드</w>":9249,"3시간</w>":9250,"ME":9251,"ip":9252,"kg":9253,"것만</w>":9254,"고십":9255,"구속</w>":9256,"기여":9257,"기출":9258,"김하":9259,"능국":9260,"니스</w>":9261,"되겠지</w>":9262,"두명</w>":9263,"떠나서</w>":9264,"마크</w>":9265,"만지":9266,"먹은거</w>":9267,"몬가</w>":9268,"뭐하노</w>":9269,"배메":9270,"번에</w>":9271,"본적</w>":9272,"부들":9273,"상하":9274,"선은</w>":9275,"성과</w>":9276,"소는</w>":9277,"소울</w>":9278,"수집":9279,"시팔</w>":9280,"아줌마들</w>":9281,"악몽</w>":9282,"오니까</w>":9283,"왜함</w>":9284,"이영":9285,"이즈":9286,"이네요</w>":9287,"익숙":9288,"있다":9289,"작은":9290,"장으로</w>":9291,"전체</w>":9292,"정부":9293,"정글</w>":9294,"조눈</w>":9295,"족구</w>":9296,"줄알았는데</w>":9297,"지난":9298,"질투":9299,"추는</w>":9300,"취향</w>":9301,"타고":9302,"테일</w>":9303,"하구나</w>":9304,"할거야</w>":9305,"환영":9306,"후장":9307,"모르는":9308,"우리집</w>":9309,"이유를</w>":9310,"올라온</w>":9311,"135</w>":9312,"요즘도</w>":9313,"이였음</w>":9314,"ing</w>":9315,"인가봐</w>":9316,"작가가</w>":9317,"화이팅</w>":9318,"시나리오</w>":9319,"히토미</w>":9320,"스카우터</w>":9321,"NC다이노스갤러리</w>":9322,"1군</w>":9323,"4일":9324,"7시</w>":9325,"거기</w>":9326,"거품</w>":9327,"걸리면</w>":9328,"공익</w>":9329,"구야</w>":9330,"기원":9331,"꺼임</w>":9332,"나야</w>":9333,"더라":9334,"돌이":9335,"됐으면</w>":9336,"때만</w>":9337,"롤백":9338,"리다</w>":9339,"릴라</w>":9340,"만날":9341,"많으면</w>":9342,"맨날":9343,"먹여":9344,"몇시간":9345,"못생긴</w>":9346,"반기</w>":9347,"버튼":9348,"베트":9349,"복각</w>":9350,"붕이가</w>":9351,"붙여":9352,"브는</w>":9353,"섭외":9354,"송가":9355,"승급":9356,"쓸까</w>":9357,"안들어가":9358,"오는":9359,"유미</w>":9360,"잠깐":9361,"적인":9362,"정부</w>":9363,"졌음</w>":9364,"조국</w>":9365,"조작</w>":9366,"주작</w>":9367,"차에</w>":9368,"치이</w>":9369,"크보":9370,"크트</w>":9371,"허수":9372,"후타":9373,"흑우</w>":9374,"안되노</w>":9375,"지않았냐</w>":9376,"추천좀":9377,"gisa</w>":9378,"ㄷㄷㄷㄷㄷㄷㄷ</w>":9379,"400</w>":9380,"ㅅㅂㅋㅋ</w>":9381,"레전드다</w>":9382,"미안하다</w>":9383,"택배없는":9384,"고인물</w>":9385,"리버풀</w>":9386,"초기화</w>":9387,"유격수</w>":9388,"원숭이</w>":9389,"근개비":9390,"130":9391,"USD</w>":9392,"kt":9393,"re":9394,"가든</w>":9395,"가실분</w>":9396,"갓기":9397,"갔냐</w>":9398,"개새끼들아</w>":9399,"과거</w>":9400,"구간</w>":9401,"남들</w>":9402,"남캐</w>":9403,"놔라</w>":9404,"대결":9405,"도움</w>":9406,"돌면</w>":9407,"된거냐</w>":9408,"딩이</w>":9409,"만나서</w>":9410,"말고는</w>":9411,"몇임</w>":9412,"몸에</w>":9413,"미체결</w>":9414,"방향":9415,"봐주":9416,"붕아</w>":9417,"상품":9418,"새우":9419,"소개</w>":9420,"수즈":9421,"스톤</w>":9422,"싶었는데</w>":9423,"싸게":9424,"어나":9425,"올까</w>":9426,"위치":9427,"임기":9428,"자짤":9429,"전기</w>":9430,"접속</w>":9431,"정액":9432,"참치":9433,"충무":9434,"코로</w>":9435,"코코</w>":9436,"타입":9437,"터져서</w>":9438,"투구":9439,"페이</w>":9440,"페스</w>":9441,"후반</w>":9442,"나오니까</w>":9443,"10억":9444,"씨발아</w>":9445,"해주실분</w>":9446,"누구랑</w>":9447,"이유로</w>":9448,"웃기노</w>":9449,"문제점</w>":9450,"한거같은데</w>":9451,"정신차":9452,"확실한건</w>":9453,"일러는</w>":9454,"일러스트</w>":9455,"시키는</w>":9456,"이제야</w>":9457,"노잼이네</w>":9458,"심심해서</w>":9459,"전설이다</w>":9460,"XBT</w>":9461,"77":9462,"ch":9463,"ㅈㄱ</w>":9464,"거네</w>":9465,"교체</w>":9466,"군요</w>":9467,"급이</w>":9468,"기획":9469,"까말까</w>":9470,"너희</w>":9471,"능지</w>":9472,"드로</w>":9473,"디가</w>":9474,"렙인데</w>":9475,"마이</w>":9476,"망했네</w>":9477,"명의</w>":9478,"못가":9479,"발기":9480,"배수</w>":9481,"법이</w>":9482,"변신":9483,"봉퀴들</w>":9484,"봊돌":9485,"비키":9486,"소니":9487,"솔랭":9488,"신수</w>":9489,"실물":9490,"써라</w>":9491,"안했으면</w>":9492,"았어</w>":9493,"엇다</w>":9494,"엇음</w>":9495,"었던</w>":9496,"예고</w>":9497,"완성</w>":9498,"왔노</w>":9499,"유나</w>":9500,"은지</w>":9501,"음방</w>":9502,"있다면</w>":9503,"잔아</w>":9504,"잡기</w>":9505,"잼민이</w>":9506,"점프</w>":9507,"정냐":9508,"좋고</w>":9509,"주소</w>":9510,"지안":9511,"지노</w>":9512,"집에":9513,"찌찌":9514,"퀴즈</w>":9515,"포토":9516,"플렉":9517,"하랜":9518,"학생</w>":9519,"할게":9520,"휴가</w>":9521,"나오겠지</w>":9522,"아이패드":9523,"해야하는데</w>":9524,"우리팀</w>":9525,"시작하면</w>":9526,"신기함</w>":9527,"조용히</w>":9528,"신곡보은왔":9529,"들어와봐</w>":9530,"투표인증왔XIA</w>":9531,"오나홀</w>":9532,"수강신청</w>":9533,"07</w>":9534,"4만":9535,"7시":9536,"av":9537,"가사</w>":9538,"같던데</w>":9539,"개월</w>":9540,"것같아</w>":9541,"고있음</w>":9542,"구합니다</w>":9543,"그럴":9544,"그는</w>":9545,"긴다</w>":9546,"끄럽":9547,"나발":9548,"내꺼":9549,"동의</w>":9550,"되도</w>":9551,"리제로</w>":9552,"릴리":9553,"마크":9554,"만루</w>":9555,"메구":9556,"무관":9557,"문파</w>":9558,"뭐긔</w>":9559,"뭐부터</w>":9560,"반도":9561,"발매":9562,"배송</w>":9563,"보는거":9564,"봐주라</w>":9565,"북커버</w>":9566,"브이</w>":9567,"블레이드</w>":9568,"삼각":9569,"소나":9570,"수있는</w>":9571,"수밖에</w>":9572,"스키</w>":9573,"스의</w>":9574,"시드</w>":9575,"실화</w>":9576,"싫은데</w>":9577,"쓰니까</w>":9578,"아트":9579,"악플":9580,"안경</w>":9581,"열폭":9582,"왤캐":9583,"요미</w>":9584,"욱이</w>":9585,"육성":9586,"이치":9587,"이길</w>":9588,"잇네</w>":9589,"잘자":9590,"주공</w>":9591,"죽이고</w>":9592,"줘요</w>":9593,"지나가":9594,"직히</w>":9595,"차기</w>":9596,"충은</w>":9597,"터졌네</w>":9598,"포스트</w>":9599,"할걸</w>":9600,"할려고</w>":9601,"해적":9602,"해본다</w>":9603,"화질":9604,"확인</w>":9605,"흑발":9606,"흑흑</w>":9607,"하는새끼들</w>":9608,"들어옴</w>":9609,"해야댐</w>":9610,"병신아</w>":9611,"이라며</w>":9612,"이라니까</w>":9613,"소리가</w>":9614,"일본은</w>":9615,"데이터":9616,"오르는</w>":9617,"하다하다</w>":9618,"도와주":9619,"갈아타":9620,"미안해</w>":9621,"시로코":9622,"한동희</w>":9623,"리버풀":9624,"세라핌":9625,"1개</w>":9626,"2부</w>":9627,"4번</w>":9628,"개털":9629,"결장</w>":9630,"꼬마가</w>":9631,"꼴려</w>":9632,"끄고</w>":9633,"끼는</w>":9634,"놓고":9635,"느낀</w>":9636,"늘려":9637,"단은</w>":9638,"달린":9639,"당해서</w>":9640,"대사":9641,"더이상</w>":9642,"두는</w>":9643,"맥주</w>":9644,"먹방</w>":9645,"메라":9646,"몰빵":9647,"문상":9648,"박은</w>":9649,"별명</w>":9650,"분전</w>":9651,"블랙</w>":9652,"뿐임</w>":9653,"선언</w>":9654,"스샷</w>":9655,"아우":9656,"아쿠":9657,"않이</w>":9658,"알겠다</w>":9659,"약속":9660,"연출":9661,"우선":9662,"워너":9663,"의자</w>":9664,"이형":9665,"이여</w>":9666,"이딴</w>":9667,"이시간에</w>":9668,"일섭":9669,"잘하":9670,"전담":9671,"죄악":9672,"주인</w>":9673,"준지</w>":9674,"증명":9675,"차기":9676,"크트":9677,"파는":9678,"패션":9679,"플스</w>":9680,"하필</w>":9681,"한사람</w>":9682,"호감</w>":9683,"어케하냐</w>":9684,"만들어</w>":9685,"정신병</w>":9686,"있는듯</w>":9687,"무조건":9688,"유니폼":9689,"스포츠</w>":9690,"경원비":9691,"커여워</w>":9692,"꼬라지":9693,"다이어트":9694,"아빠가</w>":9695,"공짜로</w>":9696,"주변에</w>":9697,"김호중</w>":9698,"지듣노</w>":9699,"1회</w>":9700,"KB":9701,"ig":9702,"개선":9703,"검머":9704,"고3":9705,"과자</w>":9706,"구롱빵</w>":9707,"기괴":9708,"기지</w>":9709,"꾸라":9710,"난이도":9711,"날에</w>":9712,"답변":9713,"당근":9714,"두부":9715,"등판</w>":9716,"랭크</w>":9717,"레어":9718,"리프":9719,"말투":9720,"머꼴":9721,"메좆</w>":9722,"목표</w>":9723,"뭔일":9724,"뭘로":9725,"박민":9726,"백호":9727,"비호감":9728,"사료</w>":9729,"살에</w>":9730,"선언":9731,"섭종":9732,"소식":9733,"소원":9734,"소화":9735,"손으로</w>":9736,"스팀</w>":9737,"아미":9738,"아킬":9739,"야리":9740,"어벤":9741,"어색":9742,"얻음</w>":9743,"에이</w>":9744,"연승":9745,"오우</w>":9746,"인벤":9747,"인들은</w>":9748,"일정":9749,"잇는</w>":9750,"잘하고</w>":9751,"졌으면</w>":9752,"좋다":9753,"주주":9754,"철권</w>":9755,"컴으로</w>":9756,"클라</w>":9757,"키작":9758,"태가</w>":9759,"토막":9760,"피씨":9761,"피갤집</w>":9762,"필리":9763,"하며</w>":9764,"아니겠지</w>":9765,"생각에</w>":9766,"그래픽":9767,"그래프</w>":9768,"게임에</w>":9769,"방송에서</w>":9770,"사이즈</w>":9771,"캐릭이</w>":9772,"뉴비가</w>":9773,"한번씩</w>":9774,"처음에</w>":9775,"경기도</w>":9776,"중요함</w>":9777,"대기업</w>":9778,"의미가</w>":9779,"세상에서</w>":9780,"아마기</w>":9781,"이득임</w>":9782,"인데도</w>":9783,"아쉽다</w>":9784,"이란게</w>":9785,"ver</w>":9786,"마무리":9787,"데미지</w>":9788,"벌써부터</w>":9789,"조계현</w>":9790,"장려금</w>":9791,"도저히</w>":9792,"1점":9793,"3루":9794,"69":9795,"8호</w>":9796,"9시</w>":9797,"CO":9798,"FA":9799,"by</w>":9800,"ㅎㄷㄷ</w>":9801,"각이다</w>":9802,"간다":9803,"갈듯</w>":9804,"감성</w>":9805,"개새끼야</w>":9806,"갤플":9807,"구해요</w>":9808,"굴리":9809,"길이</w>":9810,"꼬리":9811,"꿀벌":9812,"꿀잼</w>":9813,"나비</w>":9814,"대만":9815,"데ㅋㅋ</w>":9816,"덱은</w>":9817,"동성":9818,"듀오":9819,"드컵":9820,"로리</w>":9821,"릴카</w>":9822,"마마":9823,"마감</w>":9824,"모가</w>":9825,"못하는데</w>":9826,"뭐라</w>":9827,"뭔가":9828,"뮤비":9829,"박준":9830,"박제</w>":9831,"받기</w>":9832,"받는데</w>":9833,"배워":9834,"변호":9835,"보닌":9836,"봐요</w>":9837,"분명":9838,"블본</w>":9839,"선수가</w>":9840,"소가</w>":9841,"수랑</w>":9842,"시바":9843,"심리":9844,"안대":9845,"안나온":9846,"여니</w>":9847,"열리":9848,"영양":9849,"와타":9850,"욕심":9851,"이우":9852,"이어도</w>":9853,"인물":9854,"인거냐</w>":9855,"일날</w>":9856,"입금":9857,"잇어</w>":9858,"존경":9859,"칭호</w>":9860,"코네":9861,"코토</w>":9862,"타구":9863,"타격</w>":9864,"투명":9865,"퍼섭":9866,"폭발":9867,"한섭</w>":9868,"해진":9869,"허리</w>":9870,"현준</w>":9871,"호환":9872,"환불</w>":9873,"후보</w>":9874,"힐러":9875,"하는게":9876,"하는사람</w>":9877,"하는구나</w>":9878,"는거긔</w>":9879,"고싶어":9880,"10개":9881,"사람만</w>":9882,"오늘따라</w>":9883,"안되는":9884,"얼마에</w>":9885,"해주셈</w>":9886,"지금이라도</w>":9887,"다음주에</w>":9888,"우승하면</w>":9889,"없어짐</w>":9890,"다르네</w>":9891,"베르드</w>":9892,"부럽네</w>":9893,"베이스</w>":9894,"여고생":9895,"카운터":9896,"콘서트":9897,"배경화면</w>":9898,"로이드</w>":9899,"가만히</w>":9900,"에반데</w>":9901,"비하인":9902,"어짜피</w>":9903,"01</w>":9904,"1이</w>":9905,"43":9906,"OO":9907,"kg</w>":9908,"ㅈㅇ</w>":9909,"가온":9910,"가야</w>":9911,"개잡":9912,"개좆같네</w>":9913,"게스트":9914,"고급":9915,"과목</w>":9916,"광대":9917,"구창":9918,"국룰</w>":9919,"권이</w>":9920,"금요일":9921,"긴장":9922,"나혼":9923,"나연</w>":9924,"날은</w>":9925,"느꿈</w>":9926,"닮은":9927,"두번째</w>":9928,"드랍</w>":9929,"드레이크</w>":9930,"똑같이</w>":9931,"뜨는데</w>":9932,"루페":9933,"맛있음</w>":9934,"메리</w>":9935,"메린이</w>":9936,"멜숙":9937,"명예":9938,"몰래</w>":9939,"못깨":9940,"문신":9941,"뮤직":9942,"미개":9943,"미라":9944,"바나나":9945,"배당</w>":9946,"별론":9947,"부반":9948,"분량</w>":9949,"상을</w>":9950,"상담</w>":9951,"세는</w>":9952,"소마</w>":9953,"수캬루":9954,"시메":9955,"안좋아":9956,"알로":9957,"어렸":9958,"어른":9959,"얼음":9960,"었다고</w>":9961,"예능</w>":9962,"왓다</w>":9963,"외노":9964,"용서":9965,"웃긴</w>":9966,"이던</w>":9967,"입니까</w>":9968,"조음</w>":9969,"좆사기":9970,"주기</w>":9971,"직관</w>":9972,"질듯</w>":9973,"쪽이</w>":9974,"창년들</w>":9975,"타이거":9976,"팬이</w>":9977,"팬아트</w>":9978,"하도</w>":9979,"한적</w>":9980,"한놈</w>":9981,"할매":9982,"는거같은데</w>":9983,"얼마정도":9984,"시발ㅋㅋ</w>":9985,"떨어진":9986,"먹어야지</w>":9987,"그렇게":9988,"2주년":9989,"ㅜㅜㅜㅜ":9990,"인데요</w>":9991,"원영아</w>":9992,"wwww":9993,"진화석</w>":9994,"포켓몬":9995,"최악의</w>":9996,"드려요</w>":9997,"마영전</w>":9998,"6시":9999,"88</w>":10000,"NO</w>":10001,"YA":10002,"겠긔</w>":10003,"곡이</w>":10004,"구글</w>":10005,"기의</w>":10006,"꼬우면</w>":10007,"나중":10008,"나처럼</w>":10009,"놈의</w>":10010,"듣는데</w>":10011,"들은":10012,"듯ㅋㅋ</w>":10013,"련이</w>":10014,"마주":10015,"만두":10016,"말임</w>":10017,"말하는거</w>":10018,"매출":10019,"미워":10020,"미다</w>":10021,"미노</w>":10022,"보구</w>":10023,"부담":10024,"부끄러":10025,"북한":10026,"불만":10027,"비행":10028,"살면</w>":10029,"상의</w>":10030,"쇼룸</w>":10031,"수행":10032,"수의</w>":10033,"스튜":10034,"신경</w>":10035,"실수로</w>":10036,"씨야</w>":10037,"씹새":10038,"안주":10039,"안보고</w>":10040,"알고있":10041,"야마":10042,"엔터":10043,"여우":10044,"예술":10045,"와우</w>":10046,"일간</w>":10047,"자냐</w>":10048,"정병</w>":10049,"제대로":10050,"준다고</w>":10051,"중복</w>":10052,"체크":10053,"취미":10054,"치트":10055,"테라</w>":10056,"파워</w>":10057,"파스타":10058,"풀리":10059,"프레</w>":10060,"필승":10061,"할거같은데</w>":10062,"했어요</w>":10063,"아니씨발</w>":10064,"하나씩</w>":10065,"갤러들아</w>":10066,"가능한":10067,"언제함</w>":10068,"애미가</w>":10069,"ㄹㅇ임</w>":10070,"필요가</w>":10071,"그리스":10072,"서울대</w>":10073,"어떻게됨</w>":10074,"포인트":10075,"인가보네</w>":10076,"너네는</w>":10077,"저녁에</w>":10078,"유명한</w>":10079,"라이프치히":10080,"살인마</w>":10081,"배고프":10082,"세리카</w>":10083,"핑까좀</w>":10084,"로헨델</w>":10085,"겨드랑이</w>":10086,"생축보은왔어요</w>":10087,"정동원</w>":10088,"라라라라라생축보은왔어요</w>":10089,"8강":10090,"ID":10091,"go":10092,"mc":10093,"가게":10094,"가족</w>":10095,"개지랄":10096,"갤탭</w>":10097,"공감</w>":10098,"김동":10099,"김수":10100,"꾹은</w>":10101,"나랑":10102,"넣을":10103,"니가":10104,"대해서</w>":10105,"데드":10106,"데가</w>":10107,"데드</w>":10108,"돈으로</w>":10109,"됐어</w>":10110,"랭킹":10111,"리부":10112,"맘들</w>":10113,"매크로":10114,"먹는게</w>":10115,"문화":10116,"물건":10117,"물타":10118,"바네</w>":10119,"블락</w>":10120,"성배":10121,"슬이</w>":10122,"실드</w>":10123,"싫은</w>":10124,"안당":10125,"않노</w>":10126,"알루":10127,"알못</w>":10128,"얘들</w>":10129,"어딜":10130,"어마":10131,"언더</w>":10132,"에프":10133,"여갤러</w>":10134,"유마갤</w>":10135,"응디</w>":10136,"의지</w>":10137,"이들아</w>":10138,"이겠지</w>":10139,"이기는</w>":10140,"인구":10141,"인다":10142,"있겠지</w>":10143,"장식":10144,"점령":10145,"주민":10146,"지가":10147,"지능</w>":10148,"직원</w>":10149,"창이</w>":10150,"찾기</w>":10151,"챙기":10152,"천원":10153,"컴갤</w>":10154,"코이":10155,"터트":10156,"특수":10157,"하하</w>":10158,"했을까</w>":10159,"헬린이</w>":10160,"환장":10161,"후보":10162,"10만</w>":10163,"해야하나</w>":10164,"30대</w>":10165,"괜찮은":10166,"ㄷㄷㄷㄷㄷㄷㄷㄷ</w>":10167,"다음주":10168,"다른거</w>":10169,"키우면</w>":10170,"철구는</w>":10171,"이제부터</w>":10172,"꼴리는데</w>":10173,"역대급":10174,"홍보왔킹롤</w>":10175,"모니터":10176,"나스닥</w>":10177,"꾸준히</w>":10178,"Again신곡홍보왔킹롤</w>":10179,"62</w>":10180,"8강</w>":10181,"98":10182,"ㅇㅂ":10183,"각이냐</w>":10184,"간지</w>":10185,"같아":10186,"개그":10187,"걸릴":10188,"걸고</w>":10189,"것보다</w>":10190,"겠다고</w>":10191,"고딩때</w>":10192,"그마</w>":10193,"기임</w>":10194,"남성":10195,"대만</w>":10196,"대의</w>":10197,"댕이</w>":10198,"도착</w>":10199,"되잖아</w>":10200,"루피":10201,"루가</w>":10202,"모야</w>":10203,"문화</w>":10204,"물리":10205,"뭐니</w>":10206,"박병":10207,"반에</w>":10208,"발견</w>":10209,"방출</w>":10210,"보컬":10211,"분탕</w>":10212,"뿡모리즈</w>":10213,"삐부":10214,"상관</w>":10215,"성배</w>":10216,"손이</w>":10217,"솔플</w>":10218,"스팅":10219,"신레이드</w>":10220,"심사":10221,"쓰다가</w>":10222,"아들":10223,"안달":10224,"안남</w>":10225,"야이":10226,"야하냐</w>":10227,"열림</w>":10228,"영입</w>":10229,"외식":10230,"음이</w>":10231,"이더":10232,"인천</w>":10233,"자수</w>":10234,"재탕":10235,"쟤는</w>":10236,"저스":10237,"적용</w>":10238,"전형":10239,"좋던데</w>":10240,"지나면</w>":10241,"쪽은</w>":10242,"찬성":10243,"채원":10244,"최초":10245,"카리</w>":10246,"케틀</w>":10247,"켜서</w>":10248,"큐브</w>":10249,"터진</w>":10250,"파라":10251,"파판":10252,"포트":10253,"하시긔</w>":10254,"한강":10255,"현타</w>":10256,"병신새끼</w>":10257,"그래픽</w>":10258,"하나같이</w>":10259,"스타트":10260,"사이트":10261,"괜찮냐</w>":10262,"머리색</w>":10263,"처음부터</w>":10264,"ㅅㅅㅅㅅㅅㅅ</w>":10265,"고민되네</w>":10266,"지지율":10267,"인기상</w>":10268,"인생이</w>":10269,"스카이":10270,"24시간</w>":10271,"무서움</w>":10272,"아이즈원":10273,"드레드</w>":10274,"아저씨":10275,"헤카테</w>":10276,"호불호</w>":10277,"2배</w>":10278,"3인":10279,"3일</w>":10280,"fa":10281,"ne":10282,"sp":10283,"ㅎㅌㅊ</w>":10284,"ㅣ발</w>":10285,"가위":10286,"갈사람</w>":10287,"걸리네</w>":10288,"것은</w>":10289,"것이</w>":10290,"견제":10291,"경찬</w>":10292,"고딩</w>":10293,"공명":10294,"구데":10295,"글러":10296,"나쁜</w>":10297,"남녀":10298,"다ㅋㅋㅋㅋ</w>":10299,"더블</w>":10300,"데브":10301,"돈은</w>":10302,"되기</w>":10303,"드럽":10304,"등록</w>":10305,"뜨고</w>":10306,"래서</w>":10307,"랜선":10308,"마대</w>":10309,"만난</w>":10310,"맞는거</w>":10311,"모양":10312,"무라":10313,"무사</w>":10314,"무뽑</w>":10315,"뭔소리":10316,"미만</w>":10317,"바거</w>":10318,"발리":10319,"배민":10320,"버리는</w>":10321,"봉퀴</w>":10322,"빡치네</w>":10323,"사콜</w>":10324,"샤샤":10325,"소서</w>":10326,"손절</w>":10327,"수가":10328,"스파이":10329,"싫어서</w>":10330,"싱글</w>":10331,"씨팔</w>":10332,"아악</w>":10333,"안지만":10334,"얼리버":10335,"열어</w>":10336,"염퀴들</w>":10337,"엽충":10338,"오우":10339,"왜저러":10340,"요네":10341,"운점</w>":10342,"유부":10343,"유치":10344,"은비":10345,"인디</w>":10346,"일기":10347,"일베</w>":10348,"잘자</w>":10349,"잘하노</w>":10350,"잦스":10351,"정작</w>":10352,"지배":10353,"캐스터</w>":10354,"쿠키":10355,"토가</w>":10356,"토는</w>":10357,"티나</w>":10358,"폴라":10359,"하느라</w>":10360,"합시다</w>":10361,"해도됨</w>":10362,"해달라고</w>":10363,"현장":10364,"환경":10365,"는거랑</w>":10366,"이거나</w>":10367,"이거보고</w>":10368,"게임을</w>":10369,"나왔냐</w>":10370,"180</w>":10371,"이었다</w>":10372,"다른건</w>":10373,"이기고</w>":10374,"보내고</w>":10375,"에이스</w>":10376,"싸우면</w>":10377,"불쌍해</w>":10378,"보는곳</w>":10379,"보스턴</w>":10380,"스피릿</w>":10381,"한달에</w>":10382,"아프다</w>":10383,"스럽다</w>":10384,"필수임</w>":10385,"부동산":10386,"망구들</w>":10387,"ㅁㅌㅊ냐</w>":10388,"주제에</w>":10389,"오타쿠":10390,"평소에</w>":10391,"최용제</w>":10392,"나발이고</w>":10393,"26</w>":10394,"2만원":10395,"3일차</w>":10396,"6년":10397,"7월</w>":10398,"ay</w>":10399,"dl":10400,"각인데</w>":10401,"거슬":10402,"고속":10403,"공시</w>":10404,"굴러":10405,"규는</w>":10406,"기인</w>":10407,"나누":10408,"나서":10409,"나은</w>":10410,"남겨":10411,"는짤</w>":10412,"디코</w>":10413,"렙업":10414,"로쏘":10415,"많지</w>":10416,"매미</w>":10417,"몇달":10418,"몇시에</w>":10419,"모자</w>":10420,"민심":10421,"박스":10422,"백화":10423,"봤을때</w>":10424,"부비":10425,"부심</w>":10426,"성추":10427,"소리는</w>":10428,"시골":10429,"안하":10430,"안한</w>":10431,"안한다</w>":10432,"암살":10433,"야댐</w>":10434,"없을듯</w>":10435,"예뻐":10436,"오리</w>":10437,"을땐</w>":10438,"을걸</w>":10439,"음방":10440,"이슈":10441,"자료</w>":10442,"재산</w>":10443,"저작":10444,"정령":10445,"졸업</w>":10446,"종료</w>":10447,"좆도":10448,"지잡":10449,"짜르":10450,"쳐먹고</w>":10451,"쳤다</w>":10452,"최종</w>":10453,"크고</w>":10454,"크다</w>":10455,"패드립":10456,"퍼센":10457,"포텐":10458,"플스":10459,"플은</w>":10460,"했었":10461,"현직":10462,"는거봐</w>":10463,"아이들":10464,"2019</w>":10465,"아무거나</w>":10466,"얼굴에</w>":10467,"ㅅㅂㅅㅂ":10468,"코스프레</w>":10469,"고닉들</w>":10470,"정치질":10471,"직업이</w>":10472,"주딱이</w>":10473,"힘드냐</w>":10474,"어느정도임</w>":10475,"아티스트</w>":10476,"lck</w>":10477,"싸이코":10478,"오디세":10479,"정민규</w>":10480,"피지컬</w>":10481,"이쯤되면</w>":10482,"류준열</w>":10483,"1번":10484,"2부":10485,"co":10486,"dr":10487,"vp":10488,"xx":10489,"ㅏㅏ</w>":10490,"강제로</w>":10491,"겠지만</w>":10492,"고졸":10493,"국힙</w>":10494,"기기</w>":10495,"긴데</w>":10496,"길태</w>":10497,"내서</w>":10498,"던져":10499,"딱봐도</w>":10500,"똥퀴</w>":10501,"뜬다</w>":10502,"로우</w>":10503,"마일</w>":10504,"마핸</w>":10505,"말라":10506,"말리":10507,"말라고</w>":10508,"매우</w>":10509,"머선":10510,"메르":10511,"몇번</w>":10512,"무는</w>":10513,"문고</w>":10514,"뭐씀</w>":10515,"배신":10516,"빅히트</w>":10517,"빡이</w>":10518,"빨라":10519,"삐는</w>":10520,"사님</w>":10521,"살사람</w>":10522,"새봄</w>":10523,"샌박</w>":10524,"생은</w>":10525,"수수":10526,"수용":10527,"쉬는":10528,"시드":10529,"실적":10530,"싸인":10531,"쓴거</w>":10532,"아시발":10533,"안뜸</w>":10534,"안하는게</w>":10535,"암컷":10536,"야는</w>":10537,"역할":10538,"온냐":10539,"의원</w>":10540,"이득</w>":10541,"이들이</w>":10542,"인싸</w>":10543,"일도</w>":10544,"있는거냐</w>":10545,"있으니까</w>":10546,"있을듯</w>":10547,"자를</w>":10548,"작작":10549,"잘하는데</w>":10550,"잠시</w>":10551,"잡히":10552,"좆창":10553,"주문</w>":10554,"죽으면</w>":10555,"지명":10556,"집단":10557,"집이</w>":10558,"찾는</w>":10559,"처리</w>":10560,"초딩</w>":10561,"치료":10562,"칠이</w>":10563,"크면</w>":10564,"토리":10565,"토리</w>":10566,"토요일</w>":10567,"통합</w>":10568,"하신":10569,"하자고</w>":10570,"는거면</w>":10571,"생각을</w>":10572,"어디가":10573,"안되면</w>":10574,"진짜임</w>":10575,"ㅠㅠㅠㅠㅠ</w>":10576,"도와주세요</w>":10577,"현실에서</w>":10578,"버렸다</w>":10579,"역겨운</w>":10580,"징징대":10581,"관련해서</w>":10582,"라디오":10583,"혈귀혼</w>":10584,"커스텀</w>":10585,"마일리지</w>":10586,"1던":10587,"1은</w>":10588,"49</w>":10589,"5만원</w>":10590,"78":10591,"TV</w>":10592,"cp":10593,"강의":10594,"갖다":10595,"거아니냐</w>":10596,"겠습니까</w>":10597,"결론":10598,"공은</w>":10599,"공유</w>":10600,"관적으로</w>":10601,"군아</w>":10602,"그지":10603,"근처":10604,"긴급":10605,"님들은</w>":10606,"단독":10607,"담원</w>":10608,"대에서</w>":10609,"도르":10610,"들중에</w>":10611,"뜬거</w>":10612,"모션":10613,"못본":10614,"미모</w>":10615,"밸패":10616,"보물":10617,"보이지</w>":10618,"분의</w>":10619,"빌드</w>":10620,"상장":10621,"생산":10622,"선풍":10623,"센스</w>":10624,"수이":10625,"순서</w>":10626,"슬라이":10627,"실분":10628,"심한":10629,"싸울":10630,"안먹":10631,"앰이</w>":10632,"야하는데</w>":10633,"어머":10634,"어빌":10635,"연승</w>":10636,"오를":10637,"우기":10638,"원본":10639,"월광":10640,"이짤":10641,"인거같음</w>":10642,"일으":10643,"입장</w>":10644,"있을때</w>":10645,"장마":10646,"재는</w>":10647,"조가</w>":10648,"존예":10649,"주린이</w>":10650,"지인":10651,"지나</w>":10652,"찐팬":10653,"찬양":10654,"체는</w>":10655,"친거</w>":10656,"카라":10657,"커마</w>":10658,"타도</w>":10659,"테마":10660,"토스</w>":10661,"트렌":10662,"파가</w>":10663,"프사</w>":10664,"해지는</w>":10665,"힘들어":10666,"생각인데</w>":10667,"존나웃기":10668,"궁금한</w>":10669,"바꾸고</w>":10670,"에어팟</w>":10671,"플레이어</w>":10672,"보다도</w>":10673,"이이이이":10674,"히로인</w>":10675,"사전예약</w>":10676,"극장판</w>":10677,"유망주</w>":10678,"버서커</w>":10679,"탈리스만</w>":10680,"당분간</w>":10681,"1주년</w>":10682,"JY":10683,"가보":10684,"간다고</w>":10685,"갈비":10686,"갑자기":10687,"갱신":10688,"게스트</w>":10689,"겜에</w>":10690,"고에</w>":10691,"공방</w>":10692,"김유":10693,"나이가</w>":10694,"날먹":10695,"넘모</w>":10696,"는중":10697,"달러":10698,"덱이</w>":10699,"도감":10700,"드냐</w>":10701,"드에</w>":10702,"떳네</w>":10703,"똥싸":10704,"뜨거":10705,"레오":10706,"로스":10707,"룰러</w>":10708,"많은거</w>":10709,"매장</w>":10710,"몰입":10711,"뭐여</w>":10712,"뮤직</w>":10713,"밥은</w>":10714,"보유":10715,"부른":10716,"부천":10717,"사경</w>":10718,"수록":10719,"시대가</w>":10720,"아포":10721,"어야함</w>":10722,"없찐</w>":10723,"없던데</w>":10724,"엑스":10725,"여혐":10726,"오라":10727,"오가나</w>":10728,"올린다</w>":10729,"우파</w>":10730,"이진":10731,"이어</w>":10732,"이하</w>":10733,"이들은</w>":10734,"재난":10735,"저리</w>":10736,"전국":10737,"점유":10738,"주소":10739,"준거</w>":10740,"중섭</w>":10741,"진지</w>":10742,"찍찍":10743,"창에</w>":10744,"최원":10745,"충들은</w>":10746,"카이</w>":10747,"콤보</w>":10748,"크레":10749,"크림</w>":10750,"탄절</w>":10751,"테크":10752,"팬미":10753,"표절":10754,"하네ㅋㅋ</w>":10755,"한판</w>":10756,"해조</w>":10757,"희망</w>":10758,"들어가는</w>":10759,"300</w>":10760,"한국은</w>":10761,"궁금하네</w>":10762,"떨어지면</w>":10763,"페이스":10764,"선수는</w>":10765,"가져옴</w>":10766,"학교에서</w>":10767,"여친갤</w>":10768,"다르게</w>":10769,"상관없음</w>":10770,"느끼는</w>":10771,"수사시</w>":10772,"디자인":10773,"나무위키</w>":10774,"누르면</w>":10775,"시발련들아</w>":10776,"티셔츠":10777,"판타지</w>":10778,"기적의</w>":10779,"자이언":10780,"ROCKingRoll":10781,"로스트아크</w>":10782,"06</w>":10783,"2억":10784,"900":10785,"po":10786,"ㄹㅈ":10787,"ㅋㅌ":10788,"가에</w>":10789,"갔노</w>":10790,"개나":10791,"개다</w>":10792,"결정</w>":10793,"고정</w>":10794,"공시":10795,"구걸":10796,"군이</w>":10797,"그랜":10798,"그걸</w>":10799,"나승":10800,"났어</w>":10801,"놀리":10802,"누가이":10803,"단기":10804,"단단":10805,"대선":10806,"도우</w>":10807,"된게</w>":10808,"두산</w>":10809,"란트</w>":10810,"레알":10811,"리세계":10812,"린거":10813,"마사":10814,"머노</w>":10815,"먹방":10816,"무가</w>":10817,"문이</w>":10818,"뭐뭐</w>":10819,"바란</w>":10820,"백수</w>":10821,"백신</w>":10822,"병살":10823,"보추</w>":10824,"봤으면</w>":10825,"블래":10826,"블리</w>":10827,"빵빵":10828,"뿌려":10829,"사생":10830,"사석":10831,"사촌":10832,"사퍼":10833,"사용</w>":10834,"산거</w>":10835,"살아</w>":10836,"소득</w>":10837,"수급</w>":10838,"숨겨":10839,"스작</w>":10840,"스턴</w>":10841,"신섭":10842,"신영":10843,"실버</w>":10844,"심해</w>":10845,"쏘대장</w>":10846,"아마</w>":10847,"알게":10848,"암굴":10849,"야간":10850,"어저":10851,"어지</w>":10852,"염퀴</w>":10853,"였구나</w>":10854,"올때</w>":10855,"은이</w>":10856,"음ㅋㅋㅋ</w>":10857,"이발</w>":10858,"이전</w>":10859,"인대</w>":10860,"일일":10861,"일을</w>":10862,"임시":10863,"있긴":10864,"있구나</w>":10865,"자야</w>":10866,"좆돌</w>":10867,"좋으면</w>":10868,"주전</w>":10869,"중갤</w>":10870,"진입":10871,"천원</w>":10872,"쳤네</w>":10873,"충들이</w>":10874,"카던":10875,"크로아</w>":10876,"토츠</w>":10877,"10분</w>":10878,"20대":10879,"병신겜</w>":10880,"거같지</w>":10881,"아직까지</w>":10882,"좆같아서</w>":10883,"그러고</w>":10884,"궁금한데</w>":10885,"노래방</w>":10886,"무슨일":10887,"에이스":10888,"바이스</w>":10889,"살아남":10890,"행복회로</w>":10891,"보고싶은데</w>":10892,"댓글에</w>":10893,"여친이</w>":10894,"안나와</w>":10895,"자러간다</w>":10896,"스럽게</w>":10897,"시절에</w>":10898,"편의점":10899,"오오오오":10900,"박보검":10901,"어지간":10902,"피시방</w>":10903,"에디션</w>":10904,"완벽한</w>":10905,"덤디덤디</w>":10906,"토마토</w>":10907,"듀라한":10908,"귀신같이</w>":10909,"동수칸</w>":10910,"아킬레":10911,"ROCKingRollAgain신곡홍보왔킹롤</w>":10912,"1로</w>":10913,"1번</w>":10914,"3년</w>":10915,"5명</w>":10916,"ht":10917,"ㄱㅋ</w>":10918,"ㅆㅂ":10919,"가방</w>":10920,"가드</w>":10921,"강남</w>":10922,"갤주는</w>":10923,"결제</w>":10924,"고대":10925,"곡은</w>":10926,"국뽕":10927,"글싸":10928,"기억</w>":10929,"김강":10930,"꾸니":10931,"꾸역":10932,"나라는</w>":10933,"낮은":10934,"내라</w>":10935,"논리":10936,"달린</w>":10937,"대처":10938,"대타</w>":10939,"더쿠":10940,"도태":10941,"따지면</w>":10942,"란이</w>":10943,"로로</w>":10944,"마차도</w>":10945,"많고</w>":10946,"메좆":10947,"모닝":10948,"바나나</w>":10949,"발이</w>":10950,"백퍼</w>":10951,"보험":10952,"부유":10953,"부름</w>":10954,"사태</w>":10955,"살때</w>":10956,"삼진":10957,"서머":10958,"선녀":10959,"세실":10960,"소비":10961,"소신발":10962,"속에</w>":10963,"수상</w>":10964,"슴고</w>":10965,"시위":10966,"실험":10967,"실에</w>":10968,"쓰러":10969,"쓰는거임</w>":10970,"씨바</w>":10971,"악질</w>":10972,"안해서</w>":10973,"않고</w>":10974,"어요":10975,"여론</w>":10976,"오피":10977,"올라</w>":10978,"의자":10979,"이글":10980,"이대":10981,"이때":10982,"이없네</w>":10983,"잇으면</w>":10984,"있니</w>":10985,"장을</w>":10986,"잦돌</w>":10987,"정체</w>":10988,"제품":10989,"제니</w>":10990,"조립":10991,"조닭</w>":10992,"중앙":10993,"즐거":10994,"지난</w>":10995,"진구</w>":10996,"차은":10997,"착한</w>":10998,"창은</w>":10999,"채우":11000,"최초</w>":11001,"치지</w>":11002,"코치":11003,"크냐</w>":11004,"테러</w>":11005,"틀와</w>":11006,"팀에서</w>":11007,"평화":11008,"할것</w>":11009,"할줄</w>":11010,"해보이":11011,"했지만</w>":11012,"했구나</w>":11013,"생각나":11014,"10만원":11015,"아이템":11016,"아이피":11017,"오늘이</w>":11018,"20분":11019,"해야해</w>":11020,"올라가":11021,"아직도":11022,"정신이</w>":11023,"좋겠는데</w>":11024,"애니메이":11025,"김태진":11026,"그림체</w>":11027,"어쩌다</w>":11028,"옛날엔</w>":11029,"무서운":11030,"감독이</w>":11031,"갤러리입니다</w>":11032,"못하겠네</w>":11033,"훈련소</w>":11034,"시발련아</w>":11035,"고마워</w>":11036,"워싱턴</w>":11037,"오마이걸":11038,"선착순</w>":11039,"버러지":11040,"근로장려금</w>":11041,"3주":11042,"nc":11043,"가세요</w>":11044,"개패":11045,"경찬이</w>":11046,"교정":11047,"구려</w>":11048,"그리는</w>":11049,"깨고</w>":11050,"끔찍":11051,"나루":11052,"나니까</w>":11053,"네ㅋㅋㅋㅋㅋㅋ</w>":11054,"노란":11055,"느김치</w>":11056,"니폼</w>":11057,"대비</w>":11058,"데비":11059,"동남아</w>":11060,"드릴":11061,"디아":11062,"또라이":11063,"럭스</w>":11064,"류지":11065,"리뷰":11066,"마마</w>":11067,"만한":11068,"말야</w>":11069,"말자</w>":11070,"맞아":11071,"목이</w>":11072,"미러":11073,"박을":11074,"밥이</w>":11075,"버튜":11076,"벤치</w>":11077,"변기</w>":11078,"블루</w>":11079,"뽑냐</w>":11080,"살빼":11081,"세컨":11082,"순서":11083,"시급":11084,"시브":11085,"시각</w>":11086,"신들</w>":11087,"아슬":11088,"안믿":11089,"안나왔":11090,"안받아":11091,"야되는데</w>":11092,"예구</w>":11093,"오지</w>":11094,"오전</w>":11095,"오닉스</w>":11096,"와야지</w>":11097,"이루":11098,"인점</w>":11099,"자극":11100,"자료":11101,"자원":11102,"작이</w>":11103,"접고</w>":11104,"제2":11105,"제품</w>":11106,"젠지":11107,"족이</w>":11108,"좆같은데</w>":11109,"중딩":11110,"즐기":11111,"지를":11112,"지어</w>":11113,"찍은":11114,"취급</w>":11115,"카레":11116,"코르":11117,"투력":11118,"투어</w>":11119,"트롤</w>":11120,"티는</w>":11121,"편함</w>":11122,"폭사":11123,"폭원":11124,"표현":11125,"프듀":11126,"플라":11127,"필합":11128,"하던가</w>":11129,"한결":11130,"행시</w>":11131,"흑인</w>":11132,"히든":11133,"힐링":11134,"여자친구</w>":11135,"이번에도</w>":11136,"방송이</w>":11137,"친구한테</w>":11138,"괜찮지</w>":11139,"괜찮아</w>":11140,"만들었는데</w>":11141,"있었냐</w>":11142,"이쁘게</w>":11143,"떨어질":11144,"이름은</w>":11145,"정리해준다</w>":11146,"부르면</w>":11147,"어떡해</w>":11148,"아레나":11149,"스피커</w>":11150,"양심고백</w>":11151,"토탈워":11152,"슬로건</w>":11153,"개쩌네</w>":11154,"포지션</w>":11155,"충분히</w>":11156,"맘마통</w>":11157,"모두가</w>":11158,"02</w>":11159,"1명":11160,"2일차</w>":11161,"2YA":11162,"64":11163,"MA":11164,"SK":11165,"ed":11166,"ma":11167,"ms":11168,"가시":11169,"간담":11170,"갓직히</w>":11171,"갔음</w>":11172,"강한":11173,"고시":11174,"교복":11175,"그레이":11176,"금방</w>":11177,"김봉준":11178,"까는거</w>":11179,"나머":11180,"나아</w>":11181,"닌텐":11182,"담주":11183,"당황":11184,"동물</w>":11185,"될지</w>":11186,"두달":11187,"딱대</w>":11188,"뜨는거</w>":11189,"라라</w>":11190,"레시":11191,"리리":11192,"릴듯</w>":11193,"마누":11194,"머갈":11195,"민폐":11196,"박히":11197,"박음</w>":11198,"반복":11199,"뿡이</w>":11200,"상승</w>":11201,"서약":11202,"서재":11203,"세금":11204,"안하나</w>":11205,"알파":11206,"앚은</w>":11207,"야동</w>":11208,"에미":11209,"에밀":11210,"엑시":11211,"원정</w>":11212,"유도":11213,"으응</w>":11214,"은하":11215,"이랬":11216,"이스":11217,"이주":11218,"입에</w>":11219,"잖어</w>":11220,"주먹":11221,"죽었":11222,"지겹":11223,"지효":11224,"지기</w>":11225,"출연</w>":11226,"타르":11227,"타율</w>":11228,"태그":11229,"태민":11230,"특성</w>":11231,"포스":11232,"필름</w>":11233,"하다는</w>":11234,"헬스</w>":11235,"혼다":11236,"화려":11237,"생각난":11238,"생각하니</w>":11239,"ㅋㅋㅋㅋㅋㅋㅋㅋㅋㅋㅋㅋㅋㅋㅋㅋㅋㅋㅋㅋㅋㅋㅋㅋㅋㅋㅋㅋㅋㅋㅋㅋ</w>":11240,"병신들":11241,"이상은</w>":11242,"해주네</w>":11243,"여기도</w>":11244,"남자들</w>":11245,"염보성은</w>":11246,"이쁘면</w>":11247,"일러로</w>":11248,"생겼는데</w>":11249,"보고싶네</w>":11250,"어울리는</w>":11251,"예쁘네</w>":11252,"짜증나</w>":11253,"아시아":11254,"지방직</w>":11255,"하러감</w>":11256,"못하겠다</w>":11257,"먹으러":11258,"예전엔</w>":11259,"디렉터":11260,"이준기</w>":11261,"신정환</w>":11262,"박근혜</w>":11263,"아탈란타</w>":11264,"ㅌㅍㅇㅈ</w>":11265,"이은상</w>":11266,"3억":11267,"85":11268,"man":11269,"가루":11270,"개병신</w>":11271,"견적</w>":11272,"경상":11273,"골반":11274,"공명</w>":11275,"관이</w>":11276,"구한다</w>":11277,"급인데</w>":11278,"낙서</w>":11279,"내로":11280,"내부":11281,"냐ㅋㅋㅋ</w>":11282,"넘는</w>":11283,"높아":11284,"니미</w>":11285,"님한테</w>":11286,"닭가슴":11287,"데미</w>":11288,"되니</w>":11289,"리더</w>":11290,"마다":11291,"마을":11292,"마저</w>":11293,"마켓</w>":11294,"만났":11295,"망갤":11296,"매미":11297,"몸무게</w>":11298,"무게":11299,"미스터":11300,"민호":11301,"베스트</w>":11302,"본상":11303,"사자":11304,"사투":11305,"상폐":11306,"세금</w>":11307,"숨참":11308,"신용":11309,"싫은":11310,"씹슴":11311,"아조":11312,"알면</w>":11313,"야식</w>":11314,"어빌</w>":11315,"예언":11316,"오닉":11317,"오줌":11318,"오노</w>":11319,"워이</w>":11320,"으려나</w>":11321,"의대</w>":11322,"이분":11323,"자비":11324,"작에</w>":11325,"전력</w>":11326,"정규</w>":11327,"종류":11328,"좆나</w>":11329,"좆노잼":11330,"주고":11331,"증거":11332,"지루":11333,"지웠":11334,"짤로</w>":11335,"쳐먹":11336,"컴디씨</w>":11337,"토르</w>":11338,"통신":11339,"통령</w>":11340,"펀치":11341,"평생":11342,"폭쥐":11343,"폭원</w>":11344,"필수</w>":11345,"학과</w>":11346,"할카스</w>":11347,"해방":11348,"햇어</w>":11349,"희는</w>":11350,"고싶으면</w>":11351,"존나많네</w>":11352,"150</w>":11353,"알려주라</w>":11354,"이쁘냐</w>":11355,"받아라</w>":11356,"175</w>":11357,"보고왔는데</w>":11358,"이해가":11359,"키우는데</w>":11360,"보여서</w>":11361,"거리는거</w>":11362,"한테만</w>":11363,"타이밍</w>":11364,"새기들아</w>":11365,"유튜브에</w>":11366,"승리의":11367,"입장에선</w>":11368,"스티커</w>":11369,"방법이</w>":11370,"한동훈</w>":11371,"확률이</w>":11372,"ㅋㅋㅋㅋㅋㅋㅋㅋㅋㅋㅋㅋㅋㅋㅋㅋㅋㅋㅋㅋㅋㅋㅋㅋㅋㅋㅋㅋㅋㅋㅋㅋㅋㅋㅋ</w>":11373,"ㅋㅋㅋㅋㅋㅋㅋㅋㅋㅋㅋㅋㅋㅋㅋㅋㅋㅋㅋㅋㅋㅋㅋㅋㅋㅋㅋㅋㅋㅋㅋㅋㅋㅋㅋㅋ</w>":11374,"화장실</w>":11375,"기준으로</w>":11376,"버즈라이브</w>":11377,"정주행":11378,"루리웹</w>":11379,"왜저래</w>":11380,"예비군</w>":11381,"저능아":11382,"징크스</w>":11383,"토트넘</w>":11384,"살짝설":11385,"03</w>":11386,"2일":11387,"id":11388,"is":11389,"ot":11390,"가로</w>":11391,"가면서</w>":11392,"강한</w>":11393,"걱정</w>":11394,"공연":11395,"기관</w>":11396,"김윤":11397,"끝임</w>":11398,"나카":11399,"나코":11400,"날개</w>":11401,"닉네임":11402,"다양":11403,"다인":11404,"답변</w>":11405,"대박</w>":11406,"돌고":11407,"동남아":11408,"뒤에서</w>":11409,"드루":11410,"라랑</w>":11411,"러스</w>":11412,"려다가</w>":11413,"마넌":11414,"만갤":11415,"만보면</w>":11416,"맞긔</w>":11417,"매드":11418,"무식":11419,"무효":11420,"미만":11421,"바닥</w>":11422,"변신</w>":11423,"보빨":11424,"보는중</w>":11425,"봉이</w>":11426,"블러":11427,"사경":11428,"사스</w>":11429,"사려는데</w>":11430,"산이</w>":11431,"삼전</w>":11432,"새삼</w>":11433,"생명</w>":11434,"세나</w>":11435,"수에</w>":11436,"수익</w>":11437,"시체":11438,"아리아</w>":11439,"안쓰고</w>":11440,"않은데</w>":11441,"없는건</w>":11442,"예구":11443,"예나</w>":11444,"예지</w>":11445,"월이":11446,"으러</w>":11447,"이니":11448,"이자":11449,"이누</w>":11450,"이냐고</w>":11451,"인거지</w>":11452,"있는건</w>":11453,"자취":11454,"자체</w>":11455,"접대":11456,"제보":11457,"조차</w>":11458,"조정</w>":11459,"좆슨":11460,"주기":11461,"지갑":11462,"직접":11463,"직전</w>":11464,"진명":11465,"집은</w>":11466,"처녀</w>":11467,"친절":11468,"카트</w>":11469,"코노":11470,"콘은</w>":11471,"콘이</w>":11472,"퀴즈":11473,"특히</w>":11474,"패션</w>":11475,"평타</w>":11476,"폭탄":11477,"폭탄</w>":11478,"폴리":11479,"하여</w>":11480,"햄버거</w>":11481,"허도":11482,"협동":11483,"호선</w>":11484,"환은</w>":11485,"힘든</w>":11486,"105":11487,"10년</w>":11488,"사람들":11489,"20분</w>":11490,"지않을까</w>":11491,"염보는</w>":11492,"재미가</w>":11493,"이러고</w>":11494,"김태균</w>":11495,"어려워</w>":11496,"불쌍한</w>":11497,"대단한</w>":11498,"주인공이</w>":11499,"예쁘다</w>":11500,"느금마</w>":11501,"부모님</w>":11502,"드래곤</w>":11503,"ㄱㄱㄱㄱㄱㄱㄱㄱ":11504,"커스텀":11505,"루리웹":11506,"글리젠</w>":11507,"죄송합니다</w>":11508,"04</w>":11509,"1페":11510,"3시":11511,"3차</w>":11512,"LG":11513,"ST":11514,"ㄱㄴ":11515,"가자":11516,"강간</w>":11517,"거고</w>":11518,"것처럼</w>":11519,"경계":11520,"구르":11521,"국가</w>":11522,"근육</w>":11523,"금수저</w>":11524,"김요한</w>":11525,"깝치":11526,"나보고</w>":11527,"내전</w>":11528,"내신</w>":11529,"넘기":11530,"네네</w>":11531,"노동":11532,"놀랐":11533,"느리":11534,"다다</w>":11535,"닥치고</w>":11536,"달성":11537,"달면</w>":11538,"더워":11539,"데서</w>":11540,"도리":11541,"돌아</w>":11542,"되냐고</w>":11543,"두가</w>":11544,"득점":11545,"딜이</w>":11546,"똥칰":11547,"렸음</w>":11548,"로이</w>":11549,"리메</w>":11550,"망했다</w>":11551,"매물":11552,"미스</w>":11553,"바스":11554,"보급":11555,"보성</w>":11556,"부들</w>":11557,"부모</w>":11558,"빠따</w>":11559,"생명":11560,"서요</w>":11561,"설총</w>":11562,"섭스</w>":11563,"셀카":11564,"스태":11565,"시기":11566,"싫으면</w>":11567,"아껴":11568,"안바":11569,"암만</w>":11570,"야되냐</w>":11571,"억경</w>":11572,"없다는</w>":11573,"요정":11574,"우진</w>":11575,"이새":11576,"이세계":11577,"이악물고</w>":11578,"인걸</w>":11579,"일자리</w>":11580,"자궁":11581,"잖아":11582,"잡았":11583,"장애</w>":11584,"전담</w>":11585,"접음</w>":11586,"정석":11587,"좆나":11588,"지갑</w>":11589,"진출":11590,"창년":11591,"첫방</w>":11592,"카즈":11593,"터지고</w>":11594,"통화":11595,"표지</w>":11596,"풀이</w>":11597,"한대":11598,"한섭":11599,"한건가</w>":11600,"할때는</w>":11601,"호텔":11602,"화속":11603,"회식":11604,"휴지":11605,"새끼임</w>":11606,"들어온":11607,"2019":11608,"이거는</w>":11609,"그러고":11610,"올려라</w>":11611,"하는거보면</w>":11612,"케이스":11613,"귀여워":11614,"보고있는데</w>":11615,"이기냐</w>":11616,"페이트</w>":11617,"에이티":11618,"신기해</w>":11619,"안나오나</w>":11620,"하기전에</w>":11621,"성공한</w>":11622,"만화가</w>":11623,"오프닝</w>":11624,"좆망겜</w>":11625,"나라가</w>":11626,"아마존</w>":11627,"방법은</w>":11628,"마시고</w>":11629,"커엽네</w>":11630,"이래도</w>":11631,"채팅창</w>":11632,"느껴짐</w>":11633,"마인드":11634,"각인석</w>":11635,"테일즈":11636,"리메이크</w>":11637,"태블릿":11638,"트럼프</w>":11639,"문코리타</w>":11640,"윤도영</w>":11641,"윤영삼</w>":11642,"천천히</w>":11643,"3대":11644,"3위</w>":11645,"SS":11646,"bj":11647,"mm</w>":11648,"가사":11649,"가오":11650,"갈리":11651,"갓오":11652,"강아지</w>":11653,"개빻":11654,"검색</w>":11655,"공방":11656,"광화":11657,"구성":11658,"국어":11659,"글도</w>":11660,"글만</w>":11661,"김현":11662,"꿀팁":11663,"날조":11664,"남편":11665,"녀랑</w>":11666,"니어</w>":11667,"단일":11668,"당시</w>":11669,"당첨</w>":11670,"더니":11671,"도입":11672,"도되냐</w>":11673,"돈도</w>":11674,"라갤</w>":11675,"로보":11676,"로하</w>":11677,"만도</w>":11678,"맥주":11679,"메뉴":11680,"몇분":11681,"모기":11682,"몬스터":11683,"못받":11684,"못한다</w>":11685,"밀봉":11686,"발매</w>":11687,"배기</w>":11688,"버리면</w>":11689,"보로</w>":11690,"복잡":11691,"복학":11692,"브로":11693,"뽑을까</w>":11694,"뽑았다</w>":11695,"삼진</w>":11696,"샤이</w>":11697,"선생</w>":11698,"선에서</w>":11699,"수속":11700,"수치</w>":11701,"스벅</w>":11702,"썩어":11703,"쓴다고</w>":11704,"안치고</w>":11705,"얘도</w>":11706,"언노":11707,"영혼</w>":11708,"오징":11709,"오른</w>":11710,"유미":11711,"을때":11712,"입력":11713,"잇는":11714,"자살</w>":11715,"저씨</w>":11716,"저새끼는</w>":11717,"전반":11718,"전용</w>":11719,"제외</w>":11720,"족구":11721,"좆방":11722,"주면":11723,"준은</w>":11724,"줄여":11725,"중딩때</w>":11726,"지어":11727,"직전":11728,"짤좀</w>":11729,"찍는</w>":11730,"커뮤</w>":11731,"컴디시</w>":11732,"퇴구":11733,"패는거</w>":11734,"피부</w>":11735,"하든</w>":11736,"행동":11737,"혁명</w>":11738,"힙합":11739,"하는건데</w>":11740,"아니라":11741,"들어갈":11742,"들어간</w>":11743,"들어오면</w>":11744,"10월":11745,"해야하는</w>":11746,"지않노</w>":11747,"이번화</w>":11748,"때문임</w>":11749,"만들었다</w>":11750,"돌아다니":11751,"다음은</w>":11752,"하루만에</w>":11753,"머리카":11754,"재미로</w>":11755,"얼굴은</w>":11756,"이러다</w>":11757,"하고싶은":11758,"신기한게</w>":11759,"생겼다</w>":11760,"이였으면</w>":11761,"민주당":11762,"부르는</w>":11763,"않았나</w>":11764,"퇴근하고</w>":11765,"여름에</w>":11766,"끝났다</w>":11767,"이후에</w>":11768,"모자키</w>":11769,"정보글</w>":11770,"컴퓨터":11771,"화이트</w>":11772,"나쁘지</w>":11773,"치즈루</w>":11774,"나스만</w>":11775,"ㅁㅌㅊ임</w>":11776,"이태양</w>":11777,"단톡방</w>":11778,"공통점</w>":11779,"풍월량</w>":11780,"1페</w>":11781,"95</w>":11782,"EA":11783,"ou</w>":11784,"ve</w>":11785,"you":11786,"가득":11787,"가셈</w>":11788,"건가":11789,"건들":11790,"고스트</w>":11791,"공대":11792,"교행</w>":11793,"귀속":11794,"그로":11795,"근황":11796,"글자</w>":11797,"났음</w>":11798,"냉혹":11799,"너도</w>":11800,"넘으면</w>":11801,"늘리":11802,"다보면</w>":11803,"동안":11804,"두고":11805,"뒤져</w>":11806,"라미</w>":11807,"로딩":11808,"마나</w>":11809,"마스</w>":11810,"마망</w>":11811,"막아":11812,"망해서</w>":11813,"맞노</w>":11814,"매장":11815,"못자":11816,"못차":11817,"밀고</w>":11818,"받습니다</w>":11819,"방종":11820,"변태":11821,"변화":11822,"본캐":11823,"봤더니</w>":11824,"부대":11825,"붕이는</w>":11826,"비겁":11827,"빨갱":11828,"사토":11829,"색욕":11830,"선거":11831,"선미</w>":11832,"성민":11833,"손에</w>":11834,"스모":11835,"스압</w>":11836,"스스로</w>":11837,"신호":11838,"신지</w>":11839,"실이</w>":11840,"씨팔":11841,"아싸</w>":11842,"안풀":11843,"알람":11844,"알렉":11845,"알림":11846,"앚퀴들</w>":11847,"야한</w>":11848,"억지로</w>":11849,"얼른</w>":11850,"엄준":11851,"없어요</w>":11852,"에스</w>":11853,"여유":11854,"연어":11855,"예뻐</w>":11856,"오라고</w>":11857,"올만에</w>":11858,"응지</w>":11859,"이전":11860,"이펙":11861,"이는거</w>":11862,"인종":11863,"인강</w>":11864,"인식</w>":11865,"일퀘":11866,"장갑</w>":11867,"저주":11868,"조져":11869,"졸커":11870,"준다":11871,"중반":11872,"줘야함</w>":11873,"줬음</w>":11874,"지각":11875,"진영":11876,"집어":11877,"짓을</w>":11878,"천지":11879,"최지":11880,"출발</w>":11881,"커서</w>":11882,"케틀":11883,"코치</w>":11884,"타로":11885,"타케":11886,"터뜨":11887,"터지네</w>":11888,"통은</w>":11889,"특전</w>":11890,"파게":11891,"한끼":11892,"할때가</w>":11893,"해금":11894,"해석":11895,"해보니까</w>":11896,"해봤다</w>":11897,"호모</w>":11898,"후의</w>":11899,"아니잖아</w>":11900,"생각은</w>":11901,"들어와</w>":11902,"10시":11903,"재밌었":11904,"안되는게</w>":11905,"얼마정도</w>":11906,"모르겟":11907,"100만":11908,"궁금하다</w>":11909,"뉴비는</w>":11910,"1600":11911,"키우기</w>":11912,"와이프</w>":11913,"카드가</w>":11914,"세이브</w>":11915,"군대에서</w>":11916,"담배피":11917,"냄새가</w>":11918,"스트레스":11919,"가성비":11920,"피시방":11921,"조심해라</w>":11922,"한마디</w>":11923,"자주국방</w>":11924,"허벅지</w>":11925,"비하인드</w>":11926,"2장</w>":11927,"4시":11928,"BB":11929,"ai</w>":11930,"pve":11931,"ㅂㅅ</w>":11932,"ㅈ같은</w>":11933,"갑주</w>":11934,"강철":11935,"개인</w>":11936,"개좋네</w>":11937,"개꼴리네</w>":11938,"건보":11939,"경찰</w>":11940,"계승":11941,"관왕</w>":11942,"그와중에</w>":11943,"글고보니</w>":11944,"금강":11945,"깨면</w>":11946,"내야</w>":11947,"냉정":11948,"느니</w>":11949,"다들":11950,"대출":11951,"던거":11952,"독일</w>":11953,"된다":11954,"될까요</w>":11955,"딴거</w>":11956,"똥냐":11957,"라에</w>":11958,"랭크":11959,"멸치":11960,"명함":11961,"명단</w>":11962,"무비</w>":11963,"뭔데":11964,"미노":11965,"미우":11966,"법은</w>":11967,"보낼":11968,"봊연갤</w>":11969,"부턴</w>":11970,"브랜드</w>":11971,"블매":11972,"븝퍼":11973,"빠른</w>":11974,"뿌린다</w>":11975,"사들</w>":11976,"사야지</w>":11977,"상남자</w>":11978,"선거</w>":11979,"세력":11980,"수만</w>":11981,"스노":11982,"스택":11983,"신영</w>":11984,"쓰면서</w>":11985,"씨벌</w>":11986,"악몽":11987,"안좋은</w>":11988,"야하는</w>":11989,"양키":11990,"얼평":11991,"엘지</w>":11992,"엘리</w>":11993,"연아</w>":11994,"영지</w>":11995,"오시":11996,"옵치":11997,"옷장":11998,"와이번</w>":11999,"완전":12000,"완전히</w>":12001,"요미":12002,"위는</w>":12003,"유산":12004,"자막</w>":12005,"작성":12006,"재넌":12007,"재일</w>":12008,"재평가</w>":12009,"저나</w>":12010,"적어도</w>":12011,"정체":12012,"좌가</w>":12013,"질다</w>":12014,"찌찌</w>":12015,"참치</w>":12016,"창녀</w>":12017,"초돌":12018,"최강</w>":12019,"캡쳐</w>":12020,"코루</w>":12021,"키리":12022,"테니</w>":12023,"파라</w>":12024,"프메":12025,"하차":12026,"함성</w>":12027,"했다는</w>":12028,"헤헤</w>":12029,"들어도</w>":12030,"하나보네</w>":12031,"이번주":12032,"123":12033,"12강":12034,"이런게</w>":12035,"괜찮아":12036,"돌아왔":12037,"올려도</w>":12038,"만원에</w>":12039,"이해안":12040,"한다고":12041,"자기전에</w>":12042,"문재인이</w>":12043,"하다보면</w>":12044,"누가봐도</w>":12045,"장현식":12046,"페미니":12047,"일반인":12048,"으면좋겠다</w>":12049,"비트던</w>":12050,"비트던파</w>":12051,"어이없네</w>":12052,"3개월":12053,"하려는</w>":12054,"먹으러</w>":12055,"전투력</w>":12056,"ㅎㅎㅎㅎ":12057,"양아치":12058,"어쩔수":12059,"듀라한</w>":12060,"키움히어로즈갤</w>":12061,"승리의엘롯":12062,"2학":12063,"68":12064,"el":12065,"간지나":12066,"감은</w>":12067,"감자</w>":12068,"개노잼":12069,"갱신</w>":12070,"거림</w>":12071,"겜임</w>":12072,"고다니":12073,"괴수":12074,"교수":12075,"구려":12076,"국장":12077,"기vs":12078,"나코</w>":12079,"나두</w>":12080,"날짜</w>":12081,"남앗":12082,"냐구</w>":12083,"너를</w>":12084,"넘사":12085,"높네</w>":12086,"누워":12087,"대신":12088,"대선</w>":12089,"로아는</w>":12090,"롱이</w>":12091,"많던데</w>":12092,"말한</w>":12093,"맛있는</w>":12094,"먹으니까</w>":12095,"메모</w>":12096,"목록":12097,"무기는</w>":12098,"미용":12099,"반성":12100,"방역</w>":12101,"배윤":12102,"배포":12103,"보관":12104,"봐주세요</w>":12105,"비쌈</w>":12106,"빌지</w>":12107,"빨면서</w>":12108,"뿌림</w>":12109,"사요":12110,"사고싶다</w>":12111,"서비스</w>":12112,"셔서</w>":12113,"소문":12114,"소형":12115,"수붕이</w>":12116,"슈스":12117,"실수</w>":12118,"안다</w>":12119,"안봄</w>":12120,"안퀴</w>":12121,"안나오면</w>":12122,"야발":12123,"엇네</w>":12124,"엠창":12125,"운다</w>":12126,"웃겨":12127,"워크":12128,"의견":12129,"이동</w>":12130,"이크</w>":12131,"이새낀</w>":12132,"인의</w>":12133,"자라":12134,"잡을</w>":12135,"잡지</w>":12136,"저정도면</w>":12137,"제성</w>":12138,"졸려</w>":12139,"좆리":12140,"지키":12141,"찍어서</w>":12142,"찬호</w>":12143,"추첨":12144,"캠페":12145,"코센":12146,"키ㅡㅡㅡㅡㅡㅡㅡㅡ":12147,"탑승":12148,"태워":12149,"테넷</w>":12150,"트루</w>":12151,"퍼섭</w>":12152,"폰은</w>":12153,"푸보</w>":12154,"프런":12155,"플리":12156,"하여":12157,"할거같음</w>":12158,"합법":12159,"했던거</w>":12160,"혜리</w>":12161,"확장":12162,"후유":12163,"휴대":12164,"10퍼</w>":12165,"아이린</w>":12166,"레이저</w>":12167,"라이프</w>":12168,"좋아하면</w>":12169,"재밌는거</w>":12170,"재밌었는데</w>":12171,"안되서</w>":12172,"가능할까</w>":12173,"이상화는</w>":12174,"해주냐</w>":12175,"너무하네</w>":12176,"올려서</w>":12177,"키우고</w>":12178,"보고싶음</w>":12179,"어려운</w>":12180,"댓글로</w>":12181,"아시아</w>":12182,"좆같은게</w>":12183,"들어와라</w>":12184,"로그인":12185,"개빡치네</w>":12186,"lck":12187,"조금만</w>":12188,"울트라":12189,"가디언</w>":12190,"열등감</w>":12191,"피드백</w>":12192,"한승우</w>":12193,"노부기</w>":12194,"포레스텔라</w>":12195,"라포엠</w>":12196,"LIME":12197,"데바데</w>":12198,"COM</w>":12199,"LIME97</w>":12200,"1분</w>":12201,"1발</w>":12202,"1인데</w>":12203,"2회":12204,"3기</w>":12205,"63":12206,"7년":12207,"pg":12208,"가치가</w>":12209,"각이</w>":12210,"계수":12211,"공백":12212,"구속":12213,"군무":12214,"군은</w>":12215,"그루":12216,"금은</w>":12217,"기엔</w>":12218,"김기":12219,"낮은</w>":12220,"노네</w>":12221,"는줄</w>":12222,"답이</w>":12223,"대세":12224,"도현":12225,"되려나</w>":12226,"디스</w>":12227,"레나":12228,"루시</w>":12229,"릴라":12230,"링이</w>":12231,"마네":12232,"만두</w>":12233,"만하지</w>":12234,"말하면</w>":12235,"맨시티</w>":12236,"명작":12237,"모솔":12238,"모여":12239,"못해":12240,"무소":12241,"무현</w>":12242,"문상</w>":12243,"바쁘":12244,"바디</w>":12245,"보노</w>":12246,"분들은</w>":12247,"살고</w>":12248,"상에</w>":12249,"생겨서</w>":12250,"서새봄</w>":12251,"성갤</w>":12252,"세실</w>":12253,"소에</w>":12254,"순대":12255,"시라":12256,"시진":12257,"신의":12258,"신지":12259,"심해":12260,"심바</w>":12261,"안죽":12262,"안좋은":12263,"안주냐</w>":12264,"양학":12265,"오서":12266,"우흥":12267,"우흥</w>":12268,"운전</w>":12269,"을거같은데</w>":12270,"이면":12271,"이엿":12272,"이익</w>":12273,"인기가</w>":12274,"입덕":12275,"입문</w>":12276,"있다가</w>":12277,"자석":12278,"작전</w>":12279,"작업</w>":12280,"잘하는거</w>":12281,"잘했다</w>":12282,"전도</w>":12283,"전자</w>":12284,"접었":12285,"조국":12286,"조언</w>":12287,"죄이</w>":12288,"지효</w>":12289,"진성</w>":12290,"찍기</w>":12291,"처맞":12292,"철염</w>":12293,"청원</w>":12294,"초창":12295,"축제</w>":12296,"치도</w>":12297,"카걸</w>":12298,"클릭</w>":12299,"키노</w>":12300,"타령</w>":12301,"터져":12302,"퇴갤":12303,"트롯</w>":12304,"파일</w>":12305,"폐급":12306,"포터</w>":12307,"피파":12308,"하체":12309,"하마</w>":12310,"하거나</w>":12311,"한자":12312,"할거냐</w>":12313,"현장</w>":12314,"활용":12315,"희귀":12316,"해야한다</w>":12317,"안되겠다</w>":12318,"115":12319,"이거야</w>":12320,"문제야</w>":12321,"좆같이":12322,"ㄹㅇ로</w>":12323,"이었노</w>":12324,"나온거":12325,"떨어지는</w>":12326,"마이크</w>":12327,"오르냐</w>":12328,"행복한</w>":12329,"나와야</w>":12330,"하겠노</w>":12331,"오지게":12332,"삼성라이온":12333,"에픽세":12334,"가격이</w>":12335,"고양이":12336,"짜증나":12337,"라스칼</w>":12338,"오리지":12339,"설명좀</w>":12340,"주문하신</w>":12341,"안타깝":12342,"외질이</w>":12343,"클로저</w>":12344,"이시각</w>":12345,"ㅇㅇㅇㅇㅇㅇㅇㅇ":12346,"얍얍이</w>":12347,"파수꾼":12348,"가르쳐":12349,"워녕이</w>":12350,"박근혜":12351,"커뮤니티</w>":12352,"LCK</w>":12353,"녹두로</w>":12354,"푸엉큼</w>":12355,"내로남":12356,"2위</w>":12357,"2주</w>":12358,"4명":12359,"4분":12360,"5억</w>":12361,"6개월":12362,"8천":12363,"AR":12364,"ON":12365,"TV":12366,"kt</w>":12367,"mp":12368,"ㅁㅁ":12369,"걸려":12370,"경찬":12371,"계좌":12372,"고사</w>":12373,"곳은</w>":12374,"구에</w>":12375,"국장</w>":12376,"글섭":12377,"금이</w>":12378,"기한</w>":12379,"꺼야</w>":12380,"네일</w>":12381,"노말":12382,"놀아":12383,"놓으면</w>":12384,"누비</w>":12385,"능지":12386,"니들도</w>":12387,"다를":12388,"돌은</w>":12389,"디비</w>":12390,"딴건</w>":12391,"떡인지</w>":12392,"레카</w>":12393,"로함</w>":12394,"린게</w>":12395,"마루":12396,"마셈</w>":12397,"망이</w>":12398,"매매</w>":12399,"메일":12400,"별거":12401,"복습":12402,"부랄</w>":12403,"븝미</w>":12404,"비글":12405,"빨면</w>":12406,"사인":12407,"사요</w>":12408,"상주":12409,"상수</w>":12410,"색기":12411,"생성":12412,"서열":12413,"성현준</w>":12414,"셀롯":12415,"손님</w>":12416,"슬림":12417,"심하게</w>":12418,"씨ㅡ":12419,"안쓰는</w>":12420,"앞머리</w>":12421,"얘기는</w>":12422,"없지만</w>":12423,"연동":12424,"연은</w>":12425,"영구":12426,"옆에서</w>":12427,"오오</w>":12428,"우유</w>":12429,"유키</w>":12430,"음ㅇㅇ</w>":12431,"이과":12432,"이시간":12433,"인셉":12434,"인정</w>":12435,"일행</w>":12436,"자본":12437,"잡이</w>":12438,"잡는거</w>":12439,"장갑":12440,"장사":12441,"전라":12442,"정냐</w>":12443,"제시</w>":12444,"조절":12445,"좆됨</w>":12446,"주지":12447,"죽은":12448,"참고</w>":12449,"최주":12450,"출석":12451,"치노</w>":12452,"토츠":12453,"통수</w>":12454,"팝콘":12455,"포장":12456,"프록":12457,"플티</w>":12458,"픽뚫</w>":12459,"하내</w>":12460,"할거같":12461,"합성</w>":12462,"했는지</w>":12463,"회수":12464,"히오스</w>":12465,"힐러</w>":12466,"들어왔는데</w>":12467,"10퍼":12468,"10만원</w>":12469,"이라던데</w>":12470,"스트로</w>":12471,"언제하냐</w>":12472,"언제나와</w>":12473,"이상화":12474,"110</w>":12475,"해주세":12476,"해주지</w>":12477,"12시":12478,"이벤트는</w>":12479,"아무튼</w>":12480,"나왔을때</w>":12481,"올라감</w>":12482,"시발ㅋㅋㅋ</w>":12483,"알려주세요</w>":12484,"알려드림</w>":12485,"139</w>":12486,"노래방":12487,"나올때까지</w>":12488,"ㄱㄱㄱㄱ</w>":12489,"그리스</w>":12490,"없는이유</w>":12491,"700</w>":12492,"어떤가요</w>":12493,"사라지":12494,"어쩌구</w>":12495,"무서워</w>":12496,"무서워서</w>":12497,"어제부터</w>":12498,"만드냐</w>":12499,"기안84":12500,"퇴근길</w>":12501,"비교하면</w>":12502,"어디서봄</w>":12503,"미래가</w>":12504,"끝났네</w>":12505,"너네가</w>":12506,"아프네</w>":12507,"사냥터</w>":12508,"아파서</w>":12509,"중고로</w>":12510,"비싸네</w>":12511,"도움좀</w>":12512,"지말라고</w>":12513,"받는곳</w>":12514,"해본사람</w>":12515,"자전거":12516,"문경찬은</w>":12517,"역사상</w>":12518,"라비던스</w>":12519,"나봉쓰</w>":12520,"수험생</w>":12521,"DUMDi</w>":12522,"스밍인증왔대호</w>":12523,"비주얼</w>":12524,"충무공":12525,"1이닝</w>":12526,"2루</w>":12527,"3카</w>":12528,"3배</w>":12529,"4시간</w>":12530,"GT":12531,"fp":12532,"ㄴㅇㅈ</w>":12533,"ㅂㄹ":12534,"ㅅㅍ":12535,"가는거":12536,"갓반":12537,"건전":12538,"겠죠</w>":12539,"곳에</w>":12540,"과학</w>":12541,"괴담":12542,"구간":12543,"구원":12544,"그럼":12545,"금발":12546,"꼬리</w>":12547,"꾹앰</w>":12548,"끼워":12549,"나다</w>":12550,"나인</w>":12551,"낙서":12552,"넘들</w>":12553,"넘어서</w>":12554,"노ㅋㅋㅋㅋㅋ</w>":12555,"놈아</w>":12556,"는새끼</w>":12557,"다구</w>":12558,"단타":12559,"단다</w>":12560,"달림</w>":12561,"대지</w>":12562,"돈주고</w>":12563,"드루</w>":12564,"들아":12565,"때메</w>":12566,"랜덤</w>":12567,"레기</w>":12568,"레일리</w>":12569,"렸노</w>":12570,"루스</w>":12571,"루머</w>":12572,"리베":12573,"리사</w>":12574,"마핸":12575,"만들</w>":12576,"맥스</w>":12577,"모른":12578,"목걸이</w>":12579,"몰이</w>":12580,"못이기":12581,"물약</w>":12582,"뭐든</w>":12583,"믿는다</w>":12584,"바위":12585,"받는게</w>":12586,"보험</w>":12587,"복커</w>":12588,"부계":12589,"비밀</w>":12590,"비제이</w>":12591,"빌런":12592,"살인데</w>":12593,"선호":12594,"세우":12595,"세워":12596,"센세":12597,"셋이</w>":12598,"수염":12599,"수면</w>":12600,"숭이</w>":12601,"스폰":12602,"스틱</w>":12603,"슬리":12604,"시노":12605,"시전":12606,"신입":12607,"신도</w>":12608,"심판</w>":12609,"싸인</w>":12610,"쓰던</w>":12611,"씹어":12612,"씹새끼</w>":12613,"아내":12614,"아돌":12615,"아디":12616,"아메리":12617,"안고":12618,"안와</w>":12619,"알람</w>":12620,"에너":12621,"여태</w>":12622,"여돌</w>":12623,"오니</w>":12624,"요정</w>":12625,"위해서</w>":12626,"유이</w>":12627,"응디":12628,"인강":12629,"인방</w>":12630,"일거</w>":12631,"일지</w>":12632,"잔데</w>":12633,"잡혀":12634,"장난</w>":12635,"재평가":12636,"정수</w>":12637,"정치</w>":12638,"좆쥐":12639,"좋을듯</w>":12640,"쥬지가</w>":12641,"체육":12642,"카드는</w>":12643,"큐시":12644,"키타</w>":12645,"탈워</w>":12646,"털어":12647,"통수":12648,"파렉":12649,"팔림</w>":12650,"편하게</w>":12651,"포가</w>":12652,"플이</w>":12653,"필드</w>":12654,"한이</w>":12655,"한식</w>":12656,"할일</w>":12657,"했어도</w>":12658,"헌터</w>":12659,"현역</w>":12660,"홍이":12661,"하는데":12662,"하는건가</w>":12663,"아니였냐</w>":12664,"나오겠네</w>":12665,"들어라</w>":12666,"10구역</w>":12667,"사람임</w>":12668,"20년":12669,"해야돼</w>":12670,"병신같":12671,"좋아하냐</w>":12672,"씨발씨발":12673,"이상한거</w>":12674,"시작하는</w>":12675,"나왔노</w>":12676,"나왔어</w>":12677,"방송에</w>":12678,"2007":12679,"한국이</w>":12680,"17일</w>":12681,"미친새끼</w>":12682,"페이스</w>":12683,"마리아</w>":12684,"600</w>":12685,"별로야</w>":12686,"유저인데</w>":12687,"만드네</w>":12688,"무료로</w>":12689,"와꾸가</w>":12690,"ㅋㅋㅋㅋㅋㅋㅋㅋㅋㅋㅋㅋㅋㅋㅋㅋㅋㅋㅋㅋㅋㅋㅋㅋㅋㅋㅋㅋㅋㅋㅋㅋㅋㅋㅋㅋㅋ</w>":12691,"매니저":12692,"이모티콘</w>":12693,"린이인데</w>":12694,"단체로</w>":12695,"하하하하":12696,"아깝다</w>":12697,"ith</w>":12698,"시그니":12699,"무적권</w>":12700,"고등학교</w>":12701,"태블릿</w>":12702,"포레스텔라갤</w>":12703,"조센징":12704,"도서관</w>":12705,"백용환</w>":12706,"음바페</w>":12707,"태민갤</w>":12708,"1초":12709,"3점":12710,"5번":12711,"ee":12712,"가불":12713,"가입</w>":12714,"각임</w>":12715,"갓성은</w>":12716,"거절":12717,"경기가</w>":12718,"고평가":12719,"공기업</w>":12720,"구라</w>":12721,"그때":12722,"그램":12723,"근이</w>":12724,"기생":12725,"꼬추</w>":12726,"꿈에서</w>":12727,"난투</w>":12728,"눈치</w>":12729,"는점</w>":12730,"님들이</w>":12731,"답게</w>":12732,"덱에</w>":12733,"돌고</w>":12734,"드도</w>":12735,"룩삼</w>":12736,"마켓":12737,"마니</w>":12738,"막히":12739,"많더라</w>":12740,"미지</w>":12741,"바스</w>":12742,"밤새":12743,"방방":12744,"배팅":12745,"베스트":12746,"변화</w>":12747,"복이</w>":12748,"브라</w>":12749,"빅텍</w>":12750,"빠들</w>":12751,"빼곤</w>":12752,"뽑는</w>":12753,"사령":12754,"사사":12755,"삼이</w>":12756,"색깔":12757,"소스</w>":12758,"쇼미</w>":12759,"신병":12760,"아끼":12761,"안본":12762,"안심":12763,"안한":12764,"앗음</w>":12765,"앰뒤":12766,"야돼</w>":12767,"야하나</w>":12768,"어의</w>":12769,"어찌</w>":12770,"없을</w>":12771,"엘비</w>":12772,"운건</w>":12773,"유격</w>":12774,"윤이</w>":12775,"의사가</w>":12776,"이더</w>":12777,"있는거지</w>":12778,"자세</w>":12779,"자들은</w>":12780,"장르":12781,"정은</w>":12782,"제국":12783,"주택":12784,"주호":12785,"죽일":12786,"지내":12787,"지옥</w>":12788,"진격":12789,"질은</w>":12790,"코구":12791,"콩이</w>":12792,"키트</w>":12793,"테오":12794,"토요일":12795,"튜브":12796,"트랑</w>":12797,"팔이":12798,"팬인데</w>":12799,"프붕이</w>":12800,"하긴함</w>":12801,"한방":12802,"한수":12803,"한태</w>":12804,"한시간</w>":12805,"할줄":12806,"합니까</w>":12807,"핵심":12808,"호로":12809,"화난":12810,"히하":12811,"힘이</w>":12812,"고싶노</w>":12813,"생각하고</w>":12814,"생각하니까</w>":12815,"들어와서</w>":12816,"오늘만</w>":12817,"해야되는데</w>":12818,"지않아</w>":12819,"15일</w>":12820,"아닌듯</w>":12821,"캐릭은</w>":12822,"이었냐</w>":12823,"궁금해</w>":12824,"잘생기면</w>":12825,"보고도</w>":12826,"이기야</w>":12827,"페이커":12828,"서울에</w>":12829,"대가리가</w>":12830,"어떻게든</w>":12831,"바이크</w>":12832,"221</w>":12833,"만나고</w>":12834,"파이어":12835,"갤주가</w>":12836,"개꿀잼</w>":12837,"불쌍하네</w>":12838,"떡밥이</w>":12839,"기안은</w>":12840,"조선족":12841,"여고딩":12842,"빠르네</w>":12843,"라비리":12844,"외국인":12845,"5천원":12846,"려고하는데</w>":12847,"카스미</w>":12848,"국가직</w>":12849,"승부존</w>":12850,"커리어</w>":12851,"깔끔하게</w>":12852,"최적화</w>":12853,"김혜성</w>":12854,"시조새</w>":12855,"러블리즈갤</w>":12856,"냉혹한</w>":12857,"3장</w>":12858,"TS</w>":12859,"me</w>":12860,"s7</w>":12861,"ㄹㄹ</w>":12862,"가로":12863,"갑옷":12864,"개쓰레기":12865,"거봐</w>":12866,"건물":12867,"경은</w>":12868,"고평가</w>":12869,"공장":12870,"광역":12871,"구해":12872,"국야</w>":12873,"국대</w>":12874,"글쓰":12875,"길가":12876,"내는거</w>":12877,"너만":12878,"네ㄷㄷ</w>":12879,"녀는</w>":12880,"누굴</w>":12881,"는것</w>":12882,"니샤":12883,"닉변":12884,"닉언":12885,"다닌":12886,"다이</w>":12887,"당하네</w>":12888,"당했다</w>":12889,"대참":12890,"대타":12891,"더가</w>":12892,"돌림":12893,"동갑":12894,"됐지</w>":12895,"될거</w>":12896,"드라이":12897,"든지</w>":12898,"들과</w>":12899,"똥퍼":12900,"라시":12901,"라는거</w>":12902,"라모스</w>":12903,"랑이":12904,"로시</w>":12905,"루트":12906,"리도</w>":12907,"리마</w>":12908,"마레":12909,"마비":12910,"마로</w>":12911,"마법</w>":12912,"마세요</w>":12913,"망갤</w>":12914,"맞짱":12915,"매운":12916,"명품":12917,"몇이냐</w>":12918,"무뽑":12919,"문에</w>":12920,"뭐냐면</w>":12921,"미야":12922,"박는</w>":12923,"밖에서</w>":12924,"버크</w>":12925,"복수":12926,"볼게</w>":12927,"봊초":12928,"부엉":12929,"부상</w>":12930,"불리":12931,"브리</w>":12932,"븝딱</w>":12933,"비틀":12934,"사탄":12935,"사야</w>":12936,"사나이</w>":12937,"살만함</w>":12938,"서야</w>":12939,"세스":12940,"세력</w>":12941,"소풍":12942,"쉽게":12943,"스톤":12944,"시스</w>":12945,"시킨</w>":12946,"씨는</w>":12947,"아머":12948,"아네</w>":12949,"안티":12950,"안어울":12951,"야무":12952,"야간</w>":12953,"언론":12954,"없겠지</w>":12955,"연재</w>":12956,"영의</w>":12957,"위즈":12958,"육군</w>":12959,"이틀</w>":12960,"인벤</w>":12961,"잇지</w>":12962,"잡냐</w>":12963,"재벌":12964,"저새낀</w>":12965,"조닭":12966,"조롱":12967,"종목":12968,"주니까</w>":12969,"지니":12970,"직구":12971,"진화</w>":12972,"참가":12973,"참여</w>":12974,"치고":12975,"치치</w>":12976,"캐가</w>":12977,"테마</w>":12978,"텐션</w>":12979,"톡스</w>":12980,"판정</w>":12981,"한잔</w>":12982,"함성":12983,"회에</w>":12984,"희가</w>":12985,"아니였음</w>":12986,"나오려나</w>":12987,"생각나는</w>":12988,"생각나서</w>":12989,"10연차</w>":12990,"병신이</w>":12991,"가능해</w>":12992,"씨발ㅋㅋ</w>":12993,"해주고</w>":12994,"1200":12995,"친구는</w>":12996,"사이드":12997,"이쁘지</w>":12998,"받아도</w>":12999,"떨어졌":13000,"머리에</w>":13001,"라인전</w>":13002,"40분":13003,"철구야</w>":13004,"내일도</w>":13005,"에이텍</w>":13006,"ㅠㅠㅠㅠㅠㅠ</w>":13007,"여친이랑</w>":13008,"있을까요</w>":13009,"분위기":13010,"스테이지</w>":13011,"브리검</w>":13012,"하지말라고</w>":13013,"죽여버리":13014,"감스트가</w>":13015,"어때서</w>":13016,"피지컬":13017,"슬프다</w>":13018,"유희왕</w>":13019,"사은품</w>":13020,"김하성</w>":13021,"1시":13022,"3차":13023,"3은</w>":13024,"Fact</w>":13025,"ng</w>":13026,"가야함</w>":13027,"강원":13028,"강백호</w>":13029,"개쩔":13030,"개시발</w>":13031,"개돼지":13032,"갤스밍</w>":13033,"거든":13034,"검제</w>":13035,"결국":13036,"계는</w>":13037,"공휴":13038,"귀걸이</w>":13039,"극혐</w>":13040,"기계</w>":13041,"기존</w>":13042,"꾹이</w>":13043,"나같은</w>":13044,"날려":13045,"녀들</w>":13046,"녹음":13047,"눈깔":13048,"는중인데</w>":13049,"니지</w>":13050,"다하면</w>":13051,"더태민갤</w>":13052,"뒤면</w>":13053,"들이나</w>":13054,"래요</w>":13055,"러는</w>":13056,"리랑</w>":13057,"마셔":13058,"막타</w>":13059,"만하냐</w>":13060,"모의</w>":13061,"못먹":13062,"무상":13063,"무엇</w>":13064,"뭐야":13065,"미즈":13066,"보충":13067,"보자마자</w>":13068,"본섭":13069,"본체</w>":13070,"불꽃":13071,"빠졌":13072,"빠진</w>":13073,"빨았":13074,"뽑을</w>":13075,"뿡은</w>":13076,"사자</w>":13077,"산업":13078,"살찌":13079,"살다</w>":13080,"색으로</w>":13081,"설문":13082,"성에</w>":13083,"세웠":13084,"소소":13085,"소용":13086,"속으로</w>":13087,"쉬운</w>":13088,"스벅":13089,"스택</w>":13090,"심야":13091,"심지어</w>":13092,"아수":13093,"아랑</w>":13094,"아머</w>":13095,"안써":13096,"안줌</w>":13097,"안보임</w>":13098,"얘기가</w>":13099,"어째</w>":13100,"업데이트":13101,"에코":13102,"연패":13103,"염색</w>":13104,"왔냐</w>":13105,"외전</w>":13106,"외퀴들</w>":13107,"웠던</w>":13108,"이론":13109,"이새기</w>":13110,"인권":13111,"일텐데</w>":13112,"자라고</w>":13113,"잡았다</w>":13114,"저딴":13115,"저새끼":13116,"전략":13117,"전개</w>":13118,"전으로</w>":13119,"전에도</w>":13120,"좆본":13121,"죽어도</w>":13122,"즈도</w>":13123,"짐승":13124,"창들</w>":13125,"천사</w>":13126,"취소</w>":13127,"칭찬</w>":13128,"카와":13129,"카도</w>":13130,"카카오</w>":13131,"케미":13132,"크리</w>":13133,"특문</w>":13134,"팬미</w>":13135,"팬들이</w>":13136,"폼이</w>":13137,"학식":13138,"해가</w>":13139,"행님들</w>":13140,"헤메":13141,"현식이</w>":13142,"화나":13143,"훈련</w>":13144,"휴방":13145,"생각하는데</w>":13146,"10개</w>":13147,"병신들은</w>":13148,"언제나</w>":13149,"11구역</w>":13150,"여기다</w>":13151,"시발년</w>":13152,"알려주셈</w>":13153,"다니깐</w>":13154,"궁금함</w>":13155,"이쁘노</w>":13156,"시즌에</w>":13157,"잘생겨":13158,"하고있는데</w>":13159,"어야됨</w>":13160,"고민중</w>":13161,"트로이":13162,"싸우는</w>":13163,"유니온</w>":13164,"맞추고</w>":13165,"입갤ㅋㅋ</w>":13166,"않았음</w>":13167,"그나저나</w>":13168,"인스타에</w>":13169,"이승현</w>":13170,"다크포":13171,"소속사</w>":13172,"트레이드는</w>":13173,"pvp":13174,"스페셜</w>":13175,"구독자</w>":13176,"핸드폰</w>":13177,"김종인</w>":13178,"함께라는</w>":13179,"챔피언</w>":13180,"dlc</w>":13181,"아이들갤</w>":13182,"09":13183,"1달":13184,"2각":13185,"2달":13186,"4시</w>":13187,"KT":13188,"tv":13189,"ㅆㅎㅌㅊ":13190,"ㅊㅊ</w>":13191,"가서":13192,"강이</w>":13193,"개똥":13194,"거북":13195,"거잖아</w>":13196,"것이다</w>":13197,"경쟁</w>":13198,"계좌</w>":13199,"고교":13200,"고려":13201,"고말":13202,"골든":13203,"골반</w>":13204,"관중":13205,"광탈":13206,"구토":13207,"군대가":13208,"기때</w>":13209,"기는거</w>":13210,"낮에</w>":13211,"낸다</w>":13212,"넘게":13213,"녕이</w>":13214,"다같이</w>":13215,"달라고":13216,"대항":13217,"대고</w>":13218,"두근":13219,"듣보":13220,"띵곡":13221,"라노":13222,"러들</w>":13223,"레후</w>":13224,"마왕</w>":13225,"망하면</w>":13226,"맞는거":13227,"머고</w>":13228,"목격":13229,"뭐뭐":13230,"미술":13231,"밑에":13232,"반이</w>":13233,"발정":13234,"버닝</w>":13235,"보민":13236,"복지</w>":13237,"부를":13238,"사일":13239,"사콜":13240,"사태":13241,"소시":13242,"쇼룸":13243,"수련</w>":13244,"수있을까</w>":13245,"스만</w>":13246,"스워</w>":13247,"슬라":13248,"슼갈":13249,"시야</w>":13250,"신분":13251,"신작":13252,"신섭</w>":13253,"싫네</w>":13254,"싶은":13255,"쌍욕":13256,"쓸만한</w>":13257,"씨벌":13258,"아예":13259,"안까":13260,"안돌아":13261,"어이가</w>":13262,"없는거임</w>":13263,"열차</w>":13264,"였긔</w>":13265,"오로":13266,"오클":13267,"와야":13268,"우드</w>":13269,"웃김":13270,"원에서</w>":13271,"월요일":13272,"은비</w>":13273,"이혼":13274,"이글</w>":13275,"이임</w>":13276,"이사람</w>":13277,"이긴한데</w>":13278,"이여도</w>":13279,"임병":13280,"임영웅":13281,"자식":13282,"자총":13283,"잘되":13284,"잘뽑":13285,"잡는":13286,"재가</w>":13287,"저리":13288,"정전":13289,"제시":13290,"조아라</w>":13291,"줌들이</w>":13292,"중치":13293,"직은</w>":13294,"질까</w>":13295,"찍먹</w>":13296,"찍는데</w>":13297,"철은</w>":13298,"체리":13299,"친선":13300,"쿠르":13301,"틀드는</w>":13302,"판독":13303,"폭격":13304,"풍성":13305,"픽츄":13306,"한가지</w>":13307,"해는데</w>":13308,"해보면</w>":13309,"홍이형</w>":13310,"화나네</w>":13311,"흐름":13312,"히기</w>":13313,"새끼들도</w>":13314,"는거보다</w>":13315,"생각할수록</w>":13316,"10강</w>":13317,"누구보다</w>":13318,"시작해서</w>":13319,"시발련</w>":13320,"시발년아</w>":13321,"올리냐</w>":13322,"ㅅㅂㅋㅋㅋ</w>":13323,"할수도</w>":13324,"문경찬이</w>":13325,"ine":13326,"유니크</w>":13327,"꼴리지</w>":13328,"재밋음</w>":13329,"타이틀":13330,"부터임</w>":13331,"무서워":13332,"맞추면</w>":13333,"유저들</w>":13334,"이쁜거</w>":13335,"김치찌":13336,"소바는</w>":13337,"인싸촌</w>":13338,"느끼는건데</w>":13339,"귀찮아서</w>":13340,"느낀게</w>":13341,"레벨업":13342,"혼자서</w>":13343,"안뜨냐</w>":13344,"니네가</w>":13345,"그랬는데</w>":13346,"올랐네</w>":13347,"시너지":13348,"이춘향":13349,"pvp</w>":13350,"정주행</w>":13351,"전체적으로</w>":13352,"이쯤에서</w>":13353,"로헨델":13354,"말복쿠폰</w>":13355,"영원히</w>":13356,"성희롱":13357,"강정호</w>":13358,"미주픽츄":13359,"노수광</w>":13360,"김선빈</w>":13361,"시메오네</w>":13362,"오마이걸갤</w>":13363,"승리의엘롯스밍인증왔대호</w>":13364,"09</w>":13365,"1루</w>":13366,"2대":13367,"7월":13368,"TNO</w>":13369,"ir":13370,"sn":13371,"가이</w>":13372,"가고싶":13373,"갔어</w>":13374,"개새끼들</w>":13375,"결론</w>":13376,"계신가요</w>":13377,"과락":13378,"구린</w>":13379,"기차":13380,"까마":13381,"꼴린다</w>":13382,"나시</w>":13383,"남의</w>":13384,"농담":13385,"놓은</w>":13386,"누난":13387,"뉴욕":13388,"단백":13389,"동영상</w>":13390,"되겠":13391,"두려":13392,"딱지</w>":13393,"라던데</w>":13394,"로맨":13395,"롭게</w>":13396,"리즈":13397,"리로</w>":13398,"립니다</w>":13399,"만난":13400,"말복</w>":13401,"맛잇":13402,"망호":13403,"망상</w>":13404,"매직</w>":13405,"멀티</w>":13406,"명문":13407,"목요일":13408,"문과</w>":13409,"박수":13410,"발음</w>":13411,"발라</w>":13412,"방문":13413,"배틀</w>":13414,"밴드":13415,"밸패</w>":13416,"베가</w>":13417,"분량":13418,"사울</w>":13419,"살은</w>":13420,"서번트</w>":13421,"센텀":13422,"소추":13423,"손목":13424,"수인</w>":13425,"스윙</w>":13426,"식단</w>":13427,"신비</w>":13428,"싸가지":13429,"아노</w>":13430,"않다</w>":13431,"양이</w>":13432,"어린</w>":13433,"없더라</w>":13434,"영국</w>":13435,"예언</w>":13436,"왕이</w>":13437,"운빨":13438,"유령":13439,"유식":13440,"유우":13441,"유럽</w>":13442,"의료":13443,"인디":13444,"일까지</w>":13445,"입으면</w>":13446,"자들이</w>":13447,"잦글":13448,"전환":13449,"정국":13450,"좆끼":13451,"줘패":13452,"증가</w>":13453,"지게</w>":13454,"직구</w>":13455,"진로":13456,"진실</w>":13457,"컨트롤</w>":13458,"큰거</w>":13459,"타락":13460,"탈빠":13461,"템렙</w>":13462,"토큰</w>":13463,"특성":13464,"틀퀴</w>":13465,"파악":13466,"파크</w>":13467,"편성</w>":13468,"포도</w>":13469,"폴드</w>":13470,"푸쉬":13471,"풀림</w>":13472,"퓨딜":13473,"피파</w>":13474,"필기</w>":13475,"하울":13476,"한장":13477,"한것도</w>":13478,"해드림</w>":13479,"헤이":13480,"히비":13481,"2018":13482,"ㅋㅋㅋㅋㅋㅋㅋㅋㅋㅋㅋㅋㅋㅋㅋㅋㅋㅋㅋㅋㅋㅋㅋㅋㅋㅋㅋㅋㅋ</w>":13483,"얼마전에</w>":13484,"12일</w>":13485,"한국인</w>":13486,"보이스":13487,"보이노</w>":13488,"다니는데</w>":13489,"노래도</w>":13490,"이쁘고</w>":13491,"인증한다</w>":13492,"마지노":13493,"일러레</w>":13494,"에이치":13495,"인생은</w>":13496,"어쩌라고</w>":13497,"꼴리는":13498,"대기열</w>":13499,"서버는</w>":13500,"유저가</w>":13501,"먹었어</w>":13502,"오프라인</w>":13503,"응원봉</w>":13504,"자리에</w>":13505,"쳐맞고</w>":13506,"갤러리에</w>":13507,"우울증</w>":13508,"귀찮다</w>":13509,"통합공지</w>":13510,"대깨문</w>":13511,"달아줘</w>":13512,"멤버들</w>":13513,"신경쓰":13514,"환상동":13515,"손가락":13516,"사쿠라</w>":13517,"피드백":13518,"아칼리</w>":13519,"모음집</w>":13520,"글러트":13521,"생각난건데</w>":13522,"1화</w>":13523,"38</w>":13524,"4인":13525,"4000":13526,"5카</w>":13527,"LE":13528,"it</w>":13529,"os":13530,"ub":13531,"가를</w>":13532,"가루</w>":13533,"가는중</w>":13534,"갈비</w>":13535,"감염":13536,"개봉</w>":13537,"개소리</w>":13538,"건물</w>":13539,"겜에서</w>":13540,"공대</w>":13541,"교복</w>":13542,"구리네</w>":13543,"군인":13544,"꼴림":13545,"나은듯</w>":13546,"너의</w>":13547,"넣는</w>":13548,"노출":13549,"니카</w>":13550,"다함</w>":13551,"담당</w>":13552,"대면":13553,"된듯</w>":13554,"따따":13555,"따고</w>":13556,"따는</w>":13557,"딸딸":13558,"떠려니</w>":13559,"레게":13560,"로또":13561,"리디":13562,"린은</w>":13563,"린다고</w>":13564,"맞출":13565,"매치</w>":13566,"먹튀":13567,"멀리":13568,"모동":13569,"모기</w>":13570,"모라타</w>":13571,"무한</w>":13572,"뭔가요</w>":13573,"미네</w>":13574,"바는데</w>":13575,"반짝":13576,"방어</w>":13577,"방식</w>":13578,"배는</w>":13579,"백합":13580,"범이</w>":13581,"베리</w>":13582,"별거</w>":13583,"볼거</w>":13584,"봉인":13585,"불러</w>":13586,"비하면</w>":13587,"빡쳐서</w>":13588,"빡대가리":13589,"빨아</w>":13590,"사러":13591,"사에서</w>":13592,"상현</w>":13593,"상품</w>":13594,"상대가</w>":13595,"선착</w>":13596,"세네</w>":13597,"소라":13598,"소중":13599,"순으로</w>":13600,"술사":13601,"스작":13602,"스케</w>":13603,"시냐</w>":13604,"시아님</w>":13605,"시나요</w>":13606,"실드":13607,"실제":13608,"썩어</w>":13609,"아고</w>":13610,"안고</w>":13611,"안하지</w>":13612,"않습니다</w>":13613,"앰생":13614,"야야</w>":13615,"야발</w>":13616,"야생</w>":13617,"없구나</w>":13618,"었긔</w>":13619,"여거":13620,"연생</w>":13621,"오짐</w>":13622,"용사</w>":13623,"웅앰":13624,"웠음</w>":13625,"유난":13626,"유플</w>":13627,"의문":13628,"이갤</w>":13629,"일퀘</w>":13630,"자괴":13631,"자사</w>":13632,"자원</w>":13633,"잘해서</w>":13634,"잡아야":13635,"전직":13636,"전북</w>":13637,"전에는</w>":13638,"정책</w>":13639,"제도</w>":13640,"조승":13641,"주시긔</w>":13642,"죽은</w>":13643,"줌이</w>":13644,"중이네</w>":13645,"진국":13646,"찐오":13647,"창국이</w>":13648,"천국":13649,"체인":13650,"춘향":13651,"치과":13652,"캐스터":13653,"커즈</w>":13654,"콜로</w>":13655,"타팀":13656,"태극":13657,"토모":13658,"통과":13659,"틀린</w>":13660,"파일":13661,"팩트는</w>":13662,"페그오":13663,"피에":13664,"필살기</w>":13665,"한녀</w>":13666,"해진</w>":13667,"혜원":13668,"훈수":13669,"휴식":13670,"힘을</w>":13671,"하는애들은</w>":13672,"10시에</w>":13673,"하나봐</w>":13674,"시간은</w>":13675,"거같노</w>":13676,"이런것도</w>":13677,"스토리가</w>":13678,"20050":13679,"괜찮은거</w>":13680,"한국에</w>":13681,"일본이</w>":13682,"미친년":13683,"나가고</w>":13684,"ㅅㅅㅅㅅㅅㅅㅅ</w>":13685,"하고도</w>":13686,"별로네</w>":13687,"어떤게</w>":13688,"타이틀</w>":13689,"일반인</w>":13690,"많은듯</w>":13691,"짜증나네</w>":13692,"공지사항</w>":13693,"만든거</w>":13694,"아가리":13695,"아파트":13696,"좋았음</w>":13697,"하러간다</w>":13698,"스위칭</w>":13699,"ㄱㅊ음</w>":13700,"상황이</w>":13701,"모든게</w>":13702,"태어나서</w>":13703,"정우영</w>":13704,"안뜨네</w>":13705,"롯데리아</w>":13706,"소개팅":13707,"메갈핌":13708,"이정후":13709,"오재일</w>":13710,"생존자</w>":13711,"글로벌</w>":13712,"성희롱</w>":13713,"웅장해진다</w>":13714,"신나린</w>":13715,"0625</w>":13716,"나혼산</w>":13717,"스튜디":13718,"5명":13719,"5점":13720,"DA":13721,"LP":13722,"cg":13723,"eb":13724,"ㅆㅆ":13725,"갈리는</w>":13726,"감봉":13727,"강점":13728,"거같은":13729,"검신</w>":13730,"겼다</w>":13731,"구나":13732,"구성</w>":13733,"기름":13734,"기사가</w>":13735,"김채원</w>":13736,"깨짐</w>":13737,"꼬접":13738,"나노":13739,"내꺼</w>":13740,"넘음</w>":13741,"노인":13742,"누적":13743,"님을</w>":13744,"담원":13745,"당에</w>":13746,"대학교</w>":13747,"댕라</w>":13748,"도로":13749,"되는건</w>":13750,"든가</w>":13751,"들으":13752,"똑같음</w>":13753,"띵곡</w>":13754,"러시":13755,"러스트</w>":13756,"럼들아</w>":13757,"로서</w>":13758,"루미":13759,"마일":13760,"막타":13761,"만해</w>":13762,"맞았":13763,"매직":13764,"먼트</w>":13765,"면상":13766,"모금</w>":13767,"미오":13768,"밀면</w>":13769,"반등":13770,"반대</w>":13771,"발롱":13772,"발로</w>":13773,"보통":13774,"본캐</w>":13775,"북한</w>":13776,"비웃":13777,"빠는거</w>":13778,"빠지면</w>":13779,"산지</w>":13780,"상처":13781,"색깔</w>":13782,"성골":13783,"세스</w>":13784,"셋팅</w>":13785,"소전":13786,"수업</w>":13787,"수술</w>":13788,"숭아</w>":13789,"시후":13790,"시위</w>":13791,"시후</w>":13792,"식이":13793,"실리":13794,"싫긔</w>":13795,"심장</w>":13796,"안자":13797,"안올라":13798,"안봤는데</w>":13799,"알겠네</w>":13800,"어에</w>":13801,"여는</w>":13802,"영국":13803,"오줌</w>":13804,"옵이</w>":13805,"왕은</w>":13806,"위주로</w>":13807,"유에</w>":13808,"음란":13809,"의견</w>":13810,"이낙":13811,"익절":13812,"인별":13813,"일임</w>":13814,"일이고</w>":13815,"자다</w>":13816,"작곡":13817,"잘한":13818,"점을</w>":13819,"접을":13820,"접대</w>":13821,"정답":13822,"제주</w>":13823,"젤다</w>":13824,"조기":13825,"조눈":13826,"종이":13827,"주도":13828,"중소":13829,"중일</w>":13830,"지겨":13831,"지에서</w>":13832,"차지</w>":13833,"처넌":13834,"철수</w>":13835,"첨에</w>":13836,"최저":13837,"최애</w>":13838,"축제":13839,"치는게</w>":13840,"카리":13841,"커맨":13842,"쿠로":13843,"타워</w>":13844,"탈모</w>":13845,"틀와":13846,"팁좀</w>":13847,"판정":13848,"팔아야":13849,"페북":13850,"포는</w>":13851,"픈데</w>":13852,"피니":13853,"피쳐":13854,"필드":13855,"하길</w>":13856,"한식":13857,"했으니</w>":13858,"헬리":13859,"헬지":13860,"호출":13861,"화에</w>":13862,"10억</w>":13863,"ㅋㅋㅋㅋㅋㅋㅋㅋㅋㅋㅋㅋㅋㅋㅋㅋㅋㅋㅋㅋㅋㅋㅋㅋㅋㅋㅋㅋㅋㅋㅋ</w>":13864,"병신인</w>":13865,"재밌게":13866,"스트가</w>":13867,"추천받음</w>":13868,"언제냐</w>":13869,"어케되냐</w>":13870,"시발ㅋㅋㅋㅋ</w>":13871,"100만원":13872,"지랄하네</w>":13873,"프리코네":13874,"나올거</w>":13875,"떨어지네</w>":13876,"사랑의</w>":13877,"프레데리":13878,"사진이</w>":13879,"애니화</w>":13880,"애들한테</w>":13881,"디시콘":13882,"안나오는</w>":13883,"하기로</w>":13884,"자체를</w>":13885,"차이임</w>":13886,"떡밥은</w>":13887,"부터는</w>":13888,"클리드</w>":13889,"시청률</w>":13890,"크로스</w>":13891,"베르드":13892,"커여움</w>":13893,"급식들</w>":13894,"완장들</w>":13895,"해줄사람</w>":13896,"메카닉</w>":13897,"커엽다</w>":13898,"경험치":13899,"꼬라박":13900,"해봤자</w>":13901,"할꺼면</w>":13902,"ㅡㅡㅡㅡㅡㅡ타</w>":13903,"ㅓㅓㅓㅓ":13904,"어때요</w>":13905,"조건이</w>":13906,"새키들</w>":13907,"진명호</w>":13908,"갓오하</w>":13909,"42</w>":13910,"4명</w>":13911,"5에</w>":13912,"65</w>":13913,"8시</w>":13914,"9월에</w>":13915,"FP":13916,"ad":13917,"et":13918,"so</w>":13919,"ㄱㄷ":13920,"ㅠㅜ</w>":13921,"가방":13922,"가보자</w>":13923,"각자</w>":13924,"감나":13925,"감도</w>":13926,"개새끼":13927,"개념글":13928,"것을</w>":13929,"계수</w>":13930,"고전":13931,"고옴</w>":13932,"고2</w>":13933,"고화질</w>":13934,"곳에서</w>":13935,"공단기</w>":13936,"과로":13937,"국방":13938,"궁예":13939,"극장</w>":13940,"근접":13941,"글쓴":13942,"글자":13943,"기출</w>":13944,"꼬홀":13945,"꾹삐</w>":13946,"꾹앰들</w>":13947,"나죽어</w>":13948,"날개":13949,"날리":13950,"날듯</w>":13951,"남는</w>":13952,"노예</w>":13953,"니도</w>":13954,"니랑</w>":13955,"다매</w>":13956,"다ㅋㅋㅋㅋㅋ</w>":13957,"다더니</w>":13958,"다저스</w>":13959,"단체</w>":13960,"덕이</w>":13961,"도라</w>":13962,"되는거야</w>":13963,"드나</w>":13964,"드는데</w>":13965,"등등</w>":13966,"디비":13967,"따잇</w>":13968,"때보다</w>":13969,"똑같은":13970,"렸어</w>":13971,"렸냐</w>":13972,"롤드컵":13973,"률이</w>":13974,"르르":13975,"리자":13976,"만에":13977,"망토</w>":13978,"맞나요</w>":13979,"면상</w>":13980,"목욕":13981,"못하지</w>":13982,"무선":13983,"물마":13984,"뭐였지</w>":13985,"미랑</w>":13986,"바사":13987,"발언":13988,"밥먹고</w>":13989,"법을</w>":13990,"베는</w>":13991,"본인은</w>":13992,"볼땐</w>":13993,"비아":13994,"비동의":13995,"빙고</w>":13996,"뻔했네</w>":13997,"산적":13998,"살았":13999,"살구</w>":14000,"색히":14001,"샌박":14002,"성지</w>":14003,"성장</w>":14004,"센츄":14005,"수박":14006,"수요":14007,"스나</w>":14008,"시네":14009,"시세":14010,"실업":14011,"싸워":14012,"쓰는거":14013,"아사":14014,"안개":14015,"않는다</w>":14016,"애랑</w>":14017,"앤비":14018,"양념":14019,"역체":14020,"열면</w>":14021,"오네":14022,"오자</w>":14023,"욕하면</w>":14024,"유는</w>":14025,"이채":14026,"이는데</w>":14027,"임ㅋㅋㅋ</w>":14028,"입는</w>":14029,"잘팔":14030,"장마</w>":14031,"재련":14032,"재능</w>":14033,"적이":14034,"전생":14035,"전원</w>":14036,"정답</w>":14037,"종교":14038,"좆다</w>":14039,"좌표</w>":14040,"죄악</w>":14041,"주실</w>":14042,"주변</w>":14043,"주술</w>":14044,"중경":14045,"증가":14046,"지수":14047,"진궁":14048,"진자":14049,"진게</w>":14050,"집안":14051,"짤들</w>":14052,"짤림</w>":14053,"쪽에</w>":14054,"쳐내":14055,"초동":14056,"취직":14057,"칠때</w>":14058,"칭호":14059,"크라":14060,"큰데</w>":14061,"키타":14062,"탱크":14063,"테가</w>":14064,"토미</w>":14065,"트라":14066,"티나":14067,"파도</w>":14068,"파원</w>":14069,"팔아</w>":14070,"풀리면</w>":14071,"풍성이</w>":14072,"피카":14073,"하위</w>":14074,"한줄":14075,"한새끼</w>":14076,"할배</w>":14077,"해봐야</w>":14078,"했을</w>":14079,"혜원</w>":14080,"회원":14081,"히고</w>":14082,"히히</w>":14083,"나오는거":14084,"들어갔는데</w>":14085,"레이드는</w>":14086,"재밌노</w>":14087,"스트는</w>":14088,"이거뭐냐</w>":14089,"우리동네</w>":14090,"아무도":14091,"ㅡㅡㅡㅡ타</w>":14092,"메이드</w>":14093,"돌아가는</w>":14094,"한다는거</w>":14095,"그만해라</w>":14096,"키우는게</w>":14097,"하고싶네</w>":14098,"최고다</w>":14099,"최고야</w>":14100,"일어났":14101,"어떻게하냐</w>":14102,"요즘엔</w>":14103,"애들만</w>":14104,"문재앙":14105,"돌리는데</w>":14106,"에어팟":14107,"불쌍함</w>":14108,"대단하네</w>":14109,"그렇다":14110,"장현식은</w>":14111,"확정임</w>":14112,"어캐함</w>":14113,"급식때</w>":14114,"성능은</w>":14115,"아니었으면</w>":14116,"몰랐다</w>":14117,"아르마다</w>":14118,"오른쪽</w>":14119,"부러워</w>":14120,"엘리시":14121,"배터리":14122,"예쁜데</w>":14123,"하자면</w>":14124,"개쩌는</w>":14125,"김호중":14126,"가디언":14127,"pdf":14128,"삼겹살</w>":14129,"삼국지</w>":14130,"렌탈여친</w>":14131,"상식적으로</w>":14132,"심사위":14133,"4위":14134,"57":14135,"5시</w>":14136,"5년</w>":14137,"97":14138,"9시":14139,"Ap":14140,"Li":14141,"VS":14142,"is</w>":14143,"sk</w>":14144,"top":14145,"ur":14146,"xm":14147,"ㄴㅁ":14148,"ㅊㄱ":14149,"가운":14150,"가구</w>":14151,"가오</w>":14152,"갑옷</w>":14153,"갓데</w>":14154,"갔을때</w>":14155,"강력":14156,"같아요</w>":14157,"갤하는</w>":14158,"건축":14159,"걸스</w>":14160,"겟어</w>":14161,"결장":14162,"고무":14163,"과목":14164,"교사</w>":14165,"그것도</w>":14166,"급하게</w>":14167,"기운</w>":14168,"긴하지</w>":14169,"까이는</w>":14170,"나을":14171,"나잇":14172,"나로</w>":14173,"남은거</w>":14174,"낫지않냐</w>":14175,"넣은</w>":14176,"넣어도</w>":14177,"노량":14178,"논리</w>":14179,"님도</w>":14180,"닥쳐</w>":14181,"대화</w>":14182,"도를</w>":14183,"돌았":14184,"되고싶다</w>":14185,"디톡스</w>":14186,"또또</w>":14187,"려했는데</w>":14188,"렸으면</w>":14189,"로써</w>":14190,"룸빵":14191,"리코":14192,"린제</w>":14193,"마약":14194,"마왕":14195,"만져":14196,"메이</w>":14197,"모를":14198,"무능":14199,"뭔지":14200,"보냄</w>":14201,"보내</w>":14202,"본거</w>":14203,"본가</w>":14204,"부수":14205,"분리":14206,"비티</w>":14207,"비동의</w>":14208,"뽀뽀":14209,"뿐이다</w>":14210,"사복":14211,"사운":14212,"사정":14213,"사려고</w>":14214,"살다":14215,"상당":14216,"새낀":14217,"새요</w>":14218,"생방":14219,"서열</w>":14220,"세일</w>":14221,"세움</w>":14222,"소름</w>":14223,"수업":14224,"수준이</w>":14225,"순이":14226,"스턴":14227,"슬퍼</w>":14228,"시는":14229,"시부":14230,"실북":14231,"씩만</w>":14232,"아몰":14233,"안뽑":14234,"안좋음</w>":14235,"안가네</w>":14236,"애국":14237,"애도</w>":14238,"야식":14239,"약함</w>":14240,"어옴</w>":14241,"없냐고</w>":14242,"에버":14243,"엠카":14244,"온도</w>":14245,"요렌":14246,"용량</w>":14247,"월클":14248,"위에서</w>":14249,"이정도로</w>":14250,"이와중에</w>":14251,"인척":14252,"일뽕":14253,"임대</w>":14254,"있지":14255,"자제":14256,"자인데</w>":14257,"잡은</w>":14258,"잡네</w>":14259,"전드</w>":14260,"정액</w>":14261,"제국</w>":14262,"종이</w>":14263,"좆같은거</w>":14264,"좆되네</w>":14265,"준수":14266,"중견":14267,"중붕이들</w>":14268,"쥬리":14269,"진던</w>":14270,"진입</w>":14271,"질리":14272,"카노</w>":14273,"컨디":14274,"탈주</w>":14275,"탱크</w>":14276,"퇴갤</w>":14277,"트래":14278,"티스</w>":14279,"티브</w>":14280,"티니아":14281,"폭염":14282,"폭풍":14283,"픽시브</w>":14284,"한마리</w>":14285,"할것":14286,"할말":14287,"함이</w>":14288,"합류":14289,"헌혈":14290,"화가":14291,"후원":14292,"ㅋㅋㄱ":14293,"나오는거임</w>":14294,"아이스":14295,"어디다</w>":14296,"어디까지":14297,"언제나오냐</w>":14298,"이거도</w>":14299,"ㅡㅡㅡㅡㅡ타</w>":14300,"1000</w>":14301,"있었나</w>":14302,"잘생기":14303,"귀여운데</w>":14304,"만원짜리</w>":14305,"재미없네</w>":14306,"사기꾼":14307,"보내면</w>":14308,"는데ㅋㅋ</w>":14309,"요즘에</w>":14310,"복귀했는데</w>":14311,"비슷함</w>":14312,"ㅇㅈ이지</w>":14313,"세상이</w>":14314,"웨이버</w>":14315,"ㅆㅅㅌㅊ네</w>":14316,"방법좀</w>":14317,"스럽네</w>":14318,"느낀건데</w>":14319,"자동으로</w>":14320,"뒤지게</w>":14321,"캐릭터가</w>":14322,"정신병자</w>":14323,"아지르</w>":14324,"아재들</w>":14325,"팔로우</w>":14326,"유튜버들</w>":14327,"1주일":14328,"학치커":14329,"토마토":14330,"핑까점</w>":14331,"여론조사</w>":14332,"침착맨":14333,"독서실</w>":14334,"못하겠음</w>":14335,"꺼져라</w>":14336,"리액션</w>":14337,"이누야":14338,"ntr":14339,"수즈나</w>":14340,"루페온</w>":14341,"소신발언</w>":14342,"거든요</w>":14343,"31":14344,"3시</w>":14345,"41":14346,"815":14347,"AI</w>":14348,"CT</w>":14349,"KID":14350,"cc":14351,"ip</w>":14352,"jy":14353,"sh":14354,"ts</w>":14355,"wa</w>":14356,"ㅂㄷ</w>":14357,"ㅍㅍ":14358,"가리</w>":14359,"갈게</w>":14360,"감정</w>":14361,"거같은</w>":14362,"걸레</w>":14363,"검찰":14364,"겨우":14365,"결말</w>":14366,"고를</w>":14367,"공사</w>":14368,"관에서</w>":14369,"괜히":14370,"구미":14371,"규가</w>":14372,"극한":14373,"급발":14374,"기부</w>":14375,"꼴아":14376,"끼들</w>":14377,"나성":14378,"난투":14379,"날이네</w>":14380,"남겜":14381,"내역":14382,"냉장":14383,"널널":14384,"녀석</w>":14385,"노꼴":14386,"놀람</w>":14387,"는새끼들</w>":14388,"님이랑</w>":14389,"다길래</w>":14390,"단판":14391,"당했네</w>":14392,"대창":14393,"더는</w>":14394,"도냐</w>":14395,"돌려</w>":14396,"돌계</w>":14397,"된다면</w>":14398,"드는":14399,"때랑</w>":14400,"떠나":14401,"떤냐</w>":14402,"레고</w>":14403,"렌즈</w>":14404,"려다</w>":14405,"마력":14406,"마구</w>":14407,"마드리":14408,"만한거</w>":14409,"말해</w>":14410,"몇명</w>":14411,"모금":14412,"모노":14413,"못봤는데</w>":14414,"무거":14415,"무현":14416,"문열어":14417,"미연":14418,"발악":14419,"배포</w>":14420,"백인":14421,"변기":14422,"보수</w>":14423,"복장</w>":14424,"뽑는게</w>":14425,"산책":14426,"샀음</w>":14427,"생방</w>":14428,"생인데</w>":14429,"설계":14430,"성약":14431,"성도</w>":14432,"성으로</w>":14433,"세로":14434,"쉬는</w>":14435,"스이</w>":14436,"슬픈</w>":14437,"식당</w>":14438,"실행":14439,"실체</w>":14440,"십다</w>":14441,"쓰면":14442,"안오네</w>":14443,"안오냐</w>":14444,"양심</w>":14445,"어을까</w>":14446,"에포":14447,"여성</w>":14448,"오해":14449,"오탈</w>":14450,"오피</w>":14451,"왔더니</w>":14452,"우니까</w>":14453,"유도</w>":14454,"유가</w>":14455,"육성</w>":14456,"음반</w>":14457,"의심</w>":14458,"이천":14459,"이적</w>":14460,"이용</w>":14461,"이어서</w>":14462,"이네ㅋㅋ</w>":14463,"일루시":14464,"있으니</w>":14465,"장작":14466,"장문</w>":14467,"쟁이들</w>":14468,"전술":14469,"전세계</w>":14470,"존못":14471,"졸커</w>":14472,"좀더</w>":14473,"좆두":14474,"좆목</w>":14475,"좆냥이</w>":14476,"주장":14477,"주갤</w>":14478,"주겠지</w>":14479,"중심":14480,"지적":14481,"지표</w>":14482,"창에서</w>":14483,"철이</w>":14484,"첫날</w>":14485,"최신":14486,"캐리</w>":14487,"코레":14488,"코구</w>":14489,"클라스</w>":14490,"퇴물</w>":14491,"투어":14492,"팬들은</w>":14493,"푸르":14494,"풀어</w>":14495,"퓨딜</w>":14496,"프론":14497,"하꼬</w>":14498,"하시는</w>":14499,"한심":14500,"할까봐</w>":14501,"허언":14502,"혁은</w>":14503,"호빠":14504,"호마갤</w>":14505,"홀리":14506,"홍구</w>":14507,"후배":14508,"후속":14509,"나오는게</w>":14510,"들어간":14511,"들어간다</w>":14512,"어디갓":14513,"병신같은":14514,"병신같음</w>":14515,"병신같네</w>":14516,"여자도</w>":14517,"이라는거</w>":14518,"이라면서</w>":14519,"하나도":14520,"이상형</w>":14521,"시작부터</w>":14522,"아무래도</w>":14523,"시발년들아</w>":14524,"질문있음</w>":14525,"이었어</w>":14526,"받아야":14527,"그런거임</w>":14528,"16강</w>":14529,"미쳤나</w>":14530,"서울대":14531,"하고싶음</w>":14532,"이제와서</w>":14533,"파이어</w>":14534,"어려워":14535,"하기도</w>":14536,"할만하냐</w>":14537,"유진이랑</w>":14538,"24H":14539,"다르냐</w>":14540,"인방갤":14541,"심심하면</w>":14542,"봐야겠다</w>":14543,"프라이드</w>":14544,"하고있네</w>":14545,"어디갔노</w>":14546,"지말자</w>":14547,"이것이</w>":14548,"화장실":14549,"상태로</w>":14550,"판매량</w>":14551,"스시녀</w>":14552,"마일리지로</w>":14553,"커뮤니티":14554,"챔피언":14555,"영탁마갤</w>":14556,"여사친":14557,"잦스틴</w>":14558,"개나소나</w>":14559,"캠페인</w>":14560,"1학":14561,"2시":14562,"2만원</w>":14563,"3배":14564,"96":14565,"Tr":14566,"T1</w>":14567,"al</w>":14568,"eu</w>":14569,"op</w>":14570,"가드":14571,"가려면</w>":14572,"같고</w>":14573,"개조</w>":14574,"개씩</w>":14575,"건은</w>":14576,"것들이</w>":14577,"경험</w>":14578,"고래":14579,"공홈":14580,"광주":14581,"국민</w>":14582,"규모</w>":14583,"균열":14584,"그자체":14585,"기자</w>":14586,"기회</w>":14587,"김대":14588,"노려":14589,"니미":14590,"니키</w>":14591,"담주에</w>":14592,"대형</w>":14593,"데모":14594,"덱스</w>":14595,"도트</w>":14596,"되긔</w>":14597,"두라</w>":14598,"둘이서</w>":14599,"드만</w>":14600,"득점</w>":14601,"레즈":14602,"레어</w>":14603,"로또</w>":14604,"리타":14605,"마야</w>":14606,"마토</w>":14607,"만붕이들</w>":14608,"망해":14609,"맞은</w>":14610,"물에</w>":14611,"물건</w>":14612,"뭐할까</w>":14613,"뭐시기</w>":14614,"미남":14615,"바냐</w>":14616,"반드":14617,"반은</w>":14618,"받지</w>":14619,"발렌":14620,"발음":14621,"버스터":14622,"범룡":14623,"베라</w>":14624,"보조</w>":14625,"보라고</w>":14626,"볼넷</w>":14627,"부갤주</w>":14628,"뽑아서</w>":14629,"살구":14630,"색욕</w>":14631,"성욕</w>":14632,"소아":14633,"소방</w>":14634,"속에서</w>":14635,"솔킬</w>":14636,"수원":14637,"슈퍼</w>":14638,"스바":14639,"스테</w>":14640,"슬롯</w>":14641,"시카":14642,"시외</w>":14643,"심장":14644,"쓰고":14645,"아님":14646,"아몬":14647,"아씨발":14648,"안열":14649,"않을":14650,"알트":14651,"알앗는데</w>":14652,"약국</w>":14653,"어스":14654,"어필":14655,"어든</w>":14656,"에나</w>":14657,"여프리</w>":14658,"연상":14659,"열매</w>":14660,"영업</w>":14661,"예요</w>":14662,"오느":14663,"오니":14664,"와요</w>":14665,"와이번":14666,"완장이</w>":14667,"우정":14668,"운명":14669,"웃음</w>":14670,"위임</w>":14671,"유능":14672,"의지":14673,"이달":14674,"이길래</w>":14675,"이자나</w>":14676,"인상":14677,"인식":14678,"일하는</w>":14679,"읽고</w>":14680,"있던":14681,"자신이</w>":14682,"작화</w>":14683,"잠재":14684,"장시":14685,"전북":14686,"접었는데</w>":14687,"정체가</w>":14688,"제네":14689,"종료":14690,"좆병신</w>":14691,"주는건</w>":14692,"지표":14693,"진도</w>":14694,"집가서</w>":14695,"찍는":14696,"찍는거</w>":14697,"차네</w>":14698,"청와":14699,"쳐라</w>":14700,"초돌</w>":14701,"추격":14702,"추미":14703,"침대</w>":14704,"카트":14705,"커트":14706,"컴터</w>":14707,"컷신</w>":14708,"쿠키</w>":14709,"클립</w>":14710,"태도</w>":14711,"택이</w>":14712,"터졌다</w>":14713,"통제":14714,"트사":14715,"파고</w>":14716,"판도</w>":14717,"패는":14718,"팬싸</w>":14719,"평점</w>":14720,"하노":14721,"한놈":14722,"합니":14723,"해체</w>":14724,"해석</w>":14725,"햇냐</w>":14726,"헤으응</w>":14727,"현상":14728,"황제":14729,"아니까</w>":14730,"하나만":14731,"하나에</w>":14732,"우리나라":14733,"125</w>":14734,"120</w>":14735,"거같지않냐</w>":14736,"소리임</w>":14737,"질문좀요</w>":14738,"한국어</w>":14739,"있었다</w>":14740,"가지고":14741,"재미는</w>":14742,"오르면</w>":14743,"할수있음</w>":14744,"불쌍하다</w>":14745,"재밋네</w>":14746,"찾아봤는데</w>":14747,"오프라인":14748,"지만아</w>":14749,"해줘도</w>":14750,"드리블</w>":14751,"다는걸</w>":14752,"어이없":14753,"스위치":14754,"시절이</w>":14755,"엘마는</w>":14756,"루시안</w>":14757,"정신병자":14758,"부러움</w>":14759,"저런거</w>":14760,"골라줘</w>":14761,"샘슨은</w>":14762,"반응이</w>":14763,"웃음벨</w>":14764,"너희들</w>":14765,"힘든데</w>":14766,"ㅊㅊ좀</w>":14767,"올스타전</w>":14768,"하지마세요</w>":14769,"유투브</w>":14770,"조각가</w>":14771,"ple</w>":14772,"NC다이노스갤</w>":14773,"신한류</w>":14774,"특징이</w>":14775,"당당하게</w>":14776,"발로란트</w>":14777,"점유율</w>":14778,"허도환</w>":14779,"중치마인드</w>":14780,"KIDS</w>":14781,"1부</w>":14782,"2던</w>":14783,"3이</w>":14784,"3루</w>":14785,"3인데</w>":14786,"PC</w>":14787,"V4":14788,"dlc":14789,"lt":14790,"ㅂㅂ":14791,"ㅂㅈ":14792,"가없네</w>":14793,"강원도</w>":14794,"갖고":14795,"같더라</w>":14796,"갤에":14797,"겼는데</w>":14798,"경고":14799,"경우는</w>":14800,"고침</w>":14801,"공속":14802,"공계</w>":14803,"광주</w>":14804,"구멍</w>":14805,"그로</w>":14806,"그분</w>":14807,"긴했는데</w>":14808,"김인":14809,"깔아":14810,"나간</w>":14811,"낙관</w>":14812,"내전":14813,"너스":14814,"년대":14815,"높냐</w>":14816,"뇌가</w>":14817,"느림":14818,"는가</w>":14819,"더쿠</w>":14820,"도네":14821,"독재":14822,"돌렸는데</w>":14823,"되겠다</w>":14824,"둥세웠":14825,"드는거</w>":14826,"듣는":14827,"또는</w>":14828,"똥냐</w>":14829,"라면서</w>":14830,"러셀":14831,"레전</w>":14832,"련님</w>":14833,"로제</w>":14834,"루루</w>":14835,"류가</w>":14836,"마을</w>":14837,"말고":14838,"맛있냐</w>":14839,"매는</w>":14840,"머꼴</w>":14841,"모는</w>":14842,"못사":14843,"못해도</w>":14844,"못하는거</w>":14845,"무기가</w>":14846,"물냐</w>":14847,"물량</w>":14848,"미터</w>":14849,"미갤</w>":14850,"미안</w>":14851,"믿어</w>":14852,"바디":14853,"바퀴</w>":14854,"박경":14855,"배수":14856,"버가</w>":14857,"병살</w>":14858,"보적":14859,"본적이</w>":14860,"볼거":14861,"부심":14862,"빌다리</w>":14863,"빡침</w>":14864,"샀어</w>":14865,"서밋</w>":14866,"성향</w>":14867,"세무":14868,"션이</w>":14869,"쇼타":14870,"쉽네</w>":14871,"시는분</w>":14872,"쓰노</w>":14873,"쓰알</w>":14874,"아츠</w>":14875,"안키":14876,"안하노</w>":14877,"암만봐도</w>":14878,"애교":14879,"약한</w>":14880,"양은</w>":14881,"양팡</w>":14882,"어버":14883,"엠붕이</w>":14884,"역갤":14885,"영도</w>":14886,"오면":14887,"오피셜":14888,"오블락</w>":14889,"올리네</w>":14890,"와봐</w>":14891,"우아":14892,"원인</w>":14893,"위닝":14894,"육수":14895,"의도":14896,"이겠네</w>":14897,"인사이드</w>":14898,"일수록</w>":14899,"잇노</w>":14900,"있길래</w>":14901,"자퇴":14902,"자님</w>":14903,"자식</w>":14904,"잠실":14905,"재계약</w>":14906,"전문</w>":14907,"전직</w>":14908,"정석</w>":14909,"조리":14910,"조는</w>":14911,"좆이</w>":14912,"좆망</w>":14913,"진중":14914,"진듯</w>":14915,"진작에</w>":14916,"찍냐</w>":14917,"차별</w>":14918,"차인데</w>":14919,"채용":14920,"채로</w>":14921,"천둥":14922,"충새끼들</w>":14923,"코옵</w>":14924,"클러":14925,"키미":14926,"튜토":14927,"파엠</w>":14928,"퍼포":14929,"폭행":14930,"프레이":14931,"피해</w>":14932,"하실":14933,"할카스":14934,"해선</w>":14935,"해명</w>":14936,"해지네</w>":14937,"했다는데</w>":14938,"호구</w>":14939,"회장</w>":14940,"회복</w>":14941,"희생":14942,"는거보니</w>":14943,"사람한테</w>":14944,"좋아하는거</w>":14945,"스트레이":14946,"씨발새끼</w>":14947,"이상하네</w>":14948,"거같아서</w>":14949,"남자들은</w>":14950,"한국의</w>":14951,"다니면</w>":14952,"떨어져":14953,"투표부탁</w>":14954,"16강":14955,"다시보기":14956,"드디어":14957,"해보려는데</w>":14958,"사진은</w>":14959,"좋겠노</w>":14960,"애들이랑</w>":14961,"코스프레":14962,"중요한게</w>":14963,"돌리기</w>":14964,"어쩌냐</w>":14965,"물어보면</w>":14966,"알바가</w>":14967,"인간적으로</w>":14968,"만화는</w>":14969,"ㅏㅏㅏ</w>":14970,"미국이</w>":14971,"보기엔</w>":14972,"보상으로</w>":14973,"000원</w>":14974,"키워야":14975,"아카데미</w>":14976,"오른다</w>":14977,"설명회</w>":14978,"역겨움</w>":14979,"아리사</w>":14980,"5천원</w>":14981,"충격적인</w>":14982,"장애인</w>":14983,"미디신비":14984,"원탑은</w>":14985,"ㅡㅡㅡㅡㅡㅡㅡ타</w>":14986,"날씨가</w>":14987,"이럴거면</w>":14988,"알고리":14989,"ㄹㄹㄹㄹ":14990,"오나홀":14991,"클래식</w>":14992,"주세요":14993,"아픈데</w>":14994,"원정대</w>":14995,"주사위</w>":14996,"지무선</w>":14997,"이명기</w>":14998,"기념으로</w>":14999,"드럽게</w>":15000,"데비존</w>":15001,"월이세</w>":15002,"둥세웠탁</w>":15003,"2만</w>":15004,"2500":15005,"4시에</w>":15006,"6만":15007,"MB":15008,"MC":15009,"PS":15010,"Th":15011,"Wh":15012,"ke":15013,"ti</w>":15014,"us":15015,"wh":15016,"갓파</w>":15017,"갓는데</w>":15018,"강림</w>":15019,"개네</w>":15020,"개를</w>":15021,"과천":15022,"과정</w>":15023,"관전":15024,"괴수</w>":15025,"교행":15026,"그제</w>":15027,"근장":15028,"기엽":15029,"기절":15030,"김세":15031,"깨지":15032,"꾸미":15033,"꾸역</w>":15034,"끝에</w>":15035,"나기</w>":15036,"너구리":15037,"넣었":15038,"네일":15039,"넥슨</w>":15040,"노출</w>":15041,"느김치":15042,"다는거":15043,"달이</w>":15044,"달리면</w>":15045,"도끼":15046,"돈까":15047,"되긴</w>":15048,"들리":15049,"떡락</w>":15050,"러시아":15051,"리젠</w>":15052,"린인데</w>":15053,"마앰</w>":15054,"만세</w>":15055,"망하고</w>":15056,"망한거</w>":15057,"맞서</w>":15058,"먹을때</w>":15059,"목요일</w>":15060,"못받음</w>":15061,"못생김</w>":15062,"무수리":15063,"뭐하고</w>":15064,"바드</w>":15065,"바낸</w>":15066,"벨트</w>":15067,"봐도":15068,"부가":15069,"부른</w>":15070,"분해":15071,"비제":15072,"비즈":15073,"뿐이야</w>":15074,"생겨":15075,"생길":15076,"소수":15077,"솔찍":15078,"수갤":15079,"순애":15080,"스즈":15081,"시동":15082,"심한데</w>":15083,"쓰리</w>":15084,"안퀴":15085,"안옴</w>":15086,"알수":15087,"앰창</w>":15088,"억지":15089,"억이면</w>":15090,"얻어":15091,"업체</w>":15092,"에피</w>":15093,"엔진</w>":15094,"여태":15095,"였던":15096,"오동":15097,"오마":15098,"온이</w>":15099,"울와</w>":15100,"원인데</w>":15101,"위로":15102,"유지</w>":15103,"으니깐</w>":15104,"이말":15105,"이팀은</w>":15106,"있나":15107,"있지않냐</w>":15108,"자산":15109,"자한테</w>":15110,"자가격":15111,"장점이</w>":15112,"정책":15113,"정원</w>":15114,"정권</w>":15115,"조교":15116,"조로</w>":15117,"좆기":15118,"좋지않냐</w>":15119,"주차</w>":15120,"주붕이</w>":15121,"죽는</w>":15122,"즐겨":15123,"지른":15124,"진여신":15125,"쪽에서</w>":15126,"차지":15127,"체크</w>":15128,"추어":15129,"치니까</w>":15130,"카카</w>":15131,"카엘</w>":15132,"케릭":15133,"키아라</w>":15134,"타입</w>":15135,"탈덕":15136,"태는</w>":15137,"택시":15138,"터치</w>":15139,"터지는</w>":15140,"테두":15141,"테는</w>":15142,"특가</w>":15143,"틀고</w>":15144,"파업":15145,"팔았":15146,"팔아서</w>":15147,"페북</w>":15148,"폭쥐</w>":15149,"프라</w>":15150,"플레</w>":15151,"픽은</w>":15152,"하던거</w>":15153,"학과":15154,"한자</w>":15155,"한것</w>":15156,"할때도</w>":15157,"해리":15158,"해졌":15159,"했대</w>":15160,"했나보네</w>":15161,"허수</w>":15162,"헐리":15163,"현대</w>":15164,"현무</w>":15165,"현금</w>":15166,"호랑</w>":15167,"히짱</w>":15168,"아니지만</w>":15169,"들어갔":15170,"10월에</w>":15171,"아이고</w>":15172,"사람이":15173,"20만</w>":15174,"재밌는":15175,"안되고</w>":15176,"씨발년들</w>":15177,"30개</w>":15178,"111</w>":15179,"시작한지</w>":15180,"여기서":15181,"100만</w>":15182,"질문받는다</w>":15183,"애미들이</w>":15184,"돌아오":15185,"돌아온</w>":15186,"진짜냐</w>":15187,"있었던</w>":15188,"궁금한거":15189,"그런거":15190,"미친년</w>":15191,"다시는</w>":15192,"평가가</w>":15193,"일어나면</w>":15194,"애니는</w>":15195,"신기한</w>":15196,"먹을거</w>":15197,"보여주는</w>":15198,"어떤거</w>":15199,"영상에</w>":15200,"쓰레기임</w>":15201,"개꿀이네</w>":15202,"가축새끼들</w>":15203,"인간이</w>":15204,"호감고닉</w>":15205,"떡밥임</w>":15206,"만드는거</w>":15207,"바르셀":15208,"과금은</w>":15209,"짜증남</w>":15210,"스러워</w>":15211,"갤러리에서</w>":15212,"생긴거</w>":15213,"스위칭":15214,"한동숙</w>":15215,"상위권":15216,"로그인</w>":15217,"역겹다</w>":15218,"어디갔어</w>":15219,"시원하게</w>":15220,"아쉬움</w>":15221,"니네는</w>":15222,"넷플릭스</w>":15223,"깨워투표부탁</w>":15224,"평범한</w>":15225,"추방자</w>":15226,"전소미</w>":15227,"구창모</w>":15228,"얼리버드</w>":15229,"누가이김</w>":15230,"에이티즈</w>":15231,"누난나</w>":15232,"1도":15233,"34</w>":15234,"3주년</w>":15235,"3대장</w>":15236,"5위":15237,"8시":15238,"AS":15239,"Bo":15240,"PO":15241,"di":15242,"dm":15243,"il":15244,"kb":15245,"pl</w>":15246,"vli":15247,"ㄴㅇ":15248,"ㅈㅅ":15249,"ㅊㅋ":15250,"ㅋㅅ":15251,"가라고</w>":15252,"간이</w>":15253,"감을</w>":15254,"갤이냐</w>":15255,"거가</w>":15256,"검이</w>":15257,"겜을</w>":15258,"공황":15259,"관은</w>":15260,"관한</w>":15261,"굴려":15262,"금방":15263,"김계란</w>":15264,"깨냐</w>":15265,"나연":15266,"나니</w>":15267,"난이":15268,"날인데</w>":15269,"내네</w>":15270,"년생</w>":15271,"노모</w>":15272,"느려":15273,"닉이</w>":15274,"단발</w>":15275,"덕배</w>":15276,"델핀":15277,"도는데</w>":15278,"돌려서</w>":15279,"때리고</w>":15280,"똑같네</w>":15281,"랜스</w>":15282,"량은</w>":15283,"롤은</w>":15284,"망치":15285,"머리는</w>":15286,"메슬</w>":15287,"며칠</w>":15288,"몬린이</w>":15289,"못찾":15290,"못하게</w>":15291,"못하는게</w>":15292,"무작":15293,"무시</w>":15294,"미인":15295,"미트":15296,"밀라</w>":15297,"바텀":15298,"반일":15299,"반고닉</w>":15300,"받고":15301,"받앗":15302,"배치</w>":15303,"벅지</w>":15304,"벌크":15305,"보던</w>":15306,"보성이</w>":15307,"봤긔</w>":15308,"부인</w>":15309,"불행":15310,"붙은</w>":15311,"비슈</w>":15312,"사리":15313,"사막":15314,"사면":15315,"사상</w>":15316,"살건데</w>":15317,"성대":15318,"성향":15319,"소시</w>":15320,"솔킬":15321,"수속</w>":15322,"스무":15323,"스샷":15324,"스카</w>":15325,"슬퍼":15326,"시러":15327,"시마</w>":15328,"시켜</w>":15329,"신도":15330,"심리</w>":15331,"쎄네</w>":15332,"쓰다</w>":15333,"아델</w>":15334,"알앗":15335,"알겠는데</w>":15336,"야요":15337,"야가</w>":15338,"약국":15339,"어메이":15340,"얼코센":15341,"없지않냐</w>":15342,"엘시</w>":15343,"여주</w>":15344,"여야</w>":15345,"연금":15346,"연결</w>":15347,"온나</w>":15348,"우는거</w>":15349,"울때</w>":15350,"원작":15351,"원으로</w>":15352,"월광</w>":15353,"윈도우</w>":15354,"유기":15355,"유통":15356,"유의</w>":15357,"유물</w>":15358,"이강":15359,"이고":15360,"이는":15361,"인연</w>":15362,"일그오</w>":15363,"입음</w>":15364,"자네</w>":15365,"자리가</w>":15366,"잘라":15367,"잘했네</w>":15368,"장수":15369,"장인</w>":15370,"전붕이":15371,"젠지가</w>":15372,"주민</w>":15373,"즐겁":15374,"지급":15375,"지ㅋㅋㅋ</w>":15376,"진혈귀</w>":15377,"찍어도</w>":15378,"처분":15379,"최상":15380,"출산":15381,"카라</w>":15382,"컬러":15383,"케오":15384,"크지</w>":15385,"클립":15386,"키운":15387,"탱이":15388,"터치":15389,"파랑":15390,"파네</w>":15391,"패치는</w>":15392,"페는</w>":15393,"폭주":15394,"픽이</w>":15395,"필터</w>":15396,"하진</w>":15397,"한글</w>":15398,"할게요</w>":15399,"해보는데</w>":15400,"핵쟁이</w>":15401,"했었음</w>":15402,"허락":15403,"호크":15404,"화장</w>":15405,"흥분":15406,"히나</w>":15407,"20년</w>":15408,"해야할</w>":15409,"병신새끼들</w>":15410,"좋아짐</w>":15411,"스트라이":15412,"시간을</w>":15413,"이상한데</w>":15414,"모르네</w>":15415,"모르냐</w>":15416,"어케댐</w>":15417,"ㅡㅡㅡㅡㅡ":15418,"올라왔네</w>":15419,"스토리는</w>":15420,"웃기지</w>":15421,"남자들이</w>":15422,"괜찮겠습니까</w>":15423,"만들었네</w>":15424,"프로트</w>":15425,"이었구나</w>":15426,"다시보는</w>":15427,"한다며</w>":15428,"40대</w>":15429,"올리는거</w>":15430,"귀엽지</w>":15431,"보여줘</w>":15432,"행복해</w>":15433,"하이반</w>":15434,"하이라이트</w>":15435,"새끼들만</w>":15436,"알았어</w>":15437,"만드는게</w>":15438,"가야겠다</w>":15439,"수비비</w>":15440,"떡상함</w>":15441,"기안이</w>":15442,"정치질</w>":15443,"조선족</w>":15444,"웃긴점</w>":15445,"분위기가</w>":15446,"역대급으로</w>":15447,"라스칼":15448,"포기하고</w>":15449,"세이버</w>":15450,"해줄게</w>":15451,"모자키":15452,"좆같은점</w>":15453,"ㄷㄷㄷㄷㄷㄷㄷㄷㄷ</w>":15454,"아르카나</w>":15455,"성형외":15456,"이것저":15457,"예전부터</w>":15458,"제주도":15459,"지마셈</w>":15460,"엄청난</w>":15461,"이겼다</w>":15462,"맛있게</w>":15463,"소개팅</w>":15464,"진화석":15465,"이성규</w>":15466,"사전예약":15467,"첫방축하":15468,"135레이드</w>":15469,"학창시절</w>":15470,"간담회</w>":15471,"레시피</w>":15472,"닭가슴살</w>":15473,"1렙":15474,"1순위</w>":15475,"2로</w>":15476,"2시</w>":15477,"2각</w>":15478,"3각":15479,"37</w>":15480,"46</w>":15481,"5천</w>":15482,"67":15483,"6개월</w>":15484,"9시에</w>":15485,"oo":15486,"png</w>":15487,"tw":15488,"up":15489,"가요":15490,"가봄</w>":15491,"가보네</w>":15492,"감봉</w>":15493,"감염</w>":15494,"강퇴":15495,"같지않냐</w>":15496,"구자":15497,"구사</w>":15498,"구조선</w>":15499,"그마":15500,"그저":15501,"근근":15502,"긴급</w>":15503,"길게</w>":15504,"김밥":15505,"까서</w>":15506,"네덕":15507,"네코":15508,"네크</w>":15509,"눈감":15510,"눈빛":15511,"는애들은</w>":15512,"다던</w>":15513,"단점이</w>":15514,"데는</w>":15515,"도루":15516,"돌아서</w>":15517,"돌릴까</w>":15518,"됐다고</w>":15519,"되어</w>":15520,"두기</w>":15521,"든데</w>":15522,"듣기</w>":15523,"디아이콘</w>":15524,"따지":15525,"뛰고</w>":15526,"라리가</w>":15527,"레기":15528,"로하스</w>":15529,"리치":15530,"릴리</w>":15531,"릴리아</w>":15532,"마녀":15533,"마히":15534,"만장":15535,"말랑":15536,"말함</w>":15537,"맛에</w>":15538,"망전</w>":15539,"머함</w>":15540,"몇점":15541,"몰래":15542,"문은</w>":15543,"문피아</w>":15544,"뭐라고":15545,"미소":15546,"밑으로</w>":15547,"박서":15548,"발리</w>":15549,"발기</w>":15550,"배트":15551,"백업</w>":15552,"보트":15553,"볼수</w>":15554,"봊연":15555,"봐줄":15556,"봤던</w>":15557,"부지</w>":15558,"불타는</w>":15559,"브라이":15560,
[...]
