#version: 0.2 - Trained by `huggingface/tokenizers`
ᄏ ᄏ
ᄏᄏ ᄏᄏ
▁ 이
▁ 아
. .
는 데
▁ 나
▁ 어
▁ 1
? ?
▁ 오
▁ 안
▁ 하
▁ 그
▁ 사
▁ 다
▁ 보
▁ 지
▁ 시
ᄏᄏᄏᄏ ᄏᄏᄏᄏ
는 거
▁ 가
▁ 진
▁ ᄏᄏ
▁ 2
냐 ?
▁ 있
▁ 왜
▁ 개
▁ 한
▁ 근
▁ 스
에 서
▁ 여
▁ 내
▁ 뭐
▁ 기
▁ 대
▁ 정
▁오 늘
▁ 마
▁ 좋
▁ 없
▁ 수
으 로
▁진 짜
▁ 유
▁ 무
새 끼
▁ 존
하 는
▁ 3
▁ 인
▁ 자
▁ ᄏᄏᄏᄏ
.. .
▁아 니
▁근 데
▁ 미
▁ 고
▁ 일
▁ 저
▁ 좆
▁ 신
▁ 전
▁ 잘
▁ 해
임 ?
으 면
▁존 나
▁이 거
! !
▁ 모
▁ 못
▁ 제
▁ 갤
0 0
▁ 주
인 데
▁ 공
▁ 애
▁ 비
▁ 생
▁ 소
ᄃ ᄃ
▁ 너
▁ 바
▁ 우
같 은
ᄅ ᄋ
▁ 노
음 ?
▁ 야
▁ 만
니 까
하 면
▁ ᄅᄋ
▁ 거
▁ 올
▁ 부
▁ 조
▁ 도
▁ 알
▁지 금
하 고
▁ 방
ᄏᄏ ᄏ
▁ 5
▁ 요
▁ 중
▁ 재
▁ 씨
▁ 더
▁ 상
▁ᄏᄏ ᄏ
▁ 누
▁ 와
▁ 4
들 이
▁ [
▁ 머
p g
▁ 많
▁ 레
j pg
▁ 좀
▁ 언
▁ 남
▁ 리
ᅳ ᅳ
▁ 구
▁ 파
▁ 코
▁ 라
▁ 트
▁시 발
까 지
▁ ᄉ
들 은
▁ 말
▁ ᄏᄏᄏᄏᄏᄏᄏᄏ
▁ 서
▁ 문
▁ 원
라 고
▁ 영
다 고
▁ 김
한 테
▁ 성
▁ 카
니 다
▁ 맞
▁ 선
▁ 추
▁너 무
보 다
들 어
▁ 난
이 랑
는 게
▁생 각
고 싶
들 아
▁ 연
▁씨 발
▁ 에
▁ 먹
▁ 경
▁ 얼
▁ 버
▁ 실
▁ 게
▁ 피
▁ 되
▁ 세
v s
▁ 프
▁ 살
▁ 키
▁ 배
▁ 예
▁ 장
▁ 같
▁ 할
▁ 최
▁사 람
▁ 메
지 ?
하 네
함 ?
▁ 쓰
▁이 제
▁ 박
▁ 로
▁ 솔
▁ ᄋ
▁ 돌
▁ ᄌ
붕 이
▁ 드
▁이 유
▁ 불
.. ..
. jpg
ᅲ ᅲ
이 라
▁ 강
▁이 번
▁ 차
▁그 냥
▁ 본
부 터
▁ 6
이 네
▁ 니
▁ 타
▁아 이
▁요 즘
?? ?
▁ 씹
▁ 현
▁ 포
▁ 입
▁ 디
▁ 병
▁ 느
▁1 0
▁ 몇
▁ 동
▁ 또
▁나 오
▁ 8
해 서
▁ 않
▁ 패
스 트
▁ 뭔
▁ 받
리 는
▁어 디
▁ 질
▁ 치
▁ 망
이 드
▁ 계
사 람
시 간
▁ 감
▁ 7
한 거
▁ 캐
하 게
▁ 토
▁ 글
▁ 후
새끼 들
▁ 매
겠 다
▁ vs
▁ᄉ ᄇ
▁ 투
▁언 제
하 는거
▁ 뉴
▁ 데
▁ 발
▁내 가
▁ 초
▁ 점
▁그 래
~ ~
▁ 역
▁하 나
렇 게
▁ 결
직 히
▁ 9
▁ 확
▁ 반
▁ 의
▁ 호
했 는데
▁솔 직히
▁우 리
▁여 자
▁ 브
▁ 빨
하 지
이 나
▁ 은
▁ 크
▁ 단
이 야
▁ 똥
던 데
▁ᄏᄏᄏᄏ ᄏ
이 면
▁ 얘
▁2 0
하 다
한 다
▁ 네
같은 데
▁ 손
ᄉ ᄉ
▁좋 아
이 다
▁ 화
▁여 기
▁ 염
▁ 걍
▁어 떻
▁ 페
해 야
▁ 외
▁ 커
▁병 신
▁ 달
▁ 국
▁ 새
▁ 때
▁ 들어
▁ 짤
▁이 런
?? ??
정 도
▁ 티
!! !!
▁ 귀
▁ 따
▁추 천
▁어떻 게
▁ ᄃᄃ
▁ 물
▁ 작
▁ 친
▁ 꼴
▁ 틀
▁ 심
▁제 일
▁ 싶
▁ 두
▁ 위
▁ 복
는 건
▁가 능
▁ 필
▁얼 마
▁질 문
▁ (
은 거
하 냐
▁ 분
" "
▁ 돈
ᄐ ᄎ
▁ 처
▁ 당
더 라
▁재 밌
▁ 블
▁아 직
인 가
▁ᄋ ᄋ
▁많 이
님 들
▁ 특
▁ 삼
▁ 관
▁ 철
▁어 케
▁ 끝
▁ 눈
▁내 일
보 고
이 지
하 는데
▁뉴 비
▁ 적
면 서
었 는데
요 ?
▁ 죽
됨 ?
▁ 웃
▁ 갈
스 타
▁ 양
▁ 걸
▁다 시
▁하 는
▁ 집
▁ 엘
▁ 히
중 에
다 가
▁ 평
▁ 넘
거 같
갤 ]
나 오
▁ᄌ ᄂ
ᄏᄏᄏᄏ ᄏ
▁누 구
▁ 간
이 가
▁어 제
▁ 날
▁게 임
▁ 설
▁ 플
세 요
은 데
야 지
▁ 했
▁ 까
▁방 송
ᄏᄏᄏᄏᄏᄏᄏᄏ ᄏᄏᄏᄏᄏᄏᄏᄏ
▁ 음
▁ 클
▁ 금
▁이 상
▁ 빠
▁ 봐
▁ 열
님 ?
▁ 풀
▁ 별
▁누 가
잖 아
▁ 팔
▁ 루
▁ 찍
▁ 싸
▁ 꼬
▁ 건
▁ 민
해 도
▁나 도
어 서
▁ 운
▁ 탈
냐 ??
을 까
▁ᄏᄏᄏᄏ ᄏᄏ
▁ 볼
▁ 잡
보 면
▁보 고
이 는
g i
▁ 떡
지 않
고싶 다
▁ 들
2 0
▁안 되
▁ 직
▁무 슨
▁ 백
▁ 뽑
▁ 약
▁ 완
▁ 갓
▁ 왤
▁ 막
이 스
gi f
▁ ᄀ
▁아 무
▁ 새끼
▁1 1
이 트
▁ 골
아 니
▁ 딱
; ;
▁ 통
▁ 쳐
▁ 갑
▁ 출
▁ 케
▁ 응
▁ 홍
▁노 래
▁ 겜
ᅳᅳ ᅳᅳ
▁ 천
겠 네
▁ 형
▁이 게
▁모 르
▁시 작
▁ 순
▁ 던
▁이 벤
려 고
야 ?
▁ 길
▁한 국
▁ 베
▁ 욕
대 로
▁ 광
▁ 테
했 다
▁ 뒤
념 글
▁ 속
▁ 접
▁다 음
▁3 0
▁ 터
▁ 태
▁ 교
▁1 2
구 나
아 서
▁ 폭
만 에
▁보 면
▁ 검
( 설
▁ 목
어 도
▁ 괜
▁ 왔
이 냐
하 나
▁ 벌
지 는
▁ 잠
▁ 과
▁일 본
라 이
리 고
▁ 업
지 만
▁ 참
▁ 허
▁ 힘
▁ 편
▁ 월
것 도
▁ 합
▁이 렇게
▁다 른
▁본 인
▁왤 케
러 리
▁1 00
▁ 싫
▁ 승
▁ 온
▁ 뿡
▁염 보
▁ 학
▁ 슬
▁제 발
전 에
▁ 롤
수 있
▁애 들
레 이드
▁사 실
처 럼
▁ 같은
▁ 용
리 가
▁ 엄
았 는데
만 원
▁남 자
▁ 창
▁ 군
▁ 함
▁ 채
▁ 악
▁ 임
할 때
ᄏᄏᄏᄏ ᄏᄏ
▁ 컴
레 이
▁원 래
자 기
▁친 구
▁ 울
라 도
▁ 둘
▁ 님들
나 ?
봤 는데
▁한 번
보 니
더 니
습 니다
▁ ᄆ
▁ 찐
마 다
▁ 명
▁있 는
을 때
씨 발
▁ 팬
밖 에
▁ 담
토 리
▁ 몰
▁ 엔
▁좋 은
다 는
▁ 꾹
▁문 제
▁ 써
▁하 루
지 마
▁ 각
기 가
한 데
▁1 5
▁빨 리
▁나 는
린 이
전 드
▁아 닌
▁ 체
▁ᄏᄏᄏᄏ ᄏᄏᄏ
▁ 헬
▁ 궁
하 노
▁ ?
▁하 면
▁ 워
애 들
▁캐 릭
▁ 번
어 야
고 있
기 는
▁올 라
▁괜 찮
문 에
었 다
▁소 바
▁ 헤
▁좆 같
기 네
▁ 종
▁애 미
▁ 등
▁갑 자기
까 ?
▁ 첫
▁ 판
▁소 리
▁ 맛
해 주
▁ 쿠
▁ 념글
어 요
려 면
하 냐?
▁미 친
▁ 0
▁ 환
▁머 리
▁있 음?
▁그래 도
▁ 쓸
소 리
1 0
▁ 컨
냐 고
- -
▁ ᄂ
▁ 찾
▁ 킹
▁라 이
▁계 속
가 는
. gif
▁처 음
▁철 구
가 능
라 는
▁ 행
시 발
▁뭐 가
@ @
스 터
▁2 00
▁ 준
▁그래 서
▁ 줄
임 ??
가 면
ᄃᄃ ᄃᄃ
적 으로
▁아직 도
▁이벤 트
리 네
▁ 젤
▁레 전드
▁ ᄏ
▁갤 주
▁나 왔
인 거
▁ 밀
▁ 혼
ᄋ ᄋ
▁ 산
▁사 진
ᄏᄏᄏᄏ ᄏᄏᄏ
▁알 려
▁ 것
인 증
▁ 흑
▁ '
▁얼 굴
았 다
▁ ᅲᅲ
리 면
▁ 회
▁ ""
합 니다
▁ 절
▁ 팩
이 냐?
▁ -
▁올 해
이 유
▁ 놀
▁ 몸
▁나 만
▁뭐 냐
▁ 암
▁유 튜
▁해 야
▁ ᄒ
▁ 급
▁ 놈
▁ 봉
지 고
어 ?
하 기
▁ 떨
▁어디 서
, ,
▁왜 이
▁ 윤
▁ 팀
가 서
말 고
▁ 퇴
▁아 님?
없 는
▁너 네
▁일 러
▁ 같은데
▁바 로
▁추천 좀
ᅮ ᅮ
▁ 깨
▁ 러
▁갤 러리
▁얼마 나
▁ 댓
▁시 간
이 라고
▁없 는
▁ 삐
▁ 넣
▁ 황
된 다
▁ 앞
▁유 진
▁ 졸
t x
▁ 먼
▁돌 아
▁ 빡
었 네
같 음
▁ 변
▁ 섹
리 스
한 게
▁그 런
▁시 즌
▁나 온
▁저 거
▁투 표
이 고
는 다
▁1 3
▁어 떤
▁입 갤
▁ 청
▁궁 금
해 라
▁ s
이 노
ᄀ ᄀ
▁ 총
▁ p
▁지 랄
▁정 신
tx t
에 게
▁영 상
▁ 축
▁좋 겠다
▁프 로
와 서
▁있 음
▁이 해
▁ ᄊ
1 3
▁같 이
▁1 8
▁ S
▁그 만
▁나 올
▁ 취
▁ 폴
▁인 증
다 .
▁대 체
▁ 꿀
놓 고
하는 게
▁이 름
▁그 러
▁ 엠
▁경 기
▁ 독
▁ 푸
건 데
▁ 뜨
▁다 들
로 나
▁별 로
사 가
▁ 떴
▁방 금
아 야
▁ 슈
▁ 새끼들
▁ 충
▁하 고
▁ 뭘
▁애 니
▁만 들
▁ 짜
▁ 식
▁스 토리
▁신 캐
병 신
하 자
▁필 요
있 는
▁기 대
▁올 려
▁확 실
▁안 나
리 아
▁1 7
▁하 는거
▁ 딸
▁ 맨
▁그 거
▁브 이
▁ 낫
▁있 는데
▁마 지
다 니
▁뭔 가
▁ 퍼
▁ 찜
▁ 휴
▁ 콜
보 네
▁아니 라
냐 들
인 지
▁서 울
▁ 밥
▁ 앚
년 들
▁ 딜
▁사 랑
▁트 레이드
▁ 챔
▁5 0
갤 러
조 건
주 는
린 다
하면 서
▁이 건
노 ?
디 어
지 가
▁1 4
▁서 버
▁선 수
▁로 아
아 님?
▁가 장
▁댓 글
방 송
▁스 트
같 이
레 기
▁ 쉬
▁ 잇
▁ 돼
게 임
▁ T
▁어 떰
▁ 큰
▁느 낌
▁ 짱
▁뭐 야
나 는
이 었
▁잘 생
▁프 리
드 는
▁최 고
ᄉᄉ ᄉᄉ
보 니까
할 거
▁ 픽
▁1 6
▁마지 막
▁메 이
▁자 꾸
▁니 들
▁ ᄇ
치 는
▁그 림
▁ 폰
▁ D
있 음
▁인 생
... jpg
▁그 럼
▁ 혹
긔 ?
▁ 표
간 다
했 네
이 들
▁어 느
▁이 쁘
▁ 답
▁자 기
겠 지?
▁우 승
▁유튜 브
가 리
▁기 분
▁진 지
▁아니 냐
붕이 들
▁ 극
▁재 미
▁ L
지 네
▁이 미
▁무 조건
▁ v
▁1 9
▁귀 여
▁ +
▁ 빼
▁같 음
생 각
주 세요
보 는
▁정 리
에 도
▁디 시
00 0
동 안
하 니까
1 2
수 가
▁역 시
겠 지
> >
▁만 화
▁ A
▁스 타
▁아 는
▁있 냐
▁ a
▁ 쥬
▁떨 어
▁ 풍
▁이유 가
1 1
▁ 찬
는거 임?
으 니까
▁ 꾸
되 는
▁ 높
▁ 희
▁ 항
나 서
이 도
▁ :
▁ 죄
▁ 꼭
적 인
성 이
▁아 님
▁복 귀
▁이 새끼
▁드 디어
▁ 술
▁ 콘
시 에
▁ᄆ ᄐᄎ
▁ 샘
▁나오 면
▁ 했는데
▁벌 써
5 0
▁ 옷
입 니다
지 도
진 짜
▁ᄏᄏᄏᄏᄏᄏᄏᄏ ᄏ
▁있 냐?
▁사 이
▁고 닉
▁싫 어
. txt
▁정 도
옴 ?
▁결 국
▁ 붙
▁ 빌
아 아
캬 루
▁레 이드
▁생각 해
때 문에
줌 마
▁보 니까
▁쓰 는
▁ 떠
▁무 기
▁네 이
▁인 기
▁ 쇼
하고 싶
▁ 왕
레 스
. 5
있 음?
▁오늘 은
▁ 익
▁씨 젠
▁ m
라 인
▁마 이
▁없 음
길 래
▁진 각
▁혹 시
▁엘 마
▁공 부
▁ P
▁이 정도
된 거
보 )
▁정 상
▁ 꺼
▁뭐 임?
▁노 무
에 는
실 분
▁운 동
▁ 맘
▁싶 다
▁ 믿
을 듯
▁패 치
▁이 겜
▁ 면
~~ ~~
을 거
되 면
▁없 어
요 일
▁중 국
▁팩 트
리 는거
으 니
▁받 아
인 이
▁기 사
▁고 민
▁ 착
▁ 혐
▁ᄏᄏᄏᄏᄏᄏᄏᄏ ᄏᄏᄏᄏᄏᄏᄏᄏ
나 가
▁근 황
▁얘 기
▁ 듣
▁진 심
▁개 좆
먹 고
시 즌
▁기 안
▁새 벽
!! !
▁틀 드
던 거
▁ t
▁하 는데
▁ 겨
▁ 듀
▁실 화
링 크
바 다
나 요?
주 년
▁만 들어
i n
경 찬
나 면
삭 제
▁브이 앱
▁미 쳤
▁ <
▁ 될
스 가
준 다
텐 데
▁특 징
스 는
▁꼬 마
▁ =
려 서
지 면
▁오 랜
나 요
▁ 옛
프 로
네 요
쉬 )
▁ 침
▁ 뿌
퀴 들
3 0
시 는
▁보 는
▁잘 못
▁사 기
▁ᄏᄏᄏᄏᄏᄏᄏᄏ ᄏᄏᄏᄏᄏᄏᄏᄏᄏᄏᄏᄏᄏᄏᄏᄏ
▁점 검
▁뭔 데
할 까
▁게 이
▁있 었
▁스 킬
▁아 까
▁ 낮
▁ 멜
▁ 칼
갤 에
이 상
▁ 봤
이 즈
▁그 렇게
려 나
▁진지 하게
▁아 침
리 즈
좋 아
▁차 단
▁이 기
▁좆 같은
▁작 년
▁알 바
▁아이 돌
▁ V
사 진
같 네
▁카 드
!!!! !!!!
겠 음
주 면
▁ 똑
갤 에서
리 나
▁옛 날
▁ 법
들 도
▁왜 케
▁확실 히
▁ 늘
만 한
이라 도
봐 도
▁한 남
▁일 단
▁요 새
머 리
▁ 괴
▁ 논
▁ 봊
▁주 식
▁노 트
▁ 핵
▁4 0
▁버 그
▁염보 성
오 면
없 이
음 ??
▁섹 스
이 어
▁이 러
▁ 센
▁골 드
▁니 네
▁있 다
▁ 빅
▁ 잔
▁하 지
리 카
▁추 가
▁오늘 도
▁인 스타
▁ 택
때 마다
▁여기 서
▁ 갔
있 는데
▁와 꾸
▁ 샤
스 크
있 냐
▁케 이
자 가
일 차
가 지
인 듯
▁삼 성
▁ 효
가 ?
▁미 국
▁이번 에
▁ 증
드 컵
민 이
▁영 화
▁ 육
해 줘
▁트 위
▁ 멀
.. ...
▁방 법
▁수 영
▁코 로나
▁ 좌
▁아니 냐?
▁ 앱
세 계
텐 츠
는 지
우 스
해 ?
▁떡 밥
▁엄 청
▁해 도
▁ 밤
▁혼 자
▁ 뒷
▁ 밑
▁ 탑
존 나
▁ M
▁ ᅳᅳ
▁ 맥
수 록
▁ 쥐
린 거
하 긴
식 이
▁내 년
▁ 굴
▁개 꿀
▁ 십
사 는
▁알 아
ᄉ ᄐᄎ
리 지
▁ 웅
▁ 템
같은 거
▁데 려
▁ 앰
▁ 첨
▁나 와
▁가 축
▁샘 슨
▁하 네
▁맨 날
▁ ???
▁있 으면
▁ 색
1 5
▁ 닉
▁ 송
▁없 다
▁생 일
▁ᄏᄏᄏᄏᄏᄏᄏᄏ ᄏᄏ
(설 쉬)
▁공 지
▁평 가
거같 음
▁ 옵
마 갤]
보 단
캐 릭
▁형 들
▁ 늒
친 구
▁차 이
없 네
▁ᄋ ᄌ
▁ 징
▁ 능
니 깐
초 에
▁개 인
▁말 고
▁문 경찬
▁지 지
▁ 됐
없 음
▁고 소
▁확 정
▁ )
▁에 픽
▁후 기
▁1 위
▁없 네
▁의 외
▁새 로
▁소리 바다
▁ 싱
왔 다
투 표
▁좋아 하는
▁찐 따
▁언 냐들
▁ 범
▁김 태
놈 들
▁가 격
▁행 복
림 ?
▁어 차
▁가 챠
▁캐릭 터
▁안 나오
ᅡ ᅡ
▁ 뇌
▁비 트
▁ 북
▁ 홈
▁결 혼
▁아무 리
경 기
▁여 친
▁오랜 만에
치 고
▁성 공
▁ 됨?
누 나
▁ 핑
▁신 기
▁키 우
▁ 삭제
▁트 와
이 였
▁보 내
▁라 인
▁사 라
▁선 발
ᅲᅲ ᅲᅲ
▁완 장
그 로
나 네
▁던 파
▁문 재
▁예 상
▁계 정
한 다고
봐 라
▁보 통
▁어차 피
▁ 움
이 거
▁살 아
▁ 빵
▁ 털
▁ 랜
걸 로
. 2
▁민 주
▁ l
보 이
▁챔 스
드 립
▁비 교
▁ ᄃ
원 이
▁2 2
▁은 근
▁ 덱
▁뭐 임
▁쓰 레기
▁귀 엽
▁ 류
려 는데
▁인 터
시 아
▁코 스
▁ 으
▁야 구
▁ 슼
라 서
▁ b
▁ 셀
르 는
▁ n
▁없 냐
▁거 의
겠 노
진 거
▁광 고
▁수 준
▁ K
영 상
▁이 쁜
▁없 는데
▁절 대
나 고
보 자
야 되
▁군 대
▁ 젠
라 면
▁현 재
있 네
▁중 요
▁ c
▁ 떳
왔 는데
자 리
▁늒 네
▁7 0
▁ 샀
ᄏᄏᄏᄏᄏᄏᄏᄏ ᄏ
▁현 실
▁ 링크
▁가 슴
▁얘 들아
▁이런 거
▁어떰 ?
오 스
만 큼
▁무 료
▁중 에
대 체
▁ 끼
▁보 상
▁마 음
▁트 로
새 기
▁근 본
▁기 다
지마 라
했 으면
▁없 음?
▁질문 좀
아 도
주 고
지 랄
앨 범
▁ d
진 다
▁ o
▁ 흥
따 리
함 ??
▁모 든
▁비 슷
▁8 월
▁어 캐
▁ 헐
▁가능 ?
▁ 깔
워 서
▁수 비
▁에 어
▁결 과
을까 ?
▁ 잦
▁ N
▁ k
같 다
보 은
카 드
한 건
▁속 보)
▁ 엑
▁ 숙
▁선 택
▁어 쩌
▁ 녹
▁ 는데
애 미
▁전 부
게 이
하 러
▁있 네
1 4
▁ 옆
영 이
자 나
▁무 대
▁좋 다
▁씹 덕
▁ 린
▁ 잼
짐 ?
▁일 반
▁실 시간
x )
아 이
이 브
▁정 말
▁ 겆
르 고
▁사람 이
수 도
ᄉ ᄇ
▁ 억
라 가
▁대 단
▁강 화
웃 기네
▁싸 우
▁ 꿈
▁ 섭
▁ 읽
마 자
▁오 래
▁v 4
▁ 책
었 음
???? ????
되 네
어 가
▁어 려
▁레 이
e a
주 라
▁유 니
▁스 포
▁생각 보다
▁엄 마
▁ f
▁ 몬
무 기
장 이
▁보 여
▁개 추
▁6 0
▁ .
▁ 혜
그 룹
▁나 가
▁나 이
▁미 래
▁일 어
▁감 독
라 라
이 형
레 나
▁틀 딱
고싶 어
▁관 련
냄 새
는 중
에 선
▁ B
▁ 줘
▁아니 면
충 들
▁역 대
▁페 미
즈 원
▁그 리
▁스 카
▁기 억
▁존 버
보 기
▁수영 복
▁의외 로
▁ 쌍
▁둘 다
. 0
▁ 낼
았 네
▁보 스
▁좋 은거
▁직 업
어 로
▁이 야
▁상 황
▁라이 브
▁ ᅲ
▁ 님
▁최 근
하지 마
▁ 탄
나 보네
▁ 좃
이야 ?
준 이
▁성 능
▁퇴 근
▁도 와
_ _
ᄒ ᄒ
▁ 웨
여 자
▁정 지
▁자 주
▁애 초에
▁때 문에
아 라
인 줄
피 셜
할 듯
▁오늘 의
추 천
▁ 랭
▁1 년
▁2 5
▁인 간
▁많 은
1 8
▁ 웹
주 의
▁가 져
▁2 4
▁있 지
▁ 됨
사 랑
일 러
찬 이
▁한 다
▁불 쌍
▁느 금
1 6
거 면
▁택 배
▁ 짭
▁ 봤는데
겠 는데
졌 네
하는 건
통 령
▁주 딱
▁치 킨
하다 가
▁근 첩
▁나오 는
▁ 숨
▁아 프
▁스 밍
▁정 보
▁언 급
▁파 딱
▁ᄃᄃ ᄃ
▁ᄊ ᄉᄐᄎ
▁여 름
▁않 냐
▁되 는
▁물 어
▁ e
▁ 활
보 드
▁있 는거
▁확 률
▁ 릴
▁ 컷
시 키
▁ 퀸
라 보
^ ^
▁도 대체
▁ᄀ ᄎ
▁200 8
제 로
했 음
▁유 동
▁앞 으로
나 라
▁모 음
▁학 교
보 는데
▁못 생
▁ 득
▁ 봄
▁3 개
▁저 녁
▁갤 에
▁ 멤
▁ 된
라 마
▁캐 밥
▁신 고
▁떡 상
▁ 얻
▁상 대
거 리
▁오 프
▁장 현
# #
▁ 곧
▁ 썰
▁ 뷰
운 데
▁김 치
▁인 정
▁신 규
▁점 심
▁ 긴
오 는
같 아
있 냐?
짜 리
에서 도
지 게
다고 ?
▁ 닮
감 ?
온 다
▁대 기
▁갤 러
▁ 덕
▁ 석
거 임?
▁스 킨
▁부 산
▁ 댕
이 벤
▁어 때
▁2 개
▁경 원
▁찾 아
▁말 이
해야 지
▁ 멋
이 터
▁대 충
▁아니 고
▁ 딴
▁ 훈
심 히
아 님
▁중 계
▁보 지
는거 냐
고싶 은데
▁ g
수 는
시 긔
▁간 다
▁컨 텐츠
상 식
▁응 원
▁ 쉽
노 래
▁어 렵
년 아
번 째
인 트
▁야 짤
남 자
▁조 합
▁저 런
아니 냐
▁ 얍
얘 기
▁소 환
거 같은데
평 가
▁어 그로
지않 냐
▁슬 슬
▁ ᄑ
기 사
.. ?
▁가 면
ᅳᅳᅳᅳ ᅳᅳᅳᅳ
▁ F
리 어
▁전 에
▁누 나
(설 x)
▁ 늦
니 아
▁여 러
. 3
▁ 찌
▁ 챙
과 금
라 리
▁이정도 면
▁ 칸
▁사 주
▁한 달
▁한 명
▁자 살
▁힘 들
-- --
P G
시 작
▁가 테
▁애 들은
▁ 쏘
갤 은
쓰 는
체 가
▁돌 려
▁ ??
▁유 저
▁몇 개
▁정 치
새끼 들아
▁ 족
거 나
안 되
이 란
하 던
▁무 서
▁홍 어
) )
▁시 청
▁대 학
▁바 꾸
▁감 스트
▁ 흐
시 절
▁관 심
▁ 격
▁ 쓴
▁5 성
< <
▁ 븝
▁ 핫
리 기
먹 는
▁기 본
▁바 리
▁의 미
리 는데
▁ C
크 로
▁아무 도
ᄏᄏᄏᄏᄏᄏᄏᄏ ᄏᄏ
▁봐 도
▁사람 들
▁ 견
걱 정
▁노 잼
▁연 습
없 어
▁전 설
씀 ?
▁어느 정도
▁ 칩
▁에 이
▁같 다
▁길 드
▁저 번
▁뿡 2
▁ E
하 니
▁ᄉ ᄐᄎ
▁ G
▁ 젖
거 임
모 드
져 서
▁주 인
▁좋 음
▁공 개
▁디 씨
e r
▁ 썩
▁비 틱
마 르
었 으면
오 네
▁나 옴
▁생 겼
▁ᄏᄏᄏᄏᄏᄏᄏᄏ ᄏᄏᄏ
▁완 전
▁순 위
▁ 뮤
▁ 칭
▁원 탑
▁ ᄐ
기 도
끼 리
부 분
▁보 는데
데 이트
▁만 든
▁세 계
▁장현 식
▁바 이
▁먼 저
▁ 끌
줌 ?
▁신 인
▁조 선
1 9
▁ 뜬
러 가
이 긴
▁안 좋
▁마 도
▁바 꿔
▁투 수
▁ 앨범
광 고
▁않 았
X )
대 는
▁ 듯
▁ 폐
메 라
애 들은
갤 러리
마 리
사 기
▁좋 음?
▁버 스
▁ 벨
▁없 으면
▁호 감
선 수
▁좋 은데
▁수 캬루
있 으면
▁대 한
▁ 낙
렸 다
야 함
없 다
▁어 떡
▁그 렇
▁좆 망
▁블 루
▁왔 다
▁급 식
▁응 애
아 닌
▁인 싸
▁전 화
▁남 순
▁국 내
▁아닌 데
▁ 홀
▁도 배
▁상 관
▁데 뷔
▁웃 기
▁파 티
▁ 갖
▁ 혈
▁ 힐
▁웃 기네
나 옴
▁다 니
▁인 방
▁반 응
▁열 심히
▁담 배
▁ 런
이 긔
▁내 려
▁따 라
▁다 이
▁왜이 리
▁2 차
▁제 대로
▁예 전에
▁페 이
자 는
겟 다
땜 에
▁20 20
▁ 쟤
▁이 후
▁저 새끼
▁저 렇게
▁ 퀘
랜 드
왔 어요
자 마자
▁합 격
르 면
인 은
있 다
▁도 사
▁장 비
▁공 격
▁마이 너
J PG
▁ 롯
드 림
▁웃 긴
뒤 진
▁오늘 자
▁부 탁
▁점 핑
▁작 가
▁ ᅮᅮ
▁안 녕
는거 임
▁해 주
시 켜
아 가
피 스
▁영 웅
▁세 상
▁ 굿
졌 다
▁애 플
▁픽 업
▁ᄆᄐᄎ ?
대 가
▁애 들아
▁컨 셉
▁준 비
▁움 짤
▁ 뛰
냐 ???
▁아 마
▁상 위
▁연 애
력 이
만 들
▁외 질
성 은
해 보
▁업 뎃
▁ᄒ ᄒ
였 는데
주 일
코 네
▁지 원
▁아이 즈원
▁ᄇ ᄉ
▁없 냐?
▁애 들이
▁들어 가
난 다
르 네
▁안 보
▁시 상식
기 로
인 게
▁알 고
.... ....
▁김태 진
▁트로 이
▁ 옴
▁ 함?
▁예 쁘
▁ᄆ ᄎ
▁ 는
장 에서
▁뭐 냐?
하지 않
▁짤 녀
▁두 개
@@ @@
▁ 을
아 ?
▁다 행
▁먹 고
▁아이 폰
▁ 즐
▁ 칠
일 이
▁밑 에
들 한테
티 어
▁ 권
▁ 땡
였 네
▁미 안
▁ 걱정
▁5 분
(설 X)
ᄋ ᄌ
근 데
▁대 가리
▁좋 네
▁맞 음
드 가
이 기
일 까
▁하 이
양 이
▁보 라
너 무
지 는거
▁ 탁
▁ 밖에
계 정
이 닝
▁못 하
▁만 약
▁메이 플
명 이
키 지
.. jpg
▁이번 주
▁느 낀
학 교
▁축 구
▁ 농
인 물
▁해 줘
▁상 향
▁콜 라보
거 야
▁천 장
▁ O
겠 어
▁아 닐
▁ 벤
▁ 콱
니 가
인가 ?
▁항 상
▁ 밸
▁맞 지?
▁차 라리
▁타 이
▁손 절
▁ 룩
치 가
이라 는
▁총 공
▁ i
▁ ᄅ
나 봐
년 이
리 냐
았 음
▁오 픈
▁가 끔
▁재 밋
▁레 벨
▁ 띵
▁ 샌
스 템
중 인데
▁들 고
▁번 역
치 면
▁씨발 련
년 들아
적 이
▁봐 라
▁업 데이트
▁익 스
댐 ?
문 제
우 면
했 어
▁중 고
▁하나 도
▁ 탭
되 냐
트 가
▁그 나
▁ 콩
거 지
되 는거
우 는
▁대 상
▁거 지
▁리 그
▁않 냐?
▁갈 아
▁싱 글
▁ 닥
메 이
▁아 기
▁8 0
▁ᄃᄃ ᄃᄃ
▁네이 마르
▁되 는거
▁이상 화
라이 브
▁성 형
▁ 칰
드 라
▁사 는
▁스 크
새끼 가
▁3 00
▁목 소리
▁멤 버
▁ w
신 이
▁기 준
▁알 았는데
▁넘 어
▁11 8
▁채 팅
▁어 이
▁1 등
▁문재 인
가 요
천 원
▁안 내
▁하 다
▁사 과
▁발 표
▁ᄀ ᄀ
▁짱 깨
▁ 냉
없 는데
▁조 용
▁느 그
▁승 리
▁ /
패 드
▁어 떠
주 네
했 던
▁모르 는
▁그러 고
▁ 싹
▁보 고싶다
▁있 어
새끼 들은
▁날 씨
▁축 하
▁떴 다
구 가
저 씨
▁2 1
▁라인 업
스 밍
▁나 중에
▁올 스타
고싶 네
▁설 마
이 에
▁공 략
렸 네
만 함?
싸 개
패 치
▁경 괴
▁페 도
▁민주 당
2 5
▁ 밴
▁ 캡
▁ 팝
으면 서
▁바 람
▁최 대
▁9 0
볼 까
야 겠다
▁아 오
▁무 섭
새끼 야
▁너 프
▁안되 는
그 오
▁같 아
▁감 사
▁ 헨
이 래
자 들
탈 워
하 세요
▁쓰 면
▁불 펜
▁차 트
▁포 기
▁좆같 네
해 요
▁이 걸
▁보 은
▁2 3
▁꼴 )
▁라이 프
▁귀여 운
▁ 깡
▁ 멸
렸 는데
스 러
었 어
▁누 군
가능 ?
▁멜 론
▁ 멘
노 잼
을 텐데
▁코 인
▁헤 어
▁ 곡
▁ 짝
럭 시
위 기
▁보 다
▁시 로
니까 ?
▁배 달
▁형 님들
▁ 햄
이 니
▁5 00
▁회 사
▁정신 병
났 네
리 오
무 원
받 고
이 이
▁아 예
▁주 작
▁트 사가
▁블 랙
▁쿠 폰
▁ 뽀
눈 나
쓰 면
▁이 젠
▁하 는게
▁지 방
▁많 네
▁설 명
▁헬 스
▁여 고
▁예 쁜
▁약 간
▁출 근
▁실화 냐
구 리
은 게
태 곤
트 는
ᄏᄏᄏᄏᄏᄏᄏᄏ ᄏᄏᄏᄏ
느 낌
어 라
▁보 니
새끼 들이
▁이야 기
간 질
긴 함
본 다
올 라
점 이
▁모 자
▁초 반
▁ 뽕
햇 는데
▁실 패
▁ H
유 저
현 이
▁이 재
▁없 는거
▁꿀 잼
▁ 빛
▁ 캬루
차 이
▁나 랑
▁대 회
▁해 서
▁예 전
▁심 심
▁폴 가
▁맘 에
6 0
▁ 끄
▁ 협
▁ jpg
딩 때
죠 ?
▁많 아
▁똥 찬이
▁돼 지
디 오
애 들이
▁공 식
▁부 활
▁도 움
▁카 톡
~~ ~
▁ 셋
가 라
하 긔
▁안 됨
▁하 자
▁수 정
▁ᄏᄏᄏᄏᄏᄏᄏᄏ ᄏᄏᄏᄏ
▁평 균
나오 면
▁지지 율
▁ 붕
있 는거
▁보 기
▁2 년
▁갤 럼
▁지금 까지
▁드 라마
▁다음 주
▁스트 리
1 7
먹 음
▁보 이
▁주 말
▁비 비
▁하나 만
▁들어 와
▁역대 급
▁롯 데
다 ..
▁무 시
▁저 격
다니 엘
▁ U
▁ 닭
▁ 앙
▁ 팁
치 네
케 이
▁당 연
▁통 합
▁검 색
▁ 쪽
갤 이
도 안
라 지
▁이 길
▁전 투
▁갓 겜
▁ 겁
망 호
▁파 리
▁ I
▁ h
타 임
▁먹 는
▁따 로
▁플 레이
▁ 큐
고 닉
먹 을
아 는
▁지 만
▁않 음?
가 네
보 내
정도 면
▁ 탱
나 와
많 이
분 들
타 는
▁부 럽
▁도 전
▁ W
것 같
때 까지
쟁 이
정 이
▁다 르
▁여 캐
▁자 랑
▁해 외
▁바 르
▁빠 는
▁베 르
▁ 쌈
▁ 폼
코 인
▁아 카
▁부 캐
▁영 어
▁박 정
▁얘 네
▁커 여
지 원
▁대 구
▁모 드
▁ᄉ ᄉ
a c
떡 밥
있 어
▁아 레나
▁없 어서
▁신 곡
▁비 추
▁짜 증
▁ 렙
하 더라
▁가 는
▁성 적
▁연 장
▁싶 은데
▁30 분
4 0
가 다
언 제
▁이 모
▁대 깨
▁제 목
▁외 모
▁복 구
▁슈 퍼
▁충 격
그 래
동 생
들 만
릭 스
운 거
▁안 지만
▁자 러
▁[ 김
▁키 워
▁엔 딩
▁ 넥
▁ 벽
건 가
깅 이
빼 고
는데 ?
▁먹 어
▁왤 캐
▁1 시간
▁사 용
▁다 운
ᄏᄏᄏᄏᄏᄏᄏᄏ ᄏᄏᄏ
▁신 경
▁제 작
▁각 성
한 번
▁사 냥
▁개 병신
▁조 금
▁매 일
▁확 인
▁ 켜
대 전
릴 때
한 가
한 듯
▁이 득
▁대 통령
▁없 나
▁자 동
▁프 레
하고싶 다
▁트위 치
▁ 압
▁만 나
▁카 페
▁배 메
▁양 심
재 밌
▁개 씹
▁유 입
▁중 붕이
▁맞 는
▁맞 추
▁외 국
▁쥬 지
▁ 뚫
▁ 텐
로 는
장 은
▁이 간질
▁먹 을
▁쿠 팡
▁네이 버
▁트위 터
라 스
▁전 무
▁거 래
▁염 퀴
▁쳐 맞
▁ ᄎ
님 이
▁1 차
▁오 태곤
▁라 스
▁느 끼
▁나오 네
▁폴가 이즈
▁ R
춘 향
▁야 스
] [
a n
▁ 쿨
다 ...
의 점
특 )
▁하 기
▁생 긴
▁점 수
▁ᄊ ᄇ
▁ x
▁ 멍
▁ 탐
▁마 리나
▁외 형
▁??? :
▁ 든
마 갤
... ?
▁잘 하는
▁갤 질
▁부 모
▁ᄃᄃ ᄃᄃᄃᄃ
▁몰 랐
▁ 줌
구 만
떨 어
랑 이
지 ??
▁유 일
▁모 두
▁눈 물
▁시 절
▁있 나
▁버 퍼
▁메 인
▁ 띠
보 지
술 사
파 이
▁그 룹
▁사 회
지않 냐?
▁ r
▁배 우
▁운 영
▁아프 리카
거 냐
하 던데
▁오 토
▁마 스크
▁수 사
▁우 울
▁드 립
▁설 정
▁유튜 버
▁ 슴
▁ ...
▁ 된다
들 의
시 오
축 하
▁일 베
▁갤 에서
▁성 격
▁트와 이스
▁ᄏᄏᄏᄏᄏᄏᄏᄏ ᄏᄏᄏᄏᄏ
▁왔 는데
기 면
받 아
버 전
소 녀
시 다
▁이 새끼들
▁트 레
▁발 작
▁9 월
▁집 에
▁논 란
▁ 엉
리 그
스 럽
장 에
튜 브
▁코 드
▁카 카
▁의 사
▁위 한
▁금 지
아니 냐?
▁주인 공
o n
▁ 렉
▁ 빈
리 노
여 친
는거 야
▁이미 지
▁ 년
되 냐?
머 니
▁오 르
▁진 행
▁버 프
▁장 난
▁타 격
▁필 수
▁100 0
▁잘생 겼
▁얍 얍
o r
드 네
종 일
▁기 만
▁갤 럭시
▁주 문
▁ 섬
기 에
방 법
▁웹 툰
들 을
리 에
오 늘
▁아 쉽
▁하 드
▁전 사
▁애 기
▁구 매
▁졸 업
만 화
▁눈 나
▁출 시
인증 왔
. 7
대 장
치 히
해 줄
▁존 재
▁머 두
▁실 력
▁찬 또
오 오
이 버
인 다
▁한 동
▁경 험
;; ;
개 월
하 라고
▁신 청
▁캐 르
▁루 나
나 온
달 라고
서 버
스 로
치 기
▁신 화
▁되 냐?
▁씹 창
▁뭔 지
▁여자 가
▁ 룰
▁ 튀
▁아 르
▁사 고
▁못 하는
▁선 생
▁길 태
▁시즌 2
w w
까 진
나 이
줄 알
프 트
▁스 피
8 4
라 는데
상 도
선 발
▁안 돼
▁머 임
▁언 니
▁9 급
는건 데
▁시청 자
ᅩ ᅮ
▁ 곳
미 가
아 웃
▁가 서
▁미 디
▁리 세
▁구 라
▁분 탕
▁엘 리
▁머두 링
▁ 까지
로 그
했 노
▁지 코
▁아니 었
▁일 주일
▁도 시
▁프리 코네
▁그나 마
▁ 캠
됐 네
로 스
▁이 짤
▁제 주
▁맞 음?
▁경 북
▁합 방
▁정도 면
▁ 넷
났 는데
바 일
주 는거
▁가 지고
▁접 속
▁같은 거
▁홈 런
▁ 꽃
파 트
▁안 쓰
▁그 려
▁개 념
▁어디 가
지않 음?
▁ 붕이
우 가
줬 으면
▁내 용
▁정 병
... gif
▁키 보드
▁손 혁
▁새벽 에
2 3
▁ 액
야 함?
▁나 옴?
고싶 은
▁탈 갤
▁ 힙
나 나
세 대
왔 네
질 문
▁사 면
▁기 아
▁조 회
▁사람 은
.... ..
▁어디 갔
▁컴 백
▁ 렌
▁안 타
▁ᄉ ᄉᄉᄉᄉ
▁최 소
▁애미 뒤진
▁이해 가
받 는
세 트
키 로
▁생각해 보니
▁ ..
시 티
좋 은
페 코
하 하
▁이 래
▁나 라
▁꾹 앰
▁꾹 찜
보은 왔
남 ?
이 지?
▁방 어
▁적 당
▁ 규
▁ 덜
주 셈
▁수 학
▁좆 목
▁살 려
▁아이 유
▁하루 종일
7 0
공 지
도 가
영 웅
움 ?
▁전 라도
▁올 리
▁할 인
▁박 보
▁꼴 리는
ᄀᄀ ᄀᄀ
▁효 과
a r
▁ 품
입 갤
▁유 명
▁저 는
▁애 매
들이 랑
= =
▁아 시발
▁그 대로
▁요 약
▁구 함
▁커 엽
▁편 의점
▁죄 다
8 0
▁ 퓨
▁ 혀
거 든
미 션
보 상
카 스
▁오 버
▁스 위
▁스 펙
▁자 리
▁와 이
▁남 은
▁월 드컵
▁잘생 긴
▁빼 고
▁ 롱
▁ 빻
▁개 씨발
▁공 주
▁소 설
▁카 메라
▁사 제
▁뭐 라
▁일 찍
▁귀 찮
▁ 놓
여 서
으 러
▁한 정
▁마 라
▁라 면
▁분 위기
▁뇌 절
때 는
신 비
인 드
잘 알
▁2 주
▁마 렵
▁미 니
▁부 르
▁난 이도
반 지
필 요
해 줌
화 면
▁너 희
2 1
걸 까
났 다
던 가
▁아 줌마
▁개 빡
▁조 언
▁선 물
▁예 정
▁에어 컨
▁라이프 치히
▁ 슨
긴 한데
순 위
터 리
▁저 러
▁은 퇴
▁커 피
▁ᄋᄌ ᄅ
▁ X
▁ 빙
다 는데
예 인
자 인
▁오 른
▁그 립
▁보 닌
▁서 로
드립 니다
다 리
없 냐
▁미 리
▁스트리 머
러 스
마 이
먹 은
서 트
여 도
이 쁘
지 말
▁도 적
▁불 러
사람 ?
▁관 리
겠 습니다
나 올
봐 야
시 가
▁아 빠
▁안 들어
▁가 이드
▁기 원
▁후 회
▁ 뜸
봄 ?
▁이 어
▁이 용
▁일 부
▁요즘 은
▁8 /
▁블 핑
▁잠 깐
▁월 급
▁놈 들
▁면 접
v e
안 에
엇 는데
일 듯
줘 라
히 려
▁어 울
▁없 지
▁고 양이
▁버 즈
▁되 면
▁역 겨
1 00
▁ 갱
▁ 윈
년 도
▁이 지랄
▁하 냐
▁그 리고
▁수 능
▁3 일
▁최 종
▁15 0
▁V S
▁ 냄새
였 으면
▁이 것
▁저 게
▁제 가
▁인터 뷰
갔 는데
라 운
방 에
방 에서
찬 원
하 려고
▁하 냐?
▁2 군
▁개 웃기네
▁리 세계
▁9 9
쳐 서
토 미
▁안 가
▁하 니까
▁시 키
▁대 리
▁유 리
▁인 사
▁연 기
거같 다
이어 트
▁ ~
▁ 쎄
난 거
바 이
신 곡
야 구
어 스
▁지 역
▁2 주년
▁평 생
▁굿 즈
▁ 땅
▁ 킬
되 는데
봤 다
없 으면
▁개 발
▁비 슈
▁패 턴
▁망 오스
▁홍 보
▁시로 코
▁ 뚜
▁ 맵
돌 이
셔 츠
자 고
▁시 켜
▁2 기
▁상 태
▁걸 그룹
▁이상 한
▁왜이 렇게
. 6
▁ 습
겟 네
하 라
효 니
▁나 쁜
▁오 면
▁다 리
▁시 스템
▁유 격
▁레 드
▁난 리
▁되 냐
▁언제 까지
▁재밌 네
▁체 감
▁희 망
▁노트 20
▁개인 적으로
▁랜 덤
2 2
8 /
기 고
▁아 래
▁나 한테
▁오 히려
는거 지
▁기 술
▁모 바일
▁느 껴
▁결 정
▁테 스트
▁팩트 )
▁징 징
s t
받 음
야 됨
▁이 리
?? ???
▁2 7
▁한 거
▁미 드
▁야 갤
▁맞 다
▁키 움
▁우리 가
▁했 다
▁체 력
▁p c
▁인터 넷
는 법
니 터
덤 디
받 은
애 니
퓨 터
▁해 라
▁김 민
▁이유 는
▁의 상
o u
▁ 햇
▁현 타
▁윤 지
▁ 락
너 지
들 고
커 버
▁아 쉬
▁존 잘
▁아니 다
▁소 개
▁할 만
▁여자 들
▁싶 은
국 이
어 나
ᄃᄃ ᄃ
▁받 을
▁뒷 광고
▁ 핸
는 대
돼 지
호 가
▁무 한
▁야 붕이
고싶 음
▁살 인
▁니 쥬
▁토 탈워
▁똥 퀴
▁적 용
▁18 0
▁노무 현
뉴 비
더 만
잡 고
▁안 오
▁안 하고
▁정 우
▁고 인물
▁에 바
▁미쳤 네
5 00
어 디
트 라
▁시 리즈
▁티 저
▁볼 때마다
: 00
기 만
비 스
신 화
였 음
진 이
▁시 험
▁개 념글
▁파 밍
▁달 라
▁통 피
▁ 룸
▁ 짐
▁ 헌
데 이
름 ?
스 킬
우 승
조 사
하 려면
▁좋 았
▁할 거
▁7 )
▁팔 아
▁용 병
▁최고 의
▁박보 검
가 지고
기 전에
이 었는데
프 레
▁하 면서
▁사 귀
▁강 간
▁모르 겠
▁던 전
▁악 세
▁삐 부
▁평가 좀
▁ 팡
따 라
버 스
없 어서
인 건
중 계
한 지
▁아 다
▁개 꼴
▁우 파
▁요 네
▁되 게
▁역 전
▁꼴 데
닉 스
빠 는
수 저
이 름
▁대 부분
▁완 료
▁둘 이
l l
때 도
로 우
버 린
수 잇
▁더 블
▁배 고
▁몸 매
기 준
긴 하네
비 는
어 어
카 노
▁오늘 부터
▁없 이
▁재 료
▁아이 패드
▁입 장
▁패 키지
▁가능 성
▁사랑 해
ac t
▁ ᅩᅮ
겨 서
기 업
장 님
▁시발 련
▁니 들이
▁동 네
▁음 식
▁루 시
,, ,
▁ 밍
상 이
여 ?
▁초 기
▁단 체
▁화 장
▁당 첨
▁뽑 기
▁퀘 스트
구 는
지 금
▁있 었는데
▁한 화
▁비 싸
▁알 았
▁머 가
▁티 어
▁등 장
▁ 녕
일 에
졌 는데
쿠 폰
하 신
▁사 망
▁2 8
▁만 드
▁원 영이
▁뷰 지
네 임
됐 다
먹 어
아 지
일 리
▁나 무
▁지 가
▁기 어
▁방 탄
▁카 운
▁배 경
▁토 목
▁역 겹
▁싶 어
▁훈 련
다 운
분 전
비 가
사 고
스 킨
쓰 고
켓 몬
트 리
해 본
▁아 스
▁아 티
▁있 어?
▁여 캠
▁맞 지
▁까 는
- 2
그 림
신 청
주 실분
▁이 딴
▁마 법
▁인 성
▁맞 냐?
▁초 월
▁표 정
▁그러고 보니
+ +
런 스
마 가
봉 준
수 로
▁있 을
▁정 확
▁메 갈
▁병신 들
▁과 거
▁꿀 팁
려 도
스 토리
인 들
할 게
에서 는
▁만 족
▁커 뮤
▁심 각
▁찍 어
▁온 냐들
▁엔 씨
▁환 불
▁옛날 에
▁내년 에
▁혈 귀
던 전
리 는게
분 에
없 음?
트 로
해 봄
▁한 데
▁배 민
▁새끼 들은
▁나온 다
▁콘 서트
간 에
려 는
추 가
▁어 서
▁보 면서
▁지 하
▁가 자
▁가 족
▁4 성
▁키 스
▁불 안
▁점 점
▁하루 에
▁그런 데
▁ 꾼
누 구
때 가
키 노
▁해 야지
▁바 다
▁반 지
▁약 독
▁컴 퓨터
덩 이
수 준
실 점
알 못
우 석
이 든
▁안 됨?
▁2 시간
▁스 마
▁비 율
▁거 부
▁4 강
▁남 친
▁코 트
▁20 대
▁웃 음
▁운 지
. 1
▁ 옥
구 역
언 냐
▁아 가
▁아 라
▁그 게
▁방 출
▁[ 강
▁경 찰
▁티 니아
▁눈 치
▁능 력
싫 어
은 듯
는거 냐?
▁갤 길
▁손 흥
▁괜 히
▁아닌 가
__ __
▁ 앤
남 아
연 합
포 인트
▁안 뜨
는거 야?
▁있 을까
▁쓰 고
▁입 문
▁달 아
▁끝 나고
▁페이 커
나 갈
많 네
망 구
버 그
생 이
정 리
▁시 바
▁네 좆
놈 이
없 고
지 말고
코 드
했 다고
▁1 회
▁왜 저
▁뭐 노
▁좆 밥
▁거 기
▁국 가
▁티 비
▁재밌 는
나오 네
▁맛 있
해주 세요
▁노트 북
▁칭 찬
▁싱글 글
▁ !
▁ 틱
스 티
이 제
통 당
▁대 신
▁인 형
▁신 작
▁국 밥
▁봉 퀴
투표 인증
▁미디 신비
그 러
나 미
렉 터
마 토
연 차
▁뭐 라고
▁전 붕이
▁부 족
▁머 임?
▁솔 로
▁싸 움
▁갓 기
▁밀 어
▁ 으면
년 은
자 너
▁가 성
▁고 백
▁제 로
▁공 무원
▁포 카
▁했 으면
▁풀 어
▁순 간
공 개
리 타
마 렵
시 고
아 고
언 니
제 한
져 도
▁자 고
▁자 체가
▁해 결
▁상 자
▁직 관
▁메이 저
▁2008 13
▁조회 수
- 1
▁ J
그 램
대 회
리 드
뭐 냐
바 타
운 동
충 이
▁사 야
▁가 입
▁수 도
▁아니 지
▁생 활
▁상 상
▁최 강
는건 가
▁잡 아
▁판 매
▁이름 이
▁다이 아
2 00
c m
i t
나 게
보 스
줌 들
패 스
해 지
▁1 억
▁가 야
▁신 레
▁전 기
▁와 서
▁세 라
▁호 모
▁국 민
▁히 로
시는 분
c k
ᅥ ᅥ
▁ 델
관 련
냥 이
어 케
하 다고
▁어 린
▁하 스
▁그 린
▁사 이트
▁ᄉ ᄉᄉ
▁원 영
.... jpg
시간 에
▁빨 아
!!!! !
▁클 로
▁직 캠
습니다 .
합니다 .
in g
▁ ,
무 리
배 우
주 가
화 가
▁여 성
▁3 페
▁해 설
▁망 가
▁토 끼
▁결 승
▁특 )
▁번 호
▁졸 라
추천 좀
▁ y
고 기
돌 아
미 지
ᄏᄏᄏᄏᄏᄏᄏᄏ ᄏᄏᄏᄏᄏ
▁생각 하는
하는거 임?
거같 아
수있 는
▁옵 션
. 8
3 3
▁ 싼
버 리
생 활
스 포
어 는
찬 호
▁이 겼
▁아 주
▁스 팀
▁3 년
▁자 체
▁고 정
▁코 디
▁영 업
▁메 모
▁드 래
▁악 의
나 옴?
럼 ?
레 벨
미 는
숭 이
앰 들
어 울
▁아 재
▁어 떨
▁기 록
▁부 러
▁리 얼
▁동 희
▁필 독
▁목 록
▁나왔 으면
▁ 뷔
근 본
먹 었
모 르
애 가
좋 다
프 리
할 까?
▁많 음
▁ᄏᄏᄏᄏᄏᄏᄏᄏ ᄏᄏᄏᄏᄏᄏ
▁박 진
▁받 은
▁안되 냐
>> >>
. JPG
구 마
▁이 뻐
▁이 승
▁나 름
▁다 크
▁지 옥
▁유 로
▁무 과금
▁자 신
▁고 수
▁불 편
▁받 고
▁탈 출
▁골 라
▁쓸 만
▁개꿀 잼
▁o n
ᅳ 타
▁ 것도
피 아
해 준다
▁이 팀
▁안 경
▁진 화
새끼 는
▁3 명
▁모 니터
▁공 익
▁만 원
▁머 야
▁티 켓
▁취 소
▁샀 는데
▁유니 폼
가 도
갔 다
사 면
성 기
전 은
▁다 이어트
▁2 번
▁영 지
▁플 레
▁ 텔
속 도
▁오 지게
▁개 웃
▁대 박
▁받 는
▁알려 줘
▁13 5
C K
▁ 짓
동 네
로 드
새 낀
▁여 긴
▁마 그
▁피 해
▁살 까
▁플 옵
. 4
달 라
신 은
전 거
포 트
혁 준
▁오 빠
▁2 6
▁해 보
▁해 본
▁ᄉ ᄀ
▁V 4
이벤 트
댕 이
▁사 도
▁수 페코
▁고 추
▁전 장
▁주 는
▁거 품
▁머 냐
붕이 들아
▁브 금
▁달 려
▁새끼 들이
▁힘 든
▁휴 가
아아 아아
▁손흥 민
- 3
▁ 펜
레 드
버 거
보 임
▁사 건
▁지 능
▁영 입
▁할 때
▁니 가
▁바르 샤
9 9
l e
▁ Y
▁ u
▁ 란
노 트
동 산
둥 이
전 이
▁나 와서
▁스 케
▁여 론
▁[ 이
▁담 주
ᄋᄋ ᄋᄋ
▁젠 지
▁소환 사
시 까지
▁이 지
▁1 일
▁모 집
▁분 명
▁뒤 에
▁교 환
▁문제 가
▁흑 우
▁약독 대
▁ 된거
먹 으면
플 레이
확 률
▁어 깨
▁좋 겠음
▁수 상
▁구 글
▁로 그
▁본 상
▁포 수
▁직 접
▁귀여 워
ea l
▁ 랩
▁ 즈
가 는데
당 한
박 스
에 요
우 고
읍 니다
▁이 성
▁어 쩔
▁오 류
▁유 지
▁부 상
▁원 딜
▁게 시
▁배 터리
▁사람 들이
▁니 들은
▁언제 부터
▁끝 나
▁숙 제
되 고
라 우
민 철
연 이
인 생
▁뭐 야?
▁미 통당
▁문 자
▁피 시
▁가능 함?
▁다시 보기
▁목 표
▁올라 오
하지마 라
▁ 윙
▁ 핀
겠 긔
대 에
라 비
별 로
복 절
좋 네
코 스
파 티
▁뭐 고
▁마 갤
▁마 스터
▁주 공
▁누 적
▁국 룰
▁여러 분
나 왔
데 스
많 은
맞 추
예 정
임 ???
▁안 하는
▁시 원
▁왜 안
▁개 소리
▁뭐 지
▁카 던
▁돌 리
▁치 즈
▁누구 냐
▁아무 것도
▁함 께
▁넣 어
ᅡᅡ ᅡᅡ
얼 굴
에 에
▁어 지
▁2 9
▁전 쟁
▁공 유
▁만 갤
▁올 리는
▁6 성
갤러 들
5 9
▁ 르
니 ?
래 ?
올 려
워 즈
프 레스
▁1 군
▁스 토
▁비 밀
▁김 연
▁ᄌ ᄅ
▁포 인트
▁10 월
▁폭 원
▁한번 도
▁사 서
▁소 름
▁조 작
▁중 복
▁현 대
▁디 스
▁몇 년
▁두 번
▁싫어 하는
▁코스 피
▁ 휘
가 자
노 ᄏᄏ
디 션
요 청
▁어 찌
▁메 타
▁분 석
▁과 금
▁취 향
▁갤러 리는
▁틱 톡
▁ 랑
거 래
긴 해
릴 까
었 던
▁뭐 하는
▁3 번
▁좆 병신
▁잘 하네
▁영 혼
▁되 네
▁드 랍
▁계 획
▁빠 르
▁봐 야
▁팬 덤
▁각 인
▁번 트
▁멍 청
a t
균 열
다 면
때 문
영 화
제 발
지 지
▁이 럴
▁시 계
▁스 갤
▁3 5
▁파 워
▁라 핌
▁키 울
▁10 년
▁따 효니
▁뉴비 인데
ᅳᅳᅳᅳ ᅳᅳ
▁남자 가
입니다 .
▁뮤 비
- >
▁ 톤
나 도
니 저
도 는
뒤 에
만 이
위 키
▁이 정
▁스 테
▁맞 는데
▁먹 으면
▁디 렉터
▁10 분
▁음 악
▁ ^^
기 장
김 ?
바 지
펀 치
한 대
▁이 분
▁있 어야
▁한 테
▁대 놓고
▁정 가
▁남 캐
▁연 예인
▁피 곤
▁역 사
▁똥 꼬
▁복 각
▁온 라인
▁그런 거
▁궁금 한게
식 으로
안 타
정 신
주 냐
해 봐
▁나 락
▁나 스
▁사 르
▁사 전
▁여 행
▁기 간
▁미 션
▁모 아
▁주 면
▁생 존
▁세 팅
▁ᄋ ᄉ
▁크 로
해야 함
▁죽 어
▁간 만에
수있 음?
▁새로 운
▁ 껴
순 이
십 시오
오 리
줘 야
▁아니 야
▁전 체
▁동 생
▁어디 까지
사람 이
▁국 어
▁처 녀
▁태 어
▁친구 가
▁엠 카
▁가성 비
▁ 츄
간 거
만 들어
스 토
시 네
완 료
직 업
▁이 따
▁나 쁘
▁나 의
▁있 어서
▁한 글
▁수 저
▁매 칭
하냐 고
▁당 장
ᄃᄃᄃᄃ ᄃᄃᄃᄃ
▁알려 준다
▁꺼 져
▁괴 롭
▁지만 이형
N C
▁ ᅮ
건 창
수 정
쓰 레기
았 으면
장 비
지 는데
카 페
▁정 글
▁연 락
▁피 부
▁여자 는
아니 라
▁스타 일
▁카카 오
▁ 냐
감 이
그 냥
매 도
물 이
사 이
준 비
홍 구
▁보 추
▁정 공
▁마 일
▁갤 이
▁언 냐
▁ᄏᄏᄏᄏᄏᄏᄏᄏ ᄏᄏᄏᄏᄏᄏᄏ
▁뉴 스
▁크 게
▁끝 났
▁간 단
이유 가
▁저번 에
▁멸 망
▁ .jpg
느 라
대 기
대 호
시 기
원 은
▁1 인
▁왜 캐
▁없 애
▁3 성
▁전 문
▁많 은데
라이 즈
▁뭘 로
▁좌 파
▁억 울
▁멘 탈
▁ ᄍ
갔 네
단 계
되 서
박 이
버 지
석 이
▁한 녀
▁기 념
▁진짜 로
▁유 행
▁3 9
▁올 린
▁( 설
▁클 리어
▁출 신
▁팬 티
▁환 상
▁ᄒ ᄐᄎ
보이 는데
▁못생 긴
▁쉽 게
▁ᄑ ᄐᄎ
▁어떠 냐
▁겁 나
▁일부 러
가 락
리 냐?
보 여
어 떰
엘 롯
온 거
히 트
▁이 춘향
▁3 6
▁해 명
▁존나 웃
▁파 는
▁달 린다
▁걸 러
▁늦 게
5 5
▁ 팟
됨 ??
버 풀
알 바
조 선
지 노
지 로
▁이 적
▁가 만
▁한 판
▁주 고
▁김 봉준
▁돌 파
ᅲᅲ ᅲ
▁확 진
▁웃 김
지않 았
▁순 수
▁광 복절
▁채 널
▁왜이 러
▁안녕 하세요
▁당연 히
▁ 닌
가 고
같 긔
고 가
당 함
동 이
민 국
봤 자
섹 스
지 션
▁보 고싶
▁대 해
▁조 심
▁연 속
▁피 겨
▁장 애
▁나오 는거
▁병신 들아
- 0
재 미
▁정 규
▁저 장
▁좆 도
▁노 가다
▁장 원
▁계 약
▁티 셔츠
▁티 아고
▁승 격
▁ 며
▁ 몽
▁ 콤
만 든
민 호
주 지
팔 이
홍 보
▁없 고
▁갤 탭
▁4 5
▁메 시
▁10 만
▁몇 번
▁빨 간
나오 는
▁욕 먹
▁검 은
▁빡 세
▁< <
▁닉 네임
▁활 동
v p
겠 냐
마 디
메 카노
부 탁
자 꾸
▁이 틀
▁기 회
▁무 사
▁미 치
▁공 짜
▁4 00
▁실 망
▁브 앱
▁때 려
▁학 치
▁좆같 이
▁늘 어
:00 ]
U M
▁ 뱅
내 는
도 리
로 도
민 규
보 면서
상 황
알 려
일 때
할 사람
▁아 지
▁일 정
▁저 도
▁4 개
▁경 쟁
▁할 까
▁강 남
▁디 자인
▁몇 명
▁글 섭
▁페 그오
▁물 냐
이노 스
▁실화 냐?
날 두
니 티
대 가리
리 게
헤 어
▁이 시
▁1 20
▁정 식
▁일 섭
▁주 변
▁솔 플
▁병 원
▁계 산
▁후 반
▁반 대
▁꼴 림
▁집 에서
고있 는
▁딜 러
▁꾸 니
▁ #
▁ 떼
같 노
그 런
시 브
있 노
호 중
후 에
▁아 나
▁근 장
▁3 2
▁아이 피
▁ᄀ ᄂ
▁담 당
▁워 싱
▁기안 84
▁경험 치
고 수
방 축하
았 어
했 냐
▁가 라
▁유 출
▁자 지
▁버 티
▁되 는데
▁세 트
▁발 견
▁틀 퀴
▁케 이스
▁나왔 는데
▁먼 가
▁증 거
년 생
보 셈
제 가
키 우
할 꺼
호 기
▁좋 지
▁없 노
▁부 분
▁재 능
▁피 자
인가 요?
▁철 염
▁히 어로
▁음 원
▁찍 먹
▁디시 콘
▁초기 화
▁세라 핌
▁ ᅳ
네 ᄏᄏ
브 이
텔 라
퍼 즈
하 겠네
▁아 냐?
▁하 던
▁하 트
▁서 브
▁9 강
▁단 톡
▁안되 네
▁사실 상
▁인방 갤
기 들
드 리
리 사
승 리
재 밋
지 컬
▁오 는
▁3 3
▁구 단
사람 들
한다 는
???? ??
▁클 린
▁민 심
고있 는데
▁미친 놈
▁프레 임
1 .
e n
▁ 냥
▁ 츠
거 냐?
때 매
른 다
와 라
줄 사람
▁2 만
▁비 싼
▁부 동산
▁성 장
▁생각 함
▁입 고
하지 만
▁단 어
이다 .
▁창 녀
▁임 신
레이 크
▁한번 만
▁몰 라도
▁아는 사람
▁어때 ?
▁제주 도
▁ 램
▁ 춘
두 고
드 폰
상 태
없 냐?
카 펫
▁이 것도
▁아 바타
▁하 게
▁뭐 뭐
▁고 마
▁신 민
▁추 억
▁살 짝
▁메 리
▁포 켓몬
▁누구 임?
▁금 요일
▁새끼 가
▁편 집
▁지하 철
가 는거
년 에
등 급
리 웹
만 해도
바 크
보 소
시 녀
아 프
없 지
으 려고
이 니까
장 면
하 려
할 수
호 감
▁스 파
▁공 혁준
▁조 건
▁구 독
▁맞 아
▁글 삭
▁커 플
▁위 해
▁완 벽
▁학 원
▁산 다
▁투표 인증
▁멀 티
▁ 쩔
가 나
던 스
시 면
안 됨
점 은
▁1 티어
▁하 늘
▁하 위
▁여 동생
▁자 전거
▁저 기
▁못 받
▁도 란
▁트 리
▁맞 냐
▁연 봉
▁박 제
▁이번 엔
▁망 상
▁언제 쯤
▁은 하
▁작 은
▁떡 락
▁롤 드컵
▁흑 인
▁있음 ??
▁극 혐
▁옷 장
▁넥 슨
▁ 팅
가 요?
수 리
았 노
이 로
정 한
지 냐
▁안 된다
▁사 퍼
▁2 명
▁못 보
▁주 전
▁올 리면
▁도 착
▁레 알
▁선 착
▁데 이터
▁클 럽
▁빠 른
▁탈 모
새기 들
▁님 들아
▁챙 겨
ᄅ ᄅ
개 비
▁이 태
▁아 깝
▁대 사
▁자 유
▁모 습
▁생 기
▁도 안
니다 .
▁피 통
▁되 지
▁장 면
▁솔 까
▁현 질
▁캐 시
▁철 권
▁힘 들어
▁온 다
▁등 록
▁븝 퍼
▁이후 로
▁ 넌
금 지
봐 서
없 는거
었 노
오 르
조 합
지 나
타 가
형 이
▁2 .5
▁3 대
▁5 천
▁말 복
▁먹 은
▁실 물
▁같 네
▁씹 슴
▁브 리
▁관 계
▁평 소
▁이게 임
▁독 일
▁충 분
▁아닐 까
▁카운 터
관 리
구 함
내 가
년 들이
로 가
마 는
몽 어스
버 프
주 홍
학 생
▁1 개
▁하 지마
▁보 민이
▁지 나
▁개 미
▁자 연
▁소 방
▁우 주
▁ᄅᄋ ᄏᄏ
▁거 임?
▁지금 은
▁상 승
▁손 해
▁화 면
▁작 업
▁위 험
▁끝 내
▁속 도
▁올해 의
▁떳 다
▁[강 다니엘
. 9
k g
번 호
으 라고
이 크
자 랑
주 행
했 지
▁아 파트
▁오 재
▁그 랬
▁있 긴
▁기 상
▁서 양
▁생각 나네
▁매 력
이야 기
▁커 버
▁가능 한
▁금 민철
▁철구 가
▁높 은
▁밸 런스
▁악의 꽃
다 이노스
생 겼
싸 움
였 다
였 음?
정 보
치 는거
파 는
▁아 씨발
▁지 구
▁2 루
▁스 티
▁기 계
인데 ?
▁소 식
▁생각 하면
▁경 우
▁배 송
▁6 시
▁여기 가
▁들어 오
데 ?
드 백
발 표
자 로
중 이
▁아 냐
▁개 쩌
▁마 무리
▁모 모
▁야 동
이라 서
▁아이 디
▁8 8
▁때 문
▁재밌 게
▁착 한
▁린 지
▁웨 이브
2 4
▁ 킨
네 ?
중 인
▁좋 냐
▁무 적
▁자 짤
▁존나 게
▁소 속
▁라 디오
▁예 능
▁크 리스
하냐 ??
▁죽 여
▁백 수
▁겨 울
▁여고 생
r eal
▁ 으로
가 가
성 공
요 ??
쥬 얼
▁이 쯤
▁나 대
▁마 나
▁노 력
▁만 드는
▁언 더
한테 도
▁돈 이
▁금 수저
▁욕 하는
000 원
▁사이 퍼즈
▁엉 덩이
바 라
부 가
어 야지
운 게
크 리
▁이 긴
▁고 기
▁해 체
▁소 울
▁올 랐
▁5 만원
▁트 루
보다 는
▁초 딩
▁탈 리
▁컴 디
▁그런 가
▁최근 에
구역 ]
가 격
갤 주
계 약
관 계
다 시
려 라
바 꾸
쎄 리
중 임
컨 텐츠
▁나 서
▁1 분
▁안 함
▁가 을
▁대 표
▁마 리
▁야 한
▁상 남자
▁문 의
▁문 투
▁할 게
▁투 력
▁듣 고
가 슴
걸 이
능 력
라 나
예 약
일 은
있 지
정 환
진 각
▁1 도
▁안 해
▁가 치
▁개 잘
▁3 위
▁전 성기
▁공 포
▁파 트
▁맞 는거
▁7 시
▁우리 집
▁플 스
▁잠 수
▁변 경
▁낫 지
▁비슷 한
▁여고 딩
▁승격 을
▁ 깐
스 테
연 속
인 간
좋 음
하 지?
▁어 플
▁한 섭
▁기 능
▁정 냐
▁못 함
▁생각 나
▁에 이스
▁경 녀
▁같 긔
▁나오 냐
▁음 방
▁출 연
▁모르 겠음
▁임 대
▁답 답
▁ 펫
▁ 혁
년 대
상 은
시 장
키 는
▁아 싸
▁안 맞
▁가 지
▁대 전
▁자 기가
▁모 으
▁얘 는
▁완 성
▁참 고
ea t
▁족 구
3 5
ᅵ ᅵ
뜨 면
바 람
빨 리
사 건
저 스
튜 버
파 서
▁안 드
▁여 갤러
▁수 익
▁3 시간
▁리 버풀
▁파 이
▁원 본
▁ᄋ ᄃ
▁매 크로
▁결 제
▁호 구
▁승 부
▁써 도
▁러 시아
▁궁금 한거
▁빌 드
▁아침 에
▁넷 플
▁ 럽
려 야
만 봐도
신 분
찐 따
퀴 즈
팩 트
후 기
▁스 페
▁모 델
▁갤 플
▁공 감
▁조 아
▁4 번
▁버 닝
▁최 악
▁패 스
▁질문 점
▁등 판
▁작년 에
▁샤 워
▁캡 쳐
4 8
ᄀ ᄏ
네 ...
선 이
웠 는데
지 에
효 과
▁나 를
▁시 그
▁여 신
▁유 럽
▁거 리
▁요 청
▁많 냐
한거 임?
▁토 요일
▁평 타
거같 애
▁했 음
▁터 질
▁궁금 한
할거 면
▁정우 람
o p
▁ 널
▁ 에서
▁ 씀?
때 부터
말 이
벌 레
상 자
앗 는데
얼 마
타 고
▁이 걸로
▁내 야
▁바 꿀
▁많 아서
▁카 이
▁프 라
▁예 고
▁예 약
▁로 빈
▁타 )
▁받 으면
▁재밌 다
▁재밌 어
▁재밌 음
▁게임 이
아니 면
▁월 드
▁200 0
UM D
g a
리 스트
사 냥
와 이스
즈 갤]
했 냐?
▁이 홍구
▁오 타
▁하 다가
▁그 저
▁보 석
▁2 위
▁고 딩
▁현 금
▁네 네
▁테 러
▁나온 거
▁큰 일
줌마 들
▁비슈 바크
▁학치 커
9 0
: 1
▁ 뻔
다 음
반 떼
히 는
▁아 저씨
▁스 찌
▁고 구마
▁못 잡
▁라 이트
▁말 아
▁연 결
▁화 력
▁12 시
▁벌 레
▁합 성
▁둘 중
▁삐 앰
▁스트 레스
▁이쁘 다
▁희 재
▁생각해 보니까
▁옆 에
▁이재 명
▁부럽 다
것 같은데
기 를
사 도
연 갤
카 가
▁1 명
▁보 다가
▁좋 겠어
하는 애들
▁바 보
▁부 정
▁영 향
▁로 하
▁불 법
▁토 르
▁작 품
▁죽 이
▁극 장
▁이러 면
▁ 죠
▁ 향
김 치
너 스
선 생
아 리
왔 어
이 안
인 척
테 스트
해 짐
▁아 웃
▁다 녀
▁보 정
▁있 나?
▁한 마디
▁좆 두
▁신 발
▁5 년
▁재 앙
▁[ NC
▁구 경
▁차 이가
▁동 물
▁토 벌
▁끝 까지
▁민 트
▁갤주 님
▁꾸 준
▁띠 니
▁스위 치
z z
▁ 뿐
도 르
리 다
소 나
쓰 냐
준 일
찍 고
채 널
티 콘
페 토
▁여 초
▁유 독
▁주 술사
▁요 리
▁말 하는
▁실 제로
▁치 면
▁투 자
▁싸 이
▁뭘 까
이었 음
▁겨 우
▁자러 감
▁며 칠
f act
년 들은
사 라
점 검
▁오 나
▁대 결
▁무 엇
하는 법
▁인 천
▁야 이
▁에 반
▁박 지
▁이번 달
▁현 역
▁초 록
▁우리 팀
▁화 질
▁새끼 는
▁좆같 다
▁퇴 물
▁러 셀
▁벤 치
될 까
라 한
소 드
수 꾼
시 대
없 나
페 이
핑 크
해 준
▁시 세
▁가 짜
▁기 타
▁유 투
▁인 데
▁잘 자
▁모 험
▁같 음?
▁최 애
▁않 는
▁치 고
▁크 트
▁병신 같은
▁달 달
▁탈 주
▁참 여
▁독 서
▁센 세
라비 던스
▁ &
▁ 깝
무 라
버 렸
뽑 기
엄 마
없 찐
였 노
축 구
키 스
키 움
▁오 후
▁그 리스
▁사 는게
▁좋 냐?
▁3 천
▁조 각
▁조 정
▁재 넌
▁ᄉ ᄑ
▁따 먹
▁끝 나면
이지 만
▁11 0
▁속 성
▁밥 먹
▁센 터
▁몬 스터
▁칸 나
▁조언 좀
▁아티 스트
O P
거 라
견 들
기 원
듯 이
보 ]
사 이트
으 으
재 료
졌 어
칠 플
한 적
▁아 탈
▁1 던
▁보 이는
▁가 수
▁2 부
▁2 천
▁뭐 하냐
▁좆 이
▁주 제
▁공 트
▁부 반
▁상 점
▁문 파
▁원 정
▁원 피스
▁김 종
▁실 버
▁현 직
▁두 명
▁뒤 지
▁꾹 삐
▁혐 오
▁헬스 장
4 5
▁ 래
가 야
라 니
빈 데
슬 라
안 함
야 ??
었 냐
있 어?
▁안 전
▁안 해도
▁하 노
▁하 마
▁마 대
▁일 진
▁저 걸
▁알 림
▁5 개
까지 는
▁같 지
▁받 았
▁망 한
▁초 동
▁웃 겨
▁집 착
▁플 래
▁검 사
▁허 리
▁능 지
▁셀 카
▁마그 멜
▁[NC 다이노스
규 어
내 고
련 아
이 후
입 고
중 에서
▁나 머
▁어 릴때
▁그 때
▁그 새끼
▁가 스
▁2 11
▁기 적
00 원
▁주 는거
▁올 릴
▁조 이
▁성 우
▁실 적
▁매 출
▁안되 나
▁각 개
▁처음 으로
▁침 착
▁범 죄
▁핑 까
▁감사 합니다
▁사르 포
▁ 럭
▁ 왓
▁ 쩌
▁ 캬
것 같음
그 만
기 다
보 고싶다
아 재
이 잖아
장 애
차 단
하 잖아
▁어 따
▁근 육
▁마 감
▁잘 나
▁지금 도
▁서 건창
▁매 수
▁매 니저
▁우리 나라
▁복 커
▁내일 은
▁적 폐
지않 나
▁승 률
▁좋은 점
▁폴 라
▁느낌 이
▁잦 돌
▁뜬 금
▁적당 히
7 .
놈 들은
디 언
러 지
비 아
에 만
이 었네
잇 음
차 도
치 킨
탈 리
프 라
▁이 찬원
▁한 시간
▁정 보)
▁무 리
▁좆 슨
▁주 워
▁우 결
▁거 르고
▁구 속
▁위 치
▁설 치
▁써 야
▁ᄒ ᄋ
▁S 7
▁쇼 미
▁잼 민이
▁익스 프레스
▁통합 당
▁드래 곤
▁박진 영
▁ 엽
▁ 잉
▁ 텍
감 독
고 백
대 결
받 으면
티 켓
▁이 때
▁나 보다
▁1 .5
▁있 잖아
▁있 었네
▁기 부
▁마 레
▁아니 네
▁전 담
▁생각 이
▁같 냐
▁불 가능
▁느 바
▁잡 을
▁뽑 아야
▁섹 시
~~~~ ~~~~
▁갖 고
▁ᄎ ᄎ
1 위
a l
▁ 톡
겜 은
되 나
로 만
생 김
시 리즈
아 크
안 하고
였 지
오 프
올 스타
주 냐?
투 수
햇 다
▁어 몽어스
▁오 피셜
▁가 사
▁없 다고
▁해 줄
▁존나 웃기네
▁드 러
▁아이 템
▁점 프
▁그래 픽
▁의 심
▁얼마 정도
▁클 리
▁뽑 을
▁괜찮 은
▁나왔 네
▁ᅲᅲ ᅲ
▁황 금
▁취 급
▁뜨 면
▁아침 부터
▁무서 운
I A
▁ 니다
기 능
동 원
소 득
엔 딩
으 려면
지 를
▁나 아
▁나 은
▁오 리
▁오 우
▁다 고
▁보 러
▁시 나
▁있 노
▁무 페토
▁애 비
▁4 시간
▁많 은거
▁에 피
▁세 이
▁박 찬호
▁드 는
▁토 토
▁9 5
▁브 라
▁찍 덕
▁11 시
▁교 체
▁데려 오
▁겆 )
▁웃긴 게
▁장원 영
ᄐ ᄐ
▁ 척
▁ in
놈 은
란 다
마 냥
코 가
타 지
하 겠다
회 차
▁오 바
▁안 하면
▁사 나
▁좆 돌
▁주 술
▁생 김
▁레 전
▁구 분
▁경 상도
▁감 자
▁단 발
▁뽑 아
▁한국 인
▁s k
▁귀여 움
▁진심 으로
▁일어 나
주의 )
▁븝 딱
▁대깨 문
o m
교 육
냈 다
될 듯
럼 프
말 로
본 사람
스 텀
임 .
주 얼
▁하 고싶다
▁있 다고
▁대 문
하는 지
▁인 별
▁맞 네
▁사람 들은
▁쓰 는거
▁포 함
▁모르 겠다
▁남자 는
▁악 플
▁먼 데
▁듀 얼
▁혜 자
▁도와 줘
▁ᄀᄎ ?
▁남순 이
간 지
귀 여
귀 엽
기 간
동 의
목 록
시 로
월 드
준 수
▁안 잡
▁하 꼬
▁시 벌
▁개 조
▁없 는게
▁야 생
▁올 림
▁게 스트
▁타 고
▁크 리
▁크 보
▁히 나
▁떡 고
아니 고
▁순 서
▁접 )
▁워 녕
▁알려 줌
▁돌아 가
▁픽 뚫
▁갔 다
▁베르 너
▁ 엿
갈 까
결 과
글 에
물 고
박 고
블 리
사 서
사 위
선 택
식 은
케 이스
하 시
확 정
▁사 료
▁다 가
▁기 준이
▁대 형
▁모 의
▁나오 고
▁투 기장
▁초 딩때
!!!! !!
▁간 지
▁보고 가
;; ;;
▁터 졌
▁한번 에
▁좆같 음
▁퍼 섭
▁t s
▁가축 들
---- ----
▁싹 다
▁이정 후
▁ 곤
가 챠
계 의
끄 러
데 려
린 데
메 가
용 이
용 으로
자 의
자 체
정 지
제 이
줬 는데
타 령
하 루
할 만
▁어 우
▁지 들
▁기 존
▁해 주세요
▁못 해
▁도 망
▁방 학
▁코 어
▁원 하는
▁연 출
▁메 카
▁발 매
▁케 틀
해주 는
▁유일 한
▁신민 혁
▁침착 맨
같 아서
노 블
등 학교
럽 게
맞 음
맞 지?
문 투
버 림
인 치
적 화
할 수있
했 더니
형 님
▁보 구
▁마 우스
▁수 가
▁자 세
▁말 투
▁선 넘
▁먹 음
▁예 비
▁장 점
이라 는데
▁8 강
▁치 는
▁똥 찬
▁외 퀴
▁두 산
▁집 회
▁테 라
해주 면
▁똑 같은
▁스카 우
▁힘들 다
▁대한 민국
▁타이 밍
▁ >
▁ 째
근 혜
길 드
네 ..
는 디
단 기
망 겜
새 키
일 어
▁지 난
▁좆 소
▁문 과
▁먹 었는데
▁실 제
▁배 틀
▁몇 시
▁감 정
▁날 아
▁터 지
▁임 영웅
▁친구 들
▁기분 이
▁P C
▁듀 오
▁못생 겼
것 들
녀 가
대 신
던 게
리 치
보 가
아 트
연 승
옹 이
웨 이
이 아
채 원
포 엠
헨 델
▁1 루
▁1 시
▁안 남
▁시 대
▁시 너지
▁유 료
▁바 라
▁[ 0
▁[ 라비던스
▁문 코
▁쓰 는데
.... ...
▁몇 퍼
리는 건
▁염 색
해야 함?
▁히 트
▁설 레
▁빠 따
▁싸 게
▁안되 냐?
▁념글 에
이었 으면
!!!!!!!! !!!!!!!!
▁효 율
▁맥 주
▁비트 던
▁문재 앙
▁l ck
▁사르포 자
▁ j
▁ 읍
▁ 컵
것 만
나 무
바 로
받 는다
스 에
연 습
요 ..
클 럽
타 자
페 이지
히 어로
▁이 준
▁오 지
▁안 좋아
▁사 무
▁지 각
▁수 강
▁무 뽑
▁방 역
▁남 아
까지 만
▁카 스
▁프 메
▁예 구
▁박 주홍
▁단 독
한다 .
▁달 성
▁13 일
▁앚 퀴
야되 는데
▁스카 디
▁신인 상
▁블루 카펫
▁수사 렌
▁확진 자
드 랑이
등 이
마 라
소 설
열 어
온 냐
있 어서
탱 이
하 셈
한 사람
▁이 겨
▁안 정
▁사 경
▁인 벤
▁부 터
▁방 패
▁실 수
▁감 성
▁투 구
▁호 날두
▁귀 신
▁몰 라
▁봉 준이
▁왕 따
▁봊 돌
▁귀엽 다
▁랭 킹
t i
▁ 튜
기 어
당 하는
없 노
처 리
하 더니
했 었는데
▁어 류
▁보 는거
▁있 어도
▁유 플
라고 ?
▁되 나
▁로 헨델
▁나오 는데
하지 말
▁내일 부터
▁꼬 라지
▁운 전
▁잡 고
▁ 릭스
갤 럼
됐 는데
드 려
듬 ?
망 주
뭔 데
방 이
벅 지
요 한
으 론
쳐 도
친 다
코 어
▁이 랑
▁어 카
▁2 배
▁전 혀
▁공 명
▁리 뷰
보다 가
▁배 당
▁않 나
▁단 장
▁좋아 함
▁커 스텀
▁했 더니
▁형 님
▁교 육
▁봉 준
▁프리 뷰
▁있었 으면
▁핑 크
▁느낀 점
▁샌 박
기 전
부 는
제 ?
팀 이
하 이
▁보 소
▁지 현이
▁없 지?
▁없 어도
으로 도
▁저 건
▁신 섭
▁우 유
▁만 붕이
▁라 비
▁먹 었
▁의 대
▁열 등
▁응 디
▁청 소
▁답 변
▁믿 고
▁뛰 어
▁트레 저
▁언니 들
마이 걸
4 00
a y
궁 금
끼 고
놀 이
대 1
대 네
대 한
도 사
려 나?
로 워
바 리
부 기
우 리
우 우
있 나
작 가
크 스
판 이
하 누
▁아 키노
▁오 지네
▁하 지마라
▁미 쳐
▁잘 어울
▁노 예
▁올 시즌
▁부 랄
▁조 눈
▁[ 포
▁문 상
▁되 어
▁프 라이즈
▁장 발
▁이번 시즌
▁디 코
▁걸 린
▁꼬 추
▁교 보
▁괜찮 은데
▁이해 안
▁기사 사진
▁ᄏᄏᄏᄏᄏᄏᄏᄏᄏᄏᄏᄏᄏᄏᄏᄏ ᄏᄏᄏ
▁앰 창
▁스포 츠
▁부모 님
▁피시 방
! ?
R O
▁ ##
구 매
명 은
불 가
블 릿
선 권
카 는
테 일
할 지
희 롱
▁아 츠
▁아 케
▁안 먹
▁안 에
▁한 개
▁유 희
▁조 국
▁버 리고
▁강 원
▁본 다
▁10 개
▁동 남아
▁매 물
▁우리 도
▁가능 하냐?
▁이상 해
▁열 어
▁건 강
▁판 다
▁서울 대
▁생각해 보면
▁듀 라한
캐릭 터
▁칰 )
▁슴 고
▁화장 실
/ 4
▁ 밖
▁ 셔
가 냐
라 니까
모 음
버 려
봤 음
부 로
수 비
아 치
줄 게
▁아 반떼
는거 지?
▁기 관
▁대 화
▁정 의
▁수 험
▁유 키
▁고 쳐
▁전 력
▁공 방
▁바 나나
▁4 년
▁언 젠
▁리 메
▁먹 고싶다
▁세 금
▁강 다니엘
하는거 임
▁여자 들이
▁여자 친구
▁눈 이
▁악 마
▁담 원
▁일러 스트
ᅮᅮ ᅮᅮ
▁14 0
▁착 각
▁ᄏᄏᄏᄏᄏᄏᄏᄏᄏᄏᄏᄏᄏᄏᄏᄏ ᄏ
▁귀엽 네
I F
o ll
▁ 옹
▁ 덤디
겟 지
끝 나고
나 비
롱 빵
만 은
서 커
스 키
줘 도
출 신
특 징
▁진 자
▁여 전
▁신 한
▁알 아서
▁5 5
▁리 더
하는거 냐
▁외 야
▁커 미션
▁싶 음
▁필 기
▁분 량
▁특 이
▁걸 레
▁했 네
▁찍 은
▁탈 퇴
20 20
▁천 재
▁100 %
고있 네
,, ,,
▁< -
아이 돌
▁경원 반지
▁김연 아
l i
ᄌ ᄂ
▁ 쳤
급 으로
동 은
딱 이
리 자
받 을
배 수
사 항
속 보]
오 빠
이 구나
졌 으면
좋 겠다
좋 은데
피 가
▁그 건
▁사 쿠
▁보 네
▁있 으
▁한 다고
▁대 선
▁해 봤는데
▁못 쓰
▁제 니
▁파 란
▁7 월
▁매 도
▁데 스
▁20 19
▁친 추
▁봐 줘
▁아무 나
▁베 이
▁과 학
▁찾 았다
▁깨 달
▁찜 앰
▁쇼 룸
▁듣 는
▁게이 들아
▁괴 물
ᅲᅲᅲᅲ ᅲᅲᅲᅲ
▁선생 님
▁ 끔
돼 ?
릴 라
만 드
맞 고
모 스
서 울
야 됨?
었 지
였 냐
▁어 빌
▁그 랑
▁가 든
▁개 새끼
▁정 해
▁3 7
00 개
▁거 짓
▁상 담
▁구 롱빵
▁파 스타
▁피 지컬
▁세 리카
▁사람 ?
▁박 원
▁이유 .
▁불 타
▁차 기
▁매 미
▁분 노
▁루 리웹
▁볼 만
▁모르 겠는데
▁테 슬라
▁다른 거
▁0 8
▁콜 로
▁가슴 이
▁ 큼
강 화
니 폼
대 면
똥 찬
오 냐
피 는
▁이 대로
▁보 자
▁있 던데
▁못 먹
▁못 참
▁못 한
▁공 연
▁생각 했는데
▁버 전
▁몇 시간
▁패 드
▁패 배
▁받 음
▁치 명
▁토 마토
▁결 장
▁집 중
▁직 원
▁슬 프
▁행 사
▁나왔 다
▁22 3
메이 크
▁주말 에
남 은
살 까
시 스
었 나
와 중에
유 진
창 년
하 려는데
▁이 마
▁나 왓
▁나 타
▁왜 자꾸
▁내 꺼
▁조 닭
▁코 코
▁김 재
▁동 안
▁뉴 짤
▁좋아 요
▁팔 면
▁한국 에서
▁ᄂ ᄂ
▁몸 이
▁그만 해
▁맘 마
▁북 한
▁은근 히
▁아닐 까?
▁진화 석
▁영지 점
▁마일 리지
▁오나 홀
o s
t r
단 이
로 운
마 스터
발 언
센 터
스 틱
시 킨
영 탁
이 는거
잖 음
카 테
패 턴
패 키지
▁이 동
▁아 야
▁1 일차
▁안 들
▁안 사
▁하 긴
▁지 도
▁가 르
▁개 이
▁스 드
▁3 분
▁3 차
▁인 연
▁미 사
▁바 지
▁상 대로
▁4 9
▁[ 오
▁[ 속보]
▁ᄌ 같은
▁포 지션
▁동 수
▁손 가락
▁돈 벌
▁클 래
▁탈 락
▁새끼 들아
▁출 발
▁태 블릿
▁둘 중에
▁괜찮 아
▁종 목
▁필요 한
▁마음 에
▁힐 러
▁다니 는
▁O N
스러 운
▁ᄍ ᄍ
T X
게 이야
겟 노
달 아
루 루
민 주
부 르
성 우
오 는거
장 해
조 새
조 아
지 역
커 스
코 토
▁이 명
▁하 는건
▁뭐 로
▁기 가
▁제 외
▁제 이
▁비 하
▁부 자
▁4 8
▁[ 투표인증
▁선 동
▁메 좆
▁타 임
▁않 음
▁뉴 빈데
▁결 론
▁여자 랑
▁똥 퀴들
▁틀 와
▁눈 팅
▁음 해
▁이상 한거
▁노래 방
▁프로 필
▁19 )
레스 텔라
▁굴 비
▁일반 인
▁어려 운
▁유일 하게
▁한동 희
/ 5
l c
갤 로
까 는
려 니
마 려
보 이네
스 카
써 도
어 렵
재 앙
정 은
질 이
카 나
했 긔
희 찬
▁나 음
▁어 ?
▁지 니
▁있 는게
▁마 르
▁마 크
▁유 사
▁고 장
▁못 하네
▁우 리는
▁조 센
▁지금 부터
▁라 오
▁피 규어
▁10 만원
▁글 이
▁데 이트
▁하나 는
하지 말고
▁페 코
▁과 연
이라고 ?
▁14 일
▁T OP
▁a i
아닌 데
B T
S D
o t
▁ 긔
▁ 앨
내 역
라 는게
마 켓
물 은
버 리고
상 담
신 기
영 전
학 원
형 은
▁아 서
ᄏᄏᄏᄏᄏᄏᄏᄏ ᄏᄏᄏᄏᄏᄏ
▁가 고
▁정 수
▁정 주행
▁좋 다고
▁수 고
▁조 만
▁5 9
▁파 판
▁연 구
▁피 싸개
▁장 기
▁박 아
▁강 의
인가 요
▁걸 어
▁넘 게
▁별 명
▁안되 는데
▁뒤 질
▁일본 에서
▁참 치
▁종 결
▁놈 들은
▁짱 개
▁아님 ??
▁만약 에
▁S7 k
▁[포 레스텔라
2 7
▁ ^
그 리
나 는데
란 타
루 는
멤 버
무 서
무 현
북 이
심 한
여 행
자 도
회 로
▁1 만
▁1 .2
▁안 올
▁보 수
▁정 부
▁수 급
으로 는
▁3 만
▁좆 나
▁신 정환
▁못 하고
▁주 소
▁더 쿠
▁와 우
▁생각 남
▁연 재
▁할 배
▁최 초
▁본 캐
▁어디 로
▁데 리고
▁9 시
▁반 박
▁페 스
▁처 럼
거같 냐
거같 음?
▁잠 시
수있 냐?
▁충 전
을거 같은데
▁갔 는데
이였 는데
▁ᄋᄉ ᄋ
▁가만 히
UMD i
ga in
같 냐
구 로
노 스
랬 는데
말 까
뭐 임?
순 간
시 스템
와 도
장 도
제 는
죽 어
즈 아
지 방
차 는
하 니깐
할 것
했 나
▁이 사
▁아 리아
▁아 시아
▁나 코
▁사 콜
▁지 켜
▁근 개비
▁스 프
▁내 놔
▁해 볼
▁제 한
▁도 네
▁[ 정
▁강 한
▁아이 들
▁10 억
▁심 바
▁싸 인
▁백 업
▁뒤 져
▁뒤 진
▁허 수
▁17 0
▁쥬 얼
▁능 국
▁북 커버
▁에어 팟
▁k t
보은 왔어요
▁스피 릿
▁이어 폰
▁ᄀᄂ ?
▁로빈 치
▁독서 실
▁수강 신청
p s
ᄌ ᄃ
▁ 겹
갤 )
건 지
네 ᄏᄏᄏ
련 들
련 들아
많 아
비 트
상 관
어 리
엇 다
전 쟁
졌 노
한 텐
▁나 갈
▁1 번
▁하 고싶
▁사 가
▁가 게
▁뭐 부터
▁기 출
▁정 체
▁수 면
▁애 정
▁너 구리
▁우 르
▁조 계
▁알 았다
▁리 제로
▁구 리
▁영 탁
▁김 성
▁김 진
▁예 언
하네 요
▁강 제
▁패 러
▁크 림
▁히 토미
▁속 보
▁일본 어
▁아닌 거
▁밀 리
나요 ??
▁육 성
▁깔 끔
▁선택 권
▁핫 산
▁안좋 은
신곡 홍보
▁우파 메카노
~ 3
▁ 랄
▁ 찰
▁ 균열
거 다
국 방
다 는거
되 노
리 버
리 젠
매 매
문 자
미 스
보 성
양 준일
이 던데
잘 못
주 자
첫 )
첫 방축하
하 실분
해 놓고
▁이 년
▁나 나
▁보 조
▁보 이스
▁지 우
▁있 던
▁정 민규
▁무 난
▁3 000
▁미 나
▁신 영
▁주 간
▁많 음?
▁성 인
▁버 거
▁예 리
▁솔 랭
이라 니
이라 면
▁10 시
▁패 션
▁어디 에
▁캐 리
▁캐 스터
▁글 로
▁20 분
ᄉᄉ ᄉ
▁베 스트
▁30 대
(설 첫)
▁본인 이
▁엔 )
▁얼굴 이
▁놀 러
▁s s
▁만들 면
▁D 59
있음 ??
▁ᄑ ᄑ
▁커여 운
▁8/ 13
연합 ]
▁조만 간
갤 도
국 수
대 ?
대 사
로 건
미 친
워 치
일 까?
줘 서
컨 셉
트 넘
해 봤는데
▁나 봉
▁나 음?
▁자 사
▁아니 시발
▁신 비
▁바 퀴
▁우 린
▁[ 키움
▁머 꼴
▁코 미
▁연 합
▁경 제
▁살 기
▁로 스트
▁추천 점
▁했 던
하나 ?
▁업 적
▁왜이 래
▁정상 임?
30 k
▁밤 에
▁엄마 가
▁스밍 인증
▁대기 업
갤러리 ]
▁사전 예약
/ 3
2 개
▁ 념
▁ 삭
▁ 00
글 이
레 전드
르 기
문 학
본 적
생 일
세 팅
아 이들
앗 다
었 냐?
인 원
전 자
주 기
주 인
킹 롤
타 이
▁아 들
▁아 픈
▁1 페
▁시 즈
▁근 대
▁스 샷
▁좋 긔
▁없 을
▁자 대
▁야 간
▁만 렙
▁먹 방
▁피 스
▁않 은
▁꼴 리
▁처 리
▁완 결
▁노래 는
▁접 대
▁폭 쥐
▁잠 이
▁월 요일
▁싫 다
▁함 성
▁절 반
▁낫 다
▁쉬 운
▁L 30k
▁죄 악
▁똑 똑
▁닮 은
▁룰 러
▁살인 마
라우 드
가 기
구 도
내 용
만 하면
미 나
습 니까?
실 패
십 쇼
웠 다
은 ?
이 냐??
제 일
준 열
트 롤
퍼 는
회 사
▁안 된
▁하 라고
▁그 동안
▁개 봉
▁스 윙
▁스 작
▁수 속
▁수 치
▁전 용
▁공 통
▁올 렸
▁재 수
▁재 평가
▁파 수꾼
▁카 트
▁느 꿈
▁나오 냐?
▁초 보
▁어케 함?
▁교 복
▁염보 성이
▁악 질
▁행 정
▁회 복
▁낫 냐
▁이쁘 네
▁움 직
▁읽 어
▁24 시간
▁ᄃᄃᄃᄃ ᄃ
▁모자 키
▁비비 큐
▁역겨 운
▁훈련 소
▁스마 트
RO CK
▁[투표인증 ][
) 설
R oll
개 가
공 이
달 러
란 이
른 거
리 안
맞 음?
모 델
반 기
소 환
숙 이
시 원
전 사
차 트
할 수록
해 제
▁아 ᄏᄏ
▁어 딜
▁어 워즈
▁하 아
▁가 온
▁있 냐??
▁마 마
▁3 루
▁아니 지?
▁고 생
▁지금 이
▁방 구
▁리 스트
▁영 원
▁김 우석
▁에 디
▁박 근혜
▁돌 릴
▁타 자
▁포 도
▁동 시에
▁8 00
▁발 로
▁싶 으면
▁뉴비 들
갤] ROCK
▁딱 히
▁학 생
▁올해 는
▁나와 도
▁랭 크
ing Roll
엘롯 연합]
▁장애 인
eat .
양준일 갤]ROCK
양준일갤]ROCK ingRoll
d f
u n
누 가
도 우
듣 고
디 디
못 함
바 에
스 펙
써 서
유 리
좀 요
주 환
탄 절
페 미
▁지 속
▁있 을까?
▁개 편
▁대 만
▁대 타
▁수 호
▁인 강
▁고 평가
▁머 뷔
▁구 린
▁트 럼프
▁게 이야
▁피 드백
▁살 면서
이라 는게
▁패 널
▁패 드립
▁질 러
▁네 임
▁여기 는
해야 겠다
정도 로
▁넘 어가
나오 냐
▁게임 은
▁클 릭
▁0 6
▁황 희찬
▁유진 이
▁졸 커
▁취 업
▁기대 된다
▁마지막 에
▁류 준열
▁대단 하다
▁밸 패
▁초반 에
G IF
검 사
글 은
기 분
딸 이
로 이드
모 리즈
바 데
보 는거
빈 이
수 밖에
초 월
판 에
호 는
화 는
▁이 노
▁오 전
▁하 ..
▁그 오
▁지 들이
▁중 독
▁남 았다
▁버 서커
▁살 만
▁포 스터
해야 됨?
▁물 건
▁틀 퀴들
▁두 번째
▁엘 사
▁음 료
▁금 방
▁이상 하게
▁직 장
▁헤 카테
▁쓸 데
@@ @
▁레전드 네
▁앞 에서
다니 는
▁스트 레
▁이겜 은
라라 라라
▁정치 질
▁베르 드
▁ 탕
갤 을
겟 음
구 요
맞 는
부 대
았 던
였 나
영 삼
와 이
위 가
이 게
이 팅
직 캠
찬 또
▁지 워
▁지 효
▁진 정한
▁뭐 임??
▁기 자
▁마 려
▁좋 더라
▁자 존
▁애 가
▁만 루
▁중 간
▁중 인데
▁머 리가
▁좀 만
▁리 메이크
▁구 다
▁영 국
▁할 카스
▁6 5
▁포 스트
한거 냐
▁호 불
▁화 가
▁두 고
▁평 범
▁별 거
▁꼬 라
▁천 사
▁뜨 는
▁사이 버
▁샀 다
▁룩 삼
▁햄 버거
▁유격 수
▁커뮤 니티
▁ 컬
▁ 들은
▁ 춘향
걸 림
경 이
기 노
났 노
레 인
먹 기
무 새
서 관
시 도
실 력
잇 냐
좋 음?
주 는데
차 로
트 에
피 언
해 진
▁가 까
▁진 입
▁있 고
▁있 나요?
▁수 련
▁자 격
▁신 레이드
▁이거 지
▁모 닝
▁공 매도
▁중 섭
▁4 시
▁말 을
▁씨발 년
▁피 갤
▁예 뻐
▁크 린이
???? ???
▁복 지
▁적 으로
ᄏᄏᄏᄏᄏᄏᄏᄏᄏᄏᄏᄏᄏᄏᄏᄏ ᄏᄏᄏᄏᄏᄏᄏ
▁팔 고
▁약 속
▁터 진
▁떨어 지
▁미쳤 다
▁이기 면
▁낙 서
▁박정 수
▁든 든
▁이래 서
▁나무 위키
▁정확 히
s a
▁ 려
도 영
되 지
많 음
바 페
베 이
생 축
씨 야
안 해
용 환
즈 는
했 을때
훈 이
▁아 시는분
▁나 혼
▁안 함?
ᄏᄏᄏᄏᄏᄏᄏᄏ ᄏᄏᄏᄏᄏᄏᄏ
▁가 디언
▁2 만원
▁여 중
▁3 4
▁자 해
▁아니 씨발
▁전 역
▁전 자
▁중 망호
▁4 7
▁프 랑
▁최 용
▁어디 감
▁똥 냐
▁화 속
▁싶 네
▁필 터
▁블 본
▁끝 난
▁적 응
▁골 반
▁베 이스
▁테 일
▁왔 어요
▁월 광
▁울 트라
▁환 급
▁레전드 .jpg
▁퇴 구
▁변 신
▁중요 한
▁자주 국방
▁씨발련 들아
▁ 덩
▁ 람
꺼 면
나 잇
마 스
먹 은거
박 아
아 나
점 수
주 노
히 면
힘 들
▁아 크
▁아 는데
▁사 는거
▁지 무
▁근 무
▁스 벅
▁고 3
▁제 시
▁주 세요
▁공 앱
▁야 발
▁야 식
▁거 울
▁중 에서
▁라 미
▁원 더
▁에 휴
▁돌 리는
▁현 장
▁병 살
▁10 퍼
▁데 미지
▁여자 들은
▁작 전
▁죽 을
▁홍 이
▁힘 드
▁앞 에
▁꿀 벌
▁떴 는데
▁16 0
▁죄 송
▁잔 다
▁색 욕
▁기다 려
▁덕 질
이에 요
▁외국 인
▁나스 닥
▁스카우 터
▁박원 순
▁ 는거
것 같다
겹 살
놈 들이
다 녀
모 닝
버 리네
보 냐
스 턴
아 냐?
에 요?
정 호
즈 나
코 는
패 는
▁이 중
▁안 퀴
▁여 장
▁여 태
▁내 전
▁마 영전
▁유 망주
▁존나 잘
▁씨 벌
▁머 지
▁남 았
▁리 셋
▁말 도
한테 는
▁먹 었다
▁프 렌
▁이제 는
▁드 레이크
▁이유 .jpg
▁않 을까
▁데 브
▁데 이
▁의 자
▁은 카
▁크 기
▁여기 에
정도 는
▁찍 고
▁ᄀ ᄀᄀ
▁겜 이
▁업 글
▁애미 뒤
▁팀 이
▁p vp
▁떴 냐?
▁만들 고
▁선수 들
▁오랜 만
▁법 사
▁알아 보자
▁어쩌 고
▁와이 번
라운 드
p l
▁ 놔
▁ 펀
게 요
경 민
과 목
기 술
까 고
놈 들아
니 스
도 시
드 랑
렉 스
머 임
메 타
모 가
민 우
방 은
쓰 기
옵 션
운 드
월 량
잇 음?
작 은
▁이 세계
▁1 ,
▁그 분
▁보 고싶어
▁가 도
▁3 시
▁고 급
▁저 랑
▁신 지
▁바 닥
▁부 천
▁5 8
▁중 갤
▁더 워
▁서 열
▁세 탁
▁로 리
▁니 미
▁감 동
▁발 전
▁국 장
▁당 신
▁끝 날
▁웃 겼
▁건 담
▁들 으면
▁모르 고
▁컴 갤
▁친구 랑
하노 ?
▁시간 이
▁취 미
하자 마자
▁한남 들
▁K -
▁봄 ?
▁정신병 자
▁선생 님들
▁나머 지
- 4
ᄂ ᄂ
강 간
구 간
기 념
데 미
도 록
로 로
리 블
만 나
먹 는거
뭐 임
알 아
었 다고
오 버
있 고
주 로
크 는
화 질
▁하 락
▁하 더라
▁그 라
▁사 장
▁보 임
▁가 는게
▁2 50
▁한 식
▁여 니
▁3 연
▁인 프
▁일 상
▁좆 본
▁갤 은
▁공 시
▁도 박
▁4 2
▁먹 어야
▁버 블
▁키 가
▁포 텐
▁후 보
▁단 디
▁얘 가
▁재밌 음?
▁올라 온
▁넣 으면
▁나올 때
▁풍 월량
▁꾸 라
▁어려 움
▁댕 댕이
▁그렇 고
▁렙 업
▁방어 구
▁마렵 다
▁모르겠 고
▁클로 저
▁로그 인
▁동수 칸
▁ 욱
▁ 졌
▁ 줬
▁ gif
▁ 붕이들
갈 때
겟 지?
공 격
님 은
달 고
뜸 ?
먹 고싶다
모 습
사 실
스 틴
악 질
없 지?
엇 네
여 신
왔 쎄리
의 미
홈 런
▁보 니깐
▁보 인다
▁시 골
▁한 가
▁인 도
▁아니 근데
▁신 나
▁올 리고
▁알 리
▁더 러
▁피 방
▁장 마
▁6 6
▁느 김치
▁동 양
▁망 갤
▁망 한거
▁하나 씩
▁단 순
▁커 마
▁가능 하냐
▁당 근
▁재밌 는데
▁특 별
▁특 성
▁어케 됨?
▁목 요일
▁몰 래
▁- >
▁퇴 갤
▁정신 나갈
▁그러 면
ᄉᄉᄉᄉ ᄉᄉᄉᄉ
스크 림
▁마음 이
▁f a
▁누군 지
▁짜증 나
== ==
▁롱 빵
▁(설 쉬)
▁고마 워
라라라라 라
ᄆ ᄋᄌ
▁ 덤
▁ 쁘
갔 다가
거 리는
겠 다고
구 려
기 대
내 려
듣 노
딩 이
방 패
블 랙
스 피
없 다고
왔 음
음 식
주 차
즈 가
총 공
파 밍
포 터
학 과
▁이 글
▁이 전
▁아 아
▁오 닉스
▁하 던데
▁그 니까
▁시 장
▁가 진
▁유 나
하는 중
하는 사람
▁미 노
▁좆 노잼
▁좆 됐다
▁비 동의
▁만 난
▁언 플
▁트 레이
▁선 언
▁추 방
▁버 튼
▁같 아서
▁ᄋ ᄀ
▁현 황
▁글 고
▁좋아 서
▁들어 가면
▁심 장
▁삼 진
스타 일
거같 긔
▁날 이
▁막 상
▁판 단
▁준 다
▁혼 란
▁마지막 으로
▁ᄏᄏᄏᄏᄏᄏᄏᄏᄏᄏᄏᄏᄏᄏᄏᄏ ᄏᄏ
▁키우 는
▁섭 종
▁오프 닝
▁긴 급
▁썩 어
▁아마 존
▁다행 이다
▁보은 왔어요
▁핸 드폰
스토 어
▁워싱 턴
gain 신곡홍보
O N
s e
▁ 녀
▁ 년들
▁ ᅳᅳᅳᅳᅳᅳᅳᅳ
개 로
급 은
나 와서
돼 서
떡 상
떴 다
리 로
바 닥
버 튼
변 경
세 이
센 트
스 톤
아 노
야 하는데
였 어
오 고
위 로
위 에
전 무
정 상
찌 개
타 로
터 진
판 매
판 은
펙 트
▁안 무
▁보 물
▁보 컬
▁시 점
▁가 는데
▁고 양
▁일 퀘
▁신 수
▁해 주라
▁공 공
▁비 호감
같은 건
▁만 나면
▁조 사
▁상 식
▁구 멍
▁말 하는거
▁김 지
▁타 령
▁몇 살
▁토 론
▁때 마다
▁루 피
▁시작 한
▁과 자
▁100 만
▁싫 은
▁15 일
▁준 지
▁' 그
▁암 굴
▁ᄒ ᄒᄒ
▁프로 그램
▁T S
▁똑 같
마갤] 라라라라라
▁녹 두
▁대단 한
▁어려 워
▁님 덜
▁오프 라인
▁찌 찌
▁무서 워
▁조선 족
▁2020 년
▁렌 탈
▁마렵 네
▁빠르 게
▁단디 왔쎄리
2 6
▁ 낸
날 이
남 이
디 는
라 에
라 이트
럽 네
리 니까
베 르
스 도
왤 케
일 시
주 세
주 에
쯤 에
취 급
포 스
▁이 나
▁안 팔
▁개 선
▁한 계
▁정 액
▁없 으니까
▁수 갤
▁인 원
▁아니 라고
▁모 션
▁소 전
▁노 말
▁알 람
▁알 고있
▁상 렬
▁[ 영탁
▁선 배
▁씨발 년아
▁같 냐?
▁쓰 리
▁ᄌ ᄀ
▁드 림
▁디 지
▁뭔 일
▁계 란
▁7 00
▁초 코
▁분 들
▁봐 야지
▁루 트
▁약 국
▁좋은 듯
▁겨 드랑이
▁2008 12
▁조용 히
▁누군 데
▁시나 리오
▁호불 호
o d
▁ @
공 부
관 왕
국 지
대 서
번 트
베 리
생 긴
승 우
싫 다
쓰 는데
아 직
어 려
을 땐
캐 는
크 림
퇴 근
픽 업
햇 네
했 잖아
히 네
▁아 틀
▁아 가리
▁어 휴
▁오 브
▁하 체
▁가 기
▁한 강
▁수 인
▁3 8
▁자 위
▁아니 노
▁고 아
▁신 의
▁생 리
▁소 감
▁소 니
▁5 명
▁5 천원
▁많 냐?
▁리 액
▁코 구
▁에 러
▁먹 어도
▁피 셜
▁아이 스크림
▁7 5
▁글 리젠
▁데 드
▁틀 어
▁심 리
▁필 합
▁죽 은
▁안되 는거
▁염보 가
▁컴 터
▁L I
▁빼 면
▁인기 상
▁근황 .jpg
▁될 까
▁괴 수
▁섭 외
▁보스 턴
▁채팅 창
찬원 마갤]
▁[강다니엘 갤]
▁유희 왕
▁조계 현
+ 1
/ 16
2 8
ᄇ ᄅ
▁ z
▁ 율
▁ 퀴
게 퍼
능 아
못 해
뭐 야
비 싸
삼 성
애 비
오 나
오 브
위 치
일 기
잇 는
주 실
짤 드컵
클 리
플 레
▁아 름
▁나 이트
▁오 줌
▁보 드
▁지 수
▁시 팔
▁한 자
▁스 키
▁스 시녀
▁고 스트
▁만 두
▁방 향
▁레 어
▁레 인
▁시발 아
▁서 포트
▁사람 을
▁메 가
▁토 트넘
▁단 점
▁페 이트
해야 됨
▁얼마 에
▁까 질
▁백 퍼
▁태 그
▁왔 찬또
▁승 급
어야 함
▁별로 임?
▁올려 줘
▁ᄏᄏᄏᄏᄏᄏᄏᄏᄏᄏᄏᄏᄏᄏᄏᄏ ᄏᄏᄏᄏᄏᄏ
▁택배 없는
▁생겼 네
▁그렇 지
▁양심 고백
▁갱 신
▁[키움 히어로
M E
k e
o w
건 가?
겠 지만
돌 려
련 이
리 면서
바 르
사 지
선 물
시 험
조 각
지 기
키 워
티 비
할 건데
합 격
▁안 될
▁하 향
▁한 대
▁여 돌
▁여 사
▁기 업
▁무 관
▁자 료
▁미 우
▁전 북
▁만 날
▁요 번
▁누 굴
▁남 녀
▁라 고
▁서 약
▁성 욕
▁성 희롱
▁세 일
▁장 식
▁박 살
▁로 쏘
▁로 켓
붕이 들은
▁불 만
▁6 00
▁6 개월
▁매 번
▁의 견
▁심 해
▁갈 라
▁날 개
▁날 라
▁백 신
▁용 선권
▁몰 려
▁환 영
▁왜이 럼
▁시즌 1
▁투표 인증왔
▁궁금 해서
▁푸 보
▁콜 라
▁마이 크
▁아무리 봐도
▁성공 한
▁책 임
▁맞는 듯
▁라스 칼
▁문코 리타
5 성
a m
ᄌ ᄋ
▁ 록
나 노
내 면
넘 게
도 배
동 호
물 어
쓰 는거
야 한다
유 입
을 걸
있 었는데
투 스
파 리
현 준
▁이 기는
▁아 칼
▁나 가면
▁하 려고
▁보 낸
▁지 갑
▁시 도
▁대 답
▁대 장
▁정 은
▁없 었
▁고 다
▁일 이
▁좆 쥐
▁해 피
▁못 가
▁주 지
▁거 르
▁거 임
▁상 품
▁김 혜
▁에 밀
▁피 파
▁살 구
▁쓰 냐?
▁쓰 는게
▁로 갓
▁아이 콘
▁받 았는데
▁초 대
▁염 퀴들
▁커 리어
▁누구 랑
▁누구 누구
▁욕 심
▁괜찮 은거
▁윤 도영
▁맨 시티
▁찜 이
▁폰 으로
▁스타 트
하고싶 은데
▁살아 남
▁코스 프레
▁틀딱 들
.0 8
▁아마 기
@@@@ @@@@
▁[김 호중
▁스피 커
▁유명 한
▁혈귀 혼
▁거기 서
▁예비 군
N O
거 는
구 단
놓 은
러 블
살 기
아 파
안 됨?
았 다고
언 급
의 사
이 런
인 이유
있 게
장 으로
통 이
할 인
▁오 네
▁다 름
▁시 비
▁진 궁
▁2 각
▁기 인
▁미 모
▁고 졸
▁잘 해
▁잘 한다
▁우 선
▁우 흥
▁더 워서
▁말 까
▁돌 고
▁ᄌ 같네
▁치 이
▁은 비
▁똥 칰
▁꼴 리면
▁블 레이드
▁허 벌
▁학 창
▁한번 씩
▁명 예
▁p ve
▁a t
▁랜 선
.3 6
____ ____
▁공짜 로
▁선착 순
2 는
3 개
: 0
p c
라 는거
력 은
로 마
루 가
명 의
밴 드
부 부
불 러
브 라
사 제
새 봄
색 이
소 서
수 광
시 드
어 떻
없 는게
오 후
이 요
잇 는데
충 인데
틀 딱
프 가
했 음?
호 환
▁어 째
▁오 피
▁진 실
▁2 분
▁수 록
▁수 리
▁존 예
▁도 현
▁4 대
▁성 배
▁생각 함?
▁되 지?
▁메 일
▁동 일
▁페 북
▁새 우
▁눈 에
▁천 천
▁뒤 집
▁교 통
▁엔 터
▁쿠 키
▁그러 니까
▁쉬 는
▁표 절
하고싶 어
▁옵 치
▁됐 는데
▁김태 균
인줄 알
▁2008 0
▁견 적
아닌 가
▁미안 해
▁타이 틀
▁씨발련 아
▁맞추 기
▁소개 팅
▁게시 판
▁수험 생
t s
▁ ....
▁ ;;
겠 냐?
고 민
라 타
먹 었는데
메 뉴
무 대
받 아서
보 러
사 에
성 을
신 고
아 냐
열 이
이 동
인 사
자 수
주 는게
진 않
체 결
카 이
태 그
티 가
호 사
▁이 면
▁안 대
▁그 럴
▁사 요
▁시 후
▁가 는거
▁마 인드
▁자 야지
▁일 요일
▁전 국
▁잘 하면
▁주 의
▁비 해
▁요 구
▁파 괴
▁트 라이
▁서 머
▁버 려
▁박 스
▁로 또
▁드 라
▁니 지
▁포 토
▁8 시
사람 은
▁글 을
▁작 작
▁히 오스
▁클 라
▁열 폭
▁건 물
▁건 보
▁백 용환
▁아무 거나
▁통 일
▁접 씨
▁폭 발
▁왔 습니다
▁슬 로건
▁용 서
▁올라 왔
▁판 타지
▁줄 어
▁시간 에
▁변 기
▁m m
▁쥐 )
▁3개 월
▁미안 한데
▁싸이 코
▁거짓 말
▁최용 제
- 5
노 가
니 어
단 어
도 전
듯 ?
무 슨
세 스
연 애
은 품
있 었
전 에서
클 라
필 독
▁이 누
▁아 키
▁안 걸
▁안 고
▁지 현
▁가 즈아
▁2 억
▁개 오
▁여 왕
▁대 세
▁고 통
▁고 딩때
▁저 딴
▁모 기
▁공 중
▁생 방
▁바 꾼
▁바 이스
▁부 부
▁4 일
▁파 렉
▁문 학
이네 요
▁타 팀
▁몇 일
▁몇 시에
▁후 장
▁페 르
▁얼마 임?
▁돈 을
▁블 매
▁엘 지
▁잠 실
▁아닌 지
▁놈 들이
▁윤 석
▁변 화
▁S K
▁꺼 지
▁낮 은
▁하지 말
▁육 군
▁셀 롯
▁칩 )
▁아쉽 네
▁배경 화면
▁[이 찬원마갤]
어떰 ?
▁오타 쿠
. 13
ᄒ ᄐᄎ
▁ 둥
▁ 땐
▁ 립
거 야?
것 같아
국 밥
디 가
라 드
라 며
만 루
먹 지
무 게
무 사
불 쌍
소 가
습 니까
엇 음
오 라
운 지
이 .
조 작
징 어
차 가
치 는데
함 ???
혁 이
▁오 승
▁사 업
▁시 급
▁있 더라
▁여 혐
▁정 답
▁미 나미
▁해 석
▁못 하면
▁더 이상
▁구 제
▁씨발 년들아
▁되 고
▁프 듀
▁살 빼
▁최 후
▁로 우
▁계 좌
한거 지
▁데 바데
▁점 령
▁9 8
▁달 고
▁국 힙
▁적 어
▁히 히
▁찍 었다
▁건 드
▁광 대
▁벌 어
▁힘 드네
▁뿡 모리즈
보니 깐
▁체 험
▁헤 드
▁윤 영삼
리스 만
▁그런 지
▁그림 체
▁똑 같이
▁잼 민
▁부탁 드립니다
▁세상 에
▁메갈 핌
마렵 네
/ 8
7 00
▁ 림
김 에
디 스
란 트
래 도
리 랑
무 시
분 간
뷰 지
야 ...
에 다
웹 툰
저 히
전 까지
지 냐?
해 볼
.. ...jpg
▁1 점
▁하 랜
▁하 러
▁지 배
▁시 위
▁시 조새
▁개 노잼
▁좋 겠네
▁유 카
▁인 구
▁고 대
▁도 서관
▁중 간에
▁씨 바
▁4 만
▁많 다
▁남 성
▁리 모
▁구 조
▁서 밋
▁얼 음
▁세 대
▁본 적
▁발 언
▁화 이트
인가 봐
▁갈 수록
▁백 호
▁모르 겠네
▁광 주
▁100 만원
▁워 이
▁놀 랍
▁경기 도
▁독 립
▁17 5
▁T V
▁L G
▁빅 히트
▁덕 분에
하지않 냐
▁어쩔 수
요청 )
▁크로 아
▁열등 감
▁덤디 덤디
2 9
ᅳ 발
근 황
긴 하다
나 는거
는 다고
렙 인데
려 금
리 도
먹 네
먹 었다
몰 이
미 미
봤 어
빡 이
소 울
아 들
었 긔
였 냐?
욱 이
치 마
침 ?
코 코
콜 라
하 겠지?
할 땐
형 들
히 로
▁안 올라
▁하 필
▁지 리네
▁진 작
▁근 로
▁대 가
▁마 시
▁수 염
▁3 .5
▁고 우
▁저 능아
▁잘 하는거
▁주 민
▁소 녀
▁소 마
▁우 기
▁부 계
▁조 상
▁재 계약
▁4 명
▁[ 양준일갤]ROCKingRoll
▁코 루
▁카 르
▁에 스
▁최 적화
▁메 린이
부터 가
▁타 라
▁않 이
▁20 년
▁들어 갈
▁심 판
▁당 당
▁빠 진
▁뽑 은
▁넣 고
▁프로 듀
▁그러 는데
▁푸 엉
▁안나 옴?
▁챔 피언
▁봤 다
▁색 깔
▁d lc
▁압 도
▁우울 증
▁튀 어
ww ww
▁아쉬 운
▁히로 인
▁왔찬또 (설X)
i d
i g
s s
▁ 링
구 야
는 것도
댓 글
랑 은
럽 다
마 시
매 수
미 터
보 이는
산 다
시 나
앞 에서
와 꾸
은 상
인 도
잔 아
져 야
좋 은거
찍 어
크 가
페 온
▁오 를
▁안 터
▁가 정
▁개 지랄
▁좋 겠긔
▁3 1
▁고 치
▁일 간
▁알 았음
▁5 6
▁4 3
▁4 4
▁추 이
▁생각 난
▁할 수있
▁사람 도
▁쓰 기
▁박 세
붕이 들이
▁차 별
▁6 4
▁입 은
▁10 5
▁질 투
▁망 겜
▁특 가
▁적 자
나오 는거
▁꼬 홀
▁싫 음
▁롤 백
할때 마다
▁컴 으로
▁울 와
-- -
▁ᅲᅲ ᅲᅲ
▁러 브
▁안나 왔
▁하는거 임?
▁떠 오
▁면 상
▁꼬마 가
▁있었 음
만큼 은
▁o r
피셜 )
▁불쌍 한
아님 ??
▁승리 하고
▁느끼 는
줄알 았는데
▁원영 아
▁극장 판
X IA
ᅵ 발
갔 으면
걸 레
권 은
권 이
깨 워
나 온다
넘 어
리 얼
반 응
백 호
볼 때
소 는
수 를
스 택
악 몽
았 냐
여 야
용 병
우 기
일 로
키 가
테 이
팬 들
하 성
혈 귀
▁이 더
▁어 이가
▁2 시
▁개 쳐
▁스 워
▁내 신
▁뭐 해야
▁뭐 냐고
▁좋 을
▁수 집
▁3 인
▁미 만
▁좆 구
▁전 개
▁해 보고
▁비 주얼
▁바 거
▁라 리가
▁성 갤
▁먹 는거
▁피 씨
▁세 나
▁같 노
▁이제 야
▁돌 리면
▁타 마
▁요즘 도
▁입 장에서
▁몇 달
▁매 우
▁하나 로
▁크 루
▁이런 건
▁당 한
▁삼 전
▁삼 겹살
▁플 로
▁이상 형
▁뽑 으면
▁케 이가
▁몰 라서
▁좋은 게
▁헬 지
▁등 급
▁13 0
▁나올 까
▁나올 듯
▁붙 어
▁미쳤 노
▁침 대
▁나와 야
▁떳 냐?
▁몰랐 는데
▁2.5 주년
준수 갤]
▁학창 시절
T E
e d
같 지
곳 이
대 통령
도 못
떳 다
먼 저
민 아
바 꿔
반 에
분 이
어 때
업 뎃
에 이
줄 은
직 원
타 기
▁아 미
▁오 클
▁하 고있
▁지 듣노
▁진 로
▁대 중
▁인 기가
▁잘 하고
▁모 름
▁씨 팔
▁[ 10
▁남 편
▁서 새봄
▁김 선
▁6 3
▁포 르
한거 냐?
▁후 타
▁화 난
▁당 분간
▁ᄋᄋ ..
▁볼 수록
▁태 양
▁임 기
▁문제 점
▁미친 새끼
▁놈 이
할거 임
▁16 강
▁징 크스
▁N C
▁스카 이
▁의미 가
▁않았 냐?
▁무섭 다
▁퓨 딜
마렵 다
▁괴롭 히
▁최악 의
▁로스트 아크
어떻 게
/ /
ᄆ ᄒ
겜 이
그 려
논 란
되 어
드 랍
릴 듯
마 넌
마 음
먹 음?
먹 어서
복 이
봐 야지
비 교
사 로
설 x
소 리가
스 케
신 수
오 가
적 은
주 택
짜 피
쳤 네
쳤 다
친 거
키 니
탈 출
토 스
파 이터
하 십시오
▁나 가서
▁1 부
▁오 디
▁오 락
▁사 은품
▁보 냐
▁보 냐?
▁지 인
▁개 나
▁개 털
▁수 박
▁미 개
▁미 체결
▁고 2
▁일 루
▁전 직
▁못 해서
▁주 차
▁소 신
▁[ 11
▁[ 문투
▁문 화
▁김 정
▁생각 해도
▁실 드
▁로 드
▁8 5
▁크 래
▁새 봄
▁뉴비 가
▁걸 렸
▁넘 모
▁누구 냐?
▁음 바페
▁풀 발
gi sa
▁갓 성은
▁딱 대
▁뒤 졌
라이 언
▁다른 건
▁슬 퍼
▁슬 픈
▁헬 린이
▁떴 냐
▁확실 한건
▁안나 옴
▁휴 지
▁쥬 리
▁신기 하네
이였 네
▁유니 크
▁않았 냐
스밍 인증왔
▁들어와 봐
▁수사 시
▁그립 다
▁콤 보
▁[라비던스 마갤]라라라라라
▁여전 히
3 6
h e
가 수
그 럼
당 이
라 포엠
런 트
리 프
만 명
무 섭
받 네
살 아
설 정
안 하면
월 에
트 롯
티 브
한 점
함 .
혀 서
▁안 뽑
▁안 지
▁시 외
▁개 사기
에서 만
▁대 출
▁정 연
▁정 화
▁유 마갤
▁무 너
▁이거 보고
▁공 홈
▁비 게퍼
▁야 수
▁ᄅᄋ ...
▁말 은
▁카 걸
▁버 린
▁할 듯
▁돌 계
▁6 9
▁6 천
한거 같음
▁투 명
▁크 로스
▁네 일
▁손 자
▁국 뽕
▁히 든
▁금 발
▁직 구
▁노래 가
라이 온
▁창 국
▁떴 네
▁이쁘 게
▁찬 성
아아 아
▁만들어 서
애미 들
▁웨 이버
▁견 제
▁칠 플
▁어떠 냐?
▁U SD
▁이모 티콘
▁[김 준수갤]
▁X BT
중계 .
▁ᄉᄉᄉ ᄉ
▁이태 양
TX T
▁푸엉 큼
i p
▁ 냐?
걸 림?
게 시
그 마
넣 고
니 카
달 에
마 법
메 오네
문 고
복 구
빨 고
사 스
살 이
센 세
숙 씨
영 은
원 에
의 지
칠 이
키 면
퍼 가
하 겠지
학 년
▁이 슈
▁이 영
▁안 돌
▁안 하냐
▁하 니
▁가 야지
▁2 인
▁개 판
▁뭐 해
▁인 식
▁자 라
▁전 원
▁해 제
▁소 화
▁노 블
▁재 탕
▁라 도
▁프 린
▁할 만한
▁본 섭
▁발 기
하다 는
▁손 목
▁질문 )
▁재밌 냐
▁양 키
거같 네
▁찍 으면
▁모르 는데
▁12 1.
▁일본 은
라이 더
▁편 성
▁온 냐
▁임 시
▁쓸 모
▁ᄂ 짤
▁일러 레
▁픽 시브
▁빌 런
▁흐 름
▁미안 하다
▁지방 직
▁심심 해서
▁아줌마 들
▁오른 쪽
프레 임
▁웃음 벨
맞추 기
▁아탈 란타
▁[NC다이노스 갤러리]
▁신한 류
/ 6
1 발
i c
p n
p p
가 치
끼 는
데 기
맞 냐?
받 는거
발 이고
부 턴
블 락
사 야
사 장
소 식
숭 아
오 는데
우 진
의 식
조 가
충 은
통 합
파 라
한 남
할 래
▁이 다
▁아 내
▁아 머
▁아 킬
.. gif
▁어 짜피
▁보 셈
▁지 박
▁개 새끼들아
▁한 게
▁한 두
▁뭐 든
▁기 도
▁마 니
▁마 카
▁좋 을까
▁3 기
▁고 르
▁못 함?
▁주 먹
▁주 린이
▁노 답
▁노 수광
▁도 감
▁알 게
▁5 번
▁5 일
▁구 성
▁말 해
▁문 신
▁성 과
▁실 험
▁타 카
▁후 려
▁그래 프
▁확 장
▁싶 어서
▁위 즈원
▁아직 까지
▁날 먹
▁루 머
▁들 을
▁11 5
▁다음 에
▁폭 사
▁검 머
▁군 인
▁머리 색
▁정신 차
▁찜 은
▁재미 가
▁이새끼 들은
▁익 숙
▁믿 을
▁ᄏᄏᄏᄏᄏᄏᄏᄏᄏᄏᄏᄏᄏᄏᄏᄏ ᄏᄏᄏᄏ
▁행복 회로
▁안나오 네
▁어쩌 다
▁쏘 대장
▁에이 텍
▁끌 어
▁갈아 타
▁축하 해
▁밴 드
▁팝 콘
▁쪽 팔
▁금지 어
▁짐 승
▁꾸준 히
▁이준 기
4 3
r e
~ !
가 인
국 에
내 서
놓 은거
다 른
들 에게
르 가
뭐 냐?
발 라
버 렸네
서 는
시 점
심 이
애 는
왓 는데
유 미
자 면
족 이
진 혁
채 팅
컴 백
풍 기
하 길래
▁이 시간에
▁아 슬
▁안 했
▁하 라
▁가 방
▁가 위
▁개 장
▁여 스
▁내 부
▁마 츠
하는 것도
▁3 배
▁아니 야?
▁고 등학교
▁전 세계
▁잘 함
▁해 주면
▁공 대
▁공 속
▁ᄅᄋ ..
▁거 냐
▁5 시
▁5 억
▁재 업
▁머 갈
▁코 치
이라 며
이라 이트
▁본 가
▁나오 지
▁여자 한테
▁화 이팅
▁병신 아
▁국 야
!!!! !!!
▁두 부
▁재밌 는거
▁죽 음
▁테 마
▁12 강
▁괜찮 네
▁처음 에
▁암 살
▁뜨 네
▁충 무
<< <
▁좆망 겜
거든 ?
▁211 .36
▁천천 히
. @
. 12
2 가
9 강
i s
ᄎ ᄎ
▁ 촌
거 운
결 정
나 봄
됐 노
드 라마
뜨 네
래 서
량 이
비 티
상 승
센 스
소 미
심 ?
안 이
유 동
인 대
잡 이
장 려금
제 성
중 요
치 노
팀 은
▁1 주일
▁안 달
▁그 걸
▁좋 겠
▁좋 았는데
▁좆 기
▁신 입
▁해 적
▁모 금
▁상 장
▁[ 아이들
▁[ 엘롯연합]
▁머 선
▁레 카
▁맞 고
▁솔 직
▁ᄌ 같
▁이유 를
▁이유 .txt
▁질 질
하는거 냐?
▁좋아 해
▁새 삼
▁들어 간
▁건 곤
▁떡 인지
▁시작 했는데
▁폭 탄
▁검 제
▁몰 아
▁첫 날
▁쓸 만함?
▁철구 는
이노 ?
▁A T
▁이새끼 는
▁정상 ?
▁개좆 같네
▁유니 온
▁경원 비
▁세계 관
▁띵 곡
▁멸 치
이이 이이
▁한동 훈
이쁘 네
▁스티 커
▁소속 사
▁컴디 씨
▁유투 브
▁사쿠 라
▁녹두 로
▁리모 뜨
▁[문투 ][
8 -
ᄒ ᄋ
가 입
갤 의
구 니
급 이
남 친
누 ?
달 소
당 하면
당 하고
리 티
문 이
상 대로
색 기
스 팅
아 빠
아 침
여 름
왜 이
요 ...
이 발
자 총
지 수
진 구
질 듯
태 가
토 끼
플 러스
하 며
▁이 과
▁이 하
▁아 우
▁나 간
▁나 연
▁나 이가
▁어 나
▁1 ~
▁안 주
▁하 지만
▁2 장
▁여 법
▁내 놓
▁기 획
▁대 처
▁오늘 따라
▁좋 게
▁좋 겟다
▁없 어?
▁수 술
으로 만
▁무 근본
하는 이유
▁고 로
▁일 일
▁공 장
▁공 기업
▁소 원
▁4 6
▁원 작
▁키 작
▁배 신
▁최 신
▁이번 화
▁입 니다
▁어디 감?
▁매 장
▁병신 겜
▁보고 가라
▁막 차
▁막 타
▁베 트
▁명 품
▁문제 임
▁올라 가
▁쓸 만한
▁ᄒ ᄃᄃ
▁17 일
▁프리 미
▁ᄇ ᄃ
▁벌써 부터
▁논 리
▁좌 표
▁도와 주세요
▁어렵 다
▁칭 호
▁홀 로
▁세상 에서
▁밴 픽
▁다음주 에
▁커여 워
▁버즈 라이브
▁왜이러 냐
브이 앱
. real
O M
▁ 씀
▁ 앗
▁ 쟁
▁ 턴
▁ txt
계 란
교 환
나 만
너 네
님 의
들 끼리
말 은
메 일
세 가
소 에서
시 킬
애 들아
지 어
창 모
파 가
할 텐데
해 ??
▁오 가나
▁안 치
▁안 했는데
▁안 하는데
▁사 이드
▁시 체
▁개 시발
▁좆 끼
▁전 공
▁공 산
▁바 낸
▁도 저히
▁지금 이라도
▁5 000
▁남 음
▁구 조선
▁얼 평
▁배 포
▁최 저
▁ᄋ ᄇ
▁돌 핀
▁입 금
▁패 는
▁계 수
▁토 츠
▁반 고
▁은 행
▁들어 가는
▁싶 었는데
▁필 리
▁양 아치
▁빠 져
▁팔 로우
▁볼 수있
▁갓 데
이냐 고
▁찐 특)
▁명 작
▁문제 는
▁P -0
▁정상 인
이즈 원
▁이기 고
야되 냐
▁느금 마
▁전설 이다
▁그렇 다
▁쟤 네
▁영웅 이
▁하다 하다
▁주변 에
▁카스 미
@ .@
N T
m m
가 져
개 는
구 라
기 지
단 독
대 도
디 비
려 다가
르 르
만 도
맘 들
뭐 노
뮤 직
분 석
붕 아
샀 는데
상 향
생 들
성 아
십 다
올 리
올 림
입 장
잇 네
졸 업
준 거
진 은
짜 증
챔 스
충 전
충 들이
프 는
햇 음
했 다가
▁이 노래
▁아 메
▁어 렸
▁어 머
▁1 대1
▁안 됐
▁안 해주
▁보 이네
▁개 재밌
▁정 작
▁마 차도
▁없 잖아
▁없 으니
▁무 게
▁무 선
▁자 식
▁좆 창
▁전 략
▁해 킹
▁존나 많
▁제 2
00 억
▁비 제이
▁소 나
▁너 만
▁바 드
▁노 출
▁도 트
▁알 루
▁상 처
▁레 고
▁남 돌
▁말 이야
▁영 양
▁선 녀
▁얼 른
▁실 검
▁세 이브
▁메 구
▁이제 부터
▁이유 로
▁차 이나
▁니 키
▁10 강
하는거 지
▁국 대
는건 가?
▁블 래
▁누구 임
▁꼬 리
▁탈 리스만
▁뽑 았는데
▁창 국이
▁몰 빵
▁미친 년
▁찾 음
▁처음 부터
▁너네 는
▁퍼 스트
▁T 1
▁잘생 김
▁표 현
▁L CK
▁희 귀
▁빌 려
▁40 분
▁센 텀
▁웅 장해
▁북 미
ᄉᄇ ᄉᄇ
▁딴 건
▁큐 브
▁헌 혈
▁거부 합니다
▁기적 의
보은왔어요 (설x)
생축 보은왔어요(설x)
▁여사 친
( ?
, 3
a s
▁ 론
▁ 줌마
갑 니다
되 니까
딜 러
렸 노
렸 음
로 리
루 토
린 게
말 이야
맞 네
바 는
박 은
받 은거
베 가
부 들
선 은
세 연
슬 이
오 니
왔 킹롤
요 .
원 탑
의 원
죽 이
진 지
질 러
찍 으면
키 고
통 피
페 인
포 수
학 기
할 만한
▁아 쿠
▁나 발이고
▁오 열
▁안 한
▁사 석
▁사 는데
▁지 고
▁2 던
▁개 패
▁여 유
▁기 괴
▁없 긔
▁없 었으면
▁유 부
▁유 이
▁인 가
▁저 주
인데 도
▁비 행
▁생 기면
▁4 천
▁강 아지
▁본 체
▁6 1
▁받 아서
▁받 았다
▁ᄉᄇ ᄏᄏ
하는거 야?
▁발 리
▁하나 같이
▁크 레
▁얘 들
인가 보네
▁ᄋᄋ ᄋ
▁집 단
▁날 조
▁음 반
▁볼 때
▁접 는다
▁교 정
하나 요?
▁일본 인
▁맛 집
▁암 컷
▁러 스트
▁p df
▁필요 가
▁답 이
▁웅 이
▁나와 라
???????? ????????
▁몬 가
## ##
▁탱 커
▁국가 직
▁평소 에
▁핑까 좀
리버 드
▁피갤 집
▁1, 2
gain신곡홍보 왔킹롤
T S
o l
▁ 는다
거 품
고 사
까 봐
다 이
루 나
르 트
마 일
만 으로
모 리
모 집
복 귀
봉 이
소 년
시 마
싶 다
오 지
인 큐
자 체가
준 식
찍 은
트 니
픈 데
▁이 도
▁하 도
▁스 파이
▁뭐 니
▁뭐 있음?
▁오늘 이
▁마 핸
▁유 산
▁존 경
▁3 억
▁자 막
▁미 소녀
▁저 평가
▁제 국
▁알 겠다
▁와 라
▁코 옵
▁카 라
▁씨발 아
▁버 스터
▁실 수로
▁배 기
▁사람 인데
▁씹 소
▁씹 타
▁8 15
▁망 토
▁단 일
▁외 식
▁까 고
▁꼬 우면
▁떡 이
▁백 인
▁합 리
▁팬 미
▁체 크
▁찾 는
▁행 동
▁회 식
▁몸 에
▁엘마 일러
▁ᄏᄏᄏᄏᄏᄏᄏᄏᄏᄏᄏᄏᄏᄏᄏᄏᄏᄏᄏᄏᄏᄏᄏᄏ ᄏ
▁봊 연갤
▁증 명
▁닉 언
▁신기 함
▁n c
▁저녁 에
▁어렵 네
▁한달 에
▁갖 다
▁힐 링
▁쟤 는
▁협 동
▁보이 는데
하하 하하
▁스위 칭
▁킨 드
▁스페 셜
▁맘마 통
▁[정 동원
▁패러 디
▁리액 션
ᄉ ᄑ
갔 노
같 애
경 험
계 속
기 기
났 어
놓 으면
대 상
루 스
먹 어도
부 심
비 율
석 은
시 지
실 화
쓰 네
이 언
자 지
향 이
▁어 릴
▁어 벤
▁어 음?
▁1 호
▁안 아
▁사 복
▁사 울
▁보 유
▁지 를
▁시 드
▁시 티
▁가 이
▁있 어요
▁있 나요
▁개 돼지
▁여 프리
▁무 지
하는 듯
▁고 1
▁저 희
▁못 이
▁주 가
▁공 단기
같은 게
▁노 란
▁알 파
▁상 하
▁남 았는데
▁서 번트
▁난 투
▁박 병
▁박 준
▁로 제
이라 니까
▁포 트
▁느 악몽
▁받 는다
▁글 에
▁두 달
▁복 습
▁특 수
▁하는 법
▁뽑 고
▁허 벅지
▁엔 젤
▁꾹 은
▁맛 이
▁맛 있는
▁환 경
▁환 장
▁해야 겠다
▁앞 머리
▁안나 온
▁낫 냐?
>> >
▁높 아
▁ᄏᄏᄏᄏᄏᄏᄏᄏᄏᄏᄏᄏᄏᄏᄏᄏ ᄏᄏᄏᄏᄏ
▁ᄏᄏᄏᄏᄏᄏᄏᄏᄏᄏᄏᄏᄏᄏᄏᄏᄏᄏᄏᄏᄏᄏᄏᄏ ᄏᄏᄏᄏᄏᄏ
▁템 렙
▁릴 리
시키 고
▁댕 라
이란 게
▁어떡 하냐
▁다르 게
▁브리 검
▁넷플 릭스
▁택배없는 날
. 스
I D
b o
e t
i f
▁ 땜에
갈 비
거 가
곳 ?
극 기
기 록
난 이도
도 로
도 환
먹 어야
모 으
보 인다
분 의
속 성
수 술
았 긔
었 음?
였 던
오 노
웠 던
점 대
제 품
졌 음
진 핑
창 년들
치 게
팔 고
▁이 씨발
▁아 ..
▁어 른
▁1 주년
▁안 다
▁보 호
▁지 는
▁지 잡
▁진 혈귀
▁뭐 함?
▁없 나?
▁자 원
▁일 기
▁해 금
▁모 임
▁공 백
▁비 디디
▁노 리
▁만 만
▁부 들
▁5 만
▁중 딩
▁4 만원
▁리 치
▁파 일
▁트 롯
▁시발 ᄏᄏ
고싶 으면
▁할 머니
▁박 수
▁드 리블
▁강 정호
한거 임
▁역 할
▁병신 새끼
▁귀 속
▁삼 각
▁삼 국지
▁했 어
▁봐 주라
▁루 페온
▁운 빨
▁딱 봐도
▁쳐 다
▁출 석
▁명 함
▁팬 아트
▁써 서
▁컨 트롤
가능 성
▁레전드 다
▁흑 흑
▁암 만
▁청 밥
할거 같은데
▁표 지
▁떨어 진
▁괴 담
▁빅 텍
▁앱 등이
▁밤 새
▁싸우 는
▁싸우 면
사랑 해
▁바꾸 면
▁하이 반
스러 워
▁박정 민
▁한동 숙
▁힙 합
▁품 번
▁역겹 네
▁치즈 루
▁아지 르
▁충분 히
▁메카 닉
▁조센 징
▁네임 드
▁근로 장려금
/ 2
Y P
ᄑ ᄋᄌ
▁ 튼
▁ !!
감 성
걸 린
경 우
군 아
글 자
두 면
루 트
먹 을까
모 자
무 는
무 유
받 아야
버 는
봤 네
성 형
세 끼
승 이
시 트
어 제
에 스
연 패
였 구나
위 권
이 세
일 거
있 냐??
차 별
추 행
충 들은
터 짐
파 워
파 크
▁아 버지
▁나 네
▁나 은거
▁오 퍼
▁안 감
▁안 쓰는
▁시 메오네
▁근 처
▁스 스로
▁여 주
▁뭐 냐??
▁마 네
▁좋 긴
▁좋 던데
▁유 미
▁인 물
▁고 전
▁일 행
▁신 용
▁못 본
▁너 는
▁바 텀
▁노 부기
▁조 지
▁와 타
▁많 았
▁영 통
▁김 동
▁추 첨
고싶 노
▁세 컨
▁할 사람
▁최 상
▁메 뉴
▁아이 린
▁디 자
▁글 쓴
▁의 문
▁브 론
▁때 는
▁어케 함
▁히 하
▁싸 울
▁무슨 일
▁백 합
▁한국 어
▁한국 은
▁교 행
▁월 클
▁팬 들
▁써 본
고있 음
▁몸 무게
▁없는 듯
▁그만 하고
▁별로 임
하자 고
▁유튜브 에
▁극 한
▁죄 이
▁t 1
▁사기 꾼
▁이러 고
▁케이 팝
▁ᄋᄌ ?
▁n tr
▁잦 스틴
▁불쌍 해
시키 면
그래 도
스럽 게
▁아빠 가
▁이승 현
▁구독 자
▁컴디 시
▁글로 벌
. fact
P L
Y A
v er
ᄋ ᄉ
긴 다
나 ??
댐 ??
렸 으면
맞 지
모 션
반 고
반 도
버 리는
상 대
서 가
실 에서
쓰 냐?
역 겹
왓 다
요 미
유 튜브
음 이
이 하
임 ᄏᄏ
전 설
티 스
혜 원
활 동
▁이 로
▁아 포
▁어 어
▁안 할
▁하 려면
▁그 지
는거 ?
▁있 노?
▁개 그
▁한 마리
▁수 원
▁전 반
▁잘 만
▁잘 나가
▁조 립
▁요 미
▁중 딩때
▁재 난
▁누 르
▁[ 공지
▁[ 단독
▁구 원
▁연 동
▁경 치
▁배 워
▁같 애
▁할 매
▁강 지
▁뭔 소리
▁역 갤
▁호 텔
▁단 타
▁좋아 ?
▁때 가
▁물 리
▁친 한
▁복 수
▁특 전
▁갈 까
ᄏᄏᄏᄏᄏᄏᄏᄏᄏᄏᄏᄏᄏᄏᄏᄏ ᄏᄏᄏᄏᄏᄏᄏᄏᄏᄏᄏᄏ
▁찍 는
▁홍 이형
▁좆같 아
▁팩 질
▁봉 퀴들
▁궁금 해
된거 임?
in e
▁있다 면
▁이쁜 거
▁옆 집
▁웨 딩
▁긴 장
▁뮤 직
▁도움 좀
오오 오오
▁어울 리는
▁이쯤 되면
▁귀신 같이
▁인프 피
▁투표인증왔 XIA
▁[단독 ]
V E
ᄀ ᄂ
▁ 롬
▁ 들이
▁ 놓고
▁ 줌?
갖 고
것 보다
겼 는데
괜 찮
긴 데
놈 의
돌 림
되 게
되 는게
마 니
사 무
살 에
예 상
작 권
잖 어
졌 냐
집 회
참 기
창 기
커 엽
트 레이드
행 시
▁이 악
▁나 처럼
▁사 인
▁사 촌
▁지 르
는거 보면
▁가 보
▁개 잡
▁유 전
▁해 방
▁너 의
▁야 리
▁부 담
▁부 유
▁4 위
▁리 즈
▁코 노
▁라 는
▁김 대
▁성 현준
▁생각 을
▁에 미
▁먹 을거
▁살 다
▁메 르
▁메 이드
▁타 는
▁타 입
▁포 스
▁포 틀
▁않 아
스트 라
▁치 트
▁망 했
▁망 했다
▁망 했네
▁계 승
▁후 원
▁우리 나
한다 는데
▁달 리
▁위 기
▁필 승
▁이상 함
▁볼 넷
▁직 전
▁ᄀ ᄋ
▁ᄀ ᄀᄀᄀᄀ
▁응 지
하나 만
▁참 가
▁창 렬
▁괜찮 음?
▁산 책
▁놀 아
▁푸 르
▁만들 기
▁돼 ?
▁느낌 임
▁a s
▁사이 즈
▁붙 여
~~~~ ~
▁개좆 같은
▁증 가
마갤] I
▁현실 에서
▁몬 헌
▁직업 이
▁릴 리아
여친 갤]
▁아쉽 다
▁델 핀
▁완벽 한
▁프라 이드
▁테일 즈
▁아칼 리
▁충무 공
A gain신곡홍보왔킹롤
B O
r o
공 장
군 이
노 ..
담 회
도 그
마 귀
마 저
망 이
머 냐
먹 었네
서 스
성 애
승 엽
야 짤
에 바
왜 안
요 즘
이 건
이 익
인 점
일 본
재 기
존 버
주 식
줬 음
치 냐
크 업
투 자
팡 이
▁이 시간
▁아 시
▁어 비스
▁1 :1
▁안 믿
▁안 하네
▁하 차
▁사 상
▁보 성이
▁지 표
▁있 긔
▁있 습니다
▁개 새끼야
▁한 방
▁스 튜
▁기 름
▁기 여
▁대 머리
▁유 도
▁3 주년
▁인 종
▁자 극
▁고 화질
▁해 봄
▁모 솔
▁노 짱
▁4 1
▁남 주
▁리 젠
▁키 ᅳᅳᅳᅳᅳᅳᅳᅳ
▁배 그
▁예 술
▁드 루
▁불 꽃
▁입 덕
▁발 롱
▁좋아 하는데
▁외 노
▁외 전
▁티 나
▁위 에
▁날 짜
▁건 데
▁ᄀ ?
▁쳐 내
▁겜 은
▁합 니다
▁슬 로스
수있 음
▁찐 팬
고있 다
▁종 료
▁혼 다
▁해야 함?
겠지 ??
▁정도 는
▁떠 나
▁떠 나서
▁ᄏᄏᄏᄏᄏᄏᄏᄏᄏᄏᄏᄏᄏᄏᄏᄏ ᄏᄏᄏᄏᄏᄏᄏ
▁탑 승
▁끼 고
▁퇴근 길
피셜 ]
▁대기 열
▁징징 대
▁수도 권
▁좆이 돌
▁필리 핀
7 7
8 월
A Y
▁ 린이
가 게
나 인
날 에
녀 들
단 은
듀 오
떠 서
럭 스
모 아
못 하는
버 티
보 석
상 현
스 워
을 수
이 던
이 서
인 걸
잇 어
재 는
저 미
쪽 으로
찾 아
최 고
팬 덤
풀 어
하 트
행 복
▁이 즈
▁이 사람
▁아 패
▁1 달
▁1 화
▁다 저스
▁마 다
▁마 앰
▁수 지
▁자 야
▁신 호
▁잘 뽑
▁잘 안
▁모 를
▁생 산
▁올 만에
▁부 끄러
▁알 트
▁방 덱
▁방 문
▁레 일리
▁말 한
▁연 어
▁먹 는데
▁예 나
▁예 장
▁쓰 냐
▁박 고
▁로 딩
▁강 제로
▁초 돌
▁손 님
▁새 기
▁들어 가서
▁가능 ??
▁관 중
▁눈 빛
▁볼 거
▁통 과
▁통 화
▁갑 옷
▁터 지면
▁12 3
▁학 식
▁슬 라
수있 냐
▁일러 가
▁애니 화
▁식 극
▁휴 식
▁앚 퀴들
▁어떰 ??
▁붙 으면
▁낮 방
▁닉 변
▁엑 스
▁일어 나서
▁g o
▁븝 미
▁캡 틴
▁모두 가
▁엘리 트
▁거부 합니다.
▁어떨 까
▁부러 워
▁어지 간
▁단톡 방
▁트리 플
▁오재 일
▁어카 냐
▁나혼 산
▁[이찬원마갤] 올스타
b s
h z
▁ 셉
가 냐?
강 의
개 씩
관 이
구 장
기 계
기 는데
내 내
들 면
러 들
리 온
만 장
말 에
먼 트
블 루
사 나
상 수
야 스
여 기
요 약
있 는게
자 본
저 격
전 환
줄 까
퀘 스트
타 라
포 함
하 든
혜 리
▁이 우
▁사 자
▁시 대가
▁진 영
▁뭐 하노
▁정 령
▁3 각
▁자 르
▁자 취
▁아니 냐??
▁못 깨
▁소 형
▁거 슬
▁거 절
▁도 끼
▁남 들
▁파 이어
▁김 유
▁맞 나
▁에 코
▁먹 기
▁할 만함?
▁최 원
▁드 레드
▁이번 에도
▁10 연차
▁나오 노
▁8 4
▁받 은거
▁반 복
▁호 빠
한다 면
▁여기 도
▁심 하네
▁위 로
▁특 정
▁죽 이고
거같 냐?
▁봐 서
▁별 론
▁누가 이
▁뒤 지게
▁터 짐
▁교 수
구나 ..
▁과 천
▁명 단
▁판 정
▁같은데 ?
▁엠 붕이
▁잇 음?
▁짱 구
▁술 사
▁옛날 엔
▁핵 심
▁데려 와
▁앰 뒤
▁섭 스
▁바이 크
하지않 음?
▁무섭 네
▁앙 망
▁전투 력
▁ᄉᄉᄉᄉᄉ ᄉᄉᄉᄉ
▁앤 비
▁왜저 러
▁자체 는
▁즈 그
▁[강다니엘 ]
▁김종 인
▁223 .3
▁김선 빈
/ 0
2 YA
M I
e w
h at
ᄊ ᄉᄐᄎ
▁ 났
▁ 벅
▁ 져
군 요
굿 즈
기 랑
끝 나
끼 면
너 비
네 가
다 는게
달 린
라 클
로 남
마 도
만 함
맞 다
문 화
본 데
세 상
시 피
시 환
시 는데
신 캐
쓰 리
아 씨
왔 으면
울 트라
중 이다
축 제
코 치
타 입
텐 도
하 여
한 것
혼 자
▁이 대
▁아 델
▁아 파
▁나 주
▁어 색
▁오 오
▁안 보고
▁안 했으면
▁하 ...
▁보 냈
▁지 리
▁지 면
▁시 기
▁시 킨
▁2 일
▁한 심
▁정 권
▁3 점
▁인 겜
▁소 주
▁야 무
▁올 린다
▁요 정
▁중 앙
▁많 노
▁리 스
▁서 특
▁김 강
▁김 수
▁성 지
보다 도
▁에 프
▁버 크
▁할 거면
▁아이 언
▁10 연
▁글 러
▁점 유
▁우리 동네
▁브 랜드
▁이런 게
▁물 약
▁당 황
더라 도
나오 고
▁누구 야
▁갓 직히
▁통 신
▁시작 하면
▁접 은
▁터 트
▁엄 지
▁울 갤
▁아닌 가?
▁올라 옴
▁미친 거
가능 함?
▁젤 다
▁지랄 하는
▁ᄊ ᄒᄐᄎ
▁엠 창
▁식 단
▁서울 시
▁앚 은
▁A I
▁믿 어
▁될 듯
▁ᄏᄏᄏᄏᄏᄏᄏᄏᄏᄏᄏᄏᄏᄏᄏᄏᄏᄏᄏᄏᄏᄏᄏᄏ ᄏᄏᄏ
▁라인 전
▁b b
▁K T
▁엑 시
▁줘 패
▁퇴근 하고
▁숨 겨
▁정보 글
▁득 점
▁응원 봉
▁연습 )
▁작가 가
▁깡 통
▁일베 충
▁배고 프
ᄋᄋᄋᄋ ᄋᄋᄋᄋ
▁각인 석
▁생존 자
▁원정 대
▁비하 인드
▁공통 점
▁스마트 폰
▁소신 발언
3 00
M A
O O
t e
~ 4
ᄀ ᄏᄏ
▁ 냈
▁ 임?
과 학
극 혐
기 는거
내 기
내 일
니 들
던 지
동 화
라 미
마 나
만 한거
받 음?
사 기네
생 은
서 도
수 지
오 바
왕 굴
위 해
으 려나
이 해
인 의
재 일
적 용
지 혁
집 에
쪽 은
창 녀
카 락
캐 리
터 는
테 니
투 리
하 길
하 드
하 겠습니다
한 태
할 려고
했 던거
혁 명
확 인
▁이 혼
▁아 ...
▁나 두
▁나 같은
▁1 라
▁오 마
▁안 티
▁진 출
▁개 쓰레기
▁뭐 여
▁기 차
▁대 해서
▁정 석
▁마 비
▁마 을
▁마 인
▁좋 노
▁없 었는데
▁수 입
▁유 치
▁좆 사기
▁좆 냥이
▁해 봐
▁모 여
▁못 들어
▁바 스
▁만 큼
▁도 입
▁도 태
▁방 종
▁누 비
▁[ 여친갤]
▁많 으면
▁리 부
▁구 창모
▁코 이
▁성 태
▁맞 으면
▁먹 이
▁경 찬이
▁장 사
▁타 율
▁동 갑
▁동 의
▁어디 다
▁망 할
▁매 매
▁뉴 욕
▁크 퀘
▁20 18
▁화 려
▁페 이스
▁꼴 려
▁적 은
▁죽 으면
▁평 화
▁설 문
▁했 었는데
▁민 폐
▁잡 는
▁갑 주
▁던 져
▁테 넷
▁테 이
▁테 크
▁뒤 로
▁온 콘
▁뿡 이
▁채 보
▁하루 만에
▁헬 퍼
▁좆같 아서
▁얼굴 에
▁ᅲᅲ ᅲᅲᅲᅲ
▁해야 함
▁일러 는
13 9
▁밥 먹고
▁우승 하면
▁떨어 질
▁찬 양
▁떠 려니
▁m c
▁없음 ??
▁듣 보
▁염보성 은
▁행복 한
▁빵 빵
▁어쩌 구
▁스포 )
▁주딱 이
시키 는
▁F A
▁시청 률
▁비틱 질
▁농 담
▁예전 엔
▁주인공 이
▁어디갔 냐
▁윈 도우
cm )
▁[오 피셜]
▁렌탈 여친
중계. cm)
Again신곡홍보왔킹롤 (설첫)
: 30
y p
ᄇ ᄃ
가 루
개 념
걸 리
경 은
노 우
뉴 스
담 배
된 다고
등 장
디 아
렸 어
머 임?
무 비
미 니
받 기
받 았
발 이
버 렸다
법 이
사 용
세 실
수 의
슬 롯
슴 ?
오 래
으 응
이 긔?
장 갑
저 거
점 심
주 작
찍 음
쳤 는데
커 플
테 러
한 놈
▁오 시
▁오 탈
▁안 까
▁안 한다
▁안 받아
▁하 이라이트
▁그 녀
▁사 생
▁사 탄
▁보 험
▁지 루
▁2 회
▁개 야
▁스 폰
▁인 다
▁인 텔
▁인 게임
▁미 지
▁미 스터
▁못 하는거
▁제 구
▁제 보
▁제 품
▁생 명
▁방 방
▁재 판
▁4 분
▁남 겨
▁리 마
▁구 토
▁트 롤
▁말 라고
▁성 추행
▁에 리
▁실 체
▁되 겠네
▁프 붕이
▁로 마
▁6 년
▁포 장
▁10 일
▁어디 임?
▁따 잇
▁작 화
는건 지
▁필 드
▁당 하는
▁재밌 냐?
▁특 히
▁적 이
▁플 라
▁클 퍼
▁누가 더
▁약 점
▁천 지
▁길 거리
▁검 찰
을때 마다
▁15 00
▁어떤 거
▁궁금 하네
▁식 당
▁떨어 지는
▁항 로
▁됐 네
▁이쁜 데
▁줘 도
▁숨 참
▁낙 관
▁어떡 함?
▁롯데 리아
▁닭 가슴
▁자러 간다
▁키워 야
▁조금 만
▁배고 파
▁시발련 아
▁y ou
▁에반 데
▁끔 찍
)설 쉬
▁지박 귀
( )
3 1
C T
c h
가 봐
공 주
귀 찮
금 은
길 태
꺼 임
노 무
당 해서
도 라
두 는
라 벨
리 즘
링 이
브 리
사 태
설 명
설 어
속 보)
신 인
악 세
앞 에
없 긔
었 습니다
으 려
이 죠
이 더라
인 디
인 거같음
중 일
줬 다
지 르
지 는게
키 울
합 방
형 님들
히 고
▁아 디
▁아 리
▁1 순위
▁오 블락
▁그 리는
▁다 를
▁보 시긔
▁가 운데
▁진 성
▁2 20
▁뭐 하고
▁저 작권
▁모 아서
▁소 문
▁노 동
▁노 모
▁알 았네
▁언 노
▁리 리
▁라 모스
▁말 인데
▁서 재
▁에 임
▁얼 리버드
▁버 는
▁프 사
▁키 케
▁메 소
▁솔 킬
▁불 싸개
▁차 은
▁타 구
스트 로
▁망 전
▁망 이니
시간 이
▁반 등
▁반 고닉
▁빨 라
▁따 지면
▁위 해서
▁어케 됨
▁양 현
▁엘 시
▁플 매
▁까 면
▁까 는거
▁까 이는
ᄏᄏᄏᄏᄏᄏᄏᄏᄏᄏᄏᄏᄏᄏᄏᄏ ᄏᄏᄏ
ᄏᄏᄏᄏᄏᄏᄏᄏᄏᄏᄏᄏᄏᄏᄏᄏ ᄏᄏᄏᄏᄏᄏᄏᄏᄏᄏ
▁풀 돌
▁건 의
▁건 축
▁들 었는데
▁갓 파
▁쳐 발
▁온 도
▁염보 는
▁용 돈
▁채 워
▁종 교
▁갤주 는
▁왜이 럼?
▁빡 대가리
▁나올 거
할거 야
▁복귀 유저
~~~~ ~~
▁핵 쟁이
▁잔 나비
▁행복 해
▁안나오 는
▁무료 로
▁감독 이
▁에이 티
▁중고 로
▁냉 정
▁팝 니다
것같 애
스럽 다
▁팡 이
▁시발련 들아
ᅥᅥ ᅥᅥ
▁이성 규
▁럭 키
드려 요
▁프랑 스
▁글고 보니
▁김혜 성
▁에밀 리아
▁[라비던스마갤]라라라라라 생축보은왔어요(설x)
▁이악 물고
. 14
a p
강 이
같 으면
겟 어
겨 ?
느 니
니 지
맛 이
문 회
바 란
보 험
빨 아
샤 이
성 능
성 배
성 적
소 바
십 니까
역 사
있 을
자 를
쟁 이들
좆 같네
좋 냐
주 시긔
총 )
캐 시
하 시긔
한 국
할 걸
해 보자
혜 자
혹 한
▁이 새낀
▁나 승엽
▁안 심
▁보 는게
▁보 이면
▁스 모
▁여 우
▁내 리
▁내 친구
▁기 품
▁오늘 만
▁수 행
▁미 네
▁미 트
▁고 집
▁좆 방
▁신 상
▁전 여친
▁해 줬으면
▁못 하는데
▁소 워
▁조 롱
▁중 경
▁남 는
▁남 의
▁리 사
▁원 조
▁성 골
▁연 아
▁경 고
▁버 튜버
▁게 이들
▁되 나?
▁세 실
▁살 사람
▁배 치
▁돌 리고
▁타 로
▁동 기
▁않 나?
▁패 작
▁받 아야
▁어디 냐
▁감 염
▁매 직
▁투 어
▁데 비
▁역 체
▁하나 가
▁결 말
▁9 6
▁은 거
▁단 챠
▁눈 깔
▁죽 는
▁간 담회
▁팔 아야
▁찍 었는데
▁싸 가지
▁뽑 는
▁갓 오
▁시작 하는
▁던 갤
▁길 게
▁뒤 에서
▁12 5
▁힘 내
▁100 퍼
▁팬 싸
▁헤 헤
▁첫 방축하
▁삐 는
▁궁금 한데
▁슈 스
▁사랑 의
▁14 4
▁꾸 역
▁꺼 내
▁고민 되네
▁봊 초
▁샤 샤
▁멀 리
▁맥 북
▁슼 갈
▁b y
▁흥 갤
▁억 지로
▁댕 댕
▁딴 거
▁상위 권
▁닥 치고
▁갤럼 들
▁탱 크
▁[김 요한
▁사냥 터
▁텐 션
▁J YP
▁스케 줄
▁무사 만루
▁말복 쿠폰
귀엽 네
▁비트던 파
첫방축하 왔
▁아킬 레
▁[정동원 ]
. m
/ 10
f c
x x
▁ 랍
가 로
같 음?
걸 고
겨 도
계 는
나 가서
대 의
데 이터
롭 게
류 가
명 호
모 양
미 남
방 어
빌 런
선 거
수 급
싸 우
아 무
연 장
오 른
외 과
웠 음
윤 이
의 엘롯
전 부터
좆 망
틀 드
하 내
하 실
한 명
함 ᄏᄏ
해 요?
▁이 갤
▁이 루
▁이 주
▁오 이
▁안 바
▁안 부
▁사 직
▁다 양
▁다 르네
▁지 나가
▁시 상
▁가 네
▁스 플
▁무 제한
하는 새끼들
▁3 장
▁3 카
▁3 만원
▁일 케
▁좆 리
▁좆 같은데
▁잘 했다
▁애 쉬
▁우 정
▁만 남
▁만 나서
▁거 야
▁부 매
▁조 공
▁조 아라
▁조 노블
▁중 학교
▁상 의
▁남 았네
▁파 엠
▁영 구
▁성 약
▁카 레
▁생각 하냐
▁실 북
▁실 전
▁되 니까
▁키 운
▁키 타
▁배 가
▁최 지
▁쓰 알
▁돌 이
▁강 백호
▁씹 새
▁디 아
▁10 %
▁치 과
▁치 호
▁계 신
한거 같은데
▁후 배
▁언제 나
▁화 보
▁외 퀴들
▁짤 은
▁꼴 리네
▁심 한
▁위 닝
▁복 학
▁관 적으로
▁집 안
나오 는데
▁어제 부터
▁방송 은
▁방송 에서
▁백 화
▁아무 튼
▁11 7.
▁시작 함
려고 하는데
▁베 라
▁광 역
▁벌 금
▁힘 이
▁헬 갤
▁종 이
▁뜨 는거
▁올려 도
▁큰 거
▁인생 이
▁떨어 지면
▁고닉 들
▁왕 관
▁m b
▁멀 린
▁군대 에서
▁떳 냐
▁미래 가
▁가져 옴
▁웃기 노
▁ᄅ ᄅ
▁ᄅ ᄌᄃ
메이 션
▁짝 사랑
나온 거
▁길태 견
▁하스 스톤
▁나스 만
▁나쁘 지
▁ᄑᄐᄎ ?
▁무적 권
이후 로
블랙 핑크
▁[김호중 ]
6 5
C OM
I N
n d
ᄉ ᄀ
▁ 냄
거 너
계 획
교 체
까 요
다 닐
대 표
더 블
든 데
만 의
만 보면
맞 냐
목 )
받 이
상 점
셉 션
소 속
스 랑
아 닐
아 버지
야 하는
우 드
운 이
움 짤
위 는
의 자
있 던데
자 노
자 르
조 차
좋 노
주 나
준 다고
준 다.
지 니까
차 에
창 들
처 넌
카 오
한 정
해 조
햇 어
홍 어
효 율
후 반
▁아 리사
▁나 보고
▁1 초
▁오 해
▁안 죽
▁안 하냐?
▁그 랜
▁보 플
▁시 아님
▁2 페
▁2 ~3
▁정 책
▁존 내
▁인 젤
▁인 지
▁자 는
▁고 덕
▁전 술
▁못 뽑
▁못 하게
▁주 네
▁비 정상
▁너 도
▁만 한
▁거 리는
▁5 강
▁상 폐
▁누 르면
들이 나
▁많 이나
▁영 의
▁김 하성
▁선 거
▁에 디션
▁프 갤
▁박 민
.... gif
▁씹 새끼
▁받 는거
▁감 상
▁매 드
▁반 일
▁여자 애
▁단 또
▁똥 퍼
▁얘 도
▁손 이
▁좋아 하는거
▁커 트
▁병신 이
▁달 라고
▁심 야
▁돈 도
▁죽 어도
▁집 빌
▁히 크
▁플 티
레이 션
지마 셈
▁머리 카락
▁ᄂ ᄋᄌ
▁철구 야
하기 로
▁팀 에
▁빡 치네
▁취 직
▁딸 치
▁잇 는
▁자기 전에
▁꾸 레
▁인기 많
▁t op
▁이러 다
▁택 시
▁웅 앰
▁옵 변
야되 나
▁관련 해서
▁B J
▁여름 에
▁학교 에서
▁완전 히
▁인싸 촌
▁닥 쳐
▁얍얍 이
▁루시 드
it h
▁베트 남
▁닭가슴 살
9 7.
w a
ᅩ ᅩ
▁ ]
▁ 샷
가 고싶다
갑 자기
골 드
구 에
국 은
길 이
끝 나면
녀 랑
다 다
뜨 는
만 남
무 가
밤 에
버 릴
범 죄
선 언
셔 서
수 련
실 드
안 돼
안 함?
았 나
야 샤
억 경
엇 어
올 때
요 리
이 여
잡 는
재 가
저 나
전 문
좆 같은
주 제
질 은
창 이
코 트
클 릭
통 수
하 구나
홍 이
화 문
▁이 네
▁이 럼
▁아 씨
▁하 브
▁그 와중에
▁보 낼
▁왜 그러
▁개 못
▁개 좋네
▁한 장
▁한 참
▁뭐 뽑
▁마 망
▁마 요
▁좋 겠는데
▁수 수
▁수 붕이
▁수 즈나
▁유 령
▁자 궁
▁미 적
▁저 정도면
▁전 범
▁해 볼까
▁주 요
▁주 사위
▁공 카
▁애 교
▁노 는
▁부 대
▁중 붕이들
▁[ 블랙핑크
▁레 비아
▁영 뽑
▁김 현
▁카 즈
▁너무 한거
▁세 력
▁세 이버
▁배 윤
▁할 말
▁로 시
▁ᄌ ᄉ
▁불 가
▁6 8
▁입 에
▁몇 분
▁패 악질
▁치 료
▁토 갤
▁20 퍼
▁화 나
▁물 량
▁질문 있
▁분 위
▁분 데스
▁내일 도
▁집 값
▁엘 소드
▁넘 어서
▁금 강
▁봐 봐
▁누가 봐도
▁찍 었
▁꼬 접
지않 나?
▁안되 지
▁막 내
▁속 이
▁태 국
▁검 거
▁과 락
▁참 피
▁슬 림
▁애들 도
▁남자 들
▁군 지
▁악 몽
할때 는
▁환 생
인거 임?
▁밀 봉
▁선수 가
▁잇 냐
▁T NO
▁그림 자
▁고민 상담
▁좆같은 게
투표 인증왔
▁신기 해
▁키우 면
▁문재 인이
▁류 지혁
▁떳 는데
▁트로 피
▁숙 소
아이 콘
▁레이 저
▁갤러 들
▁폐 지
▁뽀 뽀
▁쿨 감
▁생긴 거
▁조심 해라
승리 의엘롯
▁개쩌 네
▁신나 린
▁ᄌᄀ [
▁LI ME
▁[키움히어로 즈갤]
▁오승 환
스밍인증왔 대호
▁브론 즈
97. COM
▁[블랙핑크 ]
▁LIME 97.COM
8 8
n s
~ 5
▁ 값
▁ 렬
가 든
가 야지
각 개
나 랑
남 음
내 놔
동 희
라 .
렉 션
려 했는데
리 스타
바 가
배 달
병 욱
보 낸
빌 딩
사 망
생 명
쓸 때
안 해도
오 픈
인 기
있 다고
잡 아
장 난
전 투
정 부
톡 스
표 정
한 건데
할 려면
훈 련
히 히
▁이 는
▁안 젤
▁다 만
▁지 타
▁시 아
▁2 회차
▁개 똥
▁개 빻
▁근 접
▁내 내
▁내 는
▁마 누
▁마 약
▁무 상
▁무 식
▁3 주
▁자 총
▁미 워
▁미 주
▁고 려
▁일 뽕
▁신 이
▁잘 한거
▁잘 하는데
▁잘 하노
▁해 놓고
▁주 장
▁바 네
▁노 루
▁야 심한
▁만 나고
▁ᄅᄋ 로
▁올 리는거
▁레 지
▁언 론
▁리 고
▁구 걸
▁라 피스
▁김 채원
▁생각 하고
▁생각 나는
고싶 긔
▁먹 으러
▁배 팅
▁장 작
▁박 으면
▁로 보
▁6 2
▁글 카
▁언제 임?
▁단 판
이야 ??
▁똥 견
▁어케 해야
▁어케 하냐
▁뉴비 는
▁양 학
▁히 짱
▁게임 을
▁클 립
▁클 리드
▁민 초
▁통 수
▁한국 이
▁테 섭
▁터 진거
▁태 고
▁폭 염
▁왔 네
▁편 하게
을때 가
씨발 씨발
▁헤 메
해주 라
▁라이 벌
▁회 수
▁너네 가
▁돌아 온
▁s e
▁그만 좀
▁올려 치기
▁딸 배
▁낫 네
▁휴 방
▁로아 는
▁만화 가
▁믿 는
▁< ->
▁ᄏᄏᄏᄏᄏᄏᄏᄏᄏᄏᄏᄏᄏᄏᄏᄏᄏᄏᄏᄏᄏᄏᄏᄏ ᄏᄏᄏᄏᄏᄏᄏᄏᄏᄏᄏᄏ
▁늘 려
▁육 수
하긴 함
▁70 렙
▁페미 니
▁릴 카
▁끌 고
▁폐 급
▁저새끼 는
▁예쁘 다
▁못하 겠다
▁못하 겠네
▁이상화 는
▁주문 하신
▁빙 고
▁180 석
▁이시 각
▁유투 버
▁가르 쳐
▁꼬라 박
▁프로듀 서
게시 판
로남 불
- 10
7 5
e s
ᄆ ᄀ
개 발
것 이
공 은
관 심
그 렇게
근 육
노 ...
다 ?
다 님
돌 파
등 학생
리 트
마 핸
만 드는
맥 스
미 리
바 디
부 지
비 비
산 이
살 인데
아 래
안 나
안 하는
았 지
옆 에
왔 노
이 뻐
이 쁜
인 터
임 ...
입 은
있 어야
자 들이
장 을
주 문
짓 을
취 소
코 디
코 로
토 막
파 스타
편 임?
피 해
하 긔?
현 은
화 장
힘 ?
▁아 껴
▁아 돌
▁아 린
▁나 비
▁어 냐
▁1 승
▁안 풀
▁하 여
▁그 제
▁사 태
▁보 1
▁보 급
▁지 겹
▁한 패
▁없 을까
▁없 었음
▁인 권
▁좆 된
▁신 세계
▁해 ?
▁이거 는
▁비 겁
▁비 키니
▁노 인
▁노 근본
▁부 비
▁알 렉
▁5 판
▁구 려
▁파 라
▁라 방
▁키 커
▁쓰 레
▁ᄌ 망
▁씹 노잼
▁현 식이
▁패 시브
▁망 구
▁글 은
▁후 유
▁9 15
▁빨 갱
▁20 21
▁네 크
▁손 에
▁좋아 하면
▁새 키
▁짤 .jpg
▁귀 빨
▁당 시
▁적 정
▁적 어도
▁터 치
(설 총)
▁허 도환
▁합 법
▁괜찮 지
▁200 7
▁알려 주라
▁알려 드림
▁깨 고
▁s p
▁p s
▁식 이
▁안나 와
▁댓글 로
이었 던
▁폰 겜
▁익 절
▁ᄏᄏᄏᄏᄏᄏᄏᄏᄏᄏᄏᄏᄏᄏᄏᄏᄏᄏᄏᄏᄏᄏᄏᄏ ᄏᄏᄏᄏᄏᄏᄏᄏᄏᄏᄏ
▁신기 한게
▁비교 하면
야되 는거
▁기다 리는
▁헐 리
▁수비 비
▁린 제
는중 인데
▁쌍 수
▁확률 이
▁무서 움
▁무서 워서
▁바꾸 고
▁기본 소득
▁붕 어
▁신경 쓰
▁ᄃᄃᄃᄃᄃᄃ ᄃᄃᄃᄃ
▁ᄃᄃᄃᄃᄃᄃ ᄃᄃᄃᄃᄃᄃᄃᄃ
▁r pg
▁아르 마다
▁도시 락
▁안타 깝
▁룸 빵
▁개꼴 리네
▁단체 로
▁카운 트
▁어린 슈
▁워녕 이
▁강원 도
▁밖 에서
▁클래 식
▁[포레스텔라 ]
▁나봉 쓰
▁방구 석
▁여중 생
▁추방 자
▁[양준일갤]ROCKingRoll Again신곡홍보왔킹롤(설첫)
▁박병 호
E A
ᄃ ᄀ
▁ ᅡ
▁ ????
가 오
곡 이
공 략
노 예
덕 에
덕 이
될 지
등 록
란 거
러 워
리 셋
만 해
만 하지
민 갤]
번 에
살 때
살 인
살 짝
소 개
실 에
씨 가
야 ..
없 으니까
예 쁘
오 아
오 토
워 드
원 정
유 지
저 녁
짤 은
충 격
크 기
티 넘
폴 드
하 겠노
하 거나
했 을
했 습니다
했 어요
회 에
▁이 가
▁이 김
▁이 불
▁이 새기
▁아 진짜
▁1 카
▁1 이닝
▁1 선발
▁1 -3
▁오 서
▁다 같이
▁2 일차
▁자 석
... txt
▁전 형
▁잘 알
▁모 야
▁주 기
▁애 국
▁소 풍
▁우 는
▁부 른
▁부 갤주
▁재 기
▁재 벌
▁씨 게
▁머 마
▁머 가리
▁레 식
▁원 숭이
▁김 준
▁카 엘
▁난 다
고싶 어서
▁연 차
▁경 매
▁피 코
▁키 아라
▁같 던데
▁쓰 던
▁로 스
.... ?
이라 는거
▁강 철
▁6 월
▁7 8
▁토 미
▁언제 나옴?
▁반 반
▁반 성
▁크 킹
▁똥 싸
▁여기 다
▁들어 온
▁따 라가
▁친 선
▁심 하게
▁위 신
▁관 전
▁양 팡
▁걸 림
▁게임 에
▁풀 버전
▁건 전
▁약 뱅
▁약 한
▁폭 동
▁왔 어
▁힘 을
▁월 이세
▁친구 한테
▁꾹 이
▁궁 예
었다 .
▁애미 들
▁알려 줄
▁졸 려
▁변 태
▁딸 딸이
▁서울 에
▁댓글 에
▁돼 벨
▁니들 도
▁D UMDi
▁술 먹
▁인스타 에
▁앰 흑
▁사라 짐
▁d r
▁혜 택
▁탄 핵
▁됨 ??
▁쏘 2
▁외질 이
▁콩 이
▁냉 혹한
▁멘 트
지말 라고
망구 들
▁여론 조사
ᄅᄅ ᄅᄅ
▁개쩌 는
선생 님
▁깔끔 하게
▁당근 마켓
치마 인드
▁[10 구역]
▁갓오 하
. GIF
< -
B C
L C
T R
▁ 균
가 는게
거 라고
결 제
났 음
냐 면
냐 ...
달 리
담 당
데 드
덱 은
두 리
듣 는
러 간다
롱 이
마 무
망 가
미 주
보 냐?
사 주
사 키
삼 ?
성 도
세 요?
스 압
실 이
야 는
어 플
예 지
올 리는
유 가
의 상
있 을까
있 어도
자 와
적 임
적 이네
전 용
좌 가
챙 겨
처 음
치 로
크 네
포 가
풀 이
하 겠
하 시는
한 승우
해 킹
▁이 천
▁하 실분
▁다 닐
▁보 빨
▁지 누
▁지 마
▁지 명
▁시 노
▁시 진핑
▁진 여신
▁개 똥찬
▁한 숨
▁뭐 있냐
▁마 슈
▁수 요
▁유 우
▁인 상
▁아니 였
▁아니 잖아
▁미 용
▁일 그오
▁신 검
▁잘 한
▁해 봤
▁존나 많네
▁못 이기
▁제 노블
▁비 글
▁올 린거
▁5 위
▁상 시
▁4 인
▁[ 전
▁[ 씨야
▁라 부
▁원 스
▁김 기
▁김 윤
▁김 계란
▁선 호
▁생각 할수록
▁연 생
▁살 면
▁장 갑
▁최 항
▁박 사
▁ᄌ ᄌ
▁드 레기
이라 던데
▁강 진
▁6 명
▁느 려
▁동 시
▁언제 나와
▁의 식
▁20 억
▁추천 해
▁물 마
▁양 념
▁걸 려
▁히 비
▁간 호
▁했 지
▁클 레
▁팔 찌
▁탈 빠
▁백 룡
▁뽑 았다
아니 네
▁형 이
▁터 졌네
▁검 신
▁채 용
▁헤 이
▁킹 탄
▁뭐가 더
▁200 4
▁줄 여
▁얼굴 은
▁넣 을
▁황 제
▁궁금 하다
▁s o
▁S S
▁안나 올
▁브이 포
▁휴 대
▁그럼 ?
▁이쁘 면
▁기분 나
▁술 마
▁빌 보드
▁믿 는다
으니 깐
▁기안 은
▁스킬 포인트
리즈 갤]
▁센 츄
▁있다 ?
▁앱 등
▁데려 올
이였 으면
▁b j
▁n pc
▁어려 움?
ᄒᄒ ᄒᄒ
▁물어 보
▁확률 로
▁멋 진
▁여러 개
▁어떡 함
▁예쁘 네
▁해줘 라
▁어이 없
▁들어와 라
▁U I
▁타격 감
▁정우 영
▁왜저 래
▁피해 자
▁[이 은상
▁함께 라는
크리 트
▁승부 존
▁라비 리스타
▁[포레스텔라 갤]
▁영원 히
▁꿀벌 직캠
러블 리즈갤]
▁임기 영
▁점유 율
- 6
2 기
B S
c t
e l
w an
▁ @@
각 이
갈 사람
개 만
것 처럼
급 인데
까 면
나 보다
넣 으면
대 고
덱 이
되 는거임?
드 시
든 다
래 곤
럼 들아
많 냐
머 신
문 )
미 안
바 퀴
배 경
배 틀
사 냐
어 쩌
업 이
와 야
요 ~
이 오
잔 데
잡 기
재 능
제 작
주 니까
쥬 지
쪽 이
초 기
카 와
켜 서
티 저
페 스
페 이스
하 죠
해 성
해 볼까
▁아 트
▁어 저미
▁오 티
▁오 마이걸
▁안 본
▁안 써
▁안 하는거
▁안 보이
▁그 렸
▁사 렌
▁사 지
는거 임??
▁2 달
▁개 다
▁내 로남불
▁기 공
▁마 왕
▁존 못
▁자 비
▁이거 임
▁못 할
▁못 한다
▁거 냐?
▁부 르는
▁방 에
▁5 1
▁[ 송
▁[ 2020
▁리 쿠
▁시발 ᄏᄏᄏ
▁서 민
▁너무 하네
▁먹 튀
▁실 트
▁세 작
▁세 차
▁살 찐
▁장 르
▁장 전
▁최 주환
하네 ᄏᄏ
▁6 시간
▁10 700
▁않 는다
▁받 음?
▁매 운
▁발 동
▁의 료
이면 서
▁달 린
▁어떻게 든
▁어떻게 됨?
▁물 타기
▁작 성
▁심 지어
▁필 라
▁걸 리
▁걸 리면
▁넘 사
▁클 라스
▁금 전
▁안되 면
▁다음 시즌
▁참 기
▁편 돌이
▁합 류
▁함 정
▁명 언
▁캐릭 이
▁첫 번째
▁0 .5
▁정신 이
▁선수 는
▁ᄇ ᄅ
▁재미 없
▁네이 처
을거 임
▁ᄏᄏᄏᄏᄏᄏᄏᄏᄏᄏᄏᄏᄏᄏᄏᄏᄏᄏᄏᄏᄏᄏᄏᄏ ᄏᄏ
▁ᄏᄏᄏᄏᄏᄏᄏᄏᄏᄏᄏᄏᄏᄏᄏᄏᄏᄏᄏᄏᄏᄏᄏᄏ ᄏᄏᄏᄏᄏᄏᄏᄏᄏᄏᄏᄏᄏ
▁좆같은 거
▁40 대
▁이러 냐
새기 들아
▁어쩌 라고
▁녹 음
▁쌍 베
▁덕 배
▁훈 수
ᅳᅳᅳᅳᅳᅳᅳᅳ ᅳᅳ
▁감스트 가
▁뜬 다
이긴 한데
▁설명 좀
▁jpg .
▁팁 좀
▁프레 데
▁개빡 치네
▁루시 안
▁닌 텐도
-0 8-
▁시그 니
▁이마 트
▁페코 라
▁발로 란트
▁개나 소나
▁[엘롯연합] 승리의엘롯
▁마네 킹
▁언노 운
. 15
3 9
4 9
f f
m i
▁ 깅
갤 스밍
글 램
금 이
난 나
니 는
단 다
대 생
더 가
더 태
던 파
러 는
레 아
려 다
로 이
롯 데
많 은데
몰 입
밥 이
백 수
보 라
사 자
셀 로나
소 감
어 캐
에 어
유 는
음 악
일 수도
잇 냐?
전 도
존 잘
주 주
지 능
지 니
지 ..
체 는
초 반
치 치
캐 가
토 가
토 는
팔 아
하 려나
하 느라
한 이
할 줄
▁아 수
▁나 가는
▁안 자
▁안 하는게
▁안 어울
▁그 레
▁사 냐
▁다 인큐
▁보 너스
▁지 네
▁시 전
▁가 득
▁가 비
▁있 으니까
▁스 태
▁정 전
▁마 녀
▁유 난
▁무 수리
... @.@
▁미 연
▁저 리
▁저 새낀
▁좆 과금
▁못 봄
▁갤 을
▁주 노
▁생 기는
▁소 비
▁소 리가
▁우 동
▁우 아
▁만 났
▁만 듬
▁만 붕이들
▁부 르면
▁도 로
▁알 면
▁5 7
▁중 단
▁더 빙
▁[ 러블리즈갤]
▁레 나
▁남 은거
▁리 티
▁서 비스
▁성 규
▁성 별
▁성 매매
▁맞 아?
▁연 간
▁피 닉스
▁로 고
▁6 개
▁아이 즈
▁현 상
▁10 시에
▁8 천
▁않 네
한거 야
▁글 싸
▁9 2
▁브 레이
▁크 다
▁20 만
▁화 요일
▁병신 인
▁얼마 전에
▁분 해
▁돈 주고
▁ᄌᄂ 웃기네
▁클 랜
▁봐 주세요
▁찍 을
▁잡 혀
▁막 아
▁출 전
ᅳᅳᅳᅳ ᅳ
▁광 화문
▁다음 은
▁목 격
▁목 욕
▁참 교육
▁용 사
▁용 산
토리 아
한데 ?
▁소바 는
해주 실분
▁산 거
▁뭐냐 면
▁경기 력
▁애니 메이션
갤러 들아
▁잘생 기면
보는 곳?
▁아는 사람?
지도 않
▁사이 에
▁고민 중
▁낮 에
▁멜 숙씨
▁이기 야
▁방법 이
▁앱 솔
▁엄청 난
▁문경찬 은
▁에픽 세
▁여친 이
▁꿈 에서
▁득 와
▁저런 거
▁어느정도 임?
▁만든 거
▁뜬 거
▁그나 저나
▁콩 국수
스밍 인증
▁보은 왔
▁누군 가
▁쌈 무
▁자동 차
▁헌 터
▁다크 포
ᅳᅳᅳᅳᅳᅳ 타
▁전체 적으로
▁오재 원
▁로하 스
▁필터 링
▁지무 선
▁페르 소나
▁아쿠 아
▁배윤 정
갤스밍 ]
% 는
? [
O T
m 4
t u
ᄆ ᄋ
ᄉ ᄆᄋᄌ
▁ 듬
▁ 럼
▁ 릿
계 가
구 멍
근 무
꿀 잼
눈 물
답 게
대 냐
대 비
되 지?
드 로
뜨 고
람 쥐
록 시
르 츠
리 콘
릴 거
림 ??
맞 아
먹 는데
목 소리
법 좀
불 편
빠 들
빼 면
세 력
세 운
속 에
시 움
써 야
안 되는
엘 비
유 키
은 건
일 지
있 나?
자 님
자 들은
저 리
전 생
제 목
출 근
타 면
테 크
투 어
픽 츄
하 단
해 질
▁아 네
▁아 조
▁아 현
▁나 죽어
▁1 배수
▁안 받
▁하 더니
▁사 려는데
▁보 이지
▁지 적
▁시 다
▁진 격
▁2 성
▁있 을듯
▁한 수
▁스 스
▁내 면
▁기 생
▁대 비
▁마 스
▁좋 으면
▁좋 음??
▁3 일차
▁인 류
▁인 셉션
▁미 스틱
▁고 래
▁신 영이
▁모 코코
▁소 추
▁소 과금
▁노 꼴
▁야 념
▁부 를
▁도 는
▁알 테
▁중 견
▁누 나가
▁와 파
▁많 지
▁파 원
▁코 르
▁서 바
▁문 피아
▁카 마
▁선 풍기
▁생각 에
▁경 남
▁키 미
▁최 합
▁이제 와서
▁6 화
▁입 술
▁언제 나옴
▁데 모
▁발 악
▁호 이
▁호 랑이
▁우리 학교
▁이런 것도
▁물 고기
▁꼴 리는데
▁심 연
▁블 로그
▁하는 지
▁집 어
▁평 점
ᄏᄏᄏᄏᄏᄏᄏᄏᄏᄏᄏᄏᄏᄏᄏᄏ ᄏᄏ
▁금 딸
▁팔 로
▁잡 으면
▁잡 았다
▁안되 겠다
▁백 섭
▁케 미
▁길 가
▁한국 에
▁한국 여자
▁터 지고
▁잠 재
▁싫 어서
▁써 라
▁애미 가
▁알려 주세요
▁절 망
▁어떤 게
▁엠 씨
▁푸 쉬
▁쉬 워
이었 노
▁쥬 지가
▁정도 로
▁듣 기
▁듀 링
▁침 붕이
▁하지 말고
한다고 ?
▁줘 야
▁활 용
▁농 구
▁콱 )
▁블랙 핑크
▁붕 괴
▁큐 시트
▁아카 데미
지원 금
▁거래 소
▁거래 가능
▁아르 카나
▁ᄉᄉᄉᄉᄉ ᄉ
▁스마 게
정신 나갈
▁전문 가
마이걸 갤]
▁## #
짤드컵 ]
▁필승 조
미주 픽츄
더태 민갤]
) ?[
- 7
. ,
. ?
. F
2 )
? (?
▁ 층
▁ 퀴즈
거 르고
검 색
겠 더라
겼 다
냐 ????
년 전
놔 라
달 려
때 메
라 던데
랐 네
리 긴
린 다고
바 스
바 위
반 인
버 리면
병 원
부 적
브 금
빠 르
수 업
수 인
신 도
쓴 다
앗 음
어 이
에 다가
울 링
인 싸
일 텐데
잇 으면
재 산
점 에서
정 책
줘 야지
진 화
짐 ??
차 이가
참 사
찾 기
쳐 먹고
취 향
한 걸
해 지는
해 본다
히 는거
힘 드네
▁이 대호
▁나 노
▁어 리
▁오 리지
▁그 닥
▁사 정
▁다 는
▁보 관
▁지 급
▁시 동
▁시 부
▁진 던
▁개 구
▁개 창
▁개 같은
▁스 바
▁스 드림
▁뭐 ?
▁뭐 함
▁정 면
▁정 체가
▁마 미
▁마 야
▁무 죄
하는 것
▁자 칭
▁잘 만들
▁이거 도
▁이거 야
▁못 찾
▁갤 로그
▁소 라
▁소 소
▁너 를
▁바 쁘
▁야 숨
▁부 품
▁조 기
▁도 13
▁알 아야
▁요 거
▁와 인
▁와 중에
▁레 오
▁좀 더
▁구 해요
▁파 편
▁코 로
▁맞 짱
▁되 는거임?
▁되 나요?
▁예 지
▁할 수
▁디 발라
▁동 영상
▁감 봉
▁7 4
▁후 에
▁매 치
▁데 레
▁발 생
▁9 7
▁호 옹이
해야 하는데
▁이런 데
▁필 름
▁재밌 었는데
▁철 읍
▁적 게
ᄏᄏᄏᄏᄏᄏᄏᄏᄏᄏᄏᄏᄏᄏᄏᄏ ᄏ
▁풀 콤
▁잡 지
▁ᄀ ᄌ
▁딱 지
ᅳᅳᅳᅳ ᅳ타
▁욕 먹는
▁폭 풍
▁일본 이
▁울 산
▁체 인
▁? )?[
▁환 수
▁일러 로
▁정신 과
▁독 재
▁슈 팅
▁만들 었
▁식 사
▁트레이드 는
▁50 퍼
▁기분 좋
▁풍 성이
▁t v
▁떡밥 이
▁혼자 서
▁앰 생
▁문경찬 이
▁키우 고
야되 냐?
하러 감
▁겆 줌
▁쌍 욕
▁모음 집
▁득 피
▁대학 교
▁생겼 다
▁점핑 캐
▁보라 머리
▁설명 회
▁이재 학
▁ᄎ ᄀ
▁잘생겼 다
어디 서
▁폭원 숭이
지않았 냐
▁크리스 탈
▁이쯤 에서
▁조각 가
▁이명 기
▁버거 킹
▁[11 구역]
▁[공지 ]
▁나주 거
▁리부 트
▁서재 응
▁차은 우
▁데비 존
▁[이은상 ]
. TXT
A R
k m
ᄋ ᄅ
▁ ᅵ
▁ 을때
▁ @@@@
가 노
가 드
갈 듯
곡 은
구 사
꺼 야
꼬 리
나 이트
나 왔는데
낫 다
넣 음
놈 아
단 장
더 스
든 가
떡 락
란 드
련 님
린 지
먹 냐
먹 는다
멘 트
밀 라
배 당
보 수
생 기
서 준
세 움
소 연
여 자가
역 겨
오 자
유 튜버
일 진
있 잖아
자 연
중 독
중 반
차 지
천 사
카 운
커 뮤
택 배
포 는
폭 행
피 곤
하 려는
후 보
▁1 렙
▁오 너
▁오 라
▁안 당
▁안 톤
▁하 려
▁사 막
▁다 는데
▁보 충
▁지 민
▁가 냐?
▁진 명호
▁2 .0
▁개 지
▁한 손
▁한 타
▁마 킹
▁마 리아
▁수 잔
▁3 D
▁3 천원
▁자 제
▁미 궁
▁미 러
▁잘 팔
▁해 주는
▁모 라타
▁소 련
▁노 네
▁야 야
▁방 붕이
▁와 ..
▁[ 라포엠
▁머 고
▁머 임??
▁많 더라
▁레 게
한테 만
▁성 대
▁생각 은
▁경 계
▁경 기는
▁피 에
▁살 고
▁살 찌
▁할 까?
▁사람 만
▁쓰 네
▁로 테
▁불 타는
이라 면서
▁강 력
▁6 7
▁씹 어
▁나오 겠네
▁망 함
사람 들은
▁7 7
▁초 구
▁우리 형
▁브 하
▁빨 고
▁네 덕
▁추천 해줘
▁가능 함
▁얼마 쯤
▁끝 났다
▁누구 보다
▁했 다고
ᄏᄏᄏᄏᄏᄏᄏᄏᄏᄏᄏᄏᄏᄏᄏᄏ ᄏᄏᄏᄏᄏᄏᄏᄏᄏ
▁안되 노
▁11 월
ᅳᅳᅳᅳ 타
▁한국 사
▁욕 하면
▁테 디
▁검 수
▁과 몰입
▁본인 은
▁100 억
▁군 무원
▁명 문
▁하루 카
▁체 육
▁워 크
▁0 .7
가는 중
▁200 50
▁ᄏ ᄐ
▁흑 발
하기 전에
▁빡 쳐서
▁청 원
▁18 일
▁짜 리
▁재미 는
▁정리 해준다
▁쇼 타
▁듣 는데
▁특징 이
▁잘못 된
▁ᄏᄏᄏᄏᄏᄏᄏᄏᄏᄏᄏᄏᄏᄏᄏᄏᄏᄏᄏᄏᄏᄏᄏᄏ ᄏᄏᄏᄏᄏᄏᄏᄏ
▁낮 잠
▁안나오 면
이였 음
▁잦 글램
▁억 지
▁닮 음
▁호감 고닉
▁급식 들
▁타이 탄
▁i p
▁탭 칠플
▁박정 희
▁아니었 음?
▁꾹앰 들
▁품 절
▁u i
▁빌드 업
얼마 나
▁초록 별
▁깝 치
li ve
▁개이 득
▁김진 욱
▁에이티 즈
▁[김요한 ]
살짝 설어
▁[러블리즈갤] 미주픽츄
마이걸갤] 살짝설어
% %
. 10
. 이.
3 2
8 호
E S
c d
n n
▁ ;
▁ 깅이
가 니까
간 다고
걸 스
공 식
공 유
규 모
그 거
기 야
꺼 져
꾸 역
나 니까
남 았다
년 차
노 ??
다 !
대 리
마 블
마 을
발 음
보 정
보 이스
봐 줘
비 틱
산 지
상 에
세 여
시 계
앗 네
았 냐?
에 픽
이 번
이 렇게
접 속
정 화
종 료
진 행
찍 히
창 에
철 수
컷 이
테 라
티 나
팬 티
포 드
플 로
필 드
할 배
호 선
획 득
휴 일
히 기
▁이 말
▁이 럼?
▁나 가리
▁오 고
▁안 쳐
▁하 고싶은
▁그 루
▁그 자체
▁지 어
▁있 구나
▁있 을때
▁개 쩔
▁한 가지
▁근 근
▁스 퀴즈
▁내 고
▁정 국
▁마 구
▁마 력
▁마 오
▁마 창
▁좋 고
▁유 능
▁3 번째
▁인 디
▁좆 됨
▁좆 혁
▁좆 그오
▁전 주
▁해 군
▁주 도
▁주 호
▁공 구
▁공 이
▁너 가
▁야 근데
▁야 알못
▁조 절
▁조 져
▁알 로
▁5 시간
▁구 도
▁구 합니다
▁라 디
▁성 민규
▁생각 인데
▁생각 하니
▁연 금
▁연 예
▁먹 여
▁세 번
▁세 워
▁프 커
▁키 무라
▁드 라이브
▁니 애미
▁몇 임?
▁7 일
▁토 큰
▁글 쓰
▁후 속
하는거 야
▁호 남
▁단 단
▁병신 임
▁어떻게 함?
▁물 고
▁두 배
▁복 잡
▁처 벌
▁당 일
▁양 도
▁양 의지
▁넘 버
▁누구 야?
▁풀 로
▁잡 아야
▁통 제
했다 는
▁태 도
▁폭 로
▁허 브
▁허 언
▁허 용
▁허 경민
▁힘 듬
▁명 장
▁아닌 듯
▁번 개
▁종 합
해주 네
가능 한
▁갤주 가
▁산 적
▁팀 은
▁시간 당
▁빌 다리
▁뿌 린다
▁뭔데 ?
▁늘 어나
▁니네 가
▁가격 이
▁여친 이랑
▁신기 한
▁흥 분
한건 가
▁대단 하네
▁오래 된
▁스카 웃
▁님 들은
▁석 우
▁얍 칸
▁상관 없
하지않 냐?
▁보라 색
▁느낀 게
▁번역 )
▁탭 칠
▁w ar
▁어이 없네
▁스트리 밍
▁통합 공지
▁플레이 어
아는 사람
▁벽 갤
▁먹어 야지
▁줌 들
▁시청자 수
▁애매 한
▁랜덤 짤
▁아라 벨
▁맛있 게
▁게시 글
▁멍청 한
▁브라 질
▁괴물 쥐
▁패널 티
▁06 25
▁스트레 일리
▁[영탁 ]
▁소니 쇼
▁[강다니엘갤] 깨워
▁생각난 건데
▁비글 즈
. i
. gisa
1 )
o g
p u
갈 아
게 더
겠 습니까?
격 이
근 이
까 요?
날 은
동 물
되 도
라 면서
론 트
마 크
매 는
며 ?
미 만
밥 은
백 질
부 족
성 으로
세 기
세 네
세 웠
시 각
시 바
시 상식
아 카
암 ?
언 냐들
업 체
엇 으면
열 차
영 업
요 !
웃 겨
웃 기
을 지
이 /
일 까지
일 자리
잇 다
작 이
저 장
정 글
조 절
죽 여
지 긴
지 막
진 게
집 에서
채 로
철 구
충 새끼들
칭 호
테 마
토 츠
틀 린
팬 미
평 균
포 기
폭 탄
플 은
할 수도
함 이
해 보면
했 지만
▁이 낙
▁이 닝
▁이 와중에
▁아 형
▁나 누
▁오 냐
▁오 도
▁안 개
▁안 열
▁안 와
▁안 해서
▁가 냐
▁가 려
▁가 불
▁2 등
▁한 결
▁대 면
▁없 다는
▁진짜 임?
▁유 식
▁무 능
▁무 빙
▁고 향
▁좆 간
▁좆 되네
▁신 도
▁전 통
▁잘 그
▁이거 나
▁모 동
▁못 사
▁제 노
▁갤 떡
▁소 스
▁부 계정
▁도 티
▁알 지
▁5 g
▁와 시발
▁머 냐?
▁좀 비
▁남 이
▁파 업
▁코 시
▁트 젠
▁원 인
▁맞 출
▁선 정
▁추 격
▁추 는
▁생각 하는데
▁씨발 새끼
▁먹 을까
▁살 이
▁장 착
▁메 슬
▁쓰 니까
▁ᄋ ᄆ
▁드 럽게
▁본 방
▁요즘 에
▁요즘 엔
▁현 무
▁디 파이
▁디 톡스
▁몇 점
▁동 료
▁또 또
▁또 라이
▁8 회
▁반 대로
▁20 %
▁화 내
▁꼴 갤
▁( 속보)
은거 임?
▁돈 은
▁끝 났네
▁죽 고
▁갈 비
▁걸 림?
▁다시 는
▁넘 는
▁빠 전
▁운 명
▁순 대
▁순 애
▁베 아
▁검 마
▁검 열
이냐 ???
하나 봐
▁다른 데
▁울 프
▁써 밋
▁각 각
▁헤 드폰
▁애미 씨발
▁등 이
▁미친 듯이
▁나왔 을때
▁알려 주셈
▁것 들
ᅮᅮ ᅮ
▁돌아 가는
▁돌아 다니
▁시즌 3
▁총 선
▁만들 었는데
▁만들 었다
▁식 상
▁이쁘 지
▁재미 로
라인 업
▁봤 을때
▁영화 관
▁첨 에
▁가축 새끼들
▁공지 사항
▁ᄋᄌ 이지
▁됐 다
투표 부탁
▁완장 들
▁랜 뽑
▁중요 한게
▁몬 린이
▁그리 운
▁상대 가
▁쓴 다
▁길드 전
▁ᄐ ᄌ
▁홀 리
▁샌 디
▁아오 바
▁커여 움
▁충격 적인
▁각성 석
▁ᄃᄃᄃᄃᄃᄃ ᄃᄃ
▁9월 에
▁이래 도
▁오버 워치
▁귀찮 아서
▁너희 들
▁뜸 ?
▁1회 차
스포 )
▁자신 감
▁받는 곳
▁스토 리가
▁ᄌᄅ )
▁역사 상
▁존나웃 겨
▁뱅 드림
▁하마 옷
▁컵 라면
▁아케 인
▁언젠 가
▁죄송 합니다
▁상식 적으로
▁건보 료
▁윤석 열
▁대가 리가
▁아킬레 우스
▁[전 소미
▁프레데 리카
▁[엘롯연합]승리의엘롯 스밍인증왔대호
. 16
. 17
1 000
o o
r a
ᄉ ᄏ
▁ ~~
각 성
감 ??
거 리는거
것 은
겜 잘
기 타
꼬 라지
나 연
다 라
다 보면
대 지
디 시
뜬 거
랭 킹
렌 더
렌 테
로 사
리 언
만 개
모 는
받 는데
발 진
버 퍼
보 임?
보 세요
부 인
비 치
빠 따
삼 이
소 리는
스 만
시 타
애 애
억 이면
요 정
운 영
워 라
유 의
인 것
일 드
일 주
정 병
정 수
중 이네
직 은
칠 때
코 센
코 프
클 로
파 고
포 도
하 구
했 었
▁나 갔
▁1 -1
▁오 디션
▁사 설
▁다 주
▁지 겨
▁지 북이
▁시 녀
▁가 루
▁가 치가
▁진 주
▁개 최
▁개 새끼들
▁한 잔
▁한 줄
▁내 글
▁기 절
▁정 산
▁정 시
▁마 주
▁마 트
▁마 세요
▁3 대장
▁자 괴
▁자 러가
▁미 군
▁일 침
▁저 분
▁전 세
▁전 까지
▁잘 라
▁주 붕이
▁생 파
▁노 량
▁거 를
▁조 명
▁5 .3
▁중 소
▁상 주
▁상 한가
▁리 오
▁트 렌
▁문 명
▁연 서버
▁에 고
▁먹 은거
▁먹 는다
▁얼 티
▁버 러지
▁실 장
▁되 잖아
▁배 트
▁예 선
▁장 군
▁할 일
▁할 때마다
이라 이브
▁강 퇴
▁현 기
▁동 급
▁나오 니까
▁않 을까?
▁치 확
▁7 2
▁발 정
▁9 회
▁의 도
한다 는거
▁커 리
▁커 즈
▁달 창
▁국 산
▁국 제
▁들어 오면
▁귀 걸이
▁위 장
▁블 러
갤] 8/
나오 노
▁방송 이
▁음 색
▁풀 매수
▁팔 로워
▁골 든
▁갑 니다
▁천 둥
▁시작 부터
▁길 어
▁광 탈
했다 .
▁접 수
▁태 어나
▁교 회
하나 보네
▁허 가
▁월 세
▁100 개
▁명 빵
▁엔 경찬
▁0 9
▁밀 고
▁놀 란
▁황 야
▁졸 귀
▁뜨 는데
▁올려 라
▁마지 노
▁50 분
▁인생 은
▁진지 박
▁이정도 로
을거 야
▁개좆 밥
▁만들어 야
▁점검 보상
▁게이 밍
!!!!!!!! !
▁주식 충
▁안나오 나
▁홈 마
▁무료 뽑
▁모든 게
▁그리 워
▁좋은거 임?
▁성능 은
▁어때 서
▁젖 탱이
▁주인 님
▁폐 기
▁담배 피
▁즐 겨
▁바람 의
▁심심 하면
▁셋 팅
▁느끼 는건데
▁몰랐 다
▁오토 바이
▁엉 덩
▁살려 주세요
▁와이 파이
▁개발 자
▁마법 사
▁골라 줘
▁텔 창
에에 에
▁스테 이지
▁꺼져 라
▁드래곤 볼
▁설레 발
▁121. 139
이언 츠
▁[라포엠 ]
. 11
b e
f eat.
u l
ᄆ ᄎ
건 이
기 억
꾹 앰
나 간
나 니
누 난나
느 껴
님 덜
다 르
다 던데
됐 어
러 운
로 써
마 루
말 곤
머 가
무 위키
문 파
미 다
박 한
반 이
받 았는데
배 송
베 는
부 리
분 위기
뻔 했네
상 의
서 비스
승 연
안 내
안 부
안 되네
언 더
올 리고
옵 이
왔 습니다
운 전
인 성
자 살
작 품
잡 으면
즈 키
지 명
찍 찍
천 장
출 시
타 쿠
포 나
▁이 사진
▁이 민우
▁나 야
▁어 머니
▁오 는데
▁안 유진
▁하 고싶은데
▁그 것도
▁사 양
▁보 려고
▁시 총
▁2 대
▁있 긔?
▁기 는
▁유 압
▁무 효니
▁무 실점
▁인 턴
▁인 팁
▁인 파
▁자 소서
▁미 루
▁미 야
▁일 으
▁좆 박
▁제 재
▁공 계
▁공 수
▁비 제
▁생 성
▁소 시
▁5 카
▁재 련
▁[ 한승우
▁언 어
▁남 겜잘
▁시발 ᄏᄏᄏᄏ
▁맞 긴
▁선 별
▁추 진
▁생각 나서
▁경 찬
▁피 쳐
▁키 마
▁키 트
▁장 점이
▁쓰 지
▁돌 림
▁불 리
▁강 팀
이네 ᄏᄏ
▁타 릭
▁타 워
▁아이 스
▁아이 디어
▁현 피
▁디 엠
▁병 크
▁느 림
▁동 점
▁않 고
▁않 은데
▁패 는거
▁감 나
▁감 이
▁7 급
▁글 씨
▁매 그
▁발 음
▁초 급
▁반 바지
▁20 개
▁화 나네
▁여기 까지
▁달 릴
▁때 까지
▁들어 갔
▁들어 왔는데
▁작 곡
▁친 목
▁꼴 찌
▁두 시간
▁위 대한
▁당 하고
▁끝 남
갤] D
▁설 x
▁금 카
▁찍 어야
▁탈 덕
지않 을까
▁케 릭
▁다음 달
▁30 개
▁잠 들
수있 을까
▁용 량
레이 터
▁있는 사람
해주 고
▁쿠 로
▁ᅲᅲ ᅲᅲᅲ
▁놀 라운
▁프로 트
▁이름 은
▁휴 메
▁표 본
▁극 복
▁복귀 했는데
▁중국 몽
▁혐 오스
▁있었 던
▁와꾸 가
▁방법 은
▁M C
▁알아 냄
▁범 위
ᅡᅡ ᅡ
▁으 악
▁K ID
▁엑 박
▁24 H
▁물어 볼
▁활 약
▁생겼 는데
▁ᄐ 7
▁ᄐ ᄑᄋᄌ
▁바이 오
▁탁 또
▁기준 으로
▁햄 탈
▁다운 로드
▁자동 으로
어어 어어
▁녕 이
플레이 어
▁태어 나서
▁(설 x)
▁환상 동화
▁버닝 섭
▁평범 한
삼성 라이온
▁진작 에
▁조상 우
▁안치 홍
▁dr x
▁KID S
( 목)
+ 3
8 7
: 55
: 45
r y
▁ 떤
▁ 었
▁ 었다
감 은
게 티
고 는
끄 고
냐 ..
데 라
되 기
된 게
떴 는데
락 스
랐 는데
러 브
론 토
린 인데
미 페
범 이
보 노
부 여
새 요
세 우스
솔 로
수 생
수 영
승 부
신 병
아 저씨
앰 이
여 단
웅 이
있 던
자 매
저 기
중 대
직 전
진 심
체 크
치 는게
카 톡
커 여
크 고
키 우는
투 구
파 이어
프 릴
프 사
했 을듯
희 재
▁이 강
▁아 사
▁나 면
▁나 성
▁어 윈
▁1 :
▁오 느
▁오 니까
▁오 르는
▁안 끝
▁안 파
▁사 려고
▁보 자마자
▁지 나면
▁가 로
▁가 오
▁가 죽
▁가 세연
▁진 중
▁왜 ?
▁개 노
▁한 일
▁스 탭
▁여 거너
▁정 원
▁좋 을듯
▁없 던데
▁수 업
으로 서
▁유 에
하는 놈
▁3 d
▁자 신이
▁일 로
▁좆 다
▁잘 지
▁잘 하긴
▁해 당
▁해 축
▁못 믿
▁갤 클
▁주 자
▁공 급
▁공 룡
▁애 는
▁비 상
▁비 공개
▁소 용
▁우 미
▁야 린이
▁ᄅᄋ 임?
▁거 면
▁거 유
▁부 엉
▁알 몸
▁요 렌테
▁중 심
▁재 산
▁상 당
▁머 상
▁리 디
▁말 하면
▁문 채원
▁카 오리
▁선 인간
▁연 상
▁씨발 ᄏᄏ
▁버 리
▁타 락
▁아이 고
▁씹 가능
▁10 3
▁않 다
▁치 가
▁글 자
▁반 년
▁의 지
▁단 백질
▁20 살
▁병신 들은
▁병신 새끼들
▁달 러
▁들어 도
???? ?????
▁심 함
▁심 사위
▁얼마 냐
▁삼 재일
▁걸 릴
▁다시 보는
▁날 려
▁음 란
▁싸 운
▁노래 도
▁테 런
▁다음 날
▁터 뜨
▁12 일
▁다른 팀
▁싫 으면
▁함 ??
할때 가
▁명 곡
▁있는 듯
▁써 보
▁각 종
▁15 분
▁헤 으응
▁0 .6
인거 같은데
▁알려 주
▁회 장
▁암 ?
▁해야 됨?
▁급 하게
▁유진 이랑
▁돌아 왔
▁빡 친
▁총 대
▁폴 아웃
▁푸 퀴
▁휴 스턴
▁잘생 겨
▁떨어 져
할까 봐
▁카드 가
▁빅 뱅
해줘 라
▁개꿀 팁
▁샘슨 은
▁차이 점
▁키우 기
▁완장 이
▁챔스 우승
▁끼 면
▁트로 트
▁N TR
▁옆 에서
▁보여 주
▁상황 이
겠는데 ?
▁ᄊᄉᄐᄎ 네
▁퀸 친
▁된 다고
▁찾아 봤는데
하던 가
▁격 겜
▁전설 의
▁장현식 은
▁급식 때
▁공격 력
명이 서
▁느낀 건데
▁90 년대
▁필수 임?
▁미리 보기
▁이것 이
▁개꼴 리는
▁아라 곤
▁고백 )
▁유로 파
▁135 레이드
▁이럴 거면
▁파이 널
대결 )
귀여 워
▁마일리지 로
타이 밍
▁자존 심
▁루피 나
▁최후 의
ig h
▁박세 혁
▁일루 시아
▁알루 코
▁영양 제
▁웅장해 진다
▁김강 열
▁설문 조사
▁오서 경
▁히비 키
▁노량 진
. n
5 천
V S
거 워
고 침
기 의
끄 럽
날 듯
노 ᄏᄏᄏ
더 워
돈 이
둥 세웠
랜 스
립 니다
마 드
마 왕
만 두
맞 은
미 래
봉 퀴
사 대
성 향
세 지
시 노
어 떠
연 결
연 재
열 심히
예 장
오 니까
온 나
은 이
의 서
이 누
자 라
자 원
자 주
장 고
정 령
제 도
종 목
중 엔
찌 찌
처 녀
치 지
커 는
키 세
키 타
타 수
테 오
파 악
하 야
하 진
해 보고
회 복
희 는
▁이 라고
▁이 리스
▁어 필
▁1 조
▁오 동
▁안 꼴
▁안 봤는데
▁그 날
▁그 살
▁보 민
▁시 러
▁있 었다
▁개 막
▁개 망
▁한 승
▁스 무
▁스 페코
▁내 생각
▁뭐 긔
▁마 작
▁마 호
▁없 을듯
▁유 물
▁유 주
▁3 등
▁3 부
▁자 퇴
▁아니 었으면
▁미 카
▁고 증
▁고 릴라
▁일 을
▁존나 재밌
▁제 정신
▁갤 칠플
▁비 번
▁비 웃
▁바 디
▁야 겜
▁거 야?
▁거 르는
▁조 개
▁조 루
▁방 장
▁방 도리
▁5 초
▁5 주년
▁더 니
▁[ 조
▁머 머리
▁많 고
▁레 버
▁서 포터
▁김 밥
▁카 오스
▁에 그
▁얼 코센
▁실 행
▁키 는
▁로 이
▁니 코
▁디 아이콘
▁10 초
스트 리
▁망 호
▁토 모
▁후 편
▁발 렌
▁초 고
▁9 시에
▁확 대
▁반 도
▁여자 도
▁크 면
▁똥 겜
▁얘 기가
▁20 만원
▁네 오
이다 ...
▁친 절
▁꼴 리지
▁틀 드는
▁필 살기
▁질문 있음
▁분 리
▁철 감
ᄏᄏᄏᄏᄏᄏᄏᄏᄏᄏᄏᄏᄏᄏᄏᄏ ᄏᄏᄏᄏᄏ
▁금 일
▁봐 줄
▁루 카
▁싸 이버
▁운 운
▁보고 왔는데
▁막 피
▁아무 래도
▁홍 구
▁한국 의
▁30 명
▁터 지는
▁12 시간
만원 에
▁창 짓
▁있는 지
▁종 류
해주 셈
▁컨 디션
▁준 태
▁흑 마
▁회 원
▁회 피
▁암 것도
▁암 만봐도
▁갤러리 에
▁변 환
▁청 년
▁청 자
ᄀᄀ ᄀ
▁스토리 모드
▁필요 없
▁브이 로그
▁퍼 플
▁찜 삐
게임 즈
▁이쁘 고
▁떨어 짐
▁높 은거
▁m s
▁엘마 는
▁중국 인
▁미쳤 나
좋아 하는
▁한남 충
▁미국 이
▁싱 크로
▁안나오 냐
▁도와 주
▁근첩 들
▁어렵 냐
▁한명 만
안되 냐
▁에이 치
▁어떡 해
▁상관 없음
▁웃기 다
▁합격 자
▁탭 7
▁멤버 들
가요 ??
▁앙 헬
▁지만 아
▁제작 진
▁버프 력
▁아니었 냐
▁캠 페인
▁안쓰 고
▁시키 면
이름 이
▁아스 날
▁담주 에
▁분명 히
ᅳᅳᅳᅳᅳᅳ ᅳ
ᅳᅳᅳᅳᅳᅳ ᅳ타
▁빡세 게
▁추억 의
▁조건 이
▁아깝 다
▁파트 너
▁잠수 함
ᅵᅵ ᅵᅵ
▁카이 저
▁[NC다이노스 갤]
▁핑까 점
▁ᄎᄎ 좀
▁[라비던스 ]
▁슬프 다
어렵 네
▁긔 작
▁예리 한
▁덩 치
▁보은왔어요 (설쉬)
▁에러 코드
pp le
▁고로 시
▁치트 키
▁꾸역 꾸역
▁아돌 라
▁[강다니엘갤]깨워 투표부탁
둥세웠 탁
4 6
] ?(?
a d
e m
u t
▁ 령
▁ 었는데
각 이다
감 사
거 긔
겠 누
고 생
근 첩
긴 게
까 스
낸 다
넘 는
넘 들
네 는
느 끼
단 점
당 은
됐 냐
두 개
두 라
뒤 로
러 쉬
로 서
름 이
말 아
먼 데
멸 망
민 한
버 러지
범 수
보 는게
보 이냐
본 거
블 로
뿐 임
사 는게
성 에
성 욕
성 화
셔 틀
수 면
시 생
씨 는
씹 덕
야 마
였 어?
올 리면
옴 (
유 도
으 신
을 꺼
자 료
자 야
잘 해
줌 이
줌 들이
지 ᄏᄏ
징 징
커 피
키 리
타 이거
통 은
한 척
해 보니
해 진거
했 는지
▁이 론
▁아 ~
▁나 을
▁어 도
▁사 칭
▁사 냐?
▁다 다
▁다 름?
▁보 게
▁보 세요
▁있 게
▁개 같이
▁한 전
▁스 노우
▁기 운
▁수 코토
▁유 대
새끼 도
▁인 맥
▁인 스
▁미 술
▁일 하는
▁저 항
▁좆 데
▁해 봐라
▁모 른
▁모 텔
▁갤 매
▁비 빌
▁비 쌈
▁소 년
▁소 드
▁소 아
▁소 중
▁바 라는
▁야 요
▁부 채
▁알 계
▁알 겠네
▁요 기
▁씨 빨
▁누 워
▁머 전
▁구 간
▁구 별
▁구 입
▁구 해
▁구 한다
▁말 자
▁서 부
▁문 열어
▁김 인
▁실 업
▁살 빠
▁살 자
▁살 까?
▁살 만함?
▁장 인
▁같 으면
하네 ..
▁ᄋ ᄏ
▁ᄌ 도
▁드 릴
▁드 라이
▁6 강
▁타 면
▁현 생
▁디 비
▁10 뽑
▁나오 기
▁나오 나
▁않 아?
▁망 치
▁토 착
▁후 계
▁확 챠
▁반 짝
▁네 캐
해야 할
▁국 방
▁위 키
▁ᄋᄋ ?
▁눈 감
▁죽 었
▁양 산
▁엘 리스
거같 지
잖아 ?
▁찍 은거
▁건 들
▁잡 기
▁홍 콩
▁욕 을
▁속 옷
▁접 고
▁접 었
▁터 져
▁12 00
▁잠 원
▁업 로드
▁허 구
▁편 갤
▁싫 은데
▁뿡 은
▁창 고
▁ᄆ ᄆ
▁엔 진
다는 걸
▁올라 오는
▁컨 포
냐고 ?
▁나왔 음
▁흑 화
▁급 발진
▁봉 염
▁넣 은
▁먼 지
▁변 호사
▁청 춘
▁궁금 함
▁s 7
▁엠 갤
▁식 물
▁퍼 포
게임 은
이었 음?
▁최고 야
▁ᄇ ᄇ
▁D LC
▁희 생
▁ᄆᄐᄎ ??
▁기안 이
▁뿌 릴
▁갔 네
▁수영 장
친구 가
▁말고 는
▁여친 사
▁귀엽 지
▁미래 를
▁인간 적으로
18 0
▁불쌍 하다
▁닮 았
)) ))
▁관심 이
▁호감 도
▁마이너 스
▁세상 이
▁못하 겠음
▁밸 런
▁가끔 씩
메이 징
▁날씨 가
▁올스타 전
▁부럽 네
▁쳐맞 고
▁엘리 시움
▁어디갔 어
▁렌 즈
8/ 13
▁둘이 서
▁배고 파서
하신 분
▁경찰 서
스포 츠
▁아재 들
▁이팀 은
▁10월 에
▁똥꼬 쇼
▁궁금한 점
▁널 널
▁죠 죠
▁텍 사스
▁춘향 이
▁괴수 8호
▁잼민 이들
▁제2 의
▁유부 녀
▁복학 왕
▁mb ti
▁자괴 감
. c
1 등
1 50
3 7
8 9
g v
i m
t w
v i
ᄊ ᄊ
▁ 음?
가 스
가 족
걸 려서
고 소
긴 하지
누 나가
닮 은
돈 으로
되 냐??
득 점
라 시
라 는건
러 감
려 ?
무 지
바 꿈
보 로
봊 돌
색 으로
시 청
신 의
쓰 는게
씨 팔
아 까
아 파트
안 남
안 한
안 하냐
야 해
없 어도
역 전
였 던거
있 었네
자 인데
저 것
점 차
제 외
젤 라
주 머니
중 간
쪽 에
쪽 에서
택 이
패 고
플 이
피 자
핫 산
했 으니
▁이 랬
▁이 민호
▁이 메일
▁아 몬
▁아 몰
▁어 든
▁어 마
▁오 메가
▁그 마
▁그 레이
▁그 린거
▁사 야지
▁보 단
▁시 라
▁가 드
▁진 파
▁2 정
▁2 트
▁한 발
▁뭐 였
▁대 검
▁정 모
▁정 복
▁자 다
▁아니 지만
▁미 쿠
▁고 무
▁신 석
▁신 은
▁신 형
▁전 적
▁잘 되
▁못 하냐
▁주 연
인데 ..
▁공 약
▁비 가
▁바 꿈
▁바 는데
▁우 편
▁만 나는
▁부 심
▁상 반기
▁와 !
▁와 이지
▁4 장
▁리 코
ᅳᅳ ᅳ
▁파 게
▁파 랑
▁코 가
▁영 광
▁영 어로
▁성 향
▁씨발 년들
▁에 버
▁얼 빠
▁피 닉
▁되 는게
▁프 런트
▁키 리
▁쓰 다
▁돌 면
▁ᄌ ᄇ
▁차 지
▁본 진
부터 는
▁입 대
▁디 트
▁10 렙
▁않 노
▁패 고
▁치 마
▁망 해
▁망 해서
▁캐 스팅
▁ᄉᄇ ᄏᄏᄏ
하는거 보면
▁반 드시
▁브 로
▁단 관
▁커 서
▁병신 짓
▁병신 임?
▁병신 같음
▁때 도
▁들어 올
▁짤 이
▁따 리
▁꼴 보기
▁틀 니
▁위 클리
▁복 근
▁복 장
▁재밌 노
▁삼 성이
▁하는 짓
▁엘 베
나오 냐?
▁설 사
▁플 탐
▁플 폼
▁까 이
▁빠 는거
▁볼 수
▁안되 는게
▁통 상
▁쳐 도
▁30 일
▁터 져서
▁터 졌다
▁폭 락
▁폭 주
▁목 숨
하나 요
▁허 접
▁학 벌
▁임 병욱
토리 얼
지마 세요
▁올라 갈
▁철구 랑
▁행 님들
▁젤 리
▁산 맥
▁놀 이
▁암 튼
▁섹 파
▁청 와
▁p k
▁축 제
▁나올 까?
▁나올 때까지
▁슈 화
▁돼 공
▁A pple
11 1
▁높 게
▁실화 ?
▁꼬마 승
▁ᄏᄏᄏᄏᄏᄏᄏᄏᄏᄏᄏᄏᄏᄏᄏᄏᄏᄏᄏᄏᄏᄏᄏᄏ ᄏᄏᄏᄏ
▁칼 로
▁칼 삭
▁봊 친
▁빅 토
▁케이 블
▁미국 에서
▁M D
▁개꿀 이네
▁데려 온
▁개인 적인
▁기다 릴
하러 간다
▁옆 동네
▁읽 고
▁줘 라
▁쌍 둥이
▁인간 이
▁얻 어
▁얻 을
▁늦 은
▁왔다 (설X)
만들 기
▁알고 리즘
▁샌 드
▁뽕 숭아
▁예전 부터
건가 요?
▁ᄎ ᄏ
▁하기 싫
줄알 고
▁귀찮 다
이쁘 다
▁아쉬 움
속도 로
▁39 .7
▁가을 야구
▁잘나 가는
▁워녕 아
▁욱 일기
▁상렬 이
▁[영탁 마갤]
▁이누 야샤
각개 ][
갤]D UMDi
' m
. j
S T
e e
~ 6
▁ 겟
▁ 릭
▁ 는게
가 에
갈 이
곳 에
규 민
기 한
긴 거
네 이
녀 석
대 학
대 는거
도 됨?
돌 리면
될 거
두 기
두 부
때 만
말 을
말 투
문 은
민 지
비 슷
사 나이
섭 은
세 는
스 파
업 적
엘 마
오 지네
왜 케
우 니까
워 크
월 급
이 리
이 었다
일 반
일 어나
있 노?
자 욱
전 화
점 기
점 에
정 돈
져 ?
종 류
좋 겟다
진 국
찍 는
청 소
추 는
포 카
하 라는
한 잔
해 졌
▁이 민
▁이 탈
▁아 버
▁어 버
▁1 주
▁1 -2
▁안 산
▁안 시
▁하 시
▁하 겠다
▁하 한가
▁그 딴
▁사 고싶다
▁보 트
▁가 난
▁가 고싶다
▁진 정
▁개 쌍
▁개 아
▁한 놈
▁한 때
▁한 성
▁여 서
▁대 공
▁대 참사
▁정 발
▁정 배
▁마 공
▁마 신
▁없 냐??
▁무 작
▁존 맛
▁3 달
▁인 우
▁인 지도
▁자 가격
... JPG
▁고 나
▁고 유
▁고 작
▁좆 되
▁전 생
▁전 시
▁못 돌
▁못 자
▁못 하냐?
▁제 우스
▁주 안
▁주 운
▁주 주
▁비 틀
▁소 고기
▁바 ?
▁우 라
▁만 년
▁만 에
▁거 미
▁부 가
▁요 원
▁중 반
▁더 럽게
들이 네
▁[ 20
▁[ 각개][
▁레 시피
▁구 미
▁파 도
▁파 울
▁파 푸
▁파 오후
▁트 통령
▁시발 년아
▁ᄉ ᄆᄋᄌ
▁말 라
▁경 민이
▁되 기
▁세 개
▁세 종
▁세 키로
▁프 롬
▁살 거
▁할 줄
▁메 츠
▁드 레
▁6 인
▁씹 사기
▁7 9
▁토 무
▁언제 나오냐
▁초 밥
▁초 창기
▁하나 하나
▁크 롬
▁단 기
▁손 으로
▁티 원
▁꼴 아
▁질문 받는다
▁삼 탈워
▁관 한
▁양 로
▁걸 려서
거같 아서
▁설 탕
▁플 러스
▁루 미
▁찍 음
▁출 산
▁천 원
▁시작 해서
▁교 대
▁목 걸이
▁괜 춘
▁허 락
▁월 간
▁온 갖
▁용 인
▁군 머
▁채 연이
▁팬 텀
▁종 로
▁종 특
▁등 교
▁쿠 르
▁미친 놈들
▁0 .8
▁환 산
▁ᄂ ᄀ
▁찾 기
▁이벤트 는
▁흑 성배
▁해야 됨
▁봉 인
▁넣 는
▁나온 다고
▁17 년
▁딜 이
▁서버 는
▁선수 맞추기
▁쉬 움
▁유튜브 에서
▁v er
▁a p
▁쥬 짱
▁풍 성
▁높 음
▁떠 서
▁진각 일러
▁믿 음
▁팩트 는
▁근황 ...jpg
▁갔 으면
▁핑 계
▁보내 고
▁사라 진
▁털 어
▁l pl
▁셀 프
▁젠 지가
▁c h
▁어쩌 냐
게이 머
▁억 까
▁싸우 는거
▁보여 주는
▁탄 산
▁탄 압
▁웹 소
▁김치 찌개
▁한명 도
▁벨 라
▁반응 이
▁런 던
▁즐 겜
▁성형 외과
▁보은 을
▁역대급 으로
▁h d
▁ᄃᄃᄃᄃᄃᄃ ᄃ
▁트레 일러
on e
▁장난 감
▁커엽 네
지말 자
▁이것 저것
▁모바일 겜
▁좋았 던
▁개꿀잼 이네
수정 )
▁마나 카
▁지각 [
▁자존 감
▁로켓 펀치
ᄌᄋ )
▁노블 레스
자총 ]
▁합리 적
▁무지 개
▁김유 식
▁냉정 하게
▁휴대 폰
:55 ]
▁에이치 엘비
둥세웠탁 (설쉬)
. ᄏ
. 20
/ 30
4 4
s 7
u s
ᄊ ᄇ
▁ 션
▁ >>
▁ !!!
▁ @@@
각 인
각 인데
것 네
게 이들
고 리
교 사
기 아
긴 했는데
나 다
너 프
높 은
덱 스
동 에
되 나요?
두 근
들 임
려 하는데
망 한
매 칭
먹 금
먹 는게
못 하네
박 는
박 살
받 으
버 기
버 닝
볼 만
비 드
사 삭
살 다
석 환
수 랑
수 치
스 윙
씹 창
안 치고
어 워즈
없 으니
오 베
오 라고
온 이
우 유
위 한
이 자
이 어도
일 이고
입 장에서
있 을때
자 몽
잘 하는
저 브
점 프
준 표
진 출
짤 이
처 가
크 래
탱 크
테 르
합 니
해 봤
헤 더
흑 발
▁아 동
▁나 에게
▁어 메이징
▁1 단
▁오 선
▁오 는거
▁그 치
▁사 투리
▁시 련
▁가 실분
▁있 지?
▁한 곡
▁한 짤
▁여 는
▁뭐 씀?
▁기 네
▁대 진
▁마 루
▁수 전
▁수 해
▁유 형
하는 구나
▁자 산
▁자 켓
▁미 오
▁고 교
▁고 속
▁고 척
▁좆 뉴비
▁전 복
▁해 리
▁모 양
▁비 중
▁소 재
▁우 산
▁야 린
▁야 외
▁야 붕이들
▁거 북
▁부 관
▁도 발
▁도 우
▁알 겠는데
▁5 2
▁요 샌
▁4 k
▁4 000
▁4 시에
▁리 바
▁리 베
▁리 퍼
▁리 프
▁리 플
▁라 라
▁시발 년들아
▁문 어
들어 서
▁연 섭
▁먹 었네
▁버 릴
▁피 아노
▁되 냐??
▁장 엄
▁장 타
▁쓰 다가
▁솔 찍히
▁차 원
▁6 번
▁현 강
▁현 커
▁10 명
▁몇 까지
▁8 6
▁질 다
▁7 년
▁매 주
▁데 우스
▁발 라
▁9 00
▁호 그
▁호 출
▁똥 남아
▁20 일
해야 하는
해야 한다
▁병신 같네
▁들어 서
▁들어 갔는데
▁추천 받음
▁물 류
▁작 아
▁두 근
▁ᄋᄋ ...
▁끝 이
▁죽 일
▁어제 는
▁빠 지
▁풀 업
▁꼬 꼬
▁잡 은
▁들 음
▁11 6
아니 냐??
▁베 타
▁접 었는데
▁잠 을
▁엄 준식
▁찐 오아
▁팬 이
▁체 리
애들 도
▁괜찮 음
▁머리 에
▁나왔 어
이유 는
▁암 흑
▁너네 들
▁넣 어도
▁인증 한다
▁꿀 잠
▁별로 네
▁찬 란
▁술 먹고
▁빌 지
▁정상 이냐
▁정상 이냐?
▁중국 이
▁봤 음
▁봊 질
▁니네 는
..... gif
▁가축 들아
▁캐릭터 가
▁뇌 피셜
▁n 라인
▁끼 워
▁기다 리
▁흥 미
▁기억 이
▁물어 보면
▁유동 이
평가 좀
안되 는데
<< <<
▁노잼 이네
▁젖 닌
▁바이 럴
▁2020 /0
▁이후 에
▁즐 기는
▁사과 문
▁냉 면
▁뽀 록
그래 서
▁든 다
▁메인 퀘
▁유튜버 들
▁액 정
▁힙 스터
▁규 정
ar t
▁냄새 가
▁이리 야
▁김민 교
▁달아 줘
▁최강 자
▁이겼 다
▁프라 임
▁콜로 세움
▁스프 링
▁당신 의
▁스카이 림
▁마츠 리
▁[아이들 갤]DUMDi
▁부유 성
3 은
: 10
O A
i l
v live
ᄎ ᄏ
▁ 텀
가 시
같 던데
갤 플
거 림
걸 어
겟 는데
경 원
구 조
그 렇
까 리
네 ᄏᄏᄏᄏ
다 며
달 면
대 문
데 뷔
됐 으면
렌 즈
만 인데
많 노
먹 엇
못 함?
바 바
법 은
베 이스
브 로
사 관
사 회
사 는데
사 이에
상 품
색 히
서 야
솔 직히
수 용
시 퍼
아 니다
안 된다
양 심
어 치
어 택
어 ??
억 에
여 러
영 혼
오 냐?
와 야지
운 대
울 때
유 전
이 전
일 정
작 전
장 인
정 석
져 스
주 도
주 현
줘 요
줬 네
즈 ]
직 이
진 듯
집 이
쯤 은
차 기
캐 르
콜 라보
키 보드
판 다
팬 이
할 수있는
해 봐라
해 줌?
했 구나
▁이 빨
▁이 스
▁나 지
▁어 림
▁어 을까
▁안 빠
▁그 는
▁지 휘
▁지 새끼
는거 아님?
▁가 구
▁가 이아
▁2 번째
▁2 ,3
▁있 을거
▁개 줌마
▁한 건
▁한 다는
▁한 자리
▁내 역
▁내 보내
▁뭐 하냐?
▁기 하
▁대 게
▁대 행
▁정 후
▁오늘 까지
▁마 기
▁좋 겠노
▁없 는건
▁유 통
▁유 인원
▁무 협
▁아니 긔?
▁좆 물
▁전 남
▁전 함
▁전 부터
▁모 은
▁못 봤
▁못 하는게
인데 요
▁소 모
▁소 희
▁바 란
▁우 려
▁야 갤에서
▁만 하면
▁부 주
▁방 빼
▁5 월
▁요 괴
▁재 개
▁재 화
▁누 누
▁[ 흑발
▁리 니지
▁파 생
▁파 카
▁라 그
▁시발 년
▁추 석
▁에 펙
▁프 롱
▁프 레이
▁살 살
▁예 매
▁장 성우
▁같 다.
▁박 경
▁로 맨
붕이 가
▁타 선
▁타 이거
▁현 식
▁동 인지
▁나오 겠지?
▁받 으
▁토 막
▁초 견
▁점 마
▁화 해
▁커 맨
▁새 기들
▁재밌 을
▁블 리치
▁관 음
▁철 혈
▁양 석환
▁걸 로
▁엘 프
▁평 일
▁ᄌᄂ 잘
▁설 계
ᄏᄏᄏᄏᄏᄏᄏᄏᄏᄏᄏᄏᄏᄏᄏᄏ ᄏᄏᄏᄏ
▁열 매
▁루 탑
▁건 너
▁민 호
▁보고 있는데
지않 노
▁들 었
▁뽑 았
▁약 핑
▁갓 본
▁막 말로
▁11 강
아니 노
▁30 초
▁폭 창
▁폭 파
▁폭 숭이
▁잠 안
▁롤 갤
▁채 우
▁채 집
▁임 롬
▁엔 비
▁문제 야
고있 어
▁종 족
▁쓸 때
▁놀 라
▁팀 전
▁s ns
▁지랄 하네
▁이해 하면
▁폴 크
▁엠 넷
▁슈 라우드
▁기대 됨
▁잇 는데
▁최고 다
▁D M
▁답 장
▁이미 지가
▁귀여 운데
▁빼 박
▁될 까?
30 분
▁알바 가
▁아이돌 라이브
▁한남 이
▁갔 다가
▁샤 먼
하긴 하네
▁굴 러
▁알아 ?
▁공지 에
▁평가 점
▁뇌 가
▁키우 는데
▁엄마 한테
▁f ine
▁님 들이
▁좃 ..
▁랭 매
▁컷 신
▁멋 있
▁챙 기
▁쓴 거
▁나옴 ??
▁바꿔 야
메라 기
▁웃기 지
▁상위 호환
▁알고 보니
▁즐 겁
▁레벨 업
▁띵 군
▁끄 고
▁바르 셀로나
▁폼 이
▁텐 텐
스럽 네
▁최소 한
▁안들어 가
▁역겨 움
▁키스 방
zz zz
▁모의 고사
▁가든 이
▁[오 마이걸갤]살짝설어
▁컬 러
▁ᄋᄀ ᄅ
▁수록 곡
▁오락 실
▁ᄂ짤 녀
▁이우 성
▁마누 라
▁[한승우 ]
▁[흑발 짤드컵]
' s
1 이
3 인데
4 개
F C
N S
h wa
u v
~ 8
ᄇ ᄉ
▁ 뻐
▁ 였
▁ 험
▁ 댐?
건 드
걸 까?
곳 에서
공 연
과 거
글 로
기 운
꾸 라
낌 ?
났 으면
넣 어
닮 음
더 레
돌 릴
두 가
뒤 져
디 코
떳 는데
레 티
로 윈
론 이
롭 다
리 뷰
리 시
린 건
매 치
먼 스
문 의
바 니
방 학
번 역
뻔 함
사 과
상 화
선 을
센 치
셈 ?
셔 야
소 스
스 에서
십 니까?
쓴 거
아 다
아 티
연 기
엿 는데
예 나
올 린
용 은
우 울
은 행
있 나요
전 엔
정 원
정 치
졌 나
준 은
지 각
찍 었는데
철 이
친 년들
크 루
퇴 물
파 딱
페 는
페 도
폭 로
한 끼
한 새끼
함 ..
▁아 근데
▁나 카
▁나 는데
▁나 라가
▁나 루토
▁나 세실
▁1 장
▁오 진다
▁오 징어
▁안 쓸
▁하 니깐
▁하 려는데
▁사 일
▁다 신
▁다 이나
▁보 고싶네
▁지 팡이
는거 같음
▁2 라
▁2 할
▁2 천원
▁개 많네
▁한 끼
▁스 나
▁스 즈
▁뭐 지?
▁뭐 시기
▁기 기
▁정 당
▁정 품
▁마 냥
▁수 십
▁무 기는
▁존 잼
▁3 셋
▁3 스
▁3 월
▁3 할
▁인 피
▁자 도
▁미 녀
▁고 싶
▁저 정도
▁잘 던
▁잘 맞
▁잘 해서
▁이거 봐
▁주 무
▁비 즈
▁소 통
▁거 는
▁거 인
▁올 타임
▁조 리
▁도 아
▁알 티
▁중 력
▁재 생
▁더 쇼
▁상 한
▁4 월
▁[ 삼성라이온
▁머 라고
▁남 견
▁리 옹
▁리 트
▁파 리가
▁라 노
▁성 냥
▁추 미
▁연 말
▁살 아야
▁배 제성
▁장 신
▁장 시환
▁ᄌ 밥
.... ..jpg
▁차 량
▁6 시에
이네 ..
▁니 새끼
▁타 겟
▁씹 새끼들
▁포 갤
▁포 포
▁10 시간
▁몇 렙
▁동 정
▁토 익
▁후 르츠
▁호 크
▁브 라운
▁은 혼
▁단 점이
▁똥 견들
던데 ?
▁20 17
하다 .
▁네 코
▁좋아 함?
▁달 소
▁티 끌
▁분 양
▁처 분
▁적 극
▁갈 리는
▁간 식
▁설 리
▁음 침
▁금 토
▁풀 셋
▁루 키
해도 됨?
▁들 박
▁들 부들
▁막 심
▁통 계
▁갑 분
▁시작 한지
▁30 퍼
▁왔 으면
▁왔 쎄리
▁벌 크업
▁허 위
▁온 거
▁학 살
▁창 모
▁창 키
▁창 술사
▁채 원
▁악 역
기가 능
▁체 지방
▁워 터
▁0 5
▁킹 갓
ᄃᄃᄃᄃ ᄃ
▁봉 사
▁깨 는
▁빡 침
▁그러 게
▁확실 한
▁하는거 냐?
▁50 %
▁잇 음
▁a v
▁높 네
▁항 공
▁기사 단
▁뿌 듯
▁보는 중
▁아까 워
▁똑 같네
▁주식 으로
이어 폰
▁인스타 스토리
▁삼성 생명
▁좌 빨
▁데려 가
▁범 계
▁l g
▁덱 리
▁b d
???????? ??
▁60 렙
▁기억 에
▁랭 겜
하는건 가
▁장현 식이
▁경원 무기
아님 )
▁응원 가
▁격 투
▁원탑 은
▁않았 나
▁ᄇᄉ 들아
........ ........
▁즐 기
▁땡 칠
▁샌 드백
▁민주당 이
▁포기 하고
▁찬또 는
▁안돼 ?
▁키보드 커버
신곡 보은왔
▁좋았 을텐데
▁이딴 거
▁심각 한
▁[강 동호
▁자고 일어
▁리얼 미터
▁게시 물
▁기간 제
▁대결 )
▁아티스트 상
▁플래 티넘
▁에피 소드
▁올림 픽
▁미사 키
힘들 다
▁동양 인
▁정은 원
▁이영 하
▁도감 작
▁어렸 을때
▁블래 스터
▁숨겨 진
▁이낙 연
▁나성 범
. 18
: 50
E N
O R
b le
▁ 낀
▁ 랙
▁ 았
▁ 햇는데
걸 그룹
경 쟁
경 찰
경 기는
고 딩
공 시
구 제
군 데
글 을
급 식
깅 스
나 왓
나 카
나 왔네
내 로
냄 ?
다 닌
달 성
달 라는
돌 리고
되 니
둘 이
든 지
떡 이
랭 이
러 시
력 으로
렸 다고
리 니
마 지막
만 듬
매 직
모 니터
미 랑
밀 어
비 에
사 냐?
선 에서
손 해
수 만
아 르
아 ..
앗 어
애 기
없 어?
여 우
연 예인
오 류
올 까
와 요
왕 이
웨 어
이 들아
이 미지
인 격
일 수록
있 어요
적 인거
좀 해
주 소
질 거
참 여
창 초
찾 음
쳐 먹
초 돌
충 )
카 도
타 점
태 양
택 신
털 이
파 일
필 름
합 시다
해 ...
현 실
혐 오
화 에
회 수
▁이 치
▁아 방
▁나 은듯
▁어 야
▁오 니
▁오 냐?
▁오 만에
▁안 망
▁안 오네
▁안 그래도
▁하 긔
▁그 랜드
▁사 형
▁사 다리
▁다 꾸
▁보 구가
▁지 령
▁지 성
▁시 각
는거 면
▁가 망
▁2 호기
▁개 좋아
▁한 동안
▁한 그오
▁근 갤
▁스 톤
▁내 게
▁마 부
▁유 아
하는 애
▁인 장
▁아니 겠지?
▁미 련
▁미 소
▁미 칠
▁저 지랄
▁신 사
▁못 해도
▁제 네
▁공 기
▁공 모
▁공 팟
▁비 스
▁노 브
▁만 져
▁만 지
▁올 드
▁부 서
▁조 유리
▁도 루
▁5 4
▁재 방
▁머 노
▁리 드
▁리 마스터
▁구 데기
▁파 비
▁문 법
▁원 킬
▁원 거리
▁김 용
▁맞 은
▁맞 춘
▁추 어
들어 가
이랑 은
▁연 계
▁연 휴
▁먹 어서
▁경 영
▁피 로도
▁프 레나
▁프 록시
▁장 영
▁최 다
▁쓰 러
▁로 코
▁돌 리는거
▁드 론
▁불 행
▁포 항
▁입 구
▁입 시
▁동 갤
▁나오 긴
▁나오 는게
▁않 을
▁감 ?
▁글 케
▁호 환
▁우리 랑
▁우리 랜드
▁얘 기는
▁화 룡
▁병신 같
▁달 리기
▁들어 왔
▁들어 와서
▁짤 좀
▁물 총
▁두 려
▁처 맞
▁재밌 긴
▁재밌 지
▁관 종
▁양 반
▁간 장
▁어제 자
▁클 러
▁봐 주셈
▁백 종
▁뽑 음
▁뽑 을까
▁새끼 야
▁통 통
▁쳐 먹
▁던 지는
▁던 린이
▁길 전
라이 크
▁편 입
▁롤 망호
만원 짜리
▁남자 들이
▁군 수
▁악 개
할때 까지
고있 노
▁올라 왔네
▁헤 비
▁좆같 노
▁애미 애비
▁등 산
▁판 테
▁ᅲᅲ ᅲᅲᅲᅲᅲᅲᅲᅲ
▁넣 어야
▁빡 센
▁좋겠다 .
▁그만 해라
▁푸 딩
하자 면
▁올려 서
▁안나 온다
▁T r
이었 구나
▁ᄇ ᄋ
12 3
▁이새끼 가
▁쇼 케이스
하고싶 은
▁왕 자
▁m vp
▁P 0
▁P S
▁P V
▁혐 짤
▁좆같은 점
해줘 야
▁밤 샘
▁알아 보는
▁슼 타
▁슼 없찐
▁K BO
▁현실 적으로
▁질문좀 요
▁녹 화
▁실시간 으로
▁유니 콘
▁C G
▁젖 꼭
▁ᄇᄉ 들
▁김태진 이
▁탁 옵
▁중고 나라
▁협 박
▁2년 전
▁h t
▁신곡 보은왔
an hwa
▁발작 버튼
▁액 션
▁느껴 짐
트리 온
▁스마 일
▁y g
▁메모 리즈
>>>> >
▁다크 소울
▁텔 레
▁개웃 기
▁수상 소감
▁시원 하게
▁드랍 률
▁간단 한
▁모델 링
▁래 퍼
▁일진 들
▁뜬금 없이
▁튜 닝
▁비동의 강간
▁아름 다운
▁스키 즈
▁로갓 하고
▁당당 하게
▁고치 돈
pn g
▁너만 오면
▁61 ,
▁괴담 동
▁개잡 주
▁외노 자
▁전형 적인
▁미용 실
▁[전소미 ]
▁토착 왜
vlive 갤]
- 9
: 20
: 35
U .
b a
g m
t p
u p
▁ .gif
감 정
강 두
게 도
경 엽
고 정
고 양이
군 은
극 장
근 로
꿀 팁
낫 네
내 네
는 듯
늦 게
니 언
달 이
덱 에
돌 아가
동 기
됐 음
딱 지
뜨 는거
레 일
렵 다
만 족
만 따리
맛 에
매 일
방 으로
보 우
보 이지
브 는
샀 다
셋 팅
손 실
수 기
아 줌마
야 돼
여 ??
엽 충
우 라
을 수록
의 도
이 치
주 민
준 호
진 자
질 때
집 중
천 지
카 리
캐 로
키 치
터 지
테 니까
팅 어
판 정
팬 인데
편 은
플 핸
피 치
해 보이
해 진다
했 대
했 어도
현 무
▁이 세
▁이 채
▁이 펙트
▁아 즈
.. txt
▁어 의
▁안 깨
▁안 봄
▁안 이
▁하 려나
▁사 령
▁사 리
▁사 퇴
▁사 나이
▁보 이냐
▁가 보자
▁진 보
▁있 는건
▁한 류
▁마 셈
▁좋 다는
▁없 던
▁없 구나
▁없 나요?
▁수 라
▁유 두
▁무 도
▁무 친
▁자 다가
▁미 는
▁저 지
▁좆 간지
▁전 과
▁잘 했네
▁해 보자
▁해 달라고
▁갤 벤
▁주 영
▁공 성
▁공 황
▁비 참
▁비 판
▁비 하면
▁소 금
▁너 드
▁바 리가
▁우 한
▁야 방
▁만 드네
▁조 커
▁조 지고
▁도 미
▁5 등
▁5 선발
▁상 징
▁4 개월
▁4 500
▁많 던데
▁구 인
▁코 크
▁말 곤
▁원 기
▁원 투
다고 ??
▁김 풍
▁카 메
▁카 이도
▁맞 서
▁맞 음??
▁선 냐
▁생각 도
▁에 너지
▁먹 으니까
▁되 도
▁키 고
▁로 지
▁돌 격
▁불 판
▁본 적이
▁아이 큐
▁씹 게이
▁몇 장
▁8 시간
▁망 령
▁망 천
▁감 탄
▁발 목
▁반 값
▁여자 로
▁외 계
▁달 리는
▁국 회
▁짤 털
▁가능 성이
▁재밌 겠다
인가 ??
▁특 유의
▁눈 을
▁적 중
▁죽 었다
▁양 보
▁걸 리네
▁집 가서
▁히 탄절
▁까 글
▁음 성
▁이상 한데
▁루 사
▁운 이
▁볼 까
지않 음??
▁ᄀ ᄉ
▁11 2
▁골 격
아니 야
▁통 베
▁홍 련
▁천 만
▁형 제
▁모르 겠어
▁광 배
▁30 살
▁터 짐?
▁폭 돼
▁과 정
▁편 지
▁합 의
▁창 작
▁군 정
▁군 주
▁친구 들이랑
▁찐 이야기
▁각 자
▁워 로드
▁등 등
▁맛 있어
▁철구 방송
인거 냐
▁얼굴 만
▁해야 하나
▁너네 도
▁돌아 오
▁지랄 났네
▁18 2
▁18 5
▁폴 리
▁애니 컷
▁짜 장면
▁확실 하게
▁하는거 냐
▁딸 기
▁앚 이
▁메이 릴
▁인생 을
▁재미 있는
▁a k
▁떨어 졌
▁콘 솔
▁싫어 함
▁뿌 려
▁뿌 리
▁있었 음?
▁젠 신병
▁현실 은
▁무료 연
▁마음 을
▁기다 리고
▁비슷 한거
▁깔 아
애미 뒤진
아이 디
▁유동 으로
▁돌려 도
이란 거
▁길드 원
▁저번 주
▁끌 올
이긴 함
▁않았 음?
▁런 닝
▁ᅮᅮ ᅮ
▁아이즈원 은
▁샌 박이
▁갈아 탄
메이 커
▁네이마르 가
▁118 이
▁냉 동
▁조용 한
▁예쁜 데
것같 긔
▁짜증 나네
▁조금 씩
▁빈 집
▁스피 드
▁꾹찜 충
▁살려 줘
▁습 관
▁단체 짤드컵
▁정확 한
▁판매 량
▁부러 움
▁윙 크
▁스토 리는
▁현대 차
▁환상 체
▁올랐 네
▁라이트 닝
버렸 어
▁1.5 배
▁선넘 네
하지말 라고
▁큼 ?
▁라오 루
▁3연 전
▁더러 운
▁스타트 업
▁김정 숙
▁프리미 엄
▁ᄇᄃ ᄇᄃ
마갤]I 'm
▁충무공 좌
▁ᄂᄋᄌ )
▁분위 기가
-08- 13
▁자가격 리
- 8
. s
. y
/ 1
1 은
6 4
7 6
C D
I C
▁ 닝
▁ 었네
가 면서
가 보네
갓 겜
것 다
결 승
결 혼
그 럼?
급 여
난 게
날 씨
남 았는데
내 는거
놔 서
니 네
덕 분에
도 와
도 착
독 기
되 었
디 진
라 구
레 후
렸 던
만 하고
맘 마
매 물
목 표
무 료
보 장
보 려고
사 업
상 을
새 벽
세 로
시 경
시 너지
아 섭
아 ...
야 가
야 말로
오 ?
원 래
유 니폼
의 눈
이 온
이 새끼
일 의
임 ..
자 임
잡 음
장 미
적 이고
전 공
좆 목
지 .
찍 었다
첫 방
최 강
친 년
팔 면
폭 격
프 티콘
하 대
한 수
해 줬으면
해 봤자
했 을까
형 제
형 으로
희 동
▁이 달소
▁아 만
▁어 린이
▁1 기
▁오 가
▁오 로
▁오 르네
▁안 붙
▁안 친
▁안 봐도
▁하 프
▁하 겠네
▁그 릴
▁사 탕
▁사 운드
▁보 리
▁보 성아
▁지 민이
▁시 크
▁시 호
▁가 락
▁가 본
▁2 10
▁2 세트
▁왜 그런
▁개 방
▁개 역겹
▁스 시
▁스 캐
▁내 주
▁뭐 하지
▁뭐 라도
▁뭐 노?
▁기 면
▁대 역
▁정 기
▁좋 았음
▁없 더라
▁없 다.
▁수 용
▁무 좆
▁3 시에
▁3 ~4
▁인 수
▁미 스
▁고 고
▁고 말
▁저 래
▁좆 성
▁신 선
▁전 재산
▁잘 살
▁해 선
▁모 른다
▁못 막
▁못 알아
▁제 거
▁비 타
▁바 키
▁우 와
▁야 념글
▁조 로
▁상 급
▁상 단
▁상 상도
▁와 도
▁와 씨발
▁4 일차
▁머 머
▁레 즈
▁리 는
▁리 타
▁리 저브
▁코 토
▁코 스타
▁코 지마
▁라 멘
▁말 아야
▁서 른
▁선 미
▁선 행
▁생각 하니까
고싶 은거
▁에 포나
▁먹 금
▁먹 는게
▁경 던
▁버 림
▁실 존
▁피 카
▁되 긴
▁세 명
▁세 리에
▁프 2
▁프 엑
▁박 아야
▁ᄌ 같이
▁드 네
▁드 레스
▁이유 ...
▁불 젖
▁타 르
▁타 노스
▁입 력
▁디 게
▁동 이
▁나오 려나
▁8 2
▁않 냐??
▁패 전
▁망 하면
▁계 단
▁감 기
▁감 옥
▁캐 쉬
▁후 임
▁후 후
▁매 트
하는거 ?
▁역 변
▁하나 에
▁9 4
▁의 사가
▁브 더
▁빨 면서
▁크 레이
▁20 렙
이다 ..
해야 되
▁티 가
▁꼴 리게
은거 같은데
▁관 상
▁철 학
▁끝 임?
▁끝 남?
▁끝 난거
▁내일 이
▁내일 까지
▁양 아지
▁하는 애들
▁평 단
▁누구 는
▁누구 한테
▁음 주
▁빠 질
▁별 루
▁안되 서
▁갓 갓
▁11 9
▁응 봉
▁모르 네
▁길 이
했다 는데
▁다음 으로
▁12 시에
▁폭 격
▁검 귀
▁허 삼
▁다른 게
▁뿡 리프
▁슬 기
▁창 원
▁함 부로
▁둘 째
▁찐 으로
▁몰 입
▁좋은 건
▁하루 만
▁헤 딩
▁맛 잇
▁레전드 ...jpg
▁밀 면
▁흑 룡
▁윤 갤
▁윤 미
▁바로 크
▁황 올
▁돌아 와
▁빡 빡
▁그런 게
▁13 9
▁꿀 빨
▁필요 함?
▁사랑 하는
▁잇 지
▁이쁘 노
▁L PL
▁A S
▁아는 척
▁꾸 미
▁특징 )
▁낮 아
▁노트 10
▁공지 )
▁됐 으면
▁범 룡
▁결혼 식
▁선발 로
.2 35
▁슼 망구
▁중요 함
▁성능 이
▁랭 초
▁랭 커
▁가져 가
▁가져 와
▁느금 은
▁정보 근
▁못생 겨서
▁캐밥 이
▁한명 이
▁유저 들
▁웃긴 거
▁웃긴 점
▁안보 여
▁해줘 야
▁그러고 보니까
▁팝 업
▁깡 패
한번 만
▁이득 임?
▁렉 걸
▁진행 중
▁손혁 은
ᄀᄀᄀᄀ ᄀᄀᄀᄀ
▁커엽 다
▁킬 러
▁희망 일자리
▁입장 에선
▁토목 직
레벨 업
▁영혼 의
▁^^ ᅵ발
그런 가
호중 (설쉬)
▁죽여 버리
▁주제 에
▁무리 뉴
▁근개비 들
▁자격 증
▁싸이코 패스
통합 당
▁어나 더
▁아메 리카
▁최원 준
▁117. 20
▁매드 무비
주제 에
▁헤메 코
▁느림 자
) ᄉᄆᄋᄌ
. d
5 개
: 40
? !
? ᄏᄏ
I P
P C
b j
o y
o ve
~ 9
ᄆ ᄐᄎ
ᄉ ᄐ
▁ 료
▁ 씩
가 축
갓 는데
거 네
공 사
공 익
군 연합
그 린
그 레이드
글 도
기 엔
나 우
나 가면
남 순
냈 는데
놓 음
님 을
당 했네
대 나
돌 면
드 냐
드 릴
따 먹
떴 네
뚜 기
롬 들아
르 도
립 스
마 마
만 나면
많 음?
미 로
믿 고
박 을
박 으면
방 식
부 랄
부 를
블 린
비 .
사 단
상 위
선 미
설 치
소 프트
신 발
싸 게
안 은
앤 파이터
어 떡
오 름
와 와
우 즈
운 서
이 용
일 도
임 ᄏᄏᄏ
있 긔
있 나요?
자 한테
잔 다
잡 은
장 이랑
종 이
좆 은
줌 ??
중 국
지 좀
청 원
체 감
카 로
타 석
타 워
터 가
테 랑
톡 방
파 도
하 던거
함 에
해 는데
회 전
희 망
▁이 슬
▁아 고
▁아 베
▁어 두
▁1 세트
▁1 분전
▁오 지는
▁안 키
▁안 떨어
▁안 뜸?
▁그 로
▁보 2
▁보 장
▁보 러가
▁보 고싶은
▁지 상
▁시 가
▁시 는데
▁가 요
▁2 스
▁2 관왕
▁있 으니
▁스 코어
▁여 보
▁여 포
▁대 양
▁대 치
▁정 이
▁좋 았다
▁좋 긴한데
▁무 토
▁3 500
▁3 33
▁자 컨
▁미 세
▁미 인
▁좆 로나
▁신 들
▁신 성
▁신 던전
▁전 승
▁해 골
▁해 준다
▁못 봤는데
▁갤 도
▁갤 집
▁주 냐
▁주 로
▁애 새끼들
▁생 길
▁우 가
▁우 니
▁노 바
▁만 점
▁ᄅᄋ 루
▁부 적
▁알 지?
▁5 3
▁중 급
▁중 세
▁상 받
▁누 워서
▁[ 18
▁[ 더태민갤]
▁리 듬
▁라 소
▁라 스트
▁김 상수
▁씨발 새끼들아
▁에 타
▁경 기가
▁피 셔
▁세 로
▁살 벌
▁쓰 면서
▁박 서준
▁차 가
▁본 거
▁본 격
▁현 철
▁입 는
▁10 번
▁10 위
▁10 50
▁몇 몇
▁동 거
▁8 9
▁8 호
▁7 시간
▁투 척
▁투 탑
▁언제 함?
▁역 배
▁반 영
▁브 라이언
▁빨 면
▁단 식
▁염 병
해야 하나
▁친 일
▁꼴 린다
▁꼴 리는거
▁복 정
▁얼마 냐?
▁웃 는거
▁집 이
▁히 스
▁누구 ?
▁누구 나
▁플 러
▁까 마귀
▁이상 하다
▁빠 졌
▁풀 고
▁루 루
▁탈 코
▁잡 히
▁직 작
▁막 보
▁통 산
▁천 국
▁시작 한다
▁길 드는
▁30 만
▁태 곤
▁12 .9
(설 )
▁목 소리가
▁왔 음
▁잠 이안
▁남자 들은
▁군 필
▁담 시즌
▁첫 방
▁0 3
▁0 4
▁컨 택
가능 ??
▁준 수
▁나왔 노
ᄋᄋ ᄋ
▁사진 이
▁놀 리
말고 는
없는 이유
▁갤러리 로
▁삐 찜
▁s 20
▁그러 냐
▁독 사
▁푸 른
▁충 남
▁딸 이
다니 깐
▁휴 재
▁50 만
▁쉬 고
▁잘생 기
▁ᄇ ᄌ
▁D .
▁19 0
▁쇼 핑
▁받아 도
▁받아 라
던거 같은데
!!!!!!!! !!
하긴 해
▁십 덕
▁데려 오면
▁송 가인
마갤] 8/
▁수준 이
▁링크 좀
▁비슷 하게
???????? ???
▁그리 드
▁그리 폰
▁낼 부터
▁불쌍 하네
▁컷 이
▁g s
▁컨텐츠 가
▁?? :
▁유저 가
▁뿡2 는
▁썩 은
▁땡 칠플
▁하이 퍼
▁씨발련 들
▁야스 오
▁사회 생활
▁길태 견들
▁곳 이
질문 좀
▁방어 력
바이 오
▁기술 직
▁고인물 들
▁당첨 자
▁만드 는거
▁기어 들어
추가 )
▁개웃 김
▁Y G
▁미통당 이
▁윙 족이
지않았 냐?
▁연속 으로
▁그랬 는데
▁참고 로
▁안드 로이드
▁가짜 사나이
▁그리스 로마
▁실적 발표
선택 권
테일 즈
▁직장 인
와이 프
▁토론 토
▁랜선 팬미
▁프린 세스
▁솔직 하게
▁1~ 2
▁인종 차별
▁글러 트니
▁사생 아
초기 화
▁레게 노
▁철감 봉
▁청와 대
▁좃.. 거
) 야구
, 4
- 20
. a
1 개
1 도
: 25
E R
e c
p x
r c
u r
v 4
ᄑ ᄑ
▁ .txt
▁ 펀치
갑 옷
값 이
갓 다
강 사
검 은
것 들이
겠 던데
곳 은
공 무원
그 라
그 립
급 이네
꾸 로
넘 어가
년 만에
노 기
누 르
단 군연합
당 하네
당 한거
대 노
데 가
되 나?
드 름
떳 네
랭 크
마 스크
많 아서
맞 는데
메 달
모 노
모 아서
못 하면
반 대
받 냐?
병 이
병 헌
봤 으면
부 에
부 키
브 가
색 기들
서 요
손 절
스 를
시 +
시 혁
신 들
싫 음
아 맥
아 이즈원
애 플
어 떤
어 그로
여 캐
염 보
오 르네
올 라가
완 성
용 사
우 야
으 며
이 득
이 모
인 지는
입 문
입 니까
작 업
잡 을
적 보
적 자
전 기
제 국
진 입
창 은
충 이들
콘 이
큐 브
키 트
탄 이
특 문
티 뉴
티 아
팀 에
편 집
할 매
할 거같음
해 ~
해 져
해 보니까
해 져서
했 고
회 장
▁이 왕
▁이 시발
▁아 악
▁어 과
▁1 트
▁오 염
▁오 케이
▁오 론토
▁안 갈
▁안 떠
▁안 씀
▁안 읽
▁안 돌아
▁하 혈
▁하 울링
▁사 장님
▁지 웠
▁지 점
▁지 진
▁지 키
▁시 구
▁시 선
▁시 끄러
▁가 질
▁2 d
▁개 멋
▁개 성
▁개 같네
▁개 찐따
▁한 도
▁한 듯
▁한 창
▁정 떨어
▁정 국이
▁오늘 부로
▁수 금
▁수 확
▁수 이오
▁유 벤
▁유 비
하는 건데
▁자 가
▁자 매
▁아니 긔
▁아니 었네
▁미 미
▁미 즈
▁고 개
▁고 오
▁좆 반고
▁전 면
▁전 신
▁전 환
▁잘 까
▁잘 난
▁해 준
▁해 봐야
▁주 라
▁주 목
▁주 황
▁애 잔
▁비 리
▁소 음
▁바 니
▁우 석
▁조 던
▁도 색
▁알 면서
하고 도
▁더 럽
▁상 체
▁레 넥
▁리 벤
▁리 자몽
▁파 악
▁코 트는
▁라 마
▁서 커스
▁성 괴
▁성 소
▁생각 하냐?
▁연 승
▁세 무서
▁배 운
▁같 기도
▁박 용
붕이 는
▁강 사
▁강 열이
▁본 사람
▁니 샤
▁타 석
▁타 케
▁현 시점
▁포 말
▁입 을
▁병 먹금
▁어디 갓
▁어디 가서
▁망 함?
▁감 시
▁글 만
▁ᄉᄇ ᄏᄏᄏᄏ
▁언제 하냐
▁데 헌
▁발 열
▁확 팩
▁크 네
▁화 성
▁페 마갤
해야 되냐
해야 되는거
▁병신 들이
▁달 갤
▁티 샤
▁친 척
▁꼴 박
▁틀 린
▁가능 할까
▁가능 함??
▁( F
▁처 참
▁재밌 었음
▁삼 생
▁삼 탈
▁눈 누난나
▁적 어라
▁양 전
▁걸 리는
▁다시 봐도
▁히 메
▁넘 으면
▁했 냐
▁방송 에
▁이상 하네
▁빠 짐
▁열 면
▁열 혈
▁풀 리면
▁싸 워
▁민 감
▁민 규
▁민 좆
▁탈 것
냐?? ???
▁볼 만한
▁안되 고
▁뽑 아서
▁통 나무
▁출 루
▁출 혈
▁홍 수
▁순 경
▁테 오
▁뒤 짐
▁뒤 졌네
▁접 을
▁30 만원
▁12 8
▁과 일
▁허 문회
▁같은 건
▁같은 게
▁채 원이
▁임 아니
▁임 팩트
할때 도
▁좆같 으면
▁종 전
▁쿠 보
▁쓸 수있
▁처음 엔
▁이벤트 로
인거 임
▁사진 찍
▁알려 준다.
▁놀 랐
▁암 울
▁13 8
▁p v
▁지랄 이네
▁프로 그래
▁애니 는
▁올려 봐
▁50 만원
갤러 리는
게임 이
▁그림 그
000 명
▁ᄆᄐᄎ 임?
▁진각 성
▁정상 적인
▁면 제
▁틀드 썰
▁t he
▁빅 젖
▁인스타 그램
▁샤 이닝
▁좌 완
▁좌 우
친구 들
▁새로 고침
▁빵 집
▁l cd
▁은근 슬
자리 에
▁씹덕 겜
▁꿈 을
▁ᅲ ..
▁많은 듯
▁불쌍 함
▁언급 도
▁득 2
▁대기 실
▁대기 중
▁보지 에
▁ᄉᄐᄎ ?
▁안좋 은거
▁김태진 은
▁옴 걸
▁칠 흑
▁i s
▁갈아 탈
▁1등 급
▁냉 장고
▁제목 이
▁슈퍼 엠
▁신경 안
▁맞추 면
▁발작 하는
해줄 게
▁도시 2
▁캠 핑
▁접속 이
▁손혁 이
▁ᄉᄉᄉᄉᄉ ᄉᄉ
▁효과 가
▁퓨 처
▁스펙 업
▁노트20 울트라
▁햇 빛
++ ++
▁해본 사람
▁무사 시
생겼 네
▁시그 널
▁박지 현
▁범죄 자
▁이명 박
▁앨 리스
▁삭 발
▁혼란 한
▁녀 석
▁양심고백 )
▁뒤집 어
필독 )
▁마카 롱
▁공산 주의
▁다만 악
▁시아 준수
▁오리지 널
▁블러 드
igh t
▁얼코센 블
▁샤먼 킹
▁추어 탕
▁토착왜 구
▁찐이야기 둥세웠탁(설쉬)
% 가
4 2
i ke
m b
ᄇ ᄀ
ᄐ ᄏ
▁ 댐
▁ 딩
▁ 줬으면
가 이드
감 을
갔 을때
강 림
개 꿀
계 수
공 학
과 제
교 행
구 경
구 먼
껴 서
낫 냐
단 위
대 만
대 는데
덤 덤
데 나
돌 리는
되 는건
드 벨
드 래곤
들 중에
때 리
뜨 는데
뜬 다
라 랑
란 게
램 블
레 는
만 한게
말 자
머 야
메 모
메 이드
몸 매
못 하고
문 경찬
문 열어
물 에
밀 리
바 엔
방 역
보 조
볼 까?
부 른
부 활
분 은
비 서
사 에서
성 호
셔 널
속 에서
스 위
식 스
야 하냐
연 구
였 긔
외 로
우 스가
울 듯
원 딜
윙 에게
유 나
을 가
이 미
이 한테
인 연
인 정
일 자
입 는
입 니까?
있 었으면
자 리가
재 업
저 는
졌 냐?
조 는
주 전
줌 은
지 에서
짱 깨
출 발
치 냐?
카 라
카 메라
크 보
키 키
팬 츠
폭 스
하 우스
할 일
할 라고
해 달라고
햇 노
현 식
호 모
▁이 오
▁이 원
▁아 루
▁아 유미
▁나 년
▁나 다
▁어 시
▁1 코
▁오 공
▁오 글
▁오 름
▁안 접
▁안 는데
▁안 온다
▁하 세요
▁그 대
▁사 이다
▁다 키
▁보 던
▁지 덱
▁시 킬
▁2 .2
▁있 는거임?
▁개 악
▁여 격
▁기 프티콘
▁마 딜
▁마 히로
▁없 냐고
▁수 물
▁유 용
▁유 재
▁무 당
▁자 면
▁미 식
▁고 독
▁일 판
▁신 문고
▁전 멸
▁전 차
▁잘 함?
▁존나 안
▁모 에
▁모 카
▁비 유
▁비 천
▁생 체
▁소 장
▁우 타
▁노 려
▁야 마
▁야 한거
▁야 마토
▁만 세
▁올 인
▁올 해도
▁올 리기
▁조 교
▁알 레
하고 나서
하고 있네
▁상 성
▁와 이스
▁[ 사
▁[ 슈
▁좀 마
▁구 현
▁파 람
▁트 래
▁트 페미
▁말 에
▁카 나
▁카 타
▁선 구
▁연 희
▁버 스타
▁실 사
▁피 어
▁키 면
▁장 터
▁같 긴
▁할 로윈
▁최 하
▁메 갤
▁ᄋ ᄂ
▁강 종
▁이번 에는
▁현 시각
▁입 니다.
▁디 럭스
▁병 화
▁10 판
▁않 는데
▁패 싱
▁후 드
▁매 달
▁반 갑
▁의 욕
▁호 미페
▁브 실
▁은 지
같은데 ?
▁새 로나
▁때 리
▁들어 간다
▁들어 왔다
▁이런 식으로
▁두 마리
▁가능 하다
▁돈 좀
▁돈 으로
▁당 함
▁웃 는
▁웃 어
▁양 평
▁하는 말
거같 노
▁어제 도
▁설 거지
ᄏᄏᄏᄏᄏᄏᄏᄏᄏᄏᄏᄏᄏᄏᄏᄏ ᄏᄏᄏᄏᄏᄏᄏᄏ
▁음 중
▁금 액
▁빠 지면
▁루 친
▁루 크
▁건 가
▁민 증
▁잡 는거
▁뽑 는게
▁갓 반인
▁출 격
▁출 금
▁케 타
▁모르 면
▁시작 했다
▁순 삭
▁접 어
▁접 음
구나 ...
▁폭 식
▁검 정
▁과 로사
▁합 쳐서
▁뿡 3
▁용 느
▁용 접
▁악 용
▁친구 는
▁울 고
▁워 존
10 시
▁흑 잔
▁얼굴 도
▁얼굴 로
▁나만 의
▁암 속
▁깨 면
▁프로 게이머
▁엠 생
▁별로 야
▁딸 치는
▁트레이드 가
▁50 개
이었 지
▁16 00
▁v pn
생각 함
▁디시 에서
12 9
▁풍 선
▁붙 은
▁쇼 챔
▁마이 크로
을거 면
▁개좆 같이
▁만들어 봄
▁사기 캐
▁똑 같음
▁똑 같은거
▁똑 바로
▁미국 은
해줘 서
▁떡밥 은
▁생일 풍
▁c pu
▁o f
▁모든 걸
▁비슷 하네
▁전부 다
▁대단 한게
▁보여 줘
▁탄 생
▁24 0
▁릴 레이
▁못생 김
▁상대 방
▁조합 이
▁ᄑ ᄉᄐᄎ
안되 나
▁감스트 는
▁폐 허
▁상관 없는데
▁컨셉 이
만들 면
▁땡 겨
▁대가리 깨
▁띵 작
▁칰 윙에게
▁올스타 를
스러 움
▁끄 는
▁다르 지
▁넥 플
▁먹어 본
▁리세 마라
▁아니었 냐?
▁일주일 에
▁넷 마블
▁내용 이
▁커엽 노
▁귀찮 아
▁한정 판
▁미니 게임
년도 에
▁이것 만
▁레드 벨
▁김민 식
▁김민 주
▁윤지 야
▁알았 어
▁역겹 다
아아아아 아아아아
▁윙 )야구
▁한글 화
▁이적 시장
▁편집 자
▁이태 원
▁3위 신
▁공포 영화
▁혁 준이
될까 요
▁악플 러
새키 들
!? !?
▁클래 스
▁코미 디
▁가까 이
▁트레이 너
▁김지 찬
▁아틀 레티
:0 5
▁소화 제
▁프리미 어
▁튼 튼
▁살다 살다
▁별론 데
▁야무 치
▁방방 봐
▁브레이 브
▁야요 이
▁요기 요
:35 ]
▁윤미 향
▁어과 초
▁윙)야구 혁명
- 이
- 15
. 19
/ 7
1 인데
7 4
B A
F P
L O
O D
g e
h d
m c
o .
t a
▁ 겼
▁ 틴
▁ 옴?
▁ 획득
가 구
갈 거
갈 게
갑 주
개 장
건 담
겠 죠
경 영
과 는
괴 물
교 통
국 민
길 레
김 밥
끼 들
나 냐?
넘 기
넣 는
노 는
놈 도
느 냐
다 스
단 거
더 라고
도 날
도 스
두 산
드 롭
드 디어
따 따
뚜 뚜
라 노
레 리
마 우스
머 는
먹 냐?
먹 으러
몇 개
받 는게
방 향
변 신
보 여서
부 장
불 어
비 로
비 하
빨 로
사 님
사 유
사 카
사 는거
상 에서
상 으로
생 기면
성 과
성 년
송 이
쇼 쇼
수 에
순 서
슬 링
승 민
시 공
시 영
써 ?
씩 만
알 로
애 도
애 서
앰 들은
업 는
엇 노
었 나?
에 대
엑 스
연 생
오 를
웃 김
웃 음
워 요
인 비
인 다고
임 이
입 력
정 액
정 후
조 지
좀 ..
좋 고
주 석
증 가
진 다고
차 네
치 즈
케 트
크 면
클 리어
타 도
태 형
턴 킬
패 널
포 지션
피 엘
할 라
할 뻔
함 을
항 전
해 봐야
햇 으면
현 진
▁이 수
▁이 클
.. ??
▁1 실점
▁안 댐
▁안 뒤
▁안 철수
▁하 잖아
▁하 냐??
▁보 변
▁지 름
▁가 리
▁진 리
▁있 지만
▁있 겠지?
▁왜 지
▁개 부
▁개 신
▁한 적
▁한 방에
▁스 이
▁스 탑
▁스 텔라
▁내 장
▁내 새끼
▁뭐 할까
▁대 딸
▁대 본
▁대 여
▁대 우
▁대 규모
▁마 른
▁없 찐
▁없 제?
▁수 명
▁유 야
▁유 혹
▁유 전자
▁무 현
▁무 자본
하는 놈들
▁3 초
▁인 바디
▁자 캐
▁미 투
▁고 를
▁신 맵
▁전 번
▁잘 만든
▁모 유
▁모 아야
▁갤 창
▁주 짓
▁애 완
▁비 기
▁비 문학
▁생 방송
▁생 겨서
▁우 람
▁노 리는
▁야 근
▁ᄅᄋ ?
▁거 점
▁거 꾸로
▁부 갤
▁도 10
▁방 식
▁5 기
▁씨 이발
▁더 위
▁상 세
▁와 카
▁머 장
▁레 비
▁레 깅스
▁남 동생
▁리 츠
▁구 림?
▁코 리아
▁코 리안
▁말 랑
▁서 류
▁원 스토어
▁김 다
▁김 웅
▁맞 지??
▁선 방
▁생각 난다
▁먹 냐
▁먹 네
▁먹 음?
▁버 리는
▁실 력이
▁되 겠다
▁배 리나
▁장 문
▁최 면
▁쓰 게
▁쓰 자
▁박 는
▁박 을
▁솔 방
이라 매
이네 ?
▁타 투
▁아이 오
▁입 사
▁몇 위
▁받 기
▁치 매
▁망 하고
▁감 당
▁감 전
▁토 크
▁매 년
▁투 샷
▁투 수가
▁하나 더
▁반 찬
▁여자 의
▁여자 들한테
▁브 이라이브
▁똥 양
▁화 폐
▁여기 로
▁짤 라
▁귀 족
▁따 는
▁따 이
▁따 먹고
▁물 공
▁싶 다.
▁두 가지
▁얼마 까지
▁질문 이
▁분 홍
더라 ?
▁양 손
▁했 을때
▁팔 았는데
▁찍 기
▁민 아
▁볼 게
▁잡 다
▁약 코
▁홍 대
▁홍 예
▁순 정
▁30 뽑
▁30 억
▁터 지네
▁태 워
▁태 진
▁12 2
▁과 대
▁편 안
▁편 함
▁싫 긔
▁슬 리
▁울 어
▁팬 들이
▁각 도
▁체 셔
▁헬 프
▁올라 가면
▁괜찮 겠습니까?
▁맛 있음
▁줄 줄
인거 지
▁추천좀 요
▁시간 을
▁빡 치
▁섹 드립
▁어떤 지
▁축 리웹
▁나올 때마다
▁푸 는
▁뜨 거운
▁만들 지
있는 지
▁17 살
▁딜 량
▁로아 가
▁D R
▁답 은
▁재미 없어
▁만화 는
▁A K
▁항 아리
▁ᄆᄐᄎ 냐
▁고닉 이
▁혐 혼
▁침 풍
▁칼 싸개
▁봤 던
▁봤 어
▁아이돌 이
▁40 억
▁이러 는거
▁케이 크
▁효 니
▁맥 날
린거 임?
▁첨 보네
▁나와 ?
▁키우 는게
▁문재 인은
▁야구 선수
▁잦 듀
▁엑 스트라
▁오래 걸
▁혜 수
▁B B
▁쌍 도
하지마 세요
▁도와 줄
▁ᄀᄎ 음?
▁응원 법
▁여러 분들
▁정치 인
안되 는거
▁홀 나
▁뛰 는
만들 고
▁외질 은
▁다행 이네
▁되는거 지?
▁스크 램블
▁팝 창
▁500 개
▁이재 원
▁지지율 이
▁짜증 남
▁압 타
▁맞추 고
▁x x
▁오르 페
▁섬 마
▁하드 리셋
▁힙 갤
▁어디갔 노
▁안타 까
▁애매 하게
▁오버 롤
▁와이 프
▁그립 읍니다
▁스트리머 들
토미 나미
.6 2
▁습 격
▁더블 헤더
▁능력 치
▁안뜨 네
▁자체 를
▁영업 이익
▁쓸만 한거
노트 20
ᅡᅡᅡᅡ ᅡᅡᅡᅡ
▁계산 기
할꺼 면
브이 갤]
▁데려오 자
▁튜 토리얼
▁바퀴 벌레
▁엘사 님
▁아크 릴
▁ᄀᄀᄀ ᄀ
▁정신나갈 거같애
▁쓰리 런
ts d
▁오디 세우스
▁스튜 디오
▁찐팬 상
▁혼다 강
▁샷 건
...@.@ ...
▁황야 여단
▁마지노 선
승연 vlive갤]
:45 ]
▁상당 히
▁김인 태
:10 ]
▁라노 벨
▁주영 (설x)
▁크레이 그
우즈 (설x)
승연vlive갤] 더
/ 이/
1 년
2 차
3 4
6 6
< --
G E
L B
O !
T V
t er
▁ 력
▁ 셔츠
▁ 냥이
갔 냐
갔 어
개 추
갱 신
거 리네
계 산
과 의
구 걸
구 이
깅 이들
까 서
날 인데
남 들
늘 어
님 도
당 에
당 첨
당 했다
된 건
드 나
때 려
때 보다
뜨 냐
라 네
레 즈
률 이
리 런
린 다는
링 은
마 사
마 리아
만 보고
만 한데
멍 청
메 시
면 접
반 데
배 포
보 아
보 호
본 기
부 름
부 모
분 위
브 스
블 러
블 럭
빵 이
성 장
세 일
시 러
실 수
아 머
앤 오프
야 겠네
없 을
었 던거
엑 밥
연 출
예 쁜
올 랐
왕 은
외 형
우 준
율 이
응 원
인 형
일 찍
임 ????
잇 노
작 용
재 훈
전 력
조 정
즈 도
짤 .jpg
체 험
캡 쳐
케 미
태 일
터 지면
테 가
티 지
패 는거
하 마
한 애들
할 수잇
했 누
▁이 고
▁이 홍
▁이 중에
▁아 는거
▁아 스트
▁나 빠
▁나 이스
▁어 노
▁어 라
▁1 대
▁1 섭
▁1 .1
▁안 짤
▁안 하
▁하 겠지?
▁하 반기
▁사 신
▁다 님
▁보 아
▁지 정
▁2 층
▁개 짜증
▁스 꼴
▁스 엠
▁스 와이프
▁기 숙
▁기 초
▁대 군
▁대 성
▁대 호
▁정 통
▁마 치
▁마 프
▁마 사지
▁없 어요
▁수 간
▁수 동
▁무 장
▁존 좋
하는 애들은
▁자 아
▁자 자
... ᄅᄋ
▁고 우석
▁일 시
▁저 따
▁저 스
▁신 체
▁신 나는
▁전 광
▁잘 하냐
▁제 조
▁갤 7
▁주 냐?
▁주 는게
▁생 물
▁야 호
▁올 렸는데
▁부 스터
▁조 직
▁조 현
▁도 구
▁알 라
▁알 칸
▁알 현
▁재 림
▁와 씨
▁4 차
▁[ 22
▁머 구
▁머 라
▁머 포
▁남 미
▁리 노
▁구 자욱
▁파 츠
▁파 는거
▁파 리는
▁코 트가
▁트 랙
▁서 피스
▁문 서
▁김 도
▁맞 을
▁맞 잖아
▁추 팔
▁에 라이
▁얼 버기
▁실 책
▁되 려나
▁불 고기
▁강 등
▁강 서
▁6 만
▁니 아
▁디 케이
▁느 웅
▁10 6
▁10 대
▁동 성
▁않 습니다
▁않 음??
스트 림
▁받 네
▁질 는데
사람 들이
▁7 번
▁7 천
▁캐 논
▁토 레스
▁매 니아
▁데 몬
▁초 등학생
▁의 원
▁호 로
▁빨 래
이야 ~
▁좋아 죽
해야 되는데
▁병신 같이
▁때 부터
▁들어 본
▁위 쳐
▁위 주로
▁복 숭아
▁가능 한가
▁돈 버
▁재밌 었다
하는데 ?
▁죽 이는
▁죽 고싶다
다가 도
▁평 자
▁간 당
▁플 뷰
▁방송 켜
▁이상 은
▁팔 라
▁찍 어서
▁민 교
지않 아
▁백 마
▁막 판
▁골 프
▁출 장
▁홍 옥
▁노래 를
▁천 만원
▁형 아
▁순 식
▁순 다라
▁던 공
▁베 네
▁욕 설
▁접 근
▁교 사
▁12 1
▁폭 등
▁잠 만
▁과 외
▁허 무
▁임 무
▁둘 러
▁명 장면
▁몰 락
▁엔 드
▁꾹 줌마
▁각 잡고
▁올라 오면
▁올라 왔다
▁괜찮 다
▁킹 덤
▁혼 내
▁놈 은
▁윤 성
▁러 닝
▁황 교
▁입갤 ᄏᄏ
▁있음 ???
▁ᄊ ᄀᄂ
▁폴 센
▁슈 브
▁올려 주세요
▁챔 프
▁스트 존
▁돼 지고
▁프리 티
▁L E
▁+ +
▁A P
▁떨어 지는거
▁레이드 는
▁이정도 는
▁꺼 억
▁면 스
▁중국 은
▁될 거
▁뿌 리는
▁봤 냐?
▁봤 으면
좋아 요
!!!!!!!! !!!
▁멀 한
▁쥐 어
▁닉 값
▁평가 가
▁늒네 인데
▁수비 는
▁겆 줌들
▁개추 좀
.0 7
▁웨 이
▁e x
▁2008 11
▁쉽 다
▁유저 수
▁격 기
▁의미 없는
▁바이 든
▁상관 없이
▁혈 액
▁다니 는데
▁2차 전
▁권 력
▁축구 선수
▁농 협
▁룩 딸
▁공략 글
▁캡 처
▁최대 한
▁회사 에서
▁주작 기
▁출근 길
▁보기 엔
▁압 박
▁염퀴 들이
▁눈물 이
▁의사 들
▁빙 의
▁레드 카펫
▁인터넷 에서
▁김민 성
▁핸 드
▁사귀 면
▁녕 데라
▁제로 원
▁개웃 기노
나왔 으면
▁저장 용
▁미치 겠네
▁버티 면
아프 다
▁럽 코
▁우르 크
▁힘드 냐
주세 여
▁쿠키 런
▁인구 수
무섭 네
▁경원비 봉
▁비행 기
▁노리 개
▁김대 중
▁우리나 라는
▁어지간 히
▁누가이 김?
▁빨갱 이
▁자석 펫
▁자비 처
▁개창 국
▁ᄎᄀ ᄇᄅ
▁무작 위
▁fine 신곡보은왔
▁클러 치
▁CG V
▁fine신곡보은왔 호중(설쉬)
' 가
. 리
1 명
1 일
3 이
5 6
L E
i r
m a
n o
▁ ᅥ
▁ 았다
▁ 졌네
▁ 졌다
간 이
갈 래
같 냐?
개 씨발
건 은
것 좀
공 대
글 만
금 액
기 르
기 회
김 태
까 들
냐 는
논 리
놔 도
다 닥
다 수
당 함?
데 리고
되 겠네
된 듯
될 까?
드 루
들 음
따 고
마 트
만 하네
모 의
모 토
미 도
민 정
박 제
버 릴까
벨 트
보 긔
복 각
본 인
봐 ?
봤 을때
비 만
사 원
살 려
삼 진
샘 슨
소 에
속 이
수 수
스 드
싱 크
쓸 까
쓸 모
악 마
애 랑
야 할
어 마
없 애
었 구나
였 나?
완 장
왕 국
우 주
우 스는
울 어
원 중
위 에서
응 애
이 틀
이 스트
있 지?
자 만
자 신
자 위
자 라고
재 련
재 현
절 대
정 국
제 비
제 트
진 용
질 까
차 훈
찬 빈
천 국
천 재
체 로
초 대
초 코
츠 키
치 다
치 도
퀴 들이
파 스
편 이
프 리카
픽 이
하 스
한 길
한 것도
해 가
해 설
해 지네
해 지면
해 드림
했 어야
했 나보네
헌 터
▁이 니
▁아 군
▁아 끼
▁아 ᄏᄏᄏ
▁아 파서
▁나 주환
▁어 드
▁1 %
▁1 사
▁1 월
▁안 찍
▁안 가네
▁안 궁금
▁사 또
▁사 라고
▁사 고싶은데
▁사 재기
▁다 마
▁보 갤
▁보 나
▁보 고싶은데
▁지 내
▁지 른
▁지 린다
▁지 우고
는거 봐
▁가 시
▁가 봤는데
▁2 점
▁2 30
▁있 다가
▁개 당
▁개 구리
▁개 극혐
▁스 탈
▁여 지
▁내 마
▁내 구도
▁뭐 사
▁기 한
▁대 략
▁대 물
▁오늘 경기
▁좋 을까?
▁없 지만
▁없 노?
▁수 는
으로 써
▁무 소
하는 년들
▁3 관왕
▁인 력
▁인 질
▁자 빠
▁아니 노?
▁미 프
▁미 라클
▁고 점
▁저 수지
▁좆 경
▁좆 제
▁좆 되는
▁좆 됐네
▁전 작
▁전 지
▁잘 한다고
▁모 욕
▁못 고
▁못 넘
▁주 력
▁공 허
▁애 드
▁비 구니
▁생 김?
▁소 뱅
▁바 면
▁바 연
▁우 체
▁우 규민
▁노 부
▁거 대
▁거 지?
▁조 타
▁도 라
▁도 이
▁알 갤
▁지금 쯤
▁5 퍼
▁5 회
▁5 이닝
▁중 립
▁재 검
▁상 호
▁와 ...
▁4 세대
▁[ S
▁[ 12
▁레 몬
▁구 역
▁구 축
▁라 운지
▁말 씀
▁김 .
▁카 단
▁카 피
▁맞 긔
▁맞 나?
▁경 비
▁실 세
▁배 너
▁메 달
▁돌 리는데
▁ᄌ 같다
▁불 로
▁6 키노
▁포 긔
▁입 으면
▁병 휘
▁몇 정도
▁동 부
▁7 명
▁ᄉᄇ ..
▁투 코
▁초 등학교
▁호 주
▁여자 애들
▁브 베
▁브 사가
▁손 혜원
▁좋아 하네
▁좋아 했는데
▁염 경엽
▁달 작
▁달 리면
▁때 리고
▁들어 라
▁따 고
▁틀 고
▁심 함?
▁당 명
▁블 신
이지 ??
▁걸 까
▁걸 판
▁히 는
나오 니까
▁설 현
▁봐 주
▁풀 리
▁루 틴
▁싸 지
▁민 족
▁탈 뿡
지않 냐??
아니 야?
▁케 인
▁케 오베
▁홍 건
▁천 안
▁시작 하고
▁이벤 균열
▁테 두리
▁뒤 진거
▁뒤 졌다
▁속 발음
▁접 는
▁접 어야
▁목 마
▁업 무
▁본인 쟝
▁100 렙
수있 다
▁친구 들이
▁찐 텐
을때 까지
▁꾹 릴라
▁문제 네
▁워 너비
▁캐릭 은
▁올라 와
해주 는거
▁킹 스
▁킹 해킹
인거 지?
▁알려 주는
▁절 대로
▁놀 람
▁놀 러가
▁윤 수
▁러 블
▁13 00
▁정신 승리
▁18 년
▁푸 거
▁올려 주
▁하는거 야?
▁밥 값
▁표 기
▁유튜브 는
▁귀여 우면
000 개
▁떨어 지네
▁옷 이
하고싶 네
▁왕 의
▁중국 에서
▁듀 블
▁꼬마 는
▁봤 냐
▁있다 는데
▁와꾸 는
▁육 덕
▁M V
▁비트 코인
▁비트 앤파이터
▁보내 는데
▁사라 짐?
▁완장 아
▁22 1.
▁뭐임 ???
▁귀엽 게
▁코스 닥
▁c gv
▁보상 으로
▁마음 의
▁근본 이
▁잦 트롯
한건 지
▁어쩌 면
▁싸우 지
▁꿈 에
▁나가 고
▁도와 주실분
▁얻 는
▁인정 한다
▁훈 훈
▁힘들 지
안되 냐?
▁대학 생
▁견 자
▁블루 레이
▁짤녀 가
▁아이폰 12
▁닥 터
▁하다 보면
▁맘에 안
▁벽 람
▁각성 기
▁염퀴 들아
▁R PG
▁부모 님이
▁시절 이
▁성격 이
▁슨 상
▁시키 는
▁뚜 벅
▁햇 살
스티 벌
▁이뻐 서
▁텔 라
▁쩌 리
▁쇼미 9
▁그래픽 카드
▁지들 끼리
▁못해 먹
갤럼 들
▁깨달 음
▁기가 스
▁원더 바니
▁디지 털
▁해피 증
▁2분 기
▁서머 너
▁[아이들 ]
▁머선 일이고
▁ᄋᄇ ᄇᄅ
▁테일즈 볼
2YA 2YA
▁숨참 는다
▁수수 료
▁[씨야 ]
tu be
▁심사위 원
스트리 머
▁파푸 니카
유전 데
레벨업 갤]
▁그리스로마 신화
▁[사 토미나미
▁[슈 주
2YA2YA O!
! ""
( +
) 스밍인증
- 12
/ 스
1 회
1 주년
3 .2
T A
h y
i on
j a
o e
p 4
▁ 땜
▁ 핌
▁ 니까
가 튼
갔 음
같 고
개 좆
거 려
건 우
굴 이
그 랬
글 )
길 듯
깨 면
께 서
꾸 라지
나 냐
남 충
남 ??
님 한테
다 이아
단 에
단 역
돌 리기
되 ?
됨 ???
드 는거
러 움
루 타
리 터
마 좆
말 야
망 함
맨 날
메 인
면 허
모 를
모 르는
못 차
못 한
무 장
물 약
뭐 가
뭔 가
미 야
바 른
발 견
배 는
벌 써
복 지
본 혁
봐 요
봤 더니
불 밤
붕 인데
빼 곤
뽑 아
뿐 이다
사 귀
산 거
속 으로
시 안
싫 은
싫 은데
아 기
아 깝
안 고
았 더니
야 야
야 하나
어 옴(
연 시
영 입
올 해
용 어
우 치
워 커
원 이랑
으 셈
인 장
잇 나
자 네
자 다
자 크
재 인
전 으로
점 을
졌 지
주 딱
중 )
진 건
집 은
출 구
충 들아
캐 밥
콘 은
콘 서트
쿠 키
타 선
투 사
티 는
패 션
포 유
포 스터
폴 리
프 다
함 께
해 결
현 상
화 까지
▁이 .
▁이 달
▁이 력
▁이 브
▁이 종
▁이 새기들
▁아 바
▁나 선
▁오 더
▁오 세
▁오 자마자
▁오 디오
▁안 마
▁하 하
▁그 파
▁그 걸로
▁사 괜
▁다 닌
▁다 했다
▁보 다는
▁보 적보
▁시 민
▁진 국
▁진 동
▁2 학기
▁있 다.
▁왜 함
▁개 기
▁개 네
▁개 떡상
▁스 런
▁스 쿠
▁스 갤에서
▁여 연갤
▁내 구
▁뭐 하러
▁뭐 였지
▁기 갈
▁기 들
▁기 르
▁대 인
▁마 시고
▁마 피아
▁유 마
▁무 머
하는 새끼
▁3 /4
▁자 야겠다
▁미 이
▁미 성년
▁고 인
▁고 자
▁일 은
▁저 럴
▁좆 된거
▁신 라
▁전 동
▁잘 모르
▁모 노
▁모 래
▁모 찌
▁못 던
▁못 따
▁제 대
▁제 드
▁제 안
▁갤 라
00 x
▁공 무
▁공 인
▁공 항
▁애 널
▁비 서
▁야 마다
▁야 로나
▁만 신
▁조 준
▁도 사랑
하고 있
▁방 갤
▁방 해
▁5 차
▁누 르고
▁4 .5
▁[ 14
▁[ 17
▁머 릿
▁머 형
▁많 구나
▁레 바
▁남 초
▁파 인
▁서 태
▁서 드림
▁영 도
▁영 정
▁카 테
▁카 구야
▁카 락스
▁맞 냐??
▁생각 났는데
▁먹 지
▁실 내
▁실 종
▁피 노
▁되 고싶다
▁살 건데
▁키 큰
▁배 터
▁예 수
▁같 더라
▁할 리
▁돌 렸는데
▁드 르
.... txt
▁강 요
▁아이 랜드
▁씹 레
▁현 자
▁포 션
▁몇 시까지
▁8 위
▁어디 어디
새끼들 도
새끼들 만
▁언제 나오
▁하나 ?
▁하나 의
▁확 신
▁반 포
▁반 토막
▁호 칭
▁여자 를
이야 ..
▁똥 줄
▁손 아섭
▁염 마토
▁외 인
▁새 낀
▁들어 옴
▁심 하다
▁심 한데
▁두 꺼
▁복 싱
▁분 조
▁당 신은
인가 요??
▁삼 ?
▁끝 났는데
▁하는 중
▁간 접
▁플 라이
▁방송 을
▁빠 진거
▁별 풍
▁찍 는거
▁보고 도
▁들 면
▁11 7
▁던 지
려고 했는데
▁한국 인이
▁뒤 지면
▁교 촌
▁왔 킹롤
하나 는
▁과 목
▁애들 한테
▁용 어
만원 이면
▁남자 도
▁남자 랑
▁남자 의
▁엔 트리
▁써 본사람
▁번 들
고있 는거
▁괜찮 냐?
▁애미 없는
▁맛 있는거
▁0 1
▁환 동
▁환 승
▁머리 채
▁나왔 던
▁혼 혈
▁급 여
하기 도
▁갤러리 입니다
▁나온 대
▁입갤 ᄏᄏᄏ
▁폴 드
▁그러 네
▁기대 가
▁딸 치고
▁사랑 을
▁사랑 이
▁50 억
▁댓글 이
▁쉬 움?
▁T H
▁이쁘 다고
▁극 딜
보는 중
▁쥬 쥬
▁풍 형
▁씨젠 은
▁m a
▁운동 하고
▁착 하게
▁혐 이
▁개좆 같
▁실화 임?
▁만들어 줘
▁< ~
▁< ---
▁ᄏᄏᄏᄏᄏᄏᄏᄏᄏᄏᄏᄏᄏᄏᄏᄏᄏᄏᄏᄏᄏᄏᄏᄏ ᄏᄏᄏᄏᄏᄏᄏ
▁요새 는
▁이러 다가
일차 )
▁삼성 전자
▁육 룡
▁육 진구
▁웅 웅
▁색 스
▁공지 영
▁늒 비
▁범 용
▁캐릭터 는
▁홈 페이지
▁결혼 하면
▁보내 줘
▁사라 지
ᅲᅲᅲᅲ ᅲ
▁랜 드
▁l h
▁류 중일
▁거의 다
▁군대 가
▁떳 네
▁샀 어
▁잦 친
▁k -
▁페미 가
▁그리 움
▁1년 만에
▁인간 관계
▁쓴 다고
▁벨 파
▁낙 지
▁내려 가
▁페이 튼
▁합격 하면
▁안녕 하
▁해주 셈
▁해주 실분
▁을 목
▁즐 거
▁탁 구
▁헨 이
▁도움 이
▁들어와 바
▁다르 다
▁복구 버그
▁쿠팡 에서
▁1000 개
▁애매 하네
▁퓨 전
▁잘생긴 거
▁pc 로
▁입장 권
▁해결 법
▁고수 님들
▁Y ou
확률 로
▁기념 으로
▁존나웃 김
▁순수 재미
▁<< >>
▁아나 운서
▁비싼 거
▁위험 한
▁겨울 에
스테 리
▁테러 방
▁플래 시
▁자세 히
▁몇시 부터
▁파란 색
▁펀 플
▁세탁 기
▁크래 미
▁개장 수
ᄒᄋ ᄒᄋ
▁계수 표
▁야리 코네
▁223.3 9
▁엑시 즈
▁시상 식이
▁에디션 .jpg
인터 넷
▁하여 간
▁카마 인
▁데모 닉
.F act
▁산적 굴
▁바람의 나라
▁어림 도
▁조리 돌림
:20 ]
▁고말 숙
:25 ]
▁[슈주 갤]
, 이
. png
/ 20
F A
b b
c c
c p
e u
~ 20
ᄍ ᄍ
▁ 를
▁ 즌
가 를
가 방
감 으로
갤 임?
갤 가서
검 이
겟 긔
결 합
고 지
공 원
기 vs
난 투
니 당
다 는건
단 체
대 야
더 기
뒤 면
들 과
떳 냐?
래 기
리 움
리 더라
만 점
만 되면
말 도
맘 에
망 상
맞 으면
못 하
물 로
바 꿀
바 나
받 았다
방 구
보 이냐?
부 산
불 펜
비 야
빠 르네
뽑 고
사 리
성 민
센 징
수 능
수 학
순 이들
슬 러
시 야
시 위
신 경
쓰 다
아 악
안 사
업 은
엇 냐
었 더니
오 르는
왔 긔
왔 동호
을 것
음 .
응 디
의 가
의 대
의 심
있 긴
자 동
자 식
장 군
장 판
좋 게
주 원
중 고
중 얼
지 갑
질 로
질 을
짤 로
찍 을
창 년아
최 대
충 이라
츠 는
치 를
카 르
카 트
케 팅
코 스트
쿠 라
타 인
터 져서
투 명
트 랑
틀 어
팟 은
팬 싸
팬 들은
퍼 센트
프 메
피 나
피 로
하 늘
하 의
할 거같
할 수가
해 ..
허 벌
환 이
▁이 근
▁이 렇
▁이 집
▁이 김?
▁아 따
▁아 인
▁아 테
는데 도
▁나 감
▁나 방
▁나 츠
▁나 간다
▁어 뜨
▁오 또
▁오 메
▁오 라고
▁오 전에
▁오 르면
▁안 빨
▁안 켜
▁하 성
▁하 이브
▁하 겠습니다
▁사 호
▁사 야겠다
▁다 뒤
▁다 좋은데
▁보 이노
▁가 동
▁가 지마
▁2 탄
▁있 습니다.
▁왜 하냐
▁한 체
▁한 편
▁한 다.
▁기 고
▁기 동
▁기 둥
▁대 운
▁대 지
▁마 구마
▁없 뎃
▁수 요일
▁무 안타
▁3 강
▁자 서
▁미 도
▁고 문
▁고 음
▁일 지
▁저 새기
▁전 남친
▁전 상현
▁해 머
▁해 조
▁이거 랑
▁주 접
▁공 휴일
▁비 면
▁소 득
▁소 프트
▁우 럭
▁우 월
같은 디
▁노 랑
▁야 가다
▁만 이
▁거 리는거
▁올 리지
▁올 림?
▁부 케
▁도 도
▁알 못
▁5 렙
▁5 셋
▁중 2
▁중 치마인드
▁더 운
▁상 인
▁4 50
▁[ 21
▁많 았는데
▁리 본
ᅳᅳ ᅳ타
▁파 스
▁파 는게
▁파 리스
▁ᄉ ᄋ
▁말 야
▁서 아
▁영 보
▁김 세
▁김 에
▁카 오
▁선 원
▁연 령
▁경 우는
▁게 이트
▁피 방에서
▁되 냐고
▁되 겠지?
▁살 만한
▁키 캡
▁배 려
▁배 아
▁할 꺼
▁할 아버지
▁최 우
▁사람 있음?
▁박 해
▁ᄌ ᄉᄇ
▁이유 ..
▁불 매
.... .....
▁강 림
▁6 장
▁현 명
▁포 니
▁포 시
▁포 즈
▁몇 백
▁동 아
▁동 예지
▁않 았는데
▁받 으러
▁계 급
▁데 프트
▁초 보자
▁결 산
▁반 교
▁똥 보성
▁20 70
이다 !
▁염 제
▁페 이지
▁외 부
▁귀 멸
▁심 사
▁심 술
▁싶 은거
▁필 사
▁( B
▁( 과거
▁분 배
▁돈 많은
▁당 하면
▁블 게
▁블 레
▁눈 부
▁뉴비 )
▁뉴비 들은
▁히 기어
▁평 판
▁설 쉬
▁했 던거
▁음 질
▁빠 대
▁팔 카
▁루 다
▁볼 베
▁들 었다
▁갓 양
;; ;;;
▁쳐 박
▁출 퇴근
▁홍 준표
▁시작 하네
▁시작 하자마자
▁순 한
▁다음 화
▁태 극기
▁12 월
라이 프
▁본인 도
▁염보 야
▁팬 픽
▁써 야지
▁15 퍼
린이 인데
▁아닌 게
▁헬 레
▁헬 적화
▁올라 온거
▁애미 들이
▁쿠 티뉴
▁0 .1
▁처음 인데
▁준 거
▁이벤트 맵
▁몸 은
▁급 이
▁퇴 출
▁시간 대
▁입갤 ᄏᄏᄏᄏ
▁엠 블
▁독 해
▁신캐 가
▁기대 하고
▁기대 되네
▁올려 줄
▁17 7
▁맨 유
▁앚 저씨
▁챔 결
▁50 렙
▁14 00
▁서버 가
▁메이 로
▁D D
▁재미 없네
▁19 일
생각 함?
▁정리 해줌
▁a r
▁이새끼 도
▁샘 좆
▁진각 은
▁맘 대로
▁면 역
▁착 용
▁< <<
▁뿌 림
▁ᄏᄏᄏᄏᄏᄏᄏᄏᄏᄏᄏᄏᄏᄏᄏᄏᄏᄏᄏᄏᄏᄏᄏᄏ ᄏᄏᄏᄏᄏ
▁스킬 트리
이상 은
▁봤 네
▁아침 을
▁아이돌 은
▁한남 충들
▁와꾸 로
▁삼성 은
▁멀 로
▁좌 익
▁맥 도날
▁첨 부터
▁샘슨 이
▁에픽 게임즈
▁범 인
▁안나오 냐?
▁신기 하다
▁보내 면
▁군대 가면
▁끼 는
▁끼 리
▁보상 이
▁근본 은
▁d d
▁d m
▁k or
▁속보) )
▁싸우 네
▁꿈 이
▁책 장
▁. JPG
▁일어 났
▁일어 나면
.0 2
▁인간 의
▁덕 아웃
▁스킨 은
▁딴 겜
▁여러 번
▁G M
▁남순 이는
▁외질 혜
해보 임
▁안보 이네
▁i t
▁넘어 가면
▁포기 함
▁실패 한
▁W ith
▁얘네 들
▁짜증 난다
▁압 축
▁붕이 들아
▁저러 고
▁갱 플
▁최종 보스
▁150 개
ou ble
▁통피 로
▁시발련 들
▁플레 마
▁개웃 겨
▁이지 영
▁모아 다
▁36 00
▁미치 겠다
▁철염 남
▁넥슨 캐시
▁아깝 네
▁끝내 기
▁스페 인
▁테러 단
▁쩌 네
▁아케 이드
▁08 13
민주 당
▁반박 불가
주인 공
▁수호 자
▁음료 수
변경 권
▁고양 이가
▁레인 보우
▁압도 적
▁미만 잡
▁타카 기
▁메구 미
▁외식 비
▁go at
▁진영 대
▁마비 노기
▁인싸촌 ..
▁보충 제
▁리디 머
어떠 냐
▁싸이버 거
▁이탈 리아
▁부가 세
▁외계 인
▁(F eat.
문열어 문열어
▁아틀레티 코
2 명
2 번
4 는
9 5
@ !
N A
T Y
c e
f p
s p
v c
y )
~ 10
ᅲ ᅮ
▁ ..jpg
가 놈
개 조
갤 임
공 단
교 보
국 가
기 본
기 체
나 여
나 왔다
난 리
남 자가
냐 ᄏᄏ
너 먼트
니 샤
닐 라
독 시
때 랑
뜨 냐?
레 어
르 몬
마 리나
머 리가
메 좆
몰 라
무 카
미 들
미 쳤
박 음
법 사
법 을
보 고싶
보 고싶어
보 시긔
봄 ??
부 자
분 탕
사 이드
생 겨서
서 인
석 민
선 배
소 름
수 상
쉬 는
시 설
신 다
실 시간
쓰 다가
아 네
악 한
안 하는데
안 나오
애 틀
앰 들이
야 ~
어 필
어 ...
언 뜬
연 )
오 이
우 는거
원 영
을 (설x)
인 스타
임 영웅
입 금
자 키
적 이지
점 으로
정 민
져 가
주 는건
죽 이기
중 지
지 다
집 단
참 에
최 초
출 연
치 료
치 면서
클 이
타 구
터 짐?
튀 김
트 레
폰 으로
플 릭
필 수
하 ~
한 결
해 머
했 어?
후 로
힘 든
힘 들어
▁이 만
▁이 별
▁이 속
▁이 형
▁이 갤은
▁이 참에
▁나 은데
▁나 을까
▁나 을듯
▁어 웨이
▁1 퍼
▁1 .8
▁1 +1
▁오 크
▁안 하나
▁안 한다고
▁안 주냐
▁하 셈
▁하 실
▁사 격
▁사 다
▁사 시
▁사 에
▁사 아야
▁보 임?
▁지 식
▁시 에
▁시 온
▁시 트
는거 보다
▁2 사
▁2 80
▁있 니
▁있 겠네
▁개 설
▁개 통
▁개 귀엽네
▁한 경기
▁내 성
▁내 인생
▁뭐 에
▁뭐 만하면
▁기 체
▁정 )
▁마 셔
▁마 녀가
▁수 만
▁수 시
▁수 위
▁유 포
▁유 학
▁유 효
▁무 쌍
▁3 판
▁3 퍼
▁자 급
▁자 라고
▁미 필
▁미 코토
▁고 차
▁일 겜
▁저 년
▁좆 될
▁좆 민
▁좆 발
▁좆 티
▁잘 아는
▁모 바
▁모 가지
▁모 여서
▁못 하지
▁제 출
▁주 거
▁주 사
▁공 군
▁비 니
▁소 심
▁소 액
▁바 빠
▁우 갤
▁우 웅
▁우 는거
▁노 지
▁야 옹
▁야 채
▁만 수
▁올 레
▁알 럽
▁중 량
▁더 판
▁더 운데
▁와 봐
▁4 ~5
▁[ 16
▁남 양
▁리 틀
▁코 딩
▁코 박
▁문 켓몬
▁원 트
▁성 범죄
▁너무 너무
▁에 이즈원
▁피 트
▁세 리
▁세 번째
▁살 릴
▁살 설
▁키 배
▁예 민
▁장 소
▁할 수록
▁최 선
▁박 문
▁ᄋ ᄎ
▁불 과
▁불 닭
▁불 사
▁차 고
▁차 헤
▁6 실점
▁타 갤
▁현 지
▁치 어리
▁치 구사
▁치 하야
▁토 레
▁후 라
▁매 력이
▁반 팔
▁의 혹
▁크 고
▁크 크
한다 는게
▁네 가
▁손 민한
▁여기 저기
▁염 응
▁병신 인데
▁들어 오는
▁이런 걸
▁귀 축
▁귀 요미
▁추천 하는
▁어떻게 하냐
▁물 론
▁두 둥
▁( 3
▁( 스포)
▁분 류
▁돈 까스
▁많이 들
▁철 수
▁어케 되냐
▁죽 인
▁웃 고
▁양 치
▁집 합
▁간 지나
▁날 카
▁게임 도
▁했 을
▁했 잖아
▁까 는건
▁빠 꾸
▁열 일
▁풀 강
▁풀 카
▁팔 아서
▁찍 는데
▁싸 패
▁떡 공장
▁뽑 아도
▁11 시에
▁형 아들
▁시작 해도
▁순 회
▁던 지고
▁다음 엔
▁터 진다
▁교 불
▁폭 우
▁업 체
▁참 을
▁허 벅
▁다른 사람
▁뿡 창
▁울 보
을때 도
▁엔 버
▁문제 지
▁문제 임?
▁각 이다
▁올라 가는
▁종 신
▁첫 판
▁200 개
▁산 업
▁것 이
▁것 들을
▁회 색
▁회 사가
▁해야 하는데
▁급 함
▁갤러리 에서
▁넣 은거
▁황 혼
▁유진 은
▁나온 지
▁p tsd
▁지랄 을
▁정신 줄
▁영상 은
▁축 복
▁프로 미스
▁이해 하는데
▁폴 더블
▁인증 하면
병신 들
▁필요 함
있는 사람
▁찜 한테
▁서울 시장
방송 은
이었 나
ᄉᄉᄉᄉ ᄉ
▁표 시
▁답 이다
▁재미 없다
▁역시 나
▁항 복
▁싫어 하는거
하고싶 음
▁공부 를
▁면 도
~~~~ ~~~
▁받아 줘
▁고민 이
▁틀드 로
in k
▁잘못 한거
리즈 만
▁V R
▁논 쟁
▁버그 가
▁잔 인
해줘 도
▁앱 플
▁밑 으로
▁굴 려
▁앰 들
▁앰 코
▁가축 들이
▁징 역
▁됐 노
▁가격 은
▁결혼 은
▁성공 했다
ᅲᅲᅲᅲ ᅲᅲ
▁슼 이
▁n o
▁K IA
▁현실 적인
새기 야
▁근본 없는
▁대단 하긴
▁어려 운거
▁나가 라
▁일어 났는데
▁존버 한다
▁25 초
▁물어 본
▁물어 보는
▁저녁 은
▁닮 지
▁디씨 에서
▁마도 는
▁투수 진
▁웃기 긴
▁파티 원정
▁갖 고싶다
▁어이 없는
▁축하 드립니다
▁헬스 장에서
▁꿀잼 이네
▁협 찬
▁이길 수
나와 도
들만 의
▁키워 도
▁맞는 말
▁쿨 타임
▁ᄃᄃᄃᄃᄃᄃ ᄃᄃᄃ
▁운영 진
▁카카 페
▁년 들이
해줄 사람
▁존재 감
▁룰 루
▁구라 안치고
▁렌 티
▁ᄉᄉᄉᄉᄉ ᄉᄉᄉᄉᄉᄉᄉᄉ
보은왔 어옴(
▁사제 가
▁난이도 가
▁라이프치히 가
▁저러 는거
나올 때
▁8/ 14
▁인사 이드
▁만드 는게
먹어 야지
++ +
▁비율 이
▁원영 이가
▁메모 리
▁드래 프트
▁뷔 줌마
▁만원 만
▁1일 1
▁나쁘 지않
▁한녀 들
▁닌 자
▁빡세 네
알려 줌
▁이시 스
아프 네
▁스티 브
▁모모 코
스테 이지
▁2위 신
▁큰일 났다
버렸 노
▁플래 그
▁쩌 는
▁잉 크
▁똥찬 이가
▁언젠 간
▁옹 호
▁차기 작
▁223 .62
▁제외 하고
▁허수 아
▁8/13 (목)
▁수련 수련
총공 왔동호
아직 도
▁떠오 르는
어때 ?
▁미개 봉
▁검머 외
NT A
마갤]I m
ew s
:30 ]
아닐 까
▁페미니 스트
▁앱등 이들
▁목격 담
▁[조 승연vlive갤]더
▁앙헬 리
▁아몬 케트
폭로 )
▁[삼성라이온 즈갤]
▁추미 애
▁장신 구
▁[강동호 마갤]Im
▁Tr ouble
▁박용 택
▁갤라 쇼
▁(과거 폭로)
총공왔동호 (설총)
( 3
. ᄋ
/ 테오
3 일
a i
e st
h a
ᄀ ᄎ
ᄇ ᄇ
ᄌ ᄅ
▁ 튜브
▁ 혁준
감 염
겠 고
겠 어요
계 열
골 라
그 오는
끌 고
낫 는데
넣 을
노 무현
눈 이
니 즘
달 린다
돈 은
되 긴
된 다는
둘 둘
듯 한
려 니까
렸 나
론 은
룩 스
류 탄
를 까
리 리
린 느
마 로
만 이면
맨 은
머 노
먹 을때
메 랑
모 기
모 임
못 해서
문 신
미 드
민 식
버 터
베 이터
분 ?
비 군
빠 진
뿌 리
사 료
사 이즈
설 쉬
세 용
세 대는
시 ?
시 그
시 나요?
식 당
십 니다
써 라
씀 ??
안 가
안 감
억 울
없 음??
엿 네
엿 음
예 뻐
온 라인
올 릴
옵 은
유 출
일 으
일 랜드
임 ᄋᄋ
있 었음
잘 하네
주 려고
중 이라
중 인거
즈 니
증 권
직 렬
창 에서
체 력
체 스
쳐 야
층 이
치 곤
치 니까
캐 쉬
캠 프
케 릭
타 치
태 어
팀 에서
판 왕
표 현
풍 이
플 래
피 어
픽 은
하 심
합 성
해 체
했 다고?
헬 스
현 우
현 장
형 도
호 로
휴 가
히 는데
▁이 국
▁이 라
▁아 유
▁아 잉
▁나 ?
▁나 잇
▁나 나미
▁어 크
▁1 천
▁1 .3
▁오 일
▁안 ?
▁안 살
▁하 든
▁하 리
▁하 지?
▁그 타
▁사 러
▁다 죽
▁보 건
▁보 도
▁보 성
▁보 이냐?
▁보 고싶음
▁시 네
는거 랑
는거 보니
▁가 니까
▁2 연
▁2 티어
▁2 /4
▁있 다는
▁있 던거
▁개 정
▁한 도리
▁근 디
▁스 틱
▁스 붕이
▁스 팅어
▁여 븝
▁여 배우
▁내 돈
▁내 정
▁기 로
▁기 승
▁대 자연
▁정 성
▁정 예
▁정 착
▁정 현
▁마 늘
▁마 더
▁좋 을텐데
▁없 나요
▁수 령
▁인 거
▁인 페
▁자 본
▁자 작
▁아니 겠지
▁미 화
▁미 꾸라지
▁고 구려
▁일 제
▁좆 벤
▁좆 이어트
▁신 태일
▁잘 할
▁모 았다
▁못 버
▁못 살
▁못 얻
▁못 차
▁못 받은
▁못 버티
▁애 드라
▁비 시
▁비 쥬얼
▁바 는
▁바 른
▁우 영
▁올 페
하고 있는데
▁방 치
▁5 장
▁중 원
▁중 학생
▁씨 부
▁씨 ᅳ발
▁더 듬
▁상 수
▁상 어
▁4 억
▁[ 00
▁[ 13
▁[ 23
▁머 야?
▁남 ?
▁리 로이
▁파 이즈
▁코 카
▁말 로
▁말 리
▁서 강
▁김 심
▁카 리
▁카 야
▁카 리나
▁맞 다고
▁추 출
▁생각 한
▁생각 하는거
▁연 관
▁경 력
▁되 서
▁되 야
▁되 었
▁프 붕이들
▁프 레스
▁배 마
▁배 척
▁배 우는
▁예 판
▁할 려면
▁할 건데
▁쓰 라고
▁박 혀
▁박 민우
▁로 망
▁돌 았
▁불 독
▁불 알
▁차 는
▁6 일
▁포 엑밥
▁10 회
▁10 분전
▁나오 겠지
▁8 .15
사람 인데
▁감 도
▁7 6
▁글 래
하는거 보니
▁데 빌
▁발 광
▁9 3
▁9 개
▁반 사
▁빨 던
▁빨 통
▁크 지
▁단 축
▁외 제
▁병신 이네
▁국 물
▁때 리는
▁작 정
▁꼴 잘알
▁틀 와이스
▁심 한거
▁싶 긔
▁복 사
▁가능 해?
▁가능 할까?
▁얼마 가
▁( N
▁( 수정)
▁돈 많
▁블 락
▁ᄋᄋ ;
▁갈 때
▁히 승이
▁설 아
▁까 플
▁클 라우드
▁금 사
▁이상 성욕
▁열 리
▁열 리면
▁팔 까
▁싸 웠
▁보고 서
▁들 으면서
▁약 한거
▁막 고
▁천 상
겠네 요
▁베 리
▁욕 쳐
▁욕 하고
▁30 년
▁교 재
▁목 에
▁목 적
▁참 전
▁편 한
▁편 하다
▁다른 겜
▁100 00
▁학 점
▁악 성
▁울 었어
▁명 태
▁엔 시티
▁체 인지
고있 냐
▁올라 오네
▁괜찮 게
▁헤 필
▁종 가
▁등 신
가능 하냐?
ᄃᄃᄃᄃ ᄃᄃᄃ
▁밀 순
▁산 초
▁알려 줘라
▁회 의
▁팩 폭
▁떨 공
▁퇴 장
▁p l
▁있음 .
13 일
▁S wan
▁이름 도
▁푸 키
▁충 성
▁기대 했는데
▁하는거 임
▁하는거 지
▁휴 먼
▁콜 업
▁딜 도
▁쉬 다
▁느낌 이네
▁뭐야 ??
할거 다
▁메이 킹
▁표 정이
▁극 단
▁귀여 워서
생각 해도
▁정리 글
▁스타 터
▁풍 설
▁찬 원
▁항 의
▁아님 ???
▁인기 많은
▁P D
▁P K
▁패치 노트
▁면 허
▁중국 어
▁진심 2YA2YAO!
▁개좆 두
▁침 수
▁낮 은거
▁칼 바람
▁봤 더니
▁이러 냐?
▁센 스
▁있다 는게
▁십 새
▁웅 장
▁송 구
▁징 그
▁의외 의
▁안나오 고
▁안나오 는데
▁던파 는
▁l te
보이 던데
▁이쁜 여자
▁o st
▁N O
▁엑 셀
▁숙 련
▁선택 좀
▁어쩌 다가
애미 가
???????? ????
▁어려 운데
▁f px
▁미래 시
.0 4
여자 랑
▁25 살
▁웹 소설
▁파딱 이
▁여름 이
▁e d
▁신고 게시판
▁신규 유저
▁쉽 네
▁썩 견
▁블루 스택
▁인방 충
▁공격 전
▁부탁 한다
▁연애 는
▁ᄅ ᄌᄂ
▁재밋 다
▁뽀 무
▁H al
애들이 랑
▁당연 한거
▁I P
▁부캐 로
▁키워 드
▁양심 이
▁개씹 창
▁맞추 는
▁몰랐 음
▁사회 적
는거야 ??
오오 오
▁액 티브
▁너희 는
▁빙 수
▁이용 자수
는법 좀
▁아쉬 워
▁존잘 남
▁할만 한거
▁니쥬 가
▁똥퀴 들아
▁강간 죄
▁모르겠 지만
▁비싸 게
▁28 일
200 8
▁이겼 네
▁부러 운
▁필독 )
▁뷔 빡
▁Y ES
▁이럴 때
▁정공 겜
▁빨간 색
▁검은 색
▁히어로 즈
▁구단 가치
▁지하철 에서
▁하위 호환
▁경우 의
▁야동 초
▁ᄋᄃ ?
▁샤워 하고
▁영향 력
▁박지 성
으으 으으
▁오리 진
▁유플 러스
▁배당 금
▁천재 단역
▁쳤 는데
▁2019 년
▁파판 7
▁ss d
▁아시는분 ?
▁콜라 보는
라포엠 마갤]
▁검머 머
▁재업 )
▁사석 에서
소년 단
▁223.3 8
MA GE
▁개야 갤
▁다를 게
▁샤샤 샤
▁카즈 야
▁주기 적으로
▁유난 히
▁스바 루
▁가불 기
▁여친사 먹
▁ᄎᄏ ᄎᄏ
▁만년 필
▁유통 기한
▁폴크 라이
▁금토 일
▁좀마 형
▁브실 골
▁ᄅᄌᄂ ᄇ
MAGE NTA
. 40
. 99
0 8
2 로
3 페
I TS
K T
R R
b c
ᄂ ᄋ
▁ .....
게 됨
겜 에
관 은
기 보단
까 이
나 시
내 라
녀 는
년 까지
당 해
대 충
대 냐?
덩 크
도 없고
동 자
들 짝
따 리가
뛰 고
띠 니
랄 까
량 은
롭 네
리 던데
맨 이
모 든
모 바일
뭐 고
뭐 지
받 습니다
받 아라
배 고
벅 스
보 라고
볼 때마다
봉 은
봤 냐?
부 러
분 기
블 랑
비 용
빈 은
빌 지
삐 앰
새 롬
새 기가
세 탁
속 의
솔 킬
수 들
순 으로
쉽 게
시 민
시 세
시 카
심 심
쓴 다고
아 이스
안 경
야 동
엄 청
없 었는데
에 데
여 왕
역 할
연 령
연 히
연 갤에서
오 .
오 너
올 듯
왔 (설쉬)
왤 캐
으 라
음 에
음 ???
음 소리
의 성
이 너
있 다가
자 야지
잘 함
저 도
저 새끼
정 말
정 우
제 거
조 로
좋 긔
좋 냐?
좌 는
준 우
준 원
지 랑
지 옥
지 나면
질 하는
찬 규
쳐 라
츠 네
층 에서
치 않
카 드는
코 이
콤 보
타 리
타 마
타 케
터 치
테 는
토 벌
트 루
판 도
판 만
판 에서
퍼 로
프 스키
플 러
플 티
필 터
핑 이
학 이
할 필요
함 ...
해 놓
해 피
해 졌다
헤 드
협 회
형 우
호 랑
호 텔
화 력
후 후
흑 우
희 가
▁이 보
▁이 현
▁아 시는
▁나 뿐
▁나 사
▁나 진짜
▁1 패
▁1 만원
▁안 줄
▁안 통
▁안 와서
▁안 해?
▁안 봐서
▁그 놈의
▁사 볼
▁보 람
▁지 선
▁지 크
▁지 형
▁시 대에
▁ᄏᄏ ?
▁개 맛
▁개 왕
▁개 저씨
▁개 이쁘네
▁한 쪽
▁한 거임?
▁근 거
▁스 택
▁기 갱
▁기 는거
▁기 사가
▁마 무
▁수 2
▁수 마
▁수 습
▁수 출
▁진짜 네
▁유 자
▁무 이
하는 걸
▁3 30
▁자 율
▁자 정
▁자 강두
▁미 하
▁고 어
▁고 로나
▁고 싶다
▁일 산
▁일 자리
▁좆 판
▁전 날
▁전 한길
▁잘 때
▁잘 잡
▁잘 하냐?
▁잘 먹고
▁잘 나온
▁해 물
▁해 보니까
▁모 고
▁모 순
▁모 름?
▁못 그
▁못 찍
▁갤 갤
▁공 동
▁비 작
▁바 벨
▁우 중
ᄅᄋ ᄏᄏ
▁노 스
▁야 설
▁야 추
▁ᄅᄋ 개
▁ᄅᄋ ᄏᄏᄏ
▁거 르면
▁올 킬
▁올 팬
▁부 두
▁부 인
▁조 강
▁도 사가
▁지금 처럼
▁요 시
▁중 형
▁재 고
▁재 종
▁상 도
▁상 큼
▁4 확
▁[ 수
▁[ 방송
▁레 미
▁레 일
▁남 을
▁남 기고
▁구 할
▁파 네
▁파 커
▁코 스트
▁트 갤
▁트 라
▁트 퀴
▁시발 ...
▁김 주
▁김 희
▁성 기사
▁성 폭행
▁카 드는
▁선 봉
▁추 노
고싶 었는데
▁경 우가
▁얼 리
▁실 명
▁살 리
▁배 매
▁배 수
▁장 관
▁장 민호
▁메 갓
▁이제 보니
▁박 승
▁박 종
▁로 스터
▁이유 ...jpg
▁불 량
▁불 도그
▁강 열
▁본 선
▁6 1.
▁니 어
▁타 도
▁씹 ᄏᄏ
▁씹 새끼들아
▁씹 똥찬
▁현 물
▁디 버프
▁10 400
▁몇 주
▁몇 화
▁동 성애
▁8 7
▁않 았다
▁패 키
▁뭔 상관
▁치 는거
▁망 하는
▁계 기
▁계 절
▁감 정이
▁7 만
▁캐 르는
▁후 지
▁후 장에
▁매 니
▁매 미가
▁투 기
▁데 스티
▁초 성
▁하나 를
▁하나 밖에
▁은 이
▁크 라운
▁똥 은
▁20 10
▁20 22
▁네 소
▁화 제
▁화 난다
해야 하는거
▁커 밍
▁병신 이지
▁새 싹
▁들어 감
▁짤 들
▁추천 해주세요
▁추천 받는다
▁심 흑
▁싶 어요
▁당 했다
▁재밌 었
▁재밌 더라
▁재밌 어서
▁블 라
▁특 집
▁관 다
▁관 짝
▁죽 이면
▁갈 사람
▁걸 고
▁집 계
▁평 야
▁넘 겨
▁넘 었는데
▁간 호사
▁어제 오늘
▁플 랜
▁플 렉스
▁까 다
▁이상 하지
▁빠 지는
▁팔 려
▁팔 림?
▁찍 어도
▁건 지
▁민 혁
▁안되 나?
▁막 폴
▁골 때
▁딱 딱
▁케 프라
▁응 ~
▁응 우
▁베 논
▁베 메
▁욕 처
▁30 %
▁30 번
▁30 연
▁폭 망
▁벌 었다
▁편 하네
▁월 정액
▁싫 다고
▁승 패
▁롤 은
▁한번 더
▁한번 은
▁ᄆ ᄋ
▁명 일
▁명 치
▁써 봄
▁헬 조선
고있 으면
▁종 말
▁첫 사랑
▁맛 잘알
▁0 2
▁0 .2
▁쓸 까
소리 바다
▁찾 을
▁철구 한테
▁갤주 야
▁밀 워
▁밀 크
▁사진 은
▁흑 철
▁"" 야
▁팩 팩
▁어디서 봄?
▁윤 대
▁팀 원
▁퇴 사
▁깨 워
▁빡 겜
▁어떤 식으로
▁총 기
▁정신 못차
▁영상 에
▁뭘 해도
▁짜 파
▁필요 하다
▁올려 야
▁안나 와서
다니 면
▁찜 앰들
▁트레이드 로
▁큰 데
▁16 5
있음 )
▁인생 에
▁인생 의
▁어느 게
▁L H
▁L uv
▁v r
▁만화 책
▁풍 룡
▁콘 크리트
▁사이 코
▁빌 리
▁인기 도
▁m k
▁혹시 나
▁맘 스터
▁고민 된다
▁t h
▁만들어 도
▁침 투
▁게이 팝
▁아까 부터
▁칼 날
▁차단 한
▁차단 목록
!!!!!!!! !!!!!!
▁샤 오
▁M S
▁십 억경
▁샘슨 .jpg
▁지지 합니다
▁됐 음
▁확정 임?
▁행복 하다
▁보내 는
▁귀엽 노
▁b l
▁샀 음
▁기다 리면
▁흥 민이
▁엑 소
▁녹 스
▁대단 한거
▁엄마 랑
▁f eat.
▁혜 지
▁일어 날
▁B L
▁스카 니아
▁활 발
▁활 성화
▁오프 콘
▁인정 하는
▁어렵 게
▁F 1
▁F P
▁찌 질
▁한명 은
)) )
▁노잼 임
▁생겼 어
▁칭 구
▁호감 임
▁그렇 네
▁홀 딩
▁런 칭
▁해주 지
▁준비 중
▁예쁘 고
▁예쁘 면
▁이번주 에
▁룩 공
▁재밋 는
▁300 만
▁느그 랑
▁있어 ??
▁축하 왔어요
싸개 들
▁심심 한데
▁I N
▁아카 리
▁아카 이브
▁얘네 는
한가 보네
▁이득 임
▁압 살
▁카페 에서
▁유입 이
▁트위터 에
라스 틱
▁트레 블
▁혀 서
▁공주 겜
▁미니 진
▁은퇴 투어
▁시키 고
▁안오 냐
▁비싸 네
▁만드 는데
▁마법 소녀
▁정확 하게
▁컴퓨터 로
▁남친 이
▁왜저 렇게
투표인증 왔어요
▁이승 기
▁힘든 데
▁지능 이
▁조작 와이스
▁디스 코드
▁이따 구로
▁1인 칭
지않았 나
▁여동생 이
▁저기 서
▁이긴 다
▁혁 명
▁모으 는
팩트 )
▁바꿀 까
▁예고 편
▁재앙 이
▁톡 방
▁엿 갤
▁셔 터
▁미사 일
▁쓸데 없는
▁가디언 테일즈
▁암굴 왕
▁새우 버거
▁주의 )
▁mm r
▁공중 파
깨워 MAGENTA
▁풀발 기
▁가위 바위
▁화려 한
▁미스터 트롯
다닐 때
▁무상 성
▁매운 맛
▁아수 라
▁24H ITS
▁개쌍 도
▁보은을 깨워MAGENTA
▁찬란 한적
:40 ]
따따 설x
▁주짓 수
▁DR X
▁내마 위
▁하이브 리드
▁보은을깨워MAGENTA (설X)
2 도
6 9
7 8
A P
a a
ᄐ ᄀ
▁ 숭
▁ 첩
가 진
각 이네
갓 네
거 의
걸 ?
경 제
고 만
공 구
공 에
광 이
괴 롭
구 슬
구 정
권 도
근 처
꼴 리는
나 지
남 았
냈 네
넣 는거
다 니까
대 운
대 항전
덱 으로
독 교
뒤 지
드 러
드 는데
든 링
디 씨
디 자인
랍 니다
렸 냐
림 은
링 클
마 차
말 임?
맨 들
먹 었어
모 름
모 모
몰 빵
미 노
미 에
미 키
반 은
받 냐
밥 통
방 출
범 퇴
변 환
보 게
보 나
보 싶
봐 봐
봤 냐
부 랑
분 들은
불 안
빠 른
생 김?
섭 이
손 님
슬 리
싸 는
아 바타
안 해서
야 붕이
야 되는
업 데이트
었 잖아
엔 드
엔 터
역 은
와 의
왓 네
요 소
용 ?
운 트
유 니
율 른
을 거같
익 스
인 상
인 들은
일 수
일 행
잇 는거
자 세
자 에
자 이언츠
자 범퇴
적 도
적 인데
정 가
조 무사
좀 해라
좆 같
준 아
즈 루
지 오
지 우
지 ...
진 욱
질 않
찍 기
찍 어야
참 치
쳐 내
초 부터
치 던
코 로나
토 목
투 디
트 럭
파 괴
파 츠
판 타지
포 로
학 금
해 보는데
행 위
형 준
화 과
▁이 단
▁이 건데
▁아 노
▁아 토
▁아 는게
는데 ..
▁1 권
▁오 노
▁오 랑
▁오 즈
▁오 빠는
▁안 츄
▁안 보는
▁안 우진
▁사 오
▁다 모
▁다 빠
▁다 큐
▁보 라고
▁지 게
▁지 분
▁시 이발
▁가 창
▁가 붕이
▁진 압
▁2 승
▁2 -3
▁있 냐고
▁왜 함?
▁개 시
▁개 트
▁개 커엽
▁한 복
▁한 입
▁스 다
▁스 로
▁스 터
▁여 시
▁내 줘
▁뭐 하냐고
▁대 량
▁대 졸
▁대 성공
▁수 1
▁수 제
▁유 력
▁유 베
▁무 덤
▁무 비
▁무 기가
▁3 줄
▁3 트
▁인 실
... !
... fact
▁근데 진짜
▁미 다
▁미 라
▁미 스테리
▁고 칠
▁고 속도로
▁일 리치
▁저 가
▁좆 좆
▁좆 으로
▁신 분
▁신 앙
▁전 에는
▁모 딩
▁모 루
▁모 임?
▁못 했는데
▁주 급
▁주 수리
▁바 쁜
▁바 슈
▁바 위
▁바 린이
▁우 효
▁알 겠음
▁방 에서
ᄏᄏᄏ ᄀ
▁요 금
▁재 활
▁상 이
▁4 ,
▁4 렙
▁레 후
▁레 오나
▁리 나
▁리 다
▁리 빌딩
▁구 하기
▁파 는데
▁라 시
▁트 윈
▁말 대로
▁말 해줌
▁원 룸
▁원 자
▁원 턴킬
▁카 지노
▁선 공개
▁선 인장
▁추 하다
고싶 어요
▁연 가
▁연 대
▁연 전
▁먹 으
▁실 모
▁실 차
▁피 아
▁피 켓
▁되 팔
▁프 론트
▁살 고싶다
▁장 히
▁장 단점
▁할 려고
▁메 호
▁로 버
▁돌 았네
▁이유 없이
▁불 태
이라 는건
이라 길래
▁강 보
▁이번 주는
▁이번 패치
▁차 이는
▁6 위
▁디 디
▁병 디
▁느 린
▁동 접
▁나오 는건
▁8 ,
▁8 분
▁패 면
▁받 는데
▁감 조새
▁캐 슬
▁토 템
▁후 면
▁매 너
▁발 령
▁초 심
▁점 이
▁하나 라도
▁빨 강
하지 도
▁은 월
▁얘 드라
하다 보면
▁네 메
▁손 을
▁손 차훈
▁화 살
▁화 염
▁페 리
▁병신 은
▁달 콤
▁국 장이
▁짤 을
▁귀 환
▁따 봉
▁따 라서
▁위 드
▁위 협
▁얼마 면
▁( 20
하냐 ???
▁분 기
▁철 린이
▁적 혀
▁까 이는거
ᄏᄏᄏᄏᄏᄏᄏᄏᄏᄏᄏᄏᄏᄏᄏᄏ ᄏᄏᄏᄏᄏᄏᄏᄏᄏᄏᄏ
▁음 탕
▁음 판
▁열 림
▁팔 이
▁민 식이
지않 아?
▁직 렬
▁무슨 생각
▁뽑 은거
▁막 을
▁ᄀ ᄌᄃ
▁11 3
▁11 단
▁11 일
▁쳐 서
▁케 이는
▁모르 겟
▁길 마
▁베 릴
▁욕 하는거
했다 ..
▁태 연
▁태 성이
▁교 양
▁12 7
▁참 석
▁100 프로
▁염보 랑
▁염보 한테
▁학 폭
▁사실 임?
▁명 칭
▁몰 카
▁몰 아서
▁엔 씨발
▁각 오
▁아닌 거같은데
▁헬 창
▁워 아
▁올라 간
▁소바 에서
▁종 문
▁등 기
▁소리 바
▁맛 있냐
▁0 .3
10 %
▁킹 오
▁200 만원
▁준 드
▁이벤트 가
▁갤주 들
인거 냐?
▁밀 어야
▁팩 션
▁올해 가
▁해야 하는
▁봉 지
▁봉 랑이
하기 vs
▁윤 이
▁윤 붕이
▁깨 지
▁깨 진
▁러 프
▁갤러리 ]
▁넣 어서
▁황 밸
▁먼 동
▁돌아 야
▁돌아 오면
▁그런 건
▁입갤 ᄏᄏᄏᄏᄏᄏ
▁청 량
▁청 률
▁청 범수
▁총 정리
▁축 알못
▁이해 를
▁인증 왔
▁푸 라
▁뜨 고
▁별로 다
▁충 청
▁뭘 까?
▁애니 가
▁신캐 는
▁필요 없음
▁17 00
다니 면서
▁50 층
갤러 들이
▁댓글 좀
▁잇 으면
▁T W
▁잘생 기고
▁최고 지
할거 임?
▁혹 사
▁기분 좋아
▁기분 좋다
▁극 과
▁정리 해
▁디시 가
▁ᄆᄐᄎ 냐?
하고싶 으면
▁왕 택신
▁익 텐
▁팩트 임
▁침 식
할까 요
▁주식 은
▁섹스 하고
▁잔 비
▁케이 티
▁증 권
▁뒷 담
▁뒷 북
▁생일 축하
캐릭 은
캐릭 이
▁지지 하는
▁싱 싱
투표 보은왔
▁찐따 들
이거 나
▁살아 있
▁빵 리
▁귀엽 고
▁으 내
야되 네
▁현재 까지
▁중요 하지
▁무료 배포
새기 들이
▁흥 국
▁엑 바
▁옆 모습
▁린 저
▁억 떡
▁싸우 고
▁혜 화
▁B r
▁수영복 은
.0 5
▁좃 나
ᄒᄒ ᄒ
▁짭 찬
▁주딱 은
▁멋 있는
▁견 우
▁연습 생
▁어느정도 로
▁E X
선수 들
▁인싸 들
▁웃기 긔
▁느낀 거
▁띵 잦
▁닥 치
▁스크 린
▁w e
▁곡 이
▁보다 보니
▁배달 의
▁꿀잼 인데
▁보이 는거
▁무시 하고
▁매일 매일
▁켜 놓고
재밌 네
▁몰랐 네
▁그룹 이
on g
▁잘생겼 는데
ww w
▁방어 율
▁요약 .jpg
▁롱 런
▁마라 벨
▁너희 들은
▁저러 면
▁보닌 쟝
▁이용 자
▁잠깐 만
▁역겨 워
▁99 %
ou tube
▁현타 옴
▁락 밴드
▁알았 더니
▁아스 카
스토리 아
▁안뜨 냐
▁상상 함
▁원영 이는
▁모집 중
▁핀 냐
▁휘 석
▁피곤 해
▁한글 패치
▁걸러 라
부탁 드립니다
▁120 hz
▁토요일 에
▁김종 인이
▁알림 ]
▁엽 떡
▁드러 누
▁95 제
▁sk t
▁방학 식
우우 우우
▁한개 도
▁베이 징
▁라오 어
▁할배 들
▁하고싶 은거
▁랄 로
/3 2
▁려 시
▁여중 딩
▁여태 까지
▁단순 히
se y)
▁아름 다
▁at m
________ ________
▁동일 인물
▁파괴 력
▁꺼지 라고
▁64 강
▁휴지 통
마법 사
▁암살 자
▁AT M
▁개재밌 네
▁팬미 팅
▁지잡 대
▁근처 에
▁리즈 시절
▁성지 )
▁2018 년
▁민폐 녀
▁수행 자
▁중학교 때
▁비겁 다
스압 )
▁시그니 엘
▁럼 블
정신나갈 거같애
카운 터
▁드라이 버
:50 ]
▁백종 원
▁로지 텍
▁비타 민
▁견자 희
▁(B oy
▁진영대 창초
▁Hal sey)
▁자강두 천
▁Luv )
2 배
3 천
6 성
< >
D A
M G
M R
O S
e ll
o c
u m
~ 발
▁ ᅩ
▁ JPG
가 고싶어
각 ?
강 점기
갤 질
거 아님?
걸 릴
걸 리면
게 자
게 이는
겠 죠?
고 도
고 로
구 해요
그 지
급 임
기 시작
끝 까지
나 누
넣 은
네 스
노 리
달 림
됐 다고
띵 곡
랜 다
러 서
레 마
련 다
렸 냐?
매 니저
머 스
먹 이
먹 자
밀 고
배 기
번 은
벌 어
법 으로
변 기
변 화
보 이면
보 이즈
보 고싶은데
볼 땐
붕 이랑
비 추
빨 이
사 르
사 막
사 가는
산 부
살 지
상 삼
서 로
신 데
실 격
안 들어
앗 노
어 지
없 지만
에 나
에 있는
에 대한
엔 젤
엔 진
역 시
영 소
예 고
올 게
용 품
울 거
월 이
은 성
은 카
의 제
이 아니라
인 식
일 만
자 국
잡 는거
장 수
재 환
전 선
전 을
져 라
조 이
존 재
졸 려
좆 이
죄 악
주 랑
줬 다고
지 정
진 던
쪽 팔
차 게
차 고
찬 스
크 리스
타 격
타 운
터 졌네
투 는
티 쉬
팝 니다
폴 낙
피 네
피 씨
하 농
할 데
합 니까
햇 냐
했 을텐데
행 동
행 이
허 브
헤 헤
호 영
혼 다
화 를
환 경
환 영
후 군
▁이 놈
▁이 왜
▁이 똥찬
▁아 들이
▁아 자르
.. JPG
▁나 열
▁어 닝
▁어 냐?
▁1 .
▁오 짐
▁오 착
▁안 봐
▁안 옴
▁안 한거
▁안 했다
▁안 하니까
▁안 댐?
▁안 써도
▁그 럭
▁사 죄
▁사 황
▁사 놓고
▁다 .
▁다 해
▁다 이어
▁보 병
▁지 목
▁시 설
▁시 탑
▁2 월
▁2 60
▁개 강
▁개 수
▁스 까
▁스 라벨
▁기 습
▁정 룡
▁정 호
▁마 저
▁없 겠지?
▁수 아
▁수 자
▁유 연
▁무 뇌
▁무 득
▁무 인
▁3 마리
▁아니 구나
▁아니 어도
▁아니 였음?
▁미 시
▁미 장
▁미 라이
▁고 가
▁일 당
▁일 야
▁일 주
▁좆 비
▁좆 타
▁신 안
▁신 들아
▁전 향
▁잘 하는게
▁잘 되는
▁해 운대
▁이거 뭐냐
▁못 하노
▁못 하는건
▁못 먹은
▁제 3
▁제 공
▁제 련
▁제 트
▁주 절
▁애 정이
▁생 중계
▁소 수
▁소 식이
▁노 선
▁만 능
▁ᄅᄋ ;
▁거 라고
▁부 위
▁부 작용
▁조 졌다
▁도 라에
▁도 윤이
▁지금 보니
▁방 관
▁방 영
▁5 대
▁5 .5
▁5 일차
▁5 단계
▁중 3
▁중 나
▁중 대
▁더 샤이
▁와 바
▁와 13
▁[ 15
▁머 니
▁많 다고
▁남 상
▁리 전
▁구 구
▁파 쿠
▁파 이터
▁코 연
▁코 달소
▁ᄉ ᄎ
▁말 만
▁말 해준다
▁서 수
▁서 폴드
▁문 구
▁원 소
▁원 태
▁김 범
▁김 우
▁김 택
▁김 시원
▁카 밀라
▁난 왜
▁난 입
▁생각 없이
▁씨발 새끼야
▁먹 버
▁먹 고싶은데
▁얼 만
▁피 크
▁되 찾
▁세 레
▁프 랜
▁프 롤
▁프 문
▁프 라이언
▁장 수
▁장 혜
▁할 텐데
▁사람 의
▁사람 한테
하네 ?
▁박 아도
▁돌 아서
▁돌 리기
▁드 럼
▁강 장
▁이번 꺼
▁6 뿡
▁니 엔
▁아이 루
▁씹 지
▁포 수가
▁포 르네
▁디 에
▁10 8
▁8 1
▁8 개
▁8 만
▁받 냐
▁받 짤
▁7 개
▁7 모
▁글 좀
▁글 쓰는
▁후 방
▁후 ...
겠다 는
▁ᄉᄇ ...
▁언제 냐
하는거 지?
▁하나 요?
▁확 업
▁반 격
▁반 말
▁우리 엄마
▁브 가
▁20 강
▁화 날
▁페 스타
▁들어 감?
▁이런 애들
▁따 지
▁추천 해주
▁틀 케
▁심 상
▁가능 한거
▁필 살
▁( 1
▁돈 만
▁돈 없어서
▁죽 이기
▁갈 개
▁양 카스
▁걸 린거
▁하는 듯
▁하는 것도
▁엘 비
▁엘 화
▁히 키
▁넘 기
▁넘 쳐
▁ᄌᄂ 웃
▁했 노
▁했 냐?
▁했 다가
▁까 비
ᄏᄏᄏᄏᄏᄏᄏᄏᄏᄏᄏᄏᄏᄏᄏᄏ ᄏᄏᄏᄏᄏᄏ
▁풀 면
▁루 징
▁건 방
▁민 원
을까 ??
▁잡 아서
지않 앗
▁들 려
▁무슨 일이
▁딱 모
▁통 직
▁쳐 망
▁케 파
▁욕 하면서
▁폭 공
▁검 토
▁잠 금
▁일본 에
▁합 치면
▁학 력
▁학 습
▁슬 램
▁제발 요
▁제발 ...
▁롤 이
수있 음??
▁악 어
▁임 나연
▁ᄆ ᄉ
▁ᄆ ᄐ
을때 는
▁좋은 지
▁궁 합
▁워 너
어야 됨
▁소리 를
▁맛 있다
▁쿠 린이
▁미친 새끼들
▁찾 습니다
▁라이 온
▁준 우승
▁밀 린
▁알려 줄게
▁회 계
▁놀 고
,, ,,,
▁러 스
▁갤러리 가
▁갤러리 입니다.
▁시간 은
▁삐 가
▁어떤 가요
▁어떤 가요?
13 0
▁S NS
▁그러 려니
▁뜨 냐
▁식 겁
▁식 욕
하자 나
▁필요 해
▁필요 없고
▁기대 되는
▁찜 깅이
▁서울 은
▁서울 에서
방송 이
▁느낌 인데
이었 긔
이었 냐
▁유튜브 로
생각 하면
▁스타 팅
▁옷 을
▁옷 피셜
▁싫어 함?
▁싫어 하는데
▁생각해 봤는데
▁쓰는 사람
▁쇼 메
▁착 석
▁착 장
▁근황 ...
▁t o
프로 그램
!!!!!!!! !!!!!
▁옛날 부터
▁케이 형
▁밤 낮
▁알아 냈다
▁웅 탁
▁첨 으로
▁옵 스
▁됐 냐
▁확정 이네
▁범 두
▁김태 형
▁결혼 하고
▁신기 하게
▁트와 가
▁중요 함?
▁c j
▁d i
▁8월 에
▁선택 존
▁어쩌 지
▁옆 자리
아이 피
▁레이 너
▁f act
▁혜 리
▁일어 난
▁감독 님
▁줘 야지
▁페미 들
▁페미 들이
▁ᅲ ᅮ
▁성능 캐
여자 들
▁주딱 아
▁아프 다
▁점심 은
▁덕 에
▁어때 요?
▁경원 9강
▁멋 있다
▁한달 만에
▁족 발
▁대학 원
▁바꾸 자
▁에이 프릴
▁호감 인
▁어떡 하지
▁블루 투스
▁전화 번호
▁남순 이가
▁인방 갤에서
▁다이 소
▁들어가 네
▁예쁘 게
하지않 나
▁즐 거운
▁5분 전
▁팝 송
▁빛 나는
▁캬루 가
▁안됨 ??
▁제목 에
▁자동 사냥
▁느끼 는게
▁경북 대
▁개념 이
보은왔 우즈(설x)
▁적당 한
▁편의점 에서
거든 요
▁안들어 가지
▁쎄 게
▁느껴 진다
▁적용 됨?
▁배고 픈데
할게 요
▁배민 쿠폰
▁네좆 이
▁티켓 팅
▁똥꼬 충
▁스타일 링
▁꾸니 야
그런 데
▁재능 이
▁오타 니
▁그저 께
▁네네 카
다음 에
▁엽 충이
▁오피셜 )
▁히나 타
-------- ----
▁테라 버닝
처리 반
▁이해안 감
▁있으 려나
▁베이 비
시킨 거
▁결론 은
▁1.2 5
▁아픈 데
▁닮은 꼴
▁쓸데 없이
생축 보은왔우즈(설x)
▁오랜만 이네
==== ====
▁신의 한수
▁[강다니엘갤] 1주년
▁[키움히어로 즈]
▁[김호중 마갤]I'm
▁엔터 주
인사 이드
▁미나미 데이
▁헤드 셋
▁하랜 사제
▁떠오 름
▁플로 프
▁진로 좀
▁오디 세이
▁쓸모 없는
ic e
입장 에선
▁유산 소
▁와타 시
▁디자 인이
▁슬라 임
▁테이 블
▁슈스 울
▁백화 검
▁넘사 벽
▁아조 씨
▁소소 한
▁명문 대
▁피쳐 링
▁부엉 이
▁후계 자
▁퍼포 먼스
▁진파 수꾼
▁파게 생축보은왔우즈(설x)
▁고나 우석
▁꼴아 박
▁쿠르 키키
▁피카 츄
▁불젖 이
▁느림자 부대
▁불로 소득
▁달작 법
▁마구마 구
▁알럽 베
▁치어리 더
( (
/ 9
1 20
4 1
6 강
8 5
: 15
M .
O U
a k
b vc
e x
m s
r l
t v
ᄏ ᄀ
▁ 른
▁ 았는데
▁ 져도
가 장
각 이냐?
개 빡
거 ?
건 강
것 을
공 학과
관 에
권 을
기 나
기 사가
깨 고
꼴 림
끝 남
끝 에
나 감
나 베
넘 으면
다 ᄏᄏ
다 보니
당 하는거
대 단
대 요
댓 출
데 리
돌 때
됐 냐?
되 냐고
되 는거냐
드 아
딜 이
래 요
레 가
레 오
렌 지
련 은
로 딩
로 움
로 켓
루 미
르 냐
린 은
만 하냐?
많 다
말 인데
면 ?
명 록
모 다
몰 라도
무 도
무 스
미 라
민 족
바 고
바 요
버 린다
버 린거
버 리노
봉 준이
부 럽다
브 앱
빈 치
빌 드
뽑 아야
산 업
서 포트
손 으로
수 익
시 냐
시 를
신 운
실 한
십 어
쓰 노
쓰 니까
쓰 면서
안 댐
안 주
안 했는데
안 한다
안 하냐?
알 림
양 아치
어 깨
어 랑
없 었으면
연 동
였 다면
영 어
왔 씨야
우 흥
운 건
울 이
워 도
위 원
이 러
이 는데
이 겠네
인 더
일 베
잇 엇
있 더라
장 사
장 현식
적 폐
적 임?
정 공
제 랑
좆 슨
죽 을
준 영
중 복
증 이
질 하고
짤 좀
차 이즈
찬 데
초 보
충 임
캐 논
코 도
코 랑
타 야
터 지네
틀 러
폰 은
폴 라
플 렉스
한 이유
한 걸로
할 만함?
해 여
해 졌네
해 달라
했 었네
행 사
혁 은
호 구
효 니가
▁이 날
▁이 뿌
▁이 토
▁아 냐??
▁아 린이
▁나 형
▁나 밖에
▁나 가지
▁1 타
▁오 신
▁오 ..
▁오 후에
▁안 박
▁안 양
▁안 하지
▁안 보이는데
▁하 구
▁그 년
▁사 드
▁사 먹
▁사 니까
▁사 사키
▁다 이브
▁보 공
▁지 혜
▁시 공
▁시 야
▁시 오리
▁가 보고
▁진 도
▁2 권
▁2 단
▁2 조
▁2 화
▁2 가지
▁2 -2
▁있 길래
▁개 처
▁개 사기네
▁한 터
▁여 물
▁내 주면
▁뭐 긔?
▁뭐 쓰냐
▁뭐 먹지
▁기 모
▁대 꼴
▁대 두
▁정 배우
▁마 자
▁마 홍
▁좋 네요
▁없 습니다
▁없 었다
▁수 룡
▁수 이스
▁진짜 ..
▁유 버
▁유 혜
▁유 프로
▁유 식이
▁무 겁
▁무 직
새끼 임
하는 방법
▁3 턴
▁3 60
▁3 세대
▁3 단계
▁인 땅
▁미 남
▁미 달
▁미 키
▁일 도
▁좆 바
▁좆 튜브
▁신 전
▁신 차
▁전 라
▁전 성
▁전 에도
▁잘 했
▁잘 한듯
▁존나 좋아
▁존나 싫어
▁모 셔
▁못 내
▁못 써
▁갤 디코
▁주 름
▁주 홍이
인데 ...
▁공 을
▁비 오
▁소 서
▁소 엑
▁소 진
▁노 조
▁노 신화
▁거 북이
▁올 클
▁올 렸다
▁부 리
▁조 은
▁도 마
▁도 화
▁알 던
▁알 피
▁요 양
▁중 첩
▁와 따
▁4 기
▁머 학
▁레 이스
▁언 리
▁남 혐
▁리 창
▁구 슬
▁구 린거
▁구 본혁
▁파 냐?
▁트 럭
▁서 출구
▁문 득
▁원 바
▁원 하는거
▁영 차
▁김 원중
▁성 덕
▁카 습
▁카 인
▁선 장
▁연 패
▁씨발 새끼들
▁에 우
▁에 기르
▁먹 엇
▁먹 는중
▁얼 라
▁실 프
▁실 리콘
▁피 는
▁피 눈물
▁살 걸
▁배 슬
▁장 량
▁장 한
▁박 건우
▁로 젠
▁솔 큐
▁불 어
▁강 습
▁차 갤
▁차 비
▁차 세대
▁6 이닝
이네 ...
▁타 순
▁아이 가
▁씹 오
▁씹 좆
▁현 건
▁포 획
▁입 개
▁동 숙
▁8 년
▁않 으면
▁패 치는
▁받 지
▁어디 임
▁치 카
▁치 는데
시간 은
▁7 50
▁7 이닝
▁토 스
▁후 ..
▁매 물이
▁투 헬
▁언제 와
▁호 넷
▁호 영
▁호 호
했는데 도
▁빨 머
▁빨 았
▁크 긴
▁크 레드
▁똥 장미
▁화 랑
▁화 학
해야 댐
▁짤 드컵
▁따 가
▁작 혼
▁꼴 랑
▁싶 노
▁싶 지
▁복 기
▁가능 성은
▁삼 행시
▁관 광
▁철 길태
▁어케 잡
▁끝 나는
▁끝 판왕
보고 가
▁죽 은거
▁다시 한번
▁하는 구나
▁넘 네
▁넘 치는
▁까 는게
▁빠 르네
▁열 렸다
▁팔 았
▁루 이
▁루 즈
▁싸 구려
▁잡 네
▁들 으니까
▁직 전에
▁막 판에
▁새끼 도
▁11 00
▁쳐 먹고
▁케 로로
▁홍 상삼
▁천 박
▁모르 노
▁베 팅
▁광 기
▁30 회
▁목 소리는
하나 가
지는 듯
▁잠 이나
▁과 탐
라이 딩
▁허 니
▁허 세
▁뿡 탄
수있 게
수있 나
▁창 문
▁창 조
▁악 당
▁악 재
▁써 보고
▁하루 하루
▁15 년
▁15 16
▁워 쉽
▁워 해머
▁올라 가네
▁판 별
▁판 타
▁맛 있네
▁찾 아서
▁킹 정
▁행 운
▁200 9
▁나왔 냐?
▁흑 인이
▁회 귀
▁절 정
▁봉 디비
▁일러 가지고
▁황 대
▁돌아 왔네
▁청 산
▁청 순
▁s 10
▁프로 틴
▁18 시
▁S D
▁S k
▁새끼들 도
▁안나 네
▁안나 는
▁17 8
▁뭔가 요?
▁휴 학
▁밥 도
▁딜 찍
▁사랑 해요
▁서버 열
▁댓글 달
▁쉬 발
이었 어
▁16 8
▁이쁘 냐
▁진지 한
▁19 토
▁A R
▁스타 일이
11 8
▁항 모
▁복귀 하고
▁사이 에서
▁결국 엔
▁익 주
▁m g
▁맘 터
▁혐 한
▁개좆 병신
▁ᄏᄏᄏᄏᄏᄏᄏᄏᄏᄏᄏᄏᄏᄏᄏᄏᄏᄏᄏᄏᄏᄏᄏᄏ ᄏᄏᄏᄏᄏᄏᄏᄏᄏᄏ
▁스킬 은
▁멜 뮤
▁칼 찌
좋아 ?
▁차단 하면
▁방법 좀
▁코로나 로
▁굴 리는
▁데려 갈
▁됐 지
▁찐따 대결)
▁가챠 는
▁삭제 하고
▁랜 스
▁쓰레기 통
▁류 현진
▁슼 통피
▁셀 케
▁n bvc
▁중요 한거
하러 가
▁싸우 지말고
▁나가 기
▁미래 는
여자 는
▁1년 동안
▁인간 은
▁컷 본
▁유동 닉
▁학교 에
▁신규 탈리
▁칸 나는
▁가테 갤
▁돌려 줘
▁유저 들이
안되 서
▁관심 도
▁E U
▁바이 퍼
▁낙 태
▁도배 하는
나옴 ??
는거임 ???
시켜 야
▁애플 이
▁애들이 랑
▁권 총
▁권 희동
▁ᄅ 황
▁중고 거래
▁콩 고
▁80 년대
▁118 .235
▁조용 호
했던 게
▁같아 요
▁햄 탈워
▁끄 면
▁협 력
▁돼지 새끼
▁U C
▁지만 이
▁W AR
▁대깨 맥
▁배메 가
▁뚫 어
▁부모 가
▁시절 에
▁운영 자
▁잘생겼 네
▁캠 방
▁그려 봄
▁그려 옴
▁월드컵 )
▁귀찮 네
▁2주 차
나올 까
▁안가 는게
▁상태 가
▁상태 로
▁습 도
▁언제까지 임?
▁노트20 u
▁사귀 고
▁대부분 이
▁머가 더
▁왜저 럼
▁티비 로
▁최강 의
는건가 요?
▁해설 은
▁어떨 까?
▁불편 한
▁오빠 들
▁해보 려는데
▁목표 가
코스 프레
▁김연 경
▁랑 그
▁태어 난
▁없애 고
▁왜이러 노
▁콤 프
▁경쟁 률
▁이시 국에
▁마리 나는
▁공포 의
▁안맞 는
▁수익 률
▁시그 마
사냥 터
해준 다.
▁주제 파악
▁섹시 한
▁클리 너
▁세이 렌
▁어카 지
▁커스텀 런
▁우유 통
▁셔 플
▁정해 져
▁분노 의
마려 움
ot e
▁D59 .5
▁시즈 루
▁초보 방
▁나혼 자
▁환급 내역
▁데이 먼
▁미노 타
▁요번 에
▁록 맨
▁교통 사고
인줄알 았는데
▁유카 리
▁정신차 려
▁공산 당
실화 냐
▁상하 차
반도 프스키
▁부끄러 워
▁바스 켓
▁실북 갤
▁페미니 즘
▁지겨 워
▁현기 증
▁소아 온
▁실업 급여
▁로맨 스
▁네코 파라
▁갑분 싸
▁허삼 영
▁적어라 !
▁혈액 형
▁우체 국
▁홍건 희
▁러블 리즈
▁이력 서
▁왔킹롤 (설x)
▁허수아 비
▁외제 차
▁부두 술
▁밀워 키
▁맘스터 치
▁찬란한적 월
▁푸라 닭
- 18
. l
. 상
. ""
2 .5
5 1
5 일
9 4
= )
? )
X T
p i
ᄆ ᄆ
▁ 꿔
▁ 롭
▁ 셈
▁ ᄐᄎ
▁ 잖아
▁ 텐데
▁ 났네
가 테
감 각
감 도
갤 인데
거 랑
걸 려
게 인
게 이가
겠 군
경 계
기 관
기 상
꺼 같은데
껴 도
꼬 마
나 락
나 마
나 음?
날 라
날 이네
남 이랑
네 .
뇌 절
눈 깔
느 낀
능 성
니 발
다 카
다 행
단 단
답 답
대 박
데 서
도 움
돌 은
동 님
드 도
드 만
듣 는데
들 갑
라 토
라 디오
랜 더
력 을
령 이
류 는
르 지
르 타
리 야
마 감
멘 탈
몬 스터
뭔 지
민 경
반 값
밸 런스
버 럭
번 방
베 로스
보 고싶네
붙 은
블 핑
빠 가
빠 이
사 양
사 토
샤 워
성 격
소 모
손 이
수 야
쉽 네
스 플
시 벌
시 온
시 냐?
쓰 레
쓰 지
안 다
안 좋
애 나
애 를
어 느
어 요?
에 비
에 오
여 성
영 하
오 비
온 도
왜 이래
외 질
원 에서
원 으로
웨 이브
은 비
은 정
을 못
음 ..
인 방
인 우
일 줄
임 을
있 는건
잡 지
저 럭
전 )
전 부
절 한
접 고
정 당
정 의
졌 다고
조 공
주 시
지 표
진 우
차 이나
칼 로
캐 도
퀴 가
클 래
클 은
토 랑
토 피아
통 일
투 아
틀 고
판 으로
팬 들이
퍼 스
펜 슬
프 피
프 라이즈
피 통
하 아
하 영
하 더만
학 자
한 줄
한 화
할 생각
할 거같다
해 적
해 봤다
해 보이는데
했 길래
현 황
형 아
혜 성
화 된
후 가
히 냐
힘 듬
▁이 냐
▁이 란
▁이 몸
▁이 은
▁이 쪽
▁이 기네
▁이 부분
▁이 겨서
▁이 란이
▁아 도
▁아 맞다
▁나 로
▁나 중
▁나 지금
▁나 갔다
▁어 매
▁어 음
▁어 중간
▁1 층
▁오 스트
▁오 피스
▁안 하노
▁안 간다
▁안 오면
▁안 씀?
▁안 자는
▁안 주네
▁안 쓰면
▁안 만드
▁하 치
▁하 와와
▁그 정도
▁그 리즈만
▁사 치
▁사 는건
▁다 람쥐
▁보 3
▁보 강
▁보 안
▁보 탄
▁보 실분
▁지 호
▁시 대는
▁시 1발
는거 도
▁가 디
▁가 려면
▁가 지마라
▁가 볼까
▁진 이
▁있 대
▁있 겠다
▁있 자나
▁개 명
▁한 다고?
▁스 물
▁스 쿨
▁스 메라기
▁내 기
▁내 지
▁내 리고
▁뭐 이리
▁기 독교
▁대 포
▁정 했다
▁정 연이
▁마 소
▁마 시는
▁없 나보네
▁유 기
▁유 잠
▁무 속
▁무 언
▁3 회
▁3 50
▁인 공
▁인 트로
▁인 베이
▁자 국
▁아니 다.
▁아니 었음
▁저 의
▁저 점
▁좆 된다
▁잘 가
▁잘 된
▁잘 버
▁잘 쓰
▁못 한다고
▁못 받는
▁못 따라
▁주 루
▁주 스
▁주 택
▁공 소
▁애 도
▁애 인
▁비 계
▁비 더레
▁비 전공
▁소 멸
▁소 왕굴
▁바 냐
▁우 사랑
▁노 숙
▁야 자
▁야 들아
▁만 났는데
▁거 ?
▁거 름
▁올 때마다
▁부 지
▁조 나
▁조 질
▁도 비
▁알 수
▁방 무
▁5 .2
▁요 트
▁중 위
▁재 보
▁재 성
▁재 결합
▁씨 맥
▁와 근데
▁와 일드
▁[ 1
▁머 신
▁레 반
▁좀 ..
▁구 름
▁구 림
▁구 리네
▁구 리다
▁코 난
▁코 린이
▁트 라우
▁말 머리
▁영 이
▁김 영
▁김 정은
▁카 와
▁카 튀
▁선 진국
▁추 찜
▁생각 만
▁연 우
▁먹 었으면
▁버 틴
▁실 감
▁피 터
▁되 노
▁살 려는데
▁키 드
▁키 아
▁배 드
▁최 정
▁사람 이랑
▁사람 있냐
▁메 디
▁쓰 는거임?
▁박 기
▁박 은
▁ᄋ ᄆᄒ
▁돌 려서
▁돌 릴까
▁드 나
▁드 롭
▁드 는데
.... ...jpg
▁강 렬
▁강 행
▁본 게
▁본 편
▁6 000
▁입 맛
▁디 패
▁동 반
▁동 방
▁동 원
▁동 창
▁동 생이
▁또 는
▁8 .13
▁받 습니다
▁질 서
▁토 룡
▁글 도
▁글 들
▁글 써
▁투 덱
▁투 런
▁투 수는
▁언제 오냐
하는거 임??
▁데 가
▁데 린이
▁발 달
▁발 이
▁발 냄새
▁발 키리
▁초 장
▁결 심
▁반 기
▁반 만
▁의 무
▁의 아라
▁호 기
▁호 노
▁호 옹
▁여자 들도
▁브 시간
▁브 레이크
▁단 간
▁똥 개
하다 ...
한다 며
▁네 웹
▁염 코
해야 하냐?
해야 되냐?
▁국 수
▁국 해성
▁두 두
▁복 붙
▁( =)
▁분 할
▁당 발
▁블 태그
▁삼 란
▁어케 댐?
이지 ᄏᄏ
▁죽 기
▁갈 갈
▁갈 아도
▁걸 이
▁다시 보는데
중에 선
▁넘 나
▁넘 는데
▁간 신
▁날 뛰
▁했 음?
▁까 도
▁까 진
▁이상 한게
▁열 리는
▁누가 보면
▁운 행
▁잡 았
▁잡 았는데
지않 는
▁약 사
▁막 는
▁골 라서
▁노래 들
▁노래 추천
▁겜 에
▁천 명
▁순 진
▁한국 도
▁광 부
▁뒤 진다
▁속 상
▁태 생
▁태 진이
▁교 과
▁12 4
▁폭 력
▁왔 노
▁잠 못
▁허 허
▁합 짤
▁합 체
▁합 시다
▁100 명
▁싫 고
수있 어?
▁남자 한테
▁창 년
▁군 사
▁임 찬규
▁임 산부
▁울 마왕
▁찐 이야
▁엔 팁
▁문제 다
▁하루 도
▁각 슬이
▁15 만
애들 만
▁괜찮 냐
▁괜찮 았는데
▁등 골
▁등 반
▁맛 있음?
해주 는데
▁미친 짓
▁0 7
▁0 개
▁라이 블리
▁철구 형
시발 시발
▁것 보다
합니다 !
▁급 하다
▁봉 쪽
하기 싫
▁떨 구
▁넣 기
▁돌아 가면
▁나온 게
▁s m
▁p og
▁지랄 하는거
▁정신 나간
▁18 7
▁18 00
▁엠 비
▁독 점
▁뜨 냐?
▁떴 냐??
▁신캐 랑
▁확실 함
▁17 성
▁낫 다고
▁낫 지않냐
▁퍼 거
▁아니라 서
▁앚 까
▁사랑 은
▁사랑 한다
▁챔 스는
▁서버 에
▁큰 그림
▁프리 장
▁ᄇ ᄆᄀ
▁D UMD
▁극 성
▁L A
▁L v
▁+ 1
▁빼 는
▁디시 앱
▁A V
▁a d
▁찬 스
▁찬 망구
▁높 으면
▁높 음?
▁항 문
▁항 해
▁쇼 트
▁패치 가
▁면 류
▁개좆 망
▁될 거같은데
▁ᄏᄏᄏᄏᄏᄏᄏᄏᄏᄏᄏᄏᄏᄏᄏᄏᄏᄏᄏᄏᄏᄏᄏᄏ ᄏᄏᄏᄏᄏᄏᄏᄏᄏ
▁카드 들
▁옛날 에는
▁잔 고
▁추가 로
▁샤 프
▁좌 타
▁탑 3
▁맥 스
하긴 한데
▁십 시
▁됐 고
▁1위 는
▁랜 매
▁민주 화
▁l v
▁으 으
▁이쁜 듯
▁없는데 ?
▁기다 려야
▁흥 행
▁N o
▁녹 턴
▁억 경
▁스포 티
▁f ps
▁보여 준
▁일어 남
.0 3
.0 6
▁도와 주라
▁1년 에
▁많은 게
▁가져 왔다
▁근첩 새끼들
▁숨 은
▁물어 보자
▁유동 들
▁앞으로 도
▁인정 한
▁점심 시간
▁소환 사는
ᅳᅳᅳᅳᅳᅳᅳᅳ ᅳ
▁찌 라시
▁사주 가
▁대학 축제
▁쓴 글
▁칩 성
▁젖 통
모드 로
▁디씨 에
▁순위 가
▁ᄐ ᄀ
▁바꿔 줘
▁없으면 서
▁좋은데 ?
▁혈 압
▁다니 고
▁다니 면
▁담배 피는
▁뛰 는거
▁안보 임
........ ..
▁옴 닉
▁다행 이지
▁하이 닉스
▁탁 희
계정 으로
▁재밋 네
▁씨발련 이
▁되는거 냐?
▁300 개
이에 요?
▁90 %
▁감사 하십시오
▁귀여운 거
이이 이
▁셋 이
▁닭 집
▁아레나 에서
▁트위치 에서
▁쿨 러
▁탐 구
▁눈물 나
▁잘생겼 어
▁길태 부부
▁지코 는
▁ᄉᄉᄉᄉᄉ ᄉᄉᄉ
ar a
▁빻 러
▁빙 결
▁버즈 플
▁역겨 운게
야됨 ??
▁더블 오
▁단체 사진
▁등장 인물
해본 사람
그림 ]
▁나온다 면
▁불안 하네
▁비율 스
▁네좆 마좆
▁델 련님
▁결승 전
▁3년 전
▁피시 방에서
▁르 누
▁디스 플레이
▁메타 몽
▁츄 츄
만들어 서
▁카카오 페이
▁간단 하게
▁1인 분
▁없애 면
재미 로
▁정식 갤러리
▁이게임 은
▁우주 소녀
▁작업 장
▁금민철 은
바꾸 면
▁답답 하네
▁거리 두기
▁부정 선거
▁한마디 만
▁민트 헤어
▁럭 스
장애 인
▁간지 나는
▁히트 곡
하지말 자
▁고장 난
▁연구 소
▁밀리 애니
▁나봉 쟝
▁그라 시아
어려 움
▁LI VE
비싸 네
▁아쉬운 점
▁이슈 줌
▁ᄒᄃᄃ .gif
▁협동 전
▁부들 부들
ᄋᄉ ᄋ
▁가보 조
▁ᄀᄋ ᄃ
▁김수 현
▁마인 드가
▁계신 가요?
▁안타깝 다
▁경매 장
▁술먹 방
▁피에 스타
▁중소 기업
▁[각개][ 엘롯연합]
▁두근 두근
▁판테 온
▁젖꼭 지
▁젠신병 자
▁그로 기
:05 ]
▁기숙 사
▁순식 간에
▁실세 즈
▁고차 비
▁파이즈 리
▁푸키 먼
▁진심2YA2YAO! (설X)
! (설쉬)
- 14
. )
6 8
< ->
A N
H L
b y
c r
n c
t h
u h
ᄆ ᄂ
▁ 으니까
▁ 년이
간 다는
감 자
갑 네
갤 집
겁 니다
겠 구나
계 좌
공 포
과 정
교 공
국 공
그 대로
기 훈
꺼 라
끝 났
끼 가
낮 은
내 에
낸 거
네 즈
놓 는
님 아
님 이랑
다 ᄏᄏᄏ
단 톡
단 에서
달 래
도 네
도 에
도 적
돌 고
동 도
등 등
등 판
디 움
따 는
라 탄
라 ...
락 이
랄 까봐
러 플
럼 들
렸 지
르 노
리 링
리 타는
린 이가
마 녀
막 타
만 기
말 라
말 랑
매 장
매 출
머 핀
먹 여
메 스
메 카
모 사
모 험
무 룩
미 널
미 러
미 인
박 지
받 아도
방 주
배 가
배 치
백 업
버 드
베 어
베 오
변 권
봉 인
부 정
브 론
빙 고
빡 이들
사 시
새 들
선 비
세 라
셋 이
소 양
소 총
쇼 핑
수 당
수 육
스 퍼
승 호
시 !
시 랑
신 )
실 버
실 적
심 하네
쎄 네
아 싸
아 시는분
야 ???
어 진
언 어
업 글
업 네
없 다는
연 전
열 매
오 야
오 는건
원 본
웠 어
유 럽
율 은
의 달
의 의
이 개
이 션
이 자나
인 을
인 이다
일 거같은데
잇 지
작 년
장 벽
장 의
저 런
전 때
점 핑
제 네
조 국
주 니
직 한
진 도
질 하는거
짤 .gif
천 명
쳐 맞
충 도
츠 가
칭 찬
쿠 니
크 게
키 즈
키 우면
타 르
탐 ?
털 기
토 큰
통 제
티 셔츠
팀 으로
편 의점
푸 는
피 트
하 가
하 락
하 향
하 기는
한 날
한 판
할 려는데
해 봐도
햇 더니
혜 교
환 불
회 가
▁이 문
▁이 식
▁이 전에
▁아 랑
▁아 레
▁아 존나
.. !
▁나 미
▁나 대는
▁나 바스
▁어 가
▁1 스
▁1 시에
▁오 구
▁오 아
▁오 은
▁안 깔
▁안 사람
▁하 수
▁하 길래
▁하 시는
▁하 고싶어
▁그 들만의
▁사 네
▁사 모
▁사 본
▁사 주는
▁다 리가
▁보 5
▁지 났
▁지 문
▁지 연
▁시 오
▁시 집
▁가 세
▁가 형
▁개 별
▁개 뷔
▁개 열
▁개 좋다
▁개 좋은데
▁개 거품
▁한 지
▁한 심한
▁근 친
▁스 미
▁스 우
▁뭐 하나
▁기 반
▁기 병
▁기 소
▁기 엽
▁기 아가
▁대 려
▁대 응
▁대 피
▁마 가
▁마 코토
▁없 는거임?
▁없 을까?
▁수 직
▁유 타
▁무 의미
▁존 중
하는 곳
하는 애들이
▁3 연속
▁아니 였냐
▁미 호
▁고 영
▁일 렉
▁일 도리
▁좆 문
▁신 속
▁신 카
▁전 교
▁전 파
▁잘 할듯
▁해 가
▁해 저
▁해 줌
▁해 봤다
▁존나 네
▁존나 못
▁모 으면
▁모 스크
▁못 감
▁못 뚫
▁제 라
▁주 님
▁공 정
▁애 토
▁비 대
▁비 올
▁비 대면
▁비 처녀
▁생 겨
▁생 선
▁소 원이
▁바 가
▁바 닐라
▁우 습
▁야 함
▁거 임??
▁조 종
▁조 진
▁도 용
▁도 장
▁도 는데
▁도 사는
▁방 제
▁5 G
▁5 000원
▁요 롱
▁요 소
▁중 얼
▁중 인
▁재 즈
▁재 획
▁4 달
▁4 신수
▁[ 레벨업갤]
▁머 단
▁머 민
▁머 중
▁머 리는
▁많 을
▁레 플
▁리 엄
▁리 조
▁리 카
▁리 스크
▁구 나
▁구 석
▁구 려서
▁코 너
▁라 임
▁라 카
▁라 투디
▁시발 ᄏᄏᄏᄏᄏ
▁시발 럼들아
▁서 문
▁성 사
▁성 서
▁성 적이
▁성 우가
▁카 에데
▁맞 노
▁맞 았
▁추 세
▁추 한
들어 옴
▁생각 으로
고싶 지
▁연 주
▁씨발 ᄏᄏᄏ
▁에 혀
▁얼 토츠
▁버 려야
▁실 습
▁게 펜
▁피 엘
▁세 나비
▁살 게
▁살 때
▁키 시
▁키 커버
▁배 빵
▁예 산
▁예 아
▁장 이
▁쓰 고싶다
▁로 키
▁돌 진
▁ᄌ ᄆ
▁ᄌ 같음
▁ᄌ 망겜
▁드 리
▁이번 년도
▁6 만원
이네 ᄏᄏᄏ
▁포 이
▁입 성
▁입 어
▁입 학
▁디 바
▁디 즈니
▁병 장
▁몇 등
▁동 실이
▁나오 자마자
▁8 개월
▁받 는게
▁질 싸
▁치 기
사람 도
▁감 소
▁감 핀
▁감 히
▁토 너먼트
▁후 즈
▁매 제
▁ᄉᄇ ᄏᄏᄏᄏᄏ
▁투 비
하는거 봐
▁데 자
▁초 고수
▁반 가
▁호 스
▁우리 한테
▁여자 만
▁빨 게
▁단 차
▁똥 글
▁똥 내
▁똥 캐
▁똥 파리
▁얘 두라
▁20 30
▁네 반
▁좋아 해서
▁좋아 한다
▁좋아 하냐
해야 해
▁달 림
▁달 면
▁새 보
▁들어 봐
▁들어 야
▁이런 느낌
정도 만
▁추천 한다
▁물 품
▁심 리가
▁심 우준
▁두 면
▁위 영소
▁분 당
▁분 신
▁처 먹
▁재밌 던데
▁블 록
▁블 리
▁블 박
▁철 남
▁철 도
▁눈 마
▁갈 색
▁양 쪽
▁히 크로
거같 지않냐
▁누구 로
▁날 라가
▁설 렌
▁플 루
▁플 라스틱
▁했 구나
▁방송 안
▁열 정
▁열 대야
▁풀 이
▁별 빛
▁별 개로
▁팔 릴
▁팔 사람
▁루 비
▁찍 네
▁찍 었네
▁싸 고
▁싸 는
▁민 뱅
▁안되 냐??
▁백 만
▁백 서
▁막 트
▁아무 생각
▁딱 밤
▁베 테랑
▁욕 하지
▁광 휘
▁뒤 면
▁뒤 지는
▁뒤 져도
▁속 삭
▁교 차로
▁12 명
▁검 둥
▁왔 더니
▁잠 잠
▁과 장
▁편 임?
▁합 쳐
▁싫 네
▁승 인
▁임 마
▁울 었다
▁ᄆ ᄅ
▁명 전
▁명 확
▁명 대사
▁써 봤는데
▁하루 이틀
▁15 판
하노 ᄏᄏ
▁올라 올
▁올라 가는거
▁헤 르
▁좆같 지
▁애미 디진
▁맛 있는데
▁쓸 어
▁찾 았는데
▁킹 능성
▁철구 도
▁준 내
▁줄 은
▁줄 이
▁줄 이면
▁ᄏ .ᄏ
▁나왔 습니다
인거 야
▁것 을
▁회 차
▁놀 다
▁몸 을
▁시간 외
▁황 족
된다 면
▁빡 쳤
▁빡 치는
▁청 룡
▁s d
▁지랄 이고
▁축 신
▁프로 4
▁프로 토
13 5
▁S M
▁그러 지
▁푸 근
▁뜨 겁
▁슈 발
▁낫 긔
▁낫 샤이
다니 네
▁찜 만
▁선수 들이
이었 냐?
할거 냐
▁16 60
▁표 식
▁이쁘 긔
▁이쁘 긴
▁우승 은
▁빼 곤
생각 이
▁떨어 지고
▁떨어 진거
▁희 한
▁콘 텐츠
▁샘 물
▁고닉 으로
▁붙 는
▁빌 라
▁레이드 에서
▁생각해 ?
▁마이 룸
▁믿 으면
▁없어 짐
▁받아 가
▁받아 줄
▁고민 하는
시즌 에
▁t 14
▁t no
▁실화 냐??
▁미쳤 긔
나요 ???
프로 필
▁있었 냐
▁있었 냐?
▁있었 구나
▁낮 추
!!!!!!!! !!!!
▁효 도
▁영화 는
▁좌 석
▁쥐 새끼
▁내년 엔
▁십 창
▁색 기
▁송 중
▁능 력이
▁에픽 은
▁안나오 는거
▁삭제 함
이였 다
이였 음?
▁사라 져
▁완장 은
▁던파 가
이거 든
▁털 린
▁털 리는
▁덱 이
▁야구 를
▁c s
▁깔 고
▁결과 가
▁무대 는
▁씹덕 들
▁일반 승
▁강화 퀘
▁읽 는
▁읽 을
▁나이 키
▁일어 나는
▁상황 에서
▁좃 같은
▁한다 면
하는건 지
▁아프 네
▁스밍 인증왔
▁ᄊᄉᄐᄎ 임
▁물어 봤
▁e bs
▁얻 기
▁얻 은
▁김치 국
▁대기 화면
▁컨텐츠 는
노래 는
▁어렵 냐?
▁몇개 월
▁홍어 들
▁바꾸 는거
▁C A
▁노잼 이라
하니 ?
▁생겼 으면
▁바이 러스
이긴 하네
▁안좋 음?
▁바꿔 서
▁전화 해서
▁예전에 는
▁저새끼 가
▁공격 수
▁부탁 해
해보 여
해보 이는
▁알고 보면
▁짤녀 는
▁다행 임
▁다행 히
▁O P
▁벤 클
▁룩 우스
▁재밋 게
▁레벨 링
메이 플
▁넘어 가는
▁사과 영상
▁싹 쓰리
▁축하 한다
▁민주당 은
▁헤어 스타일
▁뽕 맛
▁이재 명이
▁협 상
▁이길 듯
보내 는
▁충격 적
▁엔딩 이
▁조금 이라도
▁외형 옵션
▁안돼 서
▁캠 프
좋은 듯
▁나라 에서
▁아이유 님
▁박보 영
▁빻 은
▁마라 탕
겠습니다 .
▁8/ 12
▁블핑 은
▁인사 왔씨야
▁땅 땅
▁난리 난
▁야붕이 들아
▁화장 품
▁풀어 줘
it s
▁3년 차
▁이성 열
맞추 면
▁전쟁 나면
▁10년 전
▁이따 구
▁나쁘 진
▁유행 어
▁한판 에
▁한판 따리
▁닌 다
▁장원 삼
▁며 느
▁몽 환
▁꾸니 는
▁9강 부
▁냥 꾼
▁지나 가는
▁매력 적인
▁2루 타
바꾸 고
▁뻔 하지
▁집착 하는
▁텍 스트
▁오리 콘
귀여 움
▁j yp
기전 까지
▁열어 줘
▁특이 한
▁있으 신
▁친추 좀
▁깨달 은
▁못참 고
▁못참 지
▁치명 타
▁코코 로
루루 루루
마려 워
▁충전 기
▁에어팟 프로
▁핫산 )
▁핫산 ]
▁안된 다고
)설 첫
▁포도 꾸라
▁트럼프 가
▁중독 성
▁마려 운
▁마려 운데
▁데이 비드
▁42 위
▁컴터 로
.08 .13
▁우선 순위
▁어째 서
인줄알 고
▁줄어 든
▁체험 판
▁175 .2
▁개쳐 발
▁한두 번
▁하라 메
▁대처 법
▁어릴 땐
▁박준 태
▁드루 이드
▁유치 원
▁항로 쩔
▁top 3
▁미적 분
▁후유 코
▁익절 남
▁헐리 웃
해성 사
▁우아 하게
▁근근 웹
▁주호 민
갤]8/ 3
▁비제 이들
수영 복
타이거 즈
▁2020/0 8/13
▁PS G
▁비동의강간 죄
U. M.
▁이채 연
▁애니컷 신
▁바니 걸
▁선구 안
▁새로나 온
▁황교 안
▁푸거 스
▁텔라 닥
▁[사토미나미 갤]8/3
▁TH E
▁오또 케
▁헬레 네
▁맥도날 드
▁kor u
▁남양 주
▁귀축 교사
▁김심 야
▁스터 디
▁일리치 치
▁킹오 파
▁그럭 저럭
▁김범 룡
! )
- 16
. 바
. tw
/ 12
1 10
2 만
D .i
F F
a 가
n t
p m
ᄂ 데
ᄌ ᄉ
ᄐ ᄑᄋᄌ
갈 량
강 남
같 다고
개 미
갤 이네
거 니
걸 음
계 에서
구 현
국 적
굴 에서
규 는
깅 이가
께 요
꼴 리네
나 ...
난 다고
날 먹
내 도
내 야
넘 은
넣 기
논 거
놔 야
누 ᄏᄏ
누 나는
느 금
느 데
는 가
님 들아
다 면서
대 화
대 에서
던 대
던 디
도 루
도 의
돌 리
돌 리는거
되 잖아
둥 이는
드 레
들 겨
딜 은
떠 도
라 그
라 매
랙 스
레 전
렙 에
마 망
만 세
만 나서
말 든
매 니아
목 구
물 도
민 혁
박 기
받 앗
받 을때
받 으러
발 매
방 지
보 낼
보 냈
보 도
볼 게
볼 이
부 네
부 스
블 리스
빨 면
산 은
세 오
셔 스
수 호
수 준이
슈 퍼
스 나
승 승
신 이랑
심 리
안 대
안 하나
알 고
어 부
억 인데
없 게
여 캠
역 이
였 다고
였 지?
오 공
오 더
온 은
우 웅
운 다
움 직
유 명
음 료
자 ,
자 서
장 )
재 고
재 학
쟁 이가
저 지
제 던
조 림
종 의
줄 때
줌 들은
중 붕
줘 ?
지 안
지 코
진 영
째 인데
첨 부
최 종
치 는건
캐 들
커 서
코 리아
퀴 들아
팀 도
프 티
플 라
픽 스
하 브
하 오
하 습니다
하 죠?
하 소서
한 녀
합 리
해 두
해 옴
핸 드
했 오
했 나봐
허 설
후 회
힙 합
▁이 그
▁이 순
▁이 ...
▁이 어서
▁이 때까지
▁아 갈
▁아 구
▁아 크로
▁아 율른
▁나 밍
▁어 버린
▁1 라운드
▁오 닉
▁오 세요
▁오 마이
▁오 지노
▁안 구
▁안 그
▁안 입
▁안 자고
▁하 앙
▁하 겠지
▁하 네요
▁하 려는
▁사 ?
▁사 줄
▁사 일러
▁지 않
▁시 스
▁시 카
▁진 구
▁2 게
▁2 중
▁2 실점
▁있 나보네
▁왜 그래
▁개 더
▁개 좋
▁개 에바
▁스 도
▁스 커
▁스 붕이들
▁여 잔데
▁내 다
▁기 머
▁기 침
▁정 충)
▁마 빡
▁마 실
▁마 찬
▁없 긴
▁수 밖에
▁진짜 ...
▁유 정
▁유 즈
▁유 흥
▁무 주택
▁인 플레
▁자 두
▁자 바
▁자 발
▁자 적자
▁미 역
▁미 쳐서
▁고 른
▁일 년
▁일 하면서
▁일 동은
▁저 를
▁좆 크보
▁신 생
▁신 세
▁신 혜
▁신 탈리
▁신 메뉴
▁전 발
▁전 후
▁전 사가
▁전 현무
▁잘 했는데
▁잘 하지
▁잘 나오
▁이거 다
▁이거 만
▁이거 좀
▁이거 보면
▁모 가
▁못 어
▁못 보고
▁갤 칠
▁갤 떡밥
▁주 관
▁주 는데
▁주 위에
▁공 갤
▁공 차
▁공 해제
▁비 용
▁생 태
▁소 치
▁소 리는
▁바 브
▁바 티
▁우 에
같은 걸
▁노 리고
▁야 밤에
▁야 가오
▁조 온나
▁도 영
▁알 비
하고 옴
▁방 귀
▁방 명록
▁5 조
▁5 개월
▁요 키치
▁중 공
▁중 화
▁중 연)
▁더 잘
▁4 트
▁[ 그림]
▁머 독
▁머 기업
▁많 긴
▁레 노
▁구 기
▁구 상
▁구 워
▁파 고
▁코 메
▁라 .
▁시발 ?
▁말 했다
▁말 하는게
▁영 왕
다고 하면
▁김 경
▁김 고
▁김 갑주
한테 서
▁카 사
▁선 임
들어 오면
▁생각 엔
▁생각 해서
▁에 잇
▁먹 고싶
▁피 디
▁피 좆
▁피 처
▁세 류
▁세 우
▁프 밥
▁프 차
▁키 퍼
▁장 어
▁할 지
▁할 말이
▁최 예나
▁최 형우
▁사람 있냐?
▁메 롱
하네 ...
▁쓰 지마라
▁박 시영
▁로 긴
▁로 어
▁ᄋ ᄅ
▁ᄌ ᄋ
▁불 기사
▁강 태
▁강 함
▁6 분
▁타 퀴
▁씹 병신
▁씹 새끼야
▁포 럼
▁입 양
▁병 가
▁몇 십
▁몇 이냐
▁몇 프로
▁동 면
▁동 인
▁8 번
▁패 파
▁받 냐?
▁받 을까
▁어디 냐?
▁치 파
▁망 오
▁계 집
시간 째
▁감 각
▁감 수
▁7 위
▁후 광
새끼들 임
▁매 춘
▁투 바
▁발 라드
▁초 이스
▁하나 임
▁9 000
▁반 투명
▁호 드
▁호 랑
▁호 재
▁호 복이
▁호 들갑
▁호 제던
▁빨 리는
▁단 골
▁단 어가
이야 ...
▁얘 들은
▁화 제성
해야 된다
해야 댐?
▁외 교
▁달 빛
▁달 리고
▁들어 봤는데
▁들어 가지
▁짤 로
▁티 탄
▁티 키타
▁귀 가
▁물 린
▁친 해
▁꼴 릴때
▁심 정
▁두 렵다
▁위 너
▁위 상
▁위 에서
▁가능 할
은거 지
은거 같음
▁삼 갤
▁삼 촌
▁끝 물
▁끝 에
▁끝 냈다
▁뉴비 라
▁적 립
▁죽 인다
▁갈 거
▁양 상
▁양 가든
▁걸 리냐?
▁집 행
갤] S
▁누구 있냐
▁간 다고
▁까 는데
▁방송 하는
▁빠 는게
▁열 려
▁열 린
▁열 차
▁풀 린
▁볼 땐
▁무슨 소리
▁뽑 음?
▁완 화
▁갓 생
▁막 장
아니 지?
▁통 장
▁쳐 야
▁출 고
▁응 딩이
▁겜 도
▁욕 은
▁욕 받이
▁광 속
▁테 르
▁뒤 졌으면
▁뒤 통수
▁속 으로
▁속 도가
▁터 보
▁검 증
(설 쉬
▁왔 세운
지는 중
▁일본 의
라이 팅
▁업 비트
▁참 새
▁허 전
▁사실 은
▁용 제
▁군 마
▁임 상
▁임 페
레이 어
▁각 인데
▁15 만원
▁체 급
▁체 중
▁궁 극
▁헤 라클
▁애미 터진
▁등 극
▁판 도
▁미친 개
▁미친 년들
▁0 10
▁킹 오브
ᄃᄃᄃᄃ ᄃᄃ
▁"" 그
▁몸 값
▁해야 하는거
▁해야 하냐
▁시간 표
▁넣 는거
▁졸 살
▁저거 는
▁입갤 ᄏᄏᄏᄏᄏ
▁S AY
▁폴 더
▁떴 긔
▁필요 한데
▁필요 없다
▁안나 님
▁맨 몸
다니 는데
▁휴 일
년들 도
갤러 가
갤러 들은
▁선수 단
▁스트 라이
▁쉬 운데
이었 던거
▁16 00억
▁그림 을
▁폰 에
▁아니냐 ???
▁19 년
▁같음 .
▁A gain신곡홍보
▁떨어 져서
▁찬 물
▁결국 은
▁레이드 가
▁쇼 케
▁m e
▁엘마 가
▁공부 하기
▁P O
▁맘 이
▁없어 짐?
▁고민 중인데
▁얘기 하는
▁겨 털
▁침 몰
▁뿌 리고
▁있었 던거
▁칼 리
▁이러 는
▁센 징
▁니네 들
▁잔 소리
드컵 ]
▁육 개장
▁앱 삭
▁밑 에서
▁맥 심
▁앰 이
▁색 히
친구 랑
▁개인 정보
이였 노
▁l d
▁덱 좀
▁절대 안
▁비슷 함
▁어캐 됨?
▁억 제
▁책 상
▁레이 더
▁레이 블
▁엄마 는
▁보여 주고
▁혜 성
▁일어 났다
▁감독 모드
▁관련 된
▁B D
.0 1
▁좋은거 같음
▁직업 은
추천 점
▁가져 오
▁숨 이
▁ᄊᄉᄐᄎ 인데
▁물어 봄
▁e u
▁있는거 지
▁ᄀᄎ 은데
▁유동 은
▁된 다는
▁얻 었다
▁뷰 티
▁갤러 들아
▁어때 ??
▁멋 글
▁멋 있네
▁어렵 지
▁한달 동안
안되 노
시절 에
▁E D
▁뮤 뱅
▁조선 장
▁바꿔 라
▁버스 에서
▁벨 트
▁파티 원
▁해주 네
▁준비 하는
▁안보 이는
▁땡 기
▁땡 칠이
▁상향 안
▁탭 칠이
▁조용 하네
▁느그 들
▁승리 의
▁승리 호
▁21 세기
▁짝 짝
▁보다 보면
▁설명 해줌
▁끄 엑
▁협 곡
▁h 4
▁큐 베
보내 고
▁배메 는
▁텐 노
an d
▁외형 장비
▁아프리카 가
▁우울 해
축하 왔
▁튀 기
▁튀 김
▁아니었 어도
▁품 질
입갤 ᄏᄏ
▁퓨 쳐
▁부르 는거
▁관리 자
▁이것 좀
▁2군 에서
바이 벌
▁맵 이
▁체감 이
▁똥퀴 새끼들
▁뷰지 에
▁남친 이랑
▁재밌는 듯
▁부족 한
▁순간 이동
▁클로 저스
>>>> >>>>
▁불편 해
▁살까 말까
▁힘든 거
▁스케 일
▁모집 합니다
▁주공 두
▁시원 한
▁스토 커
▁비밀 의
정신 병
▁이따 가
▁안녕하세요 .
▁갤탭 7
▁몇번 을
▁검은 사막
부탁 해
키우 기
키우 는데
키우 는게
▁냥 냥
▁산다 이온
▁못보 겠다
▁자연 스럽게
▁마나 모아
바라 기
▁모으 기
▁스페 이스
▁토르 란
▁며칠 전에
▁이번달 에
▁센터 백
자체 는
▁똥찬 이는
▁사무 실
▁기가 막
▁내놔 라
▁코미 어
▁지무 유
▁웃겼 는데
▁한가 운데
▁더러 워
▁덤 벨
▁쁘 허
▁시점 에서
▁공공 근로
▁타령 하는
▁보드 게임
▁성욕 이
▁하지말 라고
▁1점 차
▁태양 광
▁새봄 추
▁익숙 한
▁전설이다 ...
▁그렇다 쳐도
▁이도 윤
▁세컨 드
사무 엘
▁사촌 동생
▁왜저러 냐
▁통신 사
.m anhwa
▁그랜 절
▁택시 기사
▁건전 한
▁[씨야 갤]
▁강진 성
세운 갤]
▁후속 작
▁유식 아
▁진중 권
마드 리드
감사 합니다
.c om
▁어마 어마
▁아버 지가
크래 프트
▁해리 포터
▁지휘 관
▁박경 수
▁커맨 드
아티 스트
▁타르 코프
▁대양 왕
▁D. U.M.
스위 칭
▁감전 수용
케미 칼
▁쥬쥬 밀
▁벨파 스트
▁코박 죽
▁박문 각
▁[수 마갤]
▁데스티 니
▁짜파 게티
투표인증왔어요 (설x)
▁가위바위 보
▁수자 공
▁도라에 몽
▁왔세운 (설X)
▁D.U.M. D.i
& @
( feat.
1 번
1 시
1 시간
2 m
3 반
3 성
4 7
4 가
7 50
8 00
A C
E W
[ 라포엠마갤]
e B
e M
k t
r ea
t f
~ 30
▁ 챠
▁ 으니
▁ 줌마들
가 봄
갈 까?
갈 수록
감 소
거 지?
걸 리네
게 이지
교 수
교 정
구 성
글 좀
급 이면
기 둥
기 준이
김 없이
까 기
꼬 추
나 스
날 개
넘 이
노 ᄏᄏᄏᄏ
노 가다
놓 지마
늒 네
는 ?
능 력이
다 네
대 를
던 놈
던 가?
데 아
동 영상
되 던데
될 때
드 레드
들 여
들 보면
디 스크
따 로
따 위
또 는
럼 아
로 디
로 아
르 드
리 세
릴 카
림 이
마 리가
만 하냐
많 이나
망 생
망 치
매 트
머 금
머 지
머 냐?
먹 노
몬 드
무 이
무 소속
뭐 시기
미 네
미 디
미 아
미 워
미 즈
밀 한
바 보
바 코
바 나나
박 싱
배 깅
백 혐
보 리
볼 거
볼 트
브 랜드
비 리
뽑 으면
사 전
살 면
살 은
상 사
세 혁
수 고
수 나
숙 제
쉬 고
스 면
스 탑
슨 이
시 게
아 픈
아 가는
안 하는게
안 했으면
알 람
앰 인데
야 .
없 냐??
에 라
여 부
역 에서
연 봉
열 고
염 보성
예 능
예 담
오 랑
오 카
오 세요
올 리네
옴 ??
왓 어
우 냐
우 파
워 너비
웠 네
으 신분
이 겼
이 더
이 엇
이 길래
인 에
인 으로
임 무
장 소
재 민
절 단
절 정
정 대
졌 긔
조 리
조 스
조 심
조 의
주 공
준 혁
중 ?
줬 어
지 구
질 라
찍 는데
찍 어서
창 민
초 딩
초 밥
층 에
치 국
칠 까
커 브
키 기
탑 은
텐 션
템 은
트 와
트 레이
특 집
티 끄
파 편
펀 맨
편 임
포 우
프 네
프 린
프 터
피 드
한 당
함 ????
해 석
햇 다고
했 지?
현 타
환 가
▁이 입
▁이 케
▁이 쿠
▁이 목구
▁아 렌
▁아 본
▁아 슈
▁나 게
▁나 니
▁나 란
▁나 시
▁나 레이션
▁어 웨
▁1 픽
▁1 .4
▁1 학년
▁안 간
▁안 싸
▁안 보면
▁안 드는
▁안 주면
▁안 알려
▁안 될듯
▁하 야
▁하 냐고
▁하 던가
▁하 십시오
▁하 고있는데
▁하 주석
▁그 분들
▁사 슴
▁사 연
▁사 의
▁사 기네
▁보 냄
▁보 방
▁보 ))
▁지 거
▁지 국
▁지 독
▁지 렸다
▁시 코
▁가 속
▁가 려고
▁가 야겠다
▁진 마
▁진 상
▁진 순
▁2 D
▁2 카
▁2 세대
▁있 다고?
▁있 나봐
▁있 을텐데
▁왜 또
▁개 많이
▁개 불쌍
▁개 메좆
▁스 웨
▁스 코
▁스 케이
▁여 배
▁여 형
▁기 아는
▁기 장님
▁대 갈
▁대 관
▁대 주
▁정 돈
▁정 떡
▁정 옵
▁오늘 밤
▁오늘 저녁
▁마 술
▁마 켓
▁마 탕
▁마 리오
▁없 누
▁없 나봐
▁없 었던
▁수 연
▁수 컷
▁유 선
▁유 스
▁유 인
▁무 고
▁무 녀
▁무 자
▁존 똑
▁3 조
▁3 코
▁3 호기
▁인 식이
▁자 경
▁아니 라는
▁미 들
▁미 침
▁고 렙
▁고 추가
▁고 블린
▁저 저
▁좆 지
▁신 디
▁신 박
▁신 부
▁신 본기
▁전 달
▁전 정국
▁잘 먹
▁잘 벌
▁해 줌?
▁존나 하네
▁모 냐
▁모 리
▁모 티브
▁못 구
▁못 타
▁못 먹어
▁못 봐서
▁못 바꾸
▁제 모
▁제 퓨
▁갤 만
▁주 리
▁주 는거임?
▁주 머니
▁공 간
▁공 덱
▁애 자
▁애 새끼
▁비 공
▁비 디오
▁야 만
▁야 망
▁만 기
▁올 리네
▁부 리는
▁조 카
▁조 이드
▁도 핑
▁도 인비
▁알 리사
▁알 앗는데
▁방 사
▁5 급
▁5 인
▁중 순
▁재 승
▁재 현
▁상 갤
▁상 우
▁누 드
▁와 야
▁4 컷
▁[ 황
▁머 글
▁머 한
▁머 하는
▁레 서
▁레 데리
▁레 반도프스키
▁좀 ...
▁리 허설
ᅳᅳ 타
▁구 형
▁파 마
▁파 면
▁파 메카노
▁코 갤
▁코 는
▁라 떼
▁시발 ..
▁말 숙
▁말 해서
▁말 라는
▁문 이
▁문 폭스
▁김 포
▁김 치는
▁김 호중
▁성 이
▁카 논
▁카 벨
▁카 디비
▁선 포
▁너무 좋아
들어 라
들어 오
들어 가면
들어 가서
▁연 필
▁씨발 ᄏᄏᄏᄏ
▁씨발 년이
▁에 르
▁에 메
▁에 포트
▁먹 히
▁먹 고싶어
▁얼 척
▁얼 터
▁버 려라
▁실 황
▁피 하는
▁피 케이
▁세 무
▁세 월
▁프 텍
▁살 라
▁살 았
▁키 도
▁키 웠
▁키 웠는데
▁배 아파
▁예 열
▁장 담
▁장 투
▁장 필
▁같 고
▁할 걸
▁할 수도
▁최 신화
▁메 루
▁메 탈
▁쓰 는건
▁쓰 려고
▁이제 서야
▁박 쥐
▁박 석민
▁로 비
▁돌 갤
▁ᄌ 목
▁ᄌ 반고
▁드 는거
▁이유 도
▁불 명
▁강 길
▁강 다
▁강 민호
▁강 동원
▁니 트
▁니 아노
▁타 곤
▁타 에
▁타 이어
▁아이 코
▁현 빈
▁현 탐
▁현 우진
▁입 은거
▁10 선
▁몇 천
▁몇 가지
▁동 발
▁동 아리
▁나오 던데
▁나오 는거임?
▁8 시에
▁패 도
▁망 이
▁7 시에
▁7 연승
▁캐 나다
▁투 입
▁초 콜
▁초 시생
▁하나 면
▁9 만
▁9 위
▁우리 흥
▁여자 애가
▁단 계
▁단 편
▁단 장이
▁얘 랑
▁20 15
▁20 -1
하다 ..
한다 ...
▁네 로
▁손 떨
▁좋아 짐
▁좋아 지는
▁화 났
▁화 들짝
▁페 창
해야 하냐
해야 할듯
▁커 녕
▁병신 새끼들아
▁병신 인게
▁국 비
▁새 해
▁짤 남
▁짤 .gif
▁티 내
▁티 져
▁따 효니가
▁물 려
▁작 고
▁작 은거
▁친 누나
▁위 엄
▁가능 하지
▁( 축구
▁( feat.
▁재밌 는게
▁ᄋᄋ ;;
▁삼 중
▁관 통
▁철 봉
▁어케 깨
▁끝 냈
보고 왔는데
▁뉴비 들을
▁적 고
▁죽 어라
▁웃 고있
▁갈 듯
▁갈 면
▁양 말
▁양 식
▁양 키스
▁걸 리냐
▁하는 사람
▁집 앞
▁엘 더
▁간 절
▁날 은
▁플 핸
▁했 나
▁까 놓고
▁까 먹음
▁방송 으로
▁음 전
▁클 레이
▁풀 옵
▁팔 았다
▁민 우
▁운 세
▁잡 는다
▁떡 선
지않 을까?
▁백 프로
▁ᄀ ᄊᄉᄐᄎ
아니 지
▁출 사
▁케 밥
▁겜 을
▁천 하
▁모르 게
▁모르 냐
▁시작 이네
▁던 질
▁던 오프
▁길 을
▁한국 남자
▁욕 먹을
▁테 트
▁30 연차
▁태 극
▁교 배
▁폭 행
▁벌 벌
▁업 그레이드
▁온 플릭
▁슬 러
수있 는거
수있 으면
▁용 아맥
▁창 피
▁함 .
▁채 권
▁채 연
▁채 은성
▁울 면서
▁님들 님들
▁명 의
▁좋은 이유
▁15 5
▁15 주년
▁체 리블
▁체 이서
▁캐릭 들
▁번 도
고있 었는데
▁괜찮 을
▁괜찮 은듯
▁소바 가
▁종 종
▁등 에
▁판 도라
▁판 독기
▁머리 를
▁찾 는다
▁행 님덜
▁나왔 으니
▁산 타
▁것 만
▁것 은
▁것 들이
▁것 이다
▁회 전
▁- 1
▁해야 되는데
▁급 식이
▁퇴 치
없는 듯
▁없는 이유
▁시즌 4
▁투표 하고
▁13 시
▁청 옥
▁궁금 하면
해라 .
▁s r
▁s t
▁이름 만
▁이름 을
▁경기 를
▁짜 는
▁짜 르
▁짜 면
▁짜 장
▁스토리 에
병신 겜
있는 듯
리아 가
▁찜 꾹
▁딜 은
▁트레이드 를
▁50 대
▁14 .40
▁쉬 어야
▁잇 엇
▁돼 서
▁픽 포드
▁메이 브
▁메이 커
▁그림 은
▁D ay
▁혹 은
▁이쁘 냐?
▁풍 기
▁술 취
▁붙 어서
▁빌 트
▁빌 스택
▁떠 들
▁운동 하면
▁팩트 만
▁만들어 라
▁브이앱 도
▁< --
▁뿌 린
▁뿌 링클
▁보는 법
▁있었 나
▁봤 었는데
▁작년 엔
▁늘 리
▁봊 나
▁핵 과금
▁잔 잔
▁샤 이
▁증 표
▁멀 어
▁밑 갤
▁내년 에도
▁데려 왔
▁첨 엔
▁송 파
▁징 그러
▁싱 견
▁찐따 가
▁여친 은
▁살아 있는
▁빵 훈이
▁22 2
▁류 블리
▁야구 장
▁b o
▁셀 서스
▁젠 자
▁중요 한건
▁c c
▁링크 는
▁가슴 에
▁d o
▁비슷 하지
▁어캐 함?
보은 스밍
▁숙 노
▁잼 미
▁미래 통합당
▁님 드라
하지마 셈
▁탄 탄
▁정지 당한
▁1년 차
▁25 퍼
▁25 00
일러 가
▁한다 는데
▁물어 봐
▁e 14
▁릴 러
▁학교 대항전
▁된 장
거리 면서
▁인정 이지
▁훈 남
아님 ???
▁중계 방
▁여러 가지
▁한명 씩
▁유저 인데
▁족 구가
이란 건
▁홍어 는
▁흐 엉
시절 인연
▁기본 적으로
▁연습 경기
▁에이 전
▁썩 어가
▁뮤 지컬
▁ᄐ 6
▁바꿔 도
▁않았 나?
▁갖 고있는
▁다니 네
▁페이 백
▁마이너 갤러리
▁웃긴 데
▁부탁 드려요
시켜 서
▁세상 은
해보 려는데
........ ....
▁아이폰 은
ᄋᄌ ᄅ
▁벤 츠
▁탭 식
▁리그 는
▁멤버 가
▁어이 없음
▁페도 는
▁멸 종
▁트사가 가
▁모자 란
▁H KT
▁이재 용
▁꿀잼 임
▁갤럼 들아
▁검색 하면
▁쪽 으로
▁도전 과제
▁짜증 나는
▁안지만 이
한가 봐
▁거래 량
▁쳐맞 는
▁1차 지명
▁탐 정
▁된다 면
▁년 도
▁장난 질
▁섬 멸
▁씹창 난
▁아르 토리아
23 36
▁탈갤 한다
▁2주 간
▁그립 습니다
▁후회 된다
▁윈 윈
▁안가 고
▁개발 진
▁희망 이
▁느껴 지는
▁니쥬 가리
▁팔아 요
▁사귀 기
▁사귀 는
▁강간 당
수잇 음?
▁알았 지
▁과거 결정
▁키스 톤
알못 인데
▁페이커 가
▁솔로 곡
▁번호 판
▁리얼 리티
▁자신 의
▁안경 빡
▁해본 적
▁끝나 자마자
▁핀 토
▁치즈 볼
▁스토 브
▁소름 는
▁팬덤 이
▁라핌 이
해봐 서
▁간단 함
▁전문 직
▁억울 해
지않았 음?
▁부분 이
재밋 네
▁미친놈 들아
▁2만 명
▁춘 무유
상태 로
할수 밖에
▁상승 세
생겼 는데
▁경우 도
▁소울 워커
▁생각나 는데
▁동물 의
▁민트 초코
▁통합당 이
귀엽 다
▁곤 충
▁스카우 트
▁타이밍 이
▁못생겼 는데
포엠 (설쉬)
▁히트 박스
▁오지 환
▁이해안 되는
▁유키 카
▁깨달 았다
▁김재 현
/5 )
▁잠시 만
▁[정 세운갤]
▁찰 떡
▁재수 생
▁컬 렉션
▁낙서 장
▁려 장이
▁존나잘 하네
▁바닥 에
▁보은왔어요 (
▁소전 망겜
▁디지 몬
▁레어 닉
▁레인 저
▁미우 쟝
▁누굴 까
▁장식 장
▁쉬는 날
▁여왕 벌
▁3.5 억
▁창국 이가
▁웨이버 공시
▁확장 팩
▁머선 129
▁존경 하는
▁이로 치
▁재난 지원금
▁구원 파
▁중경 외
나가서 먹을
▁금강 선
▁이천 웅
▁시노 부
▁유우 키
▁물마 독
▁아이즈 원이
▁마창 사
▁넘버 원
▁허언 증
▁트렌 드
▁매그 너스
▁개노 답
▁돌아왔 구나
▁오동 석
▁국방 부
▁수전 노
▁성냥 불
▁호크 아이
▁장영 석
▁입구 컷
▁국회 의원
단군연합 투표인증왔어요(설x)
▁프로그래 밍
▁유재 석
▁오르페 우스
▁저스 디스
▁공무 원이
▁분조 잘
▁순한 맛
임영웅 마갤]
▁만수 르
▁염응 지
▁기승 전
▁조강 현
▁프롤 로그
:15 ]
▁인베이 더
▁간신 히
▁르누 아르
▁인사왔씨야 (설쉬)
▁니아노 아
▁(축구 중계.cm)
' '
- 13
- 17
2 에
5 에
: //
? ᄏᄏᄏᄏ
B J
G T
I .
h o
i ve
m r
n g
p op
▁ 밋
▁ 쯤
▁ 들아
▁ ...jpg
▁ 었어
▁ 펙트
▁ @@@@@@@@
가 실분
같 기도
거 같은
고 ,
고 래
고 추
공 항
구 )
구 석
귀 신
급 임?
기 구
기 뉴
기 자
김 민주
까 시
꿈 치
나 선
나 가는
남 고
녀 한테
뉴 얼
다 들
단 의
대 여
대 인데
던 -
도 아니고
되 긔
되 나요
둘 다
둥 절
딸 은
락 은
레 벌
리 긔
리 코
린 저
릴 수
립 선
마 요
막 고
만 날
많 냐?
맘 이
매 력
매 크로
맥 주
먹 을거
메 는
메 이트
명 단
명 이나
모 은
모 르고
목 걸이
몰 래
못 사
무 기가
물 을
뭐 야?
밑 에
반 전
방 위
방 탄
배 운
버 리기
보 는건
보 이노
볼 팅
부 림
부 위
부 르네
분 배
빠 에
빨 면서
뻔 했다
뽑 을
뿐 이야
사 수
사 의
사 정
사 탕
삼 촌
세 션
셋 은
소 비
손 가락
스 페
승 현
시 시
식 사
신 규
신 분들
아 는데
안 녕
안 지
알 파
야 갤
어 선
없 는건
없 나?
없 을듯
었 어도
었 지만
었 을때
에 반데
엿 으면
온 게
올 려서
요 금
요 시
우 찬
울 까
육 성
인 거같
있 는거임?
있 을듯
자 전거
잡 아야
장 식
장 전
잦 돌
전 차
접 는다
정 권
좀 알려
종 족
좆 간
좆 같음
주 고싶다
주 십쇼
줄 까?
줌 년들
중 심
중 에서도
중 치마인드
줬 더니
지 녁
쩌 네
찍 는거
채 워
챔 프
체 인
카 레
크 트
킹 이
타 서
탈 주
터 트
턴 에
트 렌
트 릭
특 성
패 면
포 켓몬
폭 발
프 랑
프 링
한 개
할 가
할 라면
할 거같아
해 금
해 지는거
했 었음
헨 리
▁이 녕
▁이 씹
▁이 질
▁이 차
▁이 오리
▁나 고
▁나 기
▁나 니까
▁나 정도면
▁1 급
▁1 .6
▁오 기
▁오 름?
▁안 밀
▁안 오는
▁하 관
▁하 단
▁하 데스
▁그 페
▁사 단
▁사 수
▁사 유
▁사 토
▁사 거리
▁다 정
▁다 털
▁다 ..
▁다 봤다
▁다 중이
▁보 미
▁보 쌈
▁보 일
▁지 기
▁시 디
▁시 기가
▁가 문
▁가 상
▁가 라고
▁가 겠네
▁2 판
▁2 시에
▁왜 곡
▁왜 쓰
▁왜 그렇게
▁개 많
▁개 좋음
▁개 혜자
▁개 박살
▁한 물
▁한 한
▁스 압
▁여 대생
▁여 의도
▁내 라
▁뭐 래
▁뭐 써
▁뭐 길래
▁기 태
▁대 망호
▁대 주주
▁대 정령
▁정 독
▁마 산
▁마 히
▁좋 지만
▁없 네요
▁수 완
▁무 방
▁무 브
▁존 웃
▁3 승
▁3 200
▁인 체
▁인 성이
▁자 장
▁자 이언츠
▁아니 냐고
▁아니 였으면
▁아니 에요
▁미 동이
▁고 발
▁일 과
▁일 찐
▁일 하고
▁저 때
▁저 만
▁좆 집
▁좆 퍼
▁전 망
▁전 엔
▁전 이
▁전 사는
▁잘 해주
▁해 요
▁해 충
▁해 본다
▁해 커스
▁이거 보니까
▁모 갤
▁모 인
▁못 보는
▁못 해?
▁못 할듯
▁못 씀?
▁못 데려
▁갤 기장
▁주 는건
▁주 실분
▁비 지
▁비 켜
▁비 오는
▁너 모
▁우 취
▁야 쿠
▁만 패
하면 됨?
▁거 랑
▁조 연
▁도 현이
▁도 련님
▁방 심
▁방 지
▁방 카페
▁방 시혁
▁5 점
▁5 시에
▁요 년
▁중 일
▁중 이다
▁중 갤에
▁씨 쇼
▁누 락
▁4 카
▁4 번째
▁4 마리
▁4 안타
▁머 공
▁머 박
▁언 박싱
▁남 북
▁리 안
▁파 서
▁파 토
▁파 붕이
▁코 메라
▁트 코
▁트 랜스
▁시발 거
까지 도
▁말 려
▁말 하고
▁말 하지만
▁서 연
▁문 젠
▁원 신
▁원 챔
▁원 화
▁김 광
▁김 해
▁성 불
▁성 숙
▁카 호
▁카 리스
▁카 라스
▁맞 나요?
▁선 두
▁선 에서
▁추 적
▁추 하네
▁너무 좋다
▁연 타
▁연 하
▁경 민
▁버 기
▁버 터
▁실 컷
▁되 겠
▁되 겠지
▁되 는지
▁되 는거냐
▁세 체
▁살 아서
▁키 크고
▁배 라
▁장 뽑
▁같 았는데
▁할 것
▁최 단
▁메 밀
▁메 붕이
▁쓰 긴
▁박 찬
▁로 펀
▁돌 린다
▁ᄌ ᄒ
▁드 치는
▁강 인
▁이번 이벤
▁본 능
▁본 명
▁디 어
▁느 김
▁10 장
▁몇 키로
▁동 구
▁동 화
▁동 원이
▁나오 게
▁8 000
▁패 왕
▁어디 야
▁어디 에서
▁치 워
▁망 했다고
▁계 열
▁계 투
▁감 금
▁7 분
▁7 000
한거 봐
▁캐 미
▁토 이
▁후 로
▁매 국
▁매 입
▁언제 고
▁발 급
▁발 가락
▁발 삼이
▁점 은
▁역 풍
▁결 투
▁9 천
▁반 전
▁브 루
▁브 룩스
▁크 라
▁단 종
▁단 행
▁네 버
▁좋아 했던
▁좋아 보이는데
▁화 남
▁화 상
▁염 전
해야 돼
▁국 저스
▁들어 오네
▁티 모
▁귀 두
▁귀 염
▁따 따
▁따 춘
▁따 개비
▁작 가는
▁심 하냐
▁위 반
▁위 잉
▁가능 할듯
▁얼마 만에
▁질문 있어
▁질문 이요
▁( +
▁( 8/
▁( 2020
▁( 진지
▁분 ?
▁분 식
▁돈 받고
▁처 발
▁처 형
더라 .
▁블 카
▁삼 국
▁삼 대장
▁삼 자범퇴
▁끝 이네
▁뉴비 를
▁적 월
▁죽 는다
▁갈 려
▁갈 통
▁양 준일
▁다시 보니까
▁엘 레
▁평 택
▁간 거
▁간 첩
▁간 헐
▁설 득
▁플 헬
▁했 어야
ᄏᄏᄏᄏᄏᄏᄏᄏᄏᄏᄏᄏᄏᄏᄏᄏ ᄏᄏᄏᄏᄏᄏᄏᄏᄏᄏᄏᄏᄏ
▁음 모
▁금 손
▁이상 이
▁열 받
▁풀 렸
▁루 시아
▁꼬 운
▁건 설
▁운 명의
▁볼 살
▁잡 음
▁보고 옴
▁보고 왔다
▁들 고있
▁직 거래
▁뽑 는다
▁막 막
▁11 1
▁응 급
▁천 마
▁이게 뭐노
▁던 지는거
▁베 어
▁베 리나
▁욕 좀
▁광 우
▁30 80
▁터 지는거
▁12 절
▁목 동
▁벌 었
▁잠 도
▁힘 듬?
▁편 견
▁뿡 히트
▁슬 액
▁슬 라이더
▁슬 라이딩
전에 도
수있 는데
▁애들 만
▁용 의
▁창 놈
▁군 단
▁악 수
▁임 용
할때 만
▁컴 린이
▁울 림
▁찐 특
씨발 련아
▁몰 아가
▁하루 가
▁워 낙
▁헤 세
▁애미 창년
▁등 수
▁맛 갤
▁맛 탱이
해주 냐
▁머리 띠
▁ᄂ ᄃ
▁라이 더
▁라이 즈
▁처음 봄
가능 하냐
▁200 만
▁레전드 .gif
▁밀 레
▁얼굴 을
▁놀 리는거
▁해야 할
▁ᄒ ᄉ
▁깨 어
▁러 쉬
▁러 줘
▁삐 랑
▁넣 었는데
▁졸 린데
▁돌아 왔다
▁돌아 감?
▁빡 촌
▁변 동
리스 는
▁투표 는
▁총 알
▁S F
▁S P
▁대체 선발
▁이름 좀
▁그러 니
▁엠 붕이들
하자 너
하자 는
▁그거 임
▁퍼 펙트
▁휴 게
▁밥 은
▁밥 을
▁사랑 니
▁14 5
▁잇 어
ᄉᄉᄉᄉ ᄉᄉ
▁16 만
▁16 일
▁메이 크업
▁폰 던파
▁D C
▁D OA
▁어느 순간
▁L ck
▁A N
▁스타 성
▁스타 벅스
▁떨어 짐?
▁떨어 졌네
▁떨어 졌다
되는 듯
▁복귀 유전데
▁인기 없는
▁쇼 크
▁m d
된거 냐
▁착 한거
▁혐 보
▁얘기 를
▁개좆 같다
▁뿌 리면
할까 요?
▁게이 들은
▁있었 노
▁있었 지
▁스킬 이
▁아까 운
▁칼 퇴
▁칼 로리
이상 으로
▁좆같은 건
▁카드 로
▁한남 은
▁논 의
▁염보성 님
▁이러 는데
▁골드 값
▁골드 로
▁케이 틀린
▁증 발
▁좌 좀
▁내년 부터
▁없다 는데
▁생일 보은왔어요
마갤] 놓지마
▁능 욕
▁됐 어
▁에픽 초돌
▁캐릭터 들
▁트와 는
▁사라 졌네
▁빵 이
▁민주 야
▁22 1
▁쓰레기 임?
▁귀엽 냐
▁으 아
▁K BS
▁젠 슨
카드 로
애미 들이
▁옆 으로
▁정말 로
▁꿈 꾸
▁보여 줌
▁보여 주면
▁나가 는거
▁기억 나는
▁성능 충
▁도와 주셈
▁도와 줄사람
▁많은 건
▁느금 이
▁택배 기사
▁짭 찬호
▁ᄀᄎ 네
▁캐밥 은
▁얻 음?
▁부산 은
▁보지 통
▁응원 합니다
▁소환 수
▁가면 라이더
▁F or
▁찌 는
▁자살 함
▁힘들 게
▁?? ???
▁바꾸 는
▁격 수
▁바리 스타
▁노잼 인데
▁G B
▁원탑 .jpg
▁끌 려
▁끌 리는
▁버스 기사
▁블루 헨
▁파티 버프
▁부탁 이
시켜 줘
▁애플 은
▁뛰 고
▁안보 내
▁옴 봊
▁땡 기네
▁땡 긴다
▁축구 는
▁재밋 어
▁번역 추
문제 가
▁중고 딩
▁대상 이
▁w rc
▁바람 연
▁배달 음식
▁햄 스터
▁정신병 원
▁H D
차이 임?
▁심심 해
▁맘에 든다
▁많아 짐
▁2년 동안
▁당연 한
▁검색 어
▁플레이 리스트
▁부럽 노
▁W a
것같 음?
▁다르 냐
▁여캐 들
▁얘네 가
▁켜 서
▁대통령 이
▁쿨 찐
▁눈물 의
▁드립 니다
▁트레 져
▁발작 하는거
▁년 들은
or t
▁웹툰 은
▁곳 은
▁미디 블
▁아니었 나
▁탈갤 함
▁조회 수가
공지 능
▁사제 는
▁놓 친
▁X X
▁어울 려
▁어울 림
▁땅 데드
▁시스템 이
▁느껴 지
▁맞다 니까
이름 은
어어 어
▁당첨 되면
▁방탄 소년단
▁아스 모
▁가족 이
우석 브이갤]
▁아라 크네
▁안뜨 는데
▁부족 하다
▁갓기 야
▁이겼 는데
▁뷔 빡이
▁대박 이네
▁사도 강림
▁이지 투
▁어깨 가
▁수상 자
▁구글 에
맞추 고
에에 에에
▁남캐 는
▁ᄋᄉ ᄒ
NC E
▁유행 하는
▁광복절 에
▁보고싶 긔
▁몽 골
▁메시 지
알려 준다
▁# 2336
▁32 강
▁담당 일진
▁발견 함
▁재능 충
▁완벽 하게
▁힘들어 서
▁독일 어
▁끝내 고
▁지구 촌
▁2루 수
▁때문 임
▁크리스 마스
▁개잘 하네
▁깐 다
▁어플 로
▁출연 진
ᄀᄏ ᄀᄏ
▁불법 이
▁띠니 는
▁여초 에서
▁초록 색
▁상점 에
▁상점 에서
그만 해
▁엽 서
▁대깨문 들
▁순서 대로
▁보고가 세요
▁똥찬 아
▁착각 하는
▁패드 로
▁포지션 이
▁정수 빈
▁장기 채
▁김진 우
▁꼴리 긴
▁포도 머핀
▁평범 하게
무새 들
▁가까 운
▁든든 하다
▁화속 덱
▁끝날 때까지
▁여니 는
▁고양 이는
▁거르 는게
▁돌고 래
▁돌고 돌아
▁시후 야
▁일요일 에
▁놀랍 노
▁후타 나
▁후타 바
진혁 마갤]놓지마
▁nc s
▁킨드 레드
▁소형 준
▁평화 로운
설명 회
▁타구 질
▁랍 치
▁이주 형
▁117. 111
▁뭐뽑 아야
▁과락 률
▁슬림 5
▁하여 튼
▁쓰레 기네
▁룸빵 와이스
▁[양준일갤]ROCKingRollAgain신곡홍보왔킹롤(설첫) (
▁김준 태
▁양념 치킨
▁진격 거
▁서재응 이
▁순대 국밥
▁허가 증
▁쓰다 듬
여러 분
▁인피 니티
▁물총 밥
up er
▁개역겹 네
▁어두 운
▁본격 적으로
에대 해
▁5기 생
▁김웅 빈
▁돼지고 기
▁구역 질
▁박해 민
▁눈부 시고
/테오 키스
▁축하왔어요 (
▁포르네 우스
▁폭공 일
▁쿠르키키 형
▁김고 은
무소속 ]
▁생일보은왔어요 (설첫)
. e
0 9
1 루
2 년
2 랑
2 발
3 명
3 셋
3 000
5 는
6 00
> ?
? ᄏᄏᄏ
T F
a v
i a
i e
l p
n a
~ 7
~ 15
ᄍ ᄋ
▁ %
▁ 뎃
▁ 쟝
▁ 였네
▁ 으면서
가 이
가 치가
각 도
각 임
각 임?
간 의
감 동
강 부
강 은
개 편
개 혁
개 념글
건 다
겜 임?
겟 냐
격 수
결 은
결 충
경 기가
관 에서
교 가
군 대
긔 ??
까 는거
깨 비
꺼 다
꼬 박
나 갔
나 야
나 음
나 타
나 여?
너 가
너 드
넘 네
녕 드컵]
농 ᄏᄏ
눈 나가
다 란
다 오
단 위로
대 오
대 행
댓 다
덕 배
덕 질
던 트
데 몬
됐 긔
두 형
드 롬
듣 기
들 로
듯 ..
디 니
디 렉터
딜 도
떼 기
라 니깐
랜 절
런 처
련 한
렸 습니다
리 를
막 이
머 리는
먹 고싶어
모 금
모 니
목 이
무 기는
문 장
문 재인
뭐 해
미 소
민 현
받 았네
발 기
발 로
방 금
방 도
배 럭
배 터리
밸 패
번 대
변 의
보 관
보 던
보 추
보 트
보 였는데
보 고싶음
보 신분
볼 넷
볼 러
볼 수록
부 르는
븝 미
비 도
빡 세
빨 다
빼 기
뿌 림
삐 부
사 구
사 인
산 데
살 라
선 에
선 엽
성 님
세 어
스 의
스 쿨
슬 람
습 니
승 환
시 엔
시 팔
신 거
싱 글
아 포
안 당
안 나오네
앤 몰
양 은
어 ..
엄 마가
에 듀
엔 씨
엘 은
여 동생
역 대
염 색
영 향
오 기
오 지게
오 태곤
올 리는거
옵 니다
왔 냐
외 모
용 )
웃 긴
원 짜리
유 행
을 수도
의 검
이 슈
이 와
인 재
인 사람
일 라
일 예
잇 음??
자 .
잡 네
재 팬
쟝 이
전 형
조 기
조 용
조 타
좀 해줘
주 삼
죽 이고
준 희
줄 듯
중 ...
즈 로
지 속
진 데
진 사
질 에
짤 도
짤 들
찍 어도
창 작
찾 는
철 도
쳤 으면
치 나
카 기
코 노
크 라
큼 ?
킬 러
탄 다
탄 생
탈 퇴
터 널
터 지는
템 이
투 갤
튼 데
티 서
판 단
하 란
하 프
하 겟네
함 )
해 !
햇 던
했 자나
행 님
헌 곤
형 이랑
화 이트
확 실
훈 은
흐 흐
흑 흑
힘 든데
▁이 ?
▁이 개
▁이 크
▁이 헤
▁이 라는
▁아 넘
▁아 발
▁아 올
▁아 하
▁아 레스
▁아 끼는
▁나 태
▁나 라는
▁나 빼고
▁어 미
▁어 진
▁어 콘
▁1 /3
▁1 신수
▁오 직
▁오 쩔
▁오 주원
▁안 도
▁안 뜬
▁안 뜸
▁안 가는
▁안 치고
▁안 줌?
▁안 사고
▁안 됐는데
▁하 겠
▁하 남
▁하 방
▁하 시발
▁하 노?
▁하 느라
▁하 슬이
▁그 땐
▁그 새
▁그 리면
▁그 시절
▁사 고싶
▁사 려면
▁사 지마라
▁다 현
▁다 ...
▁다 다음
▁보 긴
▁보 노
▁지 났는데
는거 같은데
▁가 나
▁진 원
▁진 세연
▁2 경기
▁2 마리
▁2 분전
▁개 좃
▁개 혁
▁개 이쁘
▁근 딜
▁스 2
▁스 승
▁스 업
▁스 은
▁스 톡
▁스 미스
▁여 단
▁여 드름
▁내 는거
▁뭐 있음
▁뭐 해야함?
▁기 성
▁기 스
▁기 는데
▁대 다
▁대 도
▁대 책
▁대 퍼
▁대 항
▁정 박아
▁정 대만
▁마 랭
▁마 시로
▁좋 을거
▁좋 지않냐
▁없 겠네
▁수 덱
▁수 분
▁수 빈
▁수 많은
▁수 류탄
▁진짜 냐
▁진짜 냐?
▁무 새
▁무 역
▁무 화과
새끼 네
▁존 아
▁3 집
▁3 가지
▁3 .0
▁3 티어
▁3 선발
▁인 내
▁인 제
▁인 품
▁자 부심
▁아니 까
▁아니 래
▁미 조
▁미 만은
▁고 등
▁고 릴
▁일 식
▁좆 별
▁좆 파
▁좆 예인
▁신 풍
▁신 도시
▁전 두
▁전 립선
▁잘 될
▁잘 풀
▁잘 나왔
▁해 경
▁해 병
▁해 상도
▁존나 많이
▁모 붕이
▁모 았는데
▁못 들
▁못 지
▁못 나오
▁못 봄?
▁제 자리
▁주 앙
▁주 니어
▁공 사
▁공 작
▁공 기계
▁애 시드
▁소 붕이
▁바 에
▁바 탕
▁바 다가
▁바 르고
▁우 욱
▁우 지
▁우 라라
▁노 드
▁노 태
▁야 하지
▁만 스
▁만 갤에
▁ᄅᄋ ;;
▁거 누
▁거 다
▁거 리는데
▁올 까
▁부 류
▁부 삐
▁부 끄럽
▁조 .
▁조 성
▁조 영
▁조 항
▁조 지는
▁도 그
▁도 니
▁도 르
▁도 리
▁도 는거
▁도 게자
▁알 잖아
▁알 리오
▁지금 이랑
▁방 울
▁방 이
▁5 50
▁5 500
▁5 33
▁중 위권
▁재 일
▁더 불어
▁상 화
▁와 노
▁4 등
▁4 연
▁4 천원
▁[ 8
▁[ 브이앱
▁[ 녕드컵]
▁많 긔
▁레 압
▁레 이지
▁남 고
▁남 아서
▁남 민정
▁리 가
▁리 아
▁구 위
▁구 찌
▁트 악
까지 가
▁말 든
▁말 숙이
▁서 운
▁서 진용
▁원 샷
▁원 하지
▁성 명
▁성 갤에서
▁카 밀
▁카 러플
▁맞 게
▁선 전
▁추 피
▁추 함
들어 도
▁생각 한다
▁씨발 ...
▁에 렌
▁에 비
▁에 이즈
▁에 센스
▁먹 자
▁먹 을때
▁먹 고싶네
▁먹 었어
▁먹 으려고
▁실 현
▁실 레나
▁게 이지
▁피 가
▁피 로
▁되 나요
▁세 게
▁세 후
▁살 해
▁살 리는
▁살 려고
▁살 았다
▁배 구
▁예 의
▁최 성
▁사람 새끼
▁메 이지
▁메 다카
하네 ᄏᄏᄏ
▁쓰 로워
▁박 음
▁박 이
▁박 히
▁ᄋ ?
▁돌 린
▁드 려
▁드 퀘
▁이유 ?
▁불 평
.... JPG
▁강 조
▁강 하게
▁본 거같은데
▁니 거
▁타 점
▁타 는데
▁아이 패
▁씹 고
▁씹 ᄏᄏᄏᄏ
▁포 크
▁디 다
▁디 드
▁디 펜
▁디 스크
▁느 리
▁10 ,
▁몇 초
▁몇 층
▁또 다른
▁않 겠지
▁받 았으면
리는 듯
▁질 린다
▁치 네
▁망 붕
▁망 자
▁망 했는데
▁7 1
▁7 일차
▁7 시네
한거 는
한거 면
▁토 종
▁매 의눈
겠다 .
겠다 ..
▁ᄉᄇ ᄏᄏᄏᄏᄏᄏ
▁투 블럭
하는거 보고
▁데 일리
▁발 도
▁발 송
▁점 장
▁역 작
▁반 에
▁반 품
▁의 리
▁브 붕이
▁은 신
▁은 우
▁똥 손
▁네 모
▁손 실
▁좋아 할
▁화 감
▁화 사
▁어떻 냐
▁달 라지
▁때 매
▁들어 보면
▁짤 그려
▁이런 말
▁티 아
▁티 나게
▁귀 에
▁물 챔스
▁작 살
▁작 아서
▁틀 은
▁심 해서
▁위 약
▁위 임
▁질문 있다
▁질문 받음
▁( 장
▁분 야
▁분 이
▁분 들은
▁처 먹고
▁재밌 어?
▁블 투
인가 봄
▁관 세
▁눈 동자
▁죽 었네
▁웃 고있다
▁갈 구
▁갈 발
스타 트
▁양 성
▁걸 작
▁걸 렸다
▁걸 렸네
▁하는 이유
▁히 오
▁넘 은
▁넘 음
▁누구 지
▁날 린
▁날 기뉴
▁했 어도
▁까 먹고
▁방송 보는데
▁방송 켜서
▁이상 적인
▁빠 는데
▁풀 타임
▁별 명이
▁팔 자
▁팔 아라
▁찍 음?
▁싸 대기
▁꼬 박
▁건 태
▁민 옵
▁잡 는데
지않 은
▁들 을때마다
▁안되 지?
▁백 월
▁백 현
▁뽑 았으면
▁새끼 를
아니 긔?
▁통 언뜬
▁응 지방
▁길 가다
▁베 개
▁베 하
▁욕 망
▁욕 안
▁욕 하지마라
대로 면
▁뒤 짐?
▁접 으면
▁다음 달에
▁30 렙
▁터 졌는데
▁태 클
▁교 차
▁12 만
▁목 이
▁벌 려
▁일본 인이
▁일본 어로
라이 즌
▁힘 ?
▁편 순이
▁이렇게 된거
▁뿡 더
▁롤 체
▁같은 디
▁용 도
리가 능
▁채 굴
▁악 물고
할때 부터
▁컴 활
▁울 레
▁울 부
▁울 집
▁울 갤러
▁명 령
씨발 련
▁담 달
▁담 임
▁문제 냐
▁헬 쥐
▁헬 둥이
▁워 딩
▁워 킹
어야 했는데
▁올라 감
▁괜찮 다고
▁소바 에
▁종 범
▁첫 클
▁판 갤
▁소리 질러
▁맛 들
해주 지
▁념글 은
▁쓸 수
▁킹 데
▁킹 리
▁킹 보성
▁라이 자
▁라이 젠
▁라이 징
▁처음 보는
▁뭐가 문제
▁줄 세
▁줄 임
인거 야?
▁사진 을
▁사진 으로
▁알려 주실분
▁알려 줄사람
▁얼굴 인증
▁회 로
▁"" 이
▁절 박
▁암 룡
▁해야 한다
▁해야 되냐
▁놈 인데
▁떨 린다
▁삐 앰들
▁황 정민
▁앞 자리
▁유진 뽑
▁졸 리다
▁빡 이
▁변 함
▁청 바지
▁영상 이
▁ᄊ 발
▁18 3
▁18 렙
▁취 합
▁인증 함
▁대체 로
▁독 타
▁슈 텐
▁식 민지
▁필요 한거
▁기대 되노
리아 는
▁17 2
▁하는거 야
▁딸 감
▁딸 딸
▁낫 지?
다니 고
다니 는거
▁콜 옵
▁50 승
하면서 도
▁14 1
▁댓글 달아
▁쉬 운거
▁돼 지가
게임 에
▁프리 패스
▁최고 로
▁최고 임
할거 라
할거 라고
▁그림 쟁이
▁D Y
▁인생 에서
▁기분 좋은
▁재미 없는
▁재미 없음
▁빼 야
▁정리 된
▁디시 는
▁스타 킹
▁항 조
▁복귀 한
▁복귀 하면
▁술 마시
▁샘 플
▁옷 은
▁정도 가
▁정도 의
▁떠 오르
▁진각 기
▁P T
▁P art
▁정상 이
▁꺼 지고
▁운동 을
▁팩트 로
나가 고
▁브이앱 은
▁특징 .jpg
프로 는
▁뿌 리네
할까 ??
▁이기 냐?
▁똑 같은데
▁40 만원
▁빅 히
▁잔 향
인듯 ?
▁혼자 만
▁탑 스타
▁웅 망구
▁앰 굴
▁첨 보는
▁색 상
▁닉 이
▁송 민호
▁송 혜교
▁고소 당
▁확정 뽑
▁후기 좀
▁의외 네
▁북 괴
▁여친 한테
▁신기 한거
▁선발 이
▁예상 대로
▁l ove
보이 긔
▁비교 하는
▁귀엽 다고
진거 임?
▁중요 하다
▁깔 짝
▁k bo
▁k fc
애미 들은
▁겆 튜브
ea r
▁유니 티
▁감독 은
▁기억 나네
▁존버 하면
▁불쌍 하노
▁짭 시
▁짭 재
▁숨 어
▁여름 엔
▁여름 방학
▁되는 듯
▁있는거 냐
▁퀸 키
^^ ^^
▁ᄀᄎ 은
▁ᄀᄎ ??
▁모음 .jpg
▁g m
▁쉽 지
▁조합 은
▁칸 코
---- -
▁몇개 나
안되 지
▁에이 번
▁ᄉᄐᄎ 네
▁바꿔 야함
▁좆망 돌
아닌 지
▁홀 란드
▁2020 -08-13
▁점핑 권
시켜 라
▁굿 모닝
해보 셈
▁ᄇᄉ 같은
▁농 업
▁해줘 도
▁손절 이
문제 는
▁80 %
▁되는거 지
▁w h
▁w wwww
▁안내 려
▁공략 당함
▁최대 치
▁보은 스밍
▁뽀 또
▁예쁜 거
느낌 임
▁이야기 를
▁모자 이크
▁빛 나
▁심심 한
▁맘에 드는
▁셋 다
▁전투 기
▁여캐 는
▁아카 룸
▁확인 하는
▁압 승
▁압 구정
▁카페 인
▁양심 적으로
▁유입 인데
▁외국 인들
▁뚫 고
▁뚫 을
▁텐 카
▁트위터 에서
][ 자총]
▁사회 주의
▁주인공 은
▁렉 권
▁빈 지노
▁오르 는거
▁장난 아니네
리에 이터
▁하드 캐리
▁눈나 들
나온 다고
▁아르 테
▁엘리 베이터
로그 램
질문 )
▁어디갔 냐?
▁살려 내
ar d
▁빼고 는
▁이것 들
▁랜덤 으로
▁아래 로
▁현타 온다
▁현타 오네
▁아쉬 운게
▁뒷광고 가
해본 적
▁웃음 소리
▁아가 씨
▁앤 젤라
관련 해서
▁싼 거
99 99
▁이지 은
▁된거 냐
▁함께 하는
올려 줘
▁폭원 숭
▁영혼 석
▁드랍 율
▁계획 모드
▁빠르 냐
▁팬덤 은
at e
▁이분 은
▁괴롭 혀
▁피부 과
▁언냐 들은
▁물냐 줌들
▁클린 한
en t
▁램 오버
▁도란 은
▁5천 명
▁그랬 나
▁한섭 은
▁에이스 번
▁혁 신
▁4번 타자
▁버닝 때
▁내야 수
▁여초 딩
▁최애 돌
▁왓 다
▁왓 는데
▁불가능 한
▁븝딱 들
귀여 운
▁타고 난
▁곤 란
▁이겨 도
▁안정 권
▁투구 수
▁의대 생
▁여자친구 가
마려 운데
▁강한 울
▁무난 하게
▁똑똑 한
▁스트레 이트
▁탕 수육
▁구다 코
▁꼬라 지가
▁사이버 크
▁진입 장벽
▁월광 5성
▁근무 지
▁오랜만 이야
▁ᄋᄀ ᄋ
▁승급 전
▁정은 지
▁니지 산지
▁놀랍 게도
id e
▁타마 모
▁학창시절 에
▁임시 점검
▁배신 자
▁돌핀 팬츠
(? )
▁1호 선
▁김동 엽
▁디자 인은
▁123 4
▁테크 닉
키울 까
▁커트 라인
히히 히히
씨발씨발 씨발씨발
▁망구 들
▁새키 들
▁카운트 다운
▁애국 보수
▁안어울 려
▁마스 코트
▁아사 히
▁내생각 엔
▁반도 체
바꿈 ?
▁샌드 박스
▁그딴 거
▁리베 로
▁띵군 )
기가능 ?
▁김용 호
▁두려 워
▁패전 조
▁둘째 치고
▁아메리카 노
▁고오 쓰
재업 )
▁윤성 빈
▁웨이 보
▁격기 3반
▁재검 표
3.2 43
▁서태 웅
▁블게 주
▁바빠 서
▁웅탁 또
▁면류 관
▁속삭 임
▁송중 기
▁데이비드 윤
▁헤라클 레스
▁어웨 이크
레벌 떡
지녁 (설쉬)
( 20
( 신)
. 트
/ 백
2 위
2 에서
4 성
4 일
9 급
: 5
G M
M B
P N
T I
i z
k d
l b
l s
r om
u a
z a
ᄑ ᄐ
ᅮ ᅲ
▁ 엇
▁ 퀴들
▁ 니까?
▁ ~~~
가 니
각 이냐
갈 건데
값 은
같 더라
같 아도
거 부
거 리가
걸 면
계 도
고 자
공 기업
구 치
군 주
그 때
글 로우
기 ,
기 반
길 에
나 해
낙 네
날 짜
낫 냐?
내 ..
너 구리
녕 이
누 님
누 스
눈 에
는 걸
단 게
답 다
데 도
데 우스
도 는데
돌 아서
돌 아야
돌 려서
됐 지
되 더라
된 지
두 순
둘 기
뒤 짐
듀 얼
때 리고
또 라이
뜬 금
레 레
레 르
렌 트
려 구
록 스
론 데
론 소
르 바
리 더
리 우스
마 존
많 고
많 은거
맞 출
먹 는중
먹 엇는데
메 갈
무 인
뭐 라
미 국
미 술
미 치
미 카
민 스
민 시
박 아서
반 꿀
받 을까
발 광
밤 의
방 갤
방 울
방 을
버 즈
범 위
벤 치
보 구
보 냄
보 랑
보 러가
본 게
본 은
봉 고
봉 쓰
봉 퀴들
부 주
부 캐
분 량
비 디오
빠 지게
빨 간
빨 라
사 격
사 다
사 상
사 요
살 면서
상 인데
새 가
색 깔
생 성
서 큐
석 이랑
설 X
소 방
소 시
속 보
송 가인
수 방
수 한
쉬 기
스 레
슬 로건
시 ][자총]
신 한
심 함
쓰 알
아 파서
안 으로
애 매
앤 데
양 대
어 카
없 제?
었 어?
었 나보네
에 리
에 이지
엘 라
엿 노
오 시
올 라서
왔 던
왜 저
우 니
원 도
유 물
유 예
윤 석
으 러가
음 밥
이 의
인 천
인 것도
일 뿐
입 으면
있 으니까
있 길래
자 격
자 막
장 한
재 상
저 트
전 장
절 로
정 )
정 신이
조 교
조 금
좀 ...
좆 밥
좆 같이
좆 망겜
죠 ??
주 사
주 화
주 던데
중 ᄏᄏ
지 겠네
직 구
진 이랑
짓 은
짜 고
찍 은거
참 고
창 고
천 검
철 은
초 가
커 즈
코 야
퀴 는
퀴 들은
큰 데
키 미
타 락
타 는거
탄 으로
터 스
테 스
파 로
파 업
팟 이
퍼 인데
포 코
포 토
푸 보
피 티
하 에
하 기가
하 겠는데
할 려나
할 라는데
햇 서
햇 지
했 노?
허 그
혁 민
혐 )
형 태
화 살
화 학
확 팩
훈 갤]
히 메
히 토미
ᄏᄏ ᄀ
▁이 두
▁이 르
▁이 십
▁이 자
▁이 초
▁이 만큼
▁이 말이야
▁이 병헌
▁아 .
▁아 녀
▁아 닥
▁아 벤
▁아 비
▁아 자
▁아 청
▁아 ᄉᄇ
▁나 님
▁나 치
▁어 니
▁어 땅
▁어 처
▁1 .7
▁1 /2
▁오 예
▁오 와
▁오 케
▁오 스카
▁오 사카
▁오 좆슨
▁안 쓴
▁안 줘
▁안 먹고
▁안 사면
▁하 반
▁하 지도
▁그 돈
▁그 사람
▁사 겨
▁사 관
▁사 슬
▁사 줘
▁다 자
▁다 쳐
▁다 현이
▁보 름
▁보 증
▁보 려면
▁보 지도
▁지 장
▁지 원이
▁시 게
▁시 너
는거 네
▁가 관
▁가 차
▁가 혜
▁2 셋
▁2 종
▁2 호
▁2 .3
▁2 연속
▁2 중대
▁있 지는
▁왜 욕
▁개 줌
▁개 토
▁개 줌마들
▁한 말
▁한 조
▁한 승우
▁스 알
▁스 턴
▁스 팩
▁스 브스
▁여 당
▁여 프
▁내 리는
▁내 줬으면
▁뭐 껴
▁기 쁘
▁기 추
▁대 거
▁대 권
▁대 마
▁대 난투
▁정 색
▁정 인
▁정 크
▁정 민철
▁정 부가
▁오늘 안에
▁마 린
▁마 즘
▁마 침
▁마 키세
▁마 케팅
▁좋 지않냐?
▁없 대
▁수 장
▁수 좆
▁수 아라
▁유 머
▁유 밥
▁유 영
▁무 궁
▁무 려
▁무 력
▁무 신
▁무 승부
하는 줄
하는 새끼들은
▁3 편
▁3 안타
▁인 신
▁인 재
▁인 버스
▁자 기는
▁근데 왜
▁미 언
▁고 스
▁저 소득
▁좆 치
▁좆 스피
▁좆 카오
▁좆 무위키
▁신 금
▁신 축
▁전 도
▁전 장은
▁잘 나오는
▁해 줬
▁해 보는데
▁이거 로
▁이거 뭐냐?
▁모 던
▁모 라
▁모 이면
▁모 니카
▁못 했네
▁못 쓰는
▁못 봤네
▁제 물
▁제 압
▁갤 방
▁갤 연애
▁갤 노트20
▁주 니
▁주 범
▁주 위
▁주 휴
▁공 주는
▁애 비가
▁비 영
▁비 해서
▁생 축
▁너 구
▁너 와
▁바 셀
▁바 타
▁바 이브
▁바 피네
▁우 째
▁노 르
▁노 사
▁노 아
▁노 을
▁야 드랑이
▁만 모
▁만 붕
▁만 따리
▁ᄅᄋ ᄏᄏᄏᄏ
▁거 라
▁거 른다
▁올 바른
▁부 장
▁조 유
▁조 음
▁도 어
▁도 박이
▁알 상
▁알 타
▁알 폰
▁지금 봐도
▁방 한
▁5 /6
▁5 ~6
▁중 도
▁재 다
▁재 접
▁더 라
▁ᄏᄏᄏ ᄀ
▁와 지
▁와 르도
▁4 조
들이 라
들이 야
▁머 함?
▁머 부터
▁언 덕
▁리 플레이
▁구 르
▁파 나
▁파 냐
▁파 주
▁파 크
▁코 짤
▁라 가
▁라 건
▁트 게더
▁시발 새끼
▁ᄉ 발
▁말 리드
▁서 바이벌
▁문 동
▁문 장
▁원 픽
▁원 한
▁영 문
▁영 수
▁성 역
▁성 관계
▁카 와이
▁맞 야
▁맞 는게
▁선 곡
▁추 락
▁추 모
▁추 운
▁추 신수
▁연 수
▁연 초
▁씨발 롬
▁에 키
▁에 효
▁경 반
▁버 가
▁버 럭
▁피 오
▁되 니
▁되 는건
▁세 스
▁살 바
▁살 았는데
▁키 워서
▁키 메라
▁배 부르
▁장 성
▁장 패드
▁장 학금
▁같 다고
▁할 카
▁할 수있는
▁최 약
▁사람 임
▁메 로나
▁메 세지
▁박 상
▁로 즈
▁ᄋ ᄒ
▁돌 겜
▁돌 릴때
▁드 볼
▁불 탈
▁이번 이
▁6 승
▁씹 년아
▁입 국
▁입 벌
▁입 원
▁입 이
▁입 털
▁10 -10
▁나오 는지
▁8 3
▁않 은거
▁않 노?
▁패 닉
▁패 는데
▁뭔 말
▁받 으려면
▁치 반
▁치 요
▁망 고
사람 만
▁7 3
▁7 회
▁7 개월
▁토 드
▁토 나와
▁토 나오네
▁매 패
하는거 랑
▁데 프
▁발 리는
▁초 중
▁점 수가
▁역 주행
▁확 통
▁반 갈
▁반 장
▁우리 의
▁브 릿
▁크 롭
▁크 린
▁똥 이
▁20 16
▁손 뽕
▁손 잡이
▁좋아 하고
▁좋아 하는게
▁화 력이
▁여기 사
▁염 불
▁페 라리
▁외 치는
▁커 브
▁병신 년
▁티 조
▁어떻게 함
▁물 통
▁물 걸레
▁작 으면
▁꼴 려서
▁얼마 안
▁얼마 전
▁( 2)
▁당 해
더라 면
▁블 링
인가 ..
▁많이 함
▁특 급
▁철 마
▁어케 됨??
▁끝 나서
▁뉴비 들아
▁죽 여도
▁갈 게
▁양 인격
▁걸 렸는데
▁다시 보니
▁엘 든링
▁히 면
▁넘 었네
▁날 이네
▁날 아가
▁플 리
▁했 지만
▁까 네
▁까 일
▁방송 도
▁방송 중
▁클 전
▁금 연
▁빠 지네
▁봐 ?
▁봐 야겠다
▁봐 주실분
▁열 받네
▁풀 려
▁풀 젤
▁팔 리
▁민 희
▁운 다
▁볼 수있는
▁보고 있
고싶다 ...
20 분
▁무슨 임?
▁백 날
▁뽑 는데
▁뽑 아라
▁막 힘
▁아무 말
▁11 연
▁11 인치
▁골 드는
▁쳐 먹는
▁응 고
▁홍 삼
