{"<unk>":0,"!":1,"\"":2,"#":3,"%":4,"&":5,"'":6,"(":7,")":8,"+":9,",":10,"-":11,".":12,"/":13,"0":14,"1":15,"2":16,"3":17,"4":18,"5":19,"6":20,"7":21,"8":22,"9":23,":":24,";":25,"<":26,"=":27,">":28,"?":29,"@":30,"A":31,"B":32,"C":33,"D":34,"E":35,"F":36,"G":37,"H":38,"I":39,"J":40,"K":41,"L":42,"M":43,"N":44,"O":45,"P":46,"R":47,"S":48,"T":49,"U":50,"V":51,"W":52,"X":53,"Y":54,"[":55,"]":56,"^":57,"_":58,"a":59,"b":60,"c":61,"d":62,"e":63,"f":64,"g":65,"h":66,"i":67,"j":68,"k":69,"l":70,"m":71,"n":72,"o":73,"p":74,"r":75,"s":76,"t":77,"u":78,"v":79,"w":80,"x":81,"y":82,"z":83,"~":84,"ᄀ":85,"ᄂ":86,"ᄃ":87,"ᄅ":88,"ᄆ":89,"ᄇ":90,"ᄉ":91,"ᄊ":92,"ᄋ":93,"ᄌ":94,"ᄍ":95,"ᄎ":96,"ᄏ":97,"ᄐ":98,"ᄑ":99,"ᄒ":100,"ᅡ":101,"ᅥ":102,"ᅩ":103,"ᅮ":104,"ᅲ":105,"ᅳ":106,"ᅵ":107,"▁":108,"가":109,"각":110,"간":111,"갈":112,"감":113,"갑":114,"값":115,"갓":116,"갔":117,"강":118,"갖":119,"같":120,"개":121,"갤":122,"갱":123,"걍":124,"거":125,"걱":126,"건":127,"걸":128,"검":129,"겁":130,"것":131,"겆":132,"게":133,"겜":134,"겟":135,"겠":136,"겨":137,"격":138,"견":139,"결":140,"겹":141,"겼":142,"경":143,"계":144,"고":145,"곡":146,"곤":147,"곧":148,"골":149,"곳":150,"공":151,"과":152,"관":153,"광":154,"괜":155,"괴":156,"교":157,"구":158,"국":159,"군":160,"굴":161,"굿":162,"궁":163,"권":164,"귀":165,"규":166,"균":167,"그":168,"극":169,"근":170,"글":171,"금":172,"급":173,"긔":174,"기":175,"긴":176,"길":177,"김":178,"깅":179,"까":180,"깐":181,"깔":182,"깝":183,"깡":184,"깨":185,"꺼":186,"께":187,"껴":188,"꼬":189,"꼭":190,"꼴":191,"꽃":192,"꾸":193,"꾹":194,"꾼":195,"꿀":196,"꿈":197,"꿔":198,"끄":199,"끌":200,"끔":201,"끝":202,"끼":203,"낀":204,"낌":205,"나":206,"낙":207,"난":208,"날":209,"남":210,"낫":211,"났":212,"낮":213,"내":214,"낸":215,"낼":216,"냄":217,"냈":218,"냉":219,"냐":220,"냥":221,"너":222,"넌":223,"널":224,"넘":225,"넣":226,"네":227,"넥":228,"넷":229,"녀":230,"녁":231,"년":232,"념":233,"녕":234,"노":235,"녹":236,"논":237,"놀":238,"놈":239,"농":240,"높":241,"놓":242,"놔":243,"뇌":244,"누":245,"눈":246,"뉴":247,"느":248,"늒":249,"는":250,"늘":251,"능":252,"늦":253,"니":254,"닉":255,"닌":256,"닐":257,"님":258,"닝":259,"다":260,"닥":261,"단":262,"달":263,"닭":264,"닮":265,"담":266,"답":267,"당":268,"대":269,"댐":270,"댓":271,"댕":272,"더":273,"덕":274,"던":275,"덜":276,"덤":277,"덩":278,"데":279,"덱":280,"델":281,"뎃":282,"도":283,"독":284,"돈":285,"돌":286,"동":287,"돼":288,"됐":289,"되":290,"된":291,"될":292,"됨":293,"두":294,"둘":295,"둥":296,"뒤":297,"뒷":298,"듀":299,"드":300,"득":301,"든":302,"듣":303,"들":304,"듬":305,"듯":306,"등":307,"디":308,"딜":309,"딩":310,"따":311,"딱":312,"딴":313,"딸":314,"땅":315,"때":316,"땐":317,"땜":318,"땡":319,"떠":320,"떡":321,"떤":322,"떨":323,"떰":324,"떳":325,"떴":326,"떻":327,"떼":328,"또":329,"똑":330,"똥":331,"뚜":332,"뚫":333,"뛰":334,"뜨":335,"뜬":336,"뜸":337,"띠":338,"띵":339,"라":340,"락":341,"란":342,"랄":343,"람":344,"랍":345,"랐":346,"랑":347,"래":348,"랙":349,"랜":350,"램":351,"랩":352,"랬":353,"랭":354,"략":355,"량":356,"러":357,"럭":358,"런":359,"럴":360,"럼":361,"럽":362,"렇":363,"레":364,"렉":365,"렌":366,"렙":367,"려":368,"력":369,"련":370,"렬":371,"렵":372,"렸":373,"령":374,"로":375,"록":376,"론":377,"롤":378,"롬":379,"롭":380,"롯":381,"롱":382,"료":383,"룡":384,"루":385,"룩":386,"룰":387,"룸":388,"룹":389,"류":390,"률":391,"르":392,"른":393,"를":394,"름":395,"리":396,"릭":397,"린":398,"릴":399,"림":400,"립":401,"릿":402,"링":403,"마":404,"막":405,"만":406,"많":407,"말":408,"맘":409,"맛":410,"망":411,"맞":412,"매":413,"맥":414,"맨":415,"맵":416,"머":417,"먹":418,"먼":419,"멀":420,"멋":421,"멍":422,"메":423,"멘":424,"멜":425,"멤":426,"며":427,"면":428,"멸":429,"명":430,"몇":431,"모":432,"목":433,"몬":434,"몰":435,"몸":436,"못":437,"몽":438,"무":439,"문":440,"물":441,"뭐":442,"뭔":443,"뭘":444,"뮤":445,"미":446,"민":447,"믿":448,"밀":449,"밋":450,"밌":451,"밍":452,"밑":453,"바":454,"박":455,"밖":456,"반":457,"받":458,"발":459,"밤":460,"밥":461,"방":462,"배":463,"백":464,"밴":465,"밸":466,"뱅":467,"버":468,"벅":469,"번":470,"벌":471,"범":472,"법":473,"베":474,"벤":475,"벨":476,"벽":477,"변":478,"별":479,"병":480,"보":481,"복":482,"본":483,"볼":484,"봄":485,"봉":486,"봊":487,"봐":488,"봤":489,"부":490,"북":491,"분":492,"불":493,"붕":494,"붙":495,"뷔":496,"뷰":497,"브":498,"블":499,"븝":500,"비":501,"빅":502,"빈":503,"빌":504,"빙":505,"빛":506,"빠":507,"빡":508,"빨":509,"빵":510,"빻":511,"빼":512,"뻐":513,"뻔":514,"뽀":515,"뽑":516,"뽕":517,"뿌":518,"뿐":519,"뿡":520,"쁘":521,"쁜":522,"삐":523,"사":524,"삭":525,"산":526,"살":527,"삼":528,"샀":529,"상":530,"새":531,"색":532,"샌":533,"샘":534,"생":535,"샤":536,"샷":537,"서":538,"석":539,"선":540,"설":541,"섬":542,"섭":543,"성":544,"세":545,"섹":546,"센":547,"셀":548,"셈":549,"셉":550,"셋":551,"셔":552,"션":553,"셜":554,"소":555,"속":556,"손":557,"솔":558,"송":559,"쇼":560,"수":561,"숙":562,"순":563,"술":564,"숨":565,"숭":566,"쉬":567,"쉽":568,"슈":569,"스":570,"슨":571,"슬":572,"슴":573,"습":574,"슷":575,"승":576,"슼":577,"시":578,"식":579,"신":580,"실":581,"싫":582,"심":583,"십":584,"싱":585,"싶":586,"싸":587,"싹":588,"싼":589,"쌈":590,"쌍":591,"써":592,"썩":593,"썰":594,"쎄":595,"쏘":596,"쓰":597,"쓴":598,"쓸":599,"씀":600,"씨":601,"씩":602,"씹":603,"아":604,"악":605,"안":606,"않":607,"알":608,"암":609,"압":610,"앗":611,"았":612,"앙":613,"앚":614,"앞":615,"애":616,"액":617,"앤":618,"앨":619,"앰":620,"앱":621,"야":622,"약":623,"얍":624,"양":625,"얘":626,"어":627,"억":628,"언":629,"얻":630,"얼":631,"엄":632,"업":633,"없":634,"엇":635,"었":636,"엉":637,"에":638,"엑":639,"엔":640,"엘":641,"엠":642,"여":643,"역":644,"연":645,"열":646,"염":647,"엽":648,"엿":649,"였":650,"영":651,"옆":652,"예":653,"옛":654,"오":655,"옥":656,"온":657,"올":658,"옴":659,"옵":660,"옷":661,"옹":662,"와":663,"완":664,"왓":665,"왔":666,"왕":667,"왜":668,"왤":669,"외":670,"요":671,"욕":672,"용":673,"우":674,"욱":675,"운":676,"울":677,"움":678,"웃":679,"웅":680,"워":681,"원":682,"월":683,"웠":684,"웨":685,"웹":686,"위":687,"윈":688,"윙":689,"유":690,"육":691,"윤":692,"율":693,"으":694,"은":695,"을":696,"음":697,"읍":698,"응":699,"의":700,"이":701,"익":702,"인":703,"일":704,"읽":705,"임":706,"입":707,"잇":708,"있":709,"잉":710,"자":711,"작":712,"잔":713,"잖":714,"잘":715,"잠":716,"잡":717,"장":718,"잦":719,"재":720,"잼":721,"쟁":722,"쟝":723,"쟤":724,"저":725,"적":726,"전":727,"절":728,"점":729,"접":730,"정":731,"젖":732,"제":733,"젠":734,"젤":735,"져":736,"졌":737,"조":738,"족":739,"존":740,"졸":741,"좀":742,"좃":743,"종":744,"좆":745,"좋":746,"좌":747,"죄":748,"죠":749,"주":750,"죽":751,"준":752,"줄":753,"줌":754,"중":755,"줘":756,"줬":757,"쥐":758,"쥬":759,"즈":760,"즌":761,"즐":762,"즘":763,"증":764,"지":765,"직":766,"진":767,"질":768,"짐":769,"집":770,"짓":771,"징":772,"짜":773,"짝":774,"짤":775,"짭":776,"짱":777,"째":778,"쩌":779,"쩔":780,"쪽":781,"쯤":782,"찌":783,"찍":784,"찐":785,"찜":786,"차":787,"착":788,"찬":789,"찮":790,"찰":791,"참":792,"창":793,"찾":794,"채":795,"책":796,"챔":797,"챙":798,"챠":799,"처":800,"척":801,"천":802,"철":803,"첨":804,"첩":805,"첫":806,"청":807,"체":808,"쳐":809,"쳤":810,"초":811,"촌":812,"총":813,"최":814,"추":815,"축":816,"춘":817,"출":818,"충":819,"취":820,"츄":821,"츠":822,"층":823,"치":824,"친":825,"칠":826,"침":827,"칩":828,"칭":829,"칰":830,"카":831,"칸":832,"칼":833,"캐":834,"캠":835,"캡":836,"캬":837,"커":838,"컨":839,"컬":840,"컴":841,"컵":842,"컷":843,"케":844,"켓":845,"켜":846,"코":847,"콘":848,"콜":849,"콤":850,"콩":851,"콱":852,"쿠":853,"쿨":854,"퀘":855,"퀴":856,"퀸":857,"큐":858,"크":859,"큰":860,"클":861,"큼":862,"키":863,"킨":864,"킬":865,"킹":866,"타":867,"탁":868,"탄":869,"탈":870,"탐":871,"탑":872,"탕":873,"태":874,"택":875,"탭":876,"탱":877,"터":878,"턴":879,"털":880,"텀":881,"테":882,"텍":883,"텐":884,"텔":885,"템":886,"토":887,"톡":888,"톤":889,"통":890,"퇴":891,"투":892,"툰":893,"튀":894,"튜":895,"트":896,"특":897,"튼":898,"틀":899,"티":900,"틱":901,"틴":902,"팀":903,"팁":904,"팅":905,"파":906,"판":907,"팔":908,"팝":909,"팟":910,"팡":911,"패":912,"팩":913,"팬":914,"퍼":915,"펀":916,"페":917,"펙":918,"펜":919,"펫":920,"편":921,"평":922,"폐":923,"포":924,"폭":925,"폰":926,"폴":927,"폼":928,"표":929,"푸":930,"풀":931,"품":932,"풍":933,"퓨":934,"프":935,"픈":936,"플":937,"피":938,"픽":939,"핀":940,"필":941,"핌":942,"핑":943,"하":944,"학":945,"한":946,"할":947,"함":948,"합":949,"핫":950,"항":951,"해":952,"핵":953,"핸":954,"햄":955,"햇":956,"했":957,"행":958,"향":959,"허":960,"헌":961,"헐":962,"험":963,"헤":964,"헨":965,"헬":966,"혀":967,"혁":968,"현":969,"혈":970,"혐":971,"협":972,"형":973,"혜":974,"호":975,"혹":976,"혼":977,"홀":978,"홈":979,"홍":980,"화":981,"확":982,"환":983,"활":984,"황":985,"회":986,"획":987,"효":988,"후":989,"훈":990,"휘":991,"휴":992,"흐":993,"흑":994,"흥":995,"희":996,"히":997,"힐":998,"힘":999,"힙":1000,"ᄏᄏ":1001,"ᄏᄏᄏᄏ":1002,"▁이":1003,"▁아":1004,"..":1005,"는데":1006,"▁나":1007,"▁어":1008,"▁1":1009,"??":1010,"▁오":1011,"▁안":1012,"▁하":1013,"▁그":1014,"▁사":1015,"▁다":1016,"▁보":1017,"▁지":1018,"▁시":1019,"ᄏᄏᄏᄏᄏᄏᄏᄏ":1020,"는거":1021,"▁가":1022,"▁진":1023,"▁ᄏᄏ":1024,"▁2":1025,"냐?":1026,"▁있":1027,"▁왜":1028,"▁개":1029,"▁한":1030,"▁근":1031,"▁스":1032,"에서":1033,"▁여":1034,"▁내":1035,"▁뭐":1036,"▁기":1037,"▁대":1038,"▁정":1039,"▁오늘":1040,"▁마":1041,"▁좋":1042,"▁없":1043,"▁수":1044,"으로":1045,"▁진짜":1046,"▁유":1047,"▁무":1048,"새끼":1049,"▁존":1050,"하는":1051,"▁3":1052,"▁인":1053,"▁자":1054,"▁ᄏᄏᄏᄏ":1055,"...":1056,"▁아니":1057,"▁근데":1058,"▁미":1059,"▁고":1060,"▁일":1061,"▁저":1062,"▁좆":1063,"▁신":1064,"▁전":1065,"▁잘":1066,"▁해":1067,"임?":1068,"으면":1069,"▁존나":1070,"▁이거":1071,"!!":1072,"▁모":1073,"▁못":1074,"▁제":1075,"▁갤":1076,"00":1077,"▁주":1078,"인데":1079,"▁공":1080,"▁애":1081,"▁비":1082,"▁생":1083,"▁소":1084,"ᄃᄃ":1085,"▁너":1086,"▁바":1087,"▁우":1088,"같은":1089,"ᄅᄋ":1090,"▁노":1091,"음?":1092,"▁야":1093,"▁만":1094,"니까":1095,"하면":1096,"▁ᄅᄋ":1097,"▁거":1098,"▁올":1099,"▁부":1100,"▁조":1101,"▁도":1102,"▁알":1103,"▁지금":1104,"하고":1105,"▁방":1106,"ᄏᄏᄏ":1107,"▁5":1108,"▁요":1109,"▁중":1110,"▁재":1111,"▁씨":1112,"▁더":1113,"▁상":1114,"▁ᄏᄏᄏ":1115,"▁누":1116,"▁와":1117,"▁4":1118,"들이":1119,"▁[":1120,"▁머":1121,"pg":1122,"▁많":1123,"▁레":1124,"jpg":1125,"▁좀":1126,"▁언":1127,"▁남":1128,"▁리":1129,"ᅳᅳ":1130,"▁구":1131,"▁파":1132,"▁코":1133,"▁라":1134,"▁트":1135,"▁시발":1136,"까지":1137,"▁ᄉ":1138,"들은":1139,"▁말":1140,"▁ᄏᄏᄏᄏᄏᄏᄏᄏ":1141,"▁서":1142,"▁문":1143,"▁원":1144,"라고":1145,"▁영":1146,"다고":1147,"▁김":1148,"한테":1149,"▁성":1150,"▁카":1151,"니다":1152,"▁맞":1153,"▁선":1154,"▁추":1155,"▁너무":1156,"보다":1157,"들어":1158,"▁난":1159,"이랑":1160,"는게":1161,"▁생각":1162,"고싶":1163,"들아":1164,"▁연":1165,"▁씨발":1166,"▁에":1167,"▁먹":1168,"▁경":1169,"▁얼":1170,"▁버":1171,"▁실":1172,"▁게":1173,"▁피":1174,"▁되":1175,"▁세":1176,"vs":1177,"▁프":1178,"▁살":1179,"▁키":1180,"▁배":1181,"▁예":1182,"▁장":1183,"▁같":1184,"▁할":1185,"▁최":1186,"▁사람":1187,"▁메":1188,"지?":1189,"하네":1190,"함?":1191,"▁쓰":1192,"▁이제":1193,"▁박":1194,"▁로":1195,"▁솔":1196,"▁ᄋ":1197,"▁돌":1198,"▁ᄌ":1199,"붕이":1200,"▁드":1201,"▁이유":1202,"▁불":1203,"....":1204,".jpg":1205,"ᅲᅲ":1206,"이라":1207,"▁강":1208,"▁이번":1209,"▁차":1210,"▁그냥":1211,"▁본":1212,"부터":1213,"▁6":1214,"이네":1215,"▁니":1216,"▁타":1217,"▁아이":1218,"▁요즘":1219,"???":1220,"▁씹":1221,"▁현":1222,"▁포":1223,"▁입":1224,"▁디":1225,"▁병":1226,"▁느":1227,"▁10":1228,"▁몇":1229,"▁동":1230,"▁또":1231,"▁나오":1232,"▁8":1233,"해서":1234,"▁않":1235,"▁패":1236,"스트":1237,"▁뭔":1238,"▁받":1239,"리는":1240,"▁어디":1241,"▁질":1242,"▁치":1243,"▁망":1244,"이드":1245,"▁계":1246,"사람":1247,"시간":1248,"▁감":1249,"▁7":1250,"한거":1251,"▁캐":1252,"하게":1253,"▁토":1254,"▁글":1255,"▁후":1256,"새끼들":1257,"▁매":1258,"겠다":1259,"▁vs":1260,"▁ᄉᄇ":1261,"▁투":1262,"▁언제":1263,"하는거":1264,"▁뉴":1265,"▁데":1266,"▁발":1267,"▁내가":1268,"▁초":1269,"▁점":1270,"▁그래":1271,"~~":1272,"▁역":1273,"▁하나":1274,"렇게":1275,"▁결":1276,"직히":1277,"▁9":1278,"▁확":1279,"▁반":1280,"▁의":1281,"▁호":1282,"했는데":1283,"▁솔직히":1284,"▁우리":1285,"▁여자":1286,"▁브":1287,"▁빨":1288,"하지":1289,"이나":1290,"▁은":1291,"▁크":1292,"▁단":1293,"이야":1294,"▁똥":1295,"던데":1296,"▁ᄏᄏᄏᄏᄏ":1297,"이면":1298,"▁얘":1299,"▁20":1300,"하다":1301,"한다":1302,"▁네":1303,"같은데":1304,"▁손":1305,"ᄉᄉ":1306,"▁좋아":1307,"이다":1308,"▁화":1309,"▁여기":1310,"▁염":1311,"▁걍":1312,"▁어떻":1313,"▁페":1314,"해야":1315,"▁외":1316,"▁커":1317,"▁병신":1318,"▁달":1319,"▁국":1320,"▁새":1321,"▁때":1322,"▁들어":1323,"▁짤":1324,"▁이런":1325,"????":1326,"정도":1327,"▁티":1328,"!!!!":1329,"▁귀":1330,"▁따":1331,"▁추천":1332,"▁어떻게":1333,"▁ᄃᄃ":1334,"▁물":1335,"▁작":1336,"▁친":1337,"▁꼴":1338,"▁틀":1339,"▁심":1340,"▁제일":1341,"▁싶":1342,"▁두":1343,"▁위":1344,"▁복":1345,"는건":1346,"▁가능":1347,"▁필":1348,"▁얼마":1349,"▁질문":1350,"▁(":1351,"은거":1352,"하냐":1353,"▁분":1354,"\"\"":1355,"▁돈":1356,"ᄐᄎ":1357,"▁처":1358,"▁당":1359,"더라":1360,"▁재밌":1361,"▁블":1362,"▁아직":1363,"인가":1364,"▁ᄋᄋ":1365,"▁많이":1366,"님들":1367,"▁특":1368,"▁삼":1369,"▁관":1370,"▁철":1371,"▁어케":1372,"▁끝":1373,"▁눈":1374,"▁내일":1375,"보고":1376,"이지":1377,"하는데":1378,"▁뉴비":1379,"▁적":1380,"면서":1381,"었는데":1382,"요?":1383,"▁죽":1384,"됨?":1385,"▁웃":1386,"▁갈":1387,"스타":1388,"▁양":1389,"▁걸":1390,"▁다시":1391,"▁하는":1392,"▁집":1393,"▁엘":1394,"▁히":1395,"중에":1396,"다가":1397,"▁평":1398,"▁넘":1399,"거같":1400,"갤]":1401,"나오":1402,"▁ᄌᄂ":1403,"ᄏᄏᄏᄏᄏ":1404,"▁누구":1405,"▁간":1406,"이가":1407,"▁어제":1408,"▁날":1409,"▁게임":1410,"▁설":1411,"▁플":1412,"세요":1413,"은데":1414,"야지":1415,"▁했":1416,"▁까":1417,"▁방송":1418,"ᄏᄏᄏᄏᄏᄏᄏᄏᄏᄏᄏᄏᄏᄏᄏᄏ":1419,"▁음":1420,"▁클":1421,"▁금":1422,"▁이상":1423,"▁빠":1424,"▁봐":1425,"▁열":1426,"님?":1427,"▁풀":1428,"▁별":1429,"▁누가":1430,"잖아":1431,"▁팔":1432,"▁루":1433,"▁찍":1434,"▁싸":1435,"▁꼬":1436,"▁건":1437,"▁민":1438,"해도":1439,"▁나도":1440,"어서":1441,"▁운":1442,"▁탈":1443,"냐??":1444,"을까":1445,"▁ᄏᄏᄏᄏᄏᄏ":1446,"▁볼":1447,"▁잡":1448,"보면":1449,"▁보고":1450,"이는":1451,"gi":1452,"▁떡":1453,"지않":1454,"고싶다":1455,"▁들":1456,"20":1457,"▁안되":1458,"▁직":1459,"▁무슨":1460,"▁백":1461,"▁뽑":1462,"▁약":1463,"▁완":1464,"▁갓":1465,"▁왤":1466,"▁막":1467,"이스":1468,"gif":1469,"▁ᄀ":1470,"▁아무":1471,"▁새끼":1472,"▁11":1473,"이트":1474,"▁골":1475,"아니":1476,"▁딱":1477,";;":1478,"▁통":1479,"▁쳐":1480,"▁갑":1481,"▁출":1482,"▁케":1483,"▁응":1484,"▁홍":1485,"▁노래":1486,"▁겜":1487,"ᅳᅳᅳᅳ":1488,"▁천":1489,"겠네":1490,"▁형":1491,"▁이게":1492,"▁모르":1493,"▁시작":1494,"▁순":1495,"▁던":1496,"▁이벤":1497,"려고":1498,"야?":1499,"▁길":1500,"▁한국":1501,"▁베":1502,"▁욕":1503,"대로":1504,"▁광":1505,"▁테":1506,"했다":1507,"▁뒤":1508,"념글":1509,"▁속":1510,"▁접":1511,"▁다음":1512,"▁30":1513,"▁터":1514,"▁태":1515,"▁교":1516,"▁12":1517,"구나":1518,"아서":1519,"▁폭":1520,"만에":1521,"▁보면":1522,"▁검":1523,"(설":1524,"▁목":1525,"어도":1526,"▁괜":1527,"▁왔":1528,"이냐":1529,"하나":1530,"▁벌":1531,"지는":1532,"▁잠":1533,"▁과":1534,"▁일본":1535,"라이":1536,"리고":1537,"▁업":1538,"지만":1539,"▁참":1540,"▁허":1541,"▁힘":1542,"▁편":1543,"▁월":1544,"것도":1545,"▁합":1546,"▁이렇게":1547,"▁다른":1548,"▁본인":1549,"▁왤케":1550,"러리":1551,"▁100":1552,"▁싫":1553,"▁승":1554,"▁온":1555,"▁뿡":1556,"▁염보":1557,"▁학":1558,"▁슬":1559,"▁제발":1560,"전에":1561,"▁롤":1562,"수있":1563,"▁애들":1564,"레이드":1565,"▁사실":1566,"처럼":1567,"▁같은":1568,"▁용":1569,"리가":1570,"▁엄":1571,"았는데":1572,"만원":1573,"▁남자":1574,"▁창":1575,"▁군":1576,"▁함":1577,"▁채":1578,"▁악":1579,"▁임":1580,"할때":1581,"ᄏᄏᄏᄏᄏᄏ":1582,"▁컴":1583,"레이":1584,"▁원래":1585,"자기":1586,"▁친구":1587,"▁울":1588,"라도":1589,"▁둘":1590,"▁님들":1591,"나?":1592,"봤는데":1593,"▁한번":1594,"보니":1595,"더니":1596,"습니다":1597,"▁ᄆ":1598,"▁찐":1599,"마다":1600,"▁명":1601,"▁있는":1602,"을때":1603,"씨발":1604,"▁팬":1605,"밖에":1606,"▁담":1607,"토리":1608,"▁몰":1609,"▁엔":1610,"▁좋은":1611,"다는":1612,"▁꾹":1613,"▁문제":1614,"▁써":1615,"▁하루":1616,"지마":1617,"▁각":1618,"기가":1619,"한데":1620,"▁15":1621,"▁빨리":1622,"▁나는":1623,"린이":1624,"전드":1625,"▁아닌":1626,"▁체":1627,"▁ᄏᄏᄏᄏᄏᄏᄏ":1628,"▁헬":1629,"▁궁":1630,"하노":1631,"▁?":1632,"▁하면":1633,"▁워":1634,"애들":1635,"▁캐릭":1636,"▁번":1637,"어야":1638,"고있":1639,"기는":1640,"▁올라":1641,"▁괜찮":1642,"문에":1643,"었다":1644,"▁소바":1645,"▁헤":1646,"▁좆같":1647,"기네":1648,"▁종":1649,"▁애미":1650,"▁등":1651,"▁갑자기":1652,"까?":1653,"▁첫":1654,"▁판":1655,"▁소리":1656,"▁맛":1657,"해주":1658,"▁쿠":1659,"▁념글":1660,"어요":1661,"려면":1662,"하냐?":1663,"▁미친":1664,"▁0":1665,"▁환":1666,"▁머리":1667,"▁있음?":1668,"▁그래도":1669,"▁쓸":1670,"소리":1671,"10":1672,"▁컨":1673,"냐고":1674,"--":1675,"▁ᄂ":1676,"▁찾":1677,"▁킹":1678,"▁라이":1679,"▁계속":1680,"가는":1681,".gif":1682,"▁처음":1683,"▁철구":1684,"가능":1685,"라는":1686,"▁행":1687,"시발":1688,"▁뭐가":1689,"@@":1690,"스터":1691,"▁200":1692,"▁준":1693,"▁그래서":1694,"▁줄":1695,"임??":1696,"가면":1697,"ᄃᄃᄃᄃ":1698,"적으로":1699,"▁아직도":1700,"▁이벤트":1701,"리네":1702,"▁젤":1703,"▁레전드":1704,"▁ᄏ":1705,"▁갤주":1706,"▁나왔":1707,"인거":1708,"▁밀":1709,"▁혼":1710,"ᄋᄋ":1711,"▁산":1712,"▁사진":1713,"ᄏᄏᄏᄏᄏᄏᄏ":1714,"▁알려":1715,"▁것":1716,"인증":1717,"▁흑":1718,"▁'":1719,"▁얼굴":1720,"았다":1721,"▁ᅲᅲ":1722,"리면":1723,"▁회":1724,"▁\"\"":1725,"합니다":1726,"▁절":1727,"▁팩":1728,"이냐?":1729,"▁-":1730,"▁올해":1731,"이유":1732,"▁놀":1733,"▁몸":1734,"▁나만":1735,"▁뭐냐":1736,"▁암":1737,"▁유튜":1738,"▁해야":1739,"▁ᄒ":1740,"▁급":1741,"▁놈":1742,"▁봉":1743,"지고":1744,"어?":1745,"하기":1746,"▁떨":1747,"▁어디서":1748,",,":1749,"▁왜이":1750,"▁윤":1751,"▁팀":1752,"가서":1753,"말고":1754,"▁퇴":1755,"▁아님?":1756,"없는":1757,"▁너네":1758,"▁일러":1759,"▁같은데":1760,"▁바로":1761,"▁추천좀":1762,"ᅮᅮ":1763,"▁깨":1764,"▁러":1765,"▁갤러리":1766,"▁얼마나":1767,"▁댓":1768,"▁시간":1769,"이라고":1770,"▁없는":1771,"▁삐":1772,"▁넣":1773,"▁황":1774,"된다":1775,"▁앞":1776,"▁유진":1777,"▁졸":1778,"tx":1779,"▁먼":1780,"▁돌아":1781,"▁빡":1782,"었네":1783,"같음":1784,"▁변":1785,"▁섹":1786,"리스":1787,"한게":1788,"▁그런":1789,"▁시즌":1790,"▁나온":1791,"▁저거":1792,"▁투표":1793,"이고":1794,"는다":1795,"▁13":1796,"▁어떤":1797,"▁입갤":1798,"▁청":1799,"▁궁금":1800,"해라":1801,"▁s":1802,"이노":1803,"ᄀᄀ":1804,"▁총":1805,"▁p":1806,"▁지랄":1807,"▁정신":1808,"txt":1809,"에게":1810,"▁영상":1811,"▁축":1812,"▁좋겠다":1813,"▁프로":1814,"와서":1815,"▁있음":1816,"▁이해":1817,"▁ᄊ":1818,"13":1819,"▁같이":1820,"▁18":1821,"▁S":1822,"▁그만":1823,"▁나올":1824,"▁취":1825,"▁폴":1826,"▁인증":1827,"다.":1828,"▁대체":1829,"▁꿀":1830,"놓고":1831,"하는게":1832,"▁이름":1833,"▁그러":1834,"▁엠":1835,"▁경기":1836,"▁독":1837,"▁푸":1838,"건데":1839,"▁뜨":1840,"▁다들":1841,"로나":1842,"▁별로":1843,"사가":1844,"▁떴":1845,"▁방금":1846,"아야":1847,"▁슈":1848,"▁새끼들":1849,"▁충":1850,"▁하고":1851,"▁뭘":1852,"▁애니":1853,"▁만들":1854,"▁짜":1855,"▁식":1856,"▁스토리":1857,"▁신캐":1858,"병신":1859,"하자":1860,"▁필요":1861,"있는":1862,"▁기대":1863,"▁올려":1864,"▁확실":1865,"▁안나":1866,"리아":1867,"▁17":1868,"▁하는거":1869,"▁딸":1870,"▁맨":1871,"▁그거":1872,"▁브이":1873,"▁낫":1874,"▁있는데":1875,"▁마지":1876,"다니":1877,"▁뭔가":1878,"▁퍼":1879,"▁찜":1880,"▁휴":1881,"▁콜":1882,"보네":1883,"▁아니라":1884,"냐들":1885,"인지":1886,"▁서울":1887,"▁밥":1888,"▁앚":1889,"년들":1890,"▁딜":1891,"▁사랑":1892,"▁트레이드":1893,"▁챔":1894,"▁50":1895,"갤러":1896,"조건":1897,"주는":1898,"린다":1899,"하면서":1900,"▁이건":1901,"노?":1902,"디어":1903,"지가":1904,"▁14":1905,"▁서버":1906,"▁선수":1907,"▁로아":1908,"아님?":1909,"▁가장":1910,"▁댓글":1911,"방송":1912,"▁스트":1913,"같이":1914,"레기":1915,"▁쉬":1916,"▁잇":1917,"▁돼":1918,"게임":1919,"▁T":1920,"▁어떰":1921,"▁큰":1922,"▁느낌":1923,"▁짱":1924,"▁뭐야":1925,"나는":1926,"이었":1927,"▁잘생":1928,"▁프리":1929,"드는":1930,"▁최고":1931,"ᄉᄉᄉᄉ":1932,"보니까":1933,"할거":1934,"▁픽":1935,"▁16":1936,"▁마지막":1937,"▁메이":1938,"▁자꾸":1939,"▁니들":1940,"▁ᄇ":1941,"치는":1942,"▁그림":1943,"▁폰":1944,"▁D":1945,"있음":1946,"▁인생":1947,"...jpg":1948,"▁그럼":1949,"▁혹":1950,"긔?":1951,"▁표":1952,"간다":1953,"했네":1954,"이들":1955,"▁어느":1956,"▁이쁘":1957,"▁답":1958,"▁자기":1959,"겠지?":1960,"▁우승":1961,"▁유튜브":1962,"가리":1963,"▁기분":1964,"▁진지":1965,"▁아니냐":1966,"붕이들":1967,"▁극":1968,"▁재미":1969,"▁L":1970,"지네":1971,"▁이미":1972,"▁무조건":1973,"▁v":1974,"▁19":1975,"▁귀여":1976,"▁+":1977,"▁빼":1978,"▁같음":1979,"생각":1980,"주세요":1981,"보는":1982,"▁정리":1983,"에도":1984,"▁디시":1985,"000":1986,"동안":1987,"하니까":1988,"12":1989,"수가":1990,"▁역시":1991,"겠지":1992,">>":1993,"▁만화":1994,"▁A":1995,"▁스타":1996,"▁아는":1997,"▁있냐":1998,"▁a":1999,"▁쥬":2000,"▁떨어":2001,"▁풍":2002,"▁이유가":2003,"11":2004,"▁찬":2005,"는거임?":2006,"으니까":2007,"▁꾸":2008,"되는":2009,"▁높":2010,"▁희":2011,"▁항":2012,"나서":2013,"이도":2014,"▁:":2015,"▁죄":2016,"▁꼭":2017,"적인":2018,"성이":2019,"▁아님":2020,"▁복귀":2021,"▁이새끼":2022,"▁드디어":2023,"▁술":2024,"▁콘":2025,"시에":2026,"▁ᄆᄐᄎ":2027,"▁샘":2028,"▁나오면":2029,"▁했는데":2030,"▁벌써":2031,"50":2032,"▁옷":2033,"입니다":2034,"지도":2035,"진짜":2036,"▁ᄏᄏᄏᄏᄏᄏᄏᄏᄏ":2037,"▁있냐?":2038,"▁사이":2039,"▁고닉":2040,"▁싫어":2041,".txt":2042,"▁정도":2043,"옴?":2044,"▁결국":2045,"▁붙":2046,"▁빌":2047,"아아":2048,"캬루":2049,"▁레이드":2050,"▁생각해":2051,"때문에":2052,"줌마":2053,"▁보니까":2054,"▁쓰는":2055,"▁떠":2056,"▁무기":2057,"▁네이":2058,"▁인기":2059,"▁쇼":2060,"하고싶":2061,"▁왕":2062,"레스":2063,".5":2064,"있음?":2065,"▁오늘은":2066,"▁익":2067,"▁씨젠":2068,"▁m":2069,"라인":2070,"▁마이":2071,"▁없음":2072,"길래":2073,"▁진각":2074,"▁혹시":2075,"▁엘마":2076,"▁공부":2077,"▁P":2078,"▁이정도":2079,"된거":2080,"보)":2081,"▁정상":2082,"▁꺼":2083,"▁뭐임?":2084,"▁노무":2085,"에는":2086,"실분":2087,"▁운동":2088,"▁맘":2089,"▁싶다":2090,"▁믿":2091,"을듯":2092,"▁패치":2093,"▁이겜":2094,"▁면":2095,"~~~~":2096,"을거":2097,"되면":2098,"▁없어":2099,"요일":2100,"▁중국":2101,"▁팩트":2102,"리는거":2103,"으니":2104,"▁받아":2105,"인이":2106,"▁기사":2107,"▁고민":2108,"▁착":2109,"▁혐":2110,"▁ᄏᄏᄏᄏᄏᄏᄏᄏᄏᄏᄏᄏᄏᄏᄏᄏ":2111,"나가":2112,"▁근황":2113,"▁얘기":2114,"▁듣":2115,"▁진심":2116,"▁개좆":2117,"먹고":2118,"시즌":2119,"▁기안":2120,"▁새벽":2121,"!!!":2122,"▁틀드":2123,"던거":2124,"▁t":2125,"▁하는데":2126,"▁겨":2127,"▁듀":2128,"▁실화":2129,"링크":2130,"바다":2131,"나요?":2132,"주년":2133,"▁만들어":2134,"in":2135,"경찬":2136,"나면":2137,"삭제":2138,"▁브이앱":2139,"▁미쳤":2140,"▁<":2141,"▁될":2142,"스가":2143,"준다":2144,"텐데":2145,"▁특징":2146,"스는":2147,"▁꼬마":2148,"▁=":2149,"려서":2150,"지면":2151,"▁오랜":2152,"나요":2153,"▁옛":2154,"프로":2155,"네요":2156,"쉬)":2157,"▁침":2158,"▁뿌":2159,"퀴들":2160,"30":2161,"시는":2162,"▁보는":2163,"▁잘못":2164,"▁사기":2165,"▁ᄏᄏᄏᄏᄏᄏᄏᄏᄏᄏᄏᄏᄏᄏᄏᄏᄏᄏᄏᄏᄏᄏᄏᄏ":2166,"▁점검":2167,"▁뭔데":2168,"할까":2169,"▁게이":2170,"▁있었":2171,"▁스킬":2172,"▁아까":2173,"▁낮":2174,"▁멜":2175,"▁칼":2176,"갤에":2177,"이상":2178,"▁봤":2179,"이즈":2180,"▁그렇게":2181,"려나":2182,"▁진지하게":2183,"▁아침":2184,"리즈":2185,"좋아":2186,"▁차단":2187,"▁이기":2188,"▁좆같은":2189,"▁작년":2190,"▁알바":2191,"▁아이돌":2192,"▁V":2193,"사진":2194,"같네":2195,"▁카드":2196,"!!!!!!!!":2197,"겠음":2198,"주면":2199,"▁똑":2200,"갤에서":2201,"리나":2202,"▁옛날":2203,"▁법":2204,"들도":2205,"▁왜케":2206,"▁확실히":2207,"▁늘":2208,"만한":2209,"이라도":2210,"봐도":2211,"▁한남":2212,"▁일단":2213,"▁요새":2214,"머리":2215,"▁괴":2216,"▁논":2217,"▁봊":2218,"▁주식":2219,"▁노트":2220,"▁핵":2221,"▁40":2222,"▁버그":2223,"▁염보성":2224,"오면":2225,"없이":2226,"음??":2227,"▁섹스":2228,"이어":2229,"▁이러":2230,"▁센":2231,"▁골드":2232,"▁니네":2233,"▁있다":2234,"▁빅":2235,"▁잔":2236,"▁하지":2237,"리카":2238,"▁추가":2239,"▁오늘도":2240,"▁인스타":2241,"▁택":2242,"때마다":2243,"▁여기서":2244,"▁갔":2245,"있는데":2246,"▁와꾸":2247,"▁샤":2248,"스크":2249,"있냐":2250,"▁케이":2251,"자가":2252,"일차":2253,"가지":2254,"인듯":2255,"▁삼성":2256,"▁효":2257,"가?":2258,"▁미국":2259,"▁이번에":2260,"▁증":2261,"드컵":2262,"민이":2263,"▁영화":2264,"▁육":2265,"해줘":2266,"▁트위":2267,"▁멀":2268,".....":2269,"▁방법":2270,"▁수영":2271,"▁코로나":2272,"▁좌":2273,"▁아니냐?":2274,"▁앱":2275,"세계":2276,"텐츠":2277,"는지":2278,"우스":2279,"해?":2280,"▁떡밥":2281,"▁엄청":2282,"▁해도":2283,"▁밤":2284,"▁혼자":2285,"▁뒷":2286,"▁밑":2287,"▁탑":2288,"존나":2289,"▁M":2290,"▁ᅳᅳ":2291,"▁맥":2292,"수록":2293,"▁쥐":2294,"린거":2295,"하긴":2296,"식이":2297,"▁내년":2298,"▁굴":2299,"▁개꿀":2300,"▁십":2301,"사는":2302,"▁알아":2303,"ᄉᄐᄎ":2304,"리지":2305,"▁웅":2306,"▁템":2307,"같은거":2308,"▁데려":2309,"▁앰":2310,"▁첨":2311,"▁나와":2312,"▁가축":2313,"▁샘슨":2314,"▁하네":2315,"▁맨날":2316,"▁???":2317,"▁있으면":2318,"▁색":2319,"15":2320,"▁닉":2321,"▁송":2322,"▁없다":2323,"▁생일":2324,"▁ᄏᄏᄏᄏᄏᄏᄏᄏᄏᄏ":2325,"(설쉬)":2326,"▁공지":2327,"▁평가":2328,"거같음":2329,"▁옵":2330,"마갤]":2331,"보단":2332,"캐릭":2333,"▁형들":2334,"▁늒":2335,"친구":2336,"▁차이":2337,"없네":2338,"▁ᄋᄌ":2339,"▁징":2340,"▁능":2341,"니깐":2342,"초에":2343,"▁개인":2344,"▁말고":2345,"▁문경찬":2346,"▁지지":2347,"▁됐":2348,"없음":2349,"▁고소":2350,"▁확정":2351,"▁)":2352,"▁에픽":2353,"▁후기":2354,"▁1위":2355,"▁없네":2356,"▁의외":2357,"▁새로":2358,"▁소리바다":2359,"▁싱":2360,"왔다":2361,"투표":2362,"▁좋아하는":2363,"▁찐따":2364,"▁언냐들":2365,"▁범":2366,"▁김태":2367,"놈들":2368,"▁가격":2369,"▁행복":2370,"림?":2371,"▁어차":2372,"▁가챠":2373,"▁캐릭터":2374,"▁안나오":2375,"ᅡᅡ":2376,"▁뇌":2377,"▁비트":2378,"▁북":2379,"▁홈":2380,"▁결혼":2381,"▁아무리":2382,"경기":2383,"▁여친":2384,"▁오랜만에":2385,"치고":2386,"▁성공":2387,"▁됨?":2388,"누나":2389,"▁핑":2390,"▁신기":2391,"▁키우":2392,"▁삭제":2393,"▁트와":2394,"이였":2395,"▁보내":2396,"▁라인":2397,"▁사라":2398,"▁선발":2399,"ᅲᅲᅲᅲ":2400,"▁완장":2401,"그로":2402,"나네":2403,"▁던파":2404,"▁문재":2405,"▁예상":2406,"▁계정":2407,"한다고":2408,"봐라":2409,"▁보통":2410,"▁어차피":2411,"▁움":2412,"이거":2413,"▁살아":2414,"▁빵":2415,"▁털":2416,"▁랜":2417,"걸로":2418,".2":2419,"▁민주":2420,"▁l":2421,"보이":2422,"▁챔스":2423,"드립":2424,"▁비교":2425,"▁ᄃ":2426,"원이":2427,"▁22":2428,"▁은근":2429,"▁덱":2430,"▁뭐임":2431,"▁쓰레기":2432,"▁귀엽":2433,"▁류":2434,"려는데":2435,"▁인터":2436,"시아":2437,"▁코스":2438,"▁으":2439,"▁야구":2440,"▁슼":2441,"라서":2442,"▁b":2443,"▁셀":2444,"르는":2445,"▁n":2446,"▁없냐":2447,"▁거의":2448,"겠노":2449,"진거":2450,"▁광고":2451,"▁수준":2452,"▁K":2453,"영상":2454,"▁이쁜":2455,"▁없는데":2456,"▁절대":2457,"나고":2458,"보자":2459,"야되":2460,"▁군대":2461,"▁젠":2462,"라면":2463,"▁현재":2464,"있네":2465,"▁중요":2466,"▁c":2467,"▁떳":2468,"왔는데":2469,"자리":2470,"▁늒네":2471,"▁70":2472,"▁샀":2473,"ᄏᄏᄏᄏᄏᄏᄏᄏᄏ":2474,"▁현실":2475,"▁링크":2476,"▁가슴":2477,"▁얘들아":2478,"▁이런거":2479,"▁어떰?":2480,"오스":2481,"만큼":2482,"▁무료":2483,"▁중에":2484,"대체":2485,"▁끼":2486,"▁보상":2487,"▁마음":2488,"▁트로":2489,"새기":2490,"▁근본":2491,"▁기다":2492,"지마라":2493,"했으면":2494,"▁없음?":2495,"▁질문좀":2496,"아도":2497,"주고":2498,"지랄":2499,"앨범":2500,"▁d":2501,"진다":2502,"▁o":2503,"▁흥":2504,"따리":2505,"함??":2506,"▁모든":2507,"▁비슷":2508,"▁8월":2509,"▁어캐":2510,"▁헐":2511,"▁가능?":2512,"▁깔":2513,"워서":2514,"▁수비":2515,"▁에어":2516,"▁결과":2517,"을까?":2518,"▁잦":2519,"▁N":2520,"▁k":2521,"같다":2522,"보은":2523,"카드":2524,"한건":2525,"▁속보)":2526,"▁엑":2527,"▁숙":2528,"▁선택":2529,"▁어쩌":2530,"▁녹":2531,"▁는데":2532,"애미":2533,"▁전부":2534,"게이":2535,"하러":2536,"▁있네":2537,"14":2538,"▁옆":2539,"영이":2540,"자나":2541,"▁무대":2542,"▁좋다":2543,"▁씹덕":2544,"▁린":2545,"▁잼":2546,"짐?":2547,"▁일반":2548,"▁실시간":2549,"x)":2550,"아이":2551,"이브":2552,"▁정말":2553,"▁겆":2554,"르고":2555,"▁사람이":2556,"수도":2557,"ᄉᄇ":2558,"▁억":2559,"라가":2560,"▁대단":2561,"▁강화":2562,"웃기네":2563,"▁싸우":2564,"▁꿈":2565,"▁섭":2566,"▁읽":2567,"마자":2568,"▁오래":2569,"▁v4":2570,"▁책":2571,"었음":2572,"????????":2573,"되네":2574,"어가":2575,"▁어려":2576,"▁레이":2577,"ea":2578,"주라":2579,"▁유니":2580,"▁스포":2581,"▁생각보다":2582,"▁엄마":2583,"▁f":2584,"▁몬":2585,"무기":2586,"장이":2587,"▁보여":2588,"▁개추":2589,"▁60":2590,"▁.":2591,"▁혜":2592,"그룹":2593,"▁나가":2594,"▁나이":2595,"▁미래":2596,"▁일어":2597,"▁감독":2598,"라라":2599,"이형":2600,"레나":2601,"▁틀딱":2602,"고싶어":2603,"▁관련":2604,"냄새":2605,"는중":2606,"에선":2607,"▁B":2608,"▁줘":2609,"▁아니면":2610,"충들":2611,"▁역대":2612,"▁페미":2613,"즈원":2614,"▁그리":2615,"▁스카":2616,"▁기억":2617,"▁존버":2618,"보기":2619,"▁수영복":2620,"▁의외로":2621,"▁쌍":2622,"▁둘다":2623,".0":2624,"▁낼":2625,"았네":2626,"▁보스":2627,"▁좋은거":2628,"▁직업":2629,"어로":2630,"▁이야":2631,"▁상황":2632,"▁라이브":2633,"▁ᅲ":2634,"▁님":2635,"▁최근":2636,"하지마":2637,"▁탄":2638,"나보네":2639,"▁좃":2640,"이야?":2641,"준이":2642,"▁성능":2643,"▁퇴근":2644,"▁도와":2645,"__":2646,"ᄒᄒ":2647,"▁웨":2648,"여자":2649,"▁정지":2650,"▁자주":2651,"▁애초에":2652,"▁때문에":2653,"아라":2654,"인줄":2655,"피셜":2656,"할듯":2657,"▁오늘의":2658,"추천":2659,"▁랭":2660,"▁1년":2661,"▁25":2662,"▁인간":2663,"▁많은":2664,"18":2665,"▁웹":2666,"주의":2667,"▁가져":2668,"▁24":2669,"▁있지":2670,"▁됨":2671,"사랑":2672,"일러":2673,"찬이":2674,"▁한다":2675,"▁불쌍":2676,"▁느금":2677,"16":2678,"거면":2679,"▁택배":2680,"▁짭":2681,"▁봤는데":2682,"겠는데":2683,"졌네":2684,"하는건":2685,"통령":2686,"▁주딱":2687,"▁치킨":2688,"하다가":2689,"▁근첩":2690,"▁나오는":2691,"▁숨":2692,"▁아프":2693,"▁스밍":2694,"▁정보":2695,"▁언급":2696,"▁파딱":2697,"▁ᄃᄃᄃ":2698,"▁ᄊᄉᄐᄎ":2699,"▁여름":2700,"▁않냐":2701,"▁되는":2702,"▁물어":2703,"▁e":2704,"▁활":2705,"보드":2706,"▁있는거":2707,"▁확률":2708,"▁릴":2709,"▁컷":2710,"시키":2711,"▁퀸":2712,"라보":2713,"^^":2714,"▁도대체":2715,"▁ᄀᄎ":2716,"▁2008":2717,"제로":2718,"했음":2719,"▁유동":2720,"▁앞으로":2721,"나라":2722,"▁모음":2723,"▁학교":2724,"보는데":2725,"▁못생":2726,"▁득":2727,"▁봄":2728,"▁3개":2729,"▁저녁":2730,"▁갤에":2731,"▁멤":2732,"▁된":2733,"라마":2734,"▁캐밥":2735,"▁신고":2736,"▁떡상":2737,"▁얻":2738,"▁상대":2739,"거리":2740,"▁오프":2741,"▁장현":2742,"##":2743,"▁곧":2744,"▁썰":2745,"▁뷰":2746,"운데":2747,"▁김치":2748,"▁인정":2749,"▁신규":2750,"▁점심":2751,"▁긴":2752,"오는":2753,"같아":2754,"있냐?":2755,"짜리":2756,"에서도":2757,"지게":2758,"다고?":2759,"▁닮":2760,"감?":2761,"온다":2762,"▁대기":2763,"▁갤러":2764,"▁덕":2765,"▁석":2766,"거임?":2767,"▁스킨":2768,"▁부산":2769,"▁댕":2770,"이벤":2771,"▁어때":2772,"▁2개":2773,"▁경원":2774,"▁찾아":2775,"▁말이":2776,"해야지":2777,"▁멋":2778,"이터":2779,"▁대충":2780,"▁아니고":2781,"▁딴":2782,"▁훈":2783,"심히":2784,"아님":2785,"▁중계":2786,"▁보지":2787,"는거냐":2788,"고싶은데":2789,"▁g":2790,"수는":2791,"시긔":2792,"▁간다":2793,"▁컨텐츠":2794,"상식":2795,"▁응원":2796,"▁쉽":2797,"노래":2798,"▁어렵":2799,"년아":2800,"번째":2801,"인트":2802,"▁야짤":2803,"남자":2804,"▁조합":2805,"▁저런":2806,"아니냐":2807,"▁얍":2808,"얘기":2809,"▁소환":2810,"거같은데":2811,"평가":2812,"▁어그로":2813,"지않냐":2814,"▁슬슬":2815,"▁ᄑ":2816,"기사":2817,"..?":2818,"▁가면":2819,"ᅳᅳᅳᅳᅳᅳᅳᅳ":2820,"▁F":2821,"리어":2822,"▁전에":2823,"▁누나":2824,"(설x)":2825,"▁늦":2826,"니아":2827,"▁여러":2828,".3":2829,"▁찌":2830,"▁챙":2831,"과금":2832,"라리":2833,"▁이정도면":2834,"▁칸":2835,"▁사주":2836,"▁한달":2837,"▁한명":2838,"▁자살":2839,"▁힘들":2840,"----":2841,"PG":2842,"시작":2843,"▁가테":2844,"▁애들은":2845,"▁쏘":2846,"갤은":2847,"쓰는":2848,"체가":2849,"▁돌려":2850,"▁??":2851,"▁유저":2852,"▁몇개":2853,"▁정치":2854,"새끼들아":2855,"▁족":2856,"거나":2857,"안되":2858,"이란":2859,"하던":2860,"▁무서":2861,"▁홍어":2862,"))":2863,"▁시청":2864,"▁대학":2865,"▁바꾸":2866,"▁감스트":2867,"▁흐":2868,"시절":2869,"▁관심":2870,"▁격":2871,"▁쓴":2872,"▁5성":2873,"<<":2874,"▁븝":2875,"▁핫":2876,"리기":2877,"먹는":2878,"▁기본":2879,"▁바리":2880,"▁의미":2881,"리는데":2882,"▁C":2883,"크로":2884,"▁아무도":2885,"ᄏᄏᄏᄏᄏᄏᄏᄏᄏᄏ":2886,"▁봐도":2887,"▁사람들":2888,"▁견":2889,"걱정":2890,"▁노잼":2891,"▁연습":2892,"없어":2893,"▁전설":2894,"씀?":2895,"▁어느정도":2896,"▁칩":2897,"▁에이":2898,"▁같다":2899,"▁길드":2900,"▁저번":2901,"▁뿡2":2902,"▁E":2903,"하니":2904,"▁ᄉᄐᄎ":2905,"▁G":2906,"▁젖":2907,"거임":2908,"모드":2909,"져서":2910,"▁주인":2911,"▁좋음":2912,"▁공개":2913,"▁디씨":2914,"er":2915,"▁썩":2916,"▁비틱":2917,"마르":2918,"었으면":2919,"오네":2920,"▁나옴":2921,"▁생겼":2922,"▁ᄏᄏᄏᄏᄏᄏᄏᄏᄏᄏᄏ":2923,"▁완전":2924,"▁순위":2925,"▁뮤":2926,"▁칭":2927,"▁원탑":2928,"▁ᄐ":2929,"기도":2930,"끼리":2931,"부분":2932,"▁보는데":2933,"데이트":2934,"▁만든":2935,"▁세계":2936,"▁장현식":2937,"▁바이":2938,"▁먼저":2939,"▁끌":2940,"줌?":2941,"▁신인":2942,"▁조선":2943,"19":2944,"▁뜬":2945,"러가":2946,"이긴":2947,"▁안좋":2948,"▁마도":2949,"▁바꿔":2950,"▁투수":2951,"▁앨범":2952,"광고":2953,"▁않았":2954,"X)":2955,"대는":2956,"▁듯":2957,"▁폐":2958,"메라":2959,"애들은":2960,"갤러리":2961,"마리":2962,"사기":2963,"▁좋음?":2964,"▁버스":2965,"▁벨":2966,"▁없으면":2967,"▁호감":2968,"선수":2969,"▁좋은데":2970,"▁수캬루":2971,"있으면":2972,"▁대한":2973,"▁낙":2974,"렸다":2975,"야함":2976,"없다":2977,"▁어떡":2978,"▁그렇":2979,"▁좆망":2980,"▁블루":2981,"▁왔다":2982,"▁급식":2983,"▁응애":2984,"아닌":2985,"▁인싸":2986,"▁전화":2987,"▁남순":2988,"▁국내":2989,"▁아닌데":2990,"▁홀":2991,"▁도배":2992,"▁상관":2993,"▁데뷔":2994,"▁웃기":2995,"▁파티":2996,"▁갖":2997,"▁혈":2998,"▁힐":2999,"▁웃기네":3000,"나옴":3001,"▁다니":3002,"▁인방":3003,"▁반응":3004,"▁열심히":3005,"▁담배":3006,"▁런":3007,"이긔":3008,"▁내려":3009,"▁따라":3010,"▁다이":3011,"▁왜이리":3012,"▁2차":3013,"▁제대로":3014,"▁예전에":3015,"▁페이":3016,"자는":3017,"겟다":3018,"땜에":3019,"▁2020":3020,"▁쟤":3021,"▁이후":3022,"▁저새끼":3023,"▁저렇게":3024,"▁퀘":3025,"랜드":3026,"왔어요":3027,"자마자":3028,"▁합격":3029,"르면":3030,"인은":3031,"있다":3032,"▁도사":3033,"▁장비":3034,"▁공격":3035,"▁마이너":3036,"JPG":3037,"▁롯":3038,"드림":3039,"▁웃긴":3040,"뒤진":3041,"▁오늘자":3042,"▁부탁":3043,"▁점핑":3044,"▁작가":3045,"▁ᅮᅮ":3046,"▁안녕":3047,"는거임":3048,"▁해주":3049,"시켜":3050,"아가":3051,"피스":3052,"▁영웅":3053,"▁세상":3054,"▁굿":3055,"졌다":3056,"▁애플":3057,"▁픽업":3058,"▁ᄆᄐᄎ?":3059,"대가":3060,"▁애들아":3061,"▁컨셉":3062,"▁준비":3063,"▁움짤":3064,"▁뛰":3065,"냐???":3066,"▁아마":3067,"▁상위":3068,"▁연애":3069,"력이":3070,"만들":3071,"▁외질":3072,"성은":3073,"해보":3074,"▁업뎃":3075,"▁ᄒᄒ":3076,"였는데":3077,"주일":3078,"코네":3079,"▁지원":3080,"▁아이즈원":3081,"▁ᄇᄉ":3082,"▁없냐?":3083,"▁애들이":3084,"▁들어가":3085,"난다":3086,"르네":3087,"▁안보":3088,"▁시상식":3089,"기로":3090,"인게":3091,"▁알고":3092,"........":3093,"▁김태진":3094,"▁트로이":3095,"▁옴":3096,"▁함?":3097,"▁예쁘":3098,"▁ᄆᄎ":3099,"▁는":3100,"장에서":3101,"▁뭐냐?":3102,"하지않":3103,"▁짤녀":3104,"▁두개":3105,"@@@@":3106,"▁을":3107,"아?":3108,"▁다행":3109,"▁먹고":3110,"▁아이폰":3111,"▁즐":3112,"▁칠":3113,"일이":3114,"▁밑에":3115,"들한테":3116,"티어":3117,"▁권":3118,"▁땡":3119,"였네":3120,"▁미안":3121,"▁걱정":3122,"▁5분":3123,"(설X)":3124,"ᄋᄌ":3125,"근데":3126,"▁대가리":3127,"▁좋네":3128,"▁맞음":3129,"드가":3130,"이기":3131,"일까":3132,"▁하이":3133,"양이":3134,"▁보라":3135,"너무":3136,"지는거":3137,"▁탁":3138,"▁밖에":3139,"계정":3140,"이닝":3141,"▁못하":3142,"▁만약":3143,"▁메이플":3144,"명이":3145,"키지":3146,"..jpg":3147,"▁이번주":3148,"▁느낀":3149,"학교":3150,"▁축구":3151,"▁농":3152,"인물":3153,"▁해줘":3154,"▁상향":3155,"▁콜라보":3156,"거야":3157,"▁천장":3158,"▁O":3159,"겠어":3160,"▁아닐":3161,"▁벤":3162,"▁콱":3163,"니가":3164,"인가?":3165,"▁항상":3166,"▁밸":3167,"▁맞지?":3168,"▁차라리":3169,"▁타이":3170,"▁손절":3171,"▁룩":3172,"치가":3173,"이라는":3174,"▁총공":3175,"▁i":3176,"▁ᄅ":3177,"나봐":3178,"년이":3179,"리냐":3180,"았음":3181,"▁오픈":3182,"▁가끔":3183,"▁재밋":3184,"▁레벨":3185,"▁띵":3186,"▁샌":3187,"스템":3188,"중인데":3189,"▁들고":3190,"▁번역":3191,"치면":3192,"▁씨발련":3193,"년들아":3194,"적이":3195,"▁봐라":3196,"▁업데이트":3197,"▁익스":3198,"댐?":3199,"문제":3200,"우면":3201,"했어":3202,"▁중고":3203,"▁하나도":3204,"▁탭":3205,"되냐":3206,"트가":3207,"▁그나":3208,"▁콩":3209,"거지":3210,"되는거":3211,"우는":3212,"▁대상":3213,"▁거지":3214,"▁리그":3215,"▁않냐?":3216,"▁갈아":3217,"▁싱글":3218,"▁닥":3219,"메이":3220,"▁아기":3221,"▁80":3222,"▁ᄃᄃᄃᄃ":3223,"▁네이마르":3224,"▁되는거":3225,"▁이상화":3226,"라이브":3227,"▁성형":3228,"▁칰":3229,"드라":3230,"▁사는":3231,"▁스크":3232,"새끼가":3233,"▁300":3234,"▁목소리":3235,"▁멤버":3236,"▁w":3237,"신이":3238,"▁기준":3239,"▁알았는데":3240,"▁넘어":3241,"▁118":3242,"▁채팅":3243,"▁어이":3244,"▁1등":3245,"▁문재인":3246,"가요":3247,"천원":3248,"▁안내":3249,"▁하다":3250,"▁사과":3251,"▁발표":3252,"▁ᄀᄀ":3253,"▁짱깨":3254,"▁냉":3255,"없는데":3256,"▁조용":3257,"▁느그":3258,"▁승리":3259,"▁/":3260,"패드":3261,"▁어떠":3262,"주네":3263,"했던":3264,"▁모르는":3265,"▁그러고":3266,"▁싹":3267,"▁보고싶다":3268,"▁있어":3269,"새끼들은":3270,"▁날씨":3271,"▁축하":3272,"▁떴다":3273,"구가":3274,"저씨":3275,"▁21":3276,"▁라인업":3277,"스밍":3278,"▁나중에":3279,"▁올스타":3280,"고싶네":3281,"▁설마":3282,"이에":3283,"▁공략":3284,"렸네":3285,"만함?":3286,"싸개":3287,"패치":3288,"▁경괴":3289,"▁페도":3290,"▁민주당":3291,"25":3292,"▁밴":3293,"▁캡":3294,"▁팝":3295,"으면서":3296,"▁바람":3297,"▁최대":3298,"▁90":3299,"볼까":3300,"야겠다":3301,"▁아오":3302,"▁무섭":3303,"새끼야":3304,"▁너프":3305,"▁안되는":3306,"그오":3307,"▁같아":3308,"▁감사":3309,"▁헨":3310,"이래":3311,"자들":3312,"탈워":3313,"하세요":3314,"▁쓰면":3315,"▁불펜":3316,"▁차트":3317,"▁포기":3318,"▁좆같네":3319,"해요":3320,"▁이걸":3321,"▁보은":3322,"▁23":3323,"▁꼴)":3324,"▁라이프":3325,"▁귀여운":3326,"▁깡":3327,"▁멸":3328,"렸는데":3329,"스러":3330,"었어":3331,"▁누군":3332,"가능?":3333,"▁멜론":3334,"▁멘":3335,"노잼":3336,"을텐데":3337,"▁코인":3338,"▁헤어":3339,"▁곡":3340,"▁짝":3341,"럭시":3342,"위기":3343,"▁보다":3344,"▁시로":3345,"니까?":3346,"▁배달":3347,"▁형님들":3348,"▁햄":3349,"이니":3350,"▁500":3351,"▁회사":3352,"▁정신병":3353,"났네":3354,"리오":3355,"무원":3356,"받고":3357,"이이":3358,"▁아예":3359,"▁주작":3360,"▁트사가":3361,"▁블랙":3362,"▁쿠폰":3363,"▁뽀":3364,"눈나":3365,"쓰면":3366,"▁이젠":3367,"▁하는게":3368,"▁지방":3369,"▁많네":3370,"▁설명":3371,"▁헬스":3372,"▁여고":3373,"▁예쁜":3374,"▁약간":3375,"▁출근":3376,"▁실화냐":3377,"구리":3378,"은게":3379,"태곤":3380,"트는":3381,"ᄏᄏᄏᄏᄏᄏᄏᄏᄏᄏᄏᄏ":3382,"느낌":3383,"어라":3384,"▁보니":3385,"새끼들이":3386,"▁이야기":3387,"간질":3388,"긴함":3389,"본다":3390,"올라":3391,"점이":3392,"▁모자":3393,"▁초반":3394,"▁뽕":3395,"햇는데":3396,"▁실패":3397,"▁H":3398,"유저":3399,"현이":3400,"▁이재":3401,"▁없는거":3402,"▁꿀잼":3403,"▁빛":3404,"▁캬루":3405,"차이":3406,"▁나랑":3407,"▁대회":3408,"▁해서":3409,"▁예전":3410,"▁심심":3411,"▁폴가":3412,"▁맘에":3413,"60":3414,"▁끄":3415,"▁협":3416,"▁jpg":3417,"딩때":3418,"죠?":3419,"▁많아":3420,"▁똥찬이":3421,"▁돼지":3422,"디오":3423,"애들이":3424,"▁공식":3425,"▁부활":3426,"▁도움":3427,"▁카톡":3428,"~~~":3429,"▁셋":3430,"가라":3431,"하긔":3432,"▁안됨":3433,"▁하자":3434,"▁수정":3435,"▁ᄏᄏᄏᄏᄏᄏᄏᄏᄏᄏᄏᄏ":3436,"▁평균":3437,"나오면":3438,"▁지지율":3439,"▁붕":3440,"있는거":3441,"▁보기":3442,"▁2년":3443,"▁갤럼":3444,"▁지금까지":3445,"▁드라마":3446,"▁다음주":3447,"▁스트리":3448,"17":3449,"먹음":3450,"▁보이":3451,"▁주말":3452,"▁비비":3453,"▁하나만":3454,"▁들어와":3455,"▁역대급":3456,"▁롯데":3457,"다..":3458,"▁무시":3459,"▁저격":3460,"다니엘":3461,"▁U":3462,"▁닭":3463,"▁앙":3464,"▁팁":3465,"치네":3466,"케이":3467,"▁당연":3468,"▁통합":3469,"▁검색":3470,"▁쪽":3471,"갤이":3472,"도안":3473,"라지":3474,"▁이길":3475,"▁전투":3476,"▁갓겜":3477,"▁겁":3478,"망호":3479,"▁파리":3480,"▁I":3481,"▁h":3482,"타임":3483,"▁먹는":3484,"▁따로":3485,"▁플레이":3486,"▁큐":3487,"고닉":3488,"먹을":3489,"아는":3490,"▁지만":3491,"▁않음?":3492,"가네":3493,"보내":3494,"정도면":3495,"▁탱":3496,"나와":3497,"많이":3498,"분들":3499,"타는":3500,"▁부럽":3501,"▁도전":3502,"▁W":3503,"것같":3504,"때까지":3505,"쟁이":3506,"정이":3507,"▁다르":3508,"▁여캐":3509,"▁자랑":3510,"▁해외":3511,"▁바르":3512,"▁빠는":3513,"▁베르":3514,"▁쌈":3515,"▁폼":3516,"코인":3517,"▁아카":3518,"▁부캐":3519,"▁영어":3520,"▁박정":3521,"▁얘네":3522,"▁커여":3523,"지원":3524,"▁대구":3525,"▁모드":3526,"▁ᄉᄉ":3527,"ac":3528,"떡밥":3529,"있어":3530,"▁아레나":3531,"▁없어서":3532,"▁신곡":3533,"▁비추":3534,"▁짜증":3535,"▁렙":3536,"하더라":3537,"▁가는":3538,"▁성적":3539,"▁연장":3540,"▁싶은데":3541,"▁30분":3542,"40":3543,"가다":3544,"언제":3545,"▁이모":3546,"▁대깨":3547,"▁제목":3548,"▁외모":3549,"▁복구":3550,"▁슈퍼":3551,"▁충격":3552,"그래":3553,"동생":3554,"들만":3555,"릭스":3556,"운거":3557,"▁안지만":3558,"▁자러":3559,"▁[김":3560,"▁키워":3561,"▁엔딩":3562,"▁넥":3563,"▁벽":3564,"건가":3565,"깅이":3566,"빼고":3567,"는데?":3568,"▁먹어":3569,"▁왤캐":3570,"▁1시간":3571,"▁사용":3572,"▁다운":3573,"ᄏᄏᄏᄏᄏᄏᄏᄏᄏᄏᄏ":3574,"▁신경":3575,"▁제작":3576,"▁각성":3577,"한번":3578,"▁사냥":3579,"▁개병신":3580,"▁조금":3581,"▁매일":3582,"▁확인":3583,"▁켜":3584,"대전":3585,"릴때":3586,"한가":3587,"한듯":3588,"▁이득":3589,"▁대통령":3590,"▁없나":3591,"▁자동":3592,"▁프레":3593,"하고싶다":3594,"▁트위치":3595,"▁압":3596,"▁만나":3597,"▁카페":3598,"▁배메":3599,"▁양심":3600,"재밌":3601,"▁개씹":3602,"▁유입":3603,"▁중붕이":3604,"▁맞는":3605,"▁맞추":3606,"▁외국":3607,"▁쥬지":3608,"▁뚫":3609,"▁텐":3610,"로는":3611,"장은":3612,"▁이간질":3613,"▁먹을":3614,"▁쿠팡":3615,"▁네이버":3616,"▁트위터":3617,"라스":3618,"▁전무":3619,"▁거래":3620,"▁염퀴":3621,"▁쳐맞":3622,"▁ᄎ":3623,"님이":3624,"▁1차":3625,"▁오태곤":3626,"▁라스":3627,"▁느끼":3628,"▁나오네":3629,"▁폴가이즈":3630,"▁R":3631,"춘향":3632,"▁야스":3633,"][":3634,"an":3635,"▁쿨":3636,"다...":3637,"의점":3638,"특)":3639,"▁하기":3640,"▁생긴":3641,"▁점수":3642,"▁ᄊᄇ":3643,"▁x":3644,"▁멍":3645,"▁탐":3646,"▁마리나":3647,"▁외형":3648,"▁???:":3649,"▁든":3650,"마갤":3651,"...?":3652,"▁잘하는":3653,"▁갤질":3654,"▁부모":3655,"▁ᄃᄃᄃᄃᄃᄃ":3656,"▁몰랐":3657,"▁줌":3658,"구만":3659,"떨어":3660,"랑이":3661,"지??":3662,"▁유일":3663,"▁모두":3664,"▁눈물":3665,"▁시절":3666,"▁있나":3667,"▁버퍼":3668,"▁메인":3669,"▁띠":3670,"보지":3671,"술사":3672,"파이":3673,"▁그룹":3674,"▁사회":3675,"지않냐?":3676,"▁r":3677,"▁배우":3678,"▁운영":3679,"▁아프리카":3680,"거냐":3681,"하던데":3682,"▁오토":3683,"▁마스크":3684,"▁수사":3685,"▁우울":3686,"▁드립":3687,"▁설정":3688,"▁유튜버":3689,"▁슴":3690,"▁...":3691,"▁된다":3692,"들의":3693,"시오":3694,"축하":3695,"▁일베":3696,"▁갤에서":3697,"▁성격":3698,"▁트와이스":3699,"▁ᄏᄏᄏᄏᄏᄏᄏᄏᄏᄏᄏᄏᄏ":3700,"▁왔는데":3701,"기면":3702,"받아":3703,"버전":3704,"소녀":3705,"시다":3706,"▁이새끼들":3707,"▁트레":3708,"▁발작":3709,"▁9월":3710,"▁집에":3711,"▁논란":3712,"▁엉":3713,"리그":3714,"스럽":3715,"장에":3716,"튜브":3717,"▁코드":3718,"▁카카":3719,"▁의사":3720,"▁위한":3721,"▁금지":3722,"아니냐?":3723,"▁주인공":3724,"on":3725,"▁렉":3726,"▁빈":3727,"리노":3728,"여친":3729,"는거야":3730,"▁이미지":3731,"▁년":3732,"되냐?":3733,"머니":3734,"▁오르":3735,"▁진행":3736,"▁버프":3737,"▁장난":3738,"▁타격":3739,"▁필수":3740,"▁1000":3741,"▁잘생겼":3742,"▁얍얍":3743,"or":3744,"드네":3745,"종일":3746,"▁기만":3747,"▁갤럭시":3748,"▁주문":3749,"▁섬":3750,"기에":3751,"방법":3752,"▁웹툰":3753,"들을":3754,"리에":3755,"오늘":3756,"▁아쉽":3757,"▁하드":3758,"▁전사":3759,"▁애기":3760,"▁구매":3761,"▁졸업":3762,"만화":3763,"▁눈나":3764,"▁출시":3765,"인증왔":3766,".7":3767,"대장":3768,"치히":3769,"해줄":3770,"▁존재":3771,"▁머두":3772,"▁실력":3773,"▁찬또":3774,"오오":3775,"이버":3776,"인다":3777,"▁한동":3778,"▁경험":3779,";;;":3780,"개월":3781,"하라고":3782,"▁신청":3783,"▁캐르":3784,"▁루나":3785,"나온":3786,"달라고":3787,"서버":3788,"스로":3789,"치기":3790,"▁신화":3791,"▁되냐?":3792,"▁씹창":3793,"▁뭔지":3794,"▁여자가":3795,"▁룰":3796,"▁튀":3797,"▁아르":3798,"▁사고":3799,"▁못하는":3800,"▁선생":3801,"▁길태":3802,"▁시즌2":3803,"ww":3804,"까진":3805,"나이":3806,"줄알":3807,"프트":3808,"▁스피":3809,"84":3810,"라는데":3811,"상도":3812,"선발":3813,"▁안돼":3814,"▁머임":3815,"▁언니":3816,"▁9급":3817,"는건데":3818,"▁시청자":3819,"ᅩᅮ":3820,"▁곳":3821,"미가":3822,"아웃":3823,"▁가서":3824,"▁미디":3825,"▁리세":3826,"▁구라":3827,"▁분탕":3828,"▁엘리":3829,"▁머두링":3830,"▁까지":3831,"로그":3832,"했노":3833,"▁지코":3834,"▁아니었":3835,"▁일주일":3836,"▁도시":3837,"▁프리코네":3838,"▁그나마":3839,"▁캠":3840,"됐네":3841,"로스":3842,"▁이짤":3843,"▁제주":3844,"▁맞음?":3845,"▁경북":3846,"▁합방":3847,"▁정도면":3848,"▁넷":3849,"났는데":3850,"바일":3851,"주는거":3852,"▁가지고":3853,"▁접속":3854,"▁같은거":3855,"▁홈런":3856,"▁꽃":3857,"파트":3858,"▁안쓰":3859,"▁그려":3860,"▁개념":3861,"▁어디가":3862,"지않음?":3863,"▁붕이":3864,"우가":3865,"줬으면":3866,"▁내용":3867,"▁정병":3868,"...gif":3869,"▁키보드":3870,"▁손혁":3871,"▁새벽에":3872,"23":3873,"▁액":3874,"야함?":3875,"▁나옴?":3876,"고싶은":3877,"▁탈갤":3878,"▁힙":3879,"나나":3880,"세대":3881,"왔네":3882,"질문":3883,"▁사면":3884,"▁기아":3885,"▁조회":3886,"▁사람은":3887,"......":3888,"▁어디갔":3889,"▁컴백":3890,"▁렌":3891,"▁안타":3892,"▁ᄉᄉᄉᄉᄉ":3893,"▁최소":3894,"▁애미뒤진":3895,"▁이해가":3896,"받는":3897,"세트":3898,"키로":3899,"▁생각해보니":3900,"▁..":3901,"시티":3902,"좋은":3903,"페코":3904,"하하":3905,"▁이래":3906,"▁나라":3907,"▁꾹앰":3908,"▁꾹찜":3909,"보은왔":3910,"남?":3911,"이지?":3912,"▁방어":3913,"▁적당":3914,"▁규":3915,"▁덜":3916,"주셈":3917,"▁수학":3918,"▁좆목":3919,"▁살려":3920,"▁아이유":3921,"▁하루종일":3922,"70":3923,"공지":3924,"도가":3925,"영웅":3926,"움?":3927,"▁전라도":3928,"▁올리":3929,"▁할인":3930,"▁박보":3931,"▁꼴리는":3932,"ᄀᄀᄀᄀ":3933,"▁효과":3934,"ar":3935,"▁품":3936,"입갤":3937,"▁유명":3938,"▁저는":3939,"▁애매":3940,"들이랑":3941,"==":3942,"▁아시발":3943,"▁그대로":3944,"▁요약":3945,"▁구함":3946,"▁커엽":3947,"▁편의점":3948,"▁죄다":3949,"80":3950,"▁퓨":3951,"▁혀":3952,"거든":3953,"미션":3954,"보상":3955,"카스":3956,"▁오버":3957,"▁스위":3958,"▁스펙":3959,"▁자리":3960,"▁와이":3961,"▁남은":3962,"▁월드컵":3963,"▁잘생긴":3964,"▁빼고":3965,"▁롱":3966,"▁빻":3967,"▁개씨발":3968,"▁공주":3969,"▁소설":3970,"▁카메라":3971,"▁사제":3972,"▁뭐라":3973,"▁일찍":3974,"▁귀찮":3975,"▁놓":3976,"여서":3977,"으러":3978,"▁한정":3979,"▁마라":3980,"▁라면":3981,"▁분위기":3982,"▁뇌절":3983,"때는":3984,"신비":3985,"인드":3986,"잘알":3987,"▁2주":3988,"▁마렵":3989,"▁미니":3990,"▁부르":3991,"▁난이도":3992,"반지":3993,"필요":3994,"해줌":3995,"화면":3996,"▁너희":3997,"21":3998,"걸까":3999,"났다":4000,"던가":4001,"▁아줌마":4002,"▁개빡":4003,"▁조언":4004,"▁선물":4005,"▁예정":4006,"▁에어컨":4007,"▁라이프치히":4008,"▁슨":4009,"긴한데":4010,"순위":4011,"터리":4012,"▁저러":4013,"▁은퇴":4014,"▁커피":4015,"▁ᄋᄌᄅ":4016,"▁X":4017,"▁빙":4018,"다는데":4019,"예인":4020,"자인":4021,"▁오른":4022,"▁그립":4023,"▁보닌":4024,"▁서로":4025,"드립니다":4026,"다리":4027,"없냐":4028,"▁미리":4029,"▁스트리머":4030,"러스":4031,"마이":4032,"먹은":4033,"서트":4034,"여도":4035,"이쁘":4036,"지말":4037,"▁도적":4038,"▁불러":4039,"사람?":4040,"▁관리":4041,"겠습니다":4042,"나올":4043,"봐야":4044,"시가":4045,"▁아빠":4046,"▁안들어":4047,"▁가이드":4048,"▁기원":4049,"▁후회":4050,"▁뜸":4051,"봄?":4052,"▁이어":4053,"▁이용":4054,"▁일부":4055,"▁요즘은":4056,"▁8/":4057,"▁블핑":4058,"▁잠깐":4059,"▁월급":4060,"▁놈들":4061,"▁면접":4062,"ve":4063,"안에":4064,"엇는데":4065,"일듯":4066,"줘라":4067,"히려":4068,"▁어울":4069,"▁없지":4070,"▁고양이":4071,"▁버즈":4072,"▁되면":4073,"▁역겨":4074,"100":4075,"▁갱":4076,"▁윈":4077,"년도":4078,"▁이지랄":4079,"▁하냐":4080,"▁그리고":4081,"▁수능":4082,"▁3일":4083,"▁최종":4084,"▁150":4085,"▁VS":4086,"▁냄새":4087,"였으면":4088,"▁이것":4089,"▁저게":4090,"▁제가":4091,"▁인터뷰":4092,"갔는데":4093,"라운":4094,"방에":4095,"방에서":4096,"찬원":4097,"하려고":4098,"▁하냐?":4099,"▁2군":4100,"▁개웃기네":4101,"▁리세계":4102,"▁99":4103,"쳐서":4104,"토미":4105,"▁안가":4106,"▁하니까":4107,"▁시키":4108,"▁대리":4109,"▁유리":4110,"▁인사":4111,"▁연기":4112,"거같다":4113,"이어트":4114,"▁~":4115,"▁쎄":4116,"난거":4117,"바이":4118,"신곡":4119,"야구":4120,"어스":4121,"▁지역":4122,"▁2주년":4123,"▁평생":4124,"▁굿즈":4125,"▁땅":4126,"▁킬":4127,"되는데":4128,"봤다":4129,"없으면":4130,"▁개발":4131,"▁비슈":4132,"▁패턴":4133,"▁망오스":4134,"▁홍보":4135,"▁시로코":4136,"▁뚜":4137,"▁맵":4138,"돌이":4139,"셔츠":4140,"자고":4141,"▁시켜":4142,"▁2기":4143,"▁상태":4144,"▁걸그룹":4145,"▁이상한":4146,"▁왜이렇게":4147,".6":4148,"▁습":4149,"겟네":4150,"하라":4151,"효니":4152,"▁나쁜":4153,"▁오면":4154,"▁다리":4155,"▁시스템":4156,"▁유격":4157,"▁레드":4158,"▁난리":4159,"▁되냐":4160,"▁언제까지":4161,"▁재밌네":4162,"▁체감":4163,"▁희망":4164,"▁노트20":4165,"▁개인적으로":4166,"▁랜덤":4167,"22":4168,"8/":4169,"기고":4170,"▁아래":4171,"▁나한테":4172,"▁오히려":4173,"는거지":4174,"▁기술":4175,"▁모바일":4176,"▁느껴":4177,"▁결정":4178,"▁테스트":4179,"▁팩트)":4180,"▁징징":4181,"st":4182,"받음":4183,"야됨":4184,"▁이리":4185,"?????":4186,"▁27":4187,"▁한거":4188,"▁미드":4189,"▁야갤":4190,"▁맞다":4191,"▁키움":4192,"▁우리가":4193,"▁했다":4194,"▁체력":4195,"▁pc":4196,"▁인터넷":4197,"는법":4198,"니터":4199,"덤디":4200,"받은":4201,"애니":4202,"퓨터":4203,"▁해라":4204,"▁김민":4205,"▁이유는":4206,"▁의상":4207,"ou":4208,"▁햇":4209,"▁현타":4210,"▁윤지":4211,"▁락":4212,"너지":4213,"들고":4214,"커버":4215,"▁아쉬":4216,"▁존잘":4217,"▁아니다":4218,"▁소개":4219,"▁할만":4220,"▁여자들":4221,"▁싶은":4222,"국이":4223,"어나":4224,"ᄃᄃᄃ":4225,"▁받을":4226,"▁뒷광고":4227,"▁핸":4228,"는대":4229,"돼지":4230,"호가":4231,"▁무한":4232,"▁야붕이":4233,"고싶음":4234,"▁살인":4235,"▁니쥬":4236,"▁토탈워":4237,"▁똥퀴":4238,"▁적용":4239,"▁180":4240,"▁노무현":4241,"뉴비":4242,"더만":4243,"잡고":4244,"▁안오":4245,"▁안하고":4246,"▁정우":4247,"▁고인물":4248,"▁에바":4249,"▁미쳤네":4250,"500":4251,"어디":4252,"트라":4253,"▁시리즈":4254,"▁티저":4255,"▁볼때마다":4256,":00":4257,"기만":4258,"비스":4259,"신화":4260,"였음":4261,"진이":4262,"▁시험":4263,"▁개념글":4264,"▁파밍":4265,"▁달라":4266,"▁통피":4267,"▁룸":4268,"▁짐":4269,"▁헌":4270,"데이":4271,"름?":4272,"스킬":4273,"우승":4274,"조사":4275,"하려면":4276,"▁좋았":4277,"▁할거":4278,"▁7)":4279,"▁팔아":4280,"▁용병":4281,"▁최고의":4282,"▁박보검":4283,"가지고":4284,"기전에":4285,"이었는데":4286,"프레":4287,"▁하면서":4288,"▁사귀":4289,"▁강간":4290,"▁모르겠":4291,"▁던전":4292,"▁악세":4293,"▁삐부":4294,"▁평가좀":4295,"▁팡":4296,"따라":4297,"버스":4298,"없어서":4299,"인건":4300,"중계":4301,"한지":4302,"▁아다":4303,"▁개꼴":4304,"▁우파":4305,"▁요네":4306,"▁되게":4307,"▁역전":4308,"▁꼴데":4309,"닉스":4310,"빠는":4311,"수저":4312,"이름":4313,"▁대부분":4314,"▁완료":4315,"▁둘이":4316,"ll":4317,"때도":4318,"로우":4319,"버린":4320,"수잇":4321,"▁더블":4322,"▁배고":4323,"▁몸매":4324,"기준":4325,"긴하네":4326,"비는":4327,"어어":4328,"카노":4329,"▁오늘부터":4330,"▁없이":4331,"▁재료":4332,"▁아이패드":4333,"▁입장":4334,"▁패키지":4335,"▁가능성":4336,"▁사랑해":4337,"act":4338,"▁ᅩᅮ":4339,"겨서":4340,"기업":4341,"장님":4342,"▁시발련":4343,"▁니들이":4344,"▁동네":4345,"▁음식":4346,"▁루시":4347,",,,":4348,"▁밍":4349,"상이":4350,"여?":4351,"▁초기":4352,"▁단체":4353,"▁화장":4354,"▁당첨":4355,"▁뽑기":4356,"▁퀘스트":4357,"구는":4358,"지금":4359,"▁있었는데":4360,"▁한화":4361,"▁비싸":4362,"▁알았":4363,"▁머가":4364,"▁티어":4365,"▁등장":4366,"▁녕":4367,"일에":4368,"졌는데":4369,"쿠폰":4370,"하신":4371,"▁사망":4372,"▁28":4373,"▁만드":4374,"▁원영이":4375,"▁뷰지":4376,"네임":4377,"됐다":4378,"먹어":4379,"아지":4380,"일리":4381,"▁나무":4382,"▁지가":4383,"▁기어":4384,"▁방탄":4385,"▁카운":4386,"▁배경":4387,"▁토목":4388,"▁역겹":4389,"▁싶어":4390,"▁훈련":4391,"다운":4392,"분전":4393,"비가":4394,"사고":4395,"스킨":4396,"쓰고":4397,"켓몬":4398,"트리":4399,"해본":4400,"▁아스":4401,"▁아티":4402,"▁있어?":4403,"▁여캠":4404,"▁맞지":4405,"▁까는":4406,"-2":4407,"그림":4408,"신청":4409,"주실분":4410,"▁이딴":4411,"▁마법":4412,"▁인성":4413,"▁맞냐?":4414,"▁초월":4415,"▁표정":4416,"▁그러고보니":4417,"++":4418,"런스":4419,"마가":4420,"봉준":4421,"수로":4422,"▁있을":4423,"▁정확":4424,"▁메갈":4425,"▁병신들":4426,"▁과거":4427,"▁꿀팁":4428,"려도":4429,"스토리":4430,"인들":4431,"할게":4432,"에서는":4433,"▁만족":4434,"▁커뮤":4435,"▁심각":4436,"▁찍어":4437,"▁온냐들":4438,"▁엔씨":4439,"▁환불":4440,"▁옛날에":4441,"▁내년에":4442,"▁혈귀":4443,"던전":4444,"리는게":4445,"분에":4446,"없음?":4447,"트로":4448,"해봄":4449,"▁한데":4450,"▁배민":4451,"▁새끼들은":4452,"▁나온다":4453,"▁콘서트":4454,"간에":4455,"려는":4456,"추가":4457,"▁어서":4458,"▁보면서":4459,"▁지하":4460,"▁가자":4461,"▁가족":4462,"▁4성":4463,"▁키스":4464,"▁불안":4465,"▁점점":4466,"▁하루에":4467,"▁그런데":4468,"▁꾼":4469,"누구":4470,"때가":4471,"키노":4472,"▁해야지":4473,"▁바다":4474,"▁반지":4475,"▁약독":4476,"▁컴퓨터":4477,"덩이":4478,"수준":4479,"실점":4480,"알못":4481,"우석":4482,"이든":4483,"▁안됨?":4484,"▁2시간":4485,"▁스마":4486,"▁비율":4487,"▁거부":4488,"▁4강":4489,"▁남친":4490,"▁코트":4491,"▁20대":4492,"▁웃음":4493,"▁운지":4494,".1":4495,"▁옥":4496,"구역":4497,"언냐":4498,"▁아가":4499,"▁아라":4500,"▁그게":4501,"▁방출":4502,"▁[강":4503,"▁경찰":4504,"▁티니아":4505,"▁눈치":4506,"▁능력":4507,"싫어":4508,"은듯":4509,"는거냐?":4510,"▁갤길":4511,"▁손흥":4512,"▁괜히":4513,"▁아닌가":4514,"____":4515,"▁앤":4516,"남아":4517,"연합":4518,"포인트":4519,"▁안뜨":4520,"는거야?":4521,"▁있을까":4522,"▁쓰고":4523,"▁입문":4524,"▁달아":4525,"▁끝나고":4526,"▁페이커":4527,"나갈":4528,"많네":4529,"망구":4530,"버그":4531,"생이":4532,"정리":4533,"▁시바":4534,"▁네좆":4535,"놈이":4536,"없고":4537,"지말고":4538,"코드":4539,"했다고":4540,"▁1회":4541,"▁왜저":4542,"▁뭐노":4543,"▁좆밥":4544,"▁거기":4545,"▁국가":4546,"▁티비":4547,"▁재밌는":4548,"나오네":4549,"▁맛있":4550,"해주세요":4551,"▁노트북":4552,"▁칭찬":4553,"▁싱글글":4554,"▁!":4555,"▁틱":4556,"스티":4557,"이제":4558,"통당":4559,"▁대신":4560,"▁인형":4561,"▁신작":4562,"▁국밥":4563,"▁봉퀴":4564,"투표인증":4565,"▁미디신비":4566,"그러":4567,"나미":4568,"렉터":4569,"마토":4570,"연차":4571,"▁뭐라고":4572,"▁전붕이":4573,"▁부족":4574,"▁머임?":4575,"▁솔로":4576,"▁싸움":4577,"▁갓기":4578,"▁밀어":4579,"▁으면":4580,"년은":4581,"자너":4582,"▁가성":4583,"▁고백":4584,"▁제로":4585,"▁공무원":4586,"▁포카":4587,"▁했으면":4588,"▁풀어":4589,"▁순간":4590,"공개":4591,"리타":4592,"마렵":4593,"시고":4594,"아고":4595,"언니":4596,"제한":4597,"져도":4598,"▁자고":4599,"▁자체가":4600,"▁해결":4601,"▁상자":4602,"▁직관":4603,"▁메이저":4604,"▁200813":4605,"▁조회수":4606,"-1":4607,"▁J":4608,"그램":4609,"대회":4610,"리드":4611,"뭐냐":4612,"바타":4613,"운동":4614,"충이":4615,"▁사야":4616,"▁가입":4617,"▁수도":4618,"▁아니지":4619,"▁생활":4620,"▁상상":4621,"▁최강":4622,"는건가":4623,"▁잡아":4624,"▁판매":4625,"▁이름이":4626,"▁다이아":4627,"200":4628,"cm":4629,"it":4630,"나게":4631,"보스":4632,"줌들":4633,"패스":4634,"해지":4635,"▁1억":4636,"▁가야":4637,"▁신레":4638,"▁전기":4639,"▁와서":4640,"▁세라":4641,"▁호모":4642,"▁국민":4643,"▁히로":4644,"시는분":4645,"ck":4646,"ᅥᅥ":4647,"▁델":4648,"관련":4649,"냥이":4650,"어케":4651,"하다고":4652,"▁어린":4653,"▁하스":4654,"▁그린":4655,"▁사이트":4656,"▁ᄉᄉᄉ":4657,"▁원영":4658,"....jpg":4659,"시간에":4660,"▁빨아":4661,"!!!!!":4662,"▁클로":4663,"▁직캠":4664,"습니다.":4665,"합니다.":4666,"ing":4667,"▁,":4668,"무리":4669,"배우":4670,"주가":4671,"화가":4672,"▁여성":4673,"▁3페":4674,"▁해설":4675,"▁망가":4676,"▁토끼":4677,"▁결승":4678,"▁특)":4679,"▁번호":4680,"▁졸라":4681,"추천좀":4682,"▁y":4683,"고기":4684,"돌아":4685,"미지":4686,"ᄏᄏᄏᄏᄏᄏᄏᄏᄏᄏᄏᄏᄏ":4687,"▁생각하는":4688,"하는거임?":4689,"거같아":4690,"수있는":4691,"▁옵션":4692,".8":4693,"33":4694,"▁싼":4695,"버리":4696,"생활":4697,"스포":4698,"어는":4699,"찬호":4700,"▁이겼":4701,"▁아주":4702,"▁스팀":4703,"▁3년":4704,"▁자체":4705,"▁고정":4706,"▁코디":4707,"▁영업":4708,"▁메모":4709,"▁드래":4710,"▁악의":4711,"나옴?":4712,"럼?":4713,"레벨":4714,"미는":4715,"숭이":4716,"앰들":4717,"어울":4718,"▁아재":4719,"▁어떨":4720,"▁기록":4721,"▁부러":4722,"▁리얼":4723,"▁동희":4724,"▁필독":4725,"▁목록":4726,"▁나왔으면":4727,"▁뷔":4728,"근본":4729,"먹었":4730,"모르":4731,"애가":4732,"좋다":4733,"프리":4734,"할까?":4735,"▁많음":4736,"▁ᄏᄏᄏᄏᄏᄏᄏᄏᄏᄏᄏᄏᄏᄏ":4737,"▁박진":4738,"▁받은":4739,"▁안되냐":4740,">>>>":4741,".JPG":4742,"구마":4743,"▁이뻐":4744,"▁이승":4745,"▁나름":4746,"▁다크":4747,"▁지옥":4748,"▁유로":4749,"▁무과금":4750,"▁자신":4751,"▁고수":4752,"▁불편":4753,"▁받고":4754,"▁탈출":4755,"▁골라":4756,"▁쓸만":4757,"▁개꿀잼":4758,"▁on":4759,"ᅳ타":4760,"▁것도":4761,"피아":4762,"해준다":4763,"▁이팀":4764,"▁안경":4765,"▁진화":4766,"새끼는":4767,"▁3명":4768,"▁모니터":4769,"▁공익":4770,"▁만원":4771,"▁머야":4772,"▁티켓":4773,"▁취소":4774,"▁샀는데":4775,"▁유니폼":4776,"가도":4777,"갔다":4778,"사면":4779,"성기":4780,"전은":4781,"▁다이어트":4782,"▁2번":4783,"▁영지":4784,"▁플레":4785,"▁텔":4786,"속도":4787,"▁오지게":4788,"▁개웃":4789,"▁대박":4790,"▁받는":4791,"▁알려줘":4792,"▁135":4793,"CK":4794,"▁짓":4795,"동네":4796,"로드":4797,"새낀":4798,"▁여긴":4799,"▁마그":4800,"▁피해":4801,"▁살까":4802,"▁플옵":4803,".4":4804,"달라":4805,"신은":4806,"전거":4807,"포트":4808,"혁준":4809,"▁오빠":4810,"▁26":4811,"▁해보":4812,"▁해본":4813,"▁ᄉᄀ":4814,"▁V4":4815,"이벤트":4816,"댕이":4817,"▁사도":4818,"▁수페코":4819,"▁고추":4820,"▁전장":4821,"▁주는":4822,"▁거품":4823,"▁머냐":4824,"붕이들아":4825,"▁브금":4826,"▁달려":4827,"▁새끼들이":4828,"▁힘든":4829,"▁휴가":4830,"아아아아":4831,"▁손흥민":4832,"-3":4833,"▁펜":4834,"레드":4835,"버거":4836,"보임":4837,"▁사건":4838,"▁지능":4839,"▁영입":4840,"▁할때":4841,"▁니가":4842,"▁바르샤":4843,"99":4844,"le":4845,"▁Y":4846,"▁u":4847,"▁란":4848,"노트":4849,"동산":4850,"둥이":4851,"전이":4852,"▁나와서":4853,"▁스케":4854,"▁여론":4855,"▁[이":4856,"▁담주":4857,"ᄋᄋᄋᄋ":4858,"▁젠지":4859,"▁소환사":4860,"시까지":4861,"▁이지":4862,"▁1일":4863,"▁모집":4864,"▁분명":4865,"▁뒤에":4866,"▁교환":4867,"▁문제가":4868,"▁흑우":4869,"▁약독대":4870,"▁된거":4871,"먹으면":4872,"플레이":4873,"확률":4874,"▁어깨":4875,"▁좋겠음":4876,"▁수상":4877,"▁구글":4878,"▁로그":4879,"▁본상":4880,"▁포수":4881,"▁직접":4882,"▁귀여워":4883,"eal":4884,"▁랩":4885,"▁즈":4886,"가는데":4887,"당한":4888,"박스":4889,"에요":4890,"우고":4891,"읍니다":4892,"▁이성":4893,"▁어쩔":4894,"▁오류":4895,"▁유지":4896,"▁부상":4897,"▁원딜":4898,"▁게시":4899,"▁배터리":4900,"▁사람들이":4901,"▁니들은":4902,"▁언제부터":4903,"▁끝나":4904,"▁숙제":4905,"되고":4906,"라우":4907,"민철":4908,"연이":4909,"인생":4910,"▁뭐야?":4911,"▁미통당":4912,"▁문자":4913,"▁피시":4914,"▁가능함?":4915,"▁다시보기":4916,"▁목표":4917,"▁올라오":4918,"하지마라":4919,"▁윙":4920,"▁핀":4921,"겠긔":4922,"대에":4923,"라비":4924,"별로":4925,"복절":4926,"좋네":4927,"코스":4928,"파티":4929,"▁뭐고":4930,"▁마갤":4931,"▁마스터":4932,"▁주공":4933,"▁누적":4934,"▁국룰":4935,"▁여러분":4936,"나왔":4937,"데스":4938,"많은":4939,"맞추":4940,"예정":4941,"임???":4942,"▁안하는":4943,"▁시원":4944,"▁왜안":4945,"▁개소리":4946,"▁뭐지":4947,"▁카던":4948,"▁돌리":4949,"▁치즈":4950,"▁누구냐":4951,"▁아무것도":4952,"▁함께":4953,"▁넣어":4954,"ᅡᅡᅡᅡ":4955,"얼굴":4956,"에에":4957,"▁어지":4958,"▁29":4959,"▁전쟁":4960,"▁공유":4961,"▁만갤":4962,"▁올리는":4963,"▁6성":4964,"갤러들":4965,"59":4966,"▁르":4967,"니?":4968,"래?":4969,"올려":4970,"워즈":4971,"프레스":4972,"▁1군":4973,"▁스토":4974,"▁비밀":4975,"▁김연":4976,"▁ᄌᄅ":4977,"▁포인트":4978,"▁10월":4979,"▁폭원":4980,"▁한번도":4981,"▁사서":4982,"▁소름":4983,"▁조작":4984,"▁중복":4985,"▁현대":4986,"▁디스":4987,"▁몇년":4988,"▁두번":4989,"▁싫어하는":4990,"▁코스피":4991,"▁휘":4992,"가자":4993,"노ᄏᄏ":4994,"디션":4995,"요청":4996,"▁어찌":4997,"▁메타":4998,"▁분석":4999,"▁과금":5000,"▁취향":5001,"▁갤러리는":5002,"▁틱톡":5003,"▁랑":5004,"거래":5005,"긴해":5006,"릴까":5007,"었던":5008,"▁뭐하는":5009,"▁3번":5010,"▁좆병신":5011,"▁잘하네":5012,"▁영혼":5013,"▁되네":5014,"▁드랍":5015,"▁계획":5016,"▁빠르":5017,"▁봐야":5018,"▁팬덤":5019,"▁각인":5020,"▁번트":5021,"▁멍청":5022,"at":5023,"균열":5024,"다면":5025,"때문":5026,"영화":5027,"제발":5028,"지지":5029,"▁이럴":5030,"▁시계":5031,"▁스갤":5032,"▁35":5033,"▁파워":5034,"▁라핌":5035,"▁키울":5036,"▁10년":5037,"▁따효니":5038,"▁뉴비인데":5039,"ᅳᅳᅳᅳᅳᅳ":5040,"▁남자가":5041,"입니다.":5042,"▁뮤비":5043,"->":5044,"▁톤":5045,"나도":5046,"니저":5047,"도는":5048,"뒤에":5049,"만이":5050,"위키":5051,"▁이정":5052,"▁스테":5053,"▁맞는데":5054,"▁먹으면":5055,"▁디렉터":5056,"▁10분":5057,"▁음악":5058,"▁^^":5059,"기장":5060,"김?":5061,"바지":5062,"펀치":5063,"한대":5064,"▁이분":5065,"▁있어야":5066,"▁한테":5067,"▁대놓고":5068,"▁정가":5069,"▁남캐":5070,"▁연예인":5071,"▁피곤":5072,"▁역사":5073,"▁똥꼬":5074,"▁복각":5075,"▁온라인":5076,"▁그런거":5077,"▁궁금한게":5078,"식으로":5079,"안타":5080,"정신":5081,"주냐":5082,"해봐":5083,"▁나락":5084,"▁나스":5085,"▁사르":5086,"▁사전":5087,"▁여행":5088,"▁기간":5089,"▁미션":5090,"▁모아":5091,"▁주면":5092,"▁생존":5093,"▁세팅":5094,"▁ᄋᄉ":5095,"▁크로":5096,"해야함":5097,"▁죽어":5098,"▁간만에":5099,"수있음?":5100,"▁새로운":5101,"▁껴":5102,"순이":5103,"십시오":5104,"오리":5105,"줘야":5106,"▁아니야":5107,"▁전체":5108,"▁동생":5109,"▁어디까지":5110,"사람이":5111,"▁국어":5112,"▁처녀":5113,"▁태어":5114,"▁친구가":5115,"▁엠카":5116,"▁가성비":5117,"▁츄":5118,"간거":5119,"만들어":5120,"스토":5121,"시네":5122,"완료":5123,"직업":5124,"▁이따":5125,"▁나쁘":5126,"▁나의":5127,"▁있어서":5128,"▁한글":5129,"▁수저":5130,"▁매칭":5131,"하냐고":5132,"▁당장":5133,"ᄃᄃᄃᄃᄃᄃᄃᄃ":5134,"▁알려준다":5135,"▁꺼져":5136,"▁괴롭":5137,"▁지만이형":5138,"NC":5139,"▁ᅮ":5140,"건창":5141,"수정":5142,"쓰레기":5143,"았으면":5144,"장비":5145,"지는데":5146,"카페":5147,"▁정글":5148,"▁연락":5149,"▁피부":5150,"▁여자는":5151,"아니라":5152,"▁스타일":5153,"▁카카오":5154,"▁냐":5155,"감이":5156,"그냥":5157,"매도":5158,"물이":5159,"사이":5160,"준비":5161,"홍구":5162,"▁보추":5163,"▁정공":5164,"▁마일":5165,"▁갤이":5166,"▁언냐":5167,"▁ᄏᄏᄏᄏᄏᄏᄏᄏᄏᄏᄏᄏᄏᄏᄏ":5168,"▁뉴스":5169,"▁크게":5170,"▁끝났":5171,"▁간단":5172,"이유가":5173,"▁저번에":5174,"▁멸망":5175,"▁.jpg":5176,"느라":5177,"대기":5178,"대호":5179,"시기":5180,"원은":5181,"▁1인":5182,"▁왜캐":5183,"▁없애":5184,"▁3성":5185,"▁전문":5186,"▁많은데":5187,"라이즈":5188,"▁뭘로":5189,"▁좌파":5190,"▁억울":5191,"▁멘탈":5192,"▁ᄍ":5193,"갔네":5194,"단계":5195,"되서":5196,"박이":5197,"버지":5198,"석이":5199,"▁한녀":5200,"▁기념":5201,"▁진짜로":5202,"▁유행":5203,"▁39":5204,"▁올린":5205,"▁(설":5206,"▁클리어":5207,"▁출신":5208,"▁팬티":5209,"▁환상":5210,"▁ᄒᄐᄎ":5211,"보이는데":5212,"▁못생긴":5213,"▁쉽게":5214,"▁ᄑᄐᄎ":5215,"▁어떠냐":5216,"▁겁나":5217,"▁일부러":5218,"가락":5219,"리냐?":5220,"보여":5221,"어떰":5222,"엘롯":5223,"온거":5224,"히트":5225,"▁이춘향":5226,"▁36":5227,"▁해명":5228,"▁존나웃":5229,"▁파는":5230,"▁달린다":5231,"▁걸러":5232,"▁늦게":5233,"55":5234,"▁팟":5235,"됨??":5236,"버풀":5237,"알바":5238,"조선":5239,"지노":5240,"지로":5241,"▁이적":5242,"▁가만":5243,"▁한판":5244,"▁주고":5245,"▁김봉준":5246,"▁돌파":5247,"ᅲᅲᅲ":5248,"▁확진":5249,"▁웃김":5250,"지않았":5251,"▁순수":5252,"▁광복절":5253,"▁채널":5254,"▁왜이러":5255,"▁안녕하세요":5256,"▁당연히":5257,"▁닌":5258,"가고":5259,"같긔":5260,"고가":5261,"당함":5262,"동이":5263,"민국":5264,"봤자":5265,"섹스":5266,"지션":5267,"▁보고싶":5268,"▁대해":5269,"▁조심":5270,"▁연속":5271,"▁피겨":5272,"▁장애":5273,"▁나오는거":5274,"▁병신들아":5275,"-0":5276,"재미":5277,"▁정규":5278,"▁저장":5279,"▁좆도":5280,"▁노가다":5281,"▁장원":5282,"▁계약":5283,"▁티셔츠":5284,"▁티아고":5285,"▁승격":5286,"▁며":5287,"▁몽":5288,"▁콤":5289,"만든":5290,"민호":5291,"주지":5292,"팔이":5293,"홍보":5294,"▁없고":5295,"▁갤탭":5296,"▁45":5297,"▁메시":5298,"▁10만":5299,"▁몇번":5300,"▁빨간":5301,"나오는":5302,"▁욕먹":5303,"▁검은":5304,"▁빡세":5305,"▁<<":5306,"▁닉네임":5307,"▁활동":5308,"vp":5309,"겠냐":5310,"마디":5311,"메카노":5312,"부탁":5313,"자꾸":5314,"▁이틀":5315,"▁기회":5316,"▁무사":5317,"▁미치":5318,"▁공짜":5319,"▁400":5320,"▁실망":5321,"▁브앱":5322,"▁때려":5323,"▁학치":5324,"▁좆같이":5325,"▁늘어":5326,":00]":5327,"UM":5328,"▁뱅":5329,"내는":5330,"도리":5331,"로도":5332,"민규":5333,"보면서":5334,"상황":5335,"알려":5336,"일때":5337,"할사람":5338,"▁아지":5339,"▁일정":5340,"▁저도":5341,"▁4개":5342,"▁경쟁":5343,"▁할까":5344,"▁강남":5345,"▁디자인":5346,"▁몇명":5347,"▁글섭":5348,"▁페그오":5349,"▁물냐":5350,"이노스":5351,"▁실화냐?":5352,"날두":5353,"니티":5354,"대가리":5355,"리게":5356,"헤어":5357,"▁이시":5358,"▁120":5359,"▁정식":5360,"▁일섭":5361,"▁주변":5362,"▁솔플":5363,"▁병원":5364,"▁계산":5365,"▁후반":5366,"▁반대":5367,"▁꼴림":5368,"▁집에서":5369,"고있는":5370,"▁딜러":5371,"▁꾸니":5372,"▁#":5373,"▁떼":5374,"같노":5375,"그런":5376,"시브":5377,"있노":5378,"호중":5379,"후에":5380,"▁아나":5381,"▁근장":5382,"▁32":5383,"▁아이피":5384,"▁ᄀᄂ":5385,"▁담당":5386,"▁워싱":5387,"▁기안84":5388,"▁경험치":5389,"고수":5390,"방축하":5391,"았어":5392,"했냐":5393,"▁가라":5394,"▁유출":5395,"▁자지":5396,"▁버티":5397,"▁되는데":5398,"▁세트":5399,"▁발견":5400,"▁틀퀴":5401,"▁케이스":5402,"▁나왔는데":5403,"▁먼가":5404,"▁증거":5405,"년생":5406,"보셈":5407,"제가":5408,"키우":5409,"할꺼":5410,"호기":5411,"▁좋지":5412,"▁없노":5413,"▁부분":5414,"▁재능":5415,"▁피자":5416,"인가요?":5417,"▁철염":5418,"▁히어로":5419,"▁음원":5420,"▁찍먹":5421,"▁디시콘":5422,"▁초기화":5423,"▁세라핌":5424,"▁ᅳ":5425,"네ᄏᄏ":5426,"브이":5427,"텔라":5428,"퍼즈":5429,"하겠네":5430,"▁아냐?":5431,"▁하던":5432,"▁하트":5433,"▁서브":5434,"▁9강":5435,"▁단톡":5436,"▁안되네":5437,"▁사실상":5438,"▁인방갤":5439,"기들":5440,"드리":5441,"리사":5442,"승리":5443,"재밋":5444,"지컬":5445,"▁오는":5446,"▁33":5447,"▁구단":5448,"사람들":5449,"한다는":5450,"??????":5451,"▁클린":5452,"▁민심":5453,"고있는데":5454,"▁미친놈":5455,"▁프레임":5456,"1.":5457,"en":5458,"▁냥":5459,"▁츠":5460,"거냐?":5461,"때매":5462,"른다":5463,"와라":5464,"줄사람":5465,"▁2만":5466,"▁비싼":5467,"▁부동산":5468,"▁성장":5469,"▁생각함":5470,"▁입고":5471,"하지만":5472,"▁단어":5473,"이다.":5474,"▁창녀":5475,"▁임신":5476,"레이크":5477,"▁한번만":5478,"▁몰라도":5479,"▁아는사람":5480,"▁어때?":5481,"▁제주도":5482,"▁램":5483,"▁춘":5484,"두고":5485,"드폰":5486,"상태":5487,"없냐?":5488,"카펫":5489,"▁이것도":5490,"▁아바타":5491,"▁하게":5492,"▁뭐뭐":5493,"▁고마":5494,"▁신민":5495,"▁추억":5496,"▁살짝":5497,"▁메리":5498,"▁포켓몬":5499,"▁누구임?":5500,"▁금요일":5501,"▁새끼가":5502,"▁편집":5503,"▁지하철":5504,"가는거":5505,"년에":5506,"등급":5507,"리웹":5508,"만해도":5509,"바크":5510,"보소":5511,"시녀":5512,"아프":5513,"없지":5514,"으려고":5515,"이니까":5516,"장면":5517,"하려":5518,"할수":5519,"호감":5520,"▁스파":5521,"▁공혁준":5522,"▁조건":5523,"▁구독":5524,"▁맞아":5525,"▁글삭":5526,"▁커플":5527,"▁위해":5528,"▁완벽":5529,"▁학원":5530,"▁산다":5531,"▁투표인증":5532,"▁멀티":5533,"▁쩔":5534,"가나":5535,"던스":5536,"시면":5537,"안됨":5538,"점은":5539,"▁1티어":5540,"▁하늘":5541,"▁하위":5542,"▁여동생":5543,"▁자전거":5544,"▁저기":5545,"▁못받":5546,"▁도란":5547,"▁트리":5548,"▁맞냐":5549,"▁연봉":5550,"▁박제":5551,"▁이번엔":5552,"▁망상":5553,"▁언제쯤":5554,"▁은하":5555,"▁작은":5556,"▁떡락":5557,"▁롤드컵":5558,"▁흑인":5559,"▁있음??":5560,"▁극혐":5561,"▁옷장":5562,"▁넥슨":5563,"▁팅":5564,"가요?":5565,"수리":5566,"았노":5567,"이로":5568,"정한":5569,"지냐":5570,"▁안된다":5571,"▁사퍼":5572,"▁2명":5573,"▁못보":5574,"▁주전":5575,"▁올리면":5576,"▁도착":5577,"▁레알":5578,"▁선착":5579,"▁데이터":5580,"▁클럽":5581,"▁빠른":5582,"▁탈모":5583,"새기들":5584,"▁님들아":5585,"▁챙겨":5586,"ᄅᄅ":5587,"개비":5588,"▁이태":5589,"▁아깝":5590,"▁대사":5591,"▁자유":5592,"▁모습":5593,"▁생기":5594,"▁도안":5595,"니다.":5596,"▁피통":5597,"▁되지":5598,"▁장면":5599,"▁솔까":5600,"▁현질":5601,"▁캐시":5602,"▁철권":5603,"▁힘들어":5604,"▁온다":5605,"▁등록":5606,"▁븝퍼":5607,"▁이후로":5608,"▁넌":5609,"금지":5610,"봐서":5611,"없는거":5612,"었노":5613,"오르":5614,"조합":5615,"지나":5616,"타가":5617,"형이":5618,"▁2.5":5619,"▁3대":5620,"▁5천":5621,"▁말복":5622,"▁먹은":5623,"▁실물":5624,"▁같네":5625,"▁씹슴":5626,"▁브리":5627,"▁관계":5628,"▁평소":5629,"▁이게임":5630,"▁독일":5631,"▁충분":5632,"▁아닐까":5633,"▁카운터":5634,"관리":5635,"구함":5636,"내가":5637,"년들이":5638,"로가":5639,"마는":5640,"몽어스":5641,"버프":5642,"주홍":5643,"학생":5644,"▁1개":5645,"▁하지마":5646,"▁보민이":5647,"▁지나":5648,"▁개미":5649,"▁자연":5650,"▁소방":5651,"▁우주":5652,"▁ᄅᄋᄏᄏ":5653,"▁거임?":5654,"▁지금은":5655,"▁상승":5656,"▁손해":5657,"▁화면":5658,"▁작업":5659,"▁위험":5660,"▁끝내":5661,"▁속도":5662,"▁올해의":5663,"▁떳다":5664,"▁[강다니엘":5665,".9":5666,"kg":5667,"번호":5668,"으라고":5669,"이크":5670,"자랑":5671,"주행":5672,"했지":5673,"▁아파트":5674,"▁오재":5675,"▁그랬":5676,"▁있긴":5677,"▁기상":5678,"▁서양":5679,"▁생각나네":5680,"▁매력":5681,"이야기":5682,"▁커버":5683,"▁가능한":5684,"▁금민철":5685,"▁철구가":5686,"▁높은":5687,"▁밸런스":5688,"▁악의꽃":5689,"다이노스":5690,"생겼":5691,"싸움":5692,"였다":5693,"였음?":5694,"정보":5695,"치는거":5696,"파는":5697,"▁아씨발":5698,"▁지구":5699,"▁2루":5700,"▁스티":5701,"▁기계":5702,"인데?":5703,"▁소식":5704,"▁생각하면":5705,"▁경우":5706,"▁배송":5707,"▁6시":5708,"▁여기가":5709,"▁들어오":5710,"데?":5711,"드백":5712,"발표":5713,"자로":5714,"중이":5715,"▁아냐":5716,"▁개쩌":5717,"▁마무리":5718,"▁모모":5719,"▁야동":5720,"이라서":5721,"▁아이디":5722,"▁88":5723,"▁때문":5724,"▁재밌게":5725,"▁착한":5726,"▁린지":5727,"▁웨이브":5728,"24":5729,"▁킨":5730,"네?":5731,"중인":5732,"▁좋냐":5733,"▁무적":5734,"▁자짤":5735,"▁존나게":5736,"▁소속":5737,"▁라디오":5738,"▁예능":5739,"▁크리스":5740,"하냐??":5741,"▁죽여":5742,"▁백수":5743,"▁겨울":5744,"▁여고생":5745,"real":5746,"▁으로":5747,"가가":5748,"성공":5749,"요??":5750,"쥬얼":5751,"▁이쯤":5752,"▁나대":5753,"▁마나":5754,"▁노력":5755,"▁만드는":5756,"▁언더":5757,"한테도":5758,"▁돈이":5759,"▁금수저":5760,"▁욕하는":5761,"000원":5762,"▁사이퍼즈":5763,"▁엉덩이":5764,"바라":5765,"부가":5766,"어야지":5767,"운게":5768,"크리":5769,"▁이긴":5770,"▁고기":5771,"▁해체":5772,"▁소울":5773,"▁올랐":5774,"▁5만원":5775,"▁트루":5776,"보다는":5777,"▁초딩":5778,"▁탈리":5779,"▁컴디":5780,"▁그런가":5781,"▁최근에":5782,"구역]":5783,"가격":5784,"갤주":5785,"계약":5786,"관계":5787,"다시":5788,"려라":5789,"바꾸":5790,"쎄리":5791,"중임":5792,"컨텐츠":5793,"▁나서":5794,"▁1분":5795,"▁안함":5796,"▁가을":5797,"▁대표":5798,"▁마리":5799,"▁야한":5800,"▁상남자":5801,"▁문의":5802,"▁문투":5803,"▁할게":5804,"▁투력":5805,"▁듣고":5806,"가슴":5807,"걸이":5808,"능력":5809,"라나":5810,"예약":5811,"일은":5812,"있지":5813,"정환":5814,"진각":5815,"▁1도":5816,"▁안해":5817,"▁가치":5818,"▁개잘":5819,"▁3위":5820,"▁전성기":5821,"▁공포":5822,"▁파트":5823,"▁맞는거":5824,"▁7시":5825,"▁우리집":5826,"▁플스":5827,"▁잠수":5828,"▁변경":5829,"▁낫지":5830,"▁비슷한":5831,"▁여고딩":5832,"▁승격을":5833,"▁깐":5834,"스테":5835,"연속":5836,"인간":5837,"좋음":5838,"하지?":5839,"▁어플":5840,"▁한섭":5841,"▁기능":5842,"▁정냐":5843,"▁못함":5844,"▁생각나":5845,"▁에이스":5846,"▁경녀":5847,"▁같긔":5848,"▁나오냐":5849,"▁음방":5850,"▁출연":5851,"▁모르겠음":5852,"▁임대":5853,"▁답답":5854,"▁펫":5855,"▁혁":5856,"년대":5857,"상은":5858,"시장":5859,"키는":5860,"▁아싸":5861,"▁안맞":5862,"▁가지":5863,"▁대전":5864,"▁자기가":5865,"▁모으":5866,"▁얘는":5867,"▁완성":5868,"▁참고":5869,"eat":5870,"▁족구":5871,"35":5872,"ᅵᅵ":5873,"뜨면":5874,"바람":5875,"빨리":5876,"사건":5877,"저스":5878,"튜버":5879,"파서":5880,"▁안드":5881,"▁여갤러":5882,"▁수익":5883,"▁3시간":5884,"▁리버풀":5885,"▁파이":5886,"▁원본":5887,"▁ᄋᄃ":5888,"▁매크로":5889,"▁결제":5890,"▁호구":5891,"▁승부":5892,"▁써도":5893,"▁러시아":5894,"▁궁금한거":5895,"▁빌드":5896,"▁아침에":5897,"▁넷플":5898,"▁럽":5899,"려야":5900,"만봐도":5901,"신분":5902,"찐따":5903,"퀴즈":5904,"팩트":5905,"후기":5906,"▁스페":5907,"▁모델":5908,"▁갤플":5909,"▁공감":5910,"▁조아":5911,"▁4번":5912,"▁버닝":5913,"▁최악":5914,"▁패스":5915,"▁질문점":5916,"▁등판":5917,"▁작년에":5918,"▁샤워":5919,"▁캡쳐":5920,"48":5921,"ᄀᄏ":5922,"네...":5923,"선이":5924,"웠는데":5925,"지에":5926,"효과":5927,"▁나를":5928,"▁시그":5929,"▁여신":5930,"▁유럽":5931,"▁거리":5932,"▁요청":5933,"▁많냐":5934,"한거임?":5935,"▁토요일":5936,"▁평타":5937,"거같애":5938,"▁했음":5939,"▁터질":5940,"▁궁금한":5941,"할거면":5942,"▁정우람":5943,"op":5944,"▁널":5945,"▁에서":5946,"▁씀?":5947,"때부터":5948,"말이":5949,"벌레":5950,"상자":5951,"앗는데":5952,"얼마":5953,"타고":5954,"▁이걸로":5955,"▁내야":5956,"▁바꿀":5957,"▁많아서":5958,"▁카이":5959,"▁프라":5960,"▁예고":5961,"▁예약":5962,"▁로빈":5963,"▁타)":5964,"▁받으면":5965,"▁재밌다":5966,"▁재밌어":5967,"▁재밌음":5968,"▁게임이":5969,"아니면":5970,"▁월드":5971,"▁2000":5972,"UMD":5973,"ga":5974,"리스트":5975,"사냥":5976,"와이스":5977,"즈갤]":5978,"했냐?":5979,"▁이홍구":5980,"▁오타":5981,"▁하다가":5982,"▁그저":5983,"▁보석":5984,"▁2위":5985,"▁고딩":5986,"▁현금":5987,"▁네네":5988,"▁테러":5989,"▁나온거":5990,"▁큰일":5991,"줌마들":5992,"▁비슈바크":5993,"▁학치커":5994,"90":5995,":1":5996,"▁뻔":5997,"다음":5998,"반떼":5999,"히는":6000,"▁아저씨":6001,"▁스찌":6002,"▁고구마":6003,"▁못잡":6004,"▁라이트":6005,"▁말아":6006,"▁연결":6007,"▁화력":6008,"▁12시":6009,"▁벌레":6010,"▁합성":6011,"▁둘중":6012,"▁삐앰":6013,"▁스트레스":6014,"▁이쁘다":6015,"▁희재":6016,"▁생각해보니까":6017,"▁옆에":6018,"▁이재명":6019,"▁부럽다":6020,"것같은데":6021,"기를":6022,"사도":6023,"연갤":6024,"카가":6025,"▁1명":6026,"▁보다가":6027,"▁좋겠어":6028,"하는애들":6029,"▁바보":6030,"▁부정":6031,"▁영향":6032,"▁로하":6033,"▁불법":6034,"▁토르":6035,"▁작품":6036,"▁죽이":6037,"▁극장":6038,"▁이러면":6039,"▁죠":6040,"▁향":6041,"김치":6042,"너스":6043,"선생":6044,"아리":6045,"왔어":6046,"이안":6047,"인척":6048,"테스트":6049,"해짐":6050,"▁아웃":6051,"▁다녀":6052,"▁보정":6053,"▁있나?":6054,"▁한마디":6055,"▁좆두":6056,"▁신발":6057,"▁5년":6058,"▁재앙":6059,"▁[NC":6060,"▁구경":6061,"▁차이가":6062,"▁동물":6063,"▁토벌":6064,"▁끝까지":6065,"▁민트":6066,"▁갤주님":6067,"▁꾸준":6068,"▁띠니":6069,"▁스위치":6070,"zz":6071,"▁뿐":6072,"도르":6073,"리다":6074,"소나":6075,"쓰냐":6076,"준일":6077,"찍고":6078,"채널":6079,"티콘":6080,"페토":6081,"▁여초":6082,"▁유독":6083,"▁주술사":6084,"▁요리":6085,"▁말하는":6086,"▁실제로":6087,"▁치면":6088,"▁투자":6089,"▁싸이":6090,"▁뭘까":6091,"이었음":6092,"▁겨우":6093,"▁자러감":6094,"▁며칠":6095,"fact":6096,"년들은":6097,"사라":6098,"점검":6099,"▁오나":6100,"▁대결":6101,"▁무엇":6102,"하는법":6103,"▁인천":6104,"▁야이":6105,"▁에반":6106,"▁박지":6107,"▁이번달":6108,"▁현역":6109,"▁초록":6110,"▁우리팀":6111,"▁화질":6112,"▁새끼는":6113,"▁좆같다":6114,"▁퇴물":6115,"▁러셀":6116,"▁벤치":6117,"될까":6118,"라한":6119,"소드":6120,"수꾼":6121,"시대":6122,"없나":6123,"페이":6124,"핑크":6125,"해준":6126,"▁시세":6127,"▁가짜":6128,"▁기타":6129,"▁유투":6130,"▁인데":6131,"▁잘자":6132,"▁모험":6133,"▁같음?":6134,"▁최애":6135,"▁않는":6136,"▁치고":6137,"▁크트":6138,"▁병신같은":6139,"▁달달":6140,"▁탈주":6141,"▁참여":6142,"▁독서":6143,"▁센세":6144,"라비던스":6145,"▁&":6146,"▁깝":6147,"무라":6148,"버렸":6149,"뽑기":6150,"엄마":6151,"없찐":6152,"였노":6153,"축구":6154,"키스":6155,"키움":6156,"▁오후":6157,"▁그리스":6158,"▁사는게":6159,"▁좋냐?":6160,"▁3천":6161,"▁조각":6162,"▁조정":6163,"▁재넌":6164,"▁ᄉᄑ":6165,"▁따먹":6166,"▁끝나면":6167,"이지만":6168,"▁110":6169,"▁속성":6170,"▁밥먹":6171,"▁센터":6172,"▁몬스터":6173,"▁칸나":6174,"▁조언좀":6175,"▁아티스트":6176,"OP":6177,"거라":6178,"견들":6179,"기원":6180,"듯이":6181,"보]":6182,"사이트":6183,"으으":6184,"재료":6185,"졌어":6186,"칠플":6187,"한적":6188,"▁아탈":6189,"▁1던":6190,"▁보이는":6191,"▁가수":6192,"▁2부":6193,"▁2천":6194,"▁뭐하냐":6195,"▁좆이":6196,"▁주제":6197,"▁공트":6198,"▁부반":6199,"▁상점":6200,"▁문파":6201,"▁원정":6202,"▁원피스":6203,"▁김종":6204,"▁실버":6205,"▁현직":6206,"▁두명":6207,"▁뒤지":6208,"▁꾹삐":6209,"▁혐오":6210,"▁헬스장":6211,"45":6212,"▁래":6213,"가야":6214,"라니":6215,"빈데":6216,"슬라":6217,"안함":6218,"야??":6219,"었냐":6220,"있어?":6221,"▁안전":6222,"▁안해도":6223,"▁하노":6224,"▁하마":6225,"▁마대":6226,"▁일진":6227,"▁저걸":6228,"▁알림":6229,"▁5개":6230,"까지는":6231,"▁같지":6232,"▁받았":6233,"▁망한":6234,"▁초동":6235,"▁웃겨":6236,"▁집착":6237,"▁플래":6238,"▁검사":6239,"▁허리":6240,"▁능지":6241,"▁셀카":6242,"▁마그멜":6243,"▁[NC다이노스":6244,"규어":6245,"내고":6246,"련아":6247,"이후":6248,"입고":6249,"중에서":6250,"▁나머":6251,"▁어릴때":6252,"▁그때":6253,"▁그새끼":6254,"▁가스":6255,"▁211":6256,"▁기적":6257,"00원":6258,"▁주는거":6259,"▁올릴":6260,"▁조이":6261,"▁성우":6262,"▁실적":6263,"▁매출":6264,"▁안되나":6265,"▁각개":6266,"▁처음으로":6267,"▁침착":6268,"▁범죄":6269,"▁핑까":6270,"▁감사합니다":6271,"▁사르포":6272,"▁럭":6273,"▁왓":6274,"▁쩌":6275,"▁캬":6276,"것같음":6277,"그만":6278,"기다":6279,"보고싶다":6280,"아재":6281,"이잖아":6282,"장애":6283,"차단":6284,"하잖아":6285,"▁어따":6286,"▁근육":6287,"▁마감":6288,"▁잘나":6289,"▁지금도":6290,"▁서건창":6291,"▁매수":6292,"▁매니저":6293,"▁우리나라":6294,"▁복커":6295,"▁내일은":6296,"▁적폐":6297,"지않나":6298,"▁승률":6299,"▁좋은점":6300,"▁폴라":6301,"▁느낌이":6302,"▁잦돌":6303,"▁뜬금":6304,"▁적당히":6305,"7.":6306,"놈들은":6307,"디언":6308,"러지":6309,"비아":6310,"에만":6311,"이었네":6312,"잇음":6313,"차도":6314,"치킨":6315,"탈리":6316,"프라":6317,"▁이찬원":6318,"▁한시간":6319,"▁정보)":6320,"▁무리":6321,"▁좆슨":6322,"▁주워":6323,"▁우결":6324,"▁거르고":6325,"▁구속":6326,"▁위치":6327,"▁설치":6328,"▁써야":6329,"▁ᄒᄋ":6330,"▁S7":6331,"▁쇼미":6332,"▁잼민이":6333,"▁익스프레스":6334,"▁통합당":6335,"▁드래곤":6336,"▁박진영":6337,"▁엽":6338,"▁잉":6339,"▁텍":6340,"감독":6341,"고백":6342,"대결":6343,"받으면":6344,"티켓":6345,"▁이때":6346,"▁나보다":6347,"▁1.5":6348,"▁있잖아":6349,"▁있었네":6350,"▁기부":6351,"▁마레":6352,"▁아니네":6353,"▁전담":6354,"▁생각이":6355,"▁같냐":6356,"▁불가능":6357,"▁느바":6358,"▁잡을":6359,"▁뽑아야":6360,"▁섹시":6361,"~~~~~~~~":6362,"▁갖고":6363,"▁ᄎᄎ":6364,"1위":6365,"al":6366,"▁톡":6367,"겜은":6368,"되나":6369,"로만":6370,"생김":6371,"시리즈":6372,"아크":6373,"안하고":6374,"였지":6375,"오프":6376,"올스타":6377,"주냐?":6378,"투수":6379,"햇다":6380,"▁어몽어스":6381,"▁오피셜":6382,"▁가사":6383,"▁없다고":6384,"▁해줄":6385,"▁존나웃기네":6386,"▁드러":6387,"▁아이템":6388,"▁점프":6389,"▁그래픽":6390,"▁의심":6391,"▁얼마정도":6392,"▁클리":6393,"▁뽑을":6394,"▁괜찮은":6395,"▁나왔네":6396,"▁ᅲᅲᅲ":6397,"▁황금":6398,"▁취급":6399,"▁뜨면":6400,"▁아침부터":6401,"▁무서운":6402,"IA":6403,"▁니다":6404,"기능":6405,"동원":6406,"소득":6407,"엔딩":6408,"으려면":6409,"지를":6410,"▁나아":6411,"▁나은":6412,"▁오리":6413,"▁오우":6414,"▁다고":6415,"▁보러":6416,"▁시나":6417,"▁있노":6418,"▁무페토":6419,"▁애비":6420,"▁4시간":6421,"▁많은거":6422,"▁에피":6423,"▁세이":6424,"▁박찬호":6425,"▁드는":6426,"▁토토":6427,"▁95":6428,"▁브라":6429,"▁찍덕":6430,"▁11시":6431,"▁교체":6432,"▁데려오":6433,"▁겆)":6434,"▁웃긴게":6435,"▁장원영":6436,"ᄐᄐ":6437,"▁척":6438,"▁in":6439,"놈은":6440,"란다":6441,"마냥":6442,"코가":6443,"타지":6444,"하겠다":6445,"회차":6446,"▁오바":6447,"▁안하면":6448,"▁사나":6449,"▁좆돌":6450,"▁주술":6451,"▁생김":6452,"▁레전":6453,"▁구분":6454,"▁경상도":6455,"▁감자":6456,"▁단발":6457,"▁뽑아":6458,"▁한국인":6459,"▁sk":6460,"▁귀여움":6461,"▁진심으로":6462,"▁일어나":6463,"주의)":6464,"▁븝딱":6465,"▁대깨문":6466,"om":6467,"교육":6468,"냈다":6469,"될듯":6470,"럼프":6471,"말로":6472,"본사람":6473,"스텀":6474,"임.":6475,"주얼":6476,"▁하고싶다":6477,"▁있다고":6478,"▁대문":6479,"하는지":6480,"▁인별":6481,"▁맞네":6482,"▁사람들은":6483,"▁쓰는거":6484,"▁포함":6485,"▁모르겠다":6486,"▁남자는":6487,"▁악플":6488,"▁먼데":6489,"▁듀얼":6490,"▁혜자":6491,"▁도와줘":6492,"▁ᄀᄎ?":6493,"▁남순이":6494,"간지":6495,"귀여":6496,"귀엽":6497,"기간":6498,"동의":6499,"목록":6500,"시로":6501,"월드":6502,"준수":6503,"▁안잡":6504,"▁하꼬":6505,"▁시벌":6506,"▁개조":6507,"▁없는게":6508,"▁야생":6509,"▁올림":6510,"▁게스트":6511,"▁타고":6512,"▁크리":6513,"▁크보":6514,"▁히나":6515,"▁떡고":6516,"아니고":6517,"▁순서":6518,"▁접)":6519,"▁워녕":6520,"▁알려줌":6521,"▁돌아가":6522,"▁픽뚫":6523,"▁갔다":6524,"▁베르너":6525,"▁엿":6526,"갈까":6527,"결과":6528,"글에":6529,"물고":6530,"박고":6531,"블리":6532,"사서":6533,"사위":6534,"선택":6535,"식은":6536,"케이스":6537,"하시":6538,"확정":6539,"▁사료":6540,"▁다가":6541,"▁기준이":6542,"▁대형":6543,"▁모의":6544,"▁나오고":6545,"▁투기장":6546,"▁초딩때":6547,"!!!!!!":6548,"▁간지":6549,"▁보고가":6550,";;;;":6551,"▁터졌":6552,"▁한번에":6553,"▁좆같음":6554,"▁퍼섭":6555,"▁ts":6556,"▁가축들":6557,"--------":6558,"▁싹다":6559,"▁이정후":6560,"▁곤":6561,"가챠":6562,"계의":6563,"끄러":6564,"데려":6565,"린데":6566,"메가":6567,"용이":6568,"용으로":6569,"자의":6570,"자체":6571,"정지":6572,"제이":6573,"줬는데":6574,"타령":6575,"하루":6576,"할만":6577,"▁어우":6578,"▁지들":6579,"▁기존":6580,"▁해주세요":6581,"▁못해":6582,"▁도망":6583,"▁방학":6584,"▁코어":6585,"▁원하는":6586,"▁연출":6587,"▁메카":6588,"▁발매":6589,"▁케틀":6590,"해주는":6591,"▁유일한":6592,"▁신민혁":6593,"▁침착맨":6594,"같아서":6595,"노블":6596,"등학교":6597,"럽게":6598,"맞음":6599,"맞지?":6600,"문투":6601,"버림":6602,"인치":6603,"적화":6604,"할수있":6605,"했더니":6606,"형님":6607,"▁보구":6608,"▁마우스":6609,"▁수가":6610,"▁자세":6611,"▁말투":6612,"▁선넘":6613,"▁먹음":6614,"▁예비":6615,"▁장점":6616,"이라는데":6617,"▁8강":6618,"▁치는":6619,"▁똥찬":6620,"▁외퀴":6621,"▁두산":6622,"▁집회":6623,"▁테라":6624,"해주면":6625,"▁똑같은":6626,"▁스카우":6627,"▁힘들다":6628,"▁대한민국":6629,"▁타이밍":6630,"▁>":6631,"▁째":6632,"근혜":6633,"길드":6634,"네..":6635,"는디":6636,"단기":6637,"망겜":6638,"새키":6639,"일어":6640,"▁지난":6641,"▁좆소":6642,"▁문과":6643,"▁먹었는데":6644,"▁실제":6645,"▁배틀":6646,"▁몇시":6647,"▁감정":6648,"▁날아":6649,"▁터지":6650,"▁임영웅":6651,"▁친구들":6652,"▁기분이":6653,"▁PC":6654,"▁듀오":6655,"▁못생겼":6656,"것들":6657,"녀가":6658,"대신":6659,"던게":6660,"리치":6661,"보가":6662,"아트":6663,"연승":6664,"옹이":6665,"웨이":6666,"이아":6667,"채원":6668,"포엠":6669,"헨델":6670,"▁1루":6671,"▁1시":6672,"▁안남":6673,"▁시대":6674,"▁시너지":6675,"▁유료":6676,"▁바라":6677,"▁[0":6678,"▁[라비던스":6679,"▁문코":6680,"▁쓰는데":6681,".......":6682,"▁몇퍼":6683,"리는건":6684,"▁염색":6685,"해야함?":6686,"▁히트":6687,"▁설레":6688,"▁빠따":6689,"▁싸게":6690,"▁안되냐?":6691,"▁념글에":6692,"이었으면":6693,"!!!!!!!!!!!!!!!!":6694,"▁효율":6695,"▁맥주":6696,"▁비트던":6697,"▁문재앙":6698,"▁lck":6699,"▁사르포자":6700,"▁j":6701,"▁읍":6702,"▁컵":6703,"것만":6704,"나무":6705,"바로":6706,"받는다":6707,"스에":6708,"연습":6709,"요..":6710,"클럽":6711,"타자":6712,"페이지":6713,"히어로":6714,"▁이준":6715,"▁오지":6716,"▁안좋아":6717,"▁사무":6718,"▁지각":6719,"▁수강":6720,"▁무뽑":6721,"▁방역":6722,"▁남아":6723,"까지만":6724,"▁카스":6725,"▁프메":6726,"▁예구":6727,"▁박주홍":6728,"▁단독":6729,"한다.":6730,"▁달성":6731,"▁13일":6732,"▁앚퀴":6733,"야되는데":6734,"▁스카디":6735,"▁신인상":6736,"▁블루카펫":6737,"▁수사렌":6738,"▁확진자":6739,"드랑이":6740,"등이":6741,"마라":6742,"소설":6743,"열어":6744,"온냐":6745,"있어서":6746,"탱이":6747,"하셈":6748,"한사람":6749,"▁이겨":6750,"▁안정":6751,"▁사경":6752,"▁인벤":6753,"▁부터":6754,"▁방패":6755,"▁실수":6756,"▁감성":6757,"▁투구":6758,"▁호날두":6759,"▁귀신":6760,"▁몰라":6761,"▁봉준이":6762,"▁왕따":6763,"▁봊돌":6764,"▁귀엽다":6765,"▁랭킹":6766,"ti":6767,"▁튜":6768,"기어":6769,"당하는":6770,"없노":6771,"처리":6772,"하더니":6773,"했었는데":6774,"▁어류":6775,"▁보는거":6776,"▁있어도":6777,"▁유플":6778,"라고?":6779,"▁되나":6780,"▁로헨델":6781,"▁나오는데":6782,"하지말":6783,"▁내일부터":6784,"▁꼬라지":6785,"▁운전":6786,"▁잡고":6787,"▁릭스":6788,"갤럼":6789,"됐는데":6790,"드려":6791,"듬?":6792,"망주":6793,"뭔데":6794,"방이":6795,"벅지":6796,"요한":6797,"으론":6798,"쳐도":6799,"친다":6800,"코어":6801,"▁이랑":6802,"▁어카":6803,"▁2배":6804,"▁전혀":6805,"▁공명":6806,"▁리뷰":6807,"보다가":6808,"▁배당":6809,"▁않나":6810,"▁단장":6811,"▁좋아함":6812,"▁커스텀":6813,"▁했더니":6814,"▁형님":6815,"▁교육":6816,"▁봉준":6817,"▁프리뷰":6818,"▁있었으면":6819,"▁핑크":6820,"▁느낀점":6821,"▁샌박":6822,"기전":6823,"부는":6824,"제?":6825,"팀이":6826,"하이":6827,"▁보소":6828,"▁지현이":6829,"▁없지?":6830,"▁없어도":6831,"으로도":6832,"▁저건":6833,"▁신섭":6834,"▁우유":6835,"▁만붕이":6836,"▁라비":6837,"▁먹었":6838,"▁의대":6839,"▁열등":6840,"▁응디":6841,"▁청소":6842,"▁답변":6843,"▁믿고":6844,"▁뛰어":6845,"▁트레저":6846,"▁언니들":6847,"마이걸":6848,"400":6849,"ay":6850,"궁금":6851,"끼고":6852,"놀이":6853,"대1":6854,"대네":6855,"대한":6856,"도사":6857,"려나?":6858,"로워":6859,"바리":6860,"부기":6861,"우리":6862,"우우":6863,"있나":6864,"작가":6865,"크스":6866,"판이":6867,"하누":6868,"▁아키노":6869,"▁오지네":6870,"▁하지마라":6871,"▁미쳐":6872,"▁잘어울":6873,"▁노예":6874,"▁올시즌":6875,"▁부랄":6876,"▁조눈":6877,"▁[포":6878,"▁문상":6879,"▁되어":6880,"▁프라이즈":6881,"▁장발":6882,"▁이번시즌":6883,"▁디코":6884,"▁걸린":6885,"▁꼬추":6886,"▁교보":6887,"▁괜찮은데":6888,"▁이해안":6889,"▁기사사진":6890,"▁ᄏᄏᄏᄏᄏᄏᄏᄏᄏᄏᄏᄏᄏᄏᄏᄏᄏᄏᄏ":6891,"▁앰창":6892,"▁스포츠":6893,"▁부모님":6894,"▁피시방":6895,"!?":6896,"RO":6897,"▁##":6898,"구매":6899,"명은":6900,"불가":6901,"블릿":6902,"선권":6903,"카는":6904,"테일":6905,"할지":6906,"희롱":6907,"▁아츠":6908,"▁아케":6909,"▁안먹":6910,"▁안에":6911,"▁한개":6912,"▁유희":6913,"▁조국":6914,"▁버리고":6915,"▁강원":6916,"▁본다":6917,"▁10개":6918,"▁동남아":6919,"▁매물":6920,"▁우리도":6921,"▁가능하냐?":6922,"▁이상해":6923,"▁열어":6924,"▁건강":6925,"▁판다":6926,"▁서울대":6927,"▁생각해보면":6928,"▁듀라한":6929,"캐릭터":6930,"▁칰)":6931,"▁슴고":6932,"▁화장실":6933,"/4":6934,"▁밖":6935,"▁셔":6936,"가냐":6937,"라니까":6938,"모음":6939,"버려":6940,"봤음":6941,"부로":6942,"수비":6943,"아치":6944,"줄게":6945,"▁아반떼":6946,"는거지?":6947,"▁기관":6948,"▁대화":6949,"▁정의":6950,"▁수험":6951,"▁유키":6952,"▁고쳐":6953,"▁전력":6954,"▁공방":6955,"▁바나나":6956,"▁4년":6957,"▁언젠":6958,"▁리메":6959,"▁먹고싶다":6960,"▁세금":6961,"▁강다니엘":6962,"하는거임":6963,"▁여자들이":6964,"▁여자친구":6965,"▁눈이":6966,"▁악마":6967,"▁담원":6968,"▁일러스트":6969,"ᅮᅮᅮᅮ":6970,"▁140":6971,"▁착각":6972,"▁ᄏᄏᄏᄏᄏᄏᄏᄏᄏᄏᄏᄏᄏᄏᄏᄏᄏ":6973,"▁귀엽네":6974,"IF":6975,"oll":6976,"▁옹":6977,"▁덤디":6978,"겟지":6979,"끝나고":6980,"나비":6981,"롱빵":6982,"만은":6983,"서커":6984,"스키":6985,"줘도":6986,"출신":6987,"특징":6988,"▁진자":6989,"▁여전":6990,"▁신한":6991,"▁알아서":6992,"▁55":6993,"▁리더":6994,"하는거냐":6995,"▁외야":6996,"▁커미션":6997,"▁싶음":6998,"▁필기":6999,"▁분량":7000,"▁특이":7001,"▁걸레":7002,"▁했네":7003,"▁찍은":7004,"▁탈퇴":7005,"2020":7006,"▁천재":7007,"▁100%":7008,"고있네":7009,",,,,":7010,"▁<-":7011,"아이돌":7012,"▁경원반지":7013,"▁김연아":7014,"li":7015,"ᄌᄂ":7016,"▁쳤":7017,"급으로":7018,"동은":7019,"딱이":7020,"리자":7021,"받을":7022,"배수":7023,"사항":7024,"속보]":7025,"오빠":7026,"이구나":7027,"졌으면":7028,"좋겠다":7029,"좋은데":7030,"피가":7031,"▁그건":7032,"▁사쿠":7033,"▁보네":7034,"▁있으":7035,"▁한다고":7036,"▁대선":7037,"▁해봤는데":7038,"▁못쓰":7039,"▁제니":7040,"▁파란":7041,"▁7월":7042,"▁매도":7043,"▁데스":7044,"▁2019":7045,"▁친추":7046,"▁봐줘":7047,"▁아무나":7048,"▁베이":7049,"▁과학":7050,"▁찾았다":7051,"▁깨달":7052,"▁찜앰":7053,"▁쇼룸":7054,"▁듣는":7055,"▁게이들아":7056,"▁괴물":7057,"ᅲᅲᅲᅲᅲᅲᅲᅲ":7058,"▁선생님":7059,"▁끔":7060,"돼?":7061,"릴라":7062,"만드":7063,"맞고":7064,"모스":7065,"서울":7066,"야됨?":7067,"었지":7068,"였냐":7069,"▁어빌":7070,"▁그랑":7071,"▁가든":7072,"▁개새끼":7073,"▁정해":7074,"▁37":7075,"00개":7076,"▁거짓":7077,"▁상담":7078,"▁구롱빵":7079,"▁파스타":7080,"▁피지컬":7081,"▁세리카":7082,"▁사람?":7083,"▁박원":7084,"▁이유.":7085,"▁불타":7086,"▁차기":7087,"▁매미":7088,"▁분노":7089,"▁루리웹":7090,"▁볼만":7091,"▁모르겠는데":7092,"▁테슬라":7093,"▁다른거":7094,"▁08":7095,"▁콜로":7096,"▁가슴이":7097,"▁큼":7098,"강화":7099,"니폼":7100,"대면":7101,"똥찬":7102,"오냐":7103,"피는":7104,"▁이대로":7105,"▁보자":7106,"▁있던데":7107,"▁못먹":7108,"▁못참":7109,"▁못한":7110,"▁공연":7111,"▁생각했는데":7112,"▁버전":7113,"▁몇시간":7114,"▁패드":7115,"▁패배":7116,"▁받음":7117,"▁치명":7118,"▁토마토":7119,"▁결장":7120,"▁집중":7121,"▁직원":7122,"▁슬프":7123,"▁행사":7124,"▁나왔다":7125,"▁223":7126,"메이크":7127,"▁주말에":7128,"남은":7129,"살까":7130,"시스":7131,"었나":7132,"와중에":7133,"유진":7134,"창년":7135,"하려는데":7136,"▁이마":7137,"▁나왓":7138,"▁나타":7139,"▁왜자꾸":7140,"▁내꺼":7141,"▁조닭":7142,"▁코코":7143,"▁김재":7144,"▁동안":7145,"▁뉴짤":7146,"▁좋아요":7147,"▁팔면":7148,"▁한국에서":7149,"▁ᄂᄂ":7150,"▁몸이":7151,"▁그만해":7152,"▁맘마":7153,"▁북한":7154,"▁은근히":7155,"▁아닐까?":7156,"▁진화석":7157,"▁영지점":7158,"▁마일리지":7159,"▁오나홀":7160,"os":7161,"tr":7162,"단이":7163,"로운":7164,"마스터":7165,"발언":7166,"센터":7167,"스틱":7168,"시킨":7169,"영탁":7170,"이는거":7171,"잖음":7172,"카테":7173,"패턴":7174,"패키지":7175,"▁이동":7176,"▁아야":7177,"▁1일차":7178,"▁안들":7179,"▁안사":7180,"▁하긴":7181,"▁지도":7182,"▁가르":7183,"▁개이":7184,"▁스드":7185,"▁3분":7186,"▁3차":7187,"▁인연":7188,"▁미사":7189,"▁바지":7190,"▁상대로":7191,"▁49":7192,"▁[오":7193,"▁[속보]":7194,"▁ᄌ같은":7195,"▁포지션":7196,"▁동수":7197,"▁손가락":7198,"▁돈벌":7199,"▁클래":7200,"▁탈락":7201,"▁새끼들아":7202,"▁출발":7203,"▁태블릿":7204,"▁둘중에":7205,"▁괜찮아":7206,"▁종목":7207,"▁필요한":7208,"▁마음에":7209,"▁힐러":7210,"▁다니는":7211,"▁ON":7212,"스러운":7213,"▁ᄍᄍ":7214,"TX":7215,"게이야":7216,"겟노":7217,"달아":7218,"루루":7219,"민주":7220,"부르":7221,"성우":7222,"오는거":7223,"장해":7224,"조새":7225,"조아":7226,"지역":7227,"커스":7228,"코토":7229,"▁이명":7230,"▁하는건":7231,"▁뭐로":7232,"▁기가":7233,"▁제외":7234,"▁제이":7235,"▁비하":7236,"▁부자":7237,"▁48":7238,"▁[투표인증":7239,"▁선동":7240,"▁메좆":7241,"▁타임":7242,"▁않음":7243,"▁뉴빈데":7244,"▁결론":7245,"▁여자랑":7246,"▁똥퀴들":7247,"▁틀와":7248,"▁눈팅":7249,"▁음해":7250,"▁이상한거":7251,"▁노래방":7252,"▁프로필":7253,"▁19)":7254,"레스텔라":7255,"▁굴비":7256,"▁일반인":7257,"▁어려운":7258,"▁유일하게":7259,"▁한동희":7260,"/5":7261,"lc":7262,"갤로":7263,"까는":7264,"려니":7265,"마려":7266,"보이네":7267,"스카":7268,"써도":7269,"어렵":7270,"재앙":7271,"정은":7272,"질이":7273,"카나":7274,"했긔":7275,"희찬":7276,"▁나음":7277,"▁어?":7278,"▁지니":7279,"▁있는게":7280,"▁마르":7281,"▁마크":7282,"▁유사":7283,"▁고장":7284,"▁못하네":7285,"▁우리는":7286,"▁조센":7287,"▁지금부터":7288,"▁라오":7289,"▁피규어":7290,"▁10만원":7291,"▁글이":7292,"▁데이트":7293,"▁하나는":7294,"하지말고":7295,"▁페코":7296,"▁과연":7297,"이라고?":7298,"▁14일":7299,"▁TOP":7300,"▁ai":7301,"아닌데":7302,"BT":7303,"SD":7304,"ot":7305,"▁긔":7306,"▁앨":7307,"내역":7308,"라는게":7309,"마켓":7310,"물은":7311,"버리고":7312,"상담":7313,"신기":7314,"영전":7315,"학원":7316,"형은":7317,"▁아서":7318,"ᄏᄏᄏᄏᄏᄏᄏᄏᄏᄏᄏᄏᄏᄏ":7319,"▁가고":7320,"▁정수":7321,"▁정주행":7322,"▁좋다고":7323,"▁수고":7324,"▁조만":7325,"▁59":7326,"▁파판":7327,"▁연구":7328,"▁피싸개":7329,"▁장기":7330,"▁박아":7331,"▁강의":7332,"인가요":7333,"▁걸어":7334,"▁넘게":7335,"▁별명":7336,"▁안되는데":7337,"▁뒤질":7338,"▁일본에서":7339,"▁참치":7340,"▁종결":7341,"▁놈들은":7342,"▁짱개":7343,"▁아님??":7344,"▁만약에":7345,"▁S7k":7346,"▁[포레스텔라":7347,"27":7348,"▁^":7349,"그리":7350,"나는데":7351,"란타":7352,"루는":7353,"멤버":7354,"무서":7355,"무현":7356,"북이":7357,"심한":7358,"여행":7359,"자도":7360,"회로":7361,"▁1만":7362,"▁1.2":7363,"▁안올":7364,"▁보수":7365,"▁정부":7366,"▁수급":7367,"으로는":7368,"▁3만":7369,"▁좆나":7370,"▁신정환":7371,"▁못하고":7372,"▁주소":7373,"▁더쿠":7374,"▁와우":7375,"▁생각남":7376,"▁연재":7377,"▁할배":7378,"▁최초":7379,"▁본캐":7380,"▁어디로":7381,"▁데리고":7382,"▁9시":7383,"▁반박":7384,"▁페스":7385,"▁처럼":7386,"거같냐":7387,"거같음?":7388,"▁잠시":7389,"수있냐?":7390,"▁충전":7391,"을거같은데":7392,"▁갔는데":7393,"이였는데":7394,"▁ᄋᄉᄋ":7395,"▁가만히":7396,"UMDi":7397,"gain":7398,"같냐":7399,"구로":7400,"노스":7401,"랬는데":7402,"말까":7403,"뭐임?":7404,"순간":7405,"시스템":7406,"와도":7407,"장도":7408,"제는":7409,"죽어":7410,"즈아":7411,"지방":7412,"차는":7413,"하니깐":7414,"할것":7415,"했나":7416,"▁이사":7417,"▁아리아":7418,"▁아시아":7419,"▁나코":7420,"▁사콜":7421,"▁지켜":7422,"▁근개비":7423,"▁스프":7424,"▁내놔":7425,"▁해볼":7426,"▁제한":7427,"▁도네":7428,"▁[정":7429,"▁강한":7430,"▁아이들":7431,"▁10억":7432,"▁심바":7433,"▁싸인":7434,"▁백업":7435,"▁뒤져":7436,"▁뒤진":7437,"▁허수":7438,"▁170":7439,"▁쥬얼":7440,"▁능국":7441,"▁북커버":7442,"▁에어팟":7443,"▁kt":7444,"보은왔어요":7445,"▁스피릿":7446,"▁이어폰":7447,"▁ᄀᄂ?":7448,"▁로빈치":7449,"▁독서실":7450,"▁수강신청":7451,"ps":7452,"ᄌᄃ":7453,"▁겹":7454,"갤)":7455,"건지":7456,"네ᄏᄏᄏ":7457,"련들":7458,"련들아":7459,"많아":7460,"비트":7461,"상관":7462,"어리":7463,"엇다":7464,"전쟁":7465,"졌노":7466,"한텐":7467,"▁나갈":7468,"▁1번":7469,"▁하고싶":7470,"▁사가":7471,"▁가게":7472,"▁뭐부터":7473,"▁기출":7474,"▁정체":7475,"▁수면":7476,"▁애정":7477,"▁너구리":7478,"▁우르":7479,"▁조계":7480,"▁알았다":7481,"▁리제로":7482,"▁구리":7483,"▁영탁":7484,"▁김성":7485,"▁김진":7486,"▁예언":7487,"하네요":7488,"▁강제":7489,"▁패러":7490,"▁크림":7491,"▁히토미":7492,"▁속보":7493,"▁일본어":7494,"▁아닌거":7495,"▁밀리":7496,"나요??":7497,"▁육성":7498,"▁깔끔":7499,"▁선택권":7500,"▁핫산":7501,"▁안좋은":7502,"신곡홍보":7503,"▁우파메카노":7504,"~3":7505,"▁랄":7506,"▁찰":7507,"▁균열":7508,"거다":7509,"국방":7510,"다는거":7511,"되노":7512,"리버":7513,"리젠":7514,"매매":7515,"문자":7516,"미스":7517,"보성":7518,"양준일":7519,"이던데":7520,"잘못":7521,"주자":7522,"첫)":7523,"첫방축하":7524,"하실분":7525,"해놓고":7526,"▁이년":7527,"▁나나":7528,"▁보조":7529,"▁보이스":7530,"▁지우":7531,"▁있던":7532,"▁정민규":7533,"▁무난":7534,"▁3000":7535,"▁미나":7536,"▁신영":7537,"▁주간":7538,"▁많음?":7539,"▁성인":7540,"▁버거":7541,"▁예리":7542,"▁솔랭":7543,"이라니":7544,"이라면":7545,"▁10시":7546,"▁패션":7547,"▁어디에":7548,"▁캐리":7549,"▁캐스터":7550,"▁글로":7551,"▁20분":7552,"ᄉᄉᄉ":7553,"▁베스트":7554,"▁30대":7555,"(설첫)":7556,"▁본인이":7557,"▁엔)":7558,"▁얼굴이":7559,"▁놀러":7560,"▁ss":7561,"▁만들면":7562,"▁D59":7563,"있음??":7564,"▁ᄑᄑ":7565,"▁커여운":7566,"▁8/13":7567,"연합]":7568,"▁조만간":7569,"갤도":7570,"국수":7571,"대?":7572,"대사":7573,"로건":7574,"미친":7575,"워치":7576,"일까?":7577,"줘서":7578,"컨셉":7579,"트넘":7580,"해봤는데":7581,"▁나봉":7582,"▁나음?":7583,"▁자사":7584,"▁아니시발":7585,"▁신비":7586,"▁바퀴":7587,"▁우린":7588,"▁[키움":7589,"▁머꼴":7590,"▁코미":7591,"▁연합":7592,"▁경제":7593,"▁살기":7594,"▁로스트":7595,"▁추천점":7596,"▁했던":7597,"하나?":7598,"▁업적":7599,"▁왜이래":7600,"▁정상임?":7601,"30k":7602,"▁밤에":7603,"▁엄마가":7604,"▁스밍인증":7605,"▁대기업":7606,"갤러리]":7607,"▁사전예약":7608,"/3":7609,"2개":7610,"▁념":7611,"▁삭":7612,"▁00":7613,"글이":7614,"레전드":7615,"르기":7616,"문학":7617,"본적":7618,"생일":7619,"세팅":7620,"아이들":7621,"앗다":7622,"었냐?":7623,"인원":7624,"전자":7625,"주기":7626,"주인":7627,"킹롤":7628,"타이":7629,"▁아들":7630,"▁아픈":7631,"▁1페":7632,"▁시즈":7633,"▁근대":7634,"▁스샷":7635,"▁좋긔":7636,"▁없을":7637,"▁자대":7638,"▁야간":7639,"▁만렙":7640,"▁먹방":7641,"▁피스":7642,"▁않은":7643,"▁꼴리":7644,"▁처리":7645,"▁완결":7646,"▁노래는":7647,"▁접대":7648,"▁폭쥐":7649,"▁잠이":7650,"▁월요일":7651,"▁싫다":7652,"▁함성":7653,"▁절반":7654,"▁낫다":7655,"▁쉬운":7656,"▁L30k":7657,"▁죄악":7658,"▁똑똑":7659,"▁닮은":7660,"▁룰러":7661,"▁살인마":7662,"라우드":7663,"가기":7664,"구도":7665,"내용":7666,"만하면":7667,"미나":7668,"습니까?":7669,"실패":7670,"십쇼":7671,"웠다":7672,"은?":7673,"이냐??":7674,"제일":7675,"준열":7676,"트롤":7677,"퍼는":7678,"회사":7679,"▁안된":7680,"▁하라고":7681,"▁그동안":7682,"▁개봉":7683,"▁스윙":7684,"▁스작":7685,"▁수속":7686,"▁수치":7687,"▁전용":7688,"▁공통":7689,"▁올렸":7690,"▁재수":7691,"▁재평가":7692,"▁파수꾼":7693,"▁카트":7694,"▁느꿈":7695,"▁나오냐?":7696,"▁초보":7697,"▁어케함?":7698,"▁교복":7699,"▁염보성이":7700,"▁악질":7701,"▁행정":7702,"▁회복":7703,"▁낫냐":7704,"▁이쁘네":7705,"▁움직":7706,"▁읽어":7707,"▁24시간":7708,"▁ᄃᄃᄃᄃᄃ":7709,"▁모자키":7710,"▁비비큐":7711,"▁역겨운":7712,"▁훈련소":7713,"▁스마트":7714,"ROCK":7715,"▁[투표인증][":7716,")설":7717,"Roll":7718,"개가":7719,"공이":7720,"달러":7721,"란이":7722,"른거":7723,"리안":7724,"맞음?":7725,"모델":7726,"반기":7727,"소환":7728,"숙이":7729,"시원":7730,"전사":7731,"차트":7732,"할수록":7733,"해제":7734,"▁아ᄏᄏ":7735,"▁어딜":7736,"▁어워즈":7737,"▁하아":7738,"▁가온":7739,"▁있냐??":7740,"▁마마":7741,"▁3루":7742,"▁아니지?":7743,"▁고생":7744,"▁지금이":7745,"▁방구":7746,"▁리스트":7747,"▁영원":7748,"▁김우석":7749,"▁에디":7750,"▁박근혜":7751,"▁돌릴":7752,"▁타자":7753,"▁포도":7754,"▁동시에":7755,"▁800":7756,"▁발로":7757,"▁싶으면":7758,"▁뉴비들":7759,"갤]ROCK":7760,"▁딱히":7761,"▁학생":7762,"▁올해는":7763,"▁나와도":7764,"▁랭크":7765,"ingRoll":7766,"엘롯연합]":7767,"▁장애인":7768,"eat.":7769,"양준일갤]ROCK":7770,"양준일갤]ROCKingRoll":7771,"df":7772,"un":7773,"누가":7774,"도우":7775,"듣고":7776,"디디":7777,"못함":7778,"바에":7779,"스펙":7780,"써서":7781,"유리":7782,"좀요":7783,"주환":7784,"탄절":7785,"페미":7786,"▁지속":7787,"▁있을까?":7788,"▁개편":7789,"▁대만":7790,"▁대타":7791,"▁수호":7792,"▁인강":7793,"▁고평가":7794,"▁머뷔":7795,"▁구린":7796,"▁트럼프":7797,"▁게이야":7798,"▁피드백":7799,"▁살면서":7800,"이라는게":7801,"▁패널":7802,"▁패드립":7803,"▁질러":7804,"▁네임":7805,"▁여기는":7806,"해야겠다":7807,"정도로":7808,"▁넘어가":7809,"나오냐":7810,"▁게임은":7811,"▁클릭":7812,"▁06":7813,"▁황희찬":7814,"▁유진이":7815,"▁졸커":7816,"▁취업":7817,"▁기대된다":7818,"▁마지막에":7819,"▁류준열":7820,"▁대단하다":7821,"▁밸패":7822,"▁초반에":7823,"GIF":7824,"검사":7825,"글은":7826,"기분":7827,"딸이":7828,"로이드":7829,"모리즈":7830,"바데":7831,"보는거":7832,"빈이":7833,"수밖에":7834,"초월":7835,"판에":7836,"호는":7837,"화는":7838,"▁이노":7839,"▁오전":7840,"▁하..":7841,"▁그오":7842,"▁지들이":7843,"▁중독":7844,"▁남았다":7845,"▁버서커":7846,"▁살만":7847,"▁포스터":7848,"해야됨?":7849,"▁물건":7850,"▁틀퀴들":7851,"▁두번째":7852,"▁엘사":7853,"▁음료":7854,"▁금방":7855,"▁이상하게":7856,"▁직장":7857,"▁헤카테":7858,"▁쓸데":7859,"@@@":7860,"▁레전드네":7861,"▁앞에서":7862,"다니는":7863,"▁스트레":7864,"▁이겜은":7865,"라라라라":7866,"▁정치질":7867,"▁베르드":7868,"▁탕":7869,"갤을":7870,"겟음":7871,"구요":7872,"맞는":7873,"부대":7874,"았던":7875,"였나":7876,"영삼":7877,"와이":7878,"위가":7879,"이게":7880,"이팅":7881,"직캠":7882,"찬또":7883,"▁지워":7884,"▁지효":7885,"▁진정한":7886,"▁뭐임??":7887,"▁기자":7888,"▁마려":7889,"▁좋더라":7890,"▁자존":7891,"▁애가":7892,"▁만루":7893,"▁중간":7894,"▁중인데":7895,"▁머리가":7896,"▁좀만":7897,"▁리메이크":7898,"▁구다":7899,"▁영국":7900,"▁할카스":7901,"▁65":7902,"▁포스트":7903,"한거냐":7904,"▁호불":7905,"▁화가":7906,"▁두고":7907,"▁평범":7908,"▁별거":7909,"▁꼬라":7910,"▁천사":7911,"▁뜨는":7912,"▁사이버":7913,"▁샀다":7914,"▁룩삼":7915,"▁햄버거":7916,"▁유격수":7917,"▁커뮤니티":7918,"▁컬":7919,"▁들은":7920,"▁춘향":7921,"걸림":7922,"경이":7923,"기노":7924,"났노":7925,"레인":7926,"먹기":7927,"무새":7928,"서관":7929,"시도":7930,"실력":7931,"잇냐":7932,"좋음?":7933,"주는데":7934,"차로":7935,"트에":7936,"피언":7937,"해진":7938,"▁가까":7939,"▁진입":7940,"▁있고":7941,"▁있나요?":7942,"▁수련":7943,"▁자격":7944,"▁신레이드":7945,"▁이거지":7946,"▁모닝":7947,"▁공매도":7948,"▁중섭":7949,"▁4시":7950,"▁말을":7951,"▁씨발년":7952,"▁피갤":7953,"▁예뻐":7954,"▁크린이":7955,"???????":7956,"▁복지":7957,"▁적으로":7958,"ᄏᄏᄏᄏᄏᄏᄏᄏᄏᄏᄏᄏᄏᄏᄏᄏᄏᄏᄏᄏᄏᄏᄏ":7959,"▁팔고":7960,"▁약속":7961,"▁터진":7962,"▁떨어지":7963,"▁미쳤다":7964,"▁이기면":7965,"▁낙서":7966,"▁박정수":7967,"▁든든":7968,"▁이래서":7969,"▁나무위키":7970,"▁정확히":7971,"sa":7972,"▁려":7973,"도영":7974,"되지":7975,"많음":7976,"바페":7977,"베이":7978,"생축":7979,"씨야":7980,"안해":7981,"용환":7982,"즈는":7983,"했을때":7984,"훈이":7985,"▁아시는분":7986,"▁나혼":7987,"▁안함?":7988,"ᄏᄏᄏᄏᄏᄏᄏᄏᄏᄏᄏᄏᄏᄏᄏ":7989,"▁가디언":7990,"▁2만원":7991,"▁여중":7992,"▁34":7993,"▁자해":7994,"▁아니씨발":7995,"▁전역":7996,"▁전자":7997,"▁중망호":7998,"▁47":7999,"▁프랑":8000,"▁최용":8001,"▁어디감":8002,"▁똥냐":8003,"▁화속":8004,"▁싶네":8005,"▁필터":8006,"▁블본":8007,"▁끝난":8008,"▁적응":8009,"▁골반":8010,"▁베이스":8011,"▁테일":8012,"▁왔어요":8013,"▁월광":8014,"▁울트라":8015,"▁환급":8016,"▁레전드.jpg":8017,"▁퇴구":8018,"▁변신":8019,"▁중요한":8020,"▁자주국방":8021,"▁씨발련들아":8022,"▁덩":8023,"▁람":8024,"꺼면":8025,"나잇":8026,"마스":8027,"먹은거":8028,"박아":8029,"아나":8030,"점수":8031,"주노":8032,"히면":8033,"힘들":8034,"▁아크":8035,"▁아는데":8036,"▁사는거":8037,"▁지무":8038,"▁근무":8039,"▁스벅":8040,"▁고3":8041,"▁제시":8042,"▁주세요":8043,"▁공앱":8044,"▁야발":8045,"▁야식":8046,"▁거울":8047,"▁중에서":8048,"▁라미":8049,"▁원더":8050,"▁에휴":8051,"▁돌리는":8052,"▁현장":8053,"▁병살":8054,"▁10퍼":8055,"▁데미지":8056,"▁여자들은":8057,"▁작전":8058,"▁죽을":8059,"▁홍이":8060,"▁힘드":8061,"▁앞에":8062,"▁꿀벌":8063,"▁떴는데":8064,"▁160":8065,"▁죄송":8066,"▁잔다":8067,"▁색욕":8068,"▁기다려":8069,"▁덕질":8070,"이에요":8071,"▁외국인":8072,"▁나스닥":8073,"▁스카우터":8074,"▁박원순":8075,"▁는거":8076,"것같다":8077,"겹살":8078,"놈들이":8079,"다녀":8080,"모닝":8081,"버리네":8082,"보냐":8083,"스턴":8084,"아냐?":8085,"에요?":8086,"정호":8087,"즈나":8088,"코는":8089,"패는":8090,"▁이중":8091,"▁안퀴":8092,"▁여장":8093,"▁여태":8094,"▁내전":8095,"▁마영전":8096,"▁유망주":8097,"▁존나잘":8098,"▁씨벌":8099,"▁머지":8100,"▁남았":8101,"▁리셋":8102,"▁말도":8103,"한테는":8104,"▁먹었다":8105,"▁프렌":8106,"▁이제는":8107,"▁드레이크":8108,"▁이유.jpg":8109,"▁않을까":8110,"▁데브":8111,"▁데이":8112,"▁의자":8113,"▁은카":8114,"▁크기":8115,"▁여기에":8116,"정도는":8117,"▁찍고":8118,"▁ᄀᄀᄀ":8119,"▁겜이":8120,"▁업글":8121,"▁애미뒤":8122,"▁팀이":8123,"▁pvp":8124,"▁떴냐?":8125,"▁만들고":8126,"▁선수들":8127,"▁오랜만":8128,"▁법사":8129,"▁알아보자":8130,"▁어쩌고":8131,"▁와이번":8132,"라운드":8133,"pl":8134,"▁놔":8135,"▁펀":8136,"게요":8137,"경민":8138,"과목":8139,"기술":8140,"까고":8141,"놈들아":8142,"니스":8143,"도시":8144,"드랑":8145,"렉스":8146,"머임":8147,"메타":8148,"모가":8149,"민우":8150,"방은":8151,"쓰기":8152,"옵션":8153,"운드":8154,"월량":8155,"잇음?":8156,"작은":8157,"▁이세계":8158,"▁1,":8159,"▁그분":8160,"▁보고싶어":8161,"▁가도":8162,"▁3시":8163,"▁고급":8164,"▁저랑":8165,"▁신지":8166,"▁바닥":8167,"▁부천":8168,"▁58":8169,"▁중갤":8170,"▁더워":8171,"▁서열":8172,"▁세탁":8173,"▁로리":8174,"▁니미":8175,"▁감동":8176,"▁발전":8177,"▁국장":8178,"▁당신":8179,"▁끝날":8180,"▁웃겼":8181,"▁건담":8182,"▁들으면":8183,"▁모르고":8184,"▁컴갤":8185,"▁친구랑":8186,"하노?":8187,"▁시간이":8188,"▁취미":8189,"하자마자":8190,"▁한남들":8191,"▁K-":8192,"▁봄?":8193,"▁정신병자":8194,"▁선생님들":8195,"▁나머지":8196,"-4":8197,"ᄂᄂ":8198,"강간":8199,"구간":8200,"기념":8201,"데미":8202,"도록":8203,"로로":8204,"리블":8205,"만나":8206,"먹는거":8207,"뭐임":8208,"알아":8209,"었다고":8210,"오버":8211,"있고":8212,"주로":8213,"크는":8214,"화질":8215,"▁하락":8216,"▁하더라":8217,"▁그라":8218,"▁사장":8219,"▁보임":8220,"▁가는게":8221,"▁250":8222,"▁한식":8223,"▁여니":8224,"▁3연":8225,"▁인프":8226,"▁일상":8227,"▁좆본":8228,"▁갤은":8229,"▁공시":8230,"▁도박":8231,"▁42":8232,"▁먹어야":8233,"▁버블":8234,"▁키가":8235,"▁포텐":8236,"▁후보":8237,"▁단디":8238,"▁얘가":8239,"▁재밌음?":8240,"▁올라온":8241,"▁넣으면":8242,"▁나올때":8243,"▁풍월량":8244,"▁꾸라":8245,"▁어려움":8246,"▁댕댕이":8247,"▁그렇고":8248,"▁렙업":8249,"▁방어구":8250,"▁마렵다":8251,"▁모르겠고":8252,"▁클로저":8253,"▁로그인":8254,"▁동수칸":8255,"▁욱":8256,"▁졌":8257,"▁줬":8258,"▁gif":8259,"▁붕이들":8260,"갈때":8261,"겟지?":8262,"공격":8263,"님은":8264,"달고":8265,"뜸?":8266,"먹고싶다":8267,"모습":8268,"사실":8269,"스틴":8270,"악질":8271,"없지?":8272,"엇네":8273,"여신":8274,"왔쎄리":8275,"의미":8276,"홈런":8277,"▁보니깐":8278,"▁보인다":8279,"▁시골":8280,"▁한가":8281,"▁인도":8282,"▁아니근데":8283,"▁신나":8284,"▁올리고":8285,"▁알리":8286,"▁더러":8287,"▁피방":8288,"▁장마":8289,"▁66":8290,"▁느김치":8291,"▁동양":8292,"▁망갤":8293,"▁망한거":8294,"▁하나씩":8295,"▁단순":8296,"▁커마":8297,"▁가능하냐":8298,"▁당근":8299,"▁재밌는데":8300,"▁특별":8301,"▁특성":8302,"▁어케됨?":8303,"▁목요일":8304,"▁몰래":8305,"▁->":8306,"▁퇴갤":8307,"▁정신나갈":8308,"▁그러면":8309,"ᄉᄉᄉᄉᄉᄉᄉᄉ":8310,"스크림":8311,"▁마음이":8312,"▁fa":8313,"▁누군지":8314,"▁짜증나":8315,"====":8316,"▁롱빵":8317,"▁(설쉬)":8318,"▁고마워":8319,"라라라라라":8320,"ᄆᄋᄌ":8321,"▁덤":8322,"▁쁘":8323,"갔다가":8324,"거리는":8325,"겠다고":8326,"구려":8327,"기대":8328,"내려":8329,"듣노":8330,"딩이":8331,"방패":8332,"블랙":8333,"스피":8334,"없다고":8335,"왔음":8336,"음식":8337,"주차":8338,"즈가":8339,"총공":8340,"파밍":8341,"포터":8342,"학과":8343,"▁이글":8344,"▁이전":8345,"▁아아":8346,"▁오닉스":8347,"▁하던데":8348,"▁그니까":8349,"▁시장":8350,"▁가진":8351,"▁유나":8352,"하는중":8353,"하는사람":8354,"▁미노":8355,"▁좆노잼":8356,"▁좆됐다":8357,"▁비동의":8358,"▁만난":8359,"▁언플":8360,"▁트레이":8361,"▁선언":8362,"▁추방":8363,"▁버튼":8364,"▁같아서":8365,"▁ᄋᄀ":8366,"▁현황":8367,"▁글고":8368,"▁좋아서":8369,"▁들어가면":8370,"▁심장":8371,"▁삼진":8372,"스타일":8373,"거같긔":8374,"▁날이":8375,"▁막상":8376,"▁판단":8377,"▁준다":8378,"▁혼란":8379,"▁마지막으로":8380,"▁ᄏᄏᄏᄏᄏᄏᄏᄏᄏᄏᄏᄏᄏᄏᄏᄏᄏᄏ":8381,"▁키우는":8382,"▁섭종":8383,"▁오프닝":8384,"▁긴급":8385,"▁썩어":8386,"▁아마존":8387,"▁다행이다":8388,"▁보은왔어요":8389,"▁핸드폰":8390,"스토어":8391,"▁워싱턴":8392,"gain신곡홍보":8393,"ON":8394,"se":8395,"▁녀":8396,"▁년들":8397,"▁ᅳᅳᅳᅳᅳᅳᅳᅳ":8398,"개로":8399,"급은":8400,"나와서":8401,"돼서":8402,"떡상":8403,"떴다":8404,"리로":8405,"바닥":8406,"버튼":8407,"변경":8408,"세이":8409,"센트":8410,"스톤":8411,"아노":8412,"야하는데":8413,"였어":8414,"오고":8415,"위로":8416,"위에":8417,"전무":8418,"정상":8419,"찌개":8420,"타로":8421,"터진":8422,"판매":8423,"판은":8424,"펙트":8425,"▁안무":8426,"▁보물":8427,"▁보컬":8428,"▁시점":8429,"▁가는데":8430,"▁고양":8431,"▁일퀘":8432,"▁신수":8433,"▁해주라":8434,"▁공공":8435,"▁비호감":8436,"같은건":8437,"▁만나면":8438,"▁조사":8439,"▁상식":8440,"▁구멍":8441,"▁말하는거":8442,"▁김지":8443,"▁타령":8444,"▁몇살":8445,"▁토론":8446,"▁때마다":8447,"▁루피":8448,"▁시작한":8449,"▁과자":8450,"▁100만":8451,"▁싫은":8452,"▁15일":8453,"▁준지":8454,"▁'그":8455,"▁암굴":8456,"▁ᄒᄒᄒ":8457,"▁프로그램":8458,"▁TS":8459,"▁똑같":8460,"마갤]라라라라라":8461,"▁녹두":8462,"▁대단한":8463,"▁어려워":8464,"▁님덜":8465,"▁오프라인":8466,"▁찌찌":8467,"▁무서워":8468,"▁조선족":8469,"▁2020년":8470,"▁렌탈":8471,"▁마렵네":8472,"▁빠르게":8473,"▁단디왔쎄리":8474,"26":8475,"▁낸":8476,"날이":8477,"남이":8478,"디는":8479,"라에":8480,"라이트":8481,"럽네":8482,"리니까":8483,"베르":8484,"스도":8485,"왤케":8486,"일시":8487,"주세":8488,"주에":8489,"쯤에":8490,"취급":8491,"포스":8492,"▁이나":8493,"▁안팔":8494,"▁개선":8495,"▁한계":8496,"▁정액":8497,"▁없으니까":8498,"▁수갤":8499,"▁인원":8500,"▁아니라고":8501,"▁모션":8502,"▁소전":8503,"▁노말":8504,"▁알람":8505,"▁알고있":8506,"▁상렬":8507,"▁[영탁":8508,"▁선배":8509,"▁씨발년아":8510,"▁같냐?":8511,"▁쓰리":8512,"▁ᄌᄀ":8513,"▁드림":8514,"▁디지":8515,"▁뭔일":8516,"▁계란":8517,"▁700":8518,"▁초코":8519,"▁분들":8520,"▁봐야지":8521,"▁루트":8522,"▁약국":8523,"▁좋은듯":8524,"▁겨드랑이":8525,"▁200812":8526,"▁조용히":8527,"▁누군데":8528,"▁시나리오":8529,"▁호불호":8530,"od":8531,"▁@":8532,"공부":8533,"관왕":8534,"국지":8535,"대서":8536,"번트":8537,"베리":8538,"생긴":8539,"승우":8540,"싫다":8541,"쓰는데":8542,"아직":8543,"어려":8544,"을땐":8545,"캐는":8546,"크림":8547,"퇴근":8548,"픽업":8549,"햇네":8550,"했잖아":8551,"히네":8552,"▁아틀":8553,"▁아가리":8554,"▁어휴":8555,"▁오브":8556,"▁하체":8557,"▁가기":8558,"▁한강":8559,"▁수인":8560,"▁38":8561,"▁자위":8562,"▁아니노":8563,"▁고아":8564,"▁신의":8565,"▁생리":8566,"▁소감":8567,"▁소니":8568,"▁5명":8569,"▁5천원":8570,"▁많냐?":8571,"▁리액":8572,"▁코구":8573,"▁에러":8574,"▁먹어도":8575,"▁피셜":8576,"▁아이스크림":8577,"▁75":8578,"▁글리젠":8579,"▁데드":8580,"▁틀어":8581,"▁심리":8582,"▁필합":8583,"▁죽은":8584,"▁안되는거":8585,"▁염보가":8586,"▁컴터":8587,"▁LI":8588,"▁빼면":8589,"▁인기상":8590,"▁근황.jpg":8591,"▁될까":8592,"▁괴수":8593,"▁섭외":8594,"▁보스턴":8595,"▁채팅창":8596,"찬원마갤]":8597,"▁[강다니엘갤]":8598,"▁유희왕":8599,"▁조계현":8600,"+1":8601,"/16":8602,"28":8603,"ᄇᄅ":8604,"▁z":8605,"▁율":8606,"▁퀴":8607,"게퍼":8608,"능아":8609,"못해":8610,"뭐야":8611,"비싸":8612,"삼성":8613,"애비":8614,"오나":8615,"오브":8616,"위치":8617,"일기":8618,"잇는":8619,"주실":8620,"짤드컵":8621,"클리":8622,"플레":8623,"▁아름":8624,"▁나이트":8625,"▁오줌":8626,"▁보드":8627,"▁지수":8628,"▁시팔":8629,"▁한자":8630,"▁스키":8631,"▁스시녀":8632,"▁고스트":8633,"▁만두":8634,"▁방향":8635,"▁레어":8636,"▁레인":8637,"▁시발아":8638,"▁서포트":8639,"▁사람을":8640,"▁메가":8641,"▁토트넘":8642,"▁단점":8643,"▁페이트":8644,"해야됨":8645,"▁얼마에":8646,"▁까질":8647,"▁백퍼":8648,"▁태그":8649,"▁왔찬또":8650,"▁승급":8651,"어야함":8652,"▁별로임?":8653,"▁올려줘":8654,"▁ᄏᄏᄏᄏᄏᄏᄏᄏᄏᄏᄏᄏᄏᄏᄏᄏᄏᄏᄏᄏᄏᄏ":8655,"▁택배없는":8656,"▁생겼네":8657,"▁그렇지":8658,"▁양심고백":8659,"▁갱신":8660,"▁[키움히어로":8661,"ME":8662,"ke":8663,"ow":8664,"건가?":8665,"겠지만":8666,"돌려":8667,"련이":8668,"리면서":8669,"바르":8670,"사지":8671,"선물":8672,"시험":8673,"조각":8674,"지기":8675,"키워":8676,"티비":8677,"할건데":8678,"합격":8679,"▁안될":8680,"▁하향":8681,"▁한대":8682,"▁여돌":8683,"▁여사":8684,"▁기업":8685,"▁무관":8686,"▁자료":8687,"▁미우":8688,"▁전북":8689,"▁만날":8690,"▁요번":8691,"▁누굴":8692,"▁남녀":8693,"▁라고":8694,"▁서약":8695,"▁성욕":8696,"▁성희롱":8697,"▁세일":8698,"▁장식":8699,"▁박살":8700,"▁로쏘":8701,"▁로켓":8702,"붕이들은":8703,"▁불만":8704,"▁600":8705,"▁6개월":8706,"▁매번":8707,"▁의견":8708,"▁심해":8709,"▁갈라":8710,"▁날개":8711,"▁날라":8712,"▁백신":8713,"▁용선권":8714,"▁몰려":8715,"▁환영":8716,"▁왜이럼":8717,"▁시즌1":8718,"▁투표인증왔":8719,"▁궁금해서":8720,"▁푸보":8721,"▁콜라":8722,"▁마이크":8723,"▁아무리봐도":8724,"▁성공한":8725,"▁책임":8726,"▁맞는듯":8727,"▁라스칼":8728,"▁문코리타":8729,"5성":8730,"am":8731,"ᄌᄋ":8732,"▁록":8733,"나노":8734,"내면":8735,"넘게":8736,"도배":8737,"동호":8738,"물어":8739,"쓰는거":8740,"야한다":8741,"유입":8742,"을걸":8743,"있었는데":8744,"투스":8745,"파리":8746,"현준":8747,"▁이기는":8748,"▁아칼":8749,"▁나가면":8750,"▁하려고":8751,"▁보낸":8752,"▁지갑":8753,"▁시도":8754,"▁대답":8755,"▁대장":8756,"▁정은":8757,"▁없었":8758,"▁고다":8759,"▁일이":8760,"▁좆쥐":8761,"▁해피":8762,"▁못가":8763,"▁주지":8764,"▁거르":8765,"▁거임":8766,"▁상품":8767,"▁김혜":8768,"▁에밀":8769,"▁피파":8770,"▁살구":8771,"▁쓰냐?":8772,"▁쓰는게":8773,"▁로갓":8774,"▁아이콘":8775,"▁받았는데":8776,"▁초대":8777,"▁염퀴들":8778,"▁커리어":8779,"▁누구랑":8780,"▁누구누구":8781,"▁욕심":8782,"▁괜찮은거":8783,"▁윤도영":8784,"▁맨시티":8785,"▁찜이":8786,"▁폰으로":8787,"▁스타트":8788,"하고싶은데":8789,"▁살아남":8790,"▁코스프레":8791,"▁틀딱들":8792,".08":8793,"▁아마기":8794,"@@@@@@@@":8795,"▁[김호중":8796,"▁스피커":8797,"▁유명한":8798,"▁혈귀혼":8799,"▁거기서":8800,"▁예비군":8801,"NO":8802,"거는":8803,"구단":8804,"놓은":8805,"러블":8806,"살기":8807,"아파":8808,"안됨?":8809,"았다고":8810,"언급":8811,"의사":8812,"이런":8813,"인이유":8814,"있게":8815,"장으로":8816,"통이":8817,"할인":8818,"▁오네":8819,"▁다름":8820,"▁시비":8821,"▁진궁":8822,"▁2각":8823,"▁기인":8824,"▁미모":8825,"▁고졸":8826,"▁잘해":8827,"▁잘한다":8828,"▁우선":8829,"▁우흥":8830,"▁더워서":8831,"▁말까":8832,"▁돌고":8833,"▁ᄌ같네":8834,"▁치이":8835,"▁은비":8836,"▁똥칰":8837,"▁꼴리면":8838,"▁블레이드":8839,"▁허벌":8840,"▁학창":8841,"▁한번씩":8842,"▁명예":8843,"▁pve":8844,"▁at":8845,"▁랜선":8846,".36":8847,"________":8848,"▁공짜로":8849,"▁선착순":8850,"2는":8851,"3개":8852,":0":8853,"pc":8854,"라는거":8855,"력은":8856,"로마":8857,"루가":8858,"명의":8859,"밴드":8860,"부부":8861,"불러":8862,"브라":8863,"사제":8864,"새봄":8865,"색이":8866,"소서":8867,"수광":8868,"시드":8869,"어떻":8870,"없는게":8871,"오후":8872,"이요":8873,"잇는데":8874,"충인데":8875,"틀딱":8876,"프가":8877,"했음?":8878,"호환":8879,"▁어째":8880,"▁오피":8881,"▁진실":8882,"▁2분":8883,"▁수록":8884,"▁수리":8885,"▁존예":8886,"▁도현":8887,"▁4대":8888,"▁성배":8889,"▁생각함?":8890,"▁되지?":8891,"▁메일":8892,"▁동일":8893,"▁페북":8894,"▁새우":8895,"▁눈에":8896,"▁천천":8897,"▁뒤집":8898,"▁교통":8899,"▁엔터":8900,"▁쿠키":8901,"▁그러니까":8902,"▁쉬는":8903,"▁표절":8904,"하고싶어":8905,"▁옵치":8906,"▁됐는데":8907,"▁김태균":8908,"인줄알":8909,"▁20080":8910,"▁견적":8911,"아닌가":8912,"▁미안해":8913,"▁타이틀":8914,"▁씨발련아":8915,"▁맞추기":8916,"▁소개팅":8917,"▁게시판":8918,"▁수험생":8919,"ts":8920,"▁....":8921,"▁;;":8922,"겠냐?":8923,"고민":8924,"라타":8925,"먹었는데":8926,"메뉴":8927,"무대":8928,"받아서":8929,"보러":8930,"사에":8931,"성을":8932,"신고":8933,"아냐":8934,"열이":8935,"이동":8936,"인사":8937,"자수":8938,"주는게":8939,"진않":8940,"체결":8941,"카이":8942,"태그":8943,"티가":8944,"호사":8945,"▁이면":8946,"▁안대":8947,"▁그럴":8948,"▁사요":8949,"▁시후":8950,"▁가는거":8951,"▁마인드":8952,"▁자야지":8953,"▁일요일":8954,"▁전국":8955,"▁잘하면":8956,"▁주의":8957,"▁비해":8958,"▁요구":8959,"▁파괴":8960,"▁트라이":8961,"▁서머":8962,"▁버려":8963,"▁박스":8964,"▁로또":8965,"▁드라":8966,"▁니지":8967,"▁포토":8968,"▁8시":8969,"사람은":8970,"▁글을":8971,"▁작작":8972,"▁히오스":8973,"▁클라":8974,"▁열폭":8975,"▁건물":8976,"▁건보":8977,"▁백용환":8978,"▁아무거나":8979,"▁통일":8980,"▁접씨":8981,"▁폭발":8982,"▁왔습니다":8983,"▁슬로건":8984,"▁용서":8985,"▁올라왔":8986,"▁판타지":8987,"▁줄어":8988,"▁시간에":8989,"▁변기":8990,"▁mm":8991,"▁쥐)":8992,"▁3개월":8993,"▁미안한데":8994,"▁싸이코":8995,"▁거짓말":8996,"▁최용제":8997,"-5":8998,"노가":8999,"니어":9000,"단어":9001,"도전":9002,"듯?":9003,"무슨":9004,"세스":9005,"연애":9006,"은품":9007,"있었":9008,"전에서":9009,"클라":9010,"필독":9011,"▁이누":9012,"▁아키":9013,"▁안걸":9014,"▁안고":9015,"▁지현":9016,"▁가즈아":9017,"▁2억":9018,"▁개오":9019,"▁여왕":9020,"▁대세":9021,"▁고통":9022,"▁고딩때":9023,"▁저딴":9024,"▁모기":9025,"▁공중":9026,"▁생방":9027,"▁바꾼":9028,"▁바이스":9029,"▁부부":9030,"▁4일":9031,"▁파렉":9032,"▁문학":9033,"이네요":9034,"▁타팀":9035,"▁몇일":9036,"▁몇시에":9037,"▁후장":9038,"▁페르":9039,"▁얼마임?":9040,"▁돈을":9041,"▁블매":9042,"▁엘지":9043,"▁잠실":9044,"▁아닌지":9045,"▁놈들이":9046,"▁윤석":9047,"▁변화":9048,"▁SK":9049,"▁꺼지":9050,"▁낮은":9051,"▁하지말":9052,"▁육군":9053,"▁셀롯":9054,"▁칩)":9055,"▁아쉽네":9056,"▁배경화면":9057,"▁[이찬원마갤]":9058,"어떰?":9059,"▁오타쿠":9060,".13":9061,"ᄒᄐᄎ":9062,"▁둥":9063,"▁땐":9064,"▁립":9065,"거야?":9066,"것같아":9067,"국밥":9068,"디가":9069,"라드":9070,"라며":9071,"만루":9072,"먹지":9073,"무게":9074,"무사":9075,"불쌍":9076,"소가":9077,"습니까":9078,"엇음":9079,"오라":9080,"운지":9081,"이.":9082,"조작":9083,"징어":9084,"차가":9085,"치는데":9086,"함???":9087,"혁이":9088,"▁오승":9089,"▁사업":9090,"▁시급":9091,"▁있더라":9092,"▁여혐":9093,"▁정답":9094,"▁미나미":9095,"▁해석":9096,"▁못하면":9097,"▁더이상":9098,"▁구제":9099,"▁씨발년들아":9100,"▁되고":9101,"▁프듀":9102,"▁살빼":9103,"▁최후":9104,"▁로우":9105,"▁계좌":9106,"한거지":9107,"▁데바데":9108,"▁점령":9109,"▁98":9110,"▁달고":9111,"▁국힙":9112,"▁적어":9113,"▁히히":9114,"▁찍었다":9115,"▁건드":9116,"▁광대":9117,"▁벌어":9118,"▁힘드네":9119,"▁뿡모리즈":9120,"보니깐":9121,"▁체험":9122,"▁헤드":9123,"▁윤영삼":9124,"리스만":9125,"▁그런지":9126,"▁그림체":9127,"▁똑같이":9128,"▁잼민":9129,"▁부탁드립니다":9130,"▁세상에":9131,"▁메갈핌":9132,"마렵네":9133,"/8":9134,"700":9135,"▁림":9136,"김에":9137,"디스":9138,"란트":9139,"래도":9140,"리랑":9141,"무시":9142,"분간":9143,"뷰지":9144,"야...":9145,"에다":9146,"웹툰":9147,"저히":9148,"전까지":9149,"지냐?":9150,"해볼":9151,".....jpg":9152,"▁1점":9153,"▁하랜":9154,"▁하러":9155,"▁지배":9156,"▁시위":9157,"▁시조새":9158,"▁개노잼":9159,"▁좋겠네":9160,"▁유카":9161,"▁인구":9162,"▁고대":9163,"▁도서관":9164,"▁중간에":9165,"▁씨바":9166,"▁4만":9167,"▁많다":9168,"▁남성":9169,"▁리모":9170,"▁구조":9171,"▁서밋":9172,"▁얼음":9173,"▁세대":9174,"▁본적":9175,"▁발언":9176,"▁화이트":9177,"인가봐":9178,"▁갈수록":9179,"▁백호":9180,"▁모르겠네":9181,"▁광주":9182,"▁100만원":9183,"▁워이":9184,"▁놀랍":9185,"▁경기도":9186,"▁독립":9187,"▁175":9188,"▁TV":9189,"▁LG":9190,"▁빅히트":9191,"▁덕분에":9192,"하지않냐":9193,"▁어쩔수":9194,"요청)":9195,"▁크로아":9196,"▁열등감":9197,"▁덤디덤디":9198,"29":9199,"ᅳ발":9200,"근황":9201,"긴하다":9202,"나는거":9203,"는다고":9204,"렙인데":9205,"려금":9206,"리도":9207,"먹네":9208,"먹었다":9209,"몰이":9210,"미미":9211,"봤어":9212,"빡이":9213,"소울":9214,"아들":9215,"었긔":9216,"였냐?":9217,"욱이":9218,"치마":9219,"침?":9220,"코코":9221,"콜라":9222,"하겠지?":9223,"할땐":9224,"형들":9225,"히로":9226,"▁안올라":9227,"▁하필":9228,"▁지리네":9229,"▁진작":9230,"▁근로":9231,"▁대가":9232,"▁마시":9233,"▁수염":9234,"▁3.5":9235,"▁고우":9236,"▁저능아":9237,"▁잘하는거":9238,"▁주민":9239,"▁소녀":9240,"▁소마":9241,"▁우기":9242,"▁부계":9243,"▁조상":9244,"▁재계약":9245,"▁4명":9246,"▁[양준일갤]ROCKingRoll":9247,"▁코루":9248,"▁카르":9249,"▁에스":9250,"▁최적화":9251,"▁메린이":9252,"부터가":9253,"▁타라":9254,"▁않이":9255,"▁20년":9256,"▁들어갈":9257,"▁심판":9258,"▁당당":9259,"▁빠진":9260,"▁뽑은":9261,"▁넣고":9262,"▁프로듀":9263,"▁그러는데":9264,"▁푸엉":9265,"▁안나옴?":9266,"▁챔피언":9267,"▁봤다":9268,"▁색깔":9269,"▁dlc":9270,"▁압도":9271,"▁우울증":9272,"▁튀어":9273,"wwww":9274,"▁아쉬운":9275,"▁히로인":9276,"▁왔찬또(설X)":9277,"id":9278,"ig":9279,"ss":9280,"▁링":9281,"구야":9282,"는것도":9283,"댓글":9284,"랑은":9285,"럽다":9286,"마시":9287,"매수":9288,"미터":9289,"보이는":9290,"산다":9291,"시나":9292,"앞에서":9293,"와꾸":9294,"은상":9295,"인도":9296,"잔아":9297,"져야":9298,"좋은거":9299,"찍어":9300,"크가":9301,"페온":9302,"▁오를":9303,"▁안터":9304,"▁가정":9305,"▁개지랄":9306,"▁좋겠긔":9307,"▁31":9308,"▁고치":9309,"▁일간":9310,"▁알았음":9311,"▁56":9312,"▁43":9313,"▁44":9314,"▁추이":9315,"▁생각난":9316,"▁할수있":9317,"▁사람도":9318,"▁쓰기":9319,"▁박세":9320,"붕이들이":9321,"▁차별":9322,"▁64":9323,"▁입은":9324,"▁105":9325,"▁질투":9326,"▁망겜":9327,"▁특가":9328,"▁적자":9329,"나오는거":9330,"▁꼬홀":9331,"▁싫음":9332,"▁롤백":9333,"할때마다":9334,"▁컴으로":9335,"▁울와":9336,"---":9337,"▁ᅲᅲᅲᅲ":9338,"▁러브":9339,"▁안나왔":9340,"▁하는거임?":9341,"▁떠오":9342,"▁면상":9343,"▁꼬마가":9344,"▁있었음":9345,"만큼은":9346,"▁or":9347,"피셜)":9348,"▁불쌍한":9349,"아님??":9350,"▁승리하고":9351,"▁느끼는":9352,"줄알았는데":9353,"▁원영아":9354,"▁극장판":9355,"XIA":9356,"ᅵ발":9357,"갔으면":9358,"걸레":9359,"권은":9360,"권이":9361,"깨워":9362,"나온다":9363,"넘어":9364,"리얼":9365,"반응":9366,"백호":9367,"볼때":9368,"소는":9369,"수를":9370,"스택":9371,"악몽":9372,"았냐":9373,"여야":9374,"용병":9375,"우기":9376,"일로":9377,"키가":9378,"테이":9379,"팬들":9380,"하성":9381,"혈귀":9382,"▁이더":9383,"▁어이가":9384,"▁2시":9385,"▁개쳐":9386,"▁스워":9387,"▁내신":9388,"▁뭐해야":9389,"▁뭐냐고":9390,"▁좋을":9391,"▁수집":9392,"▁3인":9393,"▁미만":9394,"▁좆구":9395,"▁전개":9396,"▁해보고":9397,"▁비주얼":9398,"▁바거":9399,"▁라리가":9400,"▁성갤":9401,"▁먹는거":9402,"▁피씨":9403,"▁세나":9404,"▁같노":9405,"▁이제야":9406,"▁돌리면":9407,"▁타마":9408,"▁요즘도":9409,"▁입장에서":9410,"▁몇달":9411,"▁매우":9412,"▁하나로":9413,"▁크루":9414,"▁이런건":9415,"▁당한":9416,"▁삼전":9417,"▁삼겹살":9418,"▁플로":9419,"▁이상형":9420,"▁뽑으면":9421,"▁케이가":9422,"▁몰라서":9423,"▁좋은게":9424,"▁헬지":9425,"▁등급":9426,"▁130":9427,"▁나올까":9428,"▁나올듯":9429,"▁붙어":9430,"▁미쳤노":9431,"▁침대":9432,"▁나와야":9433,"▁떳냐?":9434,"▁몰랐는데":9435,"▁2.5주년":9436,"준수갤]":9437,"▁학창시절":9438,"TE":9439,"ed":9440,"같지":9441,"곳이":9442,"대통령":9443,"도못":9444,"떳다":9445,"먼저":9446,"민아":9447,"바꿔":9448,"반에":9449,"분이":9450,"어때":9451,"업뎃":9452,"에이":9453,"줄은":9454,"직원":9455,"타기":9456,"▁아미":9457,"▁오클":9458,"▁하고있":9459,"▁지듣노":9460,"▁진로":9461,"▁대중":9462,"▁인기가":9463,"▁잘하고":9464,"▁모름":9465,"▁씨팔":9466,"▁[10":9467,"▁남편":9468,"▁서새봄":9469,"▁김선":9470,"▁63":9471,"▁포르":9472,"한거냐?":9473,"▁후타":9474,"▁화난":9475,"▁당분간":9476,"▁ᄋᄋ..":9477,"▁볼수록":9478,"▁태양":9479,"▁임기":9480,"▁문제점":9481,"▁미친새끼":9482,"▁놈이":9483,"할거임":9484,"▁16강":9485,"▁징크스":9486,"▁NC":9487,"▁스카이":9488,"▁의미가":9489,"▁않았냐?":9490,"▁무섭다":9491,"▁퓨딜":9492,"마렵다":9493,"▁괴롭히":9494,"▁최악의":9495,"▁로스트아크":9496,"어떻게":9497,"//":9498,"ᄆᄒ":9499,"겜이":9500,"그려":9501,"논란":9502,"되어":9503,"드랍":9504,"릴듯":9505,"마넌":9506,"마음":9507,"먹음?":9508,"먹어서":9509,"복이":9510,"봐야지":9511,"비교":9512,"사로":9513,"설x":9514,"소리가":9515,"스케":9516,"신수":9517,"오가":9518,"적은":9519,"주택":9520,"짜피":9521,"쳤네":9522,"쳤다":9523,"친거":9524,"키니":9525,"탈출":9526,"토스":9527,"파이터":9528,"하십시오":9529,"▁나가서":9530,"▁1부":9531,"▁오디":9532,"▁오락":9533,"▁사은품":9534,"▁보냐":9535,"▁보냐?":9536,"▁지인":9537,"▁개나":9538,"▁개털":9539,"▁수박":9540,"▁미개":9541,"▁미체결":9542,"▁고2":9543,"▁일루":9544,"▁전직":9545,"▁못해서":9546,"▁주차":9547,"▁소신":9548,"▁[11":9549,"▁[문투":9550,"▁문화":9551,"▁김정":9552,"▁생각해도":9553,"▁실드":9554,"▁로드":9555,"▁85":9556,"▁크래":9557,"▁새봄":9558,"▁뉴비가":9559,"▁걸렸":9560,"▁넘모":9561,"▁누구냐?":9562,"▁음바페":9563,"▁풀발":9564,"gisa":9565,"▁갓성은":9566,"▁딱대":9567,"▁뒤졌":9568,"라이언":9569,"▁다른건":9570,"▁슬퍼":9571,"▁슬픈":9572,"▁헬린이":9573,"▁떴냐":9574,"▁확실한건":9575,"▁안나옴":9576,"▁휴지":9577,"▁쥬리":9578,"▁신기하네":9579,"이였네":9580,"▁유니크":9581,"▁않았냐":9582,"스밍인증왔":9583,"▁들어와봐":9584,"▁수사시":9585,"▁그립다":9586,"▁콤보":9587,"▁[라비던스마갤]라라라라라":9588,"▁여전히":9589,"36":9590,"he":9591,"가수":9592,"그럼":9593,"당이":9594,"라포엠":9595,"런트":9596,"리프":9597,"만명":9598,"무섭":9599,"받네":9600,"살아":9601,"설정":9602,"안하면":9603,"월에":9604,"트롯":9605,"티브":9606,"한점":9607,"함.":9608,"혀서":9609,"▁안뽑":9610,"▁안지":9611,"▁시외":9612,"▁개사기":9613,"에서만":9614,"▁대출":9615,"▁정연":9616,"▁정화":9617,"▁유마갤":9618,"▁무너":9619,"▁이거보고":9620,"▁공홈":9621,"▁비게퍼":9622,"▁야수":9623,"▁ᄅᄋ...":9624,"▁말은":9625,"▁카걸":9626,"▁버린":9627,"▁할듯":9628,"▁돌계":9629,"▁69":9630,"▁6천":9631,"한거같음":9632,"▁투명":9633,"▁크로스":9634,"▁네일":9635,"▁손자":9636,"▁국뽕":9637,"▁히든":9638,"▁금발":9639,"▁직구":9640,"▁노래가":9641,"라이온":9642,"▁창국":9643,"▁떴네":9644,"▁이쁘게":9645,"▁찬성":9646,"아아아":9647,"▁만들어서":9648,"애미들":9649,"▁웨이버":9650,"▁견제":9651,"▁칠플":9652,"▁어떠냐?":9653,"▁USD":9654,"▁이모티콘":9655,"▁[김준수갤]":9656,"▁XBT":9657,"중계.":9658,"▁ᄉᄉᄉᄉ":9659,"▁이태양":9660,"TXT":9661,"▁푸엉큼":9662,"ip":9663,"▁냐?":9664,"걸림?":9665,"게시":9666,"그마":9667,"넣고":9668,"니카":9669,"달에":9670,"마법":9671,"메오네":9672,"문고":9673,"복구":9674,"빨고":9675,"사스":9676,"살이":9677,"센세":9678,"숙씨":9679,"영은":9680,"원에":9681,"의지":9682,"칠이":9683,"키면":9684,"퍼가":9685,"하겠지":9686,"학년":9687,"▁이슈":9688,"▁이영":9689,"▁안돌":9690,"▁안하냐":9691,"▁하니":9692,"▁가야지":9693,"▁2인":9694,"▁개판":9695,"▁뭐해":9696,"▁인식":9697,"▁자라":9698,"▁전원":9699,"▁해제":9700,"▁소화":9701,"▁노블":9702,"▁재탕":9703,"▁라도":9704,"▁프린":9705,"▁할만한":9706,"▁본섭":9707,"▁발기":9708,"하다는":9709,"▁손목":9710,"▁질문)":9711,"▁재밌냐":9712,"▁양키":9713,"거같네":9714,"▁찍으면":9715,"▁모르는데":9716,"▁121.":9717,"▁일본은":9718,"라이더":9719,"▁편성":9720,"▁온냐":9721,"▁임시":9722,"▁쓸모":9723,"▁ᄂ짤":9724,"▁일러레":9725,"▁픽시브":9726,"▁빌런":9727,"▁흐름":9728,"▁미안하다":9729,"▁지방직":9730,"▁심심해서":9731,"▁아줌마들":9732,"▁오른쪽":9733,"프레임":9734,"▁웃음벨":9735,"맞추기":9736,"▁아탈란타":9737,"▁[NC다이노스갤러리]":9738,"▁신한류":9739,"/6":9740,"1발":9741,"ic":9742,"pn":9743,"pp":9744,"가치":9745,"끼는":9746,"데기":9747,"맞냐?":9748,"받는거":9749,"발이고":9750,"부턴":9751,"블락":9752,"사야":9753,"사장":9754,"소식":9755,"숭아":9756,"오는데":9757,"우진":9758,"의식":9759,"조가":9760,"충은":9761,"통합":9762,"파라":9763,"한남":9764,"할래":9765,"▁이다":9766,"▁아내":9767,"▁아머":9768,"▁아킬":9769,"..gif":9770,"▁어짜피":9771,"▁보셈":9772,"▁지박":9773,"▁개새끼들아":9774,"▁한게":9775,"▁한두":9776,"▁뭐든":9777,"▁기도":9778,"▁마니":9779,"▁마카":9780,"▁좋을까":9781,"▁3기":9782,"▁고르":9783,"▁못함?":9784,"▁주먹":9785,"▁주린이":9786,"▁노답":9787,"▁노수광":9788,"▁도감":9789,"▁알게":9790,"▁5번":9791,"▁5일":9792,"▁구성":9793,"▁말해":9794,"▁문신":9795,"▁성과":9796,"▁실험":9797,"▁타카":9798,"▁후려":9799,"▁그래프":9800,"▁확장":9801,"▁싶어서":9802,"▁위즈원":9803,"▁아직까지":9804,"▁날먹":9805,"▁루머":9806,"▁들을":9807,"▁115":9808,"▁다음에":9809,"▁폭사":9810,"▁검머":9811,"▁군인":9812,"▁머리색":9813,"▁정신차":9814,"▁찜은":9815,"▁재미가":9816,"▁이새끼들은":9817,"▁익숙":9818,"▁믿을":9819,"▁ᄏᄏᄏᄏᄏᄏᄏᄏᄏᄏᄏᄏᄏᄏᄏᄏᄏᄏᄏᄏ":9820,"▁행복회로":9821,"▁안나오네":9822,"▁어쩌다":9823,"▁쏘대장":9824,"▁에이텍":9825,"▁끌어":9826,"▁갈아타":9827,"▁축하해":9828,"▁밴드":9829,"▁팝콘":9830,"▁쪽팔":9831,"▁금지어":9832,"▁짐승":9833,"▁꾸준히":9834,"▁이준기":9835,"43":9836,"re":9837,"~!":9838,"가인":9839,"국에":9840,"내서":9841,"놓은거":9842,"다른":9843,"들에게":9844,"르가":9845,"뭐냐?":9846,"발라":9847,"버렸네":9848,"서는":9849,"시점":9850,"심이":9851,"애는":9852,"왓는데":9853,"유미":9854,"자면":9855,"족이":9856,"진혁":9857,"채팅":9858,"컴백":9859,"풍기":9860,"하길래":9861,"▁이시간에":9862,"▁아슬":9863,"▁안했":9864,"▁하라":9865,"▁가방":9866,"▁가위":9867,"▁개장":9868,"▁여스":9869,"▁내부":9870,"▁마츠":9871,"하는것도":9872,"▁3배":9873,"▁아니야?":9874,"▁고등학교":9875,"▁전세계":9876,"▁잘함":9877,"▁해주면":9878,"▁공대":9879,"▁공속":9880,"▁ᄅᄋ..":9881,"▁거냐":9882,"▁5시":9883,"▁5억":9884,"▁재업":9885,"▁머갈":9886,"▁코치":9887,"이라며":9888,"이라이트":9889,"▁본가":9890,"▁나오지":9891,"▁여자한테":9892,"▁화이팅":9893,"▁병신아":9894,"▁국야":9895,"!!!!!!!":9896,"▁두부":9897,"▁재밌는거":9898,"▁죽음":9899,"▁테마":9900,"▁12강":9901,"▁괜찮네":9902,"▁처음에":9903,"▁암살":9904,"▁뜨네":9905,"▁충무":9906,"<<<":9907,"▁좆망겜":9908,"거든?":9909,"▁211.36":9910,"▁천천히":9911,".@":9912,".12":9913,"2가":9914,"9강":9915,"is":9916,"ᄎᄎ":9917,"▁촌":9918,"거운":9919,"결정":9920,"나봄":9921,"됐노":9922,"드라마":9923,"뜨네":9924,"래서":9925,"량이":9926,"비티":9927,"상승":9928,"센스":9929,"소미":9930,"심?":9931,"안이":9932,"유동":9933,"인대":9934,"잡이":9935,"장려금":9936,"제성":9937,"중요":9938,"치노":9939,"팀은":9940,"▁1주일":9941,"▁안달":9942,"▁그걸":9943,"▁좋겠":9944,"▁좋았는데":9945,"▁좆기":9946,"▁신입":9947,"▁해적":9948,"▁모금":9949,"▁상장":9950,"▁[아이들":9951,"▁[엘롯연합]":9952,"▁머선":9953,"▁레카":9954,"▁맞고":9955,"▁솔직":9956,"▁ᄌ같":9957,"▁이유를":9958,"▁이유.txt":9959,"▁질질":9960,"하는거냐?":9961,"▁좋아해":9962,"▁새삼":9963,"▁들어간":9964,"▁건곤":9965,"▁떡인지":9966,"▁시작했는데":9967,"▁폭탄":9968,"▁검제":9969,"▁몰아":9970,"▁첫날":9971,"▁쓸만함?":9972,"▁철구는":9973,"이노?":9974,"▁AT":9975,"▁이새끼는":9976,"▁정상?":9977,"▁개좆같네":9978,"▁유니온":9979,"▁경원비":9980,"▁세계관":9981,"▁띵곡":9982,"▁멸치":9983,"이이이이":9984,"▁한동훈":9985,"이쁘네":9986,"▁스티커":9987,"▁소속사":9988,"▁컴디씨":9989,"▁유투브":9990,"▁사쿠라":9991,"▁녹두로":9992,"▁리모뜨":9993,"▁[문투][":9994,"8-":9995,"ᄒᄋ":9996,"가입":9997,"갤의":9998,"구니":9999,"급이":10000,"남친":10001,"누?":10002,"달소":10003,"당하면":10004,"당하고":10005,"리티":10006,"문이":10007,"상대로":10008,"색기":10009,"스팅":10010,"아빠":10011,"아침":10012,"여름":10013,"왜이":10014,"요...":10015,"이발":10016,"자총":10017,"지수":10018,"진구":10019,"질듯":10020,"태가":10021,"토끼":10022,"플러스":10023,"하며":10024,"▁이과":10025,"▁이하":10026,"▁아우":10027,"▁나간":10028,"▁나연":10029,"▁나이가":10030,"▁어나":10031,"▁1~":10032,"▁안주":10033,"▁하지만":10034,"▁2장":10035,"▁여법":10036,"▁내놓":10037,"▁기획":10038,"▁대처":10039,"▁오늘따라":10040,"▁좋게":10041,"▁좋겟다":10042,"▁없어?":10043,"▁수술":10044,"으로만":10045,"▁무근본":10046,"하는이유":10047,"▁고로":10048,"▁일일":10049,"▁공장":10050,"▁공기업":10051,"▁소원":10052,"▁46":10053,"▁원작":10054,"▁키작":10055,"▁배신":10056,"▁최신":10057,"▁이번화":10058,"▁입니다":10059,"▁어디감?":10060,"▁매장":10061,"▁병신겜":10062,"▁보고가라":10063,"▁막차":10064,"▁막타":10065,"▁베트":10066,"▁명품":10067,"▁문제임":10068,"▁올라가":10069,"▁쓸만한":10070,"▁ᄒᄃᄃ":10071,"▁17일":10072,"▁프리미":10073,"▁ᄇᄃ":10074,"▁벌써부터":10075,"▁논리":10076,"▁좌표":10077,"▁도와주세요":10078,"▁어렵다":10079,"▁칭호":10080,"▁홀로":10081,"▁세상에서":10082,"▁밴픽":10083,"▁다음주에":10084,"▁커여워":10085,"▁버즈라이브":10086,"▁왜이러냐":10087,"브이앱":10088,".real":10089,"OM":10090,"▁씀":10091,"▁앗":10092,"▁쟁":10093,"▁턴":10094,"▁txt":10095,"계란":10096,"교환":10097,"나만":10098,"너네":10099,"님의":10100,"들끼리":10101,"말은":10102,"메일":10103,"세가":10104,"소에서":10105,"시킬":10106,"애들아":10107,"지어":10108,"창모":10109,"파가":10110,"할텐데":10111,"해??":10112,"▁오가나":10113,"▁안치":10114,"▁안했는데":10115,"▁안하는데":10116,"▁사이드":10117,"▁시체":10118,"▁개시발":10119,"▁좆끼":10120,"▁전공":10121,"▁공산":10122,"▁바낸":10123,"▁도저히":10124,"▁지금이라도":10125,"▁5000":10126,"▁남음":10127,"▁구조선":10128,"▁얼평":10129,"▁배포":10130,"▁최저":10131,"▁ᄋᄇ":10132,"▁돌핀":10133,"▁입금":10134,"▁패는":10135,"▁계수":10136,"▁토츠":10137,"▁반고":10138,"▁은행":10139,"▁들어가는":10140,"▁싶었는데":10141,"▁필리":10142,"▁양아치":10143,"▁빠져":10144,"▁팔로우":10145,"▁볼수있":10146,"▁갓데":10147,"이냐고":10148,"▁찐특)":10149,"▁명작":10150,"▁문제는":10151,"▁P-0":10152,"▁정상인":10153,"이즈원":10154,"▁이기고":10155,"야되냐":10156,"▁느금마":10157,"▁전설이다":10158,"▁그렇다":10159,"▁쟤네":10160,"▁영웅이":10161,"▁하다하다":10162,"▁주변에":10163,"▁카스미":10164,"@.@":10165,"NT":10166,"mm":10167,"가져":10168,"개는":10169,"구라":10170,"기지":10171,"단독":10172,"대도":10173,"디비":10174,"려다가":10175,"르르":10176,"만도":10177,"맘들":10178,"뭐노":10179,"뮤직":10180,"분석":10181,"붕아":10182,"샀는데":10183,"상향":10184,"생들":10185,"성아":10186,"십다":10187,"올리":10188,"올림":10189,"입장":10190,"잇네":10191,"졸업":10192,"준거":10193,"진은":10194,"짜증":10195,"챔스":10196,"충전":10197,"충들이":10198,"프는":10199,"햇음":10200,"했다가":10201,"▁이노래":10202,"▁아메":10203,"▁어렸":10204,"▁어머":10205,"▁1대1":10206,"▁안됐":10207,"▁안해주":10208,"▁보이네":10209,"▁개재밌":10210,"▁정작":10211,"▁마차도":10212,"▁없잖아":10213,"▁없으니":10214,"▁무게":10215,"▁무선":10216,"▁자식":10217,"▁좆창":10218,"▁전략":10219,"▁해킹":10220,"▁존나많":10221,"▁제2":10222,"00억":10223,"▁비제이":10224,"▁소나":10225,"▁너만":10226,"▁바드":10227,"▁노출":10228,"▁도트":10229,"▁알루":10230,"▁상처":10231,"▁레고":10232,"▁남돌":10233,"▁말이야":10234,"▁영양":10235,"▁선녀":10236,"▁얼른":10237,"▁실검":10238,"▁세이브":10239,"▁메구":10240,"▁이제부터":10241,"▁이유로":10242,"▁차이나":10243,"▁니키":10244,"▁10강":10245,"하는거지":10246,"▁국대":10247,"는건가?":10248,"▁블래":10249,"▁누구임":10250,"▁꼬리":10251,"▁탈리스만":10252,"▁뽑았는데":10253,"▁창국이":10254,"▁몰빵":10255,"▁미친년":10256,"▁찾음":10257,"▁처음부터":10258,"▁너네는":10259,"▁퍼스트":10260,"▁T1":10261,"▁잘생김":10262,"▁표현":10263,"▁LCK":10264,"▁희귀":10265,"▁빌려":10266,"▁40분":10267,"▁센텀":10268,"▁웅장해":10269,"▁북미":10270,"ᄉᄇᄉᄇ":10271,"▁딴건":10272,"▁큐브":10273,"▁헌혈":10274,"▁거부합니다":10275,"▁기적의":10276,"보은왔어요(설x)":10277,"생축보은왔어요(설x)":10278,"▁여사친":10279,"(?":10280,",3":10281,"as":10282,"▁론":10283,"▁줌마":10284,"갑니다":10285,"되니까":10286,"딜러":10287,"렸노":10288,"렸음":10289,"로리":10290,"루토":10291,"린게":10292,"말이야":10293,"맞네":10294,"바는":10295,"박은":10296,"받은거":10297,"베가":10298,"부들":10299,"선은":10300,"세연":10301,"슬이":10302,"오니":10303,"왔킹롤":10304,"요.":10305,"원탑":10306,"의원":10307,"죽이":10308,"진지":10309,"질러":10310,"찍으면":10311,"키고":10312,"통피":10313,"페인":10314,"포수":10315,"학기":10316,"할만한":10317,"▁아쿠":10318,"▁나발이고":10319,"▁오열":10320,"▁안한":10321,"▁사석":10322,"▁사는데":10323,"▁지고":10324,"▁2던":10325,"▁개패":10326,"▁여유":10327,"▁기괴":10328,"▁없긔":10329,"▁없었으면":10330,"▁유부":10331,"▁유이":10332,"▁인가":10333,"▁저주":10334,"인데도":10335,"▁비행":10336,"▁생기면":10337,"▁4천":10338,"▁강아지":10339,"▁본체":10340,"▁61":10341,"▁받아서":10342,"▁받았다":10343,"▁ᄉᄇᄏᄏ":10344,"하는거야?":10345,"▁발리":10346,"▁하나같이":10347,"▁크레":10348,"▁얘들":10349,"인가보네":10350,"▁ᄋᄋᄋ":10351,"▁집단":10352,"▁날조":10353,"▁음반":10354,"▁볼때":10355,"▁접는다":10356,"▁교정":10357,"하나요?":10358,"▁일본인":10359,"▁맛집":10360,"▁암컷":10361,"▁러스트":10362,"▁pdf":10363,"▁필요가":10364,"▁답이":10365,"▁웅이":10366,"▁나와라":10367,"????????????????":10368,"▁몬가":10369,"####":10370,"▁탱커":10371,"▁국가직":10372,"▁평소에":10373,"▁핑까좀":10374,"리버드":10375,"▁피갤집":10376,"▁1,2":10377,"gain신곡홍보왔킹롤":10378,"TS":10379,"ol":10380,"▁는다":10381,"거품":10382,"고사":10383,"까봐":10384,"다이":10385,"루나":10386,"르트":10387,"마일":10388,"만으로":10389,"모리":10390,"모집":10391,"복귀":10392,"봉이":10393,"소년":10394,"시마":10395,"싶다":10396,"오지":10397,"인큐":10398,"자체가":10399,"준식":10400,"찍은":10401,"트니":10402,"픈데":10403,"▁이도":10404,"▁하도":10405,"▁스파이":10406,"▁뭐니":10407,"▁뭐있음?":10408,"▁오늘이":10409,"▁마핸":10410,"▁유산":10411,"▁존경":10412,"▁3억":10413,"▁자막":10414,"▁미소녀":10415,"▁저평가":10416,"▁제국":10417,"▁알겠다":10418,"▁와라":10419,"▁코옵":10420,"▁카라":10421,"▁씨발아":10422,"▁버스터":10423,"▁실수로":10424,"▁배기":10425,"▁사람인데":10426,"▁씹소":10427,"▁씹타":10428,"▁815":10429,"▁망토":10430,"▁단일":10431,"▁외식":10432,"▁까고":10433,"▁꼬우면":10434,"▁떡이":10435,"▁백인":10436,"▁합리":10437,"▁팬미":10438,"▁체크":10439,"▁찾는":10440,"▁행동":10441,"▁회식":10442,"▁몸에":10443,"▁엘마일러":10444,"▁ᄏᄏᄏᄏᄏᄏᄏᄏᄏᄏᄏᄏᄏᄏᄏᄏᄏᄏᄏᄏᄏᄏᄏᄏᄏ":10445,"▁봊연갤":10446,"▁증명":10447,"▁닉언":10448,"▁신기함":10449,"▁nc":10450,"▁저녁에":10451,"▁어렵네":10452,"▁한달에":10453,"▁갖다":10454,"▁힐링":10455,"▁쟤는":10456,"▁협동":10457,"▁보이는데":10458,"하하하하":10459,"▁스위칭":10460,"▁킨드":10461,"▁스페셜":10462,"▁맘마통":10463,"▁[정동원":10464,"▁패러디":10465,"▁리액션":10466,"ᄉᄑ":10467,"갔노":10468,"같애":10469,"경험":10470,"계속":10471,"기기":10472,"났어":10473,"놓으면":10474,"대상":10475,"루스":10476,"먹어도":10477,"부심":10478,"비율":10479,"석은":10480,"시지":10481,"실화":10482,"쓰네":10483,"이언":10484,"자지":10485,"향이":10486,"▁어릴":10487,"▁어벤":10488,"▁어음?":10489,"▁1호":10490,"▁안아":10491,"▁사복":10492,"▁사울":10493,"▁보유":10494,"▁지를":10495,"▁시드":10496,"▁시티":10497,"▁가이":10498,"▁있어요":10499,"▁있나요":10500,"▁개돼지":10501,"▁여프리":10502,"▁무지":10503,"하는듯":10504,"▁고1":10505,"▁저희":10506,"▁못이":10507,"▁주가":10508,"▁공단기":10509,"같은게":10510,"▁노란":10511,"▁알파":10512,"▁상하":10513,"▁남았는데":10514,"▁서번트":10515,"▁난투":10516,"▁박병":10517,"▁박준":10518,"▁로제":10519,"이라니까":10520,"▁포트":10521,"▁느악몽":10522,"▁받는다":10523,"▁글에":10524,"▁두달":10525,"▁복습":10526,"▁특수":10527,"▁하는법":10528,"▁뽑고":10529,"▁허벅지":10530,"▁엔젤":10531,"▁꾹은":10532,"▁맛이":10533,"▁맛있는":10534,"▁환경":10535,"▁환장":10536,"▁해야겠다":10537,"▁앞머리":10538,"▁안나온":10539,"▁낫냐?":10540,">>>":10541,"▁높아":10542,"▁ᄏᄏᄏᄏᄏᄏᄏᄏᄏᄏᄏᄏᄏᄏᄏᄏᄏᄏᄏᄏᄏ":10543,"▁ᄏᄏᄏᄏᄏᄏᄏᄏᄏᄏᄏᄏᄏᄏᄏᄏᄏᄏᄏᄏᄏᄏᄏᄏᄏᄏᄏᄏᄏᄏ":10544,"▁템렙":10545,"▁릴리":10546,"시키고":10547,"▁댕라":10548,"이란게":10549,"▁어떡하냐":10550,"▁다르게":10551,"▁브리검":10552,"▁넷플릭스":10553,"▁택배없는날":10554,".스":10555,"ID":10556,"bo":10557,"et":10558,"if":10559,"▁땜에":10560,"갈비":10561,"거가":10562,"곳?":10563,"극기":10564,"기록":10565,"난이도":10566,"도로":10567,"도환":10568,"먹어야":10569,"모으":10570,"보인다":10571,"분의":10572,"속성":10573,"수술":10574,"았긔":10575,"었음?":10576,"였던":10577,"오노":10578,"웠던":10579,"점대":10580,"제품":10581,"졌음":10582,"진핑":10583,"창년들":10584,"치게":10585,"팔고":10586,"▁이씨발":10587,"▁아..":10588,"▁어른":10589,"▁1주년":10590,"▁안다":10591,"▁보호":10592,"▁지는":10593,"▁지잡":10594,"▁진혈귀":10595,"▁뭐함?":10596,"▁없나?":10597,"▁자원":10598,"▁일기":10599,"▁해금":10600,"▁모임":10601,"▁공백":10602,"▁비디디":10603,"▁노리":10604,"▁만만":10605,"▁부들":10606,"▁5만":10607,"▁중딩":10608,"▁4만원":10609,"▁리치":10610,"▁파일":10611,"▁트롯":10612,"▁시발ᄏᄏ":10613,"고싶으면":10614,"▁할머니":10615,"▁박수":10616,"▁드리블":10617,"▁강정호":10618,"한거임":10619,"▁역할":10620,"▁병신새끼":10621,"▁귀속":10622,"▁삼각":10623,"▁삼국지":10624,"▁했어":10625,"▁봐주라":10626,"▁루페온":10627,"▁운빨":10628,"▁딱봐도":10629,"▁쳐다":10630,"▁출석":10631,"▁명함":10632,"▁팬아트":10633,"▁써서":10634,"▁컨트롤":10635,"가능성":10636,"▁레전드다":10637,"▁흑흑":10638,"▁암만":10639,"▁청밥":10640,"할거같은데":10641,"▁표지":10642,"▁떨어진":10643,"▁괴담":10644,"▁빅텍":10645,"▁앱등이":10646,"▁밤새":10647,"▁싸우는":10648,"▁싸우면":10649,"사랑해":10650,"▁바꾸면":10651,"▁하이반":10652,"스러워":10653,"▁박정민":10654,"▁한동숙":10655,"▁힙합":10656,"▁품번":10657,"▁역겹네":10658,"▁치즈루":10659,"▁아지르":10660,"▁충분히":10661,"▁메카닉":10662,"▁조센징":10663,"▁네임드":10664,"▁근로장려금":10665,"/2":10666,"YP":10667,"ᄑᄋᄌ":10668,"▁튼":10669,"▁!!":10670,"감성":10671,"걸린":10672,"경우":10673,"군아":10674,"글자":10675,"두면":10676,"루트":10677,"먹을까":10678,"모자":10679,"무는":10680,"무유":10681,"받아야":10682,"버는":10683,"봤네":10684,"성형":10685,"세끼":10686,"승이":10687,"시트":10688,"어제":10689,"에스":10690,"연패":10691,"였구나":10692,"위권":10693,"이세":10694,"일거":10695,"있냐??":10696,"차별":10697,"추행":10698,"충들은":10699,"터짐":10700,"파워":10701,"파크":10702,"▁아버지":10703,"▁나네":10704,"▁나은거":10705,"▁오퍼":10706,"▁안감":10707,"▁안쓰는":10708,"▁시메오네":10709,"▁근처":10710,"▁스스로":10711,"▁여주":10712,"▁뭐냐??":10713,"▁마네":10714,"▁좋긴":10715,"▁좋던데":10716,"▁유미":10717,"▁인물":10718,"▁고전":10719,"▁일행":10720,"▁신용":10721,"▁못본":10722,"▁너는":10723,"▁바텀":10724,"▁노부기":10725,"▁조지":10726,"▁와타":10727,"▁많았":10728,"▁영통":10729,"▁김동":10730,"▁추첨":10731,"고싶노":10732,"▁세컨":10733,"▁할사람":10734,"▁최상":10735,"▁메뉴":10736,"▁아이린":10737,"▁디자":10738,"▁글쓴":10739,"▁의문":10740,"▁브론":10741,"▁때는":10742,"▁어케함":10743,"▁히하":10744,"▁싸울":10745,"▁무슨일":10746,"▁백합":10747,"▁한국어":10748,"▁한국은":10749,"▁교행":10750,"▁월클":10751,"▁팬들":10752,"▁써본":10753,"고있음":10754,"▁몸무게":10755,"▁없는듯":10756,"▁그만하고":10757,"▁별로임":10758,"하자고":10759,"▁유튜브에":10760,"▁극한":10761,"▁죄이":10762,"▁t1":10763,"▁사기꾼":10764,"▁이러고":10765,"▁케이팝":10766,"▁ᄋᄌ?":10767,"▁ntr":10768,"▁잦스틴":10769,"▁불쌍해":10770,"시키면":10771,"그래도":10772,"스럽게":10773,"▁아빠가":10774,"▁이승현":10775,"▁구독자":10776,"▁컴디시":10777,"▁글로벌":10778,".fact":10779,"PL":10780,"YA":10781,"ver":10782,"ᄋᄉ":10783,"긴다":10784,"나??":10785,"댐??":10786,"렸으면":10787,"맞지":10788,"모션":10789,"반고":10790,"반도":10791,"버리는":10792,"상대":10793,"서가":10794,"실에서":10795,"쓰냐?":10796,"역겹":10797,"왓다":10798,"요미":10799,"유튜브":10800,"음이":10801,"이하":10802,"임ᄏᄏ":10803,"전설":10804,"티스":10805,"혜원":10806,"활동":10807,"▁이로":10808,"▁아포":10809,"▁어어":10810,"▁안할":10811,"▁하려면":10812,"▁그지":10813,"는거?":10814,"▁있노?":10815,"▁개그":10816,"▁한마리":10817,"▁수원":10818,"▁전반":10819,"▁잘만":10820,"▁잘나가":10821,"▁조립":10822,"▁요미":10823,"▁중딩때":10824,"▁재난":10825,"▁누르":10826,"▁[공지":10827,"▁[단독":10828,"▁구원":10829,"▁연동":10830,"▁경치":10831,"▁배워":10832,"▁같애":10833,"▁할매":10834,"▁강지":10835,"▁뭔소리":10836,"▁역갤":10837,"▁호텔":10838,"▁단타":10839,"▁좋아?":10840,"▁때가":10841,"▁물리":10842,"▁친한":10843,"▁복수":10844,"▁특전":10845,"▁갈까":10846,"ᄏᄏᄏᄏᄏᄏᄏᄏᄏᄏᄏᄏᄏᄏᄏᄏᄏᄏᄏᄏᄏᄏᄏᄏᄏᄏᄏᄏ":10847,"▁찍는":10848,"▁홍이형":10849,"▁좆같아":10850,"▁팩질":10851,"▁봉퀴들":10852,"▁궁금해":10853,"된거임?":10854,"ine":10855,"▁있다면":10856,"▁이쁜거":10857,"▁옆집":10858,"▁웨딩":10859,"▁긴장":10860,"▁뮤직":10861,"▁도움좀":10862,"오오오오":10863,"▁어울리는":10864,"▁이쯤되면":10865,"▁귀신같이":10866,"▁인프피":10867,"▁투표인증왔XIA":10868,"▁[단독]":10869,"VE":10870,"ᄀᄂ":10871,"▁롬":10872,"▁들이":10873,"▁놓고":10874,"▁줌?":10875,"갖고":10876,"것보다":10877,"겼는데":10878,"괜찮":10879,"긴데":10880,"놈의":10881,"돌림":10882,"되게":10883,"되는게":10884,"마니":10885,"사무":10886,"살에":10887,"예상":10888,"작권":10889,"잖어":10890,"졌냐":10891,"집회":10892,"참기":10893,"창기":10894,"커엽":10895,"트레이드":10896,"행시":10897,"▁이악":10898,"▁나처럼":10899,"▁사인":10900,"▁사촌":10901,"▁지르":10902,"는거보면":10903,"▁가보":10904,"▁개잡":10905,"▁유전":10906,"▁해방":10907,"▁너의":10908,"▁야리":10909,"▁부담":10910,"▁부유":10911,"▁4위":10912,"▁리즈":10913,"▁코노":10914,"▁라는":10915,"▁김대":10916,"▁성현준":10917,"▁생각을":10918,"▁에미":10919,"▁먹을거":10920,"▁살다":10921,"▁메르":10922,"▁메이드":10923,"▁타는":10924,"▁타입":10925,"▁포스":10926,"▁포틀":10927,"▁않아":10928,"스트라":10929,"▁치트":10930,"▁망했":10931,"▁망했다":10932,"▁망했네":10933,"▁계승":10934,"▁후원":10935,"▁우리나":10936,"한다는데":10937,"▁달리":10938,"▁위기":10939,"▁필승":10940,"▁이상함":10941,"▁볼넷":10942,"▁직전":10943,"▁ᄀᄋ":10944,"▁ᄀᄀᄀᄀᄀ":10945,"▁응지":10946,"하나만":10947,"▁참가":10948,"▁창렬":10949,"▁괜찮음?":10950,"▁산책":10951,"▁놀아":10952,"▁푸르":10953,"▁만들기":10954,"▁돼?":10955,"▁느낌임":10956,"▁as":10957,"▁사이즈":10958,"▁붙여":10959,"~~~~~":10960,"▁개좆같은":10961,"▁증가":10962,"마갤]I":10963,"▁현실에서":10964,"▁몬헌":10965,"▁직업이":10966,"▁릴리아":10967,"여친갤]":10968,"▁아쉽다":10969,"▁델핀":10970,"▁완벽한":10971,"▁프라이드":10972,"▁테일즈":10973,"▁아칼리":10974,"▁충무공":10975,"Again신곡홍보왔킹롤":10976,"BO":10977,"ro":10978,"공장":10979,"군이":10980,"노..":10981,"담회":10982,"도그":10983,"마귀":10984,"마저":10985,"망이":10986,"머냐":10987,"먹었네":10988,"서스":10989,"성애":10990,"승엽":10991,"야짤":10992,"에바":10993,"왜안":10994,"요즘":10995,"이건":10996,"이익":10997,"인점":10998,"일본":10999,"재기":11000,"존버":11001,"주식":11002,"줬음":11003,"치냐":11004,"크업":11005,"투자":11006,"팡이":11007,"▁이시간":11008,"▁아시":11009,"▁어비스":11010,"▁1:1":11011,"▁안믿":11012,"▁안하네":11013,"▁하차":11014,"▁사상":11015,"▁보성이":11016,"▁지표":11017,"▁있긔":11018,"▁있습니다":11019,"▁개새끼야":11020,"▁한방":11021,"▁스튜":11022,"▁기름":11023,"▁기여":11024,"▁대머리":11025,"▁유도":11026,"▁3주년":11027,"▁인종":11028,"▁자극":11029,"▁고화질":11030,"▁해봄":11031,"▁모솔":11032,"▁노짱":11033,"▁41":11034,"▁남주":11035,"▁리젠":11036,"▁키ᅳᅳᅳᅳᅳᅳᅳᅳ":11037,"▁배그":11038,"▁예술":11039,"▁드루":11040,"▁불꽃":11041,"▁입덕":11042,"▁발롱":11043,"▁좋아하는데":11044,"▁외노":11045,"▁외전":11046,"▁티나":11047,"▁위에":11048,"▁날짜":11049,"▁건데":11050,"▁ᄀ?":11051,"▁쳐내":11052,"▁겜은":11053,"▁합니다":11054,"▁슬로스":11055,"수있음":11056,"▁찐팬":11057,"고있다":11058,"▁종료":11059,"▁혼다":11060,"▁해야함?":11061,"겠지??":11062,"▁정도는":11063,"▁떠나":11064,"▁떠나서":11065,"▁ᄏᄏᄏᄏᄏᄏᄏᄏᄏᄏᄏᄏᄏᄏᄏᄏᄏᄏᄏᄏᄏᄏᄏ":11066,"▁탑승":11067,"▁끼고":11068,"▁퇴근길":11069,"피셜]":11070,"▁대기열":11071,"▁징징대":11072,"▁수도권":11073,"▁좆이돌":11074,"▁필리핀":11075,"77":11076,"8월":11077,"AY":11078,"▁린이":11079,"가게":11080,"나인":11081,"날에":11082,"녀들":11083,"단은":11084,"듀오":11085,"떠서":11086,"럭스":11087,"모아":11088,"못하는":11089,"버티":11090,"보석":11091,"상현":11092,"스워":11093,"을수":11094,"이던":11095,"이서":11096,"인걸":11097,"잇어":11098,"재는":11099,"저미":11100,"쪽으로":11101,"찾아":11102,"최고":11103,"팬덤":11104,"풀어":11105,"하트":11106,"행복":11107,"▁이즈":11108,"▁이사람":11109,"▁아패":11110,"▁1달":11111,"▁1화":11112,"▁다저스":11113,"▁마다":11114,"▁마앰":11115,"▁수지":11116,"▁자야":11117,"▁신호":11118,"▁잘뽑":11119,"▁잘안":11120,"▁모를":11121,"▁생산":11122,"▁올만에":11123,"▁부끄러":11124,"▁알트":11125,"▁방덱":11126,"▁방문":11127,"▁레일리":11128,"▁말한":11129,"▁연어":11130,"▁먹는데":11131,"▁예나":11132,"▁예장":11133,"▁쓰냐":11134,"▁박고":11135,"▁로딩":11136,"▁강제로":11137,"▁초돌":11138,"▁손님":11139,"▁새기":11140,"▁들어가서":11141,"▁가능??":11142,"▁관중":11143,"▁눈빛":11144,"▁볼거":11145,"▁통과":11146,"▁통화":11147,"▁갑옷":11148,"▁터지면":11149,"▁123":11150,"▁학식":11151,"▁슬라":11152,"수있냐":11153,"▁일러가":11154,"▁애니화":11155,"▁식극":11156,"▁휴식":11157,"▁앚퀴들":11158,"▁어떰??":11159,"▁붙으면":11160,"▁낮방":11161,"▁닉변":11162,"▁엑스":11163,"▁일어나서":11164,"▁go":11165,"▁븝미":11166,"▁캡틴":11167,"▁모두가":11168,"▁엘리트":11169,"▁거부합니다.":11170,"▁어떨까":11171,"▁부러워":11172,"▁어지간":11173,"▁단톡방":11174,"▁트리플":11175,"▁오재일":11176,"▁어카냐":11177,"▁나혼산":11178,"▁[이찬원마갤]올스타":11179,"bs":11180,"hz":11181,"▁셉":11182,"가냐?":11183,"강의":11184,"개씩":11185,"관이":11186,"구장":11187,"기계":11188,"기는데":11189,"내내":11190,"들면":11191,"러들":11192,"리온":11193,"만장":11194,"말에":11195,"먼트":11196,"블루":11197,"사나":11198,"상수":11199,"야스":11200,"여기":11201,"요약":11202,"있는게":11203,"자본":11204,"저격":11205,"전환":11206,"줄까":11207,"퀘스트":11208,"타라":11209,"포함":11210,"하든":11211,"혜리":11212,"▁이우":11213,"▁사자":11214,"▁시대가":11215,"▁진영":11216,"▁뭐하노":11217,"▁정령":11218,"▁3각":11219,"▁자르":11220,"▁자취":11221,"▁아니냐??":11222,"▁못깨":11223,"▁소형":11224,"▁거슬":11225,"▁거절":11226,"▁도끼":11227,"▁남들":11228,"▁파이어":11229,"▁김유":11230,"▁맞나":11231,"▁에코":11232,"▁먹기":11233,"▁할만함?":11234,"▁최원":11235,"▁드레드":11236,"▁이번에도":11237,"▁10연차":11238,"▁나오노":11239,"▁84":11240,"▁받은거":11241,"▁반복":11242,"▁호빠":11243,"한다면":11244,"▁여기도":11245,"▁심하네":11246,"▁위로":11247,"▁특정":11248,"▁죽이고":11249,"거같냐?":11250,"▁봐서":11251,"▁별론":11252,"▁누가이":11253,"▁뒤지게":11254,"▁터짐":11255,"▁교수":11256,"구나..":11257,"▁과천":11258,"▁명단":11259,"▁판정":11260,"▁같은데?":11261,"▁엠붕이":11262,"▁잇음?":11263,"▁짱구":11264,"▁술사":11265,"▁옛날엔":11266,"▁핵심":11267,"▁데려와":11268,"▁앰뒤":11269,"▁섭스":11270,"▁바이크":11271,"하지않음?":11272,"▁무섭네":11273,"▁앙망":11274,"▁전투력":11275,"▁ᄉᄉᄉᄉᄉᄉᄉᄉᄉ":11276,"▁앤비":11277,"▁왜저러":11278,"▁자체는":11279,"▁즈그":11280,"▁[강다니엘]":11281,"▁김종인":11282,"▁223.3":11283,"▁김선빈":11284,"/0":11285,"2YA":11286,"MI":11287,"ew":11288,"hat":11289,"ᄊᄉᄐᄎ":11290,"▁났":11291,"▁벅":11292,"▁져":11293,"군요":11294,"굿즈":11295,"기랑":11296,"끝나":11297,"끼면":11298,"너비":11299,"네가":11300,"다는게":11301,"달린":11302,"라클":11303,"로남":11304,"마도":11305,"만함":11306,"맞다":11307,"문화":11308,"본데":11309,"세상":11310,"시피":11311,"시환":11312,"시는데":11313,"신캐":11314,"쓰리":11315,"아씨":11316,"왔으면":11317,"울트라":11318,"중이다":11319,"축제":11320,"코치":11321,"타입":11322,"텐도":11323,"하여":11324,"한것":11325,"혼자":11326,"▁이대":11327,"▁아델":11328,"▁아파":11329,"▁나주":11330,"▁어색":11331,"▁오오":11332,"▁안보고":11333,"▁안했으면":11334,"▁하...":11335,"▁보냈":11336,"▁지리":11337,"▁지면":11338,"▁시기":11339,"▁시킨":11340,"▁2일":11341,"▁한심":11342,"▁정권":11343,"▁3점":11344,"▁인겜":11345,"▁소주":11346,"▁야무":11347,"▁올린다":11348,"▁요정":11349,"▁중앙":11350,"▁많노":11351,"▁리스":11352,"▁서특":11353,"▁김강":11354,"▁김수":11355,"▁성지":11356,"보다도":11357,"▁에프":11358,"▁버크":11359,"▁할거면":11360,"▁아이언":11361,"▁10연":11362,"▁글러":11363,"▁점유":11364,"▁우리동네":11365,"▁브랜드":11366,"▁이런게":11367,"▁물약":11368,"▁당황":11369,"더라도":11370,"나오고":11371,"▁누구야":11372,"▁갓직히":11373,"▁통신":11374,"▁시작하면":11375,"▁접은":11376,"▁터트":11377,"▁엄지":11378,"▁울갤":11379,"▁아닌가?":11380,"▁올라옴":11381,"▁미친거":11382,"가능함?":11383,"▁젤다":11384,"▁지랄하는":11385,"▁ᄊᄒᄐᄎ":11386,"▁엠창":11387,"▁식단":11388,"▁서울시":11389,"▁앚은":11390,"▁AI":11391,"▁믿어":11392,"▁될듯":11393,"▁ᄏᄏᄏᄏᄏᄏᄏᄏᄏᄏᄏᄏᄏᄏᄏᄏᄏᄏᄏᄏᄏᄏᄏᄏᄏᄏᄏ":11394,"▁라인전":11395,"▁bb":11396,"▁KT":11397,"▁엑시":11398,"▁줘패":11399,"▁퇴근하고":11400,"▁숨겨":11401,"▁정보글":11402,"▁득점":11403,"▁응원봉":11404,"▁연습)":11405,"▁작가가":11406,"▁깡통":11407,"▁일베충":11408,"▁배고프":11409,"ᄋᄋᄋᄋᄋᄋᄋᄋ":11410,"▁각인석":11411,"▁생존자":11412,"▁원정대":11413,"▁비하인드":11414,"▁공통점":11415,"▁스마트폰":11416,"▁소신발언":11417,"300":11418,"MA":11419,"OO":11420,"te":11421,"~4":11422,"ᄀᄏᄏ":11423,"▁냈":11424,"▁임?":11425,"과학":11426,"극혐":11427,"기는거":11428,"내기":11429,"내일":11430,"니들":11431,"던지":11432,"동화":11433,"라미":11434,"마나":11435,"만한거":11436,"받음?":11437,"사기네":11438,"생은":11439,"서도":11440,"수지":11441,"오바":11442,"왕굴":11443,"위해":11444,"으려나":11445,"이해":11446,"인의":11447,"재일":11448,"적용":11449,"지혁":11450,"집에":11451,"쪽은":11452,"창녀":11453,"카락":11454,"캐리":11455,"터는":11456,"테니":11457,"투리":11458,"하길":11459,"하드":11460,"하겠습니다":11461,"한태":11462,"할려고":11463,"했던거":11464,"혁명":11465,"확인":11466,"▁이혼":11467,"▁아...":11468,"▁나두":11469,"▁나같은":11470,"▁1라":11471,"▁오마":11472,"▁안티":11473,"▁진출":11474,"▁개쓰레기":11475,"▁뭐여":11476,"▁기차":11477,"▁대해서":11478,"▁정석":11479,"▁마비":11480,"▁마을":11481,"▁마인":11482,"▁좋노":11483,"▁없었는데":11484,"▁수입":11485,"▁유치":11486,"▁좆사기":11487,"▁좆냥이":11488,"▁해봐":11489,"▁모여":11490,"▁못들어":11491,"▁바스":11492,"▁만큼":11493,"▁도입":11494,"▁도태":11495,"▁방종":11496,"▁누비":11497,"▁[여친갤]":11498,"▁많으면":11499,"▁리부":11500,"▁구창모":11501,"▁코이":11502,"▁성태":11503,"▁맞으면":11504,"▁먹이":11505,"▁경찬이":11506,"▁장사":11507,"▁타율":11508,"▁동갑":11509,"▁동의":11510,"▁어디다":11511,"▁망할":11512,"▁매매":11513,"▁뉴욕":11514,"▁크퀘":11515,"▁2018":11516,"▁화려":11517,"▁페이스":11518,"▁꼴려":11519,"▁적은":11520,"▁죽으면":11521,"▁평화":11522,"▁설문":11523,"▁했었는데":11524,"▁민폐":11525,"▁잡는":11526,"▁갑주":11527,"▁던져":11528,"▁테넷":11529,"▁테이":11530,"▁테크":11531,"▁뒤로":11532,"▁온콘":11533,"▁뿡이":11534,"▁채보":11535,"▁하루만에":11536,"▁헬퍼":11537,"▁좆같아서":11538,"▁얼굴에":11539,"▁ᅲᅲᅲᅲᅲᅲ":11540,"▁해야함":11541,"▁일러는":11542,"139":11543,"▁밥먹고":11544,"▁우승하면":11545,"▁떨어질":11546,"▁찬양":11547,"▁떠려니":11548,"▁mc":11549,"▁없음??":11550,"▁듣보":11551,"▁염보성은":11552,"▁행복한":11553,"▁빵빵":11554,"▁어쩌구":11555,"▁스포)":11556,"▁주딱이":11557,"시키는":11558,"▁FA":11559,"▁시청률":11560,"▁비틱질":11561,"▁농담":11562,"▁예전엔":11563,"▁주인공이":11564,"▁어디갔냐":11565,"▁윈도우":11566,"cm)":11567,"▁[오피셜]":11568,"▁렌탈여친":11569,"중계.cm)":11570,"Again신곡홍보왔킹롤(설첫)":11571,":30":11572,"yp":11573,"ᄇᄃ":11574,"가루":11575,"개념":11576,"걸리":11577,"경은":11578,"노우":11579,"뉴스":11580,"담배":11581,"된다고":11582,"등장":11583,"디아":11584,"렸어":11585,"머임?":11586,"무비":11587,"미니":11588,"받기":11589,"받았":11590,"발이":11591,"버렸다":11592,"법이":11593,"사용":11594,"세실":11595,"수의":11596,"슬롯":11597,"슴?":11598,"오래":11599,"으응":11600,"이긔?":11601,"장갑":11602,"저거":11603,"점심":11604,"주작":11605,"찍음":11606,"쳤는데":11607,"커플":11608,"테러":11609,"한놈":11610,"▁오시":11611,"▁오탈":11612,"▁안까":11613,"▁안한다":11614,"▁안받아":11615,"▁하이라이트":11616,"▁그녀":11617,"▁사생":11618,"▁사탄":11619,"▁보험":11620,"▁지루":11621,"▁2회":11622,"▁개야":11623,"▁스폰":11624,"▁인다":11625,"▁인텔":11626,"▁인게임":11627,"▁미지":11628,"▁미스터":11629,"▁못하는거":11630,"▁제구":11631,"▁제보":11632,"▁제품":11633,"▁생명":11634,"▁방방":11635,"▁재판":11636,"▁4분":11637,"▁남겨":11638,"▁리마":11639,"▁구토":11640,"▁트롤":11641,"▁말라고":11642,"▁성추행":11643,"▁에리":11644,"▁실체":11645,"▁되겠네":11646,"▁프붕이":11647,"▁로마":11648,"▁6년":11649,"▁포장":11650,"▁10일":11651,"▁어디임?":11652,"▁따잇":11653,"▁작화":11654,"는건지":11655,"▁필드":11656,"▁당하는":11657,"▁재밌냐?":11658,"▁특히":11659,"▁적이":11660,"▁플라":11661,"▁클퍼":11662,"▁누가더":11663,"▁약점":11664,"▁천지":11665,"▁길거리":11666,"▁검찰":11667,"을때마다":11668,"▁1500":11669,"▁어떤거":11670,"▁궁금하네":11671,"▁식당":11672,"▁떨어지는":11673,"▁항로":11674,"▁됐네":11675,"▁이쁜데":11676,"▁줘도":11677,"▁숨참":11678,"▁낙관":11679,"▁어떡함?":11680,"▁롯데리아":11681,"▁닭가슴":11682,"▁자러간다":11683,"▁키워야":11684,"▁조금만":11685,"▁배고파":11686,"▁시발련아":11687,"▁you":11688,"▁에반데":11689,"▁끔찍":11690,")설쉬":11691,"▁지박귀":11692,"()":11693,"31":11694,"CT":11695,"ch":11696,"가봐":11697,"공주":11698,"귀찮":11699,"금은":11700,"길태":11701,"꺼임":11702,"노무":11703,"당해서":11704,"도라":11705,"두는":11706,"라벨":11707,"리즘":11708,"링이":11709,"브리":11710,"사태":11711,"설명":11712,"설어":11713,"속보)":11714,"신인":11715,"악세":11716,"앞에":11717,"없긔":11718,"었습니다":11719,"으려":11720,"이죠":11721,"이더라":11722,"인디":11723,"인거같음":11724,"중일":11725,"줬다":11726,"지르":11727,"지는게":11728,"키울":11729,"합방":11730,"형님들":11731,"히고":11732,"▁아디":11733,"▁아리":11734,"▁1순위":11735,"▁오블락":11736,"▁그리는":11737,"▁다를":11738,"▁보시긔":11739,"▁가운데":11740,"▁진성":11741,"▁220":11742,"▁뭐하고":11743,"▁저작권":11744,"▁모아서":11745,"▁소문":11746,"▁노동":11747,"▁노모":11748,"▁알았네":11749,"▁언노":11750,"▁리리":11751,"▁라모스":11752,"▁말인데":11753,"▁서재":11754,"▁에임":11755,"▁얼리버드":11756,"▁버는":11757,"▁프사":11758,"▁키케":11759,"▁메소":11760,"▁솔킬":11761,"▁불싸개":11762,"▁차은":11763,"▁타구":11764,"스트로":11765,"▁망전":11766,"▁망이니":11767,"시간이":11768,"▁반등":11769,"▁반고닉":11770,"▁빨라":11771,"▁따지면":11772,"▁위해서":11773,"▁어케됨":11774,"▁양현":11775,"▁엘시":11776,"▁플매":11777,"▁까면":11778,"▁까는거":11779,"▁까이는":11780,"ᄏᄏᄏᄏᄏᄏᄏᄏᄏᄏᄏᄏᄏᄏᄏᄏᄏᄏᄏ":11781,"ᄏᄏᄏᄏᄏᄏᄏᄏᄏᄏᄏᄏᄏᄏᄏᄏᄏᄏᄏᄏᄏᄏᄏᄏᄏᄏ":11782,"▁풀돌":11783,"▁건의":11784,"▁건축":11785,"▁들었는데":11786,"▁갓파":11787,"▁쳐발":11788,"▁온도":11789,"▁염보는":11790,"▁용돈":11791,"▁채워":11792,"▁종교":11793,"▁갤주는":11794,"▁왜이럼?":11795,"▁빡대가리":11796,"▁나올거":11797,"할거야":11798,"▁복귀유저":11799,"~~~~~~":11800,"▁핵쟁이":11801,"▁잔나비":11802,"▁행복해":11803,"▁안나오는":11804,"▁무료로":11805,"▁감독이":11806,"▁에이티":11807,"▁중고로":11808,"▁냉정":11809,"▁팝니다":11810,"것같애":11811,"스럽다":11812,"▁팡이":11813,"▁시발련들아":11814,"ᅥᅥᅥᅥ":11815,"▁이성규":11816,"▁럭키":11817,"드려요":11818,"▁프랑스":11819,"▁글고보니":11820,"▁김혜성":11821,"▁에밀리아":11822,"▁[라비던스마갤]라라라라라생축보은왔어요(설x)":11823,"▁이악물고":11824,".14":11825,"ap":11826,"강이":11827,"같으면":11828,"겟어":11829,"겨?":11830,"느니":11831,"니지":11832,"맛이":11833,"문회":11834,"바란":11835,"보험":11836,"빨아":11837,"샤이":11838,"성능":11839,"성배":11840,"성적":11841,"소바":11842,"십니까":11843,"역사":11844,"있을":11845,"자를":11846,"쟁이들":11847,"좆같네":11848,"좋냐":11849,"주시긔":11850,"총)":11851,"캐시":11852,"하시긔":11853,"한국":11854,"할걸":11855,"해보자":11856,"혜자":11857,"혹한":11858,"▁이새낀":11859,"▁나승엽":11860,"▁안심":11861,"▁보는게":11862,"▁보이면":11863,"▁스모":11864,"▁여우":11865,"▁내리":11866,"▁내친구":11867,"▁기품":11868,"▁오늘만":11869,"▁수행":11870,"▁미네":11871,"▁미트":11872,"▁고집":11873,"▁좆방":11874,"▁신상":11875,"▁전여친":11876,"▁해줬으면":11877,"▁못하는데":11878,"▁소워":11879,"▁조롱":11880,"▁중경":11881,"▁남는":11882,"▁남의":11883,"▁리사":11884,"▁원조":11885,"▁성골":11886,"▁연아":11887,"▁경고":11888,"▁버튜버":11889,"▁게이들":11890,"▁되나?":11891,"▁세실":11892,"▁살사람":11893,"▁배치":11894,"▁돌리고":11895,"▁타로":11896,"▁동기":11897,"▁않나?":11898,"▁패작":11899,"▁받아야":11900,"▁어디냐":11901,"▁감염":11902,"▁매직":11903,"▁투어":11904,"▁데비":11905,"▁역체":11906,"▁하나가":11907,"▁결말":11908,"▁96":11909,"▁은거":11910,"▁단챠":11911,"▁눈깔":11912,"▁죽는":11913,"▁간담회":11914,"▁팔아야":11915,"▁찍었는데":11916,"▁싸가지":11917,"▁뽑는":11918,"▁갓오":11919,"▁시작하는":11920,"▁던갤":11921,"▁길게":11922,"▁뒤에서":11923,"▁125":11924,"▁힘내":11925,"▁100퍼":11926,"▁팬싸":11927,"▁헤헤":11928,"▁첫방축하":11929,"▁삐는":11930,"▁궁금한데":11931,"▁슈스":11932,"▁사랑의":11933,"▁144":11934,"▁꾸역":11935,"▁꺼내":11936,"▁고민되네":11937,"▁봊초":11938,"▁샤샤":11939,"▁멀리":11940,"▁맥북":11941,"▁슼갈":11942,"▁by":11943,"▁흥갤":11944,"▁억지로":11945,"▁댕댕":11946,"▁딴거":11947,"▁상위권":11948,"▁닥치고":11949,"▁갤럼들":11950,"▁탱크":11951,"▁[김요한":11952,"▁사냥터":11953,"▁텐션":11954,"▁JYP":11955,"▁스케줄":11956,"▁무사만루":11957,"▁말복쿠폰":11958,"귀엽네":11959,"▁비트던파":11960,"첫방축하왔":11961,"▁아킬레":11962,"▁[정동원]":11963,".m":11964,"/10":11965,"fc":11966,"xx":11967,"▁랍":11968,"가로":11969,"같음?":11970,"걸고":11971,"겨도":11972,"계는":11973,"나가서":11974,"대의":11975,"데이터":11976,"롭게":11977,"류가":11978,"명호":11979,"모양":11980,"미남":11981,"방어":11982,"빌런":11983,"선거":11984,"수급":11985,"싸우":11986,"아무":11987,"연장":11988,"오른":11989,"외과":11990,"웠음":11991,"윤이":11992,"의엘롯":11993,"전부터":11994,"좆망":11995,"틀드":11996,"하내":11997,"하실":11998,"한명":11999,"함ᄏᄏ":12000,"해요?":12001,"▁이갤":12002,"▁이루":12003,"▁이주":12004,"▁오이":12005,"▁안바":12006,"▁안부":12007,"▁사직":12008,"▁다양":12009,"▁다르네":12010,"▁지나가":12011,"▁시상":12012,"▁가네":12013,"▁스플":12014,"▁무제한":12015,"하는새끼들":12016,"▁3장":12017,"▁3카":12018,"▁3만원":12019,"▁일케":12020,"▁좆리":12021,"▁좆같은데":12022,"▁잘했다":12023,"▁애쉬":12024,"▁우정":12025,"▁만남":12026,"▁만나서":12027,"▁거야":12028,"▁부매":12029,"▁조공":12030,"▁조아라":12031,"▁조노블":12032,"▁중학교":12033,"▁상의":12034,"▁남았네":12035,"▁파엠":12036,"▁영구":12037,"▁성약":12038,"▁카레":12039,"▁생각하냐":12040,"▁실북":12041,"▁실전":12042,"▁되니까":12043,"▁키운":12044,"▁키타":12045,"▁배가":12046,"▁최지":12047,"▁쓰알":12048,"▁돌이":12049,"▁강백호":12050,"▁씹새":12051,"▁디아":12052,"▁10%":12053,"▁치과":12054,"▁치호":12055,"▁계신":12056,"한거같은데":12057,"▁후배":12058,"▁언제나":12059,"▁화보":12060,"▁외퀴들":12061,"▁짤은":12062,"▁꼴리네":12063,"▁심한":12064,"▁위닝":12065,"▁복학":12066,"▁관적으로":12067,"▁집안":12068,"나오는데":12069,"▁어제부터":12070,"▁방송은":12071,"▁방송에서":12072,"▁백화":12073,"▁아무튼":12074,"▁117.":12075,"▁시작함":12076,"려고하는데":12077,"▁베라":12078,"▁광역":12079,"▁벌금":12080,"▁힘이":12081,"▁헬갤":12082,"▁종이":12083,"▁뜨는거":12084,"▁올려도":12085,"▁큰거":12086,"▁인생이":12087,"▁떨어지면":12088,"▁고닉들":12089,"▁왕관":12090,"▁mb":12091,"▁멀린":12092,"▁군대에서":12093,"▁떳냐":12094,"▁미래가":12095,"▁가져옴":12096,"▁웃기노":12097,"▁ᄅᄅ":12098,"▁ᄅᄌᄃ":12099,"메이션":12100,"▁짝사랑":12101,"나온거":12102,"▁길태견":12103,"▁하스스톤":12104,"▁나스만":12105,"▁나쁘지":12106,"▁ᄑᄐᄎ?":12107,"▁무적권":12108,"이후로":12109,"블랙핑크":12110,"▁[김호중]":12111,"65":12112,"COM":12113,"IN":12114,"nd":12115,"ᄉᄀ":12116,"▁냄":12117,"거너":12118,"계획":12119,"교체":12120,"까요":12121,"다닐":12122,"대표":12123,"더블":12124,"든데":12125,"만의":12126,"만보면":12127,"맞냐":12128,"목)":12129,"받이":12130,"상점":12131,"셉션":12132,"소속":12133,"스랑":12134,"아닐":12135,"아버지":12136,"야하는":12137,"우드":12138,"운이":12139,"움짤":12140,"위는":12141,"의자":12142,"있던데":12143,"자노":12144,"자르":12145,"조차":12146,"좋노":12147,"주나":12148,"준다고":12149,"준다.":12150,"지니까":12151,"차에":12152,"창들":12153,"처넌":12154,"카오":12155,"한정":12156,"해조":12157,"햇어":12158,"홍어":12159,"효율":12160,"후반":12161,"▁아리사":12162,"▁나보고":12163,"▁1초":12164,"▁오해":12165,"▁안죽":12166,"▁안하냐?":12167,"▁그랜":12168,"▁보플":12169,"▁시아님":12170,"▁2페":12171,"▁2~3":12172,"▁정책":12173,"▁존내":12174,"▁인젤":12175,"▁인지":12176,"▁자는":12177,"▁고덕":12178,"▁전술":12179,"▁못뽑":12180,"▁못하게":12181,"▁주네":12182,"▁비정상":12183,"▁너도":12184,"▁만한":12185,"▁거리는":12186,"▁5강":12187,"▁상폐":12188,"▁누르면":12189,"들이나":12190,"▁많이나":12191,"▁영의":12192,"▁김하성":12193,"▁선거":12194,"▁에디션":12195,"▁프갤":12196,"▁박민":12197,"....gif":12198,"▁씹새끼":12199,"▁받는거":12200,"▁감상":12201,"▁매드":12202,"▁반일":12203,"▁여자애":12204,"▁단또":12205,"▁똥퍼":12206,"▁얘도":12207,"▁손이":12208,"▁좋아하는거":12209,"▁커트":12210,"▁병신이":12211,"▁달라고":12212,"▁심야":12213,"▁돈도":12214,"▁죽어도":12215,"▁집빌":12216,"▁히크":12217,"▁플티":12218,"레이션":12219,"지마셈":12220,"▁머리카락":12221,"▁ᄂᄋᄌ":12222,"▁철구야":12223,"하기로":12224,"▁팀에":12225,"▁빡치네":12226,"▁취직":12227,"▁딸치":12228,"▁잇는":12229,"▁자기전에":12230,"▁꾸레":12231,"▁인기많":12232,"▁top":12233,"▁이러다":12234,"▁택시":12235,"▁웅앰":12236,"▁옵변":12237,"야되나":12238,"▁관련해서":12239,"▁BJ":12240,"▁여름에":12241,"▁학교에서":12242,"▁완전히":12243,"▁인싸촌":12244,"▁닥쳐":12245,"▁얍얍이":12246,"▁루시드":12247,"ith":12248,"▁베트남":12249,"▁닭가슴살":12250,"97.":12251,"wa":12252,"ᅩᅩ":12253,"▁]":12254,"▁샷":12255,"가고싶다":12256,"갑자기":12257,"골드":12258,"구에":12259,"국은":12260,"길이":12261,"끝나면":12262,"녀랑":12263,"다다":12264,"뜨는":12265,"만남":12266,"무가":12267,"밤에":12268,"버릴":12269,"범죄":12270,"선언":12271,"셔서":12272,"수련":12273,"실드":12274,"안돼":12275,"안함?":12276,"았나":12277,"야샤":12278,"억경":12279,"엇어":12280,"올때":12281,"요리":12282,"이여":12283,"잡는":12284,"재가":12285,"저나":12286,"전문":12287,"좆같은":12288,"주제":12289,"질은":12290,"창이":12291,"코트":12292,"클릭":12293,"통수":12294,"하구나":12295,"홍이":12296,"화문":12297,"▁이네":12298,"▁이럼":12299,"▁아씨":12300,"▁하브":12301,"▁그와중에":12302,"▁보낼":12303,"▁왜그러":12304,"▁개못":12305,"▁개좋네":12306,"▁한장":12307,"▁한참":12308,"▁뭐뽑":12309,"▁마망":12310,"▁마요":12311,"▁좋겠는데":12312,"▁수수":12313,"▁수붕이":12314,"▁수즈나":12315,"▁유령":12316,"▁자궁":12317,"▁미적":12318,"▁저정도면":12319,"▁전범":12320,"▁해볼까":12321,"▁주요":12322,"▁주사위":12323,"▁공카":12324,"▁애교":12325,"▁노는":12326,"▁부대":12327,"▁중붕이들":12328,"▁[블랙핑크":12329,"▁레비아":12330,"▁영뽑":12331,"▁김현":12332,"▁카즈":12333,"▁너무한거":12334,"▁세력":12335,"▁세이버":12336,"▁배윤":12337,"▁할말":12338,"▁로시":12339,"▁ᄌᄉ":12340,"▁불가":12341,"▁68":12342,"▁입에":12343,"▁몇분":12344,"▁패악질":12345,"▁치료":12346,"▁토갤":12347,"▁20퍼":12348,"▁화나":12349,"▁물량":12350,"▁질문있":12351,"▁분위":12352,"▁분데스":12353,"▁내일도":12354,"▁집값":12355,"▁엘소드":12356,"▁넘어서":12357,"▁금강":12358,"▁봐봐":12359,"▁누가봐도":12360,"▁찍었":12361,"▁꼬접":12362,"지않나?":12363,"▁안되지":12364,"▁막내":12365,"▁속이":12366,"▁태국":12367,"▁검거":12368,"▁과락":12369,"▁참피":12370,"▁슬림":12371,"▁애들도":12372,"▁남자들":12373,"▁군지":12374,"▁악몽":12375,"할때는":12376,"▁환생":12377,"인거임?":12378,"▁밀봉":12379,"▁선수가":12380,"▁잇냐":12381,"▁TNO":12382,"▁그림자":12383,"▁고민상담":12384,"▁좆같은게":12385,"투표인증왔":12386,"▁신기해":12387,"▁키우면":12388,"▁문재인이":12389,"▁류지혁":12390,"▁떳는데":12391,"▁트로피":12392,"▁숙소":12393,"아이콘":12394,"▁레이저":12395,"▁갤러들":12396,"▁폐지":12397,"▁뽀뽀":12398,"▁쿨감":12399,"▁생긴거":12400,"▁조심해라":12401,"승리의엘롯":12402,"▁개쩌네":12403,"▁신나린":12404,"▁ᄌᄀ[":12405,"▁LIME":12406,"▁[키움히어로즈갤]":12407,"▁오승환":12408,"스밍인증왔대호":12409,"▁브론즈":12410,"97.COM":12411,"▁[블랙핑크]":12412,"▁LIME97.COM":12413,"88":12414,"ns":12415,"~5":12416,"▁값":12417,"▁렬":12418,"가든":12419,"가야지":12420,"각개":12421,"나랑":12422,"남음":12423,"내놔":12424,"동희":12425,"라.":12426,"렉션":12427,"려했는데":12428,"리스타":12429,"바가":12430,"배달":12431,"병욱":12432,"보낸":12433,"빌딩":12434,"사망":12435,"생명":12436,"쓸때":12437,"안해도":12438,"오픈":12439,"인기":12440,"있다고":12441,"잡아":12442,"장난":12443,"전투":12444,"정부":12445,"톡스":12446,"표정":12447,"한건데":12448,"할려면":12449,"훈련":12450,"히히":12451,"▁이는":12452,"▁안젤":12453,"▁다만":12454,"▁지타":12455,"▁시아":12456,"▁2회차":12457,"▁개똥":12458,"▁개빻":12459,"▁근접":12460,"▁내내":12461,"▁내는":12462,"▁마누":12463,"▁마약":12464,"▁무상":12465,"▁무식":12466,"▁3주":12467,"▁자총":12468,"▁미워":12469,"▁미주":12470,"▁고려":12471,"▁일뽕":12472,"▁신이":12473,"▁잘한거":12474,"▁잘하는데":12475,"▁잘하노":12476,"▁해놓고":12477,"▁주장":12478,"▁바네":12479,"▁노루":12480,"▁야심한":12481,"▁만나고":12482,"▁ᄅᄋ로":12483,"▁올리는거":12484,"▁레지":12485,"▁언론":12486,"▁리고":12487,"▁구걸":12488,"▁라피스":12489,"▁김채원":12490,"▁생각하고":12491,"▁생각나는":12492,"고싶긔":12493,"▁먹으러":12494,"▁배팅":12495,"▁장작":12496,"▁박으면":12497,"▁로보":12498,"▁62":12499,"▁글카":12500,"▁언제임?":12501,"▁단판":12502,"이야??":12503,"▁똥견":12504,"▁어케해야":12505,"▁어케하냐":12506,"▁뉴비는":12507,"▁양학":12508,"▁히짱":12509,"▁게임을":12510,"▁클립":12511,"▁클리드":12512,"▁민초":12513,"▁통수":12514,"▁한국이":12515,"▁테섭":12516,"▁터진거":12517,"▁태고":12518,"▁폭염":12519,"▁왔네":12520,"▁편하게":12521,"을때가":12522,"씨발씨발":12523,"▁헤메":12524,"해주라":12525,"▁라이벌":12526,"▁회수":12527,"▁너네가":12528,"▁돌아온":12529,"▁se":12530,"▁그만좀":12531,"▁올려치기":12532,"▁딸배":12533,"▁낫네":12534,"▁휴방":12535,"▁로아는":12536,"▁만화가":12537,"▁믿는":12538,"▁<->":12539,"▁ᄏᄏᄏᄏᄏᄏᄏᄏᄏᄏᄏᄏᄏᄏᄏᄏᄏᄏᄏᄏᄏᄏᄏᄏᄏᄏᄏᄏᄏᄏᄏᄏᄏᄏᄏᄏ":12540,"▁늘려":12541,"▁육수":12542,"하긴함":12543,"▁70렙":12544,"▁페미니":12545,"▁릴카":12546,"▁끌고":12547,"▁폐급":12548,"▁저새끼는":12549,"▁예쁘다":12550,"▁못하겠다":12551,"▁못하겠네":12552,"▁이상화는":12553,"▁주문하신":12554,"▁빙고":12555,"▁180석":12556,"▁이시각":12557,"▁유투버":12558,"▁가르쳐":12559,"▁꼬라박":12560,"▁프로듀서":12561,"게시판":12562,"로남불":12563,"-10":12564,"75":12565,"es":12566,"ᄆᄀ":12567,"개발":12568,"것이":12569,"공은":12570,"관심":12571,"그렇게":12572,"근육":12573,"노...":12574,"다?":12575,"다님":12576,"돌파":12577,"등학생":12578,"리트":12579,"마핸":12580,"만드는":12581,"맥스":12582,"미리":12583,"바디":12584,"부지":12585,"비비":12586,"산이":12587,"살인데":12588,"아래":12589,"안나":12590,"안하는":12591,"았지":12592,"옆에":12593,"왔노":12594,"이뻐":12595,"이쁜":12596,"인터":12597,"임...":12598,"입은":12599,"있어야":12600,"자들이":12601,"장을":12602,"주문":12603,"짓을":12604,"취소":12605,"코디":12606,"코로":12607,"토막":12608,"파스타":12609,"편임?":12610,"피해":12611,"하긔?":12612,"현은":12613,"화장":12614,"힘?":12615,"▁아껴":12616,"▁아돌":12617,"▁아린":12618,"▁나비":12619,"▁어냐":12620,"▁1승":12621,"▁안풀":12622,"▁하여":12623,"▁그제":12624,"▁사태":12625,"▁보1":12626,"▁보급":12627,"▁지겹":12628,"▁한패":12629,"▁없을까":12630,"▁없었음":12631,"▁인권":12632,"▁좆된":12633,"▁신세계":12634,"▁해?":12635,"▁이거는":12636,"▁비겁":12637,"▁비키니":12638,"▁노인":12639,"▁노근본":12640,"▁부비":12641,"▁알렉":12642,"▁5판":12643,"▁구려":12644,"▁파라":12645,"▁라방":12646,"▁키커":12647,"▁쓰레":12648,"▁ᄌ망":12649,"▁씹노잼":12650,"▁현식이":12651,"▁패시브":12652,"▁망구":12653,"▁글은":12654,"▁후유":12655,"▁915":12656,"▁빨갱":12657,"▁2021":12658,"▁네크":12659,"▁손에":12660,"▁좋아하면":12661,"▁새키":12662,"▁짤.jpg":12663,"▁귀빨":12664,"▁당시":12665,"▁적정":12666,"▁적어도":12667,"▁터치":12668,"(설총)":12669,"▁허도환":12670,"▁합법":12671,"▁괜찮지":12672,"▁2007":12673,"▁알려주라":12674,"▁알려드림":12675,"▁깨고":12676,"▁sp":12677,"▁ps":12678,"▁식이":12679,"▁안나와":12680,"▁댓글로":12681,"이었던":12682,"▁폰겜":12683,"▁익절":12684,"▁ᄏᄏᄏᄏᄏᄏᄏᄏᄏᄏᄏᄏᄏᄏᄏᄏᄏᄏᄏᄏᄏᄏᄏᄏᄏᄏᄏᄏᄏᄏᄏᄏᄏᄏᄏ":12685,"▁신기한게":12686,"▁비교하면":12687,"야되는거":12688,"▁기다리는":12689,"▁헐리":12690,"▁수비비":12691,"▁린제":12692,"는중인데":12693,"▁쌍수":12694,"▁확률이":12695,"▁무서움":12696,"▁무서워서":12697,"▁바꾸고":12698,"▁기본소득":12699,"▁붕어":12700,"▁신경쓰":12701,"▁ᄃᄃᄃᄃᄃᄃᄃᄃᄃᄃ":12702,"▁ᄃᄃᄃᄃᄃᄃᄃᄃᄃᄃᄃᄃᄃᄃ":12703,"▁rpg":12704,"▁아르마다":12705,"▁도시락":12706,"▁안타깝":12707,"▁룸빵":12708,"▁개꼴리네":12709,"▁단체로":12710,"▁카운트":12711,"▁어린슈":12712,"▁워녕이":12713,"▁강원도":12714,"▁밖에서":12715,"▁클래식":12716,"▁[포레스텔라]":12717,"▁나봉쓰":12718,"▁방구석":12719,"▁여중생":12720,"▁추방자":12721,"▁[양준일갤]ROCKingRollAgain신곡홍보왔킹롤(설첫)":12722,"▁박병호":12723,"EA":12724,"ᄃᄀ":12725,"▁ᅡ":12726,"▁????":12727,"가오":12728,"곡이":12729,"공략":12730,"노예":12731,"덕에":12732,"덕이":12733,"될지":12734,"등록":12735,"란거":12736,"러워":12737,"리셋":12738,"만해":12739,"만하지":12740,"민갤]":12741,"번에":12742,"살때":12743,"살인":12744,"살짝":12745,"소개":12746,"실에":12747,"씨가":12748,"야..":12749,"없으니까":12750,"예쁘":12751,"오아":12752,"오토":12753,"워드":12754,"원정":12755,"유지":12756,"저녁":12757,"짤은":12758,"충격":12759,"크기":12760,"티넘":12761,"폴드":12762,"하겠노":12763,"하거나":12764,"했을":12765,"했습니다":12766,"했어요":12767,"회에":12768,"▁이가":12769,"▁이김":12770,"▁이불":12771,"▁이새기":12772,"▁아진짜":12773,"▁1카":12774,"▁1이닝":12775,"▁1선발":12776,"▁1-3":12777,"▁오서":12778,"▁다같이":12779,"▁2일차":12780,"▁자석":12781,"...txt":12782,"▁전형":12783,"▁잘알":12784,"▁모야":12785,"▁주기":12786,"▁애국":12787,"▁소풍":12788,"▁우는":12789,"▁부른":12790,"▁부갤주":12791,"▁재기":12792,"▁재벌":12793,"▁씨게":12794,"▁머마":12795,"▁머가리":12796,"▁레식":12797,"▁원숭이":12798,"▁김준":12799,"▁카엘":12800,"▁난다":12801,"고싶어서":12802,"▁연차":12803,"▁경매":12804,"▁피코":12805,"▁키아라":12806,"▁같던데":12807,"▁쓰던":12808,"▁로스":12809,"....?":12810,"이라는거":12811,"▁강철":12812,"▁6월":12813,"▁78":12814,"▁토미":12815,"▁언제나옴?":12816,"▁반반":12817,"▁반성":12818,"▁크킹":12819,"▁똥싸":12820,"▁여기다":12821,"▁들어온":12822,"▁따라가":12823,"▁친선":12824,"▁심하게":12825,"▁위신":12826,"▁관전":12827,"▁양팡":12828,"▁걸림":12829,"▁게임에":12830,"▁풀버전":12831,"▁건전":12832,"▁약뱅":12833,"▁약한":12834,"▁폭동":12835,"▁왔어":12836,"▁힘을":12837,"▁월이세":12838,"▁친구한테":12839,"▁꾹이":12840,"▁궁예":12841,"었다.":12842,"▁애미들":12843,"▁알려줄":12844,"▁졸려":12845,"▁변태":12846,"▁딸딸이":12847,"▁서울에":12848,"▁댓글에":12849,"▁돼벨":12850,"▁니들도":12851,"▁DUMDi":12852,"▁술먹":12853,"▁인스타에":12854,"▁앰흑":12855,"▁사라짐":12856,"▁dr":12857,"▁혜택":12858,"▁탄핵":12859,"▁됨??":12860,"▁쏘2":12861,"▁외질이":12862,"▁콩이":12863,"▁냉혹한":12864,"▁멘트":12865,"지말라고":12866,"망구들":12867,"▁여론조사":12868,"ᄅᄅᄅᄅ":12869,"▁개쩌는":12870,"선생님":12871,"▁깔끔하게":12872,"▁당근마켓":12873,"치마인드":12874,"▁[10구역]":12875,"▁갓오하":12876,".GIF":12877,"<-":12878,"BC":12879,"LC":12880,"TR":12881,"▁균":12882,"가는게":12883,"거라고":12884,"결제":12885,"났음":12886,"냐면":12887,"냐...":12888,"달리":12889,"담당":12890,"데드":12891,"덱은":12892,"두리":12893,"듣는":12894,"러간다":12895,"롱이":12896,"마무":12897,"망가":12898,"미주":12899,"보냐?":12900,"사주":12901,"사키":12902,"삼?":12903,"성도":12904,"세요?":12905,"스압":12906,"실이":12907,"야는":12908,"어플":12909,"예지":12910,"올리는":12911,"유가":12912,"의상":12913,"있을까":12914,"있어도":12915,"자와":12916,"적임":12917,"적이네":12918,"전용":12919,"좌가":12920,"챙겨":12921,"처음":12922,"치로":12923,"크네":12924,"포가":12925,"풀이":12926,"하겠":12927,"하시는":12928,"한승우":12929,"해킹":12930,"▁이천":12931,"▁하실분":12932,"▁다닐":12933,"▁보빨":12934,"▁지누":12935,"▁지마":12936,"▁지명":12937,"▁시노":12938,"▁시진핑":12939,"▁진여신":12940,"▁개똥찬":12941,"▁한숨":12942,"▁뭐있냐":12943,"▁마슈":12944,"▁수요":12945,"▁유우":12946,"▁인상":12947,"▁아니였":12948,"▁아니잖아":12949,"▁미용":12950,"▁일그오":12951,"▁신검":12952,"▁잘한":12953,"▁해봤":12954,"▁존나많네":12955,"▁못이기":12956,"▁제노블":12957,"▁비글":12958,"▁올린거":12959,"▁5위":12960,"▁상시":12961,"▁4인":12962,"▁[전":12963,"▁[씨야":12964,"▁라부":12965,"▁원스":12966,"▁김기":12967,"▁김윤":12968,"▁김계란":12969,"▁선호":12970,"▁생각할수록":12971,"▁연생":12972,"▁살면":12973,"▁장갑":12974,"▁최항":12975,"▁박사":12976,"▁ᄌᄌ":12977,"▁드레기":12978,"이라던데":12979,"▁강진":12980,"▁6명":12981,"▁느려":12982,"▁동시":12983,"▁언제나와":12984,"▁의식":12985,"▁20억":12986,"▁추천해":12987,"▁물마":12988,"▁양념":12989,"▁걸려":12990,"▁히비":12991,"▁간호":12992,"▁했지":12993,"▁클레":12994,"▁팔찌":12995,"▁탈빠":12996,"▁백룡":12997,"▁뽑았다":12998,"아니네":12999,"▁형이":13000,"▁터졌네":13001,"▁검신":13002,"▁채용":13003,"▁헤이":13004,"▁킹탄":13005,"▁뭐가더":13006,"▁2004":13007,"▁줄여":13008,"▁얼굴은":13009,"▁넣을":13010,"▁황제":13011,"▁궁금하다":13012,"▁so":13013,"▁SS":13014,"▁안나올":13015,"▁브이포":13016,"▁휴대":13017,"▁그럼?":13018,"▁이쁘면":13019,"▁기분나":13020,"▁술마":13021,"▁빌보드":13022,"▁믿는다":13023,"으니깐":13024,"▁기안은":13025,"▁스킬포인트":13026,"리즈갤]":13027,"▁센츄":13028,"▁있다?":13029,"▁앱등":13030,"▁데려올":13031,"이였으면":13032,"▁bj":13033,"▁npc":13034,"▁어려움?":13035,"ᄒᄒᄒᄒ":13036,"▁물어보":13037,"▁확률로":13038,"▁멋진":13039,"▁여러개":13040,"▁어떡함":13041,"▁예쁘네":13042,"▁해줘라":13043,"▁어이없":13044,"▁들어와라":13045,"▁UI":13046,"▁타격감":13047,"▁정우영":13048,"▁왜저래":13049,"▁피해자":13050,"▁[이은상":13051,"▁함께라는":13052,"크리트":13053,"▁승부존":13054,"▁라비리스타":13055,"▁[포레스텔라갤]":13056,"▁영원히":13057,"▁꿀벌직캠":13058,"러블리즈갤]":13059,"▁임기영":13060,"▁점유율":13061,"-6":13062,"2기":13063,"BS":13064,"ct":13065,"el":13066,"wan":13067,"▁@@":13068,"각이":13069,"갈사람":13070,"개만":13071,"것처럼":13072,"급인데":13073,"까면":13074,"나보다":13075,"넣으면":13076,"대고":13077,"덱이":13078,"되는거임?":13079,"드시":13080,"든다":13081,"래곤":13082,"럼들아":13083,"많냐":13084,"머신":13085,"문)":13086,"미안":13087,"바퀴":13088,"배경":13089,"배틀":13090,"사냐":13091,"어쩌":13092,"업이":13093,"와야":13094,"요~":13095,"이오":13096,"잔데":13097,"잡기":13098,"재능":13099,"제작":13100,"주니까":13101,"쥬지":13102,"쪽이":13103,"초기":13104,"카와":13105,"켜서":13106,"티저":13107,"페스":13108,"페이스":13109,"하죠":13110,"해성":13111,"해볼까":13112,"▁아트":13113,"▁어저미":13114,"▁오티":13115,"▁오마이걸":13116,"▁안본":13117,"▁안써":13118,"▁안하는거":13119,"▁안보이":13120,"▁그렸":13121,"▁사렌":13122,"▁사지":13123,"는거임??":13124,"▁2달":13125,"▁개다":13126,"▁내로남불":13127,"▁기공":13128,"▁마왕":13129,"▁존못":13130,"▁자비":13131,"▁이거임":13132,"▁못할":13133,"▁못한다":13134,"▁거냐?":13135,"▁부르는":13136,"▁방에":13137,"▁51":13138,"▁[송":13139,"▁[2020":13140,"▁리쿠":13141,"▁시발ᄏᄏᄏ":13142,"▁서민":13143,"▁너무하네":13144,"▁먹튀":13145,"▁실트":13146,"▁세작":13147,"▁세차":13148,"▁살찐":13149,"▁장르":13150,"▁장전":13151,"▁최주환":13152,"하네ᄏᄏ":13153,"▁6시간":13154,"▁10700":13155,"▁않는다":13156,"▁받음?":13157,"▁매운":13158,"▁발동":13159,"▁의료":13160,"이면서":13161,"▁달린":13162,"▁어떻게든":13163,"▁어떻게됨?":13164,"▁물타기":13165,"▁작성":13166,"▁심지어":13167,"▁필라":13168,"▁걸리":13169,"▁걸리면":13170,"▁넘사":13171,"▁클라스":13172,"▁금전":13173,"▁안되면":13174,"▁다음시즌":13175,"▁참기":13176,"▁편돌이":13177,"▁합류":13178,"▁함정":13179,"▁명언":13180,"▁캐릭이":13181,"▁첫번째":13182,"▁0.5":13183,"▁정신이":13184,"▁선수는":13185,"▁ᄇᄅ":13186,"▁재미없":13187,"▁네이처":13188,"을거임":13189,"▁ᄏᄏᄏᄏᄏᄏᄏᄏᄏᄏᄏᄏᄏᄏᄏᄏᄏᄏᄏᄏᄏᄏᄏᄏᄏᄏ":13190,"▁ᄏᄏᄏᄏᄏᄏᄏᄏᄏᄏᄏᄏᄏᄏᄏᄏᄏᄏᄏᄏᄏᄏᄏᄏᄏᄏᄏᄏᄏᄏᄏᄏᄏᄏᄏᄏᄏ":13191,"▁좆같은거":13192,"▁40대":13193,"▁이러냐":13194,"새기들아":13195,"▁어쩌라고":13196,"▁녹음":13197,"▁쌍베":13198,"▁덕배":13199,"▁훈수":13200,"ᅳᅳᅳᅳᅳᅳᅳᅳᅳᅳ":13201,"▁감스트가":13202,"▁뜬다":13203,"이긴한데":13204,"▁설명좀":13205,"▁jpg.":13206,"▁팁좀":13207,"▁프레데":13208,"▁개빡치네":13209,"▁루시안":13210,"▁닌텐도":13211,"-08-":13212,"▁시그니":13213,"▁이마트":13214,"▁페코라":13215,"▁발로란트":13216,"▁개나소나":13217,"▁[엘롯연합]승리의엘롯":13218,"▁마네킹":13219,"▁언노운":13220,".15":13221,"39":13222,"49":13223,"ff":13224,"mi":13225,"▁깅":13226,"갤스밍":13227,"글램":13228,"금이":13229,"난나":13230,"니는":13231,"단다":13232,"대생":13233,"더가":13234,"더태":13235,"던파":13236,"러는":13237,"레아":13238,"려다":13239,"로이":13240,"롯데":13241,"많은데":13242,"몰입":13243,"밥이":13244,"백수":13245,"보라":13246,"사자":13247,"셀로나":13248,"소감":13249,"어캐":13250,"에어":13251,"유는":13252,"음악":13253,"일수도":13254,"잇냐?":13255,"전도":13256,"존잘":13257,"주주":13258,"지능":13259,"지니":13260,"지..":13261,"체는":13262,"초반":13263,"치치":13264,"캐가":13265,"토가":13266,"토는":13267,"팔아":13268,"하려나":13269,"하느라":13270,"한이":13271,"할줄":13272,"▁아수":13273,"▁나가는":13274,"▁안자":13275,"▁안하는게":13276,"▁안어울":13277,"▁그레":13278,"▁사냐":13279,"▁다인큐":13280,"▁보너스":13281,"▁지네":13282,"▁시전":13283,"▁가득":13284,"▁가비":13285,"▁있으니까":13286,"▁스태":13287,"▁정전":13288,"▁마녀":13289,"▁유난":13290,"▁무수리":13291,"...@.@":13292,"▁미연":13293,"▁저리":13294,"▁저새낀":13295,"▁좆과금":13296,"▁못봄":13297,"▁갤을":13298,"▁주노":13299,"▁생기는":13300,"▁소비":13301,"▁소리가":13302,"▁우동":13303,"▁우아":13304,"▁만났":13305,"▁만듬":13306,"▁만붕이들":13307,"▁부르면":13308,"▁도로":13309,"▁알면":13310,"▁57":13311,"▁중단":13312,"▁더빙":13313,"▁[러블리즈갤]":13314,"▁레나":13315,"▁남은거":13316,"▁리티":13317,"▁서비스":13318,"▁성규":13319,"▁성별":13320,"▁성매매":13321,"▁맞아?":13322,"▁연간":13323,"▁피닉스":13324,"▁로고":13325,"▁6개":13326,"▁아이즈":13327,"▁현상":13328,"▁10시에":13329,"▁8천":13330,"▁않네":13331,"한거야":13332,"▁글싸":13333,"▁92":13334,"▁브레이":13335,"▁크다":13336,"▁20만":13337,"▁화요일":13338,"▁병신인":13339,"▁얼마전에":13340,"▁분해":13341,"▁돈주고":13342,"▁ᄌᄂ웃기네":13343,"▁클랜":13344,"▁봐주세요":13345,"▁찍을":13346,"▁잡혀":13347,"▁막아":13348,"▁출전":13349,"ᅳᅳᅳᅳᅳ":13350,"▁광화문":13351,"▁다음은":13352,"▁목격":13353,"▁목욕":13354,"▁참교육":13355,"▁용사":13356,"▁용산":13357,"토리아":13358,"한데?":13359,"▁소바는":13360,"해주실분":13361,"▁산거":13362,"▁뭐냐면":13363,"▁경기력":13364,"▁애니메이션":13365,"갤러들아":13366,"▁잘생기면":13367,"보는곳?":13368,"▁아는사람?":13369,"지도않":13370,"▁사이에":13371,"▁고민중":13372,"▁낮에":13373,"▁멜숙씨":13374,"▁이기야":13375,"▁방법이":13376,"▁앱솔":13377,"▁엄청난":13378,"▁문경찬은":13379,"▁에픽세":13380,"▁여친이":13381,"▁꿈에서":13382,"▁득와":13383,"▁저런거":13384,"▁어느정도임?":13385,"▁만든거":13386,"▁뜬거":13387,"▁그나저나":13388,"▁콩국수":13389,"스밍인증":13390,"▁보은왔":13391,"▁누군가":13392,"▁쌈무":13393,"▁자동차":13394,"▁헌터":13395,"▁다크포":13396,"ᅳᅳᅳᅳᅳᅳ타":13397,"▁전체적으로":13398,"▁오재원":13399,"▁로하스":13400,"▁필터링":13401,"▁지무선":13402,"▁페르소나":13403,"▁아쿠아":13404,"▁배윤정":13405,"갤스밍]":13406,"%는":13407,"?[":13408,"OT":13409,"m4":13410,"tu":13411,"ᄆᄋ":13412,"ᄉᄆᄋᄌ":13413,"▁듬":13414,"▁럼":13415,"▁릿":13416,"계가":13417,"구멍":13418,"근무":13419,"꿀잼":13420,"눈물":13421,"답게":13422,"대냐":13423,"대비":13424,"되지?":13425,"드로":13426,"뜨고":13427,"람쥐":13428,"록시":13429,"르츠":13430,"리콘":13431,"릴거":13432,"림??":13433,"맞아":13434,"먹는데":13435,"목소리":13436,"법좀":13437,"불편":13438,"빠들":13439,"빼면":13440,"세력":13441,"세운":13442,"속에":13443,"시움":13444,"써야":13445,"안되는":13446,"엘비":13447,"유키":13448,"은건":13449,"일지":13450,"있나?":13451,"자님":13452,"자들은":13453,"저리":13454,"전생":13455,"제목":13456,"출근":13457,"타면":13458,"테크":13459,"투어":13460,"픽츄":13461,"하단":13462,"해질":13463,"▁아네":13464,"▁아조":13465,"▁아현":13466,"▁나죽어":13467,"▁1배수":13468,"▁안받":13469,"▁하더니":13470,"▁사려는데":13471,"▁보이지":13472,"▁지적":13473,"▁시다":13474,"▁진격":13475,"▁2성":13476,"▁있을듯":13477,"▁한수":13478,"▁스스":13479,"▁내면":13480,"▁기생":13481,"▁대비":13482,"▁마스":13483,"▁좋으면":13484,"▁좋음??":13485,"▁3일차":13486,"▁인류":13487,"▁인셉션":13488,"▁미스틱":13489,"▁고래":13490,"▁신영이":13491,"▁모코코":13492,"▁소추":13493,"▁소과금":13494,"▁노꼴":13495,"▁야념":13496,"▁부를":13497,"▁도는":13498,"▁알테":13499,"▁중견":13500,"▁누나가":13501,"▁와파":13502,"▁많지":13503,"▁파원":13504,"▁코르":13505,"▁서바":13506,"▁문피아":13507,"▁카마":13508,"▁선풍기":13509,"▁생각에":13510,"▁경남":13511,"▁키미":13512,"▁최합":13513,"▁이제와서":13514,"▁6화":13515,"▁입술":13516,"▁언제나옴":13517,"▁데모":13518,"▁발악":13519,"▁호이":13520,"▁호랑이":13521,"▁우리학교":13522,"▁이런것도":13523,"▁물고기":13524,"▁꼴리는데":13525,"▁심연":13526,"▁블로그":13527,"▁하는지":13528,"▁집어":13529,"▁평점":13530,"ᄏᄏᄏᄏᄏᄏᄏᄏᄏᄏᄏᄏᄏᄏᄏᄏᄏᄏ":13531,"▁금딸":13532,"▁팔로":13533,"▁잡으면":13534,"▁잡았다":13535,"▁안되겠다":13536,"▁백섭":13537,"▁케미":13538,"▁길가":13539,"▁한국에":13540,"▁한국여자":13541,"▁터지고":13542,"▁잠재":13543,"▁싫어서":13544,"▁써라":13545,"▁애미가":13546,"▁알려주세요":13547,"▁절망":13548,"▁어떤게":13549,"▁엠씨":13550,"▁푸쉬":13551,"▁쉬워":13552,"이었노":13553,"▁쥬지가":13554,"▁정도로":13555,"▁듣기":13556,"▁듀링":13557,"▁침붕이":13558,"▁하지말고":13559,"한다고?":13560,"▁줘야":13561,"▁활용":13562,"▁농구":13563,"▁콱)":13564,"▁블랙핑크":13565,"▁붕괴":13566,"▁큐시트":13567,"▁아카데미":13568,"지원금":13569,"▁거래소":13570,"▁거래가능":13571,"▁아르카나":13572,"▁ᄉᄉᄉᄉᄉᄉ":13573,"▁스마게":13574,"정신나갈":13575,"▁전문가":13576,"마이걸갤]":13577,"▁###":13578,"짤드컵]":13579,"▁필승조":13580,"미주픽츄":13581,"더태민갤]":13582,")?[":13583,"-7":13584,".,":13585,".?":13586,".F":13587,"2)":13588,"?(?":13589,"▁층":13590,"▁퀴즈":13591,"거르고":13592,"검색":13593,"겠더라":13594,"겼다":13595,"냐????":13596,"년전":13597,"놔라":13598,"달려":13599,"때메":13600,"라던데":13601,"랐네":13602,"리긴":13603,"린다고":13604,"바스":13605,"바위":13606,"반인":13607,"버리면":13608,"병원":13609,"부적":13610,"브금":13611,"빠르":13612,"수업":13613,"수인":13614,"신도":13615,"쓴다":13616,"앗음":13617,"어이":13618,"에다가":13619,"울링":13620,"인싸":13621,"일텐데":13622,"잇으면":13623,"재산":13624,"점에서":13625,"정책":13626,"줘야지":13627,"진화":13628,"짐??":13629,"차이가":13630,"참사":13631,"찾기":13632,"쳐먹고":13633,"취향":13634,"한걸":13635,"해지는":13636,"해본다":13637,"히는거":13638,"힘드네":13639,"▁이대호":13640,"▁나노":13641,"▁어리":13642,"▁오리지":13643,"▁그닥":13644,"▁사정":13645,"▁다는":13646,"▁보관":13647,"▁지급":13648,"▁시동":13649,"▁시부":13650,"▁진던":13651,"▁개구":13652,"▁개창":13653,"▁개같은":13654,"▁스바":13655,"▁스드림":13656,"▁뭐?":13657,"▁뭐함":13658,"▁정면":13659,"▁정체가":13660,"▁마미":13661,"▁마야":13662,"▁무죄":13663,"하는것":13664,"▁자칭":13665,"▁잘만들":13666,"▁이거도":13667,"▁이거야":13668,"▁못찾":13669,"▁갤로그":13670,"▁소라":13671,"▁소소":13672,"▁너를":13673,"▁바쁘":13674,"▁야숨":13675,"▁부품":13676,"▁조기":13677,"▁도13":13678,"▁알아야":13679,"▁요거":13680,"▁와인":13681,"▁와중에":13682,"▁레오":13683,"▁좀더":13684,"▁구해요":13685,"▁파편":13686,"▁코로":13687,"▁맞짱":13688,"▁되는거임?":13689,"▁되나요?":13690,"▁예지":13691,"▁할수":13692,"▁디발라":13693,"▁동영상":13694,"▁감봉":13695,"▁74":13696,"▁후에":13697,"▁매치":13698,"▁데레":13699,"▁발생":13700,"▁97":13701,"▁호옹이":13702,"해야하는데":13703,"▁이런데":13704,"▁필름":13705,"▁재밌었는데":13706,"▁철읍":13707,"▁적게":13708,"ᄏᄏᄏᄏᄏᄏᄏᄏᄏᄏᄏᄏᄏᄏᄏᄏᄏ":13709,"▁풀콤":13710,"▁잡지":13711,"▁ᄀᄌ":13712,"▁딱지":13713,"ᅳᅳᅳᅳᅳ타":13714,"▁욕먹는":13715,"▁폭풍":13716,"▁일본이":13717,"▁울산":13718,"▁체인":13719,"▁?)?[":13720,"▁환수":13721,"▁일러로":13722,"▁정신과":13723,"▁독재":13724,"▁슈팅":13725,"▁만들었":13726,"▁식사":13727,"▁트레이드는":13728,"▁50퍼":13729,"▁기분좋":13730,"▁풍성이":13731,"▁tv":13732,"▁떡밥이":13733,"▁혼자서":13734,"▁앰생":13735,"▁문경찬이":13736,"▁키우고":13737,"야되냐?":13738,"하러감":13739,"▁겆줌":13740,"▁쌍욕":13741,"▁모음집":13742,"▁득피":13743,"▁대학교":13744,"▁생겼다":13745,"▁점핑캐":13746,"▁보라머리":13747,"▁설명회":13748,"▁이재학":13749,"▁ᄎᄀ":13750,"▁잘생겼다":13751,"어디서":13752,"▁폭원숭이":13753,"지않았냐":13754,"▁크리스탈":13755,"▁이쯤에서":13756,"▁조각가":13757,"▁이명기":13758,"▁버거킹":13759,"▁[11구역]":13760,"▁[공지]":13761,"▁나주거":13762,"▁리부트":13763,"▁서재응":13764,"▁차은우":13765,"▁데비존":13766,"▁[이은상]":13767,".TXT":13768,"AR":13769,"km":13770,"ᄋᄅ":13771,"▁ᅵ":13772,"▁을때":13773,"▁@@@@":13774,"가노":13775,"가드":13776,"갈듯":13777,"곡은":13778,"구사":13779,"꺼야":13780,"꼬리":13781,"나이트":13782,"나왔는데":13783,"낫다":13784,"넣음":13785,"놈아":13786,"단장":13787,"더스":13788,"든가":13789,"떡락":13790,"란드":13791,"련님":13792,"린지":13793,"먹냐":13794,"먹는다":13795,"멘트":13796,"밀라":13797,"배당":13798,"보수":13799,"생기":13800,"서준":13801,"세움":13802,"소연":13803,"여자가":13804,"역겨":13805,"오자":13806,"유튜버":13807,"일진":13808,"있잖아":13809,"자연":13810,"중독":13811,"중반":13812,"차지":13813,"천사":13814,"카운":13815,"커뮤":13816,"택배":13817,"포는":13818,"폭행":13819,"피곤":13820,"하려는":13821,"후보":13822,"▁1렙":13823,"▁오너":13824,"▁오라":13825,"▁안당":13826,"▁안톤":13827,"▁하려":13828,"▁사막":13829,"▁다는데":13830,"▁보충":13831,"▁지민":13832,"▁가냐?":13833,"▁진명호":13834,"▁2.0":13835,"▁개지":13836,"▁한손":13837,"▁한타":13838,"▁마킹":13839,"▁마리아":13840,"▁수잔":13841,"▁3D":13842,"▁3천원":13843,"▁자제":13844,"▁미궁":13845,"▁미러":13846,"▁잘팔":13847,"▁해주는":13848,"▁모라타":13849,"▁소련":13850,"▁노네":13851,"▁야야":13852,"▁방붕이":13853,"▁와..":13854,"▁[라포엠":13855,"▁머고":13856,"▁머임??":13857,"▁많더라":13858,"▁레게":13859,"한테만":13860,"▁성대":13861,"▁생각은":13862,"▁경계":13863,"▁경기는":13864,"▁피에":13865,"▁살고":13866,"▁살찌":13867,"▁할까?":13868,"▁사람만":13869,"▁쓰네":13870,"▁로테":13871,"▁불타는":13872,"이라면서":13873,"▁강력":13874,"▁67":13875,"▁씹어":13876,"▁나오겠네":13877,"▁망함":13878,"사람들은":13879,"▁77":13880,"▁초구":13881,"▁우리형":13882,"▁브하":13883,"▁빨고":13884,"▁네덕":13885,"▁추천해줘":13886,"▁가능함":13887,"▁얼마쯤":13888,"▁끝났다":13889,"▁누구보다":13890,"▁했다고":13891,"ᄏᄏᄏᄏᄏᄏᄏᄏᄏᄏᄏᄏᄏᄏᄏᄏᄏᄏᄏᄏᄏᄏᄏᄏᄏ":13892,"▁안되노":13893,"▁11월":13894,"ᅳᅳᅳᅳ타":13895,"▁한국사":13896,"▁욕하면":13897,"▁테디":13898,"▁검수":13899,"▁과몰입":13900,"▁본인은":13901,"▁100억":13902,"▁군무원":13903,"▁명문":13904,"▁하루카":13905,"▁체육":13906,"▁워크":13907,"▁0.7":13908,"가는중":13909,"▁20050":13910,"▁ᄏᄐ":13911,"▁흑발":13912,"하기전에":13913,"▁빡쳐서":13914,"▁청원":13915,"▁18일":13916,"▁짜리":13917,"▁재미는":13918,"▁정리해준다":13919,"▁쇼타":13920,"▁듣는데":13921,"▁특징이":13922,"▁잘못된":13923,"▁ᄏᄏᄏᄏᄏᄏᄏᄏᄏᄏᄏᄏᄏᄏᄏᄏᄏᄏᄏᄏᄏᄏᄏᄏᄏᄏᄏᄏᄏᄏᄏᄏ":13924,"▁낮잠":13925,"▁안나오면":13926,"이였음":13927,"▁잦글램":13928,"▁억지":13929,"▁닮음":13930,"▁호감고닉":13931,"▁급식들":13932,"▁타이탄":13933,"▁ip":13934,"▁탭칠플":13935,"▁박정희":13936,"▁아니었음?":13937,"▁꾹앰들":13938,"▁품절":13939,"▁ui":13940,"▁빌드업":13941,"얼마나":13942,"▁초록별":13943,"▁깝치":13944,"live":13945,"▁개이득":13946,"▁김진욱":13947,"▁에이티즈":13948,"▁[김요한]":13949,"살짝설어":13950,"▁[러블리즈갤]미주픽츄":13951,"마이걸갤]살짝설어":13952,"%%":13953,".10":13954,".이.":13955,"32":13956,"8호":13957,"ES":13958,"cd":13959,"nn":13960,"▁;":13961,"▁깅이":13962,"가니까":13963,"간다고":13964,"걸스":13965,"공식":13966,"공유":13967,"규모":13968,"그거":13969,"기야":13970,"꺼져":13971,"꾸역":13972,"나니까":13973,"남았다":13974,"년차":13975,"노??":13976,"다!":13977,"대리":13978,"마블":13979,"마을":13980,"발음":13981,"보정":13982,"보이스":13983,"봐줘":13984,"비틱":13985,"산지":13986,"상에":13987,"세여":13988,"시계":13989,"앗네":13990,"았냐?":13991,"에픽":13992,"이번":13993,"이렇게":13994,"접속":13995,"정화":13996,"종료":13997,"진행":13998,"찍히":13999,"창에":14000,"철수":14001,"컷이":14002,"테라":14003,"티나":14004,"팬티":14005,"포드":14006,"플로":14007,"필드":14008,"할배":14009,"호선":14010,"획득":14011,"휴일":14012,"히기":14013,"▁이말":14014,"▁이럼?":14015,"▁나가리":14016,"▁오고":14017,"▁안쳐":14018,"▁하고싶은":14019,"▁그루":14020,"▁그자체":14021,"▁지어":14022,"▁있구나":14023,"▁있을때":14024,"▁개쩔":14025,"▁한가지":14026,"▁근근":14027,"▁스퀴즈":14028,"▁내고":14029,"▁정국":14030,"▁마구":14031,"▁마력":14032,"▁마오":14033,"▁마창":14034,"▁좋고":14035,"▁유능":14036,"▁3번째":14037,"▁인디":14038,"▁좆됨":14039,"▁좆혁":14040,"▁좆그오":14041,"▁전주":14042,"▁해군":14043,"▁주도":14044,"▁주호":14045,"▁공구":14046,"▁공이":14047,"▁너가":14048,"▁야근데":14049,"▁야알못":14050,"▁조절":14051,"▁조져":14052,"▁알로":14053,"▁5시간":14054,"▁구도":14055,"▁구합니다":14056,"▁라디":14057,"▁성민규":14058,"▁생각인데":14059,"▁생각하니":14060,"▁연금":14061,"▁연예":14062,"▁먹여":14063,"▁세번":14064,"▁세워":14065,"▁프커":14066,"▁키무라":14067,"▁드라이브":14068,"▁니애미":14069,"▁몇임?":14070,"▁7일":14071,"▁토큰":14072,"▁글쓰":14073,"▁후속":14074,"하는거야":14075,"▁호남":14076,"▁단단":14077,"▁병신임":14078,"▁어떻게함?":14079,"▁물고":14080,"▁두배":14081,"▁복잡":14082,"▁처벌":14083,"▁당일":14084,"▁양도":14085,"▁양의지":14086,"▁넘버":14087,"▁누구야?":14088,"▁풀로":14089,"▁잡아야":14090,"▁통제":14091,"했다는":14092,"▁태도":14093,"▁폭로":14094,"▁허브":14095,"▁허언":14096,"▁허용":14097,"▁허경민":14098,"▁힘듬":14099,"▁명장":14100,"▁아닌듯":14101,"▁번개":14102,"▁종합":14103,"해주네":14104,"가능한":14105,"▁갤주가":14106,"▁산적":14107,"▁팀은":14108,"▁시간당":14109,"▁빌다리":14110,"▁뿌린다":14111,"▁뭔데?":14112,"▁늘어나":14113,"▁니네가":14114,"▁가격이":14115,"▁여친이랑":14116,"▁신기한":14117,"▁흥분":14118,"한건가":14119,"▁대단하네":14120,"▁오래된":14121,"▁스카웃":14122,"▁님들은":14123,"▁석우":14124,"▁얍칸":14125,"▁상관없":14126,"하지않냐?":14127,"▁보라색":14128,"▁느낀게":14129,"▁번역)":14130,"▁탭칠":14131,"▁war":14132,"▁어이없네":14133,"▁스트리밍":14134,"▁통합공지":14135,"▁플레이어":14136,"아는사람":14137,"▁벽갤":14138,"▁먹어야지":14139,"▁줌들":14140,"▁시청자수":14141,"▁애매한":14142,"▁랜덤짤":14143,"▁아라벨":14144,"▁맛있게":14145,"▁게시글":14146,"▁멍청한":14147,"▁브라질":14148,"▁괴물쥐":14149,"▁패널티":14150,"▁0625":14151,"▁스트레일리":14152,"▁[영탁]":14153,"▁소니쇼":14154,"▁[강다니엘갤]깨워":14155,"▁생각난건데":14156,"▁비글즈":14157,".i":14158,".gisa":14159,"1)":14160,"og":14161,"pu":14162,"갈아":14163,"게더":14164,"겠습니까?":14165,"격이":14166,"근이":14167,"까요?":14168,"날은":14169,"동물":14170,"되도":14171,"라면서":14172,"론트":14173,"마크":14174,"매는":14175,"며?":14176,"미만":14177,"밥은":14178,"백질":14179,"부족":14180,"성으로":14181,"세기":14182,"세네":14183,"세웠":14184,"시각":14185,"시바":14186,"시상식":14187,"아카":14188,"암?":14189,"언냐들":14190,"업체":14191,"엇으면":14192,"열차":14193,"영업":14194,"요!":14195,"웃겨":14196,"웃기":14197,"을지":14198,"이/":14199,"일까지":14200,"일자리":14201,"잇다":14202,"작이":14203,"저장":14204,"정글":14205,"조절":14206,"죽여":14207,"지긴":14208,"지막":14209,"진게":14210,"집에서":14211,"채로":14212,"철구":14213,"충새끼들":14214,"칭호":14215,"테마":14216,"토츠":14217,"틀린":14218,"팬미":14219,"평균":14220,"포기":14221,"폭탄":14222,"플은":14223,"할수도":14224,"함이":14225,"해보면":14226,"했지만":14227,"▁이낙":14228,"▁이닝":14229,"▁이와중에":14230,"▁아형":14231,"▁나누":14232,"▁오냐":14233,"▁오도":14234,"▁안개":14235,"▁안열":14236,"▁안와":14237,"▁안해서":14238,"▁가냐":14239,"▁가려":14240,"▁가불":14241,"▁2등":14242,"▁한결":14243,"▁대면":14244,"▁없다는":14245,"▁진짜임?":14246,"▁유식":14247,"▁무능":14248,"▁무빙":14249,"▁고향":14250,"▁좆간":14251,"▁좆되네":14252,"▁신도":14253,"▁전통":14254,"▁잘그":14255,"▁이거나":14256,"▁모동":14257,"▁못사":14258,"▁제노":14259,"▁갤떡":14260,"▁소스":14261,"▁부계정":14262,"▁도티":14263,"▁알지":14264,"▁5g":14265,"▁와시발":14266,"▁머냐?":14267,"▁좀비":14268,"▁남이":14269,"▁파업":14270,"▁코시":14271,"▁트젠":14272,"▁원인":14273,"▁맞출":14274,"▁선정":14275,"▁추격":14276,"▁추는":14277,"▁생각하는데":14278,"▁씨발새끼":14279,"▁먹을까":14280,"▁살이":14281,"▁장착":14282,"▁메슬":14283,"▁쓰니까":14284,"▁ᄋᄆ":14285,"▁드럽게":14286,"▁본방":14287,"▁요즘에":14288,"▁요즘엔":14289,"▁현무":14290,"▁디파이":14291,"▁디톡스":14292,"▁몇점":14293,"▁동료":14294,"▁또또":14295,"▁또라이":14296,"▁8회":14297,"▁반대로":14298,"▁20%":14299,"▁화내":14300,"▁꼴갤":14301,"▁(속보)":14302,"은거임?":14303,"▁돈은":14304,"▁끝났네":14305,"▁죽고":14306,"▁갈비":14307,"▁걸림?":14308,"▁다시는":14309,"▁넘는":14310,"▁빠전":14311,"▁운명":14312,"▁순대":14313,"▁순애":14314,"▁베아":14315,"▁검마":14316,"▁검열":14317,"이냐???":14318,"하나봐":14319,"▁다른데":14320,"▁울프":14321,"▁써밋":14322,"▁각각":14323,"▁헤드폰":14324,"▁애미씨발":14325,"▁등이":14326,"▁미친듯이":14327,"▁나왔을때":14328,"▁알려주셈":14329,"▁것들":14330,"ᅮᅮᅮ":14331,"▁돌아가는":14332,"▁돌아다니":14333,"▁시즌3":14334,"▁총선":14335,"▁만들었는데":14336,"▁만들었다":14337,"▁식상":14338,"▁이쁘지":14339,"▁재미로":14340,"라인업":14341,"▁봤을때":14342,"▁영화관":14343,"▁첨에":14344,"▁가축새끼들":14345,"▁공지사항":14346,"▁ᄋᄌ이지":14347,"▁됐다":14348,"투표부탁":14349,"▁완장들":14350,"▁랜뽑":14351,"▁중요한게":14352,"▁몬린이":14353,"▁그리운":14354,"▁상대가":14355,"▁쓴다":14356,"▁길드전":14357,"▁ᄐᄌ":14358,"▁홀리":14359,"▁샌디":14360,"▁아오바":14361,"▁커여움":14362,"▁충격적인":14363,"▁각성석":14364,"▁ᄃᄃᄃᄃᄃᄃᄃᄃ":14365,"▁9월에":14366,"▁이래도":14367,"▁오버워치":14368,"▁귀찮아서":14369,"▁너희들":14370,"▁뜸?":14371,"▁1회차":14372,"스포)":14373,"▁자신감":14374,"▁받는곳":14375,"▁스토리가":14376,"▁ᄌᄅ)":14377,"▁역사상":14378,"▁존나웃겨":14379,"▁뱅드림":14380,"▁하마옷":14381,"▁컵라면":14382,"▁아케인":14383,"▁언젠가":14384,"▁죄송합니다":14385,"▁상식적으로":14386,"▁건보료":14387,"▁윤석열":14388,"▁대가리가":14389,"▁아킬레우스":14390,"▁[전소미":14391,"▁프레데리카":14392,"▁[엘롯연합]승리의엘롯스밍인증왔대호":14393,".16":14394,".17":14395,"1000":14396,"oo":14397,"ra":14398,"ᄉᄏ":14399,"▁~~":14400,"각성":14401,"감??":14402,"거리는거":14403,"것은":14404,"겜잘":14405,"기타":14406,"꼬라지":14407,"나연":14408,"다라":14409,"다보면":14410,"대지":14411,"디시":14412,"뜬거":14413,"랭킹":14414,"렌더":14415,"렌테":14416,"로사":14417,"리언":14418,"만개":14419,"모는":14420,"받는데":14421,"발진":14422,"버퍼":14423,"보임?":14424,"보세요":14425,"부인":14426,"비치":14427,"빠따":14428,"삼이":14429,"소리는":14430,"스만":14431,"시타":14432,"애애":14433,"억이면":14434,"요정":14435,"운영":14436,"워라":14437,"유의":14438,"인것":14439,"일드":14440,"일주":14441,"정병":14442,"정수":14443,"중이네":14444,"직은":14445,"칠때":14446,"코센":14447,"코프":14448,"클로":14449,"파고":14450,"포도":14451,"하구":14452,"했었":14453,"▁나갔":14454,"▁1-1":14455,"▁오디션":14456,"▁사설":14457,"▁다주":14458,"▁지겨":14459,"▁지북이":14460,"▁시녀":14461,"▁가루":14462,"▁가치가":14463,"▁진주":14464,"▁개최":14465,"▁개새끼들":14466,"▁한잔":14467,"▁한줄":14468,"▁내글":14469,"▁기절":14470,"▁정산":14471,"▁정시":14472,"▁마주":14473,"▁마트":14474,"▁마세요":14475,"▁3대장":14476,"▁자괴":14477,"▁자러가":14478,"▁미군":14479,"▁일침":14480,"▁저분":14481,"▁전세":14482,"▁전까지":14483,"▁잘라":14484,"▁주붕이":14485,"▁생파":14486,"▁노량":14487,"▁거를":14488,"▁조명":14489,"▁5.3":14490,"▁중소":14491,"▁상주":14492,"▁상한가":14493,"▁리오":14494,"▁트렌":14495,"▁문명":14496,"▁연서버":14497,"▁에고":14498,"▁먹은거":14499,"▁먹는다":14500,"▁얼티":14501,"▁버러지":14502,"▁실장":14503,"▁되잖아":14504,"▁배트":14505,"▁예선":14506,"▁장군":14507,"▁할일":14508,"▁할때마다":14509,"이라이브":14510,"▁강퇴":14511,"▁현기":14512,"▁동급":14513,"▁나오니까":14514,"▁않을까?":14515,"▁치확":14516,"▁72":14517,"▁발정":14518,"▁9회":14519,"▁의도":14520,"한다는거":14521,"▁커리":14522,"▁커즈":14523,"▁달창":14524,"▁국산":14525,"▁국제":14526,"▁들어오면":14527,"▁귀걸이":14528,"▁위장":14529,"▁블러":14530,"갤]8/":14531,"나오노":14532,"▁방송이":14533,"▁음색":14534,"▁풀매수":14535,"▁팔로워":14536,"▁골든":14537,"▁갑니다":14538,"▁천둥":14539,"▁시작부터":14540,"▁길어":14541,"▁광탈":14542,"했다.":14543,"▁접수":14544,"▁태어나":14545,"▁교회":14546,"하나보네":14547,"▁허가":14548,"▁월세":14549,"▁100개":14550,"▁명빵":14551,"▁엔경찬":14552,"▁09":14553,"▁밀고":14554,"▁놀란":14555,"▁황야":14556,"▁졸귀":14557,"▁뜨는데":14558,"▁올려라":14559,"▁마지노":14560,"▁50분":14561,"▁인생은":14562,"▁진지박":14563,"▁이정도로":14564,"을거야":14565,"▁개좆밥":14566,"▁만들어야":14567,"▁점검보상":14568,"▁게이밍":14569,"!!!!!!!!!":14570,"▁주식충":14571,"▁안나오나":14572,"▁홈마":14573,"▁무료뽑":14574,"▁모든게":14575,"▁그리워":14576,"▁좋은거임?":14577,"▁성능은":14578,"▁어때서":14579,"▁젖탱이":14580,"▁주인님":14581,"▁폐기":14582,"▁담배피":14583,"▁즐겨":14584,"▁바람의":14585,"▁심심하면":14586,"▁셋팅":14587,"▁느끼는건데":14588,"▁몰랐다":14589,"▁오토바이":14590,"▁엉덩":14591,"▁살려주세요":14592,"▁와이파이":14593,"▁개발자":14594,"▁마법사":14595,"▁골라줘":14596,"▁텔창":14597,"에에에":14598,"▁스테이지":14599,"▁꺼져라":14600,"▁드래곤볼":14601,"▁설레발":14602,"▁121.139":14603,"이언츠":14604,"▁[라포엠]":14605,".11":14606,"be":14607,"feat.":14608,"ul":14609,"ᄆᄎ":14610,"건이":14611,"기억":14612,"꾹앰":14613,"나간":14614,"나니":14615,"누난나":14616,"느껴":14617,"님덜":14618,"다르":14619,"다던데":14620,"됐어":14621,"러운":14622,"로써":14623,"마루":14624,"말곤":14625,"머가":14626,"무위키":14627,"문파":14628,"미다":14629,"박한":14630,"반이":14631,"받았는데":14632,"배송":14633,"베는":14634,"부리":14635,"분위기":14636,"뻔했네":14637,"상의":14638,"서비스":14639,"승연":14640,"안내":14641,"안부":14642,"안되네":14643,"언더":14644,"올리고":14645,"옵이":14646,"왔습니다":14647,"운전":14648,"인성":14649,"자살":14650,"작품":14651,"잡으면":14652,"즈키":14653,"지명":14654,"찍찍":14655,"천장":14656,"출시":14657,"타쿠":14658,"포나":14659,"▁이사진":14660,"▁이민우":14661,"▁나야":14662,"▁어머니":14663,"▁오는데":14664,"▁안유진":14665,"▁하고싶은데":14666,"▁그것도":14667,"▁사양":14668,"▁보려고":14669,"▁시총":14670,"▁2대":14671,"▁있긔?":14672,"▁기는":14673,"▁유압":14674,"▁무효니":14675,"▁무실점":14676,"▁인턴":14677,"▁인팁":14678,"▁인파":14679,"▁자소서":14680,"▁미루":14681,"▁미야":14682,"▁일으":14683,"▁좆박":14684,"▁제재":14685,"▁공계":14686,"▁공수":14687,"▁비제":14688,"▁생성":14689,"▁소시":14690,"▁5카":14691,"▁재련":14692,"▁[한승우":14693,"▁언어":14694,"▁남겜잘":14695,"▁시발ᄏᄏᄏᄏ":14696,"▁맞긴":14697,"▁선별":14698,"▁추진":14699,"▁생각나서":14700,"▁경찬":14701,"▁피쳐":14702,"▁키마":14703,"▁키트":14704,"▁장점이":14705,"▁쓰지":14706,"▁돌림":14707,"▁불리":14708,"▁강팀":14709,"이네ᄏᄏ":14710,"▁타릭":14711,"▁타워":14712,"▁아이스":14713,"▁아이디어":14714,"▁현피":14715,"▁디엠":14716,"▁병크":14717,"▁느림":14718,"▁동점":14719,"▁않고":14720,"▁않은데":14721,"▁패는거":14722,"▁감나":14723,"▁감이":14724,"▁7급":14725,"▁글씨":14726,"▁매그":14727,"▁발음":14728,"▁초급":14729,"▁반바지":14730,"▁20개":14731,"▁화나네":14732,"▁여기까지":14733,"▁달릴":14734,"▁때까지":14735,"▁들어갔":14736,"▁들어왔는데":14737,"▁작곡":14738,"▁친목":14739,"▁꼴찌":14740,"▁두시간":14741,"▁위대한":14742,"▁당하고":14743,"▁끝남":14744,"갤]D":14745,"▁설x":14746,"▁금카":14747,"▁찍어야":14748,"▁탈덕":14749,"지않을까":14750,"▁케릭":14751,"▁다음달":14752,"▁30개":14753,"▁잠들":14754,"수있을까":14755,"▁용량":14756,"레이터":14757,"▁있는사람":14758,"해주고":14759,"▁쿠로":14760,"▁ᅲᅲᅲᅲᅲ":14761,"▁놀라운":14762,"▁프로트":14763,"▁이름은":14764,"▁휴메":14765,"▁표본":14766,"▁극복":14767,"▁복귀했는데":14768,"▁중국몽":14769,"▁혐오스":14770,"▁있었던":14771,"▁와꾸가":14772,"▁방법은":14773,"▁MC":14774,"▁알아냄":14775,"▁범위":14776,"ᅡᅡᅡ":14777,"▁으악":14778,"▁KID":14779,"▁엑박":14780,"▁24H":14781,"▁물어볼":14782,"▁활약":14783,"▁생겼는데":14784,"▁ᄐ7":14785,"▁ᄐᄑᄋᄌ":14786,"▁바이오":14787,"▁탁또":14788,"▁기준으로":14789,"▁햄탈":14790,"▁다운로드":14791,"▁자동으로":14792,"어어어어":14793,"▁녕이":14794,"플레이어":14795,"▁태어나서":14796,"▁(설x)":14797,"▁환상동화":14798,"▁버닝섭":14799,"▁평범한":14800,"삼성라이온":14801,"▁진작에":14802,"▁조상우":14803,"▁안치홍":14804,"▁drx":14805,"▁KIDS":14806,"(목)":14807,"+3":14808,"87":14809,":55":14810,":45":14811,"ry":14812,"▁떤":14813,"▁었":14814,"▁었다":14815,"감은":14816,"게티":14817,"고는":14818,"끄고":14819,"냐..":14820,"데라":14821,"되기":14822,"된게":14823,"떴는데":14824,"락스":14825,"랐는데":14826,"러브":14827,"론토":14828,"린인데":14829,"미페":14830,"범이":14831,"보노":14832,"부여":14833,"새요":14834,"세우스":14835,"솔로":14836,"수생":14837,"수영":14838,"승부":14839,"신병":14840,"아저씨":14841,"앰이":14842,"여단":14843,"웅이":14844,"있던":14845,"자매":14846,"저기":14847,"중대":14848,"직전":14849,"진심":14850,"체크":14851,"치는게":14852,"카톡":14853,"커여":14854,"크고":14855,"키우는":14856,"투구":14857,"파이어":14858,"프릴":14859,"프사":14860,"했을듯":14861,"희재":14862,"▁이강":14863,"▁아사":14864,"▁나면":14865,"▁나성":14866,"▁어윈":14867,"▁1:":14868,"▁오느":14869,"▁오니까":14870,"▁오르는":14871,"▁안끝":14872,"▁안파":14873,"▁사려고":14874,"▁보자마자":14875,"▁지나면":14876,"▁가로":14877,"▁가오":14878,"▁가죽":14879,"▁가세연":14880,"▁진중":14881,"▁왜?":14882,"▁개노":14883,"▁한일":14884,"▁스탭":14885,"▁여거너":14886,"▁정원":14887,"▁좋을듯":14888,"▁없던데":14889,"▁수업":14890,"으로서":14891,"▁유에":14892,"하는놈":14893,"▁3d":14894,"▁자신이":14895,"▁일로":14896,"▁좆다":14897,"▁잘지":14898,"▁잘하긴":14899,"▁해당":14900,"▁해축":14901,"▁못믿":14902,"▁갤클":14903,"▁주자":14904,"▁공급":14905,"▁공룡":14906,"▁애는":14907,"▁비상":14908,"▁비공개":14909,"▁소용":14910,"▁우미":14911,"▁야린이":14912,"▁ᄅᄋ임?":14913,"▁거면":14914,"▁거유":14915,"▁부엉":14916,"▁알몸":14917,"▁요렌테":14918,"▁중심":14919,"▁재산":14920,"▁상당":14921,"▁머상":14922,"▁리디":14923,"▁말하면":14924,"▁문채원":14925,"▁카오리":14926,"▁선인간":14927,"▁연상":14928,"▁씨발ᄏᄏ":14929,"▁버리":14930,"▁타락":14931,"▁아이고":14932,"▁씹가능":14933,"▁103":14934,"▁않다":14935,"▁치가":14936,"▁글자":14937,"▁반년":14938,"▁의지":14939,"▁단백질":14940,"▁20살":14941,"▁병신들은":14942,"▁병신새끼들":14943,"▁달러":14944,"▁들어도":14945,"?????????":14946,"▁심함":14947,"▁심사위":14948,"▁얼마냐":14949,"▁삼재일":14950,"▁걸릴":14951,"▁다시보는":14952,"▁날려":14953,"▁음란":14954,"▁싸운":14955,"▁노래도":14956,"▁테런":14957,"▁다음날":14958,"▁터뜨":14959,"▁12일":14960,"▁다른팀":14961,"▁싫으면":14962,"▁함??":14963,"할때가":14964,"▁명곡":14965,"▁있는듯":14966,"▁써보":14967,"▁각종":14968,"▁15분":14969,"▁헤으응":14970,"▁0.6":14971,"인거같은데":14972,"▁알려주":14973,"▁회장":14974,"▁암?":14975,"▁해야됨?":14976,"▁급하게":14977,"▁유진이랑":14978,"▁돌아왔":14979,"▁빡친":14980,"▁총대":14981,"▁폴아웃":14982,"▁푸퀴":14983,"▁휴스턴":14984,"▁잘생겨":14985,"▁떨어져":14986,"할까봐":14987,"▁카드가":14988,"▁빅뱅":14989,"해줘라":14990,"▁개꿀팁":14991,"▁샘슨은":14992,"▁차이점":14993,"▁키우기":14994,"▁완장이":14995,"▁챔스우승":14996,"▁끼면":14997,"▁트로트":14998,"▁NTR":14999,"▁옆에서":15000,"▁보여주":15001,"▁상황이":15002,"겠는데?":15003,"▁ᄊᄉᄐᄎ네":15004,"▁퀸친":15005,"▁된다고":15006,"▁찾아봤는데":15007,"하던가":15008,"▁격겜":15009,"▁전설의":15010,"▁장현식은":15011,"▁급식때":15012,"▁공격력":15013,"명이서":15014,"▁느낀건데":15015,"▁90년대":15016,"▁필수임?":15017,"▁미리보기":15018,"▁이것이":15019,"▁개꼴리는":15020,"▁아라곤":15021,"▁고백)":15022,"▁유로파":15023,"▁135레이드":15024,"▁이럴거면":15025,"▁파이널":15026,"대결)":15027,"귀여워":15028,"▁마일리지로":15029,"타이밍":15030,"▁자존심":15031,"▁루피나":15032,"▁최후의":15033,"igh":15034,"▁박세혁":15035,"▁일루시아":15036,"▁알루코":15037,"▁영양제":15038,"▁웅장해진다":15039,"▁김강열":15040,"▁설문조사":15041,"▁오서경":15042,"▁히비키":15043,"▁노량진":15044,".n":15045,"5천":15046,"VS":15047,"거워":15048,"고침":15049,"기의":15050,"끄럽":15051,"날듯":15052,"노ᄏᄏᄏ":15053,"더워":15054,"돈이":15055,"둥세웠":15056,"랜스":15057,"립니다":15058,"마드":15059,"마왕":15060,"만두":15061,"맞은":15062,"미래":15063,"봉퀴":15064,"사대":15065,"성향":15066,"세지":15067,"시노":15068,"어떠":15069,"연결":15070,"연재":15071,"열심히":15072,"예장":15073,"오니까":15074,"온나":15075,"은이":15076,"의서":15077,"이누":15078,"자라":15079,"자원":15080,"자주":15081,"장고":15082,"정령":15083,"제도":15084,"종목":15085,"중엔":15086,"찌찌":15087,"처녀":15088,"치지":15089,"커는":15090,"키세":15091,"키타":15092,"타수":15093,"테오":15094,"파악":15095,"하야":15096,"하진":15097,"해보고":15098,"회복":15099,"희는":15100,"▁이라고":15101,"▁이리스":15102,"▁어필":15103,"▁1조":15104,"▁오동":15105,"▁안꼴":15106,"▁안봤는데":15107,"▁그날":15108,"▁그살":15109,"▁보민":15110,"▁시러":15111,"▁있었다":15112,"▁개막":15113,"▁개망":15114,"▁한승":15115,"▁스무":15116,"▁스페코":15117,"▁내생각":15118,"▁뭐긔":15119,"▁마작":15120,"▁마호":15121,"▁없을듯":15122,"▁유물":15123,"▁유주":15124,"▁3등":15125,"▁3부":15126,"▁자퇴":15127,"▁아니었으면":15128,"▁미카":15129,"▁고증":15130,"▁고릴라":15131,"▁일을":15132,"▁존나재밌":15133,"▁제정신":15134,"▁갤칠플":15135,"▁비번":15136,"▁비웃":15137,"▁바디":15138,"▁야겜":15139,"▁거야?":15140,"▁거르는":15141,"▁조개":15142,"▁조루":15143,"▁방장":15144,"▁방도리":15145,"▁5초":15146,"▁5주년":15147,"▁더니":15148,"▁[조":15149,"▁머머리":15150,"▁많고":15151,"▁레버":15152,"▁서포터":15153,"▁김밥":15154,"▁카오스":15155,"▁에그":15156,"▁얼코센":15157,"▁실행":15158,"▁키는":15159,"▁로이":15160,"▁니코":15161,"▁디아이콘":15162,"▁10초":15163,"스트리":15164,"▁망호":15165,"▁토모":15166,"▁후편":15167,"▁발렌":15168,"▁초고":15169,"▁9시에":15170,"▁확대":15171,"▁반도":15172,"▁여자도":15173,"▁크면":15174,"▁똥겜":15175,"▁얘기가":15176,"▁20만원":15177,"▁네오":15178,"이다...":15179,"▁친절":15180,"▁꼴리지":15181,"▁틀드는":15182,"▁필살기":15183,"▁질문있음":15184,"▁분리":15185,"▁철감":15186,"ᄏᄏᄏᄏᄏᄏᄏᄏᄏᄏᄏᄏᄏᄏᄏᄏᄏᄏᄏᄏᄏ":15187,"▁금일":15188,"▁봐줄":15189,"▁루카":15190,"▁싸이버":15191,"▁운운":15192,"▁보고왔는데":15193,"▁막피":15194,"▁아무래도":15195,"▁홍구":15196,"▁한국의":15197,"▁30명":15198,"▁터지는":15199,"▁12시간":15200,"만원에":15201,"▁창짓":15202,"▁있는지":15203,"▁종류":15204,"해주셈":15205,"▁컨디션":15206,"▁준태":15207,"▁흑마":15208,"▁회원":15209,"▁회피":15210,"▁암것도":15211,"▁암만봐도":15212,"▁갤러리에":15213,"▁변환":15214,"▁청년":15215,"▁청자":15216,"ᄀᄀᄀ":15217,"▁스토리모드":15218,"▁필요없":15219,"▁브이로그":15220,"▁퍼플":15221,"▁찜삐":15222,"게임즈":15223,"▁이쁘고":15224,"▁떨어짐":15225,"▁높은거":15226,"▁ms":15227,"▁엘마는":15228,"▁중국인":15229,"▁미쳤나":15230,"좋아하는":15231,"▁한남충":15232,"▁미국이":15233,"▁싱크로":15234,"▁안나오냐":15235,"▁도와주":15236,"▁근첩들":15237,"▁어렵냐":15238,"▁한명만":15239,"안되냐":15240,"▁에이치":15241,"▁어떡해":15242,"▁상관없음":15243,"▁웃기다":15244,"▁합격자":15245,"▁탭7":15246,"▁멤버들":15247,"가요??":15248,"▁앙헬":15249,"▁지만아":15250,"▁제작진":15251,"▁버프력":15252,"▁아니었냐":15253,"▁캠페인":15254,"▁안쓰고":15255,"▁시키면":15256,"이름이":15257,"▁아스날":15258,"▁담주에":15259,"▁분명히":15260,"ᅳᅳᅳᅳᅳᅳᅳ":15261,"ᅳᅳᅳᅳᅳᅳᅳ타":15262,"▁빡세게":15263,"▁추억의":15264,"▁조건이":15265,"▁아깝다":15266,"▁파트너":15267,"▁잠수함":15268,"ᅵᅵᅵᅵ":15269,"▁카이저":15270,"▁[NC다이노스갤]":15271,"▁핑까점":15272,"▁ᄎᄎ좀":15273,"▁[라비던스]":15274,"▁슬프다":15275,"어렵네":15276,"▁긔작":15277,"▁예리한":15278,"▁덩치":15279,"▁보은왔어요(설쉬)":15280,"▁에러코드":15281,"pple":15282,"▁고로시":15283,"▁치트키":15284,"▁꾸역꾸역":15285,"▁아돌라":15286,"▁[강다니엘갤]깨워투표부탁":15287,"둥세웠탁":15288,"46":15289,"]?(?":15290,"ad":15291,"em":15292,"ut":15293,"▁령":15294,"▁었는데":15295,"각이다":15296,"감사":15297,"거긔":15298,"겠누":15299,"고생":15300,"근첩":15301,"긴게":15302,"까스":15303,"낸다":15304,"넘는":15305,"넘들":15306,"네는":15307,"느끼":15308,"단점":15309,"당은":15310,"됐냐":15311,"두개":15312,"두라":15313,"뒤로":15314,"러쉬":15315,"로서":15316,"름이":15317,"말아":15318,"먼데":15319,"멸망":15320,"민한":15321,"버러지":15322,"범수":15323,"보는게":15324,"보이냐":15325,"본거":15326,"블로":15327,"뿐임":15328,"사는게":15329,"성에":15330,"성욕":15331,"성화":15332,"셔틀":15333,"수면":15334,"시생":15335,"씨는":15336,"씹덕":15337,"야마":15338,"였어?":15339,"올리면":15340,"옴(":15341,"유도":15342,"으신":15343,"을꺼":15344,"자료":15345,"자야":15346,"잘해":15347,"줌이":15348,"줌들이":15349,"지ᄏᄏ":15350,"징징":15351,"커피":15352,"키리":15353,"타이거":15354,"통은":15355,"한척":15356,"해보니":15357,"해진거":15358,"했는지":15359,"▁이론":15360,"▁아~":15361,"▁나을":15362,"▁어도":15363,"▁사칭":15364,"▁사냐?":15365,"▁다다":15366,"▁다름?":15367,"▁보게":15368,"▁보세요":15369,"▁있게":15370,"▁개같이":15371,"▁한전":15372,"▁스노우":15373,"▁기운":15374,"▁수코토":15375,"▁유대":15376,"새끼도":15377,"▁인맥":15378,"▁인스":15379,"▁미술":15380,"▁일하는":15381,"▁저항":15382,"▁좆데":15383,"▁해봐라":15384,"▁모른":15385,"▁모텔":15386,"▁갤매":15387,"▁비빌":15388,"▁비쌈":15389,"▁소년":15390,"▁소드":15391,"▁소아":15392,"▁소중":15393,"▁바라는":15394,"▁야요":15395,"▁부채":15396,"▁알계":15397,"▁알겠네":15398,"▁요기":15399,"▁씨빨":15400,"▁누워":15401,"▁머전":15402,"▁구간":15403,"▁구별":15404,"▁구입":15405,"▁구해":15406,"▁구한다":15407,"▁말자":15408,"▁서부":15409,"▁문열어":15410,"▁김인":15411,"▁실업":15412,"▁살빠":15413,"▁살자":15414,"▁살까?":15415,"▁살만함?":15416,"▁장인":15417,"▁같으면":15418,"하네..":15419,"▁ᄋᄏ":15420,"▁ᄌ도":15421,"▁드릴":15422,"▁드라이":15423,"▁6강":15424,"▁타면":15425,"▁현생":15426,"▁디비":15427,"▁10뽑":15428,"▁나오기":15429,"▁나오나":15430,"▁않아?":15431,"▁망치":15432,"▁토착":15433,"▁후계":15434,"▁확챠":15435,"▁반짝":15436,"▁네캐":15437,"해야할":15438,"▁국방":15439,"▁위키":15440,"▁ᄋᄋ?":15441,"▁눈감":15442,"▁죽었":15443,"▁양산":15444,"▁엘리스":15445,"거같지":15446,"잖아?":15447,"▁찍은거":15448,"▁건들":15449,"▁잡기":15450,"▁홍콩":15451,"▁욕을":15452,"▁속옷":15453,"▁접고":15454,"▁접었":15455,"▁터져":15456,"▁1200":15457,"▁잠원":15458,"▁업로드":15459,"▁허구":15460,"▁편갤":15461,"▁싫은데":15462,"▁뿡은":15463,"▁창고":15464,"▁ᄆᄆ":15465,"▁엔진":15466,"다는걸":15467,"▁올라오는":15468,"▁컨포":15469,"냐고?":15470,"▁나왔음":15471,"▁흑화":15472,"▁급발진":15473,"▁봉염":15474,"▁넣은":15475,"▁먼지":15476,"▁변호사":15477,"▁청춘":15478,"▁궁금함":15479,"▁s7":15480,"▁엠갤":15481,"▁식물":15482,"▁퍼포":15483,"게임은":15484,"이었음?":15485,"▁최고야":15486,"▁ᄇᄇ":15487,"▁DLC":15488,"▁희생":15489,"▁ᄆᄐᄎ??":15490,"▁기안이":15491,"▁뿌릴":15492,"▁갔네":15493,"▁수영장":15494,"친구가":15495,"▁말고는":15496,"▁여친사":15497,"▁귀엽지":15498,"▁미래를":15499,"▁인간적으로":15500,"180":15501,"▁불쌍하다":15502,"▁닮았":15503,"))))":15504,"▁관심이":15505,"▁호감도":15506,"▁마이너스":15507,"▁세상이":15508,"▁못하겠음":15509,"▁밸런":15510,"▁가끔씩":15511,"메이징":15512,"▁날씨가":15513,"▁올스타전":15514,"▁부럽네":15515,"▁쳐맞고":15516,"▁엘리시움":15517,"▁어디갔어":15518,"▁렌즈":15519,"8/13":15520,"▁둘이서":15521,"▁배고파서":15522,"하신분":15523,"▁경찰서":15524,"스포츠":15525,"▁아재들":15526,"▁이팀은":15527,"▁10월에":15528,"▁똥꼬쇼":15529,"▁궁금한점":15530,"▁널널":15531,"▁죠죠":15532,"▁텍사스":15533,"▁춘향이":15534,"▁괴수8호":15535,"▁잼민이들":15536,"▁제2의":15537,"▁유부녀":15538,"▁복학왕":15539,"▁mbti":15540,"▁자괴감":15541,".c":15542,"1등":15543,"150":15544,"37":15545,"89":15546,"gv":15547,"im":15548,"tw":15549,"vi":15550,"ᄊᄊ":15551,"▁음?":15552,"가스":15553,"가족":15554,"걸려서":15555,"고소":15556,"긴하지":15557,"누나가":15558,"닮은":15559,"돈으로":15560,"되냐??":15561,"득점":15562,"라시":15563,"라는건":15564,"러감":15565,"려?":15566,"무지":15567,"바꿈":15568,"보로":15569,"봊돌":15570,"색으로":15571,"시청":15572,"신의":15573,"쓰는게":15574,"씨팔":15575,"아까":15576,"아파트":15577,"안남":15578,"안한":15579,"안하냐":15580,"야해":15581,"없어도":15582,"역전":15583,"였던거":15584,"있었네":15585,"자인데":15586,"저것":15587,"점차":15588,"제외":15589,"젤라":15590,"주머니":15591,"중간":15592,"쪽에":15593,"쪽에서":15594,"택이":15595,"패고":15596,"플이":15597,"피자":15598,"핫산":15599,"했으니":15600,"▁이랬":15601,"▁이민호":15602,"▁이메일":15603,"▁아몬":15604,"▁아몰":15605,"▁어든":15606,"▁어마":15607,"▁오메가":15608,"▁그마":15609,"▁그레이":15610,"▁그린거":15611,"▁사야지":15612,"▁보단":15613,"▁시라":15614,"▁가드":15615,"▁진파":15616,"▁2정":15617,"▁2트":15618,"▁한발":15619,"▁뭐였":15620,"▁대검":15621,"▁정모":15622,"▁정복":15623,"▁자다":15624,"▁아니지만":15625,"▁미쿠":15626,"▁고무":15627,"▁신석":15628,"▁신은":15629,"▁신형":15630,"▁전적":15631,"▁잘되":15632,"▁못하냐":15633,"▁주연":15634,"인데..":15635,"▁공약":15636,"▁비가":15637,"▁바꿈":15638,"▁바는데":15639,"▁우편":15640,"▁만나는":15641,"▁부심":15642,"▁상반기":15643,"▁와!":15644,"▁와이지":15645,"▁4장":15646,"▁리코":15647,"ᅳᅳᅳ":15648,"▁파게":15649,"▁파랑":15650,"▁코가":15651,"▁영광":15652,"▁영어로":15653,"▁성향":15654,"▁씨발년들":15655,"▁에버":15656,"▁얼빠":15657,"▁피닉":15658,"▁되는게":15659,"▁프런트":15660,"▁키리":15661,"▁쓰다":15662,"▁돌면":15663,"▁ᄌᄇ":15664,"▁차지":15665,"▁본진":15666,"부터는":15667,"▁입대":15668,"▁디트":15669,"▁10렙":15670,"▁않노":15671,"▁패고":15672,"▁치마":15673,"▁망해":15674,"▁망해서":15675,"▁캐스팅":15676,"▁ᄉᄇᄏᄏᄏ":15677,"하는거보면":15678,"▁반드시":15679,"▁브로":15680,"▁단관":15681,"▁커서":15682,"▁병신짓":15683,"▁병신임?":15684,"▁병신같음":15685,"▁때도":15686,"▁들어올":15687,"▁짤이":15688,"▁따리":15689,"▁꼴보기":15690,"▁틀니":15691,"▁위클리":15692,"▁복근":15693,"▁복장":15694,"▁재밌노":15695,"▁삼성이":15696,"▁하는짓":15697,"▁엘베":15698,"나오냐?":15699,"▁설사":15700,"▁플탐":15701,"▁플폼":15702,"▁까이":15703,"▁빠는거":15704,"▁볼수":15705,"▁안되는게":15706,"▁통상":15707,"▁쳐도":15708,"▁30일":15709,"▁터져서":15710,"▁터졌다":15711,"▁폭락":15712,"▁폭주":15713,"▁목숨":15714,"하나요":15715,"▁허접":15716,"▁학벌":15717,"▁임병욱":15718,"토리얼":15719,"지마세요":15720,"▁올라갈":15721,"▁철구랑":15722,"▁행님들":15723,"▁젤리":15724,"▁산맥":15725,"▁놀이":15726,"▁암튼":15727,"▁섹파":15728,"▁청와":15729,"▁pk":15730,"▁축제":15731,"▁나올까?":15732,"▁나올때까지":15733,"▁슈화":15734,"▁돼공":15735,"▁Apple":15736,"111":15737,"▁높게":15738,"▁실화?":15739,"▁꼬마승":15740,"▁ᄏᄏᄏᄏᄏᄏᄏᄏᄏᄏᄏᄏᄏᄏᄏᄏᄏᄏᄏᄏᄏᄏᄏᄏᄏᄏᄏᄏ":15741,"▁칼로":15742,"▁칼삭":15743,"▁봊친":15744,"▁빅토":15745,"▁케이블":15746,"▁미국에서":15747,"▁MD":15748,"▁개꿀이네":15749,"▁데려온":15750,"▁개인적인":15751,"▁기다릴":15752,"하러간다":15753,"▁옆동네":15754,"▁읽고":15755,"▁줘라":15756,"▁쌍둥이":15757,"▁인간이":15758,"▁얻어":15759,"▁얻을":15760,"▁늦은":15761,"▁왔다(설X)":15762,"만들기":15763,"▁알고리즘":15764,"▁샌드":15765,"▁뽕숭아":15766,"▁예전부터":15767,"건가요?":15768,"▁ᄎᄏ":15769,"▁하기싫":15770,"줄알고":15771,"▁귀찮다":15772,"이쁘다":15773,"▁아쉬움":15774,"속도로":15775,"▁39.7":15776,"▁가을야구":15777,"▁잘나가는":15778,"▁워녕아":15779,"▁욱일기":15780,"▁상렬이":15781,"▁[영탁마갤]":15782,"▁이누야샤":15783,"각개][":15784,"갤]DUMDi":15785,"'m":15786,".j":15787,"ST":15788,"ee":15789,"~6":15790,"▁겟":15791,"▁릭":15792,"▁는게":15793,"가에":15794,"갈이":15795,"곳에":15796,"규민":15797,"기한":15798,"긴거":15799,"네이":15800,"녀석":15801,"대학":15802,"대는거":15803,"도됨?":15804,"돌리면":15805,"될거":15806,"두기":15807,"두부":15808,"때만":15809,"말을":15810,"말투":15811,"문은":15812,"민지":15813,"비슷":15814,"사나이":15815,"섭은":15816,"세는":15817,"스파":15818,"업적":15819,"엘마":15820,"오지네":15821,"왜케":15822,"우니까":15823,"워크":15824,"월급":15825,"이리":15826,"이었다":15827,"일반":15828,"일어나":15829,"있노?":15830,"자욱":15831,"전화":15832,"점기":15833,"점에":15834,"정돈":15835,"져?":15836,"종류":15837,"좋겟다":15838,"진국":15839,"찍는":15840,"청소":15841,"추는":15842,"포카":15843,"하라는":15844,"한잔":15845,"해졌":15846,"▁이민":15847,"▁이탈":15848,"▁아버":15849,"▁어버":15850,"▁1주":15851,"▁1-2":15852,"▁안산":15853,"▁안시":15854,"▁하시":15855,"▁하겠다":15856,"▁하한가":15857,"▁그딴":15858,"▁사고싶다":15859,"▁보트":15860,"▁가난":15861,"▁가고싶다":15862,"▁진정":15863,"▁개쌍":15864,"▁개아":15865,"▁한놈":15866,"▁한때":15867,"▁한성":15868,"▁여서":15869,"▁대공":15870,"▁대참사":15871,"▁정발":15872,"▁정배":15873,"▁마공":15874,"▁마신":15875,"▁없냐??":15876,"▁무작":15877,"▁존맛":15878,"▁3달":15879,"▁인우":15880,"▁인지도":15881,"▁자가격":15882,"...JPG":15883,"▁고나":15884,"▁고유":15885,"▁고작":15886,"▁좆되":15887,"▁전생":15888,"▁전시":15889,"▁못돌":15890,"▁못자":15891,"▁못하냐?":15892,"▁제우스":15893,"▁주안":15894,"▁주운":15895,"▁주주":15896,"▁비틀":15897,"▁소고기":15898,"▁바?":15899,"▁우라":15900,"▁만년":15901,"▁만에":15902,"▁거미":15903,"▁부가":15904,"▁요원":15905,"▁중반":15906,"▁더럽게":15907,"들이네":15908,"▁[20":15909,"▁[각개][":15910,"▁레시피":15911,"▁구미":15912,"▁파도":15913,"▁파울":15914,"▁파푸":15915,"▁파오후":15916,"▁트통령":15917,"▁시발년아":15918,"▁ᄉᄆᄋᄌ":15919,"▁말라":15920,"▁경민이":15921,"▁되기":15922,"▁세개":15923,"▁세종":15924,"▁세키로":15925,"▁프롬":15926,"▁살거":15927,"▁할줄":15928,"▁메츠":15929,"▁드레":15930,"▁6인":15931,"▁씹사기":15932,"▁79":15933,"▁토무":15934,"▁언제나오냐":15935,"▁초밥":15936,"▁초창기":15937,"▁하나하나":15938,"▁크롬":15939,"▁단기":15940,"▁손으로":15941,"▁티원":15942,"▁꼴아":15943,"▁질문받는다":15944,"▁삼탈워":15945,"▁관한":15946,"▁양로":15947,"▁걸려서":15948,"거같아서":15949,"▁설탕":15950,"▁플러스":15951,"▁루미":15952,"▁찍음":15953,"▁출산":15954,"▁천원":15955,"▁시작해서":15956,"▁교대":15957,"▁목걸이":15958,"▁괜춘":15959,"▁허락":15960,"▁월간":15961,"▁온갖":15962,"▁용인":15963,"▁군머":15964,"▁채연이":15965,"▁팬텀":15966,"▁종로":15967,"▁종특":15968,"▁등교":15969,"▁쿠르":15970,"▁미친놈들":15971,"▁0.8":15972,"▁환산":15973,"▁ᄂᄀ":15974,"▁찾기":15975,"▁이벤트는":15976,"▁흑성배":15977,"▁해야됨":15978,"▁봉인":15979,"▁넣는":15980,"▁나온다고":15981,"▁17년":15982,"▁딜이":15983,"▁서버는":15984,"▁선수맞추기":15985,"▁쉬움":15986,"▁유튜브에서":15987,"▁ver":15988,"▁ap":15989,"▁쥬짱":15990,"▁풍성":15991,"▁높음":15992,"▁떠서":15993,"▁진각일러":15994,"▁믿음":15995,"▁팩트는":15996,"▁근황...jpg":15997,"▁갔으면":15998,"▁핑계":15999,"▁보내고":16000,"▁사라진":16001,"▁털어":16002,"▁lpl":16003,"▁셀프":16004,"▁젠지가":16005,"▁ch":16006,"▁어쩌냐":16007,"게이머":16008,"▁억까":16009,"▁싸우는거":16010,"▁보여주는":16011,"▁탄산":16012,"▁탄압":16013,"▁웹소":16014,"▁김치찌개":16015,"▁한명도":16016,"▁벨라":16017,"▁반응이":16018,"▁런던":16019,"▁즐겜":16020,"▁성형외과":16021,"▁보은을":16022,"▁역대급으로":16023,"▁hd":16024,"▁ᄃᄃᄃᄃᄃᄃᄃ":16025,"▁트레일러":16026,"one":16027,"▁장난감":16028,"▁커엽네":16029,"지말자":16030,"▁이것저것":16031,"▁모바일겜":16032,"▁좋았던":16033,"▁개꿀잼이네":16034,"수정)":16035,"▁마나카":16036,"▁지각[":16037,"▁자존감":16038,"▁로켓펀치":16039,"ᄌᄋ)":16040,"▁노블레스":16041,"자총]":16042,"▁합리적":16043,"▁무지개":16044,"▁김유식":16045,"▁냉정하게":16046,"▁휴대폰":16047,":55]":16048,"▁에이치엘비":16049,"둥세웠탁(설쉬)":16050,".ᄏ":16051,".20":16052,"/30":16053,"44":16054,"s7":16055,"us":16056,"ᄊᄇ":16057,"▁션":16058,"▁>>":16059,"▁!!!":16060,"▁@@@":16061,"각인":16062,"각인데":16063,"것네":16064,"게이들":16065,"고리":16066,"교사":16067,"기아":16068,"긴했는데":16069,"나다":16070,"너프":16071,"높은":16072,"덱스":16073,"동에":16074,"되나요?":16075,"두근":16076,"들임":16077,"려하는데":16078,"망한":16079,"매칭":16080,"먹금":16081,"먹는게":16082,"못하네":16083,"박는":16084,"박살":16085,"받으":16086,"버기":16087,"버닝":16088,"볼만":16089,"비드":16090,"사삭":16091,"살다":16092,"석환":16093,"수랑":16094,"수치":16095,"스윙":16096,"씹창":16097,"안치고":16098,"어워즈":16099,"없으니":16100,"오베":16101,"오라고":16102,"온이":16103,"우유":16104,"위한":16105,"이자":16106,"이어도":16107,"일이고":16108,"입장에서":16109,"있을때":16110,"자몽":16111,"잘하는":16112,"저브":16113,"점프":16114,"준표":16115,"진출":16116,"짤이":16117,"처가":16118,"크래":16119,"탱크":16120,"테르":16121,"합니":16122,"해봤":16123,"헤더":16124,"흑발":16125,"▁아동":16126,"▁나에게":16127,"▁어메이징":16128,"▁1단":16129,"▁오선":16130,"▁오는거":16131,"▁그치":16132,"▁사투리":16133,"▁시련":16134,"▁가실분":16135,"▁있지?":16136,"▁한곡":16137,"▁한짤":16138,"▁여는":16139,"▁뭐씀?":16140,"▁기네":16141,"▁대진":16142,"▁마루":16143,"▁수전":16144,"▁수해":16145,"▁유형":16146,"하는구나":16147,"▁자산":16148,"▁자켓":16149,"▁미오":16150,"▁고교":16151,"▁고속":16152,"▁고척":16153,"▁좆뉴비":16154,"▁전복":16155,"▁해리":16156,"▁모양":16157,"▁비중":16158,"▁소재":16159,"▁우산":16160,"▁야린":16161,"▁야외":16162,"▁야붕이들":16163,"▁거북":16164,"▁부관":16165,"▁도발":16166,"▁도우":16167,"▁알겠는데":16168,"▁52":16169,"▁요샌":16170,"▁4k":16171,"▁4000":16172,"▁4시에":16173,"▁리바":16174,"▁리베":16175,"▁리퍼":16176,"▁리프":16177,"▁리플":16178,"▁라라":16179,"▁시발년들아":16180,"▁문어":16181,"들어서":16182,"▁연섭":16183,"▁먹었네":16184,"▁버릴":16185,"▁피아노":16186,"▁되냐??":16187,"▁장엄":16188,"▁장타":16189,"▁쓰다가":16190,"▁솔찍히":16191,"▁차원":16192,"▁6번":16193,"▁현강":16194,"▁현커":16195,"▁10명":16196,"▁몇까지":16197,"▁86":16198,"▁질다":16199,"▁7년":16200,"▁매주":16201,"▁데우스":16202,"▁발라":16203,"▁900":16204,"▁호그":16205,"▁호출":16206,"▁똥남아":16207,"▁20일":16208,"해야하는":16209,"해야한다":16210,"▁병신같네":16211,"▁들어서":16212,"▁들어갔는데":16213,"▁추천받음":16214,"▁물류":16215,"▁작아":16216,"▁두근":16217,"▁ᄋᄋ...":16218,"▁끝이":16219,"▁죽일":16220,"▁어제는":16221,"▁빠지":16222,"▁풀업":16223,"▁꼬꼬":16224,"▁잡은":16225,"▁들음":16226,"▁116":16227,"아니냐??":16228,"▁베타":16229,"▁접었는데":16230,"▁잠을":16231,"▁엄준식":16232,"▁찐오아":16233,"▁팬이":16234,"▁체리":16235,"애들도":16236,"▁괜찮음":16237,"▁머리에":16238,"▁나왔어":16239,"이유는":16240,"▁암흑":16241,"▁너네들":16242,"▁넣어도":16243,"▁인증한다":16244,"▁꿀잠":16245,"▁별로네":16246,"▁찬란":16247,"▁술먹고":16248,"▁빌지":16249,"▁정상이냐":16250,"▁정상이냐?":16251,"▁중국이":16252,"▁봤음":16253,"▁봊질":16254,"▁니네는":16255,".....gif":16256,"▁가축들아":16257,"▁캐릭터가":16258,"▁뇌피셜":16259,"▁n라인":16260,"▁끼워":16261,"▁기다리":16262,"▁흥미":16263,"▁기억이":16264,"▁물어보면":16265,"▁유동이":16266,"평가좀":16267,"안되는데":16268,"<<<<":16269,"▁노잼이네":16270,"▁젖닌":16271,"▁바이럴":16272,"▁2020/0":16273,"▁이후에":16274,"▁즐기는":16275,"▁사과문":16276,"▁냉면":16277,"▁뽀록":16278,"그래서":16279,"▁든다":16280,"▁메인퀘":16281,"▁유튜버들":16282,"▁액정":16283,"▁힙스터":16284,"▁규정":16285,"art":16286,"▁냄새가":16287,"▁이리야":16288,"▁김민교":16289,"▁달아줘":16290,"▁최강자":16291,"▁이겼다":16292,"▁프라임":16293,"▁콜로세움":16294,"▁스프링":16295,"▁당신의":16296,"▁스카이림":16297,"▁마츠리":16298,"▁[아이들갤]DUMDi":16299,"▁부유성":16300,"3은":16301,":10":16302,"OA":16303,"il":16304,"vlive":16305,"ᄎᄏ":16306,"▁텀":16307,"가시":16308,"같던데":16309,"갤플":16310,"거림":16311,"걸어":16312,"겟는데":16313,"경원":16314,"구조":16315,"그렇":16316,"까리":16317,"네ᄏᄏᄏᄏ":16318,"다며":16319,"달면":16320,"대문":16321,"데뷔":16322,"됐으면":16323,"렌즈":16324,"만인데":16325,"많노":16326,"먹엇":16327,"못함?":16328,"바바":16329,"법은":16330,"베이스":16331,"브로":16332,"사관":16333,"사회":16334,"사는데":16335,"사이에":16336,"상품":16337,"색히":16338,"서야":16339,"솔직히":16340,"수용":16341,"시퍼":16342,"아니다":16343,"안된다":16344,"양심":16345,"어치":16346,"어택":16347,"어??":16348,"억에":16349,"여러":16350,"영혼":16351,"오냐?":16352,"와야지":16353,"운대":16354,"울때":16355,"유전":16356,"이전":16357,"일정":16358,"작전":16359,"장인":16360,"정석":16361,"져스":16362,"주도":16363,"주현":16364,"줘요":16365,"줬네":16366,"즈]":16367,"직이":16368,"진듯":16369,"집이":16370,"쯤은":16371,"차기":16372,"캐르":16373,"콜라보":16374,"키보드":16375,"판다":16376,"팬이":16377,"할수있는":16378,"해봐라":16379,"해줌?":16380,"했구나":16381,"▁이빨":16382,"▁이스":16383,"▁나지":16384,"▁어림":16385,"▁어을까":16386,"▁안빠":16387,"▁그는":16388,"▁지휘":16389,"▁지새끼":16390,"는거아님?":16391,"▁가구":16392,"▁가이아":16393,"▁2번째":16394,"▁2,3":16395,"▁있을거":16396,"▁개줌마":16397,"▁한건":16398,"▁한다는":16399,"▁한자리":16400,"▁내역":16401,"▁내보내":16402,"▁뭐하냐?":16403,"▁기하":16404,"▁대게":16405,"▁대행":16406,"▁정후":16407,"▁오늘까지":16408,"▁마기":16409,"▁좋겠노":16410,"▁없는건":16411,"▁유통":16412,"▁유인원":16413,"▁무협":16414,"▁아니긔?":16415,"▁좆물":16416,"▁전남":16417,"▁전함":16418,"▁전부터":16419,"▁모은":16420,"▁못봤":16421,"▁못하는게":16422,"인데요":16423,"▁소모":16424,"▁소희":16425,"▁바란":16426,"▁우려":16427,"▁야갤에서":16428,"▁만하면":16429,"▁부주":16430,"▁방빼":16431,"▁5월":16432,"▁요괴":16433,"▁재개":16434,"▁재화":16435,"▁누누":16436,"▁[흑발":16437,"▁리니지":16438,"▁파생":16439,"▁파카":16440,"▁라그":16441,"▁시발년":16442,"▁추석":16443,"▁에펙":16444,"▁프롱":16445,"▁프레이":16446,"▁살살":16447,"▁예매":16448,"▁장성우":16449,"▁같다.":16450,"▁박경":16451,"▁로맨":16452,"붕이가":16453,"▁타선":16454,"▁타이거":16455,"▁현식":16456,"▁동인지":16457,"▁나오겠지?":16458,"▁받으":16459,"▁토막":16460,"▁초견":16461,"▁점마":16462,"▁화해":16463,"▁커맨":16464,"▁새기들":16465,"▁재밌을":16466,"▁블리치":16467,"▁관음":16468,"▁철혈":16469,"▁양석환":16470,"▁걸로":16471,"▁엘프":16472,"▁평일":16473,"▁ᄌᄂ잘":16474,"▁설계":16475,"ᄏᄏᄏᄏᄏᄏᄏᄏᄏᄏᄏᄏᄏᄏᄏᄏᄏᄏᄏᄏ":16476,"▁열매":16477,"▁루탑":16478,"▁건너":16479,"▁민호":16480,"▁보고있는데":16481,"지않노":16482,"▁들었":16483,"▁뽑았":16484,"▁약핑":16485,"▁갓본":16486,"▁막말로":16487,"▁11강":16488,"아니노":16489,"▁30초":16490,"▁폭창":16491,"▁폭파":16492,"▁폭숭이":16493,"▁잠안":16494,"▁롤갤":16495,"▁채우":16496,"▁채집":16497,"▁임롬":16498,"▁엔비":16499,"▁문제야":16500,"고있어":16501,"▁종족":16502,"▁쓸때":16503,"▁놀라":16504,"▁팀전":16505,"▁sns":16506,"▁지랄하네":16507,"▁이해하면":16508,"▁폴크":16509,"▁엠넷":16510,"▁슈라우드":16511,"▁기대됨":16512,"▁잇는데":16513,"▁최고다":16514,"▁DM":16515,"▁답장":16516,"▁이미지가":16517,"▁귀여운데":16518,"▁빼박":16519,"▁될까?":16520,"30분":16521,"▁알바가":16522,"▁아이돌라이브":16523,"▁한남이":16524,"▁갔다가":16525,"▁샤먼":16526,"하긴하네":16527,"▁굴러":16528,"▁알아?":16529,"▁공지에":16530,"▁평가점":16531,"▁뇌가":16532,"▁키우는데":16533,"▁엄마한테":16534,"▁fine":16535,"▁님들이":16536,"▁좃..":16537,"▁랭매":16538,"▁컷신":16539,"▁멋있":16540,"▁챙기":16541,"▁쓴거":16542,"▁나옴??":16543,"▁바꿔야":16544,"메라기":16545,"▁웃기지":16546,"▁상위호환":16547,"▁알고보니":16548,"▁즐겁":16549,"▁레벨업":16550,"▁띵군":16551,"▁끄고":16552,"▁바르셀로나":16553,"▁폼이":16554,"▁텐텐":16555,"스럽네":16556,"▁최소한":16557,"▁안들어가":16558,"▁역겨움":16559,"▁키스방":16560,"zzzz":16561,"▁모의고사":16562,"▁가든이":16563,"▁[오마이걸갤]살짝설어":16564,"▁컬러":16565,"▁ᄋᄀᄅ":16566,"▁수록곡":16567,"▁오락실":16568,"▁ᄂ짤녀":16569,"▁이우성":16570,"▁마누라":16571,"▁[한승우]":16572,"▁[흑발짤드컵]":16573,"'s":16574,"1이":16575,"3인데":16576,"4개":16577,"FC":16578,"NS":16579,"hwa":16580,"uv":16581,"~8":16582,"ᄇᄉ":16583,"▁뻐":16584,"▁였":16585,"▁험":16586,"▁댐?":16587,"건드":16588,"걸까?":16589,"곳에서":16590,"공연":16591,"과거":16592,"글로":16593,"기운":16594,"꾸라":16595,"낌?":16596,"났으면":16597,"넣어":16598,"닮음":16599,"더레":16600,"돌릴":16601,"두가":16602,"뒤져":16603,"디코":16604,"떳는데":16605,"레티":16606,"로윈":16607,"론이":16608,"롭다":16609,"리뷰":16610,"리시":16611,"린건":16612,"매치":16613,"먼스":16614,"문의":16615,"바니":16616,"방학":16617,"번역":16618,"뻔함":16619,"사과":16620,"상화":16621,"선을":16622,"센치":16623,"셈?":16624,"셔야":16625,"소스":16626,"스에서":16627,"십니까?":16628,"쓴거":16629,"아다":16630,"아티":16631,"연기":16632,"엿는데":16633,"예나":16634,"올린":16635,"용은":16636,"우울":16637,"은행":16638,"있나요":16639,"전엔":16640,"정원":16641,"정치":16642,"졌나":16643,"준은":16644,"지각":16645,"찍었는데":16646,"철이":16647,"친년들":16648,"크루":16649,"퇴물":16650,"파딱":16651,"페는":16652,"페도":16653,"폭로":16654,"한끼":16655,"한새끼":16656,"함..":16657,"▁아근데":16658,"▁나카":16659,"▁나는데":16660,"▁나라가":16661,"▁나루토":16662,"▁나세실":16663,"▁1장":16664,"▁오진다":16665,"▁오징어":16666,"▁안쓸":16667,"▁하니깐":16668,"▁하려는데":16669,"▁사일":16670,"▁다신":16671,"▁다이나":16672,"▁보고싶네":16673,"▁지팡이":16674,"는거같음":16675,"▁2라":16676,"▁2할":16677,"▁2천원":16678,"▁개많네":16679,"▁한끼":16680,"▁스나":16681,"▁스즈":16682,"▁뭐지?":16683,"▁뭐시기":16684,"▁기기":16685,"▁정당":16686,"▁정품":16687,"▁마냥":16688,"▁수십":16689,"▁무기는":16690,"▁존잼":16691,"▁3셋":16692,"▁3스":16693,"▁3월":16694,"▁3할":16695,"▁인피":16696,"▁자도":16697,"▁미녀":16698,"▁고싶":16699,"▁저정도":16700,"▁잘던":16701,"▁잘맞":16702,"▁잘해서":16703,"▁이거봐":16704,"▁주무":16705,"▁비즈":16706,"▁소통":16707,"▁거는":16708,"▁거인":16709,"▁올타임":16710,"▁조리":16711,"▁도아":16712,"▁알티":16713,"▁중력":16714,"▁재생":16715,"▁더쇼":16716,"▁상한":16717,"▁4월":16718,"▁[삼성라이온":16719,"▁머라고":16720,"▁남견":16721,"▁리옹":16722,"▁리트":16723,"▁파리가":16724,"▁라노":16725,"▁성냥":16726,"▁추미":16727,"▁연말":16728,"▁살아야":16729,"▁배제성":16730,"▁장신":16731,"▁장시환":16732,"▁ᄌ밥":16733,"......jpg":16734,"▁차량":16735,"▁6시에":16736,"이네..":16737,"▁니새끼":16738,"▁타겟":16739,"▁씹새끼들":16740,"▁포갤":16741,"▁포포":16742,"▁10시간":16743,"▁몇렙":16744,"▁동정":16745,"▁토익":16746,"▁후르츠":16747,"▁호크":16748,"▁브라운":16749,"▁은혼":16750,"▁단점이":16751,"▁똥견들":16752,"던데?":16753,"▁2017":16754,"하다.":16755,"▁네코":16756,"▁좋아함?":16757,"▁달소":16758,"▁티끌":16759,"▁분양":16760,"▁처분":16761,"▁적극":16762,"▁갈리는":16763,"▁간식":16764,"▁설리":16765,"▁음침":16766,"▁금토":16767,"▁풀셋":16768,"▁루키":16769,"해도됨?":16770,"▁들박":16771,"▁들부들":16772,"▁막심":16773,"▁통계":16774,"▁갑분":16775,"▁시작한지":16776,"▁30퍼":16777,"▁왔으면":16778,"▁왔쎄리":16779,"▁벌크업":16780,"▁허위":16781,"▁온거":16782,"▁학살":16783,"▁창모":16784,"▁창키":16785,"▁창술사":16786,"▁채원":16787,"▁악역":16788,"기가능":16789,"▁체지방":16790,"▁워터":16791,"▁05":16792,"▁킹갓":16793,"ᄃᄃᄃᄃᄃ":16794,"▁봉사":16795,"▁깨는":16796,"▁빡침":16797,"▁그러게":16798,"▁확실한":16799,"▁하는거냐?":16800,"▁50%":16801,"▁잇음":16802,"▁av":16803,"▁높네":16804,"▁항공":16805,"▁기사단":16806,"▁뿌듯":16807,"▁보는중":16808,"▁아까워":16809,"▁똑같네":16810,"▁주식으로":16811,"이어폰":16812,"▁인스타스토리":16813,"▁삼성생명":16814,"▁좌빨":16815,"▁데려가":16816,"▁범계":16817,"▁lg":16818,"▁덱리":16819,"▁bd":16820,"??????????":16821,"▁60렙":16822,"▁기억에":16823,"▁랭겜":16824,"하는건가":16825,"▁장현식이":16826,"▁경원무기":16827,"아님)":16828,"▁응원가":16829,"▁격투":16830,"▁원탑은":16831,"▁않았나":16832,"▁ᄇᄉ들아":16833,"................":16834,"▁즐기":16835,"▁땡칠":16836,"▁샌드백":16837,"▁민주당이":16838,"▁포기하고":16839,"▁찬또는":16840,"▁안돼?":16841,"▁키보드커버":16842,"신곡보은왔":16843,"▁좋았을텐데":16844,"▁이딴거":16845,"▁심각한":16846,"▁[강동호":16847,"▁자고일어":16848,"▁리얼미터":16849,"▁게시물":16850,"▁기간제":16851,"▁대결)":16852,"▁아티스트상":16853,"▁플래티넘":16854,"▁에피소드":16855,"▁올림픽":16856,"▁미사키":16857,"힘들다":16858,"▁동양인":16859,"▁정은원":16860,"▁이영하":16861,"▁도감작":16862,"▁어렸을때":16863,"▁블래스터":16864,"▁숨겨진":16865,"▁이낙연":16866,"▁나성범":16867,".18":16868,":50":16869,"EN":16870,"OR":16871,"ble":16872,"▁낀":16873,"▁랙":16874,"▁았":16875,"▁햇는데":16876,"걸그룹":16877,"경쟁":16878,"경찰":16879,"경기는":16880,"고딩":16881,"공시":16882,"구제":16883,"군데":16884,"글을":16885,"급식":16886,"깅스":16887,"나왓":16888,"나카":16889,"나왔네":16890,"내로":16891,"냄?":16892,"다닌":16893,"달성":16894,"달라는":16895,"돌리고":16896,"되니":16897,"둘이":16898,"든지":16899,"떡이":16900,"랭이":16901,"러시":16902,"력으로":16903,"렸다고":16904,"리니":16905,"마지막":16906,"만듬":16907,"매직":16908,"모니터":16909,"미랑":16910,"밀어":16911,"비에":16912,"사냐?":16913,"선에서":16914,"손해":16915,"수만":16916,"아르":16917,"아..":16918,"앗어":16919,"애기":16920,"없어?":16921,"여우":16922,"연예인":16923,"오류":16924,"올까":16925,"와요":16926,"왕이":16927,"웨어":16928,"이들아":16929,"이미지":16930,"인격":16931,"일수록":16932,"있어요":16933,"적인거":16934,"좀해":16935,"주소":16936,"질거":16937,"참여":16938,"창초":16939,"찾음":16940,"쳐먹":16941,"초돌":16942,"충)":16943,"카도":16944,"타점":16945,"태양":16946,"택신":16947,"털이":16948,"파일":16949,"필름":16950,"합시다":16951,"해...":16952,"현실":16953,"혐오":16954,"화에":16955,"회수":16956,"▁이치":16957,"▁아방":16958,"▁나은듯":16959,"▁어야":16960,"▁오니":16961,"▁오냐?":16962,"▁오만에":16963,"▁안망":16964,"▁안오네":16965,"▁안그래도":16966,"▁하긔":16967,"▁그랜드":16968,"▁사형":16969,"▁사다리":16970,"▁다꾸":16971,"▁보구가":16972,"▁지령":16973,"▁지성":16974,"▁시각":16975,"는거면":16976,"▁가망":16977,"▁2호기":16978,"▁개좋아":16979,"▁한동안":16980,"▁한그오":16981,"▁근갤":16982,"▁스톤":16983,"▁내게":16984,"▁마부":16985,"▁유아":16986,"하는애":16987,"▁인장":16988,"▁아니겠지?":16989,"▁미련":16990,"▁미소":16991,"▁미칠":16992,"▁저지랄":16993,"▁신사":16994,"▁못해도":16995,"▁제네":16996,"▁공기":16997,"▁공모":16998,"▁공팟":16999,"▁비스":17000,"▁노브":17001,"▁만져":17002,"▁만지":17003,"▁올드":17004,"▁부서":17005,"▁조유리":17006,"▁도루":17007,"▁54":17008,"▁재방":17009,"▁머노":17010,"▁리드":17011,"▁리마스터":17012,"▁구데기":17013,"▁파비":17014,"▁문법":17015,"▁원킬":17016,"▁원거리":17017,"▁김용":17018,"▁맞은":17019,"▁맞춘":17020,"▁추어":17021,"들어가":17022,"이랑은":17023,"▁연계":17024,"▁연휴":17025,"▁먹어서":17026,"▁경영":17027,"▁피로도":17028,"▁프레나":17029,"▁프록시":17030,"▁장영":17031,"▁최다":17032,"▁쓰러":17033,"▁로코":17034,"▁돌리는거":17035,"▁드론":17036,"▁불행":17037,"▁포항":17038,"▁입구":17039,"▁입시":17040,"▁동갤":17041,"▁나오긴":17042,"▁나오는게":17043,"▁않을":17044,"▁감?":17045,"▁글케":17046,"▁호환":17047,"▁우리랑":17048,"▁우리랜드":17049,"▁얘기는":17050,"▁화룡":17051,"▁병신같":17052,"▁달리기":17053,"▁들어왔":17054,"▁들어와서":17055,"▁짤좀":17056,"▁물총":17057,"▁두려":17058,"▁처맞":17059,"▁재밌긴":17060,"▁재밌지":17061,"▁관종":17062,"▁양반":17063,"▁간장":17064,"▁어제자":17065,"▁클러":17066,"▁봐주셈":17067,"▁백종":17068,"▁뽑음":17069,"▁뽑을까":17070,"▁새끼야":17071,"▁통통":17072,"▁쳐먹":17073,"▁던지는":17074,"▁던린이":17075,"▁길전":17076,"라이크":17077,"▁편입":17078,"▁롤망호":17079,"만원짜리":17080,"▁남자들이":17081,"▁군수":17082,"▁악개":17083,"할때까지":17084,"고있노":17085,"▁올라왔네":17086,"▁헤비":17087,"▁좆같노":17088,"▁애미애비":17089,"▁등산":17090,"▁판테":17091,"▁ᅲᅲᅲᅲᅲᅲᅲᅲᅲᅲ":17092,"▁넣어야":17093,"▁빡센":17094,"▁좋겠다.":17095,"▁그만해라":17096,"▁푸딩":17097,"하자면":17098,"▁올려서":17099,"▁안나온다":17100,"▁Tr":17101,"이었구나":17102,"▁ᄇᄋ":17103,"123":17104,"▁이새끼가":17105,"▁쇼케이스":17106,"하고싶은":17107,"▁왕자":17108,"▁mvp":17109,"▁P0":17110,"▁PS":17111,"▁PV":17112,"▁혐짤":17113,"▁좆같은점":17114,"해줘야":17115,"▁밤샘":17116,"▁알아보는":17117,"▁슼타":17118,"▁슼없찐":17119,"▁KBO":17120,"▁현실적으로":17121,"▁질문좀요":17122,"▁녹화":17123,"▁실시간으로":17124,"▁유니콘":17125,"▁CG":17126,"▁젖꼭":17127,"▁ᄇᄉ들":17128,"▁김태진이":17129,"▁탁옵":17130,"▁중고나라":17131,"▁협박":17132,"▁2년전":17133,"▁ht":17134,"▁신곡보은왔":17135,"anhwa":17136,"▁발작버튼":17137,"▁액션":17138,"▁느껴짐":17139,"트리온":17140,"▁스마일":17141,"▁yg":17142,"▁메모리즈":17143,">>>>>":17144,"▁다크소울":17145,"▁텔레":17146,"▁개웃기":17147,"▁수상소감":17148,"▁시원하게":17149,"▁드랍률":17150,"▁간단한":17151,"▁모델링":17152,"▁래퍼":17153,"▁일진들":17154,"▁뜬금없이":17155,"▁튜닝":17156,"▁비동의강간":17157,"▁아름다운":17158,"▁스키즈":17159,"▁로갓하고":17160,"▁당당하게":17161,"▁고치돈":17162,"png":17163,"▁너만오면":17164,"▁61,":17165,"▁괴담동":17166,"▁개잡주":17167,"▁외노자":17168,"▁전형적인":17169,"▁미용실":17170,"▁[전소미]":17171,"▁토착왜":17172,"vlive갤]":17173,"-9":17174,":20":17175,":35":17176,"U.":17177,"ba":17178,"gm":17179,"tp":17180,"up":17181,"▁.gif":17182,"감정":17183,"강두":17184,"게도":17185,"경엽":17186,"고정":17187,"고양이":17188,"군은":17189,"극장":17190,"근로":17191,"꿀팁":17192,"낫네":17193,"내네":17194,"는듯":17195,"늦게":17196,"니언":17197,"달이":17198,"덱에":17199,"돌아가":17200,"동기":17201,"됐음":17202,"딱지":17203,"뜨는거":17204,"레일":17205,"렵다":17206,"만족":17207,"만따리":17208,"맛에":17209,"매일":17210,"방으로":17211,"보우":17212,"보이지":17213,"브는":17214,"샀다":17215,"셋팅":17216,"손실":17217,"수기":17218,"아줌마":17219,"야돼":17220,"여??":17221,"엽충":17222,"우라":17223,"을수록":17224,"의도":17225,"이치":17226,"주민":17227,"준호":17228,"진자":17229,"질때":17230,"집중":17231,"천지":17232,"카리":17233,"캐로":17234,"키치":17235,"터지":17236,"테니까":17237,"팅어":17238,"판정":17239,"팬인데":17240,"편은":17241,"플핸":17242,"피치":17243,"해보이":17244,"해진다":17245,"했대":17246,"했어도":17247,"현무":17248,"▁이세":17249,"▁이채":17250,"▁이펙트":17251,"▁아즈":17252,"..txt":17253,"▁어의":17254,"▁안깨":17255,"▁안봄":17256,"▁안이":17257,"▁하려나":17258,"▁사령":17259,"▁사리":17260,"▁사퇴":17261,"▁사나이":17262,"▁보이냐":17263,"▁가보자":17264,"▁진보":17265,"▁있는건":17266,"▁한류":17267,"▁마셈":17268,"▁좋다는":17269,"▁없던":17270,"▁없구나":17271,"▁없나요?":17272,"▁수라":17273,"▁유두":17274,"▁무도":17275,"▁무친":17276,"▁자다가":17277,"▁미는":17278,"▁저지":17279,"▁좆간지":17280,"▁전과":17281,"▁잘했네":17282,"▁해보자":17283,"▁해달라고":17284,"▁갤벤":17285,"▁주영":17286,"▁공성":17287,"▁공황":17288,"▁비참":17289,"▁비판":17290,"▁비하면":17291,"▁소금":17292,"▁너드":17293,"▁바리가":17294,"▁우한":17295,"▁야방":17296,"▁만드네":17297,"▁조커":17298,"▁조지고":17299,"▁도미":17300,"▁5등":17301,"▁5선발":17302,"▁상징":17303,"▁4개월":17304,"▁4500":17305,"▁많던데":17306,"▁구인":17307,"▁코크":17308,"▁말곤":17309,"▁원기":17310,"▁원투":17311,"다고??":17312,"▁김풍":17313,"▁카메":17314,"▁카이도":17315,"▁맞서":17316,"▁맞음??":17317,"▁선냐":17318,"▁생각도":17319,"▁에너지":17320,"▁먹으니까":17321,"▁되도":17322,"▁키고":17323,"▁로지":17324,"▁돌격":17325,"▁불판":17326,"▁본적이":17327,"▁아이큐":17328,"▁씹게이":17329,"▁몇장":17330,"▁8시간":17331,"▁망령":17332,"▁망천":17333,"▁감탄":17334,"▁발목":17335,"▁반값":17336,"▁여자로":17337,"▁외계":17338,"▁달리는":17339,"▁국회":17340,"▁짤털":17341,"▁가능성이":17342,"▁재밌겠다":17343,"인가??":17344,"▁특유의":17345,"▁눈을":17346,"▁적중":17347,"▁죽었다":17348,"▁양보":17349,"▁걸리네":17350,"▁집가서":17351,"▁히탄절":17352,"▁까글":17353,"▁음성":17354,"▁이상한데":17355,"▁루사":17356,"▁운이":17357,"▁볼까":17358,"지않음??":17359,"▁ᄀᄉ":17360,"▁112":17361,"▁골격":17362,"아니야":17363,"▁통베":17364,"▁홍련":17365,"▁천만":17366,"▁형제":17367,"▁모르겠어":17368,"▁광배":17369,"▁30살":17370,"▁터짐?":17371,"▁폭돼":17372,"▁과정":17373,"▁편지":17374,"▁합의":17375,"▁창작":17376,"▁군정":17377,"▁군주":17378,"▁친구들이랑":17379,"▁찐이야기":17380,"▁각자":17381,"▁워로드":17382,"▁등등":17383,"▁맛있어":17384,"▁철구방송":17385,"인거냐":17386,"▁얼굴만":17387,"▁해야하나":17388,"▁너네도":17389,"▁돌아오":17390,"▁지랄났네":17391,"▁182":17392,"▁185":17393,"▁폴리":17394,"▁애니컷":17395,"▁짜장면":17396,"▁확실하게":17397,"▁하는거냐":17398,"▁딸기":17399,"▁앚이":17400,"▁메이릴":17401,"▁인생을":17402,"▁재미있는":17403,"▁ak":17404,"▁떨어졌":17405,"▁콘솔":17406,"▁싫어함":17407,"▁뿌려":17408,"▁뿌리":17409,"▁있었음?":17410,"▁젠신병":17411,"▁현실은":17412,"▁무료연":17413,"▁마음을":17414,"▁기다리고":17415,"▁비슷한거":17416,"▁깔아":17417,"애미뒤진":17418,"아이디":17419,"▁유동으로":17420,"▁돌려도":17421,"이란거":17422,"▁길드원":17423,"▁저번주":17424,"▁끌올":17425,"이긴함":17426,"▁않았음?":17427,"▁런닝":17428,"▁ᅮᅮᅮ":17429,"▁아이즈원은":17430,"▁샌박이":17431,"▁갈아탄":17432,"메이커":17433,"▁네이마르가":17434,"▁118이":17435,"▁냉동":17436,"▁조용한":17437,"▁예쁜데":17438,"것같긔":17439,"▁짜증나네":17440,"▁조금씩":17441,"▁빈집":17442,"▁스피드":17443,"▁꾹찜충":17444,"▁살려줘":17445,"▁습관":17446,"▁단체짤드컵":17447,"▁정확한":17448,"▁판매량":17449,"▁부러움":17450,"▁윙크":17451,"▁스토리는":17452,"▁현대차":17453,"▁환상체":17454,"▁올랐네":17455,"▁라이트닝":17456,"버렸어":17457,"▁1.5배":17458,"▁선넘네":17459,"하지말라고":17460,"▁큼?":17461,"▁라오루":17462,"▁3연전":17463,"▁더러운":17464,"▁스타트업":17465,"▁김정숙":17466,"▁프리미엄":17467,"▁ᄇᄃᄇᄃ":17468,"마갤]I'm":17469,"▁충무공좌":17470,"▁ᄂᄋᄌ)":17471,"▁분위기가":17472,"-08-13":17473,"▁자가격리":17474,"-8":17475,".s":17476,".y":17477,"/1":17478,"1은":17479,"64":17480,"76":17481,"CD":17482,"IC":17483,"▁닝":17484,"▁었네":17485,"가면서":17486,"가보네":17487,"갓겜":17488,"것다":17489,"결승":17490,"결혼":17491,"그럼?":17492,"급여":17493,"난게":17494,"날씨":17495,"남았는데":17496,"내는거":17497,"놔서":17498,"니네":17499,"덕분에":17500,"도와":17501,"도착":17502,"독기":17503,"되었":17504,"디진":17505,"라구":17506,"레후":17507,"렸던":17508,"만하고":17509,"맘마":17510,"매물":17511,"목표":17512,"무료":17513,"보장":17514,"보려고":17515,"사업":17516,"상을":17517,"새벽":17518,"세로":17519,"시경":17520,"시너지":17521,"아섭":17522,"아...":17523,"야가":17524,"야말로":17525,"오?":17526,"원래":17527,"유니폼":17528,"의눈":17529,"이온":17530,"이새끼":17531,"일의":17532,"임..":17533,"자임":17534,"잡음":17535,"장미":17536,"적이고":17537,"전공":17538,"좆목":17539,"지.":17540,"찍었다":17541,"첫방":17542,"최강":17543,"친년":17544,"팔면":17545,"폭격":17546,"프티콘":17547,"하대":17548,"한수":17549,"해줬으면":17550,"해봤자":17551,"했을까":17552,"형제":17553,"형으로":17554,"희동":17555,"▁이달소":17556,"▁아만":17557,"▁어린이":17558,"▁1기":17559,"▁오가":17560,"▁오로":17561,"▁오르네":17562,"▁안붙":17563,"▁안친":17564,"▁안봐도":17565,"▁하프":17566,"▁하겠네":17567,"▁그릴":17568,"▁사탕":17569,"▁사운드":17570,"▁보리":17571,"▁보성아":17572,"▁지민이":17573,"▁시크":17574,"▁시호":17575,"▁가락":17576,"▁가본":17577,"▁210":17578,"▁2세트":17579,"▁왜그런":17580,"▁개방":17581,"▁개역겹":17582,"▁스시":17583,"▁스캐":17584,"▁내주":17585,"▁뭐하지":17586,"▁뭐라도":17587,"▁뭐노?":17588,"▁기면":17589,"▁대역":17590,"▁정기":17591,"▁좋았음":17592,"▁없더라":17593,"▁없다.":17594,"▁수용":17595,"▁무좆":17596,"▁3시에":17597,"▁3~4":17598,"▁인수":17599,"▁미스":17600,"▁고고":17601,"▁고말":17602,"▁저래":17603,"▁좆성":17604,"▁신선":17605,"▁전재산":17606,"▁잘살":17607,"▁해선":17608,"▁모른다":17609,
[...]
